<pad>	0
▁می	-3.98622
</s>	0
<unk>	0
▁های	-4.37246
▁ایران	-4.53362
▁است	-4.69072
▁شده	-4.80302
▁سال	-5.01183
▁یک	-5.01738
▁ها	-5.08629
▁کرده	-5.1671
▁است.	-5.25911
▁ای	-5.29022
▁تصویر	-5.29679
▁بود	-5.41133
▁گفته	-5.46586
▁خود	-5.6067
▁دو	-5.61466
▁بر	-5.67
▁کرونا	-5.81007
▁شد	-5.86263
▁آمریکا	-5.87708
▁پیش	-5.88613
▁کشور	-5.9145
▁گزارش	-5.92535
▁در	-5.93119
▁کرد	-5.94222
▁روز	-5.94444
▁ماه	-5.95338
▁فوتبال	-6.01508
▁بازی	-6.03354
▁بی	-6.04988
▁اعلام	-6.09884
▁گفت	-6.10144
▁تیم	-6.13944
▁قرار	-6.13944
▁شرکت	-6.15671
▁داده	-6.16499
▁یا	-6.20747
▁شود	-6.21619
▁دیگر	-6.224
▁دولت	-6.24882
▁هزار	-6.24882
▁خواهد	-6.27426
▁رئیس	-6.28463
▁سه	-6.28567
▁کار	-6.31208
▁پس	-6.31315
▁گذشته	-6.31315
▁آقای	-6.31423
▁بین	-6.32068
▁به	-6.32285
▁دست	-6.35139
▁گوید	-6.35585
▁یکی	-6.38652
▁کند	-6.38883
▁درباره	-6.39346
▁اند	-6.39463
▁جهان	-6.41816
▁لیگ	-6.42533
▁بوده	-6.4657
▁هر	-6.46945
▁افزایش	-6.47574
▁آنها	-6.477
▁دلیل	-6.4846
▁بار	-6.51038
▁میلیون	-6.51168
▁تهران	-6.5143
▁و	-6.5222
▁جهانی	-6.54356
▁شد.	-6.54491
▁درصد	-6.55033
▁قیمت	-6.55305
▁سازمان	-6.55715
▁ملی	-6.55989
▁هفته	-6.56953
▁نفر	-6.57092
▁دارد	-6.5737
▁از	-6.58629
▁همه	-6.5877
▁بازار	-6.59905
▁نمی	-6.60191
▁بعد	-6.61053
▁افغانستان	-6.61197
▁ویروس	-6.6236
▁ترین	-6.62506
▁جمهوری	-6.63537
▁جدید	-6.63833
▁حال	-6.64428
▁چند	-6.64577
▁عنوان	-6.65177
▁باید	-6.65328
▁مورد	-6.66998
▁دهد.	-6.68386
▁ایرانی	-6.69479
▁بیش	-6.69951
▁گرفته	-6.69951
▁نفت	-6.70109
▁هایی	-6.70109
▁دلار	-6.70267
▁وزارت	-6.70902
▁مجلس	-6.71061
▁شدن	-6.71862
▁نظر	-6.72184
▁فیلم	-6.73483
▁نام	-6.74468
▁امروز	-6.75296
▁کاهش	-6.7563
▁آغاز	-6.76132
▁روی	-6.76468
▁نیز	-6.76468
▁شود.	-6.79199
▁اخیر	-6.80067
▁بود.	-6.80067
▁همچنین	-6.80944
▁اروپا	-6.81296
▁کرد.	-6.8165
▁تولید	-6.82006
▁بریتانیا	-6.83982
▁حدود	-6.84894
▁برنامه	-6.85261
▁داشته	-6.85629
▁وزیر	-6.8637
▁تحریم	-6.86929
▁اقتصادی	-6.8768
▁کند.	-6.8768
▁انجام	-6.88057
▁زمان	-6.89389
▁بیشتر	-6.90158
▁خبر	-6.90158
▁راه	-6.90352
▁اولین	-6.92108
▁باشگاه	-6.92305
▁بانک	-6.927
▁حضور	-6.93296
▁کنند	-6.93296
▁چین	-6.93495
▁پایان	-6.94297
▁منتشر	-6.947
▁صورت	-6.95308
▁اش	-6.96741
▁را	-6.97569
▁شیوع	-6.97777
▁استفاده	-6.98404
▁اساس	-6.98614
▁جمله	-7.00096
▁واکسن	-7.00096
▁اول	-7.01167
▁ادامه	-7.01383
▁سی	-7.01816
▁نشان	-7.02251
▁بزرگ	-7.03567
▁وجود	-7.03788
▁برگزار	-7.04454
▁بخش	-7.05348
▁توافق	-7.06025
▁با	-7.06934
▁شورای	-7.06934
▁فصل	-7.07392
▁مسابقه	-7.08082
▁زندگی	-7.08313
▁میان	-7.0901
▁میلیارد	-7.09712
▁المللی	-7.09947
▁مسابقات	-7.09947
▁شهر	-7.10183
▁مردم	-7.10183
▁همین	-7.10183
▁مقابل	-7.10655
▁حقوق	-7.1113
▁گروه	-7.1113
▁اند.	-7.11847
▁گیری	-7.12087
▁دهد	-7.14275
▁جام	-7.14521
▁چهار	-7.15014
▁سر	-7.1576
▁داد	-7.16511
▁مقام	-7.16511
▁تر	-7.16762
▁ساله	-7.17014
▁تنها	-7.17267
▁بدون	-7.1803
▁تومان	-7.18798
▁خانه	-7.18798
▁بسیاری	-7.19313
▁تواند	-7.19313
▁تمام	-7.19832
▁گل	-7.21931
▁زنان	-7.22463
▁کردن	-7.22463
▁باعث	-7.2273
▁ماشین	-7.23536
▁منبع	-7.23806
▁آینده	-7.24076
▁بیماری	-7.24076
▁خارجه	-7.24076
▁کم	-7.24076
▁فعالیت	-7.25991
▁هستند	-7.25991
▁اجتماعی	-7.26545
▁برتر	-7.27103
▁مرکزی	-7.27103
▁اسلامی	-7.27382
▁امسال	-7.27382
▁قبل	-7.27944
▁بودند	-7.28226
▁داشت	-7.28226
▁دوران	-7.28226
▁انتخابات	-7.28509
▁تلاش	-7.28509
▁شبکه	-7.28793
▁طور	-7.29649
▁نیست	-7.29649
▁قهرمانی	-7.30801
▁هنوز	-7.30801
▁وارد	-7.30801
▁تصویر،	-7.31383
▁بورس	-7.31968
▁خانواده	-7.31968
▁قهرمان	-7.32261
▁نرخ	-7.32261
▁تازه	-7.32851
▁نزدیک	-7.32851
▁هیچ	-7.32851
▁بسیار	-7.33148
▁حالا	-7.33148
▁تغییر	-7.33445
▁کمک	-7.33445
▁آن	-7.33743
▁ریاست	-7.34042
▁فروش	-7.34042
▁اقتصاد	-7.34342
▁رسانه	-7.34342
▁سرمایه	-7.34342
▁حالی	-7.34642
▁وضعیت	-7.34642
▁سوی	-7.35247
▁دوره	-7.3555
▁علی	-7.35855
▁گویند	-7.35855
▁حتی	-7.36773
▁ارز	-7.37082
▁شرایط	-7.37082
▁ولی	-7.37082
▁کشورهای	-7.37701
▁دهه	-7.39266
▁شروع	-7.40536
▁بعضی	-7.40856
▁روحانی	-7.40856
▁طرح	-7.40856
▁فقط	-7.41177
▁اصلی	-7.41499
▁استان	-7.42146
▁برابر	-7.42797
▁دوم	-7.43125
▁کردند	-7.43125
▁زیادی	-7.43453
▁موسیقی	-7.43453
▁تصمیم	-7.43783
▁پیدا	-7.43783
▁زمین	-7.44113
▁اشاره	-7.44445
▁برخی	-7.44445
▁که	-7.44778
▁مختلف	-7.45112
▁برای	-7.45447
▁علیه	-7.45447
▁منطقه	-7.45447
▁تاریخ	-7.45783
▁بررسی	-7.4612
▁مرکز	-7.46458
▁هسته	-7.46798
▁اینکه	-7.4748
▁همراه	-7.4748
▁برجام	-7.48168
▁رسیده	-7.48513
▁باز	-7.49557
▁پرسپولیس	-7.49557
▁توجه	-7.49907
▁نیمه	-7.49907
▁کنند.	-7.49907
▁اثر	-7.50258
▁نوشته	-7.50611
▁افراد	-7.50965
▁رسمی	-7.5132
▁محمد	-7.52035
▁نتیجه	-7.52035
▁رقابت	-7.52394
▁حمله	-7.52754
▁آمریکایی	-7.53116
▁استقلال	-7.53843
▁آژانس	-7.54209
▁مدت	-7.54209
▁نه	-7.54576
▁جان	-7.54944
▁فدراسیون	-7.55314
▁آمار	-7.55685
▁ثبت	-7.55685
▁سهام	-7.55685
▁پول	-7.56057
▁انتشار	-7.56806
▁یافته	-7.56806
▁دنبال	-7.57183
▁پنج	-7.57561
▁سازی	-7.5794
▁همکاری	-7.5794
▁۴	-7.5794
▁توسط	-7.58321
▁دولتی	-7.58321
▁سفر	-7.58321
▁ممکن	-7.58321
▁میلادی	-7.58321
▁بهترین	-7.58704
▁حاضر	-7.58704
▁اطلاعات	-7.59088
▁مالی	-7.59473
▁اعتراض	-7.5986
▁بودجه	-7.5986
▁جمهور	-7.5986
▁شش	-7.5986
▁عکس	-7.5986
▁جایزه	-7.60248
▁شکست	-7.60248
▁پی	-7.60248
▁شنبه	-7.60638
▁عرضه	-7.60638
▁فرانسه	-7.60638
▁۵	-7.60638
▁کنار	-7.6103
▁زن	-7.61817
▁مراسم	-7.61817
▁کمتر	-7.61817
▁خبرگزاری	-7.62213
▁سیاسی	-7.62213
▁دنیا	-7.62611
▁مهم	-7.62611
▁نشده	-7.62611
▁واکنش	-7.62611
▁باشد	-7.6301
▁دارند	-7.6301
▁کسب	-7.6301
▁عربستان	-7.63411
▁پرونده	-7.63411
▁آلمان	-7.63813
▁۱۰	-7.63813
▁الله	-7.64217
▁ترامپ	-7.64217
▁حمایت	-7.64217
▁گذاری	-7.64217
▁انرژی	-7.64623
▁ویژه	-7.64623
▁نهایی	-7.65439
▁کشتی	-7.65439
▁قهرمانان	-7.6585
▁کننده	-7.6585
▁اجرای	-7.66262
▁دانشگاه	-7.67092
▁اجازه	-7.6751
▁زیر	-7.67929
▁طی	-7.67929
▁مجموعه	-7.67929
▁آمده	-7.6835
▁دارد.	-7.6835
▁چنین	-7.6835
▁تبدیل	-7.69197
▁طریق	-7.69197
▁آخرین	-7.70052
▁ترکیه	-7.70052
▁نامه	-7.70052
▁بازیکن	-7.70482
▁اقدام	-7.70914
▁زمانی	-7.70914
▁دریافت	-7.71348
▁سیاست	-7.71348
▁مبارزه	-7.71348
▁کره	-7.71348
▁اتحادیه	-7.71784
▁بازداشت	-7.71784
▁۲	-7.71784
▁سابق	-7.72221
▁موضوع	-7.72221
▁دور	-7.72661
▁رشد	-7.72661
▁خودرو	-7.73102
▁تایید	-7.73546
▁اکنون	-7.73991
▁نقش	-7.73991
▁زمینه	-7.74439
▁خارجی	-7.74888
▁شب	-7.7534
▁خرید	-7.75793
▁خواهند	-7.75793
▁ساعت	-7.75793
▁همان	-7.75793
▁مربوط	-7.76249
▁اتمی	-7.76706
▁ایجاد	-7.76706
▁مذاکرات	-7.76706
▁وقتی	-7.77166
▁برگزاری	-7.77628
▁کتاب	-7.77628
▁۲۰	-7.78092
▁میزان	-7.78558
▁هدف	-7.78558
▁آب	-7.79027
▁حسن	-7.79027
▁هشدار	-7.79027
▁مرگ	-7.79497
▁ورزش	-7.79497
▁کشته	-7.79497
▁ده	-7.7997
▁فاصله	-7.7997
▁۲۰۲۰	-7.7997
▁بالا	-7.80445
▁روند	-7.80445
▁قابل	-7.80922
▁لغو	-7.80922
▁جریان	-7.81402
▁دیدار	-7.81402
▁بهداشت	-7.81884
▁خواسته	-7.81884
▁۱۹	-7.81884
▁زده	-7.82368
▁خیلی	-7.82855
▁دیگری	-7.82855
▁اعضای	-7.83344
▁دوباره	-7.83344
▁بازیکنان	-7.83835
▁دیده	-7.84329
▁کل	-7.84329
▁این	-7.84825
▁بیانیه	-7.84825
▁زبان	-7.84825
▁شوند	-7.84825
▁امنیت	-7.85324
▁خارج	-7.85324
▁پیروزی	-7.85324
▁گرفت	-7.85324
▁بشر	-7.85825
▁پلیس	-7.85825
▁جنوبی	-7.86329
▁محدودیت	-7.86329
▁نماینده	-7.86329
▁لیورپول	-7.86836
▁نیاز	-7.86836
▁سابقه	-7.87344
▁نمایندگان	-7.87344
▁کامل	-7.87344
▁ساخته	-7.87856
▁صندوق	-7.87856
▁عراق	-7.87856
▁مدیر	-7.87856
▁ابتلا	-7.8837
▁امنیتی	-7.8837
▁تحت	-7.8837
▁رفت	-7.8837
▁سخنگوی	-7.8837
▁قانون	-7.8837
▁آزاد	-7.88887
▁زندان	-7.88887
▁متحده	-7.88887
▁نسبت	-7.88887
▁روسیه	-7.89929
▁ساخت	-7.89929
▁طول	-7.89929
▁ارزش	-7.90453
▁است؛	-7.90453
▁انگلیس	-7.90453
▁خامنه	-7.90453
▁رهبر	-7.90453
▁سرمربی	-7.90453
▁هفت	-7.90453
▁بخشی	-7.90981
▁متهم	-7.90981
▁مشخص	-7.90981
▁چرا	-7.90981
▁آثار	-7.92045
▁المپیک	-7.92045
▁صادرات	-7.92045
▁گسترده	-7.92045
▁تعداد	-7.92581
▁آسیا	-7.9312
▁انتخاب	-7.9312
▁بیمارستان	-7.9312
▁عمومی	-7.9312
▁جاری	-7.93662
▁هزینه	-7.93662
▁پرداخت	-7.93662
▁سالگی	-7.94207
▁بالای	-7.94755
▁خاطر	-7.95306
▁خط	-7.95306
▁رسد	-7.95306
▁آزمایش	-7.9586
▁مدل	-7.9586
▁مطرح	-7.9586
▁مقابله	-7.9586
▁همزمان	-7.9586
▁پزشکی	-7.9586
▁۳	-7.9586
▁۶	-7.9586
▁توان	-7.96417
▁سپاه	-7.96417
▁محل	-7.96417
▁معاون	-7.96417
▁نخستین	-7.96417
▁چهره	-7.96417
▁بازگشت	-7.96978
▁جلسه	-7.96978
▁خطر	-7.96978
▁مرحله	-7.96978
▁نمایش	-7.96978
▁اسرائیل	-7.97541
▁برنده	-7.97541
▁درآمد	-7.97541
▁ستاره	-7.97541
▁قرنطینه	-7.97541
▁وقت	-7.97541
▁نفتی	-7.98107
▁نقل	-7.98107
▁پخش	-7.98107
▁افت	-7.98677
▁دادگاه	-7.98677
▁سطح	-7.98677
▁رد	-7.9925
▁لندن	-7.9925
▁کسانی	-7.9925
▁است.این	-8.00406
▁است.در	-8.00406
▁جنگ	-8.00406
▁عضو	-8.00406
▁ارائه	-8.0099
▁ایالات	-8.0099
▁هم	-8.0099
▁کابل	-8.0099
▁انقلاب	-8.01576
▁تنیس	-8.01576
▁حکم	-8.01576
▁.	-8.02166
▁داستان	-8.02166
▁شدت	-8.0276
▁طرف	-8.0276
▁کسی	-8.0276
▁روزهای	-8.03357
▁ورزشی	-8.03357
▁گرفتن	-8.03357
▁امور	-8.03957
▁انتقال	-8.03957
▁جدی	-8.03957
▁متوقف	-8.03957
▁تاریخی	-8.04561
▁رفته	-8.04561
▁شمار	-8.04561
▁بینی	-8.05169
▁معرفی	-8.05169
▁سن	-8.05781
▁ورزشگاه	-8.05781
▁آیا	-8.06396
▁اتفاق	-8.06396
▁بایدن	-8.06396
▁ترک	-8.06396
▁نکرده	-8.06396
▁۲۵	-8.06396
▁۳۰	-8.06396
▁برق	-8.07015
▁حرکت	-8.07015
▁نگرانی	-8.07015
▁آزادی	-8.07639
▁تاثیر	-8.07639
▁حکومت	-8.07639
▁داد.	-8.07639
▁شناخته	-8.07639
▁شکل	-8.07639
▁عالی	-8.07639
▁کنیم	-8.07639
▁کودکان	-8.07639
▁فشار	-8.08265
▁منابع	-8.08265
▁تعیین	-8.08896
▁دستگاه	-8.08896
▁فینال	-8.08896
▁آنچه	-8.09531
▁خانم	-8.09531
▁داخلی	-8.09531
▁دونالد	-8.09531
▁اروپایی	-8.1017
▁نیروهای	-8.1017
▁چهارم	-8.1017
▁آبان	-8.10813
▁رسید	-8.10813
▁سوم	-8.10813
▁مرغ	-8.10813
▁مصاحبه	-8.10813
▁همچنان	-8.10813
▁اتهام	-8.11461
▁الکتریکی	-8.11461
▁تورم	-8.11461
▁شدند	-8.11461
▁معاملات	-8.11461
▁کمیسیون	-8.11461
▁قوه	-8.12112
▁محکوم	-8.12112
▁۹	-8.12112
▁تصویب	-8.12768
▁رای	-8.12768
▁شدید	-8.12768
▁فعال	-8.12768
▁قرارداد	-8.12768
▁پیشین	-8.12768
▁خبری	-8.13428
▁روزنامه	-8.13428
▁شدمنبع	-8.13428
▁قبلی	-8.13428
▁قرن	-8.13428
▁وی	-8.13428
▁۲۰۱۹	-8.13428
▁است.آقای	-8.14092
▁بشکه	-8.14092
▁مسئولان	-8.14092
▁نظامی	-8.14092
▁نیم	-8.14092
▁گذاشته	-8.14092
▁انسان	-8.14761
▁بودن	-8.14761
▁جای	-8.14761
▁ستاد	-8.14761
▁طولانی	-8.14761
▁ظریف	-8.14761
▁فروردین	-8.14761
▁مانده	-8.14761
▁نخست	-8.14761
▁است.منبع	-8.15435
▁جامعه	-8.15435
▁خودش	-8.15435
▁سیستم	-8.15435
▁مرد	-8.15435
▁اجرا	-8.16113
▁امتیاز	-8.16113
▁هستند.	-8.16113
▁۱۴۰۰	-8.16113
▁۱۵	-8.16113
▁تشکیل	-8.16795
▁توانست	-8.16795
▁مربی	-8.16795
▁نشست	-8.16795
▁نیست.	-8.16795
▁دوشنبه	-8.17483
▁محلی	-8.17483
▁انتقاد	-8.18175
▁تحقیق	-8.18175
▁یعنی	-8.18175
▁اسفند	-8.18871
▁قدرت	-8.18871
▁ملل	-8.18871
▁کنترل	-8.18871
▁تجاری	-8.19573
▁شاخص	-8.19573
▁شماری	-8.19573
▁موج	-8.19573
▁نیروی	-8.19573
▁پر	-8.19573
▁بسته	-8.2028
▁جمعیت	-8.2028
▁شامل	-8.2028
▁غنی	-8.2028
▁ورود	-8.2028
▁چشم	-8.2028
▁۷	-8.2028
▁انتظار	-8.20992
▁دادن	-8.20992
▁هوایی	-8.20992
▁پاسخ	-8.20992
▁امکان	-8.21708
▁خروج	-8.21708
▁رکورد	-8.21708
▁سایر	-8.21708
▁پروژه	-8.21708
▁حذف	-8.22431
▁رفع	-8.22431
▁علت	-8.22431
▁صد	-8.23158
▁ماسک	-8.23158
▁احتمال	-8.2389
▁ایتالیا	-8.2389
▁بارسلونا	-8.2389
▁تجربه	-8.2389
▁جو	-8.2389
▁دی	-8.2389
▁رقم	-8.2389
▁غیر	-8.2389
▁فضایی	-8.2389
▁ناشی	-8.2389
▁بندی	-8.24628
▁جلوگیری	-8.24628
▁دهند	-8.24628
▁فارسی	-8.24628
▁هنری	-8.24628
▁آوریل	-8.25372
▁ابراز	-8.25372
▁دستور	-8.25372
▁شان	-8.25372
▁مبتلا	-8.25372
▁پشت	-8.25372
▁ارتباط	-8.26121
▁بنزین	-8.26121
▁حساب	-8.26121
▁داشت.	-8.26121
▁سریال	-8.26121
▁سیتی	-8.26121
▁پایین	-8.26121
▁آیت	-8.26876
▁سخت	-8.26876
▁فکر	-8.26876
▁مشکلات	-8.26876
▁ممنوع	-8.26876
▁باشد.	-8.27636
▁دقیقه	-8.27636
▁شهروندان	-8.27636
▁فرهنگی	-8.27636
▁نهاد	-8.27636
▁کاری	-8.27636
▁اولیه	-8.28402
▁باقی	-8.28402
▁بحران	-8.28402
▁داخل	-8.28402
▁نوشت	-8.28402
▁کردند.	-8.28402
▁خوانده	-8.29175
▁صنعت	-8.29175
▁مسی	-8.29175
▁ام	-8.29953
▁برده	-8.29953
▁جنوب	-8.29953
▁صحبت	-8.29953
▁عمل	-8.29953
▁کارگران	-8.29953
▁بارها	-8.30737
▁روابط	-8.30737
▁کووید	-8.30737
▁سقوط	-8.31528
▁نظام	-8.31528
▁چهارشنبه	-8.31528
▁اختیار	-8.32325
▁تاکید	-8.32325
▁درخواست	-8.32325
▁لازم	-8.32325
▁مسئول	-8.32325
▁مشکل	-8.32325
▁هند	-8.32325
▁۱۲	-8.32325
▁جمعه	-8.33128
▁طراحی	-8.33128
▁محمود	-8.33128
▁نقاشی	-8.33128
▁احتمالا	-8.33937
▁تاکنون	-8.33937
▁رشته	-8.33937
▁شاید	-8.33937
▁قانونی	-8.33937
▁گاز	-8.33937
▁گونه	-8.33937
▁ترتیب	-8.34754
▁حرفه	-8.34754
▁شاهد	-8.34754
▁صفر	-8.34754
▁فضای	-8.34754
▁موارد	-8.34754
▁نویسنده	-8.34754
▁هواپیمایی	-8.34754
▁آسیب	-8.35577
▁ایران،	-8.35577
▁تامین	-8.35577
▁دفاع	-8.35577
▁سیاه	-8.35577
▁فرهنگ	-8.35577
▁ندارد	-8.35577
▁هنگام	-8.35577
▁چپ	-8.35577
▁بودند.	-8.36407
▁توانند	-8.36407
▁خصوصی	-8.36407
▁مشترک	-8.36407
▁پارسال	-8.36407
▁ترکیب	-8.37244
▁جشنواره	-8.37244
▁خواستار	-8.37244
▁روبرو	-8.37244
▁شهرهای	-8.37244
▁کوچک	-8.37244
▁یکشنبه	-8.37244
▁۵۰	-8.37244
▁تلویزیون	-8.38087
▁گروهی	-8.38087
▁آتش	-8.38939
▁اختلاف	-8.38939
▁اعدام	-8.38939
▁شما	-8.38939
▁شوند.	-8.38939
▁موسسه	-8.38939
▁نتایج	-8.38939
▁هایش	-8.38939
▁چگونه	-8.38939
▁کمیته	-8.38939
▁یونایتد	-8.38939
▁۱۱	-8.38939
▁رییس	-8.39797
▁فرد	-8.39797
▁مرتبط	-8.39797
▁معروف	-8.39797
▁مواد	-8.39797
▁نظیر	-8.39797
▁نگهبان	-8.39797
▁۴۰	-8.39797
▁بیشتری	-8.40663
▁دلایل	-8.40663
▁شناسایی	-8.40663
▁نقطه	-8.40663
▁هواداران	-8.40663
▁هیات	-8.40663
▁دیروز	-8.41536
▁قوانین	-8.41536
▁نخواهد	-8.41536
▁نوع	-8.41536
▁اسکار	-8.42417
▁جدول	-8.42417
▁رسیدن	-8.42417
▁ماهه	-8.42417
▁مقایسه	-8.42417
▁موفق	-8.42417
▁همیشه	-8.42417
▁چیزی	-8.42417
▁۶۰	-8.42417
▁احیای	-8.43306
▁است.او	-8.43306
▁حفظ	-8.43306
▁دارایی	-8.43306
▁عامل	-8.43306
▁قصد	-8.43306
▁مسیر	-8.43306
▁نژاد	-8.43306
▁واحد	-8.43306
▁وین	-8.43306
▁یاد	-8.43306
▁۸	-8.43306
▁بیست	-8.44203
▁سراسر	-8.44203
▁سمت	-8.44203
▁سوخت	-8.44203
▁صفحه	-8.44203
▁اخیرا	-8.45108
▁اندازه	-8.45108
▁بیرون	-8.45108
▁دسترسی	-8.45108
▁سعودی	-8.45108
▁علاوه	-8.45108
▁۲۲	-8.45108
▁اعمال	-8.46021
▁بایرن	-8.46021
▁تجارت	-8.46021
▁شمال	-8.46021
▁شکایت	-8.46021
▁محدود	-8.46021
▁هشت	-8.46021
▁ولایت	-8.46021
▁کارخانه	-8.46021
▁آستانه	-8.46943
▁ابتدای	-8.46943
▁اف	-8.46943
▁حل	-8.46943
▁زنده	-8.46943
▁فعالان	-8.46943
▁فهرست	-8.46943
▁اداره	-8.47873
▁امضا	-8.47873
▁تقریبا	-8.47873
▁خون	-8.47873
▁درمان	-8.47873
▁فوق	-8.47873
▁کشف	-8.47873
▁۹۸	-8.47873
▁آماده	-8.48812
▁اتاق	-8.48812
▁احمد	-8.48812
▁تهیه	-8.48812
▁جهش	-8.48812
▁دروازه	-8.48812
▁قرمز	-8.48812
▁مذاکره	-8.48812
▁نسل	-8.48812
▁گفتگو	-8.48812
▁اطلاع	-8.4976
▁اوپک	-8.4976
▁تیمی	-8.4976
▁خوب	-8.4976
▁رابطه	-8.4976
▁غرب	-8.4976
▁مصوبه	-8.4976
▁نهادهای	-8.4976
▁اعتراضات	-8.50717
▁انفجار	-8.50717
▁جمع	-8.50717
▁عمده	-8.50717
▁مارس	-8.50717
▁محیط	-8.50717
▁منچستر	-8.50717
▁موزه	-8.50717
▁هنر	-8.50717
▁کالا	-8.50717
▁احمدی	-8.51683
▁اقدامات	-8.51683
▁برد	-8.51683
▁بزرگترین	-8.51683
▁بلند	-8.51683
▁شجریان	-8.51683
▁ضربه	-8.51683
▁فساد	-8.51683
▁مارادونا	-8.51683
▁منتقل	-8.51683
▁نگاه	-8.51683
▁واقعی	-8.51683
▁کشورها	-8.51683
▁تعطیلی	-8.52659
▁توصیف	-8.52659
▁حادثه	-8.52659
▁حق	-8.52659
▁سینما	-8.52659
▁قضایی	-8.52659
▁منجر	-8.52659
▁مهدی	-8.52659
▁پایتخت	-8.52659
▁چاپ	-8.52659
▁۱	-8.52659
▁ایران؛	-8.53644
▁ونزوئلا	-8.53644
▁کاملا	-8.53644
▁کمی	-8.53644
▁ارشد	-8.54639
▁جدیدی	-8.54639
▁دنیای	-8.54639
▁رعایت	-8.54639
▁رنگ	-8.54639
▁طبق	-8.54639
▁علمی	-8.54639
▁مسکن	-8.54639
▁واردات	-8.54639
▁پروازهای	-8.54639
▁ابتدا	-8.55644
▁اواخر	-8.55644
▁بازیگر	-8.55644
▁تابستان	-8.55644
▁تلویزیونی	-8.55644
▁توسعه	-8.55644
▁توییتر	-8.55644
▁سرعت	-8.55644
▁چه	-8.55644
▁بهتر	-8.56659
▁دچار	-8.56659
▁سلامت	-8.56659
▁صادر	-8.56659
▁عدالت	-8.56659
▁ممنوعیت	-8.56659
▁ژانویه	-8.56659
▁کاخ	-8.56659
▁اجرایی	-8.57685
▁انگلستان	-8.57685
▁بیشترین	-8.57685
▁تن	-8.57685
▁سایت	-8.57685
▁متفاوت	-8.57685
▁واقع	-8.57685
▁۱۳	-8.57685
▁۵۰۰	-8.57685
▁بریتانیایی	-8.58721
▁حوزه	-8.58721
▁رسید.	-8.58721
▁رود	-8.58721
▁موجب	-8.58721
▁موفقیت	-8.58721
▁۱۴	-8.58721
▁خواننده	-8.59768
▁داشتند	-8.59768
▁قطر	-8.59768
▁مالیات	-8.59768
▁مجدد	-8.59768
▁مصرف	-8.59768
▁مناطق	-8.59768
▁نامزدی	-8.59768
▁نگاهی	-8.59768
▁نگران	-8.59768
▁اضافه	-8.60826
▁بحرین	-8.60826
▁توپ	-8.60826
▁راننده	-8.60826
▁رفتن	-8.60826
▁رمان	-8.60826
▁زاده	-8.60826
▁عبور	-8.60826
▁هرات	-8.60826
▁چلسی	-8.60826
▁ژوئن	-8.60826
▁گزارشی	-8.60826
▁افتاده	-8.61896
▁اوراق	-8.61896
▁حد	-8.61896
▁خصوص	-8.61896
▁درگذشت	-8.61896
▁عملکرد	-8.61896
▁مجموع	-8.61896
▁ملت	-8.61896
▁مواجه	-8.61896
▁نظارت	-8.61896
▁کنون	-8.61896
▁۱۶	-8.61896
▁آمد	-8.62977
▁آنان	-8.62977
▁ارزی	-8.62977
▁برخورد	-8.62977
▁بهبود	-8.62977
▁بهمن	-8.62977
▁سفید	-8.62977
▁عدم	-8.62977
▁فدرر	-8.62977
▁مجازی	-8.62977
▁مه	-8.62977
▁نامزد	-8.62977
▁پرواز	-8.62977
▁کدام	-8.62977
▁کردمنبع	-8.62977
▁کرونای	-8.62977
▁یافت	-8.62977
▁۱۷	-8.62977
▁۲۰۲۱	-8.62977
▁اوایل	-8.6407
▁اورانیوم	-8.6407
▁تحقیقات	-8.6407
▁تعطیل	-8.6407
▁جایی	-8.6407
▁حداقل	-8.6407
▁خواهان	-8.6407
▁سفیر	-8.6407
▁مانع	-8.6407
▁مشغول	-8.6407
▁معامله	-8.6407
▁اساسی	-8.65175
▁است،	-8.65175
▁انگلیسی	-8.65175
▁بحث	-8.65175
▁تومانی	-8.65175
▁تی	-8.65175
▁جا	-8.65175
▁راهی	-8.65175
▁محموله	-8.65175
▁پیشتر	-8.65175
▁کنونی	-8.65175
▁توضیح	-8.66292
▁رونمایی	-8.66292
▁طبیعی	-8.66292
▁فرصت	-8.66292
▁مجبور	-8.66292
▁پیشنهاد	-8.66292
▁کانال	-8.66292
▁کشیده	-8.66292
▁کوتاه	-8.66292
▁۱۰۰	-8.66292
▁آلمانی	-8.67422
▁افغان	-8.67422
▁تغییرات	-8.67422
▁مقررات	-8.67422
▁پاریس	-8.67422
▁پاسداران	-8.67422
▁چیز	-8.67422
▁۲۴	-8.67422
▁افرادی	-8.68565
▁جنسی	-8.68565
▁خوزستان	-8.68565
▁روشن	-8.68565
▁رکود	-8.68565
▁زندانی	-8.68565
▁زنی	-8.68565
▁سنگ	-8.68565
▁قطعی	-8.68565
▁مشهور	-8.68565
▁کلی	-8.68565
▁یورو	-8.68565
▁تهدید	-8.69721
▁حسین	-8.69721
▁خالی	-8.69721
▁زدن	-8.69721
▁سالانه	-8.69721
▁سخنرانی	-8.69721
▁شدند.	-8.69721
▁عملیات	-8.69721
▁فنی	-8.69721
▁متر	-8.69721
▁مردان	-8.69721
▁نبود	-8.69721
▁نقدینگی	-8.69721
▁چندین	-8.69721
▁کنندگان	-8.69721
▁کنید	-8.69721
▁استرالیا	-8.70891
▁اظهارات	-8.70891
▁تجمع	-8.70891
▁جوان	-8.70891
▁حریف	-8.70891
▁درصدی	-8.70891
▁رتبه	-8.70891
▁روزانه	-8.70891
▁زیاد	-8.70891
▁زیست	-8.70891
▁سود	-8.70891
▁مرداد	-8.70891
▁موافقت	-8.70891
▁۹۰	-8.70891
▁آوری	-8.72074
▁تشخیص	-8.72074
▁صحنه	-8.72074
▁صدای	-8.72074
▁علاقه	-8.72074
▁قدیمی	-8.72074
▁منفی	-8.72074
▁بازارهای	-8.73272
▁ترانه	-8.73272
▁سوریه	-8.73272
▁شعر	-8.73272
▁صدور	-8.73272
▁طلا	-8.73272
▁قتل	-8.73272
▁نمونه	-8.73272
▁وضع	-8.73272
▁کارشناسان	-8.73272
▁کنم	-8.73272
▁اسطوره	-8.74484
▁ان	-8.74484
▁بالاترین	-8.74484
▁تاج	-8.74484
▁دهم	-8.74484
▁رخ	-8.74484
▁سریع	-8.74484
▁سعید	-8.74484
▁سنگین	-8.74484
▁عقب	-8.74484
▁قطع	-8.74484
▁نداشته	-8.74484
▁کرونا؛	-8.74484
▁اوت	-8.75711
▁بهداشتی	-8.75711
▁تاتنهام	-8.75711
▁تاجیکستان	-8.75711
▁خوبی	-8.75711
▁دانشمندان	-8.75711
▁دومین	-8.75711
▁مثبت	-8.75711
▁ژاپن	-8.75711
▁آبی	-8.76953
▁آورده	-8.76953
▁اردیبهشت	-8.76953
▁است.به	-8.76953
▁اسپانیا	-8.76953
▁باره	-8.76953
▁بانکی	-8.76953
▁بزرگی	-8.76953
▁بود؛	-8.76953
▁تازگی	-8.76953
▁دوچرخه	-8.76953
▁عهده	-8.76953
▁فوت	-8.76953
▁مادرید	-8.76953
▁مجوز	-8.76953
▁مدیریت	-8.76953
▁مقامات	-8.76953
▁نقاط	-8.76953
▁نوبل	-8.76953
▁کشوری	-8.76953
▁۲۰۱۸	-8.76953
▁۲۳	-8.76953
▁آرژانتین	-8.78211
▁افزوده	-8.78211
▁بعدی	-8.78211
▁جز	-8.78211
▁دفتر	-8.78211
▁دکتر	-8.78211
▁رویترز	-8.78211
▁سرشناس	-8.78211
▁شخصی	-8.78211
▁صدا	-8.78211
▁صعود	-8.78211
▁ماهی	-8.78211
▁هدایت	-8.78211
▁۲۰۱۶	-8.78211
▁العاده	-8.79485
▁اوپن	-8.79485
▁ایالت	-8.79485
▁تعدادی	-8.79485
▁جنگل	-8.79485
▁حرف	-8.79485
▁خرداد	-8.79485
▁خواهیم	-8.79485
▁رئال	-8.79485
▁سینمای	-8.79485
▁فراهم	-8.79485
▁لایحه	-8.79485
▁مبتلایان	-8.79485
▁مجله	-8.79485
▁محمدرضا	-8.79485
▁نشانه	-8.79485
▁واشنگتن	-8.79485
▁کیلومتر	-8.79485
▁گرفت.	-8.79485
▁بدن	-8.80775
▁تحویل	-8.80775
▁خورده	-8.80775
▁درآمدهای	-8.80775
▁درگذشت.	-8.80775
▁روش	-8.80775
▁صبح	-8.80775
▁۲۱	-8.80775
▁استقبال	-8.82083
▁امام	-8.82083
▁تصاویر	-8.82083
▁جریمه	-8.82083
▁حبس	-8.82083
▁خواست	-8.82083
▁دریایی	-8.82083
▁دوربین	-8.82083
▁فیفا	-8.82083
▁مرز	-8.82083
▁مستقیم	-8.82083
▁مشابه	-8.82083
▁مغز	-8.82083
▁هرگز	-8.82083
▁پژوهش	-8.82083
▁آمازون	-8.83407
▁بیت	-8.83407
▁تورنمنت	-8.83407
▁جشن	-8.83407
▁حزب	-8.83407
▁خانگی	-8.83407
▁دار	-8.83407
▁صدر	-8.83407
▁صلح	-8.83407
▁فوریه	-8.83407
▁معادل	-8.83407
▁نفتکش	-8.83407
▁هرچند	-8.83407
▁۱۳۹۹	-8.83407
▁استمنبع	-8.84749
▁اشتباه	-8.84749
▁ایمنی	-8.84749
▁بستری	-8.84749
▁بهادار	-8.84749
▁تزریق	-8.84749
▁دسته	-8.84749
▁قاچاق	-8.84749
▁موجود	-8.84749
▁مونیخ	-8.84749
▁پوند	-8.84749
▁ارسال	-8.8611
▁استاد	-8.8611
▁اینترنتی	-8.8611
▁بازگشایی	-8.8611
▁بالاتر	-8.8611
▁تمامی	-8.8611
▁خودروهای	-8.8611
▁عده	-8.8611
▁فرمول	-8.8611
▁متعلق	-8.8611
▁میدان	-8.8611
▁نوری	-8.8611
▁هنرمند	-8.8611
▁پیشرفت	-8.8611
▁آموزش	-8.87489
▁ارتش	-8.87489
▁اصلاح	-8.87489
▁امید	-8.87489
▁بن	-8.87489
▁دانش	-8.87489
▁دختر	-8.87489
▁سوئیس	-8.87489
▁سینمایی	-8.87489
▁شبیه	-8.87489
▁شرق	-8.87489
▁فعلی	-8.87489
▁قالیباف	-8.87489
▁لحظه	-8.87489
▁متوسط	-8.87489
▁واکسیناسیون	-8.87489
▁پای	-8.87489
▁پروتکل	-8.87489
▁چک	-8.87489
▁کالاهای	-8.87489
▁گو	-8.87489
▁۱۸	-8.87489
▁آلبوم	-8.88888
▁بخوانید	-8.88888
▁برزیل	-8.88888
▁حالیست	-8.88888
▁خاک	-8.88888
▁خبرنگار	-8.88888
▁دین	-8.88888
▁ساختمان	-8.88888
▁شخصیت	-8.88888
▁غربی	-8.88888
▁فارس	-8.88888
▁مدتی	-8.88888
▁مطالعه	-8.88888
▁وابسته	-8.88888
▁ژوئیه	-8.88888
▁کاربران	-8.88888
▁کمبود	-8.88888
▁یکدیگر	-8.88888
▁ادبیات	-8.90306
▁اقیانوس	-8.90306
▁بهار	-8.90306
▁جزئیات	-8.90306
▁خورشیدی	-8.90306
▁دقیق	-8.90306
▁زخمی	-8.90306
▁سفارت	-8.90306
▁شرایطی	-8.90306
▁عادی	-8.90306
▁معترضان	-8.90306
▁میزبانی	-8.90306
▁وعده	-8.90306
▁گاهی	-8.90306
▁گذشت	-8.90306
▁۲۸	-8.90306
▁ایران:	-8.91745
▁بازرگانی	-8.91745
▁بیمار	-8.91745
▁بیکاری	-8.91745
▁تعهدات	-8.91745
▁جمعی	-8.91745
▁درست	-8.91745
▁رفتار	-8.91745
▁قبلا	-8.91745
▁مالکیت	-8.91745
▁مدیران	-8.91745
▁مستند	-8.91745
▁موقعیت	-8.91745
▁نزدیکی	-8.91745
▁نهایت	-8.91745
▁نگه	-8.91745
▁هوا	-8.91745
▁وزن	-8.91745
▁پدر	-8.91745
▁پیام	-8.91745
▁۲۰۰	-8.91745
▁احتمالی	-8.93205
▁باشند	-8.93205
▁براساس	-8.93205
▁تقویت	-8.93205
▁خلق	-8.93205
▁سرطان	-8.93205
▁سهمیه	-8.93205
▁سیستان	-8.93205
▁شدگان	-8.93205
▁فرانسوی	-8.93205
▁معنای	-8.93205
▁نقض	-8.93205
▁نوامبر	-8.93205
▁پنجم	-8.93205
▁کوین	-8.93205
▁آی	-8.94687
▁احساس	-8.94687
▁دارند.	-8.94687
▁دریای	-8.94687
▁راست	-8.94687
▁زودی	-8.94687
▁سعی	-8.94687
▁فرمانده	-8.94687
▁متوجه	-8.94687
▁پاکستان	-8.94687
▁پایانی	-8.94687
▁کودک	-8.94687
▁گسترش	-8.94687
▁۲۰۱۷	-8.94687
▁-	-8.9619
▁تیراندازی	-8.9619
▁حذفی	-8.9619
▁خدمات	-8.9619
▁دانسته	-8.9619
▁درگیر	-8.9619
▁درگیری	-8.9619
▁روایت	-8.9619
▁ساز	-8.9619
▁سهم	-8.9619
▁سپس	-8.9619
▁شد؛	-8.9619
▁قضائیه	-8.9619
▁قطعنامه	-8.9619
▁نشریه	-8.9619
▁واقعیت	-8.9619
▁کارکنان	-8.9619
▁کشورش	-8.9619
▁گمرک	-8.9619
▁اس	-8.97717
▁انگیز	-8.97717
▁اهمیت	-8.97717
▁بال	-8.97717
▁تا	-8.97717
▁توقیف	-8.97717
▁حاشیه	-8.97717
▁دوست	-8.97717
▁رده	-8.97717
▁سواری	-8.97717
▁ماموران	-8.97717
▁میلان	-8.97717
▁۷۰	-8.97717
▁بنا	-8.99268
▁تصور	-8.99268
▁تنظیم	-8.99268
▁دختران	-8.99268
▁سنت	-8.99268
▁عجیب	-8.99268
▁فردی	-8.99268
▁مدافع	-8.99268
▁پنجشنبه	-8.99268
▁آخر	-9.00842
▁اسرائیلی	-9.00842
▁اوج	-9.00842
▁بلوچستان	-9.00842
▁تخمین	-9.00842
▁توقف	-9.00842
▁تک	-9.00842
▁دادند	-9.00842
▁دارو	-9.00842
▁رافائل	-9.00842
▁رضا	-9.00842
▁سپاهان	-9.00842
▁صوتی	-9.00842
▁غذا	-9.00842
▁مدیرعامل	-9.00842
▁مرزی	-9.00842
▁مشارکت	-9.00842
▁موشک	-9.00842
▁میانه	-9.00842
▁میزبان	-9.00842
▁همسر	-9.00842
▁چینی	-9.00842
▁ی	-9.00842
▁آ	-9.02442
▁آهنگ	-9.02442
▁باخت	-9.02442
▁برمی	-9.02442
▁بیماران	-9.02442
▁تسلا	-9.02442
▁تصویری	-9.02442
▁تماس	-9.02442
▁توصیه	-9.02442
▁سومین	-9.02442
▁شرقی	-9.02442
▁شماره	-9.02442
▁صف	-9.02442
▁علیرضا	-9.02442
▁مخالفت	-9.02442
▁مربیان	-9.02442
▁مهاجم	-9.02442
▁مک	-9.02442
▁نشر	-9.02442
▁کارگردانی	-9.02442
▁کنسرت	-9.02442
▁گیرد	-9.02442
▁ارقام	-9.04069
▁بروز	-9.04069
▁تساوی	-9.04069
▁رونالدو	-9.04069
▁سکه	-9.04069
▁صنایع	-9.04069
▁غیرقانونی	-9.04069
▁فایل	-9.04069
▁فردا	-9.04069
▁فناوری	-9.04069
▁قسمت	-9.04069
▁هزاران	-9.04069
▁کافی	-9.04069
▁اجاره	-9.05721
▁اخراج	-9.05721
▁اصل	-9.05721
▁امارات	-9.05721
▁انجمن	-9.05721
▁بازنشستگان	-9.05721
▁تعویق	-9.05721
▁تیر	-9.05721
▁حقوقی	-9.05721
▁داشتن	-9.05721
▁سختی	-9.05721
▁شمالی	-9.05721
▁عین	-9.05721
▁مسدود	-9.05721
▁مسلح	-9.05721
▁معمولا	-9.05721
▁مواردی	-9.05721
▁مکان	-9.05721
▁چالش	-9.05721
▁کارگر	-9.05721
▁کلوپ	-9.05721
▁۳۰۰	-9.05721
▁ارزیابی	-9.07402
▁اندازی	-9.07402
▁ایستگاه	-9.07402
▁بقیه	-9.07402
▁تاسیسات	-9.07402
▁تقاضای	-9.07402
▁حاصل	-9.07402
▁خشونت	-9.07402
▁دیوان	-9.07402
▁زاغری	-9.07402
▁سند	-9.07402
▁عصر	-9.07402
▁علوم	-9.07402
▁قاسم	-9.07402
▁لباس	-9.07402
▁مادر	-9.07402
▁مخالفان	-9.07402
▁نگهداری	-9.07402
▁پا	-9.07402
▁۱۳۹۸	-9.07402
▁۲۶	-9.07402
▁۳۵	-9.07402
▁۹۹	-9.07402
▁آنلاین	-9.09112
▁ابلاغ	-9.09112
▁ادبی	-9.09112
▁است.بر	-9.09112
▁انتخاباتی	-9.09112
▁ایسنا	-9.09112
▁تقاضا	-9.09112
▁توکیو	-9.09112
▁جوکوویچ	-9.09112
▁ریزی	-9.09112
▁زندانیان	-9.09112
▁سلیمانی	-9.09112
▁طالبان	-9.09112
▁مبلغ	-9.09112
▁مسافران	-9.09112
▁مهر	-9.09112
▁مهمترین	-9.09112
▁ندارد.	-9.09112
▁هواپیمای	-9.09112
▁پژوهشگران	-9.09112
▁کنیم.	-9.09112
▁۳۱	-9.09112
▁اغلب	-9.10851
▁افتاد	-9.10851
▁الملل	-9.10851
▁اکتبر	-9.10851
▁بدهی	-9.10851
▁برجسته	-9.10851
▁بگیرد	-9.10851
▁تست	-9.10851
▁حسینی	-9.10851
▁حفاظت	-9.10851
▁خیابان	-9.10851
▁روزها	-9.10851
▁عوامل	-9.10851
▁قربانیان	-9.10851
▁ماجرا	-9.10851
▁مالک	-9.10851
▁مدعی	-9.10851
▁نازنین	-9.10851
▁نباید	-9.10851
▁نجات	-9.10851
▁نویسندگان	-9.10851
▁هاست	-9.10851
▁همواره	-9.10851
▁پلاس	-9.10851
▁پور	-9.10851
▁چندان	-9.10851
▁کارها	-9.10851
▁امیدوار	-9.12621
▁انسانی	-9.12621
▁تمرین	-9.12621
▁جوایز	-9.12621
▁زد	-9.12621
▁سنتی	-9.12621
▁سوال	-9.12621
▁شاعر	-9.12621
▁شلیک	-9.12621
▁شهریور	-9.12621
▁فرار	-9.12621
▁فرستاده	-9.12621
▁فرودگاه	-9.12621
▁ماده	-9.12621
▁محصولات	-9.12621
▁مطابق	-9.12621
▁معرض	-9.12621
▁ورزشکاران	-9.12621
▁گام	-9.12621
▁آید	-9.14423
▁بتواند	-9.14423
▁بوکس	-9.14423
▁تخریب	-9.14423
▁تری	-9.14423
▁توزیع	-9.14423
▁ثابت	-9.14423
▁حکام	-9.14423
▁خاطره	-9.14423
▁خبرنگاران	-9.14423
▁خوش	-9.14423
▁دارای	-9.14423
▁زاد	-9.14423
▁سالهای	-9.14423
▁سراوان	-9.14423
▁سری	-9.14423
▁ضمن	-9.14423
▁مدال	-9.14423
▁مسئله	-9.14423
▁مشمول	-9.14423
▁منتقدان	-9.14423
▁نو	-9.14423
▁پرداخته	-9.14423
▁۸۰	-9.14423
▁تاخیر	-9.16257
▁توانسته	-9.16257
▁حمل	-9.16257
▁خیریه	-9.16257
▁درجه	-9.16257
▁رسیدگی	-9.16257
▁روانی	-9.16257
▁شده،	-9.16257
▁ظاهر	-9.16257
▁قضاییه	-9.16257
▁محسوب	-9.16257
▁مخالف	-9.16257
▁معتبر	-9.16257
▁نیویورک	-9.16257
▁همچون	-9.16257
▁هنرپیشه	-9.16257
▁وام	-9.16257
▁وگو	-9.16257
▁پایه	-9.16257
▁گلستان	-9.16257
▁آسمان	-9.18127
▁اوضاع	-9.18127
▁بنز	-9.18127
▁تنش	-9.18127
▁توانایی	-9.18127
▁جایگاه	-9.18127
▁جلوی	-9.18127
▁جهت	-9.18127
▁خام	-9.18127
▁دریاچه	-9.18127
▁دهند.	-9.18127
▁شبانه	-9.18127
▁صلاحیت	-9.18127
▁ضد	-9.18127
▁عباس	-9.18127
▁فن	-9.18127
▁قبول	-9.18127
▁لیونل	-9.18127
▁محروم	-9.18127
▁منتظر	-9.18127
▁موسوم	-9.18127
▁ها،	-9.18127
▁هواپیما	-9.18127
▁چهل	-9.18127
▁کشورهایی	-9.18127
▁۲۹	-9.18127
▁آلودگی	-9.20032
▁اجلاس	-9.20032
▁ازدواج	-9.20032
▁اصفهان	-9.20032
▁افسانه	-9.20032
▁الدین	-9.20032
▁برگشت	-9.20032
▁تمدید	-9.20032
▁خاص	-9.20032
▁داربی	-9.20032
▁دید	-9.20032
▁سرانجام	-9.20032
▁سپتامبر	-9.20032
▁شاسی	-9.20032
▁شاه	-9.20032
▁شیوه	-9.20032
▁صرافی	-9.20032
▁طبیعت	-9.20032
▁فرهاد	-9.20032
▁نادال	-9.20032
▁پست	-9.20032
▁چطور	-9.20032
▁کارگردان	-9.20032
▁آورد	-9.21973
▁اطلاعاتی	-9.21973
▁بازرسی	-9.21973
▁برسد	-9.21973
▁بعدا	-9.21973
▁تحقیقاتی	-9.21973
▁جراحی	-9.21973
▁خلیج	-9.21973
▁خودرو؛	-9.21973
▁رقیب	-9.21973
▁سامانه	-9.21973
▁ست	-9.21973
▁شناسی	-9.21973
▁صاحب	-9.21973
▁قالب	-9.21973
▁ماههای	-9.21973
▁مجری	-9.21973
▁محبوب	-9.21973
▁موضع	-9.21973
▁وکیل	-9.21973
▁ویمبلدون	-9.21973
▁پیروز	-9.21973
▁کارهای	-9.21973
▁کلاس	-9.21973
▁گرانی	-9.21973
▁گفته:	-9.21973
▁۲۰۱۴	-9.21973
▁آمیز	-9.23954
▁برداشته	-9.23954
▁بنیاد	-9.23954
▁حالت	-9.23954
▁درک	-9.23954
▁دستمزد	-9.23954
▁دعوت	-9.23954
▁رادیو	-9.23954
▁محمدی	-9.23954
▁مسائل	-9.23954
▁مشاهده	-9.23954
▁مقصد	-9.23954
▁مهار	-9.23954
▁نداده	-9.23954
▁هوشمندی	-9.23954
▁ورزشکار	-9.23954
▁پدیده	-9.23954
▁پسر	-9.23954
▁پله	-9.23954
▁پیاپی	-9.23954
▁کردم	-9.23954
▁گفتند	-9.23954
▁آزار	-9.25974
▁آمادگی	-9.25974
▁آکادمی	-9.25974
▁اطمینان	-9.25974
▁الهام	-9.25974
▁انداز	-9.25974
▁اکبر	-9.25974
▁تکرار	-9.25974
▁حاکی	-9.25974
▁حجم	-9.25974
▁حس	-9.25974
▁حیات	-9.25974
▁راجر	-9.25974
▁سوزی	-9.25974
▁شهری	-9.25974
▁عباسی	-9.25974
▁فوری	-9.25974
▁متولد	-9.25974
▁مدیرکل	-9.25974
▁مراقبت	-9.25974
▁مشهد	-9.25974
▁نحوه	-9.25974
▁نسخه	-9.25974
▁ژافره	-9.25974
▁گوش	-9.25974
▁۲۰۱۵	-9.25974
▁آنکه	-9.28036
▁اداری	-9.28036
▁بلینکن	-9.28036
▁ترجمه	-9.28036
▁ترس	-9.28036
▁تولیدکنندگان	-9.28036
▁جیمز	-9.28036
▁داریم	-9.28036
▁دانست	-9.28036
▁دستگیر	-9.28036
▁دیپلماسی	-9.28036
▁رسما	-9.28036
▁سالگرد	-9.28036
▁ضبط	-9.28036
▁ظرف	-9.28036
▁فراموش	-9.28036
▁فوتبالیست	-9.28036
▁فیلمی	-9.28036
▁فیوری	-9.28036
▁قاره	-9.28036
▁قلب	-9.28036
▁قول	-9.28036
▁لس	-9.28036
▁لوکس	-9.28036
▁مصنوعی	-9.28036
▁نقاش	-9.28036
▁نوعی	-9.28036
▁هنرمندان	-9.28036
▁گران	-9.28036
▁یخ	-9.28036
▁اتفاقات	-9.30141
▁اخبار	-9.30141
▁اقدامی	-9.30141
▁اهل	-9.30141
▁ایده	-9.30141
▁باری	-9.30141
▁بازسازی	-9.30141
▁باشند.	-9.30141
▁بان	-9.30141
▁جامع	-9.30141
▁جبران	-9.30141
▁جذاب	-9.30141
▁جنجالی	-9.30141
▁جواد	-9.30141
▁جوانان	-9.30141
▁خطرناک	-9.30141
▁خورشید	-9.30141
▁دلاری	-9.30141
▁رانندگان	-9.30141
▁سخنان	-9.30141
▁سوپر	-9.30141
▁شغل	-9.30141
▁شهروند	-9.30141
▁طرفداران	-9.30141
▁عرصه	-9.30141
▁قوی	-9.30141
▁متوالی	-9.30141
▁مراکز	-9.30141
▁نارنجی	-9.30141
▁پاری	-9.30141
▁پرتاب	-9.30141
▁پوست	-9.30141
▁کرد؛	-9.30141
▁کندمنبع	-9.30141
▁گرم	-9.30141
▁آرسنال	-9.32292
▁آنجلس	-9.32292
▁آکسفورد	-9.32292
▁ابراهیم	-9.32292
▁اتریش	-9.32292
▁است.با	-9.32292
▁استانبول	-9.32292
▁اطراف	-9.32292
▁بیان	-9.32292
▁تئاتر	-9.32292
▁تلفن	-9.32292
▁تماشاگران	-9.32292
▁جاده	-9.32292
▁جدا	-9.32292
▁حملات	-9.32292
▁خسارت	-9.32292
▁رویکرد	-9.32292
▁شد،	-9.32292
▁عدد	-9.32292
▁عکاسی	-9.32292
▁مایکل	-9.32292
▁محققان	-9.32292
▁مدرسه	-9.32292
▁نبوده	-9.32292
▁همتی	-9.32292
▁پایگاه	-9.32292
▁پولشویی	-9.32292
▁چگونگی	-9.32292
▁ژرمن	-9.32292
▁کارمندان	-9.32292
▁گری	-9.32292
▁یوونتوس	-9.32292
▁انداخته	-9.3449
▁بنابر	-9.3449
▁بندر	-9.3449
▁جلب	-9.3449
▁رهبری	-9.3449
▁رو	-9.3449
▁زودتر	-9.3449
▁سبک	-9.3449
▁شصت	-9.3449
▁شهرت	-9.3449
▁صورتی	-9.3449
▁عربی	-9.3449
▁قلبی	-9.3449
▁متحد	-9.3449
▁مرسدس	-9.3449
▁معتقدند	-9.3449
▁موقت	-9.3449
▁نشود	-9.3449
▁نهم	-9.3449
▁پاس	-9.3449
▁کالیفرنیا	-9.3449
▁کیلومتری	-9.3449
▁گیر	-9.3449
▁آرام	-9.36737
▁اختصاص	-9.36737
▁بتوانند	-9.36737
▁برداری	-9.36737
▁بهره	-9.36737
▁ثانیه	-9.36737
▁جذب	-9.36737
▁جسد	-9.36737
▁حامل	-9.36737
▁دانند	-9.36737
▁دبیر	-9.36737
▁دیدن	-9.36737
▁شانس	-9.36737
▁شرکتهای	-9.36737
▁عضویت	-9.36737
▁عمیق	-9.36737
▁فیسبوک	-9.36737
▁مبنی	-9.36737
▁متن	-9.36737
▁مجاز	-9.36737
▁مجسمه	-9.36737
▁مجیدی	-9.36737
▁مختلفی	-9.36737
▁مهمی	-9.36737
▁موثر	-9.36737
▁ناسا	-9.36737
▁ندارند	-9.36737
▁واقعا	-9.36737
▁پارک	-9.36737
▁پدرش	-9.36737
▁پزشک	-9.36737
▁پیگیری	-9.36737
▁کلیه	-9.36737
▁۳۲	-9.36737
▁آلوده	-9.39036
▁آور	-9.39036
▁اتفاقی	-9.39036
▁الحاقی	-9.39036
▁انتظامی	-9.39036
▁ایستاده	-9.39036
▁اینستاگرام	-9.39036
▁باور	-9.39036
▁بند	-9.39036
▁تحصیل	-9.39036
▁تصمیمی	-9.39036
▁تپه	-9.39036
▁دیشب	-9.39036
▁روزی	-9.39036
▁ساده	-9.39036
▁سرایت	-9.39036
▁سرخ	-9.39036
▁فراز	-9.39036
▁محرمانه	-9.39036
▁مسجد	-9.39036
▁نشدن	-9.39036
▁نطنز	-9.39036
▁نماد	-9.39036
▁نکته	-9.39036
▁نیروگاه	-9.39036
▁چقدر	-9.39036
▁کند.این	-9.39036
▁کند؛	-9.39036
▁کوه	-9.39036
▁کی	-9.39036
▁گواردیولا	-9.39036
▁یافتن	-9.39036
▁یمن	-9.39036
▁۹۷	-9.39036
▁اسدی	-9.41389
▁اطلاعیه	-9.41389
▁افزود	-9.41389
▁امیر	-9.41389
▁انواع	-9.41389
▁اهواز	-9.41389
▁بدست	-9.41389
▁برآورد	-9.41389
▁بهای	-9.41389
▁حقیقت	-9.41389
▁خواند	-9.41389
▁دسامبر	-9.41389
▁رحمان	-9.41389
▁روزه	-9.41389
▁رویداد	-9.41389
▁سخن	-9.41389
▁شهرداری	-9.41389
▁غول	-9.41389
▁فرزند	-9.41389
▁فضا	-9.41389
▁قطعه	-9.41389
▁مارک	-9.41389
▁مد	-9.41389
▁مردی	-9.41389
▁مسعود	-9.41389
▁مشاور	-9.41389
▁مناسب	-9.41389
▁موتور	-9.41389
▁ناگهانی	-9.41389
▁هستیم	-9.41389
▁وایلدر	-9.41389
▁پزشکان	-9.41389
▁پنجاه	-9.41389
▁پیچیده	-9.41389
▁کاپیتان	-9.41389
▁کرونا،	-9.41389
▁کلمبیا	-9.41389
▁کیفیت	-9.41389
▁گشایش	-9.41389
▁۱۳۹۷	-9.41389
▁۴۰۰	-9.41389
▁ارزهای	-9.43799
▁است:	-9.43799
▁امشب	-9.43799
▁ایرنا	-9.43799
▁تبعیض	-9.43799
▁تخت	-9.43799
▁تولد	-9.43799
▁حداکثر	-9.43799
▁خبرساز	-9.43799
▁خودداری	-9.43799
▁دهنده	-9.43799
▁دوز	-9.43799
▁رغم	-9.43799
▁سالی	-9.43799
▁شاهین	-9.43799
▁صدها	-9.43799
▁علنی	-9.43799
▁فعلا	-9.43799
▁لبنان	-9.43799
▁ماموریت	-9.43799
▁مریخ	-9.43799
▁مشتریان	-9.43799
▁میراث	-9.43799
▁نفس	-9.43799
▁نور	-9.43799
▁هایشان	-9.43799
▁همسرش	-9.43799
▁هیئت	-9.43799
▁ژاپنی	-9.43799
▁گذار	-9.43799
▁گذاران	-9.43799
▁آشنا	-9.46268
▁ابتدایی	-9.46268
▁ابتلای	-9.46268
▁اضطراری	-9.46268
▁اظهار	-9.46268
▁امیدواری	-9.46268
▁اند؛	-9.46268
▁ایتالیایی	-9.46268
▁بد	-9.46268
▁بردن	-9.46268
▁بسکتبال	-9.46268
▁تایسون	-9.46268
▁تشویق	-9.46268
▁تعرفه	-9.46268
▁تماشاگر	-9.46268
▁جزو	-9.46268
▁جزیره	-9.46268
▁خاصی	-9.46268
▁خودکشی	-9.46268
▁داروی	-9.46268
▁درحالی	-9.46268
▁درون	-9.46268
▁دشوار	-9.46268
▁دمای	-9.46268
▁دیگران	-9.46268
▁رسانی	-9.46268
▁سالن	-9.46268
▁شاملو	-9.46268
▁شهرستان	-9.46268
▁صنعتی	-9.46268
▁طوری	-9.46268
▁مجمع	-9.46268
▁محاسبه	-9.46268
▁محصول	-9.46268
▁مسئولیت	-9.46268
▁مطلب	-9.46268
▁معلوم	-9.46268
▁ملایی	-9.46268
▁نامداری	-9.46268
▁نامش	-9.46268
▁نرم	-9.46268
▁نشد	-9.46268
▁نوروزی	-9.46268
▁نیستند	-9.46268
▁نیمی	-9.46268
▁هلند	-9.46268
▁پنهان	-9.46268
▁یافت.	-9.46268
▁۴۵	-9.46268
▁احضار	-9.488
▁اسپانیایی	-9.488
▁امضای	-9.488
▁بابت	-9.488
▁برخوردار	-9.488
▁برقرار	-9.488
▁بنابراین	-9.488
▁بچه	-9.488
▁تاسیس	-9.488
▁تبریز	-9.488
▁تجاوز	-9.488
▁تعلیق	-9.488
▁تکذیب	-9.488
▁خودروساز	-9.488
▁خودشان	-9.488
▁داند	-9.488
▁دل	-9.488
▁دیجیتال	-9.488
▁ردیف	-9.488
▁رونق	-9.488
▁ساحل	-9.488
▁سازنده	-9.488
▁ساکن	-9.488
▁سایه	-9.488
▁سفرهای	-9.488
▁شد.این	-9.488
▁شورا	-9.488
▁ضروری	-9.488
▁طلای	-9.488
▁عید	-9.488
▁غیرمستقیم	-9.488
▁قدم	-9.488
▁متعددی	-9.488
▁مثال	-9.488
▁محرومیت	-9.488
▁معمول	-9.488
▁مناسبت	-9.488
▁مهرداد	-9.488
▁هوای	-9.488
▁پالایشگاه	-9.488
▁پکن	-9.488
▁چیست	-9.488
▁کارت	-9.488
▁کارشناس	-9.488
▁کارگری	-9.488
▁گرنداسلم	-9.488
▁گزینه	-9.488
▁۱۵۰	-9.488
▁۲۷	-9.488
▁۳۳	-9.488
▁آمدن	-9.51397
▁اسناد	-9.51397
▁اقلیم	-9.51397
▁او	-9.51397
▁ایم	-9.51397
▁بابا	-9.51397
▁بازیکنی	-9.51397
▁تاثیری	-9.51397
▁تحلیل	-9.51397
▁تحولات	-9.51397
▁تعریف	-9.51397
▁توییت	-9.51397
▁حالیکه	-9.51397
▁خمینی	-9.51397
▁دخالت	-9.51397
▁دستورالعمل	-9.51397
▁ذخیره	-9.51397
▁رویدادهای	-9.51397
▁ریشه	-9.51397
▁سرود	-9.51397
▁سرپرست	-9.51397
▁شود،	-9.51397
▁صدرنشین	-9.51397
▁عکاس	-9.51397
▁فروخته	-9.51397
▁ماجرای	-9.51397
▁مشاغل	-9.51397
▁موقع	-9.51397
▁نوبت	-9.51397
▁نیمکت	-9.51397
▁هشتم	-9.51397
▁هویت	-9.51397
▁پذیرش	-9.51397
▁پوشش	-9.51397
▁کانادا	-9.51397
▁کردیم	-9.51397
▁کشاورز	-9.51397
▁کیلوگرم	-9.51397
▁گاه	-9.51397
▁گردد	-9.51397
▁گوشت	-9.51397
▁۲۰۱۱	-9.51397
▁آرایش	-9.54064
▁اسکاتلند	-9.54064
▁بازدید	-9.54064
▁تالاب	-9.54064
▁تیمش	-9.54064
▁جودو	-9.54064
▁جی	-9.54064
▁حاوی	-9.54064
▁حکایت	-9.54064
▁خطیب	-9.54064
▁خفاش	-9.54064
▁دفاعی	-9.54064
▁دیپلماتیک	-9.54064
▁روغن	-9.54064
▁سبب	-9.54064
▁سرنوشت	-9.54064
▁شهرسازی	-9.54064
▁عبدالله	-9.54064
▁فراتر	-9.54064
▁فولکس	-9.54064
▁لحاظ	-9.54064
▁متفاوتی	-9.54064
▁ملاقات	-9.54064
▁نامزدهای	-9.54064
▁ندارند.	-9.54064
▁نصب	-9.54064
▁نژادپرستی	-9.54064
▁هافبک	-9.54064
▁هفتاد	-9.54064
▁هنرهای	-9.54064
▁واگن	-9.54064
▁پرده	-9.54064
▁پرچم	-9.54064
▁پهلوی	-9.54064
▁چارچوب	-9.54064
▁کشید	-9.54064
▁گرفتند	-9.54064
▁یورگن	-9.54064
▁.آقای	-9.56804
▁آسان	-9.56804
▁آنتونی	-9.56804
▁استعفا	-9.56804
▁اموال	-9.56804
▁اندونزی	-9.56804
▁اولویت	-9.56804
▁برگزیده	-9.56804
▁بگیرد.	-9.56804
▁تکمیل	-9.56804
▁خلاف	-9.56804
▁دادستان	-9.56804
▁دادند.	-9.56804
▁داری	-9.56804
▁ذهن	-9.56804
▁رفت.	-9.56804
▁ریال	-9.56804
▁سالم	-9.56804
▁سلول	-9.56804
▁سپرده	-9.56804
▁شده.	-9.56804
▁ضرب	-9.56804
▁عفو	-9.56804
▁عمدتا	-9.56804
▁لذت	-9.56804
▁ما	-9.56804
▁ماهواره	-9.56804
▁مدنی	-9.56804
▁نایب	-9.56804
▁نداشت	-9.56804
▁نفوذ	-9.56804
▁نویسی	-9.56804
▁وارداتی	-9.56804
▁واگذاری	-9.56804
▁ویژگی	-9.56804
▁پاییز	-9.56804
▁پنجمین	-9.56804
▁پیوسته	-9.56804
▁کادر	-9.56804
▁کانون	-9.56804
▁گیرند	-9.56804
▁۶۰۰	-9.56804
▁آرامش	-9.59621
▁آزادسازی	-9.59621
▁آهن	-9.59621
▁اجباری	-9.59621
▁اسکناس	-9.59621
▁باد	-9.59621
▁باشگاهی	-9.59621
▁باغ	-9.59621
▁بالینی	-9.59621
▁برد.	-9.59621
▁بود،	-9.59621
▁تجهیزات	-9.59621
▁تردید	-9.59621
▁تماشای	-9.59621
▁حوادث	-9.59621
▁حوثی	-9.59621
▁خاتمی	-9.59621
▁خواب	-9.59621
▁خودروسازی	-9.59621
▁دیوار	-9.59621
▁ذخایر	-9.59621
▁سهامداران	-9.59621
▁شهرها	-9.59621
▁شود؛	-9.59621
▁شوروی	-9.59621
▁ظرفیت	-9.59621
▁عظیم	-9.59621
▁غذایی	-9.59621
▁فاش	-9.59621
▁فولاد	-9.59621
▁لوازم	-9.59621
▁مادرش	-9.59621
▁مالیاتی	-9.59621
▁ماند.	-9.59621
▁مجازات	-9.59621
▁مراجعه	-9.59621
▁مساله	-9.59621
▁مستقل	-9.59621
▁معنی	-9.59621
▁مقاله	-9.59621
▁مقدار	-9.59621
▁منظور	-9.59621
▁میانگین	-9.59621
▁میناوند	-9.59621
▁نقشه	-9.59621
▁نویس	-9.59621
▁هماهنگی	-9.59621
▁هوشمند	-9.59621
▁پارلمان	-9.59621
▁پنالتی	-9.59621
▁کارنامه	-9.59621
▁کالاها	-9.59621
▁کشاورزی	-9.59621
▁گروسی	-9.59621
▁آذر	-9.6252
▁آفریقا	-9.6252
▁آواز	-9.6252
▁اسب	-9.6252
▁اعتماد	-9.6252
▁افتخار	-9.6252
▁اند.این	-9.6252
▁اورتون	-9.6252
▁اینها	-9.6252
▁بازرسان	-9.6252
▁برج	-9.6252
▁برنت	-9.6252
▁بهرنگ	-9.6252
▁تعطیلات	-9.6252
▁تفاوت	-9.6252
▁تماشا	-9.6252
▁توجهی	-9.6252
▁حکومتی	-9.6252
▁حیوانات	-9.6252
▁خاورمیانه	-9.6252
▁داستانی	-9.6252
▁دام	-9.6252
▁دریا	-9.6252
▁رحمانی	-9.6252
▁رمز	-9.6252
▁رهبران	-9.6252
▁زمستان	-9.6252
▁زیرا	-9.6252
▁سقف	-9.6252
▁شد.در	-9.6252
▁شد.منبع	-9.6252
▁شکسته	-9.6252
▁شیدا	-9.6252
▁علائم	-9.6252
▁عملا	-9.6252
▁غیرقابل	-9.6252
▁فرگوسن	-9.6252
▁فقر	-9.6252
▁ماند	-9.6252
▁مطمئن	-9.6252
▁معتقد	-9.6252
▁نابودی	-9.6252
▁نفع	-9.6252
▁هتل	-9.6252
▁هیجان	-9.6252
▁پرس	-9.6252
▁پژوهشگر	-9.6252
▁چنان	-9.6252
▁چهارمین	-9.6252
▁کجا	-9.6252
▁کسری	-9.6252
▁گذاشت	-9.6252
▁گوشی	-9.6252
▁یابد	-9.6252
▁یکم	-9.6252
▁۴۲	-9.6252
▁۷۰۰	-9.6252
▁آمد.	-9.65505
▁آورد.	-9.65505
▁استاندار	-9.65505
▁اقلام	-9.65505
▁اند.منبع	-9.65505
▁اکثر	-9.65505
▁اینترنت	-9.65505
▁بازگرداندن	-9.65505
▁بازیگران	-9.65505
▁بخت	-9.65505
▁بلافاصله	-9.65505
▁بهتری	-9.65505
▁توانیم	-9.65505
▁جانشین	-9.65505
▁جنجال	-9.65505
▁جواب	-9.65505
▁خطاب	-9.65505
▁درخشان	-9.65505
▁رها	-9.65505
▁روان	-9.65505
▁سرنگونی	-9.65505
▁سفارش	-9.65505
▁شگفت	-9.65505
▁صرف	-9.65505
▁عمق	-9.65505
▁فرمان	-9.65505
▁فروشگاه	-9.65505
▁فصلی	-9.65505
▁فورد	-9.65505
▁فکری	-9.65505
▁قایق	-9.65505
▁قدر	-9.65505
▁قله	-9.65505
▁لستر	-9.65505
▁متهمان	-9.65505
▁محمدجواد	-9.65505
▁نمایندگی	-9.65505
▁هجوم	-9.65505
▁هفتم	-9.65505
▁پیامدهای	-9.65505
▁کارآزمایی	-9.65505
▁کرد،	-9.65505
▁کنفدراسیون	-9.65505
▁گیرد.	-9.65505
▁۲۰۱۲	-9.65505
▁۳۴	-9.65505
▁آفریقای	-9.68582
▁آموزشی	-9.68582
▁ارتباطات	-9.68582
▁اسلام	-9.68582
▁امر	-9.68582
▁امکانات	-9.68582
▁اندکی	-9.68582
▁اولسان	-9.68582
▁ایست	-9.68582
▁بازیکنانی	-9.68582
▁باند	-9.68582
▁بیمه	-9.68582
▁تراکتور	-9.68582
▁تردد	-9.68582
▁تشدید	-9.68582
▁جلو	-9.68582
▁خدمه	-9.68582
▁خراسان	-9.68582
▁داشتند.	-9.68582
▁داوطلبان	-9.68582
▁دیوید	-9.68582
▁رئیسی	-9.68582
▁ریه	-9.68582
▁سرقت	-9.68582
▁سواحل	-9.68582
▁سپری	-9.68582
▁سیما	-9.68582
▁شود.در	-9.68582
▁طبری	-9.68582
▁طبقه	-9.68582
▁عاصمی	-9.68582
▁عطر	-9.68582
▁عمر	-9.68582
▁عملی	-9.68582
▁عوارض	-9.68582
▁مذهبی	-9.68582
▁معاصر	-9.68582
▁مهاجرت	-9.68582
▁مورینیو	-9.68582
▁ناظر	-9.68582
▁ناپذیر	-9.68582
▁نفری	-9.68582
▁نمایشی	-9.68582
▁نیازمند	-9.68582
▁هست	-9.68582
▁پرتغال	-9.68582
▁پروفسور	-9.68582
▁کلاسیک	-9.68582
▁کند.منبع	-9.68582
▁کند،	-9.68582
▁کنفرانس	-9.68582
▁گزارشگر	-9.68582
▁یارانه	-9.68582
▁یازده	-9.68582
▁۹۵	-9.68582
▁'به	-9.71757
▁آزاده	-9.71757
▁آزمایشی	-9.71757
▁ارشاد	-9.71757
▁اعتبار	-9.71757
▁اعتصاب	-9.71757
▁اقامت	-9.71757
▁اماکن	-9.71757
▁ایرانمنبع	-9.71757
▁بغداد	-9.71757
▁بلژیک	-9.71757
▁بود.در	-9.71757
▁بیستم	-9.71757
▁تاکسی	-9.71757
▁تصاویری	-9.71757
▁تقسیم	-9.71757
▁توافقی	-9.71757
▁توطئه	-9.71757
▁جاسوسی	-9.71757
▁حراج	-9.71757
▁حیرت	-9.71757
▁خودروسازان	-9.71757
▁دانیم	-9.71757
▁درحال	-9.71757
▁راستی	-9.71757
▁زانو	-9.71757
▁سراسری	-9.71757
▁سوئد	-9.71757
▁سوئیسی	-9.71757
▁سوار	-9.71757
▁عاشق	-9.71757
▁عشق	-9.71757
▁غیررسمی	-9.71757
▁فان	-9.71757
▁فریاد	-9.71757
▁قلعه	-9.71757
▁متری	-9.71757
▁متشکل	-9.71757
▁مسئولین	-9.71757
▁مشابهی	-9.71757
▁مطلع	-9.71757
▁معدن	-9.71757
▁منافع	-9.71757
▁میر	-9.71757
▁نداریم	-9.71757
▁نساجی	-9.71757
▁نقشی	-9.71757
▁نمایشگاه	-9.71757
▁نود	-9.71757
▁نوروز	-9.71757
▁وزیران	-9.71757
▁وستهم	-9.71757
▁وضعیتی	-9.71757
▁پیوست	-9.71757
▁کارش	-9.71757
▁کرد.این	-9.71757
▁کلیدی	-9.71757
▁کودکی	-9.71757
▁گربه	-9.71757
▁آتی	-9.75036
▁آدم	-9.75036
▁ارتباطی	-9.75036
▁اسامی	-9.75036
▁است.از	-9.75036
▁اپل	-9.75036
▁بازنشسته	-9.75036
▁برقراری	-9.75036
▁برقی	-9.75036
▁برود	-9.75036
▁برگزیت	-9.75036
▁بشری	-9.75036
▁بطور	-9.75036
▁بنیان	-9.75036
▁بهشت	-9.75036
▁بوشهر	-9.75036
▁تسلیحاتی	-9.75036
▁جانسون	-9.75036
▁خاوران	-9.75036
▁خورد	-9.75036
▁خوردن	-9.75036
▁داوران	-9.75036
▁دقیقا	-9.75036
▁رویارویی	-9.75036
▁زیبایی	-9.75036
▁سلطنت	-9.75036
▁ششم	-9.75036
▁طرحی	-9.75036
▁عبارت	-9.75036
▁عبوری	-9.75036
▁عرب	-9.75036
▁عزاداری	-9.75036
▁فاجعه	-9.75036
▁فرود	-9.75036
▁قیمتی	-9.75036
▁ماراتن	-9.75036
▁ماندن	-9.75036
▁متخصص	-9.75036
▁مراحل	-9.75036
▁موافق	-9.75036
▁نان	-9.75036
▁نمایشگر	-9.75036
▁هنگ	-9.75036
▁وخیم	-9.75036
▁وسیله	-9.75036
▁پیراهن	-9.75036
▁پیمان	-9.75036
▁گردشگری	-9.75036
▁گرچه	-9.75036
▁۰	-9.75036
▁۳۹	-9.75036
▁۴۴	-9.75036
▁آزمایی	-9.78426
▁اتومبیل	-9.78426
▁احترام	-9.78426
▁استادیوم	-9.78426
▁اسکی	-9.78426
▁امتیازی	-9.78426
▁بازیگری	-9.78426
▁بدترین	-9.78426
▁بران	-9.78426
▁برداشت	-9.78426
▁برسد.	-9.78426
▁برندگان	-9.78426
▁بودیم	-9.78426
▁بیمارستانی	-9.78426
▁تأمین	-9.78426
▁تائید	-9.78426
▁تحول	-9.78426
▁ترخیص	-9.78426
▁توهین	-9.78426
▁ثبات	-9.78426
▁جنبه	-9.78426
▁حساس	-9.78426
▁خلوص	-9.78426
▁خواهم	-9.78426
▁خودروی	-9.78426
▁دبلیو	-9.78426
▁درد	-9.78426
▁درهای	-9.78426
▁ذوب	-9.78426
▁رساند	-9.78426
▁رسد.	-9.78426
▁رقمی	-9.78426
▁زهرا	-9.78426
▁سانسور	-9.78426
▁سلاح	-9.78426
▁سلمان	-9.78426
▁سو	-9.78426
▁شریفی	-9.78426
▁شنا	-9.78426
▁شود.این	-9.78426
▁شوماخر	-9.78426
▁صادرکننده	-9.78426
▁صادرکنندگان	-9.78426
▁صمت	-9.78426
▁ضرورت	-9.78426
▁طلبان	-9.78426
▁عادت	-9.78426
▁عذرخواهی	-9.78426
▁فروشی	-9.78426
▁قاجار	-9.78426
▁قراردادی	-9.78426
▁قطب	-9.78426
▁مانکن	-9.78426
▁مدارس	-9.78426
▁مدیره	-9.78426
▁من	-9.78426
▁منع	-9.78426
▁نبود.	-9.78426
▁نشینی	-9.78426
▁نظریه	-9.78426
▁نفره	-9.78426
▁نگرفته	-9.78426
▁هاشمی	-9.78426
▁همیلتون	-9.78426
▁واگذار	-9.78426
▁ویدئویی	-9.78426
▁کارمند	-9.78426
▁کن	-9.78426
▁کنگره	-9.78426
▁کوتاهی	-9.78426
▁۴۹	-9.78426
▁۷۵	-9.78426
▁اختلافات	-9.81935
▁اختلال	-9.81935
▁ارزها	-9.81935
▁افتاد.	-9.81935
▁انفرادی	-9.81935
▁اهدا	-9.81935
▁ب	-9.81935
▁بتوان	-9.81935
▁بخوانید:	-9.81935
▁بلخ	-9.81935
▁تحمل	-9.81935
▁توییتی	-9.81935
▁جانی	-9.81935
▁جورج	-9.81935
▁درمانی	-9.81935
▁دهیم	-9.81935
▁دونده	-9.81935
▁دیگو	-9.81935
▁سرکوب	-9.81935
▁سوالات	-9.81935
▁شناس	-9.81935
▁شنیده	-9.81935
▁شود.منبع	-9.81935
▁شویم	-9.81935
▁صادراتی	-9.81935
▁طراح	-9.81935
▁عراقی	-9.81935
▁عکسی	-9.81935
▁فیلمنامه	-9.81935
▁لی	-9.81935
▁لیسبون	-9.81935
▁مازندران	-9.81935
▁ماهانه	-9.81935
▁مجید	-9.81935
▁محمدباقر	-9.81935
▁مخاطبان	-9.81935
▁مرور	-9.81935
▁مساوی	-9.81935
▁مصدومیت	-9.81935
▁مقدماتی	-9.81935
▁میدانی	-9.81935
▁نادر	-9.81935
▁نباشد	-9.81935
▁نرسیده	-9.81935
▁نیرو	-9.81935
▁هجومی	-9.81935
▁هوش	-9.81935
▁هیوندای	-9.81935
▁وانت	-9.81935
▁وحش	-9.81935
▁وسایل	-9.81935
▁وسیع	-9.81935
▁وظیفه	-9.81935
▁پاپ	-9.81935
▁پذیر	-9.81935
▁پل	-9.81935
▁پوشیده	-9.81935
▁چرخ	-9.81935
▁کماکان	-9.81935
▁کند.در	-9.81935
▁گذارد	-9.81935
▁گمان	-9.81935
▁یو	-9.81935
▁۵۵	-9.81935
▁آشکار	-9.85572
▁آمریکای	-9.85572
▁اتهامات	-9.85572
▁ادعا	-9.85572
▁استخراج	-9.85572
▁استخوان	-9.85572
▁اصلا	-9.85572
▁ال	-9.85572
▁اند،	-9.85572
▁اوبر	-9.85572
▁اگر	-9.85572
▁ایرانیان	-9.85572
▁تاثیرگذار	-9.85572
▁جدایی	-9.85572
▁جنبش	-9.85572
▁حلقه	-9.85572
▁خرج	-9.85572
▁خطوط	-9.85572
▁خواستند	-9.85572
▁خودم	-9.85572
▁دادمنبع	-9.85572
▁دامن	-9.85572
▁دانشمند	-9.85572
▁دسترس	-9.85572
▁دوپینگ	-9.85572
▁راستای	-9.85572
▁راهبردی	-9.85572
▁ربات	-9.85572
▁روح	-9.85572
▁ریاض	-9.85572
▁زلزله	-9.85572
▁زیستی	-9.85572
▁ساسی	-9.85572
▁سایپا	-9.85572
▁سرویس	-9.85572
▁سلطنتی	-9.85572
▁شرط	-9.85572
▁شعار	-9.85572
▁شودمنبع	-9.85572
▁شیشه	-9.85572
▁ضعیف	-9.85572
▁عراقچی	-9.85572
▁فایزر	-9.85572
▁فرمانداری	-9.85572
▁قدم؛	-9.85572
▁قصه	-9.85572
▁قیمتها	-9.85572
▁لوئیس	-9.85572
▁محافظت	-9.85572
▁محمدعلی	-9.85572
▁محکومیت	-9.85572
▁مدار	-9.85572
▁مسافر	-9.85572
▁مطهری	-9.85572
▁ملک	-9.85572
▁ملکه	-9.85572
▁منتقد	-9.85572
▁مهاجر	-9.85572
▁نتوانسته	-9.85572
▁همسایه	-9.85572
▁هنگامی	-9.85572
▁پرنده	-9.85572
▁پپ	-9.85572
▁پیاده	-9.85572
▁ژنتیکی	-9.85572
▁کریستیانو	-9.85572
▁کناره	-9.85572
▁گذاشتن	-9.85572
▁گمانه	-9.85572
▁گوشه	-9.85572
▁یوفا	-9.85572
▁۲۰۱۰	-9.85572
▁۲۵۰	-9.85572
▁۹۶	-9.85572
▁آگاه	-9.89346
▁آید.	-9.89346
▁است.اما	-9.89346
▁اشتغال	-9.89346
▁افشار	-9.89346
▁التهاب	-9.89346
▁اند.در	-9.89346
▁انگیزه	-9.89346
▁ایرباس	-9.89346
▁برابری	-9.89346
▁برتری	-9.89346
▁برخلاف	-9.89346
▁بلیت	-9.89346
▁بود.منبع	-9.89346
▁بودم	-9.89346
▁بورل	-9.89346
▁تبلیغ	-9.89346
▁تبلیغات	-9.89346
▁تدوین	-9.89346
▁ترور	-9.89346
▁تروریستی	-9.89346
▁جنسیت	-9.89346
▁جوانی	-9.89346
▁جونز	-9.89346
▁حضورش	-9.89346
▁خدمت	-9.89346
▁دانشجویان	-9.89346
▁دستکم	-9.89346
▁دفن	-9.89346
▁ذرات	-9.89346
▁زند	-9.89346
▁سالها	-9.89346
▁سد	-9.89346
▁سران	-9.89346
▁سگ	-9.89346
▁شاغل	-9.89346
▁شفاف	-9.89346
▁شناور	-9.89346
▁شکار	-9.89346
▁شیرین	-9.89346
▁طیف	-9.89346
▁علم	-9.89346
▁غلبه	-9.89346
▁فتح	-9.89346
▁فرم	-9.89346
▁فوتبالی	-9.89346
▁قابلیت	-9.89346
▁لاریجانی	-9.89346
▁لمس	-9.89346
▁مبادله	-9.89346
▁متاسفانه	-9.89346
▁محیطی	-9.89346
▁مدرن	-9.89346
▁مسافرتی	-9.89346
▁مصاف	-9.89346
▁معمولی	-9.89346
▁ملحق	-9.89346
▁منار	-9.89346
▁ناظران	-9.89346
▁نقدی	-9.89346
▁نماز	-9.89346
▁نوسان	-9.89346
▁همیشگی	-9.89346
▁والی	-9.89346
▁واژه	-9.89346
▁وسط	-9.89346
▁ولیعهد	-9.89346
▁پانزده	-9.89346
▁پانصد	-9.89346
▁پرسش	-9.89346
▁پرفروش	-9.89346
▁پرندگان	-9.89346
▁کنگ	-9.89346
▁۲۰۰۰	-9.89346
▁۳۸	-9.89346
▁۵۷	-9.89346
▁آسیایی	-9.93268
▁آموزان	-9.93268
▁ارزان	-9.93268
▁است؟منبع	-9.93268
▁استراماچونی	-9.93268
▁اطلس	-9.93268
▁اقلیمی	-9.93268
▁ایاصوفیه	-9.93268
▁باخته	-9.93268
▁باران	-9.93268
▁بالاخره	-9.93268
▁بامداد	-9.93268
▁برایش	-9.93268
▁برکنار	-9.93268
▁تابلوی	-9.93268
▁تعلق	-9.93268
▁تلخ	-9.93268
▁تورمی	-9.93268
▁جلسات	-9.93268
▁حمایتی	-9.93268
▁خان	-9.93268
▁خلاصه	-9.93268
▁دائم	-9.93268
▁دارم	-9.93268
▁دوستانه	-9.93268
▁دویست	-9.93268
▁راحت	-9.93268
▁رساندن	-9.93268
▁رسیدمنبع	-9.93268
▁سرد	-9.93268
▁سلطان	-9.93268
▁شد.با	-9.93268
▁شواهد	-9.93268
▁شود.آقای	-9.93268
▁شوک	-9.93268
▁صادق	-9.93268
▁صادقی	-9.93268
▁فراری	-9.93268
▁قاضی	-9.93268
▁قبادی	-9.93268
▁قدس	-9.93268
▁متعدد	-9.93268
▁محافظه	-9.93268
▁مراسمی	-9.93268
▁مسکونی	-9.93268
▁معارف	-9.93268
▁مهارت	-9.93268
▁موشکی	-9.93268
▁موضوعی	-9.93268
▁میانی	-9.93268
▁نامیده	-9.93268
▁نسبی	-9.93268
▁نهاده	-9.93268
▁نوجوان	-9.93268
▁هشتاد	-9.93268
▁همراهی	-9.93268
▁واکسینه	-9.93268
▁واکنشی	-9.93268
▁وبسایت	-9.93268
▁وقوع	-9.93268
▁ولز	-9.93268
▁ولسوالی	-9.93268
▁ویدیو	-9.93268
▁ویلموتس	-9.93268
▁پادشاه	-9.93268
▁پیست	-9.93268
▁پیشگیری	-9.93268
▁کارزار	-9.93268
▁کاوشگر	-9.93268
▁کرد.در	-9.93268
▁کنم.	-9.93268
▁کهکشان	-9.93268
▁گورستان	-9.93268
▁۲۰۰۸	-9.93268
▁۲۰۲۲	-9.93268
▁۳۷	-9.93268
▁۴۸	-9.93268
▁آبادی	-9.97351
▁آرژانتینی	-9.97351
▁آگهی	-9.97351
▁اختصاصی	-9.97351
▁ادعای	-9.97351
▁اعداد	-9.97351
▁افکن	-9.97351
▁املاک	-9.97351
▁انصاریان	-9.97351
▁ایام	-9.97351
▁باختگان	-9.97351
▁بخصوص	-9.97351
▁برادر	-9.97351
▁برعهده	-9.97351
▁برون	-9.97351
▁بزرگداشت	-9.97351
▁بماند	-9.97351
▁بود.این	-9.97351
▁بوندس	-9.97351
▁تحمیل	-9.97351
▁تدابیر	-9.97351
▁تعهد	-9.97351
▁تفحص	-9.97351
▁توانم	-9.97351
▁تگزاس	-9.97351
▁جایگزین	-9.97351
▁جرم	-9.97351
▁خاطرات	-9.97351
▁خبرهای	-9.97351
▁خداحافظی	-9.97351
▁خوانندگان	-9.97351
▁دادگاهی	-9.97351
▁دارد؛	-9.97351
▁دانست.	-9.97351
▁درخت	-9.97351
▁رسید؛	-9.97351
▁رنو	-9.97351
▁رود.	-9.97351
▁رویه	-9.97351
▁زرد	-9.97351
▁زیان	-9.97351
▁سانتی	-9.97351
▁شبه	-9.97351
▁شد.او	-9.97351
▁صعودی	-9.97351
▁ضرر	-9.97351
▁طلب	-9.97351
▁فاز	-9.97351
▁فیزیک	-9.97351
▁قرارگاه	-9.97351
▁لایه	-9.97351
▁مجهز	-9.97351
▁محاکمه	-9.97351
▁مخفی	-9.97351
▁مریم	-9.97351
▁مصوب	-9.97351
▁معاونت	-9.97351
▁مفید	-9.97351
▁مقاومت	-9.97351
▁موبایل	-9.97351
▁موسسات	-9.97351
▁مگاوات	-9.97351
▁نخواهند	-9.97351
▁نروژ	-9.97351
▁نواک	-9.97351
▁نیوزیلند	-9.97351
▁هالیوود	-9.97351
▁همسان	-9.97351
▁همگی	-9.97351
▁ودیعه	-9.97351
▁وقفه	-9.97351
▁ویدیویی	-9.97351
▁ویلیام	-9.97351
▁پتروشیمی	-9.97351
▁پرافتخارترین	-9.97351
▁پرورش	-9.97351
▁پوریا	-9.97351
▁کارهایی	-9.97351
▁کتابی	-9.97351
▁کس	-9.97351
▁کلیات	-9.97351
▁کمرنگ	-9.97351
▁کوچکی	-9.97351
▁گذرد	-9.97351
▁گردن	-9.97351
▁گفتگوها	-9.97351
▁گمرکی	-9.97351
▁۱۹۸۶	-9.97351
▁۴۳	-9.97351
▁۶۵	-9.97351
▁آذربایجان	-10.0161
▁آنقدر	-10.0161
▁آوردن	-10.0161
▁ابعاد	-10.0161
▁اتحاد	-10.0161
▁استون	-10.0161
▁اصطلاح	-10.0161
▁اضطراب	-10.0161
▁امن	-10.0161
▁اهالی	-10.0161
▁اوکراینی	-10.0161
▁اکسیژن	-10.0161
▁بدل	-10.0161
▁بدی	-10.0161
▁برانکو	-10.0161
▁برانگیز	-10.0161
▁بوش	-10.0161
▁تبار	-10.0161
▁تبلیغاتی	-10.0161
▁تجدید	-10.0161
▁تروریسم	-10.0161
▁تنفسی	-10.0161
▁تنهایی	-10.0161
▁توانستند	-10.0161
▁توماس	-10.0161
▁تکلیف	-10.0161
▁ثروت	-10.0161
▁ثمر	-10.0161
▁جدال	-10.0161
▁حیاتی	-10.0161
▁خشم	-10.0161
▁دادگستری	-10.0161
▁دانستند	-10.0161
▁داوطلب	-10.0161
▁دستگیری	-10.0161
▁دوام	-10.0161
▁راز	-10.0161
▁راموس	-10.0161
▁رسانده	-10.0161
▁رستوران	-10.0161
▁روبه	-10.0161
▁زدند	-10.0161
▁زنانی	-10.0161
▁زود	-10.0161
▁شاهزاده	-10.0161
▁شده؛	-10.0161
▁شریک	-10.0161
▁شیری	-10.0161
▁صاحبان	-10.0161
▁صالح	-10.0161
▁صلاح	-10.0161
▁عبدالناصر	-10.0161
▁عزیزی	-10.0161
▁عفونت	-10.0161
▁عملیاتی	-10.0161
▁غریب	-10.0161
▁فرآیند	-10.0161
▁فلزی	-10.0161
▁فلوید	-10.0161
▁فیلیپ	-10.0161
▁قادر	-10.0161
▁قد	-10.0161
▁قدمت	-10.0161
▁قربانی	-10.0161
▁قریب	-10.0161
▁لوله	-10.0161
▁مارتین	-10.0161
▁مبنای	-10.0161
▁محافظ	-10.0161
▁محتوای	-10.0161
▁محرم	-10.0161
▁مدارک	-10.0161
▁مسکو	-10.0161
▁مشتری	-10.0161
▁مشورت	-10.0161
▁منچستریونایتد	-10.0161
▁مهلت	-10.0161
▁موسوی	-10.0161
▁میلیاردها	-10.0161
▁ناخالص	-10.0161
▁نادیده	-10.0161
▁نبرد	-10.0161
▁نظامیان	-10.0161
▁هاوس	-10.0161
▁والیبال	-10.0161
▁پالایشگاهی	-10.0161
▁پولی	-10.0161
▁پیوستن	-10.0161
▁پیوند	-10.0161
▁چرخه	-10.0161
▁چشمگیر	-10.0161
▁چندی	-10.0161
▁کاسته	-10.0161
▁کتیبه	-10.0161
▁کریکت	-10.0161
▁کمترین	-10.0161
▁کیم	-10.0161
▁گرند	-10.0161
▁گوگل	-10.0161
▁یادآوری	-10.0161
▁۲۰۲۰)	-10.0161
▁۴۲۰۰	-10.0161
▁آمریکا،	-10.0605
▁اتمام	-10.0605
▁اردلان	-10.0605
▁اسماعیلی	-10.0605
▁اشک	-10.0605
▁اصناف	-10.0605
▁امتحان	-10.0605
▁انقراض	-10.0605
▁اهداف	-10.0605
▁ایلان	-10.0605
▁اینتر	-10.0605
▁برکناری	-10.0605
▁بعنوان	-10.0605
▁بنیانگذار	-10.0605
▁تاپ	-10.0605
▁تداوم	-10.0605
▁ترکیبی	-10.0605
▁تظاهرات	-10.0605
▁تغییری	-10.0605
▁تلقی	-10.0605
▁تکان	-10.0605
▁تکه	-10.0605
▁جلالی	-10.0605
▁جهاد	-10.0605
▁جهانگیری	-10.0605
▁حداکثری	-10.0605
▁حضوری	-10.0605
▁خانوارهای	-10.0605
▁خریداری	-10.0605
▁خواندن	-10.0605
▁خوک	-10.0605
▁خیابانی	-10.0605
▁دامنه	-10.0605
▁دشواری	-10.0605
▁راس	-10.0605
▁رضوی	-10.0605
▁رودخانه	-10.0605
▁زمینی	-10.0605
▁زوج	-10.0605
▁سرزمین	-10.0605
▁شتاب	-10.0605
▁شخص	-10.0605
▁شد.آقای	-10.0605
▁شفافیت	-10.0605
▁شمارش	-10.0605
▁شک	-10.0605
▁شکنجه	-10.0605
▁صحن	-10.0605
▁عروسی	-10.0605
▁عوض	-10.0605
▁فرش	-10.0605
▁فلوریدا	-10.0605
▁قراردادش	-10.0605
▁لیگا	-10.0605
▁محسن	-10.0605
▁مرزهای	-10.0605
▁مرغداران	-10.0605
▁مستقر	-10.0605
▁مشروط	-10.0605
▁مشکلاتی	-10.0605
▁مصوبات	-10.0605
▁مغزی	-10.0605
▁منتفی	-10.0605
▁موانع	-10.0605
▁موضوعات	-10.0605
▁موظف	-10.0605
▁مکرون	-10.0605
▁ناحیه	-10.0605
▁نتوانست	-10.0605
▁نداشتند	-10.0605
▁هامر	-10.0605
▁هرچه	-10.0605
▁هندی	-10.0605
▁پاک	-10.0605
▁پذیرفته	-10.0605
▁پروانه	-10.0605
▁پلاستیکی	-10.0605
▁ژان	-10.0605
▁کابینه	-10.0605
▁کرام	-10.0605
▁کربن	-10.0605
▁کرد.منبع	-10.0605
▁کرده،	-10.0605
▁کریمی	-10.0605
▁کش	-10.0605
▁کشمکش	-10.0605
▁کمال	-10.0605
▁گروگان	-10.0605
▁گلزنی	-10.0605
▁گنجینه	-10.0605
▁۸۰۰	-10.0605
▁.این	-10.107
▁آمارهای	-10.107
▁ارتفاع	-10.107
▁اریک	-10.107
▁ازای	-10.107
▁استدر	-10.107
▁استرازنکا	-10.107
▁استعفای	-10.107
▁استناد	-10.107
▁اسلم	-10.107
▁اشرف	-10.107
▁اصرار	-10.107
▁اعزام	-10.107
▁الکترونیکی	-10.107
▁اند.به	-10.107
▁انگار	-10.107
▁اوکراین	-10.107
▁باتری	-10.107
▁بدتر	-10.107
▁بدنه	-10.107
▁بروکسل	-10.107
▁بست	-10.107
▁بستن	-10.107
▁بندرعباس	-10.107
▁بها	-10.107
▁بود.به	-10.107
▁تأثیر	-10.107
▁تبعات	-10.107
▁تخصیص	-10.107
▁تخلف	-10.107
▁ترویج	-10.107
▁تسلیت	-10.107
▁تسنیم	-10.107
▁تسهیلات	-10.107
▁تعجب	-10.107
▁تلفیق	-10.107
▁ثروتمندترین	-10.107
▁جمال	-10.107
▁خطی	-10.107
▁خودران	-10.107
▁خورد.	-10.107
▁دادستانی	-10.107
▁دادسرای	-10.107
▁داریم.	-10.107
▁دبیرکل	-10.107
▁دروغ	-10.107
▁دهمین	-10.107
▁ذکر	-10.107
▁زد.	-10.107
▁ساعات	-10.107
▁ساعاتی	-10.107
▁ساکنان	-10.107
▁سحر	-10.107
▁سراغ	-10.107
▁سرنشینان	-10.107
▁سیل	-10.107
▁ششمین	-10.107
▁شناخت	-10.107
▁شکاف	-10.107
▁شکلی	-10.107
▁صرفا	-10.107
▁طلایی	-10.107
▁عقیده	-10.107
▁عمان	-10.107
▁غافلگیر	-10.107
▁غذای	-10.107
▁فردوسی	-10.107
▁لیدز	-10.107
▁مایک	-10.107
▁مترجم	-10.107
▁محقق	-10.107
▁مداوم	-10.107
▁مرجان	-10.107
▁ملبورن	-10.107
▁موش	-10.107
▁ناجی	-10.107
▁نشت	-10.107
▁نقد	-10.107
▁نمایی	-10.107
▁نژادی	-10.107
▁هفتمین	-10.107
▁وزارتخانه	-10.107
▁ویروسی	-10.107
▁پارسی	-10.107
▁پنجره	-10.107
▁کرد.آقای	-10.107
▁کشی	-10.107
▁کهن	-10.107
▁گذاشت.	-10.107
▁گشت	-10.107
▁گلوله	-10.107
▁۱۰۰۰	-10.107
▁،	-10.1558
▁آرای	-10.1558
▁آنفلوآنزا	-10.1558
▁آیین	-10.1558
▁اردوغان	-10.1558
▁استراحت	-10.1558
▁اسم	-10.1558
▁اسکیت	-10.1558
▁افتتاح	-10.1558
▁افکار	-10.1558
▁انبار	-10.1558
▁انتخابی	-10.1558
▁اهدای	-10.1558
▁اپلیکیشن	-10.1558
▁ایفای	-10.1558
▁ایم.	-10.1558
▁بالایی	-10.1558
▁بامیان	-10.1558
▁بزند	-10.1558
▁بزوس	-10.1558
▁بشدت	-10.1558
▁بعدازظهر	-10.1558
▁بهایی	-10.1558
▁بهرام	-10.1558
▁بومی	-10.1558
▁تب	-10.1558
▁تحلیلگران	-10.1558
▁تخیلی	-10.1558
▁ترجیح	-10.1558
▁تقویم	-10.1558
▁تمایل	-10.1558
▁تور	-10.1558
▁تولیدات	-10.1558
▁جانبی	-10.1558
▁جعلی	-10.1558
▁جک	-10.1558
▁جیب	-10.1558
▁حمید	-10.1558
▁حین	-10.1558
▁خاتمه	-10.1558
▁خرده	-10.1558
▁خریداران	-10.1558
▁خشکسالی	-10.1558
▁خواه	-10.1558
▁خواهی	-10.1558
▁خودروها	-10.1558
▁دارویی	-10.1558
▁دانم	-10.1558
▁دانند.	-10.1558
▁دنیامنبع	-10.1558
▁دهقان	-10.1558
▁دورتموند	-10.1558
▁دژپسند	-10.1558
▁روس	-10.1558
▁روستای	-10.1558
▁روسی	-10.1558
▁زاده،	-10.1558
▁زنند	-10.1558
▁زوال	-10.1558
▁زکی	-10.1558
▁ساختن	-10.1558
▁سایبری	-10.1558
▁سرباز	-10.1558
▁سرگیری	-10.1558
▁سنا	-10.1558
▁سیاره	-10.1558
▁سیف	-10.1558
▁شیراز	-10.1558
▁صالحی	-10.1558
▁صبر	-10.1558
▁ضربات	-10.1558
▁ظاهرا	-10.1558
▁ظهور	-10.1558
▁عادل	-10.1558
▁غرق	-10.1558
▁فارغ	-10.1558
▁فرونشست	-10.1558
▁لاشه	-10.1558
▁لایپزیگ	-10.1558
▁لنون	-10.1558
▁مادورو	-10.1558
▁ماشینی	-10.1558
▁مامور	-10.1558
▁مبادلات	-10.1558
▁محاسبات	-10.1558
▁محدودیتهای	-10.1558
▁مرخصی	-10.1558
▁مردمی	-10.1558
▁مشکلی	-10.1558
▁مصادره	-10.1558
▁معافیت	-10.1558
▁منتخب	-10.1558
▁منوچهر	-10.1558
▁موکول	-10.1558
▁میوه	-10.1558
▁نامی	-10.1558
▁نوار	-10.1558
▁نکرد	-10.1558
▁نگار	-10.1558
▁هستیم.	-10.1558
▁هماهنگ	-10.1558
▁همرسانی	-10.1558
▁واحدهای	-10.1558
▁وب	-10.1558
▁وحید	-10.1558
▁وست	-10.1558
▁ویلا	-10.1558
▁پلنگ	-10.1558
▁پیشنهادی	-10.1558
▁پیکر	-10.1558
▁چشمگیری	-10.1558
▁کارلوس	-10.1558
▁کارگاه	-10.1558
▁کاشی	-10.1558
▁کشد	-10.1558
▁کلاب	-10.1558
▁کلود	-10.1558
▁کمتری	-10.1558
▁کنند،	-10.1558
▁گذارد.	-10.1558
▁گردشگران	-10.1558
▁گرفتار	-10.1558
▁گلف	-10.1558
▁گیرند.	-10.1558
▁یمانی	-10.1558
▁یونان	-10.1558
▁یکصد	-10.1558
▁۵۲	-10.1558
▁۶۷	-10.1558
▁'	-10.2071
▁؛	-10.2071
▁آرامگاه	-10.2071
▁ابزار	-10.2071
▁اثری	-10.2071
▁احسان	-10.2071
▁اختلاس	-10.2071
▁اخلال	-10.2071
▁ارایه	-10.2071
▁استاین	-10.2071
▁اشتراک	-10.2071
▁اعتقاد	-10.2071
▁افزار	-10.2071
▁اقلیت	-10.2071
▁امین	-10.2071
▁انتقادها	-10.2071
▁اکران	-10.2071
▁باشیم	-10.2071
▁بحرانی	-10.2071
▁برزیلی	-10.2071
▁برلین	-10.2071
▁بشار	-10.2071
▁بوک	-10.2071
▁بویژه	-10.2071
▁بیژن	-10.2071
▁تحقیقی	-10.2071
▁تدریجی	-10.2071
▁تصمیمات	-10.2071
▁تضعیف	-10.2071
▁تعدیل	-10.2071
▁تعقیب	-10.2071
▁تقابل	-10.2071
▁تلفنی	-10.2071
▁تلگرام	-10.2071
▁توافقنامه	-10.2071
▁جداول	-10.2071
▁جستجوی	-10.2071
▁جنس	-10.2071
▁خانوادگی	-10.2071
▁خرد	-10.2071
▁خریدهای	-10.2071
▁خشکی	-10.2071
▁خوان	-10.2071
▁دارا	-10.2071
▁دماوند	-10.2071
▁دوحه	-10.2071
▁دوستان	-10.2071
▁دپ	-10.2071
▁دیه	-10.2071
▁رئیسه	-10.2071
▁رابرت	-10.2071
▁رضایت	-10.2071
▁رمزارزها	-10.2071
▁رهنورد	-10.2071
▁روستایی	-10.2071
▁رینگ	-10.2071
▁زباله	-10.2071
▁زنگنه	-10.2071
▁زیرمجموعه	-10.2071
▁سبز	-10.2071
▁سرمربیگری	-10.2071
▁سطحی	-10.2071
▁سیمای	-10.2071
▁شاخه	-10.2071
▁شارژ	-10.2071
▁شانه	-10.2071
▁شد.به	-10.2071
▁شود.به	-10.2071
▁طوفان	-10.2071
▁ظاهری	-10.2071
▁عبدی	-10.2071
▁عروسک	-10.2071
▁عموم	-10.2071
▁فاقد	-10.2071
▁فدرال	-10.2071
▁فرزندان	-10.2071
▁فرصتی	-10.2071
▁فلیک	-10.2071
▁قاطع	-10.2071
▁قبال	-10.2071
▁قرص	-10.2071
▁قضیه	-10.2071
▁مالاریا	-10.2071
▁ماهنامه	-10.2071
▁محبوبیت	-10.2071
▁مدعیان	-10.2071
▁مربوطه	-10.2071
▁مرگبار	-10.2071
▁مشهورترین	-10.2071
▁مصطفی	-10.2071
▁معتبرترین	-10.2071
▁مفاد	-10.2071
▁مفهوم	-10.2071
▁مقامهای	-10.2071
▁مقصر	-10.2071
▁ملقب	-10.2071
▁موجودات	-10.2071
▁موسس	-10.2071
▁ناراحت	-10.2071
▁نازی	-10.2071
▁نامزدها	-10.2071
▁ناپدید	-10.2071
▁ناکامی	-10.2071
▁ناگهان	-10.2071
▁نشانی	-10.2071
▁نشیب	-10.2071
▁نه.	-10.2071
▁نوجوانی	-10.2071
▁نیازهای	-10.2071
▁نیوکاسل	-10.2071
▁هرگونه	-10.2071
▁هواپیماهای	-10.2071
▁وقایع	-10.2071
▁ویلیامز	-10.2071
▁پادتن	-10.2071
▁پرسی	-10.2071
▁پرهیز	-10.2071
▁چراغ	-10.2071
▁ژنتیک	-10.2071
▁کادیلاک	-10.2071
▁کاربری	-10.2071
▁کارشان	-10.2071
▁کمربند	-10.2071
▁کند.آقای	-10.2071
▁گذر	-10.2071
▁گردد.	-10.2071
▁یاری	-10.2071
▁یوگا	-10.2071
▁۱۹۹۰	-10.2071
▁۲۰۰۹	-10.2071
▁۷۷	-10.2071
▁۹۱	-10.2071
▁...	-10.2612
▁.او	-10.2612
▁.به	-10.2612
▁آباد	-10.2612
▁آفتاب	-10.2612
▁آل	-10.2612
▁آندره	-10.2612
▁آهنگساز	-10.2612
▁است.مقام	-10.2612
▁استخدام	-10.2612
▁استراتژی	-10.2612
▁استرالیایی	-10.2612
▁اسپرت	-10.2612
▁اسپوتنیک	-10.2612
▁اعضا	-10.2612
▁افتد	-10.2612
▁اما	-10.2612
▁انتقادهای	-10.2612
▁انداخت	-10.2612
▁اوین	-10.2612
▁ایرلند	-10.2612
▁ایلنا	-10.2612
▁ایمان	-10.2612
▁باب	-10.2612
▁باشید	-10.2612
▁بدر	-10.2612
▁برادرش	-10.2612
▁برانگیخته	-10.2612
▁برداشتن	-10.2612
▁بنیادی	-10.2612
▁بوکسور	-10.2612
▁بگذارد	-10.2612
▁بگویم	-10.2612
▁بگیریم	-10.2612
▁تجلیل	-10.2612
▁ترسناک	-10.2612
▁ترسیم	-10.2612
▁تسلیم	-10.2612
▁تصادف	-10.2612
▁تعادل	-10.2612
▁تلاشی	-10.2612
▁تنفس	-10.2612
▁تهران،	-10.2612
▁تکنولوژی	-10.2612
▁جاشوا	-10.2612
▁جانشان	-10.2612
▁جبهه	-10.2612
▁جسمی	-10.2612
▁جلال	-10.2612
▁جلوپنجره	-10.2612
▁جین	-10.2612
▁حافظه	-10.2612
▁حامی	-10.2612
▁حامیان	-10.2612
▁حداد	-10.2612
▁حدی	-10.2612
▁خاتم	-10.2612
▁خشک	-10.2612
▁خواند.	-10.2612
▁خواهید	-10.2612
▁دانشکده	-10.2612
▁دانمارک	-10.2612
▁دایک	-10.2612
▁دراز	-10.2612
▁درس	-10.2612
▁دستکاری	-10.2612
▁دقت	-10.2612
▁دهان	-10.2612
▁دوری	-10.2612
▁دیپلمات	-10.2612
▁راحتی	-10.2612
▁رادیویی	-10.2612
▁راند	-10.2612
▁روزمره	-10.2612
▁سالمندان	-10.2612
▁سالیوان	-10.2612
▁سرخیو	-10.2612
▁سناتور	-10.2612
▁سکونت	-10.2612
▁شاغلان	-10.2612
▁شاگردان	-10.2612
▁شدیدی	-10.2612
▁شمخانی	-10.2612
▁شمسی	-10.2612
▁شود؟منبع	-10.2612
▁صدمه	-10.2612
▁صرفه	-10.2612
▁صندلی	-10.2612
▁صنفی	-10.2612
▁طرفدار	-10.2612
▁ظهر	-10.2612
▁عاملان	-10.2612
▁علاقمندان	-10.2612
▁علیرغم	-10.2612
▁فر	-10.2612
▁فن؛	-10.2612
▁لالیگا	-10.2612
▁لحظات	-10.2612
▁لزوم	-10.2612
▁لهستان	-10.2612
▁مادران	-10.2612
▁مادری	-10.2612
▁متخصصان	-10.2612
▁متعهد	-10.2612
▁متمرکز	-10.2612
▁متناسب	-10.2612
▁محوطه	-10.2612
▁مخدر	-10.2612
▁مخصوص	-10.2612
▁مراتب	-10.2612
▁مس	-10.2612
▁مستمری	-10.2612
▁مقرر	-10.2612
▁منچسترسیتی	-10.2612
▁مهرماه	-10.2612
▁نادرست	-10.2612
▁ناکام	-10.2612
▁نت	-10.2612
▁نداشتن	-10.2612
▁نزد	-10.2612
▁نشد.	-10.2612
▁نظارتی	-10.2612
▁نمادهای	-10.2612
▁نهمین	-10.2612
▁نکردن	-10.2612
▁نگاری	-10.2612
▁نیجریه	-10.2612
▁نیما	-10.2612
▁ها.	-10.2612
▁هشتگ	-10.2612
▁همانند	-10.2612
▁همینطور	-10.2612
▁وجه	-10.2612
▁وحشی	-10.2612
▁وداع	-10.2612
▁ورودی	-10.2612
▁ویران	-10.2612
▁پراکنده	-10.2612
▁پناهجویان	-10.2612
▁پنجه	-10.2612
▁چندانی	-10.2612
▁کانری	-10.2612
▁کرده.	-10.2612
▁کفش	-10.2612
▁کند؟منبع	-10.2612
▁کووید-۱۹	-10.2612
▁کپی	-10.2612
▁گازی	-10.2612
▁گانه	-10.2612
▁گزارشگران	-10.2612
▁یازدهم	-10.2612
▁۱۲۰	-10.2612
▁۲۰۱۳	-10.2612
▁۷۲	-10.2612
▁۷۴	-10.2612
▁.در	-10.3183
▁آسمایی	-10.3183
▁آماری	-10.3183
▁آمریکا؛	-10.3183
▁اخلاقی	-10.3183
▁اساسنامه	-10.3183
▁است'منبع	-10.3183
▁است.دولت	-10.3183
▁است.محمد	-10.3183
▁است.یکی	-10.3183
▁استراتژیک	-10.3183
▁اعلامیه	-10.3183
▁اقداماتی	-10.3183
▁الکس	-10.3183
▁امیرشاهی	-10.3183
▁انبوه	-10.3183
▁اورژانس	-10.3183
▁اپرا	-10.3183
▁باستان	-10.3183
▁بجای	-10.3183
▁بدنی	-10.3183
▁برایتون	-10.3183
▁بعدها	-10.3183
▁بعید	-10.3183
▁بهروز	-10.3183
▁بیل	-10.3183
▁بینایی	-10.3183
▁تاجیک	-10.3183
▁تثبیت	-10.3183
▁تحقق	-10.3183
▁تخلفات	-10.3183
▁ترکمنستان	-10.3183
▁تعامل	-10.3183
▁تعهداتش	-10.3183
▁تلف	-10.3183
▁تمرکز	-10.3183
▁تند	-10.3183
▁توضیحات	-10.3183
▁جالب	-10.3183
▁جدیدترین	-10.3183
▁جستجو	-10.3183
▁جنسیتی	-10.3183
▁حاکم	-10.3183
▁حیدری	-10.3183
▁حیوان	-10.3183
▁ختم	-10.3183
▁خرابکاری	-10.3183
▁خوشحال	-10.3183
▁خوشنام	-10.3183
▁خیانت	-10.3183
▁دارد،	-10.3183
▁داریوش	-10.3183
▁داشتم	-10.3183
▁دقایق	-10.3183
▁دموکرات	-10.3183
▁دوازده	-10.3183
▁راک	-10.3183
▁رایحه	-10.3183
▁رسمیت	-10.3183
▁رم	-10.3183
▁رنج	-10.3183
▁روحانی،	-10.3183
▁روزگار	-10.3183
▁رویای	-10.3183
▁رکورددار	-10.3183
▁رکوردی	-10.3183
▁زنجیره	-10.3183
▁سامسونگ	-10.3183
▁ساویز	-10.3183
▁ستایش	-10.3183
▁سرنگون	-10.3183
▁سیامک	-10.3183
▁سیزده	-10.3183
▁شاهکار	-10.3183
▁شدیدترین	-10.3183
▁شناسان	-10.3183
▁شهروندی	-10.3183
▁شور	-10.3183
▁شی	-10.3183
▁صداوسیما	-10.3183
▁عرض	-10.3183
▁غیاب	-10.3183
▁فرا	-10.3183
▁فراوان	-10.3183
▁فراوانی	-10.3183
▁فقیر	-10.3183
▁فیس	-10.3183
▁لاتین	-10.3183
▁لقب	-10.3183
▁مان	-10.3183
▁محله	-10.3183
▁مراجع	-10.3183
▁مرجع	-10.3183
▁مرمت	-10.3183
▁مسایل	-10.3183
▁مطالعات	-10.3183
▁مطبوعات	-10.3183
▁معترض	-10.3183
▁مغازه	-10.3183
▁مناسبی	-10.3183
▁منتهی	-10.3183
▁منزل	-10.3183
▁منصور	-10.3183
▁میلیونی	-10.3183
▁نجف	-10.3183
▁نشسته	-10.3183
▁نمای	-10.3183
▁نوبخت	-10.3183
▁نوسانات	-10.3183
▁نوشتن	-10.3183
▁نیست؛	-10.3183
▁هدیه	-10.3183
▁هروی	-10.3183
▁هشتمین	-10.3183
▁همانطور	-10.3183
▁همکاران	-10.3183
▁ویدیوی	-10.3183
▁پارالمپیک	-10.3183
▁پالایشی	-10.3183
▁پستی	-10.3183
▁پیامی	-10.3183
▁کالج	-10.3183
▁کامیون	-10.3183
▁کتابخانه	-10.3183
▁کردستان	-10.3183
▁کرمان	-10.3183
▁کشیدن	-10.3183
▁کلان	-10.3183
▁کنند؛	-10.3183
▁کنوانسیون	-10.3183
▁کوچکتر	-10.3183
▁گازهای	-10.3183
▁گر	-10.3183
▁گراندپری	-10.3183
▁گفت:	-10.3183
▁گلزن	-10.3183
▁گوناگون	-10.3183
▁گیاهان	-10.3183
▁۲۰۰۴	-10.3183
▁۲۰۰۵	-10.3183
▁۵۶	-10.3183
▁آسوشیتدپرس	-10.379
▁آگاهی	-10.379
▁ابلاغیه	-10.379
▁ابهام	-10.379
▁اتهامی	-10.379
▁احساسات	-10.379
▁احیا	-10.379
▁ازبکستان	-10.379
▁است.بنا	-10.379
▁اسد	-10.379
▁اسرار	-10.379
▁اعتراضی	-10.379
▁اعتیاد	-10.379
▁افسر	-10.379
▁انتظارات	-10.379
▁اواسط	-10.379
▁اوباما	-10.379
▁ایالتی	-10.379
▁ایرانی،	-10.379
▁باراک	-10.379
▁بارسا	-10.379
▁بازمی	-10.379
▁بازهم	-10.379
▁بازیهای	-10.379
▁باستانی	-10.379
▁بافت	-10.379
▁باقیمانده	-10.379
▁بتوانیم	-10.379
▁بخار	-10.379
▁بدهد	-10.379
▁برنز	-10.379
▁بلومبرگ	-10.379
▁بود.او	-10.379
▁بکشد	-10.379
▁بگیرند	-10.379
▁بیروت	-10.379
▁بیننده	-10.379
▁تأیید	-10.379
▁تالار	-10.379
▁تاک	-10.379
▁تایلند	-10.379
▁تدریج	-10.379
▁تریلیون	-10.379
▁تعبیر	-10.379
▁تفریحی	-10.379
▁توخل	-10.379
▁توشیبا	-10.379
▁توفان	-10.379
▁جردن	-10.379
▁جف	-10.379
▁جنایت	-10.379
▁حامد	-10.379
▁حجاب	-10.379
▁خارا	-10.379
▁خاموش	-10.379
▁خاکسپاری	-10.379
▁خرسندی	-10.379
▁خریده	-10.379
▁خستگی	-10.379
▁داروها	-10.379
▁دارید	-10.379
▁داغستان	-10.379
▁دانشگاهی	-10.379
▁داوری	-10.379
▁درگذشته	-10.379
▁دستیابی	-10.379
▁دهندگان	-10.379
▁دوش	-10.379
▁دیدگاه	-10.379
▁دینار	-10.379
▁رسم	-10.379
▁رفاه	-10.379
▁رقابتی	-10.379
▁رقص	-10.379
▁روجا	-10.379
▁سئوال	-10.379
▁سارا	-10.379
▁سربازان	-10.379
▁سکوت	-10.379
▁سیم	-10.379
▁شایع	-10.379
▁شد'منبع	-10.379
▁شد؟منبع	-10.379
▁شدندمنبع	-10.379
▁شدیدتر	-10.379
▁شلوغ	-10.379
▁شوید	-10.379
▁صحت	-10.379
▁صخره	-10.379
▁عنکبوت	-10.379
▁غزنی	-10.379
▁غفوری	-10.379
▁فرج	-10.379
▁فرین	-10.379
▁قاب	-10.379
▁قرعه	-10.379
▁قسمتی	-10.379
▁قطار	-10.379
▁قطبی	-10.379
▁قوس	-10.379
▁لپ	-10.379
▁مأموران	-10.379
▁مارماهی	-10.379
▁مجددا	-10.379
▁محجوبی	-10.379
▁محدودیتها	-10.379
▁مداخله	-10.379
▁مدیترانه	-10.379
▁مرتب	-10.379
▁مرس	-10.379
▁مستندی	-10.379
▁مسلمان	-10.379
▁مسیرهای	-10.379
▁مسیری	-10.379
▁مشکوک	-10.379
▁معماری	-10.379
▁مقطعی	-10.379
▁منحصر	-10.379
▁منظر	-10.379
▁موجودی	-10.379
▁مونک	-10.379
▁مکانیسم	-10.379
▁مین	-10.379
▁ناآرامی	-10.379
▁ناشناخته	-10.379
▁ناصر	-10.379
▁ناوبری	-10.379
▁ناچار	-10.379
▁نداشت.	-10.379
▁نسبتا	-10.379
▁نشریات	-10.379
▁نشود.	-10.379
▁نصف	-10.379
▁نکند	-10.379
▁نی	-10.379
▁واحدی	-10.379
▁وحدت	-10.379
▁وزیرخارجه	-10.379
▁وقف	-10.379
▁ویدئوی	-10.379
▁پاسخی	-10.379
▁پردازد	-10.379
▁پروازها	-10.379
▁پورتو	-10.379
▁پوشانده	-10.379
▁پیشتاز	-10.379
▁پیشرفته	-10.379
▁پیولی	-10.379
▁ژوزه	-10.379
▁کاربرد	-10.379
▁کاردن	-10.379
▁کرد.او	-10.379
▁کریستوفر	-10.379
▁کشتار	-10.379
▁کشور،	-10.379
▁کلیک	-10.379
▁کنندمنبع	-10.379
▁کیلویی	-10.379
▁گذشته،	-10.379
▁گرایی	-10.379
▁گرگ	-10.379
▁گزارشها	-10.379
▁یادگیری	-10.379
▁یکسال	-10.379
▁۱۳۹۵	-10.379
▁۱۵۰۰	-10.379
▁۲۰۰۳	-10.379
▁۲۰۳۰	-10.379
▁۳۶	-10.379
▁۴۶	-10.379
▁۹۰۰	-10.379
▁آتالانتا	-10.4435
▁آزمایشگاه	-10.4435
▁آسیای	-10.4435
▁آشوری	-10.4435
▁آفریقایی	-10.4435
▁آقایان	-10.4435
▁آیرس	-10.4435
▁احتساب	-10.4435
▁احساسی	-10.4435
▁اخطار	-10.4435
▁ارگ	-10.4435
▁است.بیشتر	-10.4435
▁است.خانم	-10.4435
▁است.روز	-10.4435
▁استعداد	-10.4435
▁اسپارتاک	-10.4435
▁اطلاعی	-10.4435
▁اعدامیان	-10.4435
▁اعماق	-10.4435
▁المستقبل	-10.4435
▁الگوی	-10.4435
▁انتقادات	-10.4435
▁انتقالات	-10.4435
▁اندک	-10.4435
▁انفجاری	-10.4435
▁اید	-10.4435
▁ایفا	-10.4435
▁بازارها	-10.4435
▁بازخوانی	-10.4435
▁بازگردانده	-10.4435
▁ببرد	-10.4435
▁بخاطر	-10.4435
▁بختگان	-10.4435
▁بختیاری	-10.4435
▁بدانیم	-10.4435
▁بدرفتاری	-10.4435
▁برند	-10.4435
▁برگشته	-10.4435
▁بزرگتر	-10.4435
▁بقایای	-10.4435
▁بنکسی	-10.4435
▁بود.اما	-10.4435
▁بودم.	-10.4435
▁بودند،	-10.4435
▁بودند؛	-10.4435
▁بوریس	-10.4435
▁بولت	-10.4435
▁بگوییم	-10.4435
▁بیلسا	-10.4435
▁بینیم	-10.4435
▁بیکار	-10.4435
▁تاریک	-10.4435
▁تاسف	-10.4435
▁تاپی	-10.4435
▁تایمز	-10.4435
▁تبادل	-10.4435
▁تحریک	-10.4435
▁تضمین	-10.4435
▁تغییراتی	-10.4435
▁تفاهم	-10.4435
▁تنگه	-10.4435
▁تکیه	-10.4435
▁تیرماه	-10.4435
▁تیلور	-10.4435
▁ثامن	-10.4435
▁جانبه	-10.4435
▁جم	-10.4435
▁جنایی	-10.4435
▁جهان،	-10.4435
▁جهانپور	-10.4435
▁حافظ	-10.4435
▁حرکات	-10.4435
▁حریفان	-10.4435
▁حساسیت	-10.4435
▁حکمتی	-10.4435
▁خلاقیت	-10.4435
▁خنده	-10.4435
▁خوانی	-10.4435
▁خودتان	-10.4435
▁خیر	-10.4435
▁داغ	-10.4435
▁داور	-10.4435
▁درآمدی	-10.4435
▁درج	-10.4435
▁درخشانی	-10.4435
▁درخشش	-10.4435
▁دریابندری	-10.4435
▁دعوای	-10.4435
▁دما	-10.4435
▁دوستی	-10.4435
▁دیداری	-10.4435
▁رانندگی	-10.4435
▁رایت	-10.4435
▁رسول	-10.4435
▁رشوه	-10.4435
▁روسای	-10.4435
▁ریالی	-10.4435
▁ریزش	-10.4435
▁زبانی	-10.4435
▁زریاب	-10.4435
▁زیرساخت	-10.4435
▁سرتیپ	-10.4435
▁سردبیر	-10.4435
▁سریالی	-10.4435
▁سطوح	-10.4435
▁سفینه	-10.4435
▁سوپرلیگ	-10.4435
▁سیاستمداران	-10.4435
▁سیصد	-10.4435
▁سینه	-10.4435
▁شانزدهم	-10.4435
▁شدم	-10.4435
▁شطرنج	-10.4435
▁ضعف	-10.4435
▁طرز	-10.4435
▁طنز	-10.4435
▁غار	-10.4435
▁غربالگری	-10.4435
▁فراگیر	-10.4435
▁فرو	-10.4435
▁فروپاشی	-10.4435
▁فریدون	-10.4435
▁فضانورد	-10.4435
▁فیزیکی	-10.4435
▁قدرتمند	-10.4435
▁قدمی	-10.4435
▁قلم	-10.4435
▁مایکروسافت	-10.4435
▁متاثر	-10.4435
▁مختل	-10.4435
▁مرتکب	-10.4435
▁مرزها	-10.4435
▁مرگش	-10.4435
▁مسافت	-10.4435
▁مستقیما	-10.4435
▁مشخصی	-10.4435
▁مصلحت	-10.4435
▁مصونیت	-10.4435
▁معدود	-10.4435
▁معیشتی	-10.4435
▁مغناطیسی	-10.4435
▁مقدس	-10.4435
▁مهندس	-10.4435
▁موجی	-10.4435
▁مکرر	-10.4435
▁مکزیک	-10.4435
▁مگر	-10.4435
▁میز	-10.4435
▁ناشناس	-10.4435
▁ندیده	-10.4435
▁نرخی	-10.4435
▁نویی	-10.4435
▁نیمار	-10.4435
▁هرکدام	-10.4435
▁همجنس	-10.4435
▁هوادار	-10.4435
▁واسطه	-10.4435
▁والش	-10.4435
▁وطن	-10.4435
▁پرطرفدار	-10.4435
▁پژوهشی	-10.4435
▁پیش،	-10.4435
▁چرنکوف	-10.4435
▁چهاردهم	-10.4435
▁کارشناسی	-10.4435
▁کرده؛	-10.4435
▁کلام	-10.4435
▁کلید	-10.4435
▁کمدین	-10.4435
▁کنند.این	-10.4435
▁کنند.در	-10.4435
▁کیانوش	-10.4435
▁گرا	-10.4435
▁گرمایش	-10.4435
▁گره	-10.4435
▁گفتگوهای	-10.4435
▁گلی	-10.4435
▁یادآور	-10.4435
▁یحیی	-10.4435
▁یورش	-10.4435
▁یکبار	-10.4435
▁۱۹۶۰	-10.4435
▁۷۳	-10.4435
▁۸۵	-10.4435
▁(	-10.5125
▁.منبع	-10.5125
▁آثاری	-10.5125
▁آر	-10.5125
▁آرشیو	-10.5125
▁آزمایشگاهی	-10.5125
▁آمدند	-10.5125
▁ابتکار	-10.5125
▁اتلتیکو	-10.5125
▁اتوبوس	-10.5125
▁اتکا	-10.5125
▁اثبات	-10.5125
▁ادای	-10.5125
▁ادعاهای	-10.5125
▁اراضی	-10.5125
▁اردوگاه	-10.5125
▁ارزشمند	-10.5125
▁ارکستر	-10.5125
▁است.بانک	-10.5125
▁است.خبرگزاری	-10.5125
▁اصلاحات	-10.5125
▁افتادن	-10.5125
▁افشنگ	-10.5125
▁الهی	-10.5125
▁الیزابت	-10.5125
▁ام.	-10.5125
▁امواج	-10.5125
▁امپراتوری	-10.5125
▁انصراف	-10.5125
▁انیس	-10.5125
▁اکس	-10.5125
▁ایران.	-10.5125
▁ایرج	-10.5125
▁اینستاگرامی	-10.5125
▁ایکس	-10.5125
▁باروری	-10.5125
▁بازنشستگی	-10.5125
▁بازنگری	-10.5125
▁باشیم.	-10.5125
▁برایم	-10.5125
▁برف	-10.5125
▁بستر	-10.5125
▁بصورت	-10.5125
▁بناهای	-10.5125
▁بنگلادش	-10.5125
▁بوجود	-10.5125
▁بود.آقای	-10.5125
▁بیاید	-10.5125
▁تاریکی	-10.5125
▁تان	-10.5125
▁تحرک	-10.5125
▁تحسین	-10.5125
▁تغذیه	-10.5125
▁تفسیر	-10.5125
▁تماشاچی	-10.5125
▁تمدن	-10.5125
▁تنوع	-10.5125
▁توجیه	-10.5125
▁تیک	-10.5125
▁جت	-10.5125
▁جداگانه	-10.5125
▁جرایم	-10.5125
▁جوزف	-10.5125
▁حاکمیت	-10.5125
▁حقیقی	-10.5125
▁خانوار	-10.5125
▁خبرگان	-10.5125
▁خسارات	-10.5125
▁خطای	-10.5125
▁خلوت	-10.5125
▁خودی	-10.5125
▁داده.	-10.5125
▁دارد.این	-10.5125
▁دارد.منبع	-10.5125
▁دانشجویی	-10.5125
▁داوطلبانه	-10.5125
▁دردسر	-10.5125
▁درستی	-10.5125
▁درگذشتمنبع	-10.5125
▁دغدغه	-10.5125
▁دلیلی	-10.5125
▁دهد؛	-10.5125
▁دهلی	-10.5125
▁دود	-10.5125
▁دومینیک	-10.5125
▁دیگر،	-10.5125
▁ذره	-10.5125
▁رتکلیف	-10.5125
▁رختکن	-10.5125
▁رساند.	-10.5125
▁رفتاری	-10.5125
▁رنجرز	-10.5125
▁روستا	-10.5125
▁رولز	-10.5125
▁ریچارد	-10.5125
▁زازی	-10.5125
▁زاهدان	-10.5125
▁زاویه	-10.5125
▁زایی	-10.5125
▁زدایی	-10.5125
▁زمستانی	-10.5125
▁زهره	-10.5125
▁زیبا	-10.5125
▁ساحلی	-10.5125
▁ساختار	-10.5125
▁سادات	-10.5125
▁سانتریفیوژهای	-10.5125
▁ستارگان	-10.5125
▁سنی	-10.5125
▁سون	-10.5125
▁سکته	-10.5125
▁سیارک	-10.5125
▁شاپور	-10.5125
▁شدهمنبع	-10.5125
▁شریف	-10.5125
▁شعبه	-10.5125
▁شهردار	-10.5125
▁شهید	-10.5125
▁شواهدی	-10.5125
▁شوداین	-10.5125
▁شون	-10.5125
▁شیر	-10.5125
▁ظن	-10.5125
▁عارف	-10.5125
▁عامه	-10.5125
▁عجله	-10.5125
▁عزم	-10.5125
▁عقل	-10.5125
▁غم	-10.5125
▁فخری	-10.5125
▁فرض	-10.5125
▁فوتسال	-10.5125
▁فوتی	-10.5125
▁فین	-10.5125
▁قفل	-10.5125
▁قوا	-10.5125
▁مارکز	-10.5125
▁مبدا	-10.5125
▁مبهم	-10.5125
▁مت	-10.5125
▁متحول	-10.5125
▁مجانی	-10.5125
▁مجاهدین	-10.5125
▁مدافعان	-10.5125
▁مرا	-10.5125
▁مرتضی	-10.5125
▁مستمر	-10.5125
▁مشکات	-10.5125
▁مطلوب	-10.5125
▁معلق	-10.5125
▁معنایی	-10.5125
▁معیار	-10.5125
▁ممانعت	-10.5125
▁موازی	-10.5125
▁مواضع	-10.5125
▁مکانی	-10.5125
▁مکتب	-10.5125
▁مکتوب	-10.5125
▁میلی	-10.5125
▁میمون	-10.5125
▁نامدار	-10.5125
▁نزدیکان	-10.5125
▁نشین	-10.5125
▁نظرات	-10.5125
▁نظرسنجی	-10.5125
▁نظم	-10.5125
▁نمادین	-10.5125
▁نوآوری	-10.5125
▁نوئل	-10.5125
▁نوجوانان	-10.5125
▁نوید	-10.5125
▁نویسندگی	-10.5125
▁نگاران	-10.5125
▁نیسان	-10.5125
▁هستم	-10.5125
▁همدیگر	-10.5125
▁همکارانش	-10.5125
▁هواوی	-10.5125
▁هوشنگ	-10.5125
▁هپاتیت	-10.5125
▁هیبرید	-10.5125
▁واقعه	-10.5125
▁وخامت	-10.5125
▁وصل	-10.5125
▁ویزای	-10.5125
▁پارس	-10.5125
▁پالاس	-10.5125
▁پاکسازی	-10.5125
▁پررنگ	-10.5125
▁پشتیبانی	-10.5125
▁پنجشیر	-10.5125
▁پوش	-10.5125
▁پیتر	-10.5125
▁پیشرو	-10.5125
▁چابهار	-10.5125
▁چاره	-10.5125
▁چاله	-10.5125
▁چربی	-10.5125
▁چنانچه	-10.5125
▁ژنو	-10.5125
▁کاران	-10.5125
▁کارگردانان	-10.5125
▁کارگزاری	-10.5125
▁کاظم	-10.5125
▁کردندمنبع	-10.5125
▁کریستال	-10.5125
▁کریسمس	-10.5125
▁کف	-10.5125
▁کند.او	-10.5125
▁کندی	-10.5125
▁کووید۱۹	-10.5125
▁گابریل	-10.5125
▁گردآوری	-10.5125
▁گردش	-10.5125
▁گلایه	-10.5125
▁گم	-10.5125
▁گویی	-10.5125
▁یابد.	-10.5125
▁یادبود	-10.5125
▁یکسان	-10.5125
▁۱۹۸۲	-10.5125
▁۱۹۹۸	-10.5125
▁۳۵۰	-10.5125
▁۶۸	-10.5125
▁۹۴	-10.5125
▁آبادان	-10.5866
▁آشام	-10.5866
▁آلن	-10.5866
▁آندری	-10.5866
▁آنفیلد	-10.5866
▁آنچلوتی	-10.5866
▁آیند	-10.5866
▁ئی	-10.5866
▁اتباع	-10.5866
▁اتخاذ	-10.5866
▁اجبار	-10.5866
▁ادب	-10.5866
▁اروپا:	-10.5866
▁است.گزارش	-10.5866
▁استدلال	-10.5866
▁استیضاح	-10.5866
▁استیون	-10.5866
▁اسفندماه	-10.5866
▁اسماعیل	-10.5866
▁اسنپ	-10.5866
▁اسپیس	-10.5866
▁اصول	-10.5866
▁اظهارنظر	-10.5866
▁افشای	-10.5866
▁اقبال	-10.5866
▁امان	-10.5866
▁امانوئل	-10.5866
▁انتقادی	-10.5866
▁انداختن	-10.5866
▁اندمنبع	-10.5866
▁ایر	-10.5866
▁ایشان	-10.5866
▁بازگردد	-10.5866
▁بازگشته	-10.5866
▁ببر	-10.5866
▁بخاری	-10.5866
▁بدخشان	-10.5866
▁بردند	-10.5866
▁بردند.	-10.5866
▁برگ	-10.5866
▁برگرفته	-10.5866
▁بسرعت	-10.5866
▁بلوکه	-10.5866
▁بهاییان	-10.5866
▁بیفتد	-10.5866
▁تابلو	-10.5866
▁تاریخچه	-10.5866
▁تاکتیکی	-10.5866
▁تایگر	-10.5866
▁تجویز	-10.5866
▁تخصصی	-10.5866
▁تخم	-10.5866
▁تشریح	-10.5866
▁تل	-10.5866
▁تهدیدی	-10.5866
▁توده	-10.5866
▁ثانوی	-10.5866
▁ثباتی	-10.5866
▁جابجایی	-10.5866
▁جاستین	-10.5866
▁جزئیاتی	-10.5866
▁جزایر	-10.5866
▁جست	-10.5866
▁جلد	-10.5866
▁جورجیا	-10.5866
▁حفاری	-10.5866
▁خالص	-10.5866
▁خبرها	-10.5866
▁خریدار	-10.5866
▁خزانه	-10.5866
▁خسته	-10.5866
▁خفیف	-10.5866
▁خواجه	-10.5866
▁خودسوزی	-10.5866
▁خوراکی	-10.5866
▁داردمنبع	-10.5866
▁داروسازی	-10.5866
▁داشت؛	-10.5866
▁دامی	-10.5866
▁دان	-10.5866
▁دخترش	-10.5866
▁درآمده	-10.5866
▁دربند	-10.5866
▁دره	-10.5866
▁دستاوردهای	-10.5866
▁دستکش	-10.5866
▁دستی	-10.5866
▁دشمنان	-10.5866
▁دقیقی	-10.5866
▁دلایلی	-10.5866
▁دم	-10.5866
▁دندان	-10.5866
▁دوازدهم	-10.5866
▁دورتر	-10.5866
▁دوستش	-10.5866
▁دید.	-10.5866
▁دیدارهای	-10.5866
▁ذهنی	-10.5866
▁رایج	-10.5866
▁رایزنی	-10.5866
▁رسیدند	-10.5866
▁رصد	-10.5866
▁رفتند	-10.5866
▁رمضان	-10.5866
▁روال	-10.5866
▁روحانی:	-10.5866
▁رویا	-10.5866
▁رژیم	-10.5866
▁ری	-10.5866
▁زغال	-10.5866
▁زنجان	-10.5866
▁سارس	-10.5866
▁سازه	-10.5866
▁ساعته	-10.5866
▁سان	-10.5866
▁سانتریفیوژ	-10.5866
▁سختگیرانه	-10.5866
▁سده	-10.5866
▁سرپرستی	-10.5866
▁سرگرمی	-10.5866
▁شاعران	-10.5866
▁شرح	-10.5866
▁شغلی	-10.5866
▁شلاق	-10.5866
▁شنیدن	-10.5866
▁شهریار	-10.5866
▁شود.او	-10.5866
▁شوند،	-10.5866
▁شیخ	-10.5866
▁شیلی	-10.5866
▁شیکاگو	-10.5866
▁طرفه	-10.5866
▁طعم	-10.5866
▁عبدالرضا	-10.5866
▁علامت	-10.5866
▁عملکردی	-10.5866
▁غلامحسین	-10.5866
▁غیرنظامی	-10.5866
▁غیرنفتی	-10.5866
▁فجر	-10.5866
▁فرستاد	-10.5866
▁فرماندهان	-10.5866
▁فضلی	-10.5866
▁فعالیتهای	-10.5866
▁فلسفه	-10.5866
▁فوتبالیستی	-10.5866
▁فوریت	-10.5866
▁فیلتر	-10.5866
▁فیلمبرداری	-10.5866
▁قومی	-10.5866
▁لاله	-10.5866
▁لامبورگینی	-10.5866
▁لب	-10.5866
▁لوفت	-10.5866
▁مازاد	-10.5866
▁ماشه	-10.5866
▁مایه	-10.5866
▁محدوده	-10.5866
▁محور	-10.5866
▁مخابرات	-10.5866
▁مرجانی	-10.5866
▁مزرعه	-10.5866
▁مسافرت	-10.5866
▁مصدوم	-10.5866
▁مفقود	-10.5866
▁منشا	-10.5866
▁منصوب	-10.5866
▁مهاجران	-10.5866
▁مکعب	-10.5866
▁مگان	-10.5866
▁میمندی	-10.5866
▁میکروب	-10.5866
▁نابود	-10.5866
▁ناتمام	-10.5866
▁ناقص	-10.5866
▁ناپذیری	-10.5866
▁نتانیاهو	-10.5866
▁نزولی	-10.5866
▁نمایشنامه	-10.5866
▁نوزدهم	-10.5866
▁نیک	-10.5866
▁هادی	-10.5866
▁هانزا	-10.5866
▁هرانا	-10.5866
▁هزاره	-10.5866
▁هلی	-10.5866
▁وابستگی	-10.5866
▁ورشکستگی	-10.5866
▁وزرای	-10.5866
▁ویرجیل	-10.5866
▁ویکتور	-10.5866
▁پائین	-10.5866
▁پراید	-10.5866
▁پرتره	-10.5866
▁پناهندگی	-10.5866
▁په	-10.5866
▁پوتین	-10.5866
▁پوری	-10.5866
▁پوستی	-10.5866
▁کادرفنی	-10.5866
▁کامپیوتر	-10.5866
▁کردیم.	-10.5866
▁کرونامنبع	-10.5866
▁کلاهبرداری	-10.5866
▁کمپانی	-10.5866
▁کمپین	-10.5866
▁کنند.منبع	-10.5866
▁کنید.	-10.5866
▁کوهستان	-10.5866
▁کیفری	-10.5866
▁کیلو	-10.5866
▁گذراندن	-10.5866
▁گذرد.	-10.5866
▁گرایانه	-10.5866
▁گرسنگی	-10.5866
▁گریز	-10.5866
▁گزارش،	-10.5866
▁گفتن	-10.5866
▁گفتگوی	-10.5866
▁گلخانه	-10.5866
▁یادداشت	-10.5866
▁یادداشتی	-10.5866
▁۱۳۵۷	-10.5866
▁۱۷۰	-10.5866
▁۱۹۷۰	-10.5866
▁۱۹۸۰	-10.5866
▁۲۲۳۱	-10.5866
▁۶۴	-10.5866
▁۸۲	-10.5866
▁آثارش	-10.6667
▁آذرماه	-10.6667
▁آرا	-10.6667
▁آشنایی	-10.6667
▁آفتابی	-10.6667
▁آلزایمر	-10.6667
▁آمریکا:	-10.6667
▁آمریکاست	-10.6667
▁آورند	-10.6667
▁آورند.	-10.6667
▁اجتناب	-10.6667
▁احمدشاه	-10.6667
▁اخباری	-10.6667
▁اذیت	-10.6667
▁ارجاع	-10.6667
▁اردن	-10.6667
▁است.وزارت	-10.6667
▁استاندارد	-10.6667
▁استخر	-10.6667
▁اسحاق	-10.6667
▁اسلامی،	-10.6667
▁اسپیرز	-10.6667
▁اشعار	-10.6667
▁اشغال	-10.6667
▁اعتراف	-10.6667
▁اعظم	-10.6667
▁افشا	-10.6667
▁افکاری	-10.6667
▁الانبیا	-10.6667
▁الحسن	-10.6667
▁القرض	-10.6667
▁الماس	-10.6667
▁امامی	-10.6667
▁امروزه	-10.6667
▁امیدوارند	-10.6667
▁اندام	-10.6667
▁انقلابی	-10.6667
▁انوشه	-10.6667
▁انگشت	-10.6667
▁اولدترافورد	-10.6667
▁اپرای	-10.6667
▁باشد.این	-10.6667
▁بالاتری	-10.6667
▁ببینیم	-10.6667
▁بدهند	-10.6667
▁بدین	-10.6667
▁برود.	-10.6667
▁بریتانیا،	-10.6667
▁بزرگان	-10.6667
▁بزنند	-10.6667
▁بقای	-10.6667
▁بلاروس	-10.6667
▁بلژیکی	-10.6667
▁بماند.	-10.6667
▁بهبهان	-10.6667
▁بهنام	-10.6667
▁بود.با	-10.6667
▁بیاورد.	-10.6667
▁تئوری	-10.6667
▁تجزیه	-10.6667
▁تحریمهای	-10.6667
▁ترغیب	-10.6667
▁تصاحب	-10.6667
▁تمرینات	-10.6667
▁توانگر	-10.6667
▁توانید	-10.6667
▁تیره	-10.6667
▁جماهیر	-10.6667
▁جکسون	-10.6667
▁جیغ	-10.6667
▁حدس	-10.6667
▁حیدرآبادی	-10.6667
▁خاشقجی	-10.6667
▁خشن	-10.6667
▁خلیل	-10.6667
▁خود،	-10.6667
▁خوست	-10.6667
▁دائمی	-10.6667
▁داروهای	-10.6667
▁دایناسورها	-10.6667
▁دبیرخانه	-10.6667
▁دختری	-10.6667
▁دستیار	-10.6667
▁دهها	-10.6667
▁دوگانه	-10.6667
▁دیر	-10.6667
▁دینی	-10.6667
▁راجرز	-10.6667
▁راپینو	-10.6667
▁رایان	-10.6667
▁ربط	-10.6667
▁رحم	-10.6667
▁ردیابی	-10.6667
▁رمدسیویر	-10.6667
▁رنگی	-10.6667
▁روانه	-10.6667
▁روایتی	-10.6667
▁روبروست	-10.6667
▁روبروی	-10.6667
▁رولینگ	-10.6667
▁رویایی	-10.6667
▁رویس	-10.6667
▁زخم	-10.6667
▁زودهنگام	-10.6667
▁زیدان	-10.6667
▁زیستگاه	-10.6667
▁سابقش	-10.6667
▁ساعتی	-10.6667
▁سدان	-10.6667
▁سرزده	-10.6667
▁سرفه	-10.6667
▁سرنشین	-10.6667
▁سعادت	-10.6667
▁سفره	-10.6667
▁سلامتی	-10.6667
▁سلسله	-10.6667
▁سلطانی	-10.6667
▁سلف	-10.6667
▁سیبری	-10.6667
▁سیزدهمین	-10.6667
▁سینماها	-10.6667
▁شانزده	-10.6667
▁شرکای	-10.6667
▁شرکتی	-10.6667
▁شستا	-10.6667
▁شمس	-10.6667
▁شوت	-10.6667
▁شوخی	-10.6667
▁شگفتی	-10.6667
▁صادقانه	-10.6667
▁صحیح	-10.6667
▁صفرها	-10.6667
▁ضدحمله	-10.6667
▁طارمی	-10.6667
▁طوفانی	-10.6667
▁عاشقانه	-10.6667
▁عشقی	-10.6667
▁عصبی	-10.6667
▁عضلات	-10.6667
▁عیسی	-10.6667
▁غیرحرفه	-10.6667
▁فرخ	-10.6667
▁فرزندآوری	-10.6667
▁فسیل	-10.6667
▁فیزیکدان	-10.6667
▁فیل	-10.6667
▁فیلمساز	-10.6667
▁قبرس	-10.6667
▁قطری	-10.6667
▁لاری	-10.6667
▁لاس	-10.6667
▁لواندوفسکی	-10.6667
▁لوایح	-10.6667
▁لوو	-10.6667
▁مانه	-10.6667
▁متقاضی	-10.6667
▁محض	-10.6667
▁مخلوف	-10.6667
▁مدرک	-10.6667
▁مرحوم	-10.6667
▁مرعشی	-10.6667
▁مرکل	-10.6667
▁مسافربری	-10.6667
▁مسترز	-10.6667
▁مسیحی	-10.6667
▁مشوق	-10.6667
▁مطالبه	-10.6667
▁مطبوعاتی	-10.6667
▁معادن	-10.6667
▁معلم	-10.6667
▁معوقه	-10.6667
▁معیارهای	-10.6667
▁مقیم	-10.6667
▁منابعی	-10.6667
▁مندان	-10.6667
▁منعکس	-10.6667
▁مورا	-10.6667
▁موقعیتی	-10.6667
▁مولوی	-10.6667
▁میلاد	-10.6667
▁نابغه	-10.6667
▁نادری	-10.6667
▁نارسایی	-10.6667
▁نحوی	-10.6667
▁نداریم.	-10.6667
▁نرگس	-10.6667
▁نصیب	-10.6667
▁نقره	-10.6667
▁نمادی	-10.6667
▁نمکی	-10.6667
▁نوازنده	-10.6667
▁نکات	-10.6667
▁نکرد.	-10.6667
▁نکنند	-10.6667
▁نکنید	-10.6667
▁نیازی	-10.6667
▁نیستمنبع	-10.6667
▁نیکپا	-10.6667
▁هری	-10.6667
▁هست.	-10.6667
▁هستید	-10.6667
▁همتای	-10.6667
▁همکار	-10.6667
▁هو	-10.6667
▁هکرها	-10.6667
▁هیچگاه	-10.6667
▁واضح	-10.6667
▁وروورت	-10.6667
▁وریا	-10.6667
▁وسیعی	-10.6667
▁وظایف	-10.6667
▁ووهان	-10.6667
▁پادشاهی	-10.6667
▁پارلمانی	-10.6667
▁پایبند	-10.6667
▁پدید	-10.6667
▁پری	-10.6667
▁پسرش	-10.6667
▁پنسیلوانیا	-10.6667
▁پنگوئن	-10.6667
▁پیشکسوت	-10.6667
▁پیشینه	-10.6667
▁چاپک	-10.6667
▁کارتو	-10.6667
▁کاریر	-10.6667
▁کاغذ	-10.6667
▁کاوازاکی	-10.6667
▁کاوانی	-10.6667
▁کرد.به	-10.6667
▁کردم.	-10.6667
▁کردند.منبع	-10.6667
▁کشید.	-10.6667
▁کمبریج	-10.6667
▁کنسولگری	-10.6667
▁کوبا	-10.6667
▁کیت	-10.6667
▁گرایش	-10.6667
▁گرد	-10.6667
▁گرمی	-10.6667
▁گفتگویی	-10.6667
▁گواهی	-10.6667
▁گیاهی	-10.6667
▁یر	-10.6667
▁یورویی	-10.6667
▁یونگ	-10.6667
▁۱۸۰	-10.6667
▁۱۹۰	-10.6667
▁۱۹۴۰	-10.6667
▁۲۰۰۷	-10.6667
▁۴۷	-10.6667
▁۵۳	-10.6667
▁۵۹	-10.6667
▁۶۱	-10.6667
▁۶۵۰	-10.6667
▁۷۸	-10.6667
▁۸۳	-10.6667
▁۹۳	-10.6667
▁'در	-10.7537
▁.آیت	-10.7537
▁آرامکو	-10.7537
▁آرزوهای	-10.7537
▁آرزوی	-10.7537
▁آقا	-10.7537
▁آمارها	-10.7537
▁آن،	-10.7537
▁آنطور	-10.7537
▁آنهایی	-10.7537
▁احتیاط	-10.7537
▁احکام	-10.7537
▁اذعان	-10.7537
▁است.ایران	-10.7537
▁است.بعضی	-10.7537
▁است.سازمان	-10.7537
▁است.یک	-10.7537
▁استبا	-10.7537
▁استثنا	-10.7537
▁استودیو	-10.7537
▁اسلحه	-10.7537
▁اصابت	-10.7537
▁اصولگرایان	-10.7537
▁اضطرار	-10.7537
▁افتخاری	-10.7537
▁افزاری	-10.7537
▁افغانستان،	-10.7537
▁اقتصادهای	-10.7537
▁البرز	-10.7537
▁الی	-10.7537
▁الیاس	-10.7537
▁امتداد	-10.7537
▁امضاکنندگان	-10.7537
▁امیدوارم	-10.7537
▁انتهای	-10.7537
▁انتگرال	-10.7537
▁اند.با	-10.7537
▁اند.بر	-10.7537
▁اندی	-10.7537
▁اِی	-10.7537
▁اچ	-10.7537
▁ای،	-10.7537
▁اینقدر	-10.7537
▁ایوانکوویچ	-10.7537
▁باختری	-10.7537
▁بارداری	-10.7537
▁بازبینی	-10.7537
▁بازوی	-10.7537
▁بالغ	-10.7537
▁بالقوه	-10.7537
▁بانکها	-10.7537
▁باورنکردنی	-10.7537
▁ببینند	-10.7537
▁ببینید	-10.7537
▁برادران	-10.7537
▁برترین	-10.7537
▁بردارد	-10.7537
▁برشمرده	-10.7537
▁برعکس	-10.7537
▁برفی	-10.7537
▁بروند	-10.7537
▁بسیج	-10.7537
▁بعدتر	-10.7537
▁بمانند	-10.7537
▁بمب	-10.7537
▁بود.بر	-10.7537
▁بوده؛	-10.7537
▁بیستمین	-10.7537
▁بیم	-10.7537
▁تابستانی	-10.7537
▁تابعیت	-10.7537
▁تحلیلگر	-10.7537
▁تخفیف	-10.7537
▁تشکر	-10.7537
▁تصادفی	-10.7537
▁تصویربرداری	-10.7537
▁تعاون	-10.7537
▁تقدیر	-10.7537
▁تقدیم	-10.7537
▁تلافی	-10.7537
▁تندرو	-10.7537
▁تنگ	-10.7537
▁تهاجمی	-10.7537
▁تهرانمنبع	-10.7537
▁تولیدی	-10.7537
▁تونس	-10.7537
▁تونی	-10.7537
▁تیغ	-10.7537
▁ثروتمند	-10.7537
▁جامائیکا	-10.7537
▁جرگه	-10.7537
▁جزییات	-10.7537
▁جنگی	-10.7537
▁جونیور	-10.7537
▁حراجی	-10.7537
▁حریم	-10.7537
▁حسابی	-10.7537
▁حومه	-10.7537
▁خادم	-10.7537
▁خالکوبی	-10.7537
▁خدا	-10.7537
▁خروجی	-10.7537
▁خرچنگ	-10.7537
▁خوابی	-10.7537
▁خواهر	-10.7537
▁خونین	-10.7537
▁داد؛	-10.7537
▁داشت.این	-10.7537
▁دایناسور	-10.7537
▁درانی	-10.7537
▁دربار	-10.7537
▁درز	-10.7537
▁درگذشت.او	-10.7537
▁دستاورد	-10.7537
▁دستگاهی	-10.7537
▁دشمن	-10.7537
▁دقایقی	-10.7537
▁دنیل	-10.7537
▁دهک	-10.7537
▁رانت	-10.7537
▁رایگان	-10.7537
▁رسان	-10.7537
▁رشفورد	-10.7537
▁رضایی	-10.7537
▁رفتارهای	-10.7537
▁رمانی	-10.7537
▁رمزارز	-10.7537
▁رنگین	-10.7537
▁روبرتو	-10.7537
▁روزگاری	-10.7537
▁روشنی	-10.7537
▁رونالدینیو	-10.7537
▁رکاب	-10.7537
▁زاهدی	-10.7537
▁زنگ	-10.7537
▁ساری	-10.7537
▁سازندگان	-10.7537
▁ساقط	-10.7537
▁سال،	-10.7537
▁ساکی	-10.7537
▁سخنانی	-10.7537
▁سرشار	-10.7537
▁سرعتی	-10.7537
▁سرماخوردگی	-10.7537
▁سرگرم	-10.7537
▁سعدی	-10.7537
▁سفری	-10.7537
▁سوری	-10.7537
▁سویه	-10.7537
▁سکسکه	-10.7537
▁سیا	-10.7537
▁سیاوش	-10.7537
▁سیزدهم	-10.7537
▁سینماهای	-10.7537
▁سیویک	-10.7537
▁شایعه	-10.7537
▁شبی	-10.7537
▁شد.اما	-10.7537
▁شدم.	-10.7537
▁شدند.منبع	-10.7537
▁شر	-10.7537
▁شعله	-10.7537
▁شناسند	-10.7537
▁شهرهایی	-10.7537
▁شود.از	-10.7537
▁شوش	-10.7537
▁شوم	-10.7537
▁شکستن	-10.7537
▁صفحات	-10.7537
▁صیانت	-10.7537
▁طرفی	-10.7537
▁طیاب	-10.7537
▁طیب	-10.7537
▁ظریف؛	-10.7537
▁عارضه	-10.7537
▁عرف	-10.7537
▁غافلگیری	-10.7537
▁غرامت	-10.7537
▁غیرممکن	-10.7537
▁فرایند	-10.7537
▁فرماندهی	-10.7537
▁فروشنده	-10.7537
▁فزاینده	-10.7537
▁فسیلی	-10.7537
▁فضانوردان	-10.7537
▁فیلیپین	-10.7537
▁قائل	-10.7537
▁قبر	-10.7537
▁قطعات	-10.7537
▁قم	-10.7537
▁لمپارد	-10.7537
▁مار	-10.7537
▁مالکان	-10.7537
▁ماندگار	-10.7537
▁ماهیگیری	-10.7537
▁مایل	-10.7537
▁متحدان	-10.7537
▁متحمل	-10.7537
▁متولی	-10.7537
▁مثلث	-10.7537
▁مخابراتی	-10.7537
▁مخفیانه	-10.7537
▁مردگان	-10.7537
▁مسن	-10.7537
▁مشاوران	-10.7537
▁مصالحه	-10.7537
▁مصرفی	-10.7537
▁معاف	-10.7537
▁معاینه	-10.7537
▁معمار	-10.7537
▁معیشت	-10.7537
▁مغلوب	-10.7537
▁منجمد	-10.7537
▁مند	-10.7537
▁مهاجمان	-10.7537
▁مهندسی	-10.7537
▁مواقع	-10.7537
▁ناامنی	-10.7537
▁ناممکن	-10.7537
▁نامناسب	-10.7537
▁نامگذاری	-10.7537
▁ناهید	-10.7537
▁ناوگان	-10.7537
▁ناکارآمدی	-10.7537
▁نتواند	-10.7537
▁نخورده	-10.7537
▁نظرهای	-10.7537
▁نفرت	-10.7537
▁نقص	-10.7537
▁نهادینه	-10.7537
▁نژاد،	-10.7537
▁نژادپرستانه	-10.7537
▁نیا	-10.7537
▁ه	-10.7537
▁هاله	-10.7537
▁هستم.	-10.7537
▁هفدهم	-10.7537
▁هواشناسی	-10.7537
▁هیأت	-10.7537
▁واریز	-10.7537
▁والدین	-10.7537
▁وثیقه	-10.7537
▁ور	-10.7537
▁وضوح	-10.7537
▁وگوی	-10.7537
▁ویتنام	-10.7537
▁ویکتوریا	-10.7537
▁پایدار	-10.7537
▁پدری	-10.7537
▁پذیره	-10.7537
▁پرآوازه	-10.7537
▁پرستاران	-10.7537
▁پرسید	-10.7537
▁پلامر	-10.7537
▁پلی	-10.7537
▁پومپئو	-10.7537
▁پوگبا	-10.7537
▁پژو	-10.7537
▁پیرلو	-10.7537
▁کارایی	-10.7537
▁کارزاری	-10.7537
▁کارگروه	-10.7537
▁کانسپت	-10.7537
▁کتک	-10.7537
▁کرج	-10.7537
▁کردند.در	-10.7537
▁کری	-10.7537
▁کسر	-10.7537
▁کما	-10.7537
▁کودتای	-10.7537
▁کین	-10.7537
▁کینگ	-10.7537
▁کیهان	-10.7537
▁کیهانی	-10.7537
▁کیوان	-10.7537
▁گذشت.	-10.7537
▁گرفتم	-10.7537
▁گرفتند.	-10.7537
▁گریبان	-10.7537
▁گوی	-10.7537
▁یار	-10.7537
▁یخی	-10.7537
▁یگان	-10.7537
▁۱۷۶	-10.7537
▁۱۹۹۱	-10.7537
▁۴۱	-10.7537
▁۸۶	-10.7537
▁۹۲	-10.7537
▁.حسن	-10.849
▁آث	-10.849
▁آرش	-10.849
▁آسیا؛	-10.849
▁آقازاده	-10.849
▁آلومینیوم	-10.849
▁آمستردام	-10.849
▁آنفلوآنزای	-10.849
▁آوردند	-10.849
▁آویو	-10.849
▁آپارتمان	-10.849
▁ابر	-10.849
▁اتیوپی	-10.849
▁اثرات	-10.849
▁اخذ	-10.849
▁ادوارد	-10.849
▁ارسلان	-10.849
▁ارمنستان	-10.849
▁است.سه	-10.849
▁است.هر	-10.849
▁است.پس	-10.849
▁است.پیش	-10.849
▁است؟	-10.849
▁استرس	-10.849
▁استقرار	-10.849
▁اسکاتلندی	-10.849
▁اشتیاق	-10.849
▁اشنویه	-10.849
▁اضافی	-10.849
▁اعتراضاتی	-10.849
▁اعتنایی	-10.849
▁اعطای	-10.849
▁افتتاحیه	-10.849
▁افزایشی	-10.849
▁افسران	-10.849
▁اقشار	-10.849
▁امتیازات	-10.849
▁امری	-10.849
▁امیدواریم	-10.849
▁انحلال	-10.849
▁اند.آقای	-10.849
▁اند.بیشتر	-10.849
▁انگاره	-10.849
▁انگیزی	-10.849
▁اوست	-10.849
▁اوکاناگان	-10.849
▁اکثریت	-10.849
▁اکسید	-10.849
▁ایمن	-10.849
▁بازیار	-10.849
▁باشد؛	-10.849
▁باقر	-10.849
▁ببینید.	-10.849
▁بدحال	-10.849
▁برشنا	-10.849
▁برند.	-10.849
▁برها	-10.849
▁برهم	-10.849
▁برگزارکنندگان	-10.849
▁بزودی	-10.849
▁بشردوستانه	-10.849
▁بعیدی	-10.849
▁بله	-10.849
▁بنای	-10.849
▁بنجامین	-10.849
▁بنزما	-10.849
▁بهانه	-10.849
▁بهناز	-10.849
▁بوئنوس	-10.849
▁بوروسیا	-10.849
▁بوی	-10.849
▁بویایی	-10.849
▁بگیرند.	-10.849
▁بیانگر	-10.849
▁بیبر	-10.849
▁بیگی	-10.849
▁تأکید	-10.849
▁تاب	-10.849
▁تایتانیک	-10.849
▁تحقیر	-10.849
▁تحقیرآمیز	-10.849
▁تحولی	-10.849
▁تدریس	-10.849
▁ترافیک	-10.849
▁ترمیم	-10.849
▁تشبیه	-10.849
▁تعزیری	-10.849
▁تقوی	-10.849
▁تهدیدهای	-10.849
▁توریستی	-10.849
▁توفیق	-10.849
▁توییتری	-10.849
▁جانب	-10.849
▁جایگاهی	-10.849
▁جرائم	-10.849
▁جسمانی	-10.849
▁جمجمه	-10.849
▁جناح	-10.849
▁جنین	-10.849
▁جواز	-10.849
▁جوجه	-10.849
▁جودوی	-10.849
▁جولی	-10.849
▁حاجی	-10.849
▁حدادی	-10.849
▁حسرت	-10.849
▁خارق	-10.849
▁خالق	-10.849
▁خدایاری	-10.849
▁خطرات	-10.849
▁خواندمنبع	-10.849
▁خودرایانی	-10.849
▁خودسرانه	-10.849
▁خوراک	-10.849
▁خیالی	-10.849
▁خیره	-10.849
▁داد.او	-10.849
▁دارد.به	-10.849
▁دارنده	-10.849
▁دانشجوی	-10.849
▁دانیم؟منبع	-10.849
▁دایی	-10.849
▁درشت	-10.849
▁دریافتی	-10.849
▁دشت	-10.849
▁دمانس	-10.849
▁دهید	-10.849
▁دهیم.	-10.849
▁دوئرنیک	-10.849
▁دوج	-10.849
▁دوستداران	-10.849
▁دوصدایی	-10.849
▁دولگوف	-10.849
▁دیاز	-10.849
▁دیدم	-10.849
▁دیدنی	-10.849
▁دیدیم	-10.849
▁رئوف	-10.849
▁ربیعی	-10.849
▁رجایی	-10.849
▁رستگار	-10.849
▁روشی	-10.849
▁روندی	-10.849
▁ریورا	-10.849
▁زا	-10.849
▁زحمت	-10.849
▁زدند.	-10.849
▁زننده	-10.849
▁ساماندهی	-10.849
▁سبد	-10.849
▁سبزوار	-10.849
▁سرتاسر	-10.849
▁سرو	-10.849
▁سروده	-10.849
▁سلام	-10.849
▁سمانیا	-10.849
▁سوارز	-10.849
▁سوژه	-10.849
▁سی،	-10.849
▁سیاسی،	-10.849
▁سیامند	-10.849
▁سید	-10.849
▁شادی	-10.849
▁شایعاتی	-10.849
▁شتم	-10.849
▁شجریان،	-10.849
▁شمایل	-10.849
▁شمیم	-10.849
▁شناسد	-10.849
▁شناگر	-10.849
▁شوند؛	-10.849
▁شیعه	-10.849
▁صاف	-10.849
▁صدرنشینی	-10.849
▁صریح	-10.849
▁ضایعه	-10.849
▁ضدعفونی	-10.849
▁عالم	-10.849
▁عددی	-10.849
▁عقاب	-10.849
▁عقرب	-10.849
▁علاقمند	-10.849
▁عواقب	-10.849
▁عواملی	-10.849
▁غالب	-10.849
▁غلامرضا	-10.849
▁فروغ	-10.849
▁فضاهای	-10.849
▁فلج	-10.849
▁فلیکس	-10.849
▁فنلاند	-10.849
▁قائم	-10.849
▁قانع	-10.849
▁قراردادهای	-10.849
▁قرض	-10.849
▁قرمزها	-10.849
▁قزاقستان	-10.849
▁قسطی	-10.849
▁قضاوت	-10.849
▁قطعیت	-10.849
▁قوای	-10.849
▁قید	-10.849
▁لبخند	-10.849
▁لطف	-10.849
▁لفظی	-10.849
▁لگن	-10.849
▁مادی	-10.849
▁ماریا	-10.849
▁ماریکه	-10.849
▁ماه)	-10.849
▁ماهشهر	-10.849
▁مایع	-10.849
▁مبارزات	-10.849
▁مبالغ	-10.849
▁متروکه	-10.849
▁متقاضیان	-10.849
▁مثبتی	-10.849
▁محترم	-10.849
▁محکم	-10.849
▁مدتها	-10.849
▁مربیگری	-10.849
▁مزایده	-10.849
▁مزمن	-10.849
▁مصیبت	-10.849
▁مظنون	-10.849
▁معین	-10.849
▁مقدمات	-10.849
▁مقر	-10.849
▁مناطقی	-10.849
▁منفجر	-10.849
▁مهمان	-10.849
▁مهناز	-10.849
▁موزیک	-10.849
▁موهای	-10.849
▁مکلف	-10.849
▁میلادی،	-10.849
▁میهمان	-10.849
▁ناامن	-10.849
▁ناتوان	-10.849
▁ناقض	-10.849
▁نتفلیکس	-10.849
▁نتوانستند	-10.849
▁ندادن	-10.849
▁ندرت	-10.849
▁نشدنی	-10.849
▁نشستی	-10.849
▁نعمتی	-10.849
▁نقلیه	-10.849
▁نمایان	-10.849
▁نهفته	-10.849
▁نولان	-10.849
▁هامنبع	-10.849
▁هدفش	-10.849
▁هرد	-10.849
▁هستندمنبع	-10.849
▁هشتصد	-10.849
▁هل	-10.849
▁همبستگی	-10.849
▁همزمان،	-10.849
▁هوانوردی	-10.849
▁هوندا	-10.849
▁وحشتناک	-10.849
▁وفادار	-10.849
▁وقفی	-10.849
▁ولد	-10.849
▁ون	-10.849
▁وودز	-10.849
▁وکلای	-10.849
▁وگوهای	-10.849
▁ویدئو	-10.849
▁ویل	-10.849
▁پاریسی	-10.849
▁پانزدهم	-10.849
▁پایش	-10.849
▁پذیری	-10.849
▁پرویز	-10.849
▁پلاک	-10.849
▁پمپ	-10.849
▁پوستان	-10.849
▁پوچتینو	-10.849
▁پیامگیر	-10.849
▁پیشگام	-10.849
▁پیکان	-10.849
▁چاه	-10.849
▁چرخش	-10.849
▁چنگیز	-10.849
▁چوبی	-10.849
▁چیست؟منبع	-10.849
▁ژاکا	-10.849
▁ژنرال	-10.849
▁کاربر	-10.849
▁کارداشیان	-10.849
▁کارفرمایان	-10.849
▁کاظمی	-10.849
▁کرد.یک	-10.849
▁کرد؟منبع	-10.849
▁کرگدن	-10.849
▁کشمی	-10.849
▁کفتر	-10.849
▁کلیسای	-10.849
▁کند.به	-10.849
▁کنند.به	-10.849
▁کوسه	-10.849
▁کولمن	-10.849
▁کوپتر	-10.849
▁کیا	-10.849
▁کیو	-10.849
▁گذرد،	-10.849
▁گذشتمنبع	-10.849
▁گرفتمنبع	-10.849
▁گرفته.	-10.849
▁گرمای	-10.849
▁گروگانگیری	-10.849
▁گشوده	-10.849
▁گودا	-10.849
▁گورهای	-10.849
▁گوناگونی	-10.849
▁گیگز	-10.849
▁یاب	-10.849
▁یونسکو	-10.849
▁یووه	-10.849
▁۱۳۶۷	-10.849
▁۱۳۹۶	-10.849
▁۱۹۵۰	-10.849
▁۱۹۶۷	-10.849
▁۳۲۰	-10.849
▁۵۱	-10.849
▁۵۴	-10.849
▁۷۶	-10.849
▁۸۱	-10.849
▁۸۷	-10.849
▁۸۹	-10.849
▁'از	-10.9543
▁آدامس	-10.9543
▁آسه	-10.9543
▁آشفته	-10.9543
▁آلود	-10.9543
▁آمبولی	-10.9543
▁آموزگار	-10.9543
▁آنتونیو	-10.9543
▁آنکارا	-10.9543
▁آژیر	-10.9543
▁ابداع	-10.9543
▁ابرنواختر	-10.9543
▁اتریشی	-10.9543
▁اتفاقاتی	-10.9543
▁اختلالات	-10.9543
▁اخیر،	-10.9543
▁ارتقا	-10.9543
▁اسبق	-10.9543
▁است.بنابر	-10.9543
▁است.سعید	-10.9543
▁است.قیمت	-10.9543
▁است.گروه	-10.9543
▁استادان	-10.9543
▁استریت	-10.9543
▁اسدالله	-10.9543
▁اشکال	-10.9543
▁اصالت	-10.9543
▁اعتبارنامه	-10.9543
▁اعصاب	-10.9543
▁اف،	-10.9543
▁افزاید	-10.9543
▁افغانستانی	-10.9543
▁افق	-10.9543
▁اقامتگاه	-10.9543
▁اقتدار	-10.9543
▁امبر	-10.9543
▁امریکا	-10.9543
▁امیری	-10.9543
▁اند.یک	-10.9543
▁انداخت.	-10.9543
▁انددر	-10.9543
▁اندرکار	-10.9543
▁اندرکاران	-10.9543
▁اندیشه	-10.9543
▁انضباطی	-10.9543
▁او.	-10.9543
▁اپیدمی	-10.9543
▁ایراد	-10.9543
▁ایستاد	-10.9543
▁ایش	-10.9543
▁بادی	-10.9543
▁بارز	-10.9543
▁بارش	-10.9543
▁بازمانده	-10.9543
▁بازه	-10.9543
▁باشد.در	-10.9543
▁باکتری	-10.9543
▁باگت	-10.9543
▁بتهوون	-10.9543
▁بدانند	-10.9543
▁برآورده	-10.9543
▁برجا	-10.9543
▁برساند	-10.9543
▁برطرف	-10.9543
▁برهنه	-10.9543
▁برگردانده	-10.9543
▁برگزارکننده	-10.9543
▁بشریت	-10.9543
▁بطری	-10.9543
▁بفتا	-10.9543
▁بلندمدت	-10.9543
▁بودند.منبع	-10.9543
▁بکشند	-10.9543
▁بگذارد.	-10.9543
▁بگویند	-10.9543
▁بگیرید	-10.9543
▁بیرونی	-10.9543
▁تانک	-10.9543
▁تبانی	-10.9543
▁تجدیدپذیر	-10.9543
▁تخلیه	-10.9543
▁تراز	-10.9543
▁تراشه	-10.9543
▁ترجیحی	-10.9543
▁ترکی	-10.9543
▁تسهیل	-10.9543
▁تشویقی	-10.9543
▁تصاعد	-10.9543
▁تصدی	-10.9543
▁تضاد	-10.9543
▁تطبیق	-10.9543
▁تعمیر	-10.9543
▁تلسکوپ	-10.9543
▁تلفات	-10.9543
▁تنیده	-10.9543
▁تهران؛	-10.9543
▁تهرانی	-10.9543
▁تورهای	-10.9543
▁جاذبه	-10.9543
▁جامی	-10.9543
▁جاهای	-10.9543
▁جاپلقی	-10.9543
▁جایگزینی	-10.9543
▁جراحت	-10.9543
▁جزئی	-10.9543
▁جمشید	-10.9543
▁جمعه،	-10.9543
▁جمعیتی	-10.9543
▁جنسیس	-10.9543
▁جهانی،	-10.9543
▁جیپ	-10.9543
▁حاد	-10.9543
▁حباب	-10.9543
▁حبیب	-10.9543
▁حتما	-10.9543
▁حدودا	-10.9543
▁حصول	-10.9543
▁حواشی	-10.9543
▁حکمی	-10.9543
▁خانقاه	-10.9543
▁خانمان	-10.9543
▁خزر	-10.9543
▁خواستم	-10.9543
▁خودمان	-10.9543
▁خوشحالم	-10.9543
▁خوشحالی	-10.9543
▁خویش	-10.9543
▁داد.در	-10.9543
▁داد،	-10.9543
▁دادخواهانه	-10.9543
▁دادم	-10.9543
▁دانه	-10.9543
▁درآمدها	-10.9543
▁درام	-10.9543
▁درختان	-10.9543
▁درمی	-10.9543
▁درها	-10.9543
▁درونی	-10.9543
▁دریافتند	-10.9543
▁دریافته	-10.9543
▁دریچه	-10.9543
▁دستان	-10.9543
▁دنیاست	-10.9543
▁دوانی	-10.9543
▁دوبی	-10.9543
▁دوستانش	-10.9543
▁دیونتی	-10.9543
▁راد	-10.9543
▁راضی	-10.9543
▁رامش	-10.9543
▁رامی	-10.9543
▁رانی	-10.9543
▁راههای	-10.9543
▁رجب	-10.9543
▁رخداد	-10.9543
▁رخشانه	-10.9543
▁ردینگ	-10.9543
▁رسی	-10.9543
▁رقبای	-10.9543
▁روانشناسی	-10.9543
▁رودبار	-10.9543
▁روزبه	-10.9543
▁روشنایی	-10.9543
▁رولزرویس	-10.9543
▁رویم	-10.9543
▁ریخته	-10.9543
▁زادگان	-10.9543
▁زند.	-10.9543
▁زیرزمینی	-10.9543
▁سئول	-10.9543
▁سادیو	-10.9543
▁ساسانی	-10.9543
▁سالیانه	-10.9543
▁سانتوس	-10.9543
▁سرازیر	-10.9543
▁سرای	-10.9543
▁سرش	-10.9543
▁سرما	-10.9543
▁سفارشی	-10.9543
▁سفت	-10.9543
▁سلبریتی	-10.9543
▁سلتیک	-10.9543
▁سنبله	-10.9543
▁سنگاپور	-10.9543
▁سهامدار	-10.9543
▁سولو	-10.9543
▁سومو	-10.9543
▁سوناک	-10.9543
▁سیر	-10.9543
▁سین	-10.9543
▁شاهنامه	-10.9543
▁شاپی	-10.9543
▁شباهت	-10.9543
▁شجاع	-10.9543
▁شدند.این	-10.9543
▁شدند،	-10.9543
▁شدند؛	-10.9543
▁شعبانی	-10.9543
▁شفیلد	-10.9543
▁شهرک	-10.9543
▁شهیدی	-10.9543
▁شهیدیان	-10.9543
▁شود.اما	-10.9543
▁شکوه	-10.9543
▁شیمی	-10.9543
▁صدد	-10.9543
▁صید	-10.9543
▁ضایعات	-10.9543
▁طبع	-10.9543
▁طرفین	-10.9543
▁طلوع	-10.9543
▁عادلانه	-10.9543
▁عطرساز	-10.9543
▁عطرسازی	-10.9543
▁عظیمی	-10.9543
▁عفونی	-10.9543
▁علایم	-10.9543
▁علوی	-10.9543
▁علیدوستی	-10.9543
▁عمدی	-10.9543
▁عمرانی	-10.9543
▁غارت	-10.9543
▁غلط	-10.9543
▁فتحی	-10.9543
▁فراموشی	-10.9543
▁فرانسیس	-10.9543
▁فرانک	-10.9543
▁فردین	-10.9543
▁فرزندش	-10.9543
▁فرستاد.	-10.9543
▁فرشاد	-10.9543
▁فروشندگان	-10.9543
▁فروکش	-10.9543
▁فسخ	-10.9543
▁فشرده	-10.9543
▁فورا	-10.9543
▁قاسمی	-10.9543
▁قلمداد	-10.9543
▁قوت	-10.9543
▁قورباغه	-10.9543
▁لاجورد	-10.9543
▁لبنانی	-10.9543
▁لحن	-10.9543
▁لخته	-10.9543
▁لیدی	-10.9543
▁لیست	-10.9543
▁مائوریتسیو	-10.9543
▁مارسیال	-10.9543
▁مارکوس	-10.9543
▁ماری	-10.9543
▁ماهیچه	-10.9543
▁متضرر	-10.9543
▁متغیر	-10.9543
▁متنوع	-10.9543
▁مجرم	-10.9543
▁مجروح	-10.9543
▁محدودی	-10.9543
▁محصولاتی	-10.9543
▁مختلف،	-10.9543
▁مخصوصا	-10.9543
▁مدام	-10.9543
▁مدرس	-10.9543
▁مدفوع	-10.9543
▁مدنظر	-10.9543
▁مذاکراتی	-10.9543
▁مرادی	-10.9543
▁مردن	-10.9543
▁مری	-10.9543
▁مزارع	-10.9543
▁مسافری	-10.9543
▁مسترد	-10.9543
▁مستضعفان	-10.9543
▁مستعار	-10.9543
▁مسلحانه	-10.9543
▁مسلمانان	-10.9543
▁مشتقات	-10.9543
▁مشروطه	-10.9543
▁مطالبات	-10.9543
▁مطالبی	-10.9543
▁معاش	-10.9543
▁معتقدیم	-10.9543
▁معنا	-10.9543
▁معنوی	-10.9543
▁مقاصد	-10.9543
▁مقداری	-10.9543
▁مقطع	-10.9543
▁ملاحظات	-10.9543
▁ملتهب	-10.9543
▁منصوری	-10.9543
▁منطقی	-10.9543
▁منک	-10.9543
▁منکر	-10.9543
▁مهمانی	-10.9543
▁مواجهه	-10.9543
▁موتورز	-10.9543
▁موثری	-10.9543
▁مورل	-10.9543
▁موعد	-10.9543
▁مولانا	-10.9543
▁مونتاژ	-10.9543
▁میلوش	-10.9543
▁میلیاردر	-10.9543
▁مینا	-10.9543
▁ناخوشایند	-10.9543
▁نارضایتی	-10.9543
▁ناصرالدین	-10.9543
▁نامجو	-10.9543
▁ناپولی	-10.9543
▁ندارم	-10.9543
▁نداشتم	-10.9543
▁ندانسته	-10.9543
▁ندهد	-10.9543
▁نر	-10.9543
▁نزدیکتر	-10.9543
▁نشانگر	-10.9543
▁نمازی	-10.9543
▁نمانده	-10.9543
▁نهادی	-10.9543
▁نورد	-10.9543
▁نوزادان	-10.9543
▁نوشتند	-10.9543
▁نوشیدنی	-10.9543
▁نوظهور	-10.9543
▁نوی	-10.9543
▁نگرش	-10.9543
▁نگفته	-10.9543
▁نیافته	-10.9543
▁نیست'منبع	-10.9543
▁نیست.به	-10.9543
▁نیشگون	-10.9543
▁نیکل	-10.9543
▁هاست.	-10.9543
▁هانسی	-10.9543
▁هجری	-10.9543
▁هرمزگان	-10.9543
▁هشدارهای	-10.9543
▁همایش	-10.9543
▁همایون	-10.9543
▁همر	-10.9543
▁هویتی	-10.9543
▁هک	-10.9543
▁وال	-10.9543
▁وحشت	-10.9543
▁ورزشکاری	-10.9543
▁ونیز	-10.9543
▁وگاس	-10.9543
▁وگوها	-10.9543
▁پاکستانی	-10.9543
▁پدرم	-10.9543
▁پرایس	-10.9543
▁پرسیده	-10.9543
▁پروازی	-10.9543
▁پروتئین	-10.9543
▁پسند	-10.9543
▁پلاستیک	-10.9543
▁پورشه	-10.9543
▁پوشان	-10.9543
▁پوندی	-10.9543
▁پویا	-10.9543
▁پیرامون	-10.9543
▁پیک	-10.9543
▁پیکی	-10.9543
▁پیگیر	-10.9543
▁چشمی	-10.9543
▁چمن	-10.9543
▁ژیوادان	-10.9543
▁کادیس	-10.9543
▁کارگزار	-10.9543
▁کالای	-10.9543
▁کالدرون	-10.9543
▁کامبوج	-10.9543
▁کامرون	-10.9543
▁کردیک	-10.9543
▁کرونا:	-10.9543
▁کریم	-10.9543
▁کشت	-10.9543
▁کشتن	-10.9543
▁کلاه	-10.9543
▁کلسیم	-10.9543
▁کلمه	-10.9543
▁کلینیک	-10.9543
▁کند.اما	-10.9543
▁کنسول	-10.9543
▁کنند؟منبع	-10.9543
▁کنیممنبع	-10.9543
▁کومان	-10.9543
▁کوهن	-10.9543
▁گاردین	-10.9543
▁گذاشتند	-10.9543
▁گذرانده	-10.9543
▁گذرگاه	-10.9543
▁گردد؛	-10.9543
▁یاوری	-10.9543
▁یکه	-10.9543
▁۱۱۰	-10.9543
▁۱۳۰	-10.9543
▁۱۳۸۴	-10.9543
▁۱۳۹۰	-10.9543
▁۱۴۰	-10.9543
▁۱۴۰۰؛	-10.9543
▁۱۹۷۳	-10.9543
▁۱۹۹۶	-10.9543
▁۲۰۰۱	-10.9543
▁۲۰۰۲	-10.9543
▁۲۰۰۶	-10.9543
▁۲۰۲۳	-10.9543
▁۳۰۰۰	-10.9543
▁۵:۱۵	-10.9543
▁۶۲	-10.9543
▁۶۳	-10.9543
▁۸۴	-10.9543
▁(آمریکا)،	-11.0721
▁(کانادا)،	-11.0721
▁..	-11.0721
▁آبراموویچ	-11.0721
▁آذری	-11.0721
▁آرتتا	-11.0721
▁آزمون	-11.0721
▁آسیبی	-11.0721
▁آشفتگی	-11.0721
▁آغازین	-11.0721
▁آغوش	-11.0721
▁آلنده	-11.0721
▁آنتیفا	-11.0721
▁آهسته	-11.0721
▁آپولو	-11.0721
▁آگوئرو	-11.0721
▁ابولا	-11.0721
▁اتوماتیک	-11.0721
▁اجتماعی،	-11.0721
▁اجلاسی	-11.0721
▁اختراع	-11.0721
▁اختیارات	-11.0721
▁اختیاری	-11.0721
▁ادارات	-11.0721
▁اراک	-11.0721
▁ارومیه	-11.0721
▁اروپای	-11.0721
▁ازسرگیری	-11.0721
▁است.برخی	-11.0721
▁است.دکتر	-11.0721
▁است.شیدا	-11.0721
▁است.فرین	-11.0721
▁است.همزمان	-11.0721
▁استثنایی	-11.0721
▁استعمار	-11.0721
▁استقامت	-11.0721
▁استقراض	-11.0721
▁استوزارت	-11.0721
▁استونز	-11.0721
▁استیو	-11.0721
▁اسراییل	-11.0721
▁اسمیت	-11.0721
▁اسپایدرز	-11.0721
▁اسپورت	-11.0721
▁اشتباهی	-11.0721
▁اشخاص	-11.0721
▁اشیا	-11.0721
▁اصولگرا	-11.0721
▁اظهاراتی	-11.0721
▁اعتباری	-11.0721
▁اعراب	-11.0721
▁افزود:	-11.0721
▁اقیانوسیه	-11.0721
▁الحسنه	-11.0721
▁الزام	-11.0721
▁الکلی	-11.0721
▁الگوریتمی	-11.0721
▁امسال،	-11.0721
▁امیدی	-11.0721
▁انباشته	-11.0721
▁اند.اما	-11.0721
▁اندازد	-11.0721
▁اندرسون	-11.0721
▁انصاری	-11.0721
▁انگل	-11.0721
▁انگیزترین	-11.0721
▁انیمیشن	-11.0721
▁اوارق	-11.0721
▁اوربیتر	-11.0721
▁اکبریان	-11.0721
▁اکتشاف	-11.0721
▁اینترپل	-11.0721
▁اینصورت	-11.0721
▁اینفانتینو	-11.0721
▁اینفینیتی	-11.0721
▁اینک	-11.0721
▁اینگونه	-11.0721
▁باز؛	-11.0721
▁بازاری	-11.0721
▁بازماندگان	-11.0721
▁بازگو	-11.0721
▁باسابقه	-11.0721
▁باشد.منبع	-11.0721
▁باشم	-11.0721
▁باورند	-11.0721
▁بخشهایی	-11.0721
▁بخشیدن	-11.0721
▁بدهد.	-11.0721
▁بدهکار	-11.0721
▁برآمدن	-11.0721
▁برساند.	-11.0721
▁بروم	-11.0721
▁برپا	-11.0721
▁برگردد.	-11.0721
▁بس	-11.0721
▁بستگی	-11.0721
▁بغلان	-11.0721
▁بفروشد	-11.0721
▁بلامنازع	-11.0721
▁بلانشت	-11.0721
▁بلغارستان	-11.0721
▁بلوز	-11.0721
▁بلوچ	-11.0721
▁بلیط	-11.0721
▁بنتلی	-11.0721
▁بهاری	-11.0721
▁بهت	-11.0721
▁بود؟منبع	-11.0721
▁بوقت	-11.0721
▁بکشد.	-11.0721
▁بیافتد	-11.0721
▁بیانسه	-11.0721
▁بیدار	-11.0721
▁بینید	-11.0721
▁بیگانه	-11.0721
▁تابحال	-11.0721
▁تاجزاده	-11.0721
▁تبعید	-11.0721
▁تبلت	-11.0721
▁تجدیدنظر	-11.0721
▁تحصیلی	-11.0721
▁ترامپ،	-11.0721
▁تریاک	-11.0721
▁تزئین	-11.0721
▁تشییع	-11.0721
▁تعویض	-11.0721
▁تفاهمنامه	-11.0721
▁تفکیک	-11.0721
▁تقریبی	-11.0721
▁تقوی،	-11.0721
▁تله	-11.0721
▁تمایلی	-11.0721
▁توانستم	-11.0721
▁توس	-11.0721
▁توضیحی	-11.0721
▁تولیدکننده	-11.0721
▁جابه	-11.0721
▁جاسوس	-11.0721
▁جانوری	-11.0721
▁جدیت	-11.0721
▁جرج	-11.0721
▁جفت	-11.0721
▁جلوه	-11.0721
▁جهانبخش	-11.0721
▁جوش	-11.0721
▁جیک	-11.0721
▁حاتمی	-11.0721
▁حاضران	-11.0721
▁حال،	-11.0721
▁حاکیست	-11.0721
▁حرم	-11.0721
▁حضرت	-11.0721
▁حفره	-11.0721
▁حمیدرضا	-11.0721
▁حیاط	-11.0721
▁خاشقچی	-11.0721
▁خاور	-11.0721
▁خاوری	-11.0721
▁خبرنگاری	-11.0721
▁خدیجه	-11.0721
▁خراب	-11.0721
▁خریدن	-11.0721
▁خشمگین	-11.0721
▁خطا	-11.0721
▁خطری	-11.0721
▁خنثی	-11.0721
▁خواستیم	-11.0721
▁خودکفایی	-11.0721
▁خوشی	-11.0721
▁داد.منبع	-11.0721
▁دارند،	-11.0721
▁داشتیم	-11.0721
▁داشتیم.	-11.0721
▁دانشگر	-11.0721
▁دانند؛	-11.0721
▁داوود	-11.0721
▁دایر	-11.0721
▁دایکندی	-11.0721
▁دردناک	-11.0721
▁درمورد	-11.0721
▁درویش	-11.0721
▁درگذشتگان	-11.0721
▁دزدان	-11.0721
▁دستمزدی	-11.0721
▁دل،	-11.0721
▁دموکراتیک	-11.0721
▁دهد.این	-11.0721
▁دهد:	-11.0721
▁دهم.	-11.0721
▁دوتار	-11.0721
▁دوخته	-11.0721
▁دورانی	-11.0721
▁دوغارون	-11.0721
▁دکمه	-11.0721
▁دیدگی	-11.0721
▁دیزنی	-11.0721
▁دیوانه	-11.0721
▁رأی	-11.0721
▁رادیوی	-11.0721
▁راستش	-11.0721
▁رانده	-11.0721
▁ربطی	-11.0721
▁ردپای	-11.0721
▁رزمی	-11.0721
▁رسن	-11.0721
▁رطوبت	-11.0721
▁رقبا	-11.0721
▁رهایی	-11.0721
▁روده	-11.0721
▁روزهایی	-11.0721
▁رویکردی	-11.0721
▁رکوردها	-11.0721
▁ریاضی	-11.0721
▁ریز	-11.0721
▁زانویش	-11.0721
▁زاکانی	-11.0721
▁زاکربرگ	-11.0721
▁زندانیانی	-11.0721
▁سادگی	-11.0721
▁سازد	-11.0721
▁سازمانی	-11.0721
▁ساعی	-11.0721
▁سالمرگ	-11.0721
▁سانتیمتر	-11.0721
▁سایرین	-11.0721
▁ستون	-11.0721
▁سردار	-11.0721
▁سرمای	-11.0721
▁سرکوبی	-11.0721
▁سفرش	-11.0721
▁سفرها	-11.0721
▁سم	-11.0721
▁سنبل	-11.0721
▁سهامهای	-11.0721
▁سوابق	-11.0721
▁سودان	-11.0721
▁سولشر	-11.0721
▁سپیده	-11.0721
▁سینماگر	-11.0721
▁شاعری	-11.0721
▁شانگهای	-11.0721
▁شاگرد	-11.0721
▁شایسته	-11.0721
▁شد.همزمان	-11.0721
▁شداین	-11.0721
▁شرم	-11.0721
▁شنای	-11.0721
▁شود.ایران	-11.0721
▁شود.بر	-11.0721
▁شوم.	-11.0721
▁شکستگی	-11.0721
▁صرفنظر	-11.0721
▁صمیمی	-11.0721
▁صوت	-11.0721
▁طناب	-11.0721
▁عام	-11.0721
▁عاملی	-11.0721
▁عزیز	-11.0721
▁عسل	-11.0721
▁عکاسان	-11.0721
▁عکس؛	-11.0721
▁عینی	-11.0721
▁غافلگیرکننده	-11.0721
▁غالبا	-11.0721
▁غیربومی	-11.0721
▁غیردولتی	-11.0721
▁فای	-11.0721
▁فرآیندی	-11.0721
▁فراپادمانی	-11.0721
▁فراگیری	-11.0721
▁فرحی	-11.0721
▁فرزین	-11.0721
▁فرقی	-11.0721
▁فرماندار	-11.0721
▁فرودین	-11.0721
▁فروزش،	-11.0721
▁فشاری	-11.0721
▁فطر	-11.0721
▁فیلمسازان	-11.0721
▁فیلمسازی	-11.0721
▁قائدی	-11.0721
▁قاطعانه	-11.0721
▁قاعدتا	-11.0721
▁قاعده	-11.0721
▁قرنطینه،	-11.0721
▁قطرک	-11.0721
▁قطعا	-11.0721
▁قوانینی	-11.0721
▁قوم	-11.0721
▁لبخندی	-11.0721
▁لرزه	-11.0721
▁لسترسیتی	-11.0721
▁لشگری	-11.0721
▁لو	-11.0721
▁لیور،	-11.0721
▁مادرید،	-11.0721
▁مارادونا،	-11.0721
▁مارچلو	-11.0721
▁مانش	-11.0721
▁مانور	-11.0721
▁مباحث	-11.0721
▁مبتنی	-11.0721
▁مبین	-11.0721
▁متخلفان	-11.0721
▁متیوز	-11.0721
▁مثل	-11.0721
▁مجریان	-11.0721
▁محمدی،	-11.0721
▁محو	-11.0721
▁مددی	-11.0721
▁مدلسازی	-11.0721
▁مدیریتی	-11.0721
▁مراودات	-11.0721
▁مساحت	-11.0721
▁مستثنی	-11.0721
▁مسموم	-11.0721
▁مسیح	-11.0721
▁مشاوره	-11.0721
▁مضر	-11.0721
▁مطالب	-11.0721
▁مطلبی	-11.0721
▁معالجه	-11.0721
▁معاونان	-11.0721
▁معتمدی	-11.0721
▁معلول	-11.0721
▁معمای	-11.0721
▁مغزش	-11.0721
▁مفصل	-11.0721
▁مقاوم	-11.0721
▁منظره	-11.0721
▁منقبض	-11.0721
▁مهرابی	-11.0721
▁مهران	-11.0721
▁مهندسان	-11.0721
▁موستانگ	-11.0721
▁موقتا	-11.0721
▁موکلش	-11.0721
▁میادین	-11.0721
▁میرسلیم	-11.0721
▁میل	-11.0721
▁ناآرام	-11.0721
▁نادران	-11.0721
▁ناراضی	-11.0721
▁نامداری،	-11.0721
▁نامشان	-11.0721
▁نامید	-11.0721
▁نایا	-11.0721
▁نتایجی	-11.0721
▁نجوا	-11.0721
▁نداد	-11.0721
▁نسلی	-11.0721
▁نشستن	-11.0721
▁نشوند.	-11.0721
▁نظرش	-11.0721
▁نفی	-11.0721
▁نهنگ	-11.0721
▁نهی	-11.0721
▁نوشیدن	-11.0721
▁نوین	-11.0721
▁نکردند	-11.0721
▁نیازمندان	-11.0721
▁نیازمندی	-11.0721
▁نیست،	-11.0721
▁نیستیم	-11.0721
▁نیوکسل	-11.0721
▁نیکلاس	-11.0721
▁هاروارد	-11.0721
▁هامون	-11.0721
▁هراس	-11.0721
▁هرکسی	-11.0721
▁هستند،	-11.0721
▁هفده	-11.0721
▁هلمند	-11.0721
▁هلندی	-11.0721
▁همدردی	-11.0721
▁هیدروکسی	-11.0721
▁هیچکس	-11.0721
▁وادار	-11.0721
▁واردکنندگان	-11.0721
▁وارنر	-11.0721
▁وافغانستان	-11.0721
▁واکسنی	-11.0721
▁واگیر	-11.0721
▁وزاری	-11.0721
▁ولتا	-11.0721
▁وکارها	-11.0721
▁پ	-11.0721
▁پابلو	-11.0721
▁پابند	-11.0721
▁پاراگوئه	-11.0721
▁پاره	-11.0721
▁پالائو	-11.0721
▁پربیننده	-11.0721
▁پرتغالی	-11.0721
▁پردرآمدترین	-11.0721
▁پروازهایش	-11.0721
▁پناه	-11.0721
▁پهن	-11.0721
▁پهپاد	-11.0721
▁پوسته	-11.0721
▁پیداست	-11.0721
▁پیدایش	-11.0721
▁پیری	-11.0721
▁پیشگامان	-11.0721
▁پیموده	-11.0721
▁پینگ	-11.0721
▁پیچ	-11.0721
▁چانه	-11.0721
▁چیزهای	-11.0721
▁چیزهایی	-11.0721
▁چین،	-11.0721
▁چینمنبع	-11.0721
▁ژسوس	-11.0721
▁ژن	-11.0721
▁ژورنال	-11.0721
▁ژیمناستیک	-11.0721
▁کارآفرین	-11.0721
▁کارل	-11.0721
▁کارولینای	-11.0721
▁کارگرانی	-11.0721
▁کافه	-11.0721
▁کالابرگ	-11.0721
▁کالبدشکافی	-11.0721
▁کامپیوتری	-11.0721
▁کانادایی	-11.0721
▁کاهشی	-11.0721
▁کاپیتان:	-11.0721
▁کج	-11.0721
▁کدخدایی	-11.0721
▁کروناواک	-11.0721
▁کرونایی	-11.0721
▁کرویف	-11.0721
▁کریر	-11.0721
▁کشنده	-11.0721
▁کفایت	-11.0721
▁کلاین	-11.0721
▁کلدی	-11.0721
▁کلمات	-11.0721
▁کلورت	-11.0721
▁کلیپ	-11.0721
▁کمکی	-11.0721
▁کند'منبع	-11.0721
▁کند؟	-11.0721
▁کنزو	-11.0721
▁کنی	-11.0721
▁کنیم،	-11.0721
▁کهنه	-11.0721
▁کودتا	-11.0721
▁کومله	-11.0721
▁کوچکترین	-11.0721
▁کیسه	-11.0721
▁کیومرث	-11.0721
▁گاگا	-11.0721
▁گدار	-11.0721
▁گرانتر	-11.0721
▁گردشگر	-11.0721
▁گردنبند	-11.0721
▁گریزمان	-11.0721
▁گسل	-11.0721
▁گلاسکو	-11.0721
▁گلمکانی	-11.0721
▁گهر	-11.0721
▁گوایدو	-11.0721
▁گوفن	-11.0721
▁گوید.	-11.0721
▁گیرنده	-11.0721
▁گیم	-11.0721
▁یازدهمین	-11.0721
▁یاشار	-11.0721
▁یوسین	-11.0721
▁۱۰۸	-11.0721
▁۱۳۴۰	-11.0721
▁۱۳۵۰	-11.0721
▁۱۳۹۴	-11.0721
▁۱۹۳۰	-11.0721
▁۱۹۹۷	-11.0721
▁۲۳۱	-11.0721
▁۴۵۰	-11.0721
▁۵۸	-11.0721
▁۸۸	-11.0721
▁آبزیان	-11.2056
▁آبه	-11.2056
▁آبهای	-11.2056
▁آرایشگاه	-11.2056
▁آرزو	-11.2056
▁آرسن	-11.2056
▁آزادانه	-11.2056
▁آغداشلو	-11.2056
▁آفرین	-11.2056
▁آفلاتوکسین	-11.2056
▁آلمن	-11.2056
▁آمریکامنبع	-11.2056
▁آموز	-11.2056
▁آینه	-11.2056
▁ابهامات	-11.2056
▁اتصال	-11.2056
▁اتهاماتی	-11.2056
▁اتومبیلرانی	-11.2056
▁اجرام	-11.2056
▁احتیاج	-11.2056
▁احداث	-11.2056
▁احزاب	-11.2056
▁احسنی	-11.2056
▁احوال	-11.2056
▁ادل	-11.2056
▁ادوار	-11.2056
▁اذهان	-11.2056
▁اراده	-11.2056
▁اردکانیان	-11.2056
▁اروپا،	-11.2056
▁اروپا؛	-11.2056
▁ارگان	-11.2056
▁اساسا	-11.2056
▁اسباب	-11.2056
▁است.افزایش	-11.2056
▁است.دو	-11.2056
▁است.رئیس	-11.2056
▁است.مسئولان	-11.2056
▁است.پیشتر	-11.2056
▁است.کارشناسان	-11.2056
▁است.گفت	-11.2056
▁استانداری	-11.2056
▁استانی	-11.2056
▁استبر	-11.2056
▁استکهلم	-11.2056
▁اسرارآمیز	-11.2056
▁اسکوبار	-11.2056
▁اشعه	-11.2056
▁اشکالات	-11.2056
▁اصلاحی	-11.2056
▁اصلانی	-11.2056
▁افزودن	-11.2056
▁الاجل	-11.2056
▁السد	-11.2056
▁الوحده	-11.2056
▁الکل	-11.2056
▁امروزشان	-11.2056
▁امورخارجه	-11.2056
▁امپراتور	-11.2056
▁امپریال	-11.2056
▁امی	-11.2056
▁امینی	-11.2056
▁انتحاری	-11.2056
▁انتقاداتی	-11.2056
▁انتقام	-11.2056
▁انحصاری	-11.2056
▁اند؟امسال	-11.2056
▁انداختند.	-11.2056
▁اندیشکده	-11.2056
▁انعطاف	-11.2056
▁اهدایی	-11.2056
▁اوله	-11.2056
▁اولیانوف	-11.2056
▁اولیویا	-11.2056
▁اپراتورهای	-11.2056
▁اکاذیب	-11.2056
▁ایسلند	-11.2056
▁اینجاست	-11.2056
▁اینستاگرامش	-11.2056
▁اینستکس	-11.2056
▁ایی	-11.2056
▁باج	-11.2056
▁بارتومئو	-11.2056
▁باردار	-11.2056
▁باریک	-11.2056
▁بازجویی	-11.2056
▁بازدیدکنندگان	-11.2056
▁بازگشت.	-11.2056
▁بازیافت	-11.2056
▁باشد،	-11.2056
▁باشید.	-11.2056
▁باغچه	-11.2056
▁بانو	-11.2056
▁ببیند	-11.2056
▁بتوانم	-11.2056
▁بخشنامه	-11.2056
▁بخشیده	-11.2056
▁بخواهد	-11.2056
▁بخواهید	-11.2056
▁بخواهیم	-11.2056
▁برجام؛	-11.2056
▁برجامی	-11.2056
▁برخورداری	-11.2056
▁برگرداندن	-11.2056
▁برگشتی	-11.2056
▁بری	-11.2056
▁بریت	-11.2056
▁بریتانیامنبع	-11.2056
▁بریتنی	-11.2056
▁بزرگسالان	-11.2056
▁بسر	-11.2056
▁بلایندرز	-11.2056
▁بنده	-11.2056
▁بنظر	-11.2056
▁بو	-11.2056
▁بود.بیشتر	-11.2056
▁بود.پس	-11.2056
▁بودا	-11.2056
▁بودمنبع	-11.2056
▁بوده.	-11.2056
▁بوده،	-11.2056
▁بوزمن	-11.2056
▁بوق	-11.2056
▁بوچانی	-11.2056
▁بپردازد	-11.2056
▁بگذارید	-11.2056
▁بگوید	-11.2056
▁بگیران	-11.2056
▁بگیرید.	-11.2056
▁تأسیس	-11.2056
▁تاکتیک	-11.2056
▁تبریک	-11.2056
▁تبصره	-11.2056
▁تحریمها	-11.2056
▁تخیل	-11.2056
▁ترابی	-11.2056
▁ترانزیت	-11.2056
▁تربیت	-11.2056
▁ترتیبات	-11.2056
▁تصرف	-11.2056
▁تصریح	-11.2056
▁تصفیه	-11.2056
▁تمیز	-11.2056
▁تندروی	-11.2056
▁تندیس	-11.2056
▁توبیاس	-11.2056
▁توربو	-11.2056
▁تورنتو	-11.2056
▁تونل	-11.2056
▁تکامل	-11.2056
▁تکنیک	-11.2056
▁تکنیکی	-11.2056
▁ثالث	-11.2056
▁جانش	-11.2056
▁جاوید	-11.2056
▁جرح	-11.2056
▁جعبه	-11.2056
▁جعفری	-11.2056
▁جعل	-11.2056
▁جنب	-11.2056
▁جندی	-11.2056
▁جنر	-11.2056
▁جوانا	-11.2056
▁جوی	-11.2056
▁جویی	-11.2056
▁جیلانی	-11.2056
▁جیمزباند	-11.2056
▁حاج	-11.2056
▁حرارت	-11.2056
▁حرام	-11.2056
▁حرکتی	-11.2056
▁حلی	-11.2056
▁حیوانی	-11.2056
▁خران	-11.2056
▁خرند.	-11.2056
▁خلبان	-11.2056
▁خم	-11.2056
▁خوزستان،	-11.2056
▁خیز	-11.2056
▁دات	-11.2056
▁داد.این	-11.2056
▁داد.به	-11.2056
▁دادیم	-11.2056
▁دارد؟منبع	-11.2056
▁دارند.منبع	-11.2056
▁دارند:	-11.2056
▁داروین	-11.2056
▁داشبورد	-11.2056
▁داشت.منبع	-11.2056
▁دانا	-11.2056
▁دانستن	-11.2056
▁داوید	-11.2056
▁داوینچی	-11.2056
▁درآمد.	-11.2056
▁درآمدزایی	-11.2056
▁درآوردن	-11.2056
▁درسی	-11.2056
▁درصدد	-11.2056
▁دریانوردی	-11.2056
▁دستوری	-11.2056
▁دفاتر	-11.2056
▁دلار،	-11.2056
▁دلالان	-11.2056
▁دلیلش	-11.2056
▁دهد.در	-11.2056
▁دهند.این	-11.2056
▁دومی	-11.2056
▁دژ	-11.2056
▁دگرگون	-11.2056
▁دیاباته	-11.2056
▁دیواری	-11.2056
▁ذائقه	-11.2056
▁ذیبخش	-11.2056
▁را.	-11.2056
▁راجع	-11.2056
▁ربایی	-11.2056
▁رساندند.	-11.2056
▁رغبت	-11.2056
▁رفت،	-11.2056
▁رفتند.	-11.2056
▁رفراندوم	-11.2056
▁ره	-11.2056
▁رواج	-11.2056
▁روبرت	-11.2056
▁روحی	-11.2056
▁رومانی	-11.2056
▁رومن	-11.2056
▁روند.	-11.2056
▁رکوردشکنی	-11.2056
▁ریختن	-11.2056
▁ریختگی	-11.2056
▁ریسک	-11.2056
▁ریو	-11.2056
▁زادگاه	-11.2056
▁زمانه	-11.2056
▁زن:	-11.2056
▁زور	-11.2056
▁زورف	-11.2056
▁زیباترین	-11.2056
▁زیبای	-11.2056
▁ساترا	-11.2056
▁ساخت.	-11.2056
▁ساختارهای	-11.2056
▁ساختمانی	-11.2056
▁ساختگی	-11.2056
▁سازوکار	-11.2056
▁ساشا	-11.2056
▁سال.	-11.2056
▁سام	-11.2056
▁سانحه	-11.2056
▁ساید	-11.2056
▁سجاد	-11.2056
▁سربازی	-11.2056
▁سرگرفته	-11.2056
▁سفیددره	-11.2056
▁سقط	-11.2056
▁سل	-11.2056
▁سلفی	-11.2056
▁سنای	-11.2056
▁سندی	-11.2056
▁سنگر	-11.2056
▁سوئدی	-11.2056
▁سوشانت	-11.2056
▁سولار	-11.2056
▁سولسشر	-11.2056
▁سومی	-11.2056
▁سوپرمارکت	-11.2056
▁سوگواری	-11.2056
▁سویا	-11.2056
▁سکان	-11.2056
▁سیاستمدار	-11.2056
▁سیلندر	-11.2056
▁سیلی	-11.2056
▁سیگنال	-11.2056
▁شام	-11.2056
▁شایعات	-11.2056
▁شباهتی	-11.2056
▁شخصا	-11.2056
▁شد.خانم	-11.2056
▁شددر	-11.2056
▁شدند.در	-11.2056
▁شدنی	-11.2056
▁شرطی	-11.2056
▁شفاهی	-11.2056
▁شناختن	-11.2056
▁شنوایی	-11.2056
▁شهرتی	-11.2056
▁شهرکرد	-11.2056
▁شورش	-11.2056
▁شوق	-11.2056
▁شوند.این	-11.2056
▁شوندمنبع	-11.2056
▁شکننده	-11.2056
▁صبا	-11.2056
▁صرب	-11.2056
▁صفحاتی	-11.2056
▁صنف	-11.2056
▁صورتش	-11.2056
▁ضریب	-11.2056
▁ضوابط	-11.2056
▁ضیا	-11.2056
▁ظریف،	-11.2056
▁عازم	-11.2056
▁عجیبی	-11.2056
▁عدالتی	-11.2056
▁عراق،	-11.2056
▁عروقی	-11.2056
▁عزاداران	-11.2056
▁عزت	-11.2056
▁عزیزانشان	-11.2056
▁عصبانی	-11.2056
▁عضلانی	-11.2056
▁عمیقا	-11.2056
▁غروب	-11.2056
▁غیبت	-11.2056
▁غیرعادی	-11.2056
▁غیرعضو	-11.2056
▁فابیو	-11.2056
▁فاتح	-11.2056
▁فاضلی	-11.2056
▁فحش	-11.2056
▁فراکسیون	-11.2056
▁فرجام	-11.2056
▁فرسایشی	-11.2056
▁فرستادن	-11.2056
▁فرندز	-11.2056
▁فرهنگ؛	-11.2056
▁فرهنگستان	-11.2056
▁فروزش	-11.2056
▁فشارهای	-11.2056
▁فضانوردی	-11.2056
▁فهرستی	-11.2056
▁فوتبال:	-11.2056
▁فورمن	-11.2056
▁فیروز	-11.2056
▁فیلترینگ	-11.2056
▁قاتل	-11.2056
▁قارچ	-11.2056
▁قایقی	-11.2056
▁قبیل	-11.2056
▁قدرتمندی	-11.2056
▁قدردانی	-11.2056
▁قرون	-11.2056
▁قشم	-11.2056
▁قفسه	-11.2056
▁قند	-11.2056
▁قیمتهای	-11.2056
▁لاخ	-11.2056
▁لبخندها	-11.2056
▁لحظاتی	-11.2056
▁لطمه	-11.2056
▁لمسی	-11.2056
▁لوکا	-11.2056
▁لوکاس	-11.2056
▁لویه	-11.2056
▁ماست	-11.2056
▁مال	-11.2056
▁ماندند	-11.2056
▁مانعی	-11.2056
▁مانند	-11.2056
▁مایحتاج	-11.2056
▁مبلغی	-11.2056
▁متحدانش	-11.2056
▁متصل	-11.2056
▁متفرق	-11.2056
▁متوفی	-11.2056
▁مجامع	-11.2056
▁مجبورند	-11.2056
▁محرکه	-11.2056
▁محسوسی	-11.2056
▁محصولاتش	-11.2056
▁محفوظ	-11.2056
▁محمدحسین	-11.2056
▁مخابره	-11.2056
▁مدرنا	-11.2056
▁مربع	-11.2056
▁مروری	-11.2056
▁مزایای	-11.2056
▁مساجد	-11.2056
▁مستقیمی	-11.2056
▁مستندساز	-11.2056
▁مشتاق	-11.2056
▁مصلی	-11.2056
▁مصمم	-11.2056
▁معطوف	-11.2056
▁معما	-11.2056
▁مفهومی	-11.2056
▁مقدمه	-11.2056
▁ملا	-11.2056
▁ملزم	-11.2056
▁منتسب	-11.2056
▁منتشرشده	-11.2056
▁منحل	-11.2056
▁منظم	-11.2056
▁منفرد	-11.2056
▁منقل	-11.2056
▁مهمانان	-11.2056
▁مو	-11.2056
▁موافقان	-11.2056
▁موسی	-11.2056
▁موفقی	-11.2056
▁موی	-11.2056
▁مکالمات	-11.2056
▁مکمل	-11.2056
▁میرزا	-11.2056
▁میوند	-11.2056
▁میکل	-11.2056
▁ناامید	-11.2056
▁نامبرده	-11.2056
▁نامشخص	-11.2056
▁نامعلوم	-11.2056
▁نانوایی	-11.2056
▁ناچیز	-11.2056
▁ناکافی	-11.2056
▁ناگزیر	-11.2056
▁نجیب	-11.2056
▁نخبه	-11.2056
▁نرفته	-11.2056
▁نس	-11.2056
▁نشست.	-11.2056
▁نعلی	-11.2056
▁نفتکشی	-11.2056
▁نمود	-11.2056
▁نهایتا	-11.2056
▁نهضت	-11.2056
▁نو،	-11.2056
▁نوآورانه	-11.2056
▁نواحی	-11.2056
▁نوراللهی	-11.2056
▁نوردی	-11.2056
▁نوله	-11.2056
▁نویر	-11.2056
▁نویسد	-11.2056
▁نپال	-11.2056
▁نکنیم	-11.2056
▁نیل	-11.2056
▁نیکولاس	-11.2056
▁هدست	-11.2056
▁هستند.در	-11.2056
▁هستند؛	-11.2056
▁هفتصد	-11.2056
▁همتی،	-11.2056
▁هموار	-11.2056
▁هوادارانش	-11.2056
▁هوشیاری	-11.2056
▁هیئتی	-11.2056
▁هیولای	-11.2056
▁واتفورد	-11.2056
▁واردی	-11.2056
▁واپسین	-11.2056
▁وزنه	-11.2056
▁وزیری	-11.2056
▁وفاداری	-11.2056
▁ولادیمیر	-11.2056
▁ومبلی	-11.2056
▁ونقل	-11.2056
▁وگرنه	-11.2056
▁ویرایش	-11.2056
▁پاختاکور	-11.2056
▁پادشاهان	-11.2056
▁پادمان	-11.2056
▁پادکست	-11.2056
▁پارسال،	-11.2056
▁پافشاری	-11.2056
▁پاهای	-11.2056
▁پاکبان	-11.2056
▁پذیرای	-11.2056
▁پروست	-11.2056
▁پریشان	-11.2056
▁پناهنده	-11.2056
▁پور،	-11.2056
▁پوستر	-11.2056
▁پوشیدن	-11.2056
▁پولیتزر	-11.2056
▁پیامک	-11.2056
▁پیانو	-11.2056
▁پیشانی	-11.2056
▁پیشاپیش	-11.2056
▁پیوست.	-11.2056
▁پیگرد	-11.2056
▁چرایی	-11.2056
▁چلسی،	-11.2056
▁چندمین	-11.2056
▁چهارراه	-11.2056
▁چهلمین	-11.2056
▁چپمن	-11.2056
▁چیست؟	-11.2056
▁چین؛	-11.2056
▁کاراکاس	-11.2056
▁کارزارهای	-11.2056
▁کارفرما	-11.2056
▁کارلو	-11.2056
▁کارگیری	-11.2056
▁کالایی	-11.2056
▁کامپیوترها	-11.2056
▁کامیابی	-11.2056
▁کاوه	-11.2056
▁کبد	-11.2056
▁کر	-11.2056
▁کرد'منبع	-11.2056
▁کرد.پس	-11.2056
▁کردند،	-11.2056
▁کردند؛	-11.2056
▁کردهمنبع	-11.2056
▁کروری	-11.2056
▁کشتیرانی	-11.2056
▁کشند	-11.2056
▁کشورشان	-11.2056
▁کمونیست	-11.2056
▁کنند.او	-11.2056
▁کوهنورد	-11.2056
▁کیست	-11.2056
▁کیمیایی	-11.2056
▁گارد	-11.2056
▁گارسیا	-11.2056
▁گرامی	-11.2056
▁گرجستانی	-11.2056
▁گردانندگان	-11.2056
▁گرفتگی	-11.2056
▁گرما	-11.2056
▁گروههای	-11.2056
▁گریگوریان	-11.2056
▁گزینش	-11.2056
▁گفتم	-11.2056
▁گفته،	-11.2056
▁گله	-11.2056
▁گناه	-11.2056
▁گونار	-11.2056
▁گویا	-11.2056
▁گوییم	-11.2056
▁گیاه	-11.2056
▁گیتس	-11.2056
▁گیرد،	-11.2056
▁گیلان	-11.2056
▁یادماندنی	-11.2056
▁یخچال	-11.2056
▁یهودی	-11.2056
▁یوان	-11.2056
▁یوتیوب	-11.2056
▁۱.۵	-11.2056
▁۱۳۳۹	-11.2056
▁۱۳۹۲	-11.2056
▁۱۸۵	-11.2056
▁۱۹۴۱	-11.2056
▁۱۹۵۸	-11.2056
▁۱۹۷۵	-11.2056
▁۱۹۸۴	-11.2056
▁۱۹۸۹	-11.2056
▁۱۹۹۲	-11.2056
▁۱۹۹۳	-11.2056
▁۲۰۱۹؛	-11.2056
▁۲۰۲۴	-11.2056
▁۳۶۰	-11.2056
▁۷۵۰	-11.2056
▁۷۹	-11.2056
▁'افزایش	-11.3598
▁'برای	-11.3598
▁)	-11.3598
▁.وی	-11.3598
▁آرامکوی	-11.3598
▁آرامی	-11.3598
▁آرسی	-11.3598
▁آرشیوی	-11.3598
▁آرمان	-11.3598
▁آسانی	-11.3598
▁آستون	-11.3598
▁آشپزی	-11.3598
▁آشکاری	-11.3598
▁آقایی	-11.3598
▁آلبرت	-11.3598
▁آماتور	-11.3598
▁آمریکاییان	-11.3598
▁آموخته	-11.3598
▁آندرسکو	-11.3598
▁آنری	-11.3598
▁آنگلا	-11.3598
▁آنی	-11.3598
▁آهو	-11.3598
▁آوازخوانان	-11.3598
▁آورد.او	-11.3598
▁آیس	-11.3598
▁آیند.	-11.3598
▁ابدی	-11.3598
▁ابرخشکسالی	-11.3598
▁ابوالفضل	-11.3598
▁ابوالملوکی	-11.3598
▁اجتماع	-11.3598
▁اجراهای	-11.3598
▁احتکار	-11.3598
▁احمدرضا	-11.3598
▁اخترشناسان	-11.3598
▁ادعایی	-11.3598
▁ارتفاعات	-11.3598
▁اردوی	-11.3598
▁ارواح	-11.3598
▁ارژن	-11.3598
▁است.بهرنگ	-11.3598
▁است.دیروز	-11.3598
▁است.سیاوش	-11.3598
▁است.شاخص	-11.3598
▁است.فدرر	-11.3598
▁است.وزیر	-11.3598
▁است.پوریا	-11.3598
▁استآقای	-11.3598
▁استاینر	-11.3598
▁استبه	-11.3598
▁استرداد	-11.3598
▁استعدادهای	-11.3598
▁استفانو	-11.3598
▁اسرائیل،	-11.3598
▁اسعدی	-11.3598
▁اسمعیلی	-11.3598
▁اسنادی	-11.3598
▁اسپانیا.	-11.3598
▁اشیای	-11.3598
▁اصطلاحا	-11.3598
▁اصغر	-11.3598
▁اصفهان،	-11.3598
▁اصلاحیه	-11.3598
▁اصیل	-11.3598
▁اظهارنظری	-11.3598
▁اعتمادی	-11.3598
▁اعطا	-11.3598
▁افتاد؛	-11.3598
▁افتادمنبع	-11.3598
▁افرایش	-11.3598
▁افسردگی	-11.3598
▁افغانستان؛	-11.3598
▁اقامه	-11.3598
▁اقتصاددان	-11.3598
▁الاجلی	-11.3598
▁الاکلنگ	-11.3598
▁الزامی	-11.3598
▁النصر	-11.3598
▁امرالله	-11.3598
▁امروزی	-11.3598
▁امضاکننده	-11.3598
▁امیدهای	-11.3598
▁انحصار	-11.3598
▁اند.محمد	-11.3598
▁انسانها	-11.3598
▁انستیتو	-11.3598
▁او،	-11.3598
▁اوست.	-11.3598
▁اولی	-11.3598
▁اونس	-11.3598
▁اوگوپوگو	-11.3598
▁اپراتورها	-11.3598
▁اپیزود	-11.3598
▁ای:	-11.3598
▁ایان	-11.3598
▁ایت	-11.3598
▁ایراندر	-11.3598
▁ایسنا،	-11.3598
▁اینچی	-11.3598
▁ایوان	-11.3598
▁باخ	-11.3598
▁بارانی	-11.3598
▁بارچا	-11.3598
▁بارگیری	-11.3598
▁باز:	-11.3598
▁بازارهایی	-11.3598
▁بازاریابی	-11.3598
▁بازدیدکننده	-11.3598
▁بازرگان	-11.3598
▁بازنشر	-11.3598
▁بازنمایی	-11.3598
▁باشکوه	-11.3598
▁باطل	-11.3598
▁بالستیک	-11.3598
▁باومگارتنر	-11.3598
▁باک	-11.3598
▁بایر	-11.3598
▁ببازد	-11.3598
▁بدانیممنبع	-11.3598
▁بدنش	-11.3598
▁بدهند.	-11.3598
▁بدوی	-11.3598
▁بذرپاش	-11.3598
▁برجام،	-11.3598
▁برجای	-11.3598
▁برسند	-11.3598
▁برنا	-11.3598
▁برود.این	-11.3598
▁برگرداند	-11.3598
▁بریتانیا.	-11.3598
▁بریتیش	-11.3598
▁بریستول	-11.3598
▁بزاق	-11.3598
▁بسازد.	-11.3598
▁بست.	-11.3598
▁بسفر	-11.3598
▁بصری	-11.3598
▁بفرستید.	-11.3598
▁بفهمد	-11.3598
▁بل	-11.3598
▁بلخی	-11.3598
▁بلندترین	-11.3598
▁بلندپروازانه	-11.3598
▁بلندی	-11.3598
▁بم	-11.3598
▁بمبگذاری	-11.3598
▁بنزینی	-11.3598
▁بهرامی	-11.3598
▁بهینه	-11.3598
▁بود.بعضی	-11.3598
▁بودند.این	-11.3598
▁بودیم.	-11.3598
▁بور	-11.3598
▁بوفون	-11.3598
▁بوم	-11.3598
▁بینند	-11.3598
▁بینندگان	-11.3598
▁بیورن	-11.3598
▁بیگ	-11.3598
▁تأخیر	-11.3598
▁تابوت	-11.3598
▁تاجگردون	-11.3598
▁تار	-11.3598
▁تاکادا	-11.3598
▁تجربیات	-11.3598
▁تحصیلات	-11.3598
▁تخته	-11.3598
▁تخصص	-11.3598
▁ترانس	-11.3598
▁تراکم	-11.3598
▁ترددهای	-11.3598
▁ترقی	-11.3598
▁ترکیش	-11.3598
▁تسریع	-11.3598
▁تسلط	-11.3598
▁تسلی	-11.3598
▁تسلیحات	-11.3598
▁تشکل	-11.3598
▁تعدد	-11.3598
▁تعرض	-11.3598
▁تعلل	-11.3598
▁تفرشی	-11.3598
▁تفریح	-11.3598
▁تقلا	-11.3598
▁تلاطم	-11.3598
▁تلفیقی	-11.3598
▁تلویحا	-11.3598
▁تماشاچیان	-11.3598
▁تملک	-11.3598
▁تناقض	-11.3598
▁تنگی	-11.3598
▁توئیتر	-11.3598
▁توانستیم	-11.3598
▁توبین	-11.3598
▁توسان	-11.3598
▁توفیقی	-11.3598
▁تولدش	-11.3598
▁تومان،	-11.3598
▁تویوتا	-11.3598
▁توییترش	-11.3598
▁تکواندو	-11.3598
▁جاسم	-11.3598
▁جاغوری	-11.3598
▁جامد	-11.3598
▁جدل	-11.3598
▁جدولی	-11.3598
▁جذابیت	-11.3598
▁جسورانه	-11.3598
▁جشنی	-11.3598
▁جغرافیایی	-11.3598
▁جملات	-11.3598
▁جمهورها	-11.3598
▁جمهوری،	-11.3598
▁جمهوریت	-11.3598
▁جنازه	-11.3598
▁جنرال	-11.3598
▁جنی	-11.3598
▁جهان؛	-11.3598
▁جهرمی	-11.3598
▁جوادی	-11.3598
▁جواهرات	-11.3598
▁جور	-11.3598
▁جوشقانی	-11.3598
▁جیبش	-11.3598
▁جیبوتی	-11.3598
▁جیل	-11.3598
▁جیمی	-11.3598
▁جینجی	-11.3598
▁حاره	-11.3598
▁حاضرین	-11.3598
▁حجت	-11.3598
▁حراست	-11.3598
▁حرفی	-11.3598
▁حریرچی	-11.3598
▁حفاظتی	-11.3598
▁حک	-11.3598
▁حکمیت	-11.3598
▁خدماتی	-11.3598
▁خرس	-11.3598
▁خسرجی	-11.3598
▁خشت	-11.3598
▁خشنود	-11.3598
▁خضریان	-11.3598
▁خفاجیان	-11.3598
▁خفیفی	-11.3598
▁خندان	-11.3598
▁خوابیدن	-11.3598
▁خودمختار	-11.3598
▁خورد؛	-11.3598
▁خوشبخت	-11.3598
▁خیام	-11.3598
▁داخله	-11.3598
▁داد.آقای	-11.3598
▁دادخواهی	-11.3598
▁دادند.این	-11.3598
▁داران	-11.3598
▁دارد.او	-11.3598
▁داشت.او	-11.3598
▁دانان	-11.3598
▁داند.	-11.3598
▁داندی	-11.3598
▁دانستند.	-11.3598
▁داگ	-11.3598
▁دبیرستان	-11.3598
▁دخل	-11.3598
▁دراین	-11.3598
▁درحالیکه	-11.3598
▁درسال	-11.3598
▁درهم	-11.3598
▁درواقع	-11.3598
▁درگذشت.آقای	-11.3598
▁دزدی	-11.3598
▁دعوا	-11.3598
▁دلخواه	-11.3598
▁دلو	-11.3598
▁دنیس	-11.3598
▁دهدمنبع	-11.3598
▁دهقانی	-11.3598
▁دهندمنبع	-11.3598
▁دهی	-11.3598
▁دوتابعیتی	-11.3598
▁دوجانبه	-11.3598
▁دولتش	-11.3598
▁دوندگان	-11.3598
▁دیابت	-11.3598
▁دیدارش	-11.3598
▁ذاتی	-11.3598
▁ر	-11.3598
▁رائونیچ	-11.3598
▁رابین	-11.3598
▁رادیواکتیو	-11.3598
▁راسخ	-11.3598
▁راسل	-11.3598
▁راشد	-11.3598
▁ران	-11.3598
▁رجوع	-11.3598
▁رحمت	-11.3598
▁رحمتی	-11.3598
▁رخدادهای	-11.3598
▁رز	-11.3598
▁رزم	-11.3598
▁رزماری	-11.3598
▁رزیدنت	-11.3598
▁رس	-11.3598
▁رسالت	-11.3598
▁رساندمنبع	-11.3598
▁رسمی،	-11.3598
▁رسید.در	-11.3598
▁رسیدند.	-11.3598
▁رشدی	-11.3598
▁رشید	-11.3598
▁رضاوند	-11.3598
▁رفتم	-11.3598
▁رفتمنبع	-11.3598
▁رفسنجانی	-11.3598
▁روانچی	-11.3598
▁روحانیون	-11.3598
▁روحیه	-11.3598
▁رودکی	-11.3598
▁روسیه،	-11.3598
▁روشنفکران	-11.3598
▁رومانیایی	-11.3598
▁رومی	-11.3598
▁روندهای	-11.3598
▁رویز	-11.3598
▁رژه	-11.3598
▁رکوردهای	-11.3598
▁ریخت	-11.3598
▁ریویان	-11.3598
▁ریگی	-11.3598
▁زائران	-11.3598
▁زادگاهش	-11.3598
▁زدگان	-11.3598
▁زم	-11.3598
▁زهرامنبع	-11.3598
▁زودرس	-11.3598
▁زوم	-11.3598
▁سازوکارهای	-11.3598
▁سانجی	-11.3598
▁سبکی	-11.3598
▁سبیتار	-11.3598
▁سردرگمی	-11.3598
▁سردسته	-11.3598
▁سرسختانه	-11.3598
▁سرم	-11.3598
▁سرنا	-11.3598
▁سرگذشت	-11.3598
▁سرگردان	-11.3598
▁سرگشاده	-11.3598
▁سفیران	-11.3598
▁سلیمان	-11.3598
▁سناریو	-11.3598
▁سندرم	-11.3598
▁سنگی	-11.3598
▁سنگینی	-11.3598
▁سهل	-11.3598
▁سوئز	-11.3598
▁سوخته	-11.3598
▁سوق	-11.3598
▁سوگ	-11.3598
▁سوگوار	-11.3598
▁سویفت	-11.3598
▁سویی	-11.3598
▁سیاهان	-11.3598
▁سیاهچاله	-11.3598
▁سیاهی	-11.3598
▁سیتسی	-11.3598
▁سیتی،	-11.3598
▁سیدل	-11.3598
▁سیروس	-11.3598
▁سیلاوی	-11.3598
▁سیمرغ	-11.3598
▁سیمونا	-11.3598
▁سینوواک	-11.3598
▁شاد	-11.3598
▁شارلوت	-11.3598
▁شجریان:	-11.3598
▁شخصیتی	-11.3598
▁شد.بیشتر	-11.3598
▁شد.حالا	-11.3598
▁شد:	-11.3598
▁شدایران،	-11.3598
▁شدرئیس	-11.3598
▁شرمن	-11.3598
▁شعری	-11.3598
▁شفق	-11.3598
▁شناورهای	-11.3598
▁شهادت	-11.3598
▁شهرخودرو	-11.3598
▁شود'منبع	-11.3598
▁شود.خانم	-11.3598
▁شود؟	-11.3598
▁شوراهای	-11.3598
▁شویم.	-11.3598
▁شکافی	-11.3598
▁شکایتی	-11.3598
▁شکم	-11.3598
▁شکنی	-11.3598
▁شکوفایی	-11.3598
▁شکی	-11.3598
▁شیب	-11.3598
▁شیفته	-11.3598
▁صحرایی	-11.3598
▁صدایی	-11.3598
▁صفوف	-11.3598
▁طباطبایی	-11.3598
▁طبیعتا	-11.3598
▁طرفدارانش	-11.3598
▁طغیان	-11.3598
▁طلبانه	-11.3598
▁طلبد	-11.3598
▁طلسم	-11.3598
▁طیفی	-11.3598
▁عالیشاه	-11.3598
▁عامیانه	-11.3598
▁عتیقه	-11.3598
▁عثمانی	-11.3598
▁عدل	-11.3598
▁عروس	-11.3598
▁عقد	-11.3598
▁علائمی	-11.3598
▁عمران	-11.3598
▁عمرش	-11.3598
▁عمودی	-11.3598
▁عنابی	-11.3598
▁عناصر	-11.3598
▁عنصر	-11.3598
▁عنوانی	-11.3598
▁عکسهای	-11.3598
▁غلام	-11.3598
▁غیرانسانی	-11.3598
▁غیرضروری	-11.3598
▁غیرواقعی	-11.3598
▁فال	-11.3598
▁فایده	-11.3598
▁فتاح	-11.3598
▁فرامرز	-11.3598
▁فراورده	-11.3598
▁فرح	-11.3598
▁فرشته	-11.3598
▁فرضیه	-11.3598
▁فرناندز	-11.3598
▁فرهنگیان	-11.3598
▁فرهیختگان	-11.3598
▁فروردین،	-11.3598
▁فستیوال	-11.3598
▁فضاپیما	-11.3598
▁فلامینگوها	-11.3598
▁فلزات	-11.3598
▁فهم	-11.3598
▁فهیم	-11.3598
▁فوریآمار	-11.3598
▁فولکلور	-11.3598
▁فک	-11.3598
▁فکرش	-11.3598
▁فیش	-11.3598
▁فیلیمو	-11.3598
▁قتالی	-11.3598
▁قرآن	-11.3598
▁قره	-11.3598
▁قشر	-11.3598
▁قضائی	-11.3598
▁قلبم	-11.3598
▁قومندان	-11.3598
▁قیاس	-11.3598
▁لاتزیو	-11.3598
▁لامرد	-11.3598
▁لاپورتا	-11.3598
▁لباسی	-11.3598
▁لطفی	-11.3598
▁لندن،	-11.3598
▁لهستانی	-11.3598
▁لورکوزن	-11.3598
▁لوک	-11.3598
▁لوکه	-11.3598
▁لک	-11.3598
▁لیبی	-11.3598
▁لیتر	-11.3598
▁لیریک	-11.3598
▁لیسانس	-11.3598
▁لینکین	-11.3598
▁لیون	-11.3598
▁ماجرایی	-11.3598
▁ماخ	-11.3598
▁مارادونای	-11.3598
▁مارلی	-11.3598
▁مازراتی	-11.3598
▁مافی	-11.3598
▁ماندلا	-11.3598
▁مانوئل	-11.3598
▁مانچینی	-11.3598
▁ماه،	-11.3598
▁ماوریک	-11.3598
▁مبادی	-11.3598
▁مبارکه	-11.3598
▁متان	-11.3598
▁متمایز	-11.3598
▁متمایل	-11.3598
▁متون	-11.3598
▁متیو	-11.3598
▁مجاب	-11.3598
▁مجتبی	-11.3598
▁مجلات	-11.3598
▁مجلس،	-11.3598
▁مجوزهای	-11.3598
▁محاسباتی	-11.3598
▁محاصره	-11.3598
▁محافل	-11.3598
▁محتوی	-11.3598
▁محدودیتی	-11.3598
▁محسوس	-11.3598
▁محی	-11.3598
▁مخاطب	-11.3598
▁مختاری	-11.3598
▁مخرب	-11.3598
▁مخزن	-11.3598
▁مذهب	-11.3598
▁مذکور	-11.3598
▁مرتفع	-11.3598
▁مرد.	-11.3598
▁مردانی	-11.3598
▁مردمان	-11.3598
▁مرده	-11.3598
▁مردود	-11.3598
▁مرسی	-11.3598
▁مرضیه	-11.3598
▁مرموز	-11.3598
▁مزارشریف	-11.3598
▁مزایا	-11.3598
▁مسبب	-11.3598
▁مستاجر	-11.3598
▁مشتریانش	-11.3598
▁مشخصه	-11.3598
▁مصور	-11.3598
▁مصون	-11.3598
▁مضاعف	-11.3598
▁مضمون	-11.3598
▁مطلق	-11.3598
▁مظاهری	-11.3598
▁معلولان	-11.3598
▁معکوس	-11.3598
▁مغولستان	-11.3598
▁مفاصل	-11.3598
▁مقامی	-11.3598
▁مقدم	-11.3598
▁مقصود	-11.3598
▁مقیاس	-11.3598
▁مقیمی	-11.3598
▁ملخ	-11.3598
▁مملکت	-11.3598
▁ممنوعه	-11.3598
▁مناقشه	-11.3598
▁منحصرا	-11.3598
▁منفجره	-11.3598
▁مهاجمی	-11.3598
▁مهره	-11.3598
▁موازین	-11.3598
▁موتورهای	-11.3598
▁موردش	-11.3598
▁مورگان	-11.3598
▁موضوعاتی	-11.3598
▁موفقیتی	-11.3598
▁موقتی	-11.3598
▁مویز	-11.3598
▁مگنیتو	-11.3598
▁میدل	-11.3598
▁میلان،	-11.3598
▁نا	-11.3598
▁ناتوانی	-11.3598
▁ناصری	-11.3598
▁ناعادلانه	-11.3598
▁ناهار	-11.3598
▁ناهماهنگی	-11.3598
▁ناک	-11.3598
▁نایاب	-11.3598
▁نبوغ	-11.3598
▁نحو	-11.3598
▁ند	-11.3598
▁ندیمه	-11.3598
▁نرسید	-11.3598
▁نزدیکانش	-11.3598
▁نسیم	-11.3598
▁نظرانی	-11.3598
▁نلسون	-11.3598
▁نمایندگانی	-11.3598
▁نوازندگان	-11.3598
▁نورمحمدوف	-11.3598
▁نوشت:	-11.3598
▁نوه	-11.3598
▁نکنید.	-11.3598
▁نگارش	-11.3598
▁نگیرد	-11.3598
▁نیستند.	-11.3598
▁نیوز	-11.3598
▁هاروی	-11.3598
▁هاشیموتو	-11.3598
▁هالیفیلد	-11.3598
▁هانا	-11.3598
▁هاپکینز	-11.3598
▁هجدهم	-11.3598
▁هجدهمین	-11.3598
▁هرکس	-11.3598
▁هریرود	-11.3598
▁هستند.آقای	-11.3598
▁هستند.منبع	-11.3598
▁هستند؟منبع	-11.3598
▁هستیم؛	-11.3598
▁هلسینکی	-11.3598
▁هم،	-11.3598
▁هنرمندی	-11.3598
▁هواپیماها	-11.3598
▁هویزه	-11.3598
▁هی	-11.3598
▁هیولایی	-11.3598
▁واجد	-11.3598
▁وبا	-11.3598
▁وجوی	-11.3598
▁وزنی	-11.3598
▁وفا	-11.3598
▁ونگر	-11.3598
▁ونیزمنبع	-11.3598
▁ووس	-11.3598
▁وولوز	-11.3598
▁ویدیوهایی	-11.3598
▁ویلت	-11.3598
▁پابجی	-11.3598
▁پاتر	-11.3598
▁پارسیان	-11.3598
▁پارچه	-11.3598
▁پارکر	-11.3598
▁پارکورکار	-11.3598
▁پاسخگو	-11.3598
▁پاسخگویی	-11.3598
▁پاسگاه	-11.3598
▁پاسیفیک	-11.3598
▁پالادیوم	-11.3598
▁پاکبانان	-11.3598
▁پراکنی	-11.3598
▁پرت	-11.3598
▁پرتو	-11.3598
▁پرجمعیت	-11.3598
▁پرحاشیه	-11.3598
▁پرخطر	-11.3598
▁پردازد.	-11.3598
▁پردازی	-11.3598
▁پرستار	-11.3598
▁پرسند	-11.3598
▁پرسپولیس،	-11.3598
▁پرسینگ	-11.3598
▁پرشور	-11.3598
▁پرهام	-11.3598
▁پریشی	-11.3598
▁پستاندار	-11.3598
▁پستانداران	-11.3598
▁پشتوانه	-11.3598
▁پنس	-11.3598
▁پهلو	-11.3598
▁پهنه	-11.3598
▁پژمان	-11.3598
▁پیر	-11.3598
▁پیرانشهر	-11.3598
▁پیرو	-11.3598
▁پیروان	-11.3598
▁پیشبرد	-11.3598
▁پیمانکار	-11.3598
▁چارلز	-11.3598
▁چاق	-11.3598
▁چای	-11.3598
▁چشمان	-11.3598
▁چهارشنبه،	-11.3598
▁چیدمان	-11.3598
▁چیفتن	-11.3598
▁ژئوفیزیک	-11.3598
▁ژنوم	-11.3598
▁ژونگ	-11.3598
▁کارتر	-11.3598
▁کاست	-11.3598
▁کاسموس	-11.3598
▁کاسپین	-11.3598
▁کاشفان	-11.3598
▁کالبد	-11.3598
▁کامرانیه	-11.3598
▁کتی	-11.3598
▁کثیر	-11.3598
▁کد	-11.3598
▁کرد.بر	-11.3598
▁کرد.بیشتر	-11.3598
▁کردمهدی	-11.3598
▁کردند.اما	-11.3598
▁کردند.این	-11.3598
▁کرمانشاه	-11.3598
▁کرمانپور	-11.3598
▁کروات	-11.3598
▁کریس	-11.3598
▁کریستی	-11.3598
▁کشاند	-11.3598
▁کشیدند	-11.3598
▁کلوروکوئین	-11.3598
▁کلیوی	-11.3598
▁کمابیش	-11.3598
▁کمربندهای	-11.3598
▁کند.با	-11.3598
▁کنده	-11.3598
▁کنعانی	-11.3598
▁کنند.بیشتر	-11.3598
▁کنندگانی	-11.3598
▁کنیا	-11.3598
▁کنیایی	-11.3598
▁کوارتر	-11.3598
▁کوشنر	-11.3598
▁کونته	-11.3598
▁کوید	-11.3598
▁کپسول	-11.3598
▁کیفرخواست	-11.3598
▁کیلوولت	-11.3598
▁گالری	-11.3598
▁گامی	-11.3598
▁گرافیکی	-11.3598
▁گراند	-11.3598
▁گرث	-11.3598
▁گردیم.	-11.3598
▁گروسی،	-11.3598
▁گرینویچ	-11.3598
▁گزیده	-11.3598
▁گفتند.	-11.3598
▁گودال	-11.3598
▁گوهر	-11.3598
▁گوید،	-11.3598
▁گپ	-11.3598
▁گیتار	-11.3598
▁گیلبرت	-11.3598
▁یابد؛	-11.3598
▁یادگار	-11.3598
▁یافتمنبع	-11.3598
▁یوآخیم	-11.3598
▁یوسفی	-11.3598
▁یونسی	-11.3598
▁۱۱۵	-11.3598
▁۱۳۴۶	-11.3598
▁۱۳۶۰	-11.3598
▁۱۳۷	-11.3598
▁۱۳۹۳	-11.3598
▁۱۶۰	-11.3598
▁۱۸۰۰	-11.3598
▁۱۹۲۰	-11.3598
▁۱۹۶۹	-11.3598
▁۱۹۷۹	-11.3598
▁۱۹۹۵	-11.3598
▁۱۹۹۹	-11.3598
▁۲۰۵	-11.3598
▁۲۸۵	-11.3598
▁'بی	-11.5421
▁'شب	-11.5421
▁'شعر	-11.5421
▁.با	-11.5421
▁.شورای	-11.5421
▁.موسسه	-11.5421
▁آدولف	-11.5421
▁آرایی	-11.5421
▁آرزوها	-11.5421
▁آرمی	-11.5421
▁آرنت	-11.5421
▁آزاردهنده	-11.5421
▁آسا	-11.5421
▁آسمانی	-11.5421
▁آشوین	-11.5421
▁آف	-11.5421
▁آفرینش	-11.5421
▁آلات	-11.5421
▁آلاینده	-11.5421
▁آلت	-11.5421
▁آمبولانس	-11.5421
▁آنا	-11.5421
▁آنتالیا	-11.5421
▁آنتی	-11.5421
▁آندریا	-11.5421
▁آنهم	-11.5421
▁آوردند.	-11.5421
▁آژانس،	-11.5421
▁آینده؛	-11.5421
▁ا	-11.5421
▁ائتلاف	-11.5421
▁ابزارهای	-11.5421
▁ابول	-11.5421
▁ابی	-11.5421
▁اتلان	-11.5421
▁اثرگذار	-11.5421
▁اجماع	-11.5421
▁اختاپوس	-11.5421
▁ادینسون	-11.5421
▁ار	-11.5421
▁ارباب	-11.5421
▁ارتکاب	-11.5421
▁ارث	-11.5421
▁ارج	-11.5421
▁ارزانتر	-11.5421
▁ارقامی	-11.5421
▁ارمجانی	-11.5421
▁اروپاست	-11.5421
▁است'	-11.5421
▁است.آمریکا	-11.5421
▁است.احسان	-11.5421
▁است.احمد	-11.5421
▁است.استقلال	-11.5421
▁است.البته	-11.5421
▁است.امروز	-11.5421
▁است.انتشار	-11.5421
▁است.بیش	-11.5421
▁است.جسد	-11.5421
▁است.دفتر	-11.5421
▁است.شماری	-11.5421
▁است.طبق	-11.5421
▁است.طی	-11.5421
▁است.علی	-11.5421
▁است.وکیل	-11.5421
▁است.چین	-11.5421
▁استرئیس	-11.5421
▁استرسانه	-11.5421
▁استرول	-11.5421
▁استقلال:	-11.5421
▁استمراسم	-11.5421
▁استملاک	-11.5421
▁استوایی	-11.5421
▁استیل	-11.5421
▁اسفند)	-11.5421
▁اسکات	-11.5421
▁اسکار،	-11.5421
▁اسکان	-11.5421
▁اسکای	-11.5421
▁اسکن	-11.5421
▁اسکورسیزی	-11.5421
▁اسیا	-11.5421
▁اسید	-11.5421
▁اشتباهات	-11.5421
▁اطرافیان	-11.5421
▁اظهارنظرهای	-11.5421
▁اعزامی	-11.5421
▁اغذیه	-11.5421
▁افزودند	-11.5421
▁افغانستان:	-11.5421
▁افول	-11.5421
▁اقتباس	-11.5421
▁اقداماتش	-11.5421
▁اقسام	-11.5421
▁التحصیل	-11.5421
▁الخط	-11.5421
▁العدل	-11.5421
▁العمر	-11.5421
▁المال	-11.5421
▁الن	-11.5421
▁الهدی	-11.5421
▁الهذلول	-11.5421
▁الهنی	-11.5421
▁الکترونیک	-11.5421
▁الیور	-11.5421
▁امباپه	-11.5421
▁امپراطوری	-11.5421
▁امیرحسین	-11.5421
▁امیرمکری	-11.5421
▁انتصاب	-11.5421
▁انتقالی	-11.5421
▁انجامید	-11.5421
▁انجامیده	-11.5421
▁انحراف	-11.5421
▁اند.آنتونی	-11.5421
▁اند:	-11.5421
▁انداختند	-11.5421
▁اندوه	-11.5421
▁انستیتوی	-11.5421
▁انقطاع	-11.5421
▁اهمیتی	-11.5421
▁اوارنیوم	-11.5421
▁اوجی	-11.5421
▁اورشلیم	-11.5421
▁اوزون	-11.5421
▁اوشن	-11.5421
▁اولش	-11.5421
▁اون	-11.5421
▁اوهایو	-11.5421
▁اپ	-11.5421
▁اکبرزاده	-11.5421
▁اکسل	-11.5421
▁ای'	-11.5421
▁ای.	-11.5421
▁اید.	-11.5421
▁ایران'	-11.5421
▁ایستادند.	-11.5421
▁اینترمیلان	-11.5421
▁اینجای	-11.5421
▁ایگ	-11.5421
▁باربی	-11.5421
▁بارسلونا:	-11.5421
▁بازتاب	-11.5421
▁بازداشتگاه	-11.5421
▁بازداشتی	-11.5421
▁بازدهی	-11.5421
▁بازل	-11.5421
▁بازنده	-11.5421
▁بازنگردانده	-11.5421
▁بازپرداخت	-11.5421
▁بازیکنانش	-11.5421
▁باشند.منبع	-11.5421
▁بالاحصار	-11.5421
▁بالاست	-11.5421
▁باله	-11.5421
▁بالگرد	-11.5421
▁بانفوذ	-11.5421
▁بانوان	-11.5421
▁بانکهای	-11.5421
▁باوجود	-11.5421
▁باکر	-11.5421
▁بایدن،	-11.5421
▁بایست	-11.5421
▁ببرد.	-11.5421
▁ببرند.	-11.5421
▁بتازگی	-11.5421
▁بخرد	-11.5421
▁بخوانیدمنبع	-11.5421
▁بداند	-11.5421
▁بدانید	-11.5421
▁بدنشان	-11.5421
▁بدنم	-11.5421
▁بدهید	-11.5421
▁برآمده	-11.5421
▁برآوردهای	-11.5421
▁برایتان	-11.5421
▁برایشان	-11.5421
▁برد،	-11.5421
▁برملا	-11.5421
▁برندن	-11.5421
▁برنمی	-11.5421
▁برنگشته	-11.5421
▁برونو	-11.5421
▁برویم	-11.5421
▁برکت	-11.5421
▁برگامو	-11.5421
▁برگردیم	-11.5421
▁بریج	-11.5421
▁بریجز	-11.5421
▁بریم	-11.5421
▁بستند	-11.5421
▁بسنده	-11.5421
▁بشکند.	-11.5421
▁بصره	-11.5421
▁بعضا	-11.5421
▁بفروشند	-11.5421
▁بقا	-11.5421
▁بلندپایه	-11.5421
▁بنگاه	-11.5421
▁بهبهانی	-11.5421
▁بهداشت،	-11.5421
▁بهزادی	-11.5421
▁بهم	-11.5421
▁بواتنگ	-11.5421
▁بوتاس	-11.5421
▁بود.افزایش	-11.5421
▁بود.خانم	-11.5421
▁بود.خبرگزاری	-11.5421
▁بود.فرج	-11.5421
▁بود:	-11.5421
▁بوددر	-11.5421
▁بودند.آقای	-11.5421
▁بورسیه	-11.5421
▁بولداگ	-11.5421
▁بونوئل	-11.5421
▁بووی	-11.5421
▁بوگاتی	-11.5421
▁بکشند.	-11.5421
▁بگذارم.	-11.5421
▁بگذارند	-11.5421
▁بگیر	-11.5421
▁بگیرد؛	-11.5421
▁بگیرم	-11.5421
▁بیانجامد	-11.5421
▁بیتلز	-11.5421
▁بیضائی	-11.5421
▁بیماریشان	-11.5421
▁بیند	-11.5421
▁بینم	-11.5421
▁بیک	-11.5421
▁تابعیتی	-11.5421
▁تام	-11.5421
▁تای	-11.5421
▁تبرئه	-11.5421
▁تبریزی	-11.5421
▁تبعه	-11.5421
▁تتلو	-11.5421
▁تجدد	-11.5421
▁تجسم	-11.5421
▁تجمعات	-11.5421
▁تجمعی	-11.5421
▁تحرکات	-11.5421
▁تحریریه	-11.5421
▁تدابیری	-11.5421
▁تداعی	-11.5421
▁تدفین	-11.5421
▁ترافیکی	-11.5421
▁ترکمن	-11.5421
▁ترکیه،	-11.5421
▁تزئینی	-11.5421
▁تزاری	-11.5421
▁تشویش	-11.5421
▁تظاهرکنندگان	-11.5421
▁تعبیه	-11.5421
▁تعلیم	-11.5421
▁تفاوتی	-11.5421
▁تماشایی	-11.5421
▁تمکین	-11.5421
▁تناسب	-11.5421
▁تندی	-11.5421
▁تنگنای	-11.5421
▁تهویه	-11.5421
▁توازن	-11.5421
▁تورنمنتی	-11.5421
▁توقع	-11.5421
▁تولیدش	-11.5421
▁تکمیلی	-11.5421
▁تیتر	-11.5421
▁تیز	-11.5421
▁تیموری	-11.5421
▁جادویی	-11.5421
▁جاسک	-11.5421
▁جالبی	-11.5421
▁جانوران	-11.5421
▁جاهایی	-11.5421
▁جاودانه	-11.5421
▁جثه	-11.5421
▁جذابی	-11.5421
▁جراح	-11.5421
▁جسم	-11.5421
▁جلیلوند	-11.5421
▁جمالی	-11.5421
▁جنیفر	-11.5421
▁جهان:	-11.5421
▁جهانمنبع	-11.5421
▁جهانیان	-11.5421
▁جوامع	-11.5421
▁جوخه	-11.5421
▁جِزیرو	-11.5421
▁جکی	-11.5421
▁جیش	-11.5421
▁جیم	-11.5421
▁حتمی	-11.5421
▁حدودی	-11.5421
▁حشره	-11.5421
▁حصبه	-11.5421
▁حقوقدان	-11.5421
▁حلق	-11.5421
▁حنیف	-11.5421
▁حواس	-11.5421
▁حوالی	-11.5421
▁حوض	-11.5421
▁حول	-11.5421
▁حکمت	-11.5421
▁حکمرانی	-11.5421
▁حکیم	-11.5421
▁حیثیت	-11.5421
▁خال	-11.5421
▁خالی'	-11.5421
▁خامس	-11.5421
▁خانوارها	-11.5421
▁خانوده	-11.5421
▁خبرهایی	-11.5421
▁خدشه	-11.5421
▁خردسال	-11.5421
▁خرمشاهی	-11.5421
▁خرندگزارش	-11.5421
▁خصوصیات	-11.5421
▁خطاهای	-11.5421
▁خلاق	-11.5421
▁خلاقانه	-11.5421
▁خلوتگر	-11.5421
▁خواندند	-11.5421
▁خودرو،	-11.5421
▁خودروهایی	-11.5421
▁خوشایند	-11.5421
▁خوشبختانه	-11.5421
▁خوکی	-11.5421
▁خیر.	-11.5421
▁داد؟منبع	-11.5421
▁دادخواست	-11.5421
▁دادسرا	-11.5421
▁داده؛	-11.5421
▁دارد.آقای	-11.5421
▁دارد.در	-11.5421
▁دارداین	-11.5421
▁دارن	-11.5421
▁دارندگان	-11.5421
▁داشت.در	-11.5421
▁داشتم.	-11.5421
▁داشتمنبع	-11.5421
▁دالر	-11.5421
▁داماد	-11.5421
▁دانشجو	-11.5421
▁دانلد	-11.5421
▁دانمارکی	-11.5421
▁دانچیچ	-11.5421
▁دخیل	-11.5421
▁درآمدشان	-11.5421
▁درآورد	-11.5421
▁دراماتیک	-11.5421
▁دردسرهای	-11.5421
▁دروغگو	-11.5421
▁درگذشت.این	-11.5421
▁دریبل	-11.5421
▁دز	-11.5421
▁دستش	-11.5421
▁دستیاران	-11.5421
▁دفع	-11.5421
▁دلش	-11.5421
▁دمشق	-11.5421
▁دن	-11.5421
▁دهد.آقای	-11.5421
▁دهد.منبع	-11.5421
▁دهند.در	-11.5421
▁دهکده	-11.5421
▁دوبلور	-11.5421
▁دورافتاده	-11.5421
▁دورکاری	-11.5421
▁دوی	-11.5421
▁دویدن	-11.5421
▁دگرگونی	-11.5421
▁دیالیز	-11.5421
▁دیرتر	-11.5421
▁دیرهنگام	-11.5421
▁دیفرانسیل	-11.5421
▁دیواره	-11.5421
▁دیوارهای	-11.5421
▁ذی	-11.5421
▁رازی	-11.5421
▁راندن	-11.5421
▁راهنمایی	-11.5421
▁راهکار	-11.5421
▁راین	-11.5421
▁ربکا	-11.5421
▁رستم	-11.5421
▁رستورانی	-11.5421
▁رسند	-11.5421
▁رسوایی	-11.5421
▁رصدخانه	-11.5421
▁رفتم.	-11.5421
▁رفقای	-11.5421
▁رفیق	-11.5421
▁رفینیتیو	-11.5421
▁رو،	-11.5421
▁روباز	-11.5421
▁رودریگز	-11.5421
▁رودمنبع	-11.5421
▁رولان	-11.5421
▁روما	-11.5421
▁رونالد	-11.5421
▁رویدادها	-11.5421
▁رپ	-11.5421
▁رکس	-11.5421
▁رکوردهایی	-11.5421
▁رگبار	-11.5421
▁ریاستش	-11.5421
▁ریاضیات	-11.5421
▁ریس	-11.5421
▁ریوی	-11.5421
▁زبانه	-11.5421
▁زرق	-11.5421
▁زلاتان	-11.5421
▁زمزمه	-11.5421
▁زندگیش	-11.5421
▁زنیم	-11.5421
▁زهرای	-11.5421
▁زوایای	-11.5421
▁زیارت	-11.5421
▁زیتون	-11.5421
▁زیراتمی	-11.5421
▁زیردریایی	-11.5421
▁زین	-11.5421
▁سادبیز	-11.5421
▁سارقان	-11.5421
▁سازان	-11.5421
▁سازندگی	-11.5421
▁ساسان	-11.5421
▁ساطع	-11.5421
▁سالار	-11.5421
▁سامان	-11.5421
▁سبزیجات	-11.5421
▁ستین	-11.5421
▁سحابی	-11.5421
▁سخاوتمندانه	-11.5421
▁سخنران	-11.5421
▁سخنگویان	-11.5421
▁سراج	-11.5421
▁سرخک	-11.5421
▁سردرد	-11.5421
▁سرزنش	-11.5421
▁سرعتش	-11.5421
▁سرلک	-11.5421
▁سرور	-11.5421
▁سعیدپور	-11.5421
▁سلیقه	-11.5421
▁سمفونیک	-11.5421
▁سنجش	-11.5421
▁سنین	-11.5421
▁سهام،	-11.5421
▁سهراب	-11.5421
▁سهمی	-11.5421
▁سهیل	-11.5421
▁سهیم	-11.5421
▁سواران	-11.5421
▁سوت	-11.5421
▁سوگند	-11.5421
▁سپر	-11.5421
▁سکولار	-11.5421
▁سکوها	-11.5421
▁سی.	-11.5421
▁سیاستهای	-11.5421
▁سیاهپوست	-11.5421
▁سیرجان	-11.5421
▁سیرو	-11.5421
▁سیری	-11.5421
▁سیلاب	-11.5421
▁سیما،	-11.5421
▁سیناتی	-11.5421
▁سینما،	-11.5421
▁سینماتک	-11.5421
▁سینگ	-11.5421
▁سیگار	-11.5421
▁شارمین	-11.5421
▁شاعرانه	-11.5421
▁شاهدان	-11.5421
▁شبت	-11.5421
▁شبرغان	-11.5421
▁شتابی	-11.5421
▁شتر	-11.5421
▁شده'منبع	-11.5421
▁شدیم	-11.5421
▁شدیک	-11.5421
▁شراب	-11.5421
▁شرع	-11.5421
▁شرمنده	-11.5421
▁شرکتها	-11.5421
▁شستن	-11.5421
▁شعارهایی	-11.5421
▁شعب	-11.5421
▁شفر	-11.5421
▁شناختی	-11.5421
▁شناسنامه	-11.5421
▁شهاب	-11.5421
▁شهریاری	-11.5421
▁شود.با	-11.5421
▁شود.بیشتر	-11.5421
▁شود.دیروز	-11.5421
▁شود.رئیس	-11.5421
▁شود.وزارت	-11.5421
▁شودبه	-11.5421
▁شوند.منبع	-11.5421
▁شوهرش	-11.5421
▁شکایتش	-11.5421
▁شکوفه	-11.5421
▁شیوا	-11.5421
▁شیوای	-11.5421
▁صادره	-11.5421
▁صحبتی	-11.5421
▁صدایش	-11.5421
▁صدراعظم	-11.5421
▁صراف	-11.5421
▁صفا	-11.5421
▁صفرهای	-11.5421
▁صلاحیت،	-11.5421
▁صنوف	-11.5421
▁ضابطه	-11.5421
▁ضمانت	-11.5421
▁طبقات	-11.5421
▁ظالمانه	-11.5421
▁ظلم	-11.5421
▁عاری	-11.5421
▁عامدانه	-11.5421
▁عبارتی	-11.5421
▁عثمان	-11.5421
▁عذاب	-11.5421
▁عربستان،	-11.5421
▁عرفی	-11.5421
▁عطسه	-11.5421
▁علاج	-11.5421
▁علامتی	-11.5421
▁علامه	-11.5421
▁علل	-11.5421
▁علما	-11.5421
▁علمای	-11.5421
▁علمیه	-11.5421
▁علیزاده	-11.5421
▁عموما	-11.5421
▁عهد	-11.5421
▁غبار	-11.5421
▁غلامعلی	-11.5421
▁غلیظ	-11.5421
▁غور	-11.5421
▁غوری	-11.5421
▁غیرمنتظره	-11.5421
▁فتاحی	-11.5421
▁فرانکی	-11.5421
▁فرسوده	-11.5421
▁فرق	-11.5421
▁فرمانی	-11.5421
▁فرهمند	-11.5421
▁فرهنگ،	-11.5421
▁فروند	-11.5421
▁فرکانس	-11.5421
▁فریب	-11.5421
▁فضاپیمای	-11.5421
▁فضایل	-11.5421
▁فعالیتش	-11.5421
▁فقید	-11.5421
▁فقیه	-11.5421
▁فلامینگو	-11.5421
▁فلاکت	-11.5421
▁فلسطینیان	-11.5421
▁فن:	-11.5421
▁فوتبال؛	-11.5421
▁فودن	-11.5421
▁فورت	-11.5421
▁فی	-11.5421
▁فیروزجا	-11.5421
▁فیصل	-11.5421
▁فیفا:	-11.5421
▁فینالیست	-11.5421
▁قانونگذاری	-11.5421
▁قبای	-11.5421
▁قران	-11.5421
▁قزاق	-11.5421
▁قصر	-11.5421
▁قفس	-11.5421
▁قمار	-11.5421
▁قندهار	-11.5421
▁قیصر	-11.5421
▁لا	-11.5421
▁لاری،	-11.5421
▁لاشیدایی	-11.5421
▁لبرون	-11.5421
▁لبه	-11.5421
▁لجین	-11.5421
▁لحم	-11.5421
▁لحنی	-11.5421
▁لشکری	-11.5421
▁لغت	-11.5421
▁لقمان	-11.5421
▁لندروور	-11.5421
▁لنست	-11.5421
▁لوس	-11.5421
▁لوگو	-11.5421
▁لیبریا	-11.5421
▁لیورپولی	-11.5421
▁لیکرز	-11.5421
▁مأموریت	-11.5421
▁مئیر	-11.5421
▁مابین	-11.5421
▁مادام	-11.5421
▁ماراکانا	-11.5421
▁مازندرانی	-11.5421
▁ماساچوست	-11.5421
▁ماست.	-11.5421
▁مالزی	-11.5421
▁ماند.تشدید	-11.5421
▁ماندنی	-11.5421
▁مانوس	-11.5421
▁ماهها	-11.5421
▁مایا	-11.5421
▁مایلی	-11.5421
▁مبادرت	-11.5421
▁مبارز	-11.5421
▁مبتلای	-11.5421
▁متال	-11.5421
▁متحرک	-11.5421
▁متخلف	-11.5421
▁متغیرهای	-11.5421
▁متلاشی	-11.5421
▁متمادی	-11.5421
▁متکی	-11.5421
▁مجازی،	-11.5421
▁مجتمع	-11.5421
▁مجرد	-11.5421
▁مجرمانه	-11.5421
▁محابا	-11.5421
▁محال	-11.5421
▁محبوس	-11.5421
▁محتاطانه	-11.5421
▁محدودیتهایی	-11.5421
▁محرز	-11.5421
▁محسنی	-11.5421
▁محفظه	-11.5421
▁محوریت	-11.5421
▁محکومان	-11.5421
▁مخالفانی	-11.5421
▁مختصر	-11.5421
▁مدلی	-11.5421
▁مدیربرنامه	-11.5421
▁مدیون	-11.5421
▁مراوده	-11.5421
▁مراکش	-11.5421
▁مرثیه	-11.5421
▁مرج	-11.5421
▁مردادماه	-11.5421
▁مرشد	-11.5421
▁مرگ'	-11.5421
▁مزار	-11.5421
▁مزد	-11.5421
▁مسافرانی	-11.5421
▁مسحور	-11.5421
▁مسمومیت	-11.5421
▁مسوولان	-11.5421
▁مسی،	-11.5421
▁مشاهیر	-11.5421
▁مشت	-11.5421
▁مشخصا	-11.5421
▁مشخصات	-11.5421
▁مشروع	-11.5421
▁مشروعیت	-11.5421
▁مشمولین	-11.5421
▁مصداق	-11.5421
▁مضحک	-11.5421
▁معارفه	-11.5421
▁معتبری	-11.5421
▁معدنچی	-11.5421
▁معطل	-11.5421
▁مقتدرانه	-11.5421
▁ملاحظه	-11.5421
▁ملازم	-11.5421
▁ملودی	-11.5421
▁مملو	-11.5421
▁ممکن،	-11.5421
▁ممیز	-11.5421
▁ممیزی	-11.5421
▁منازعه	-11.5421
▁مناسبات	-11.5421
▁مناظره	-11.5421
▁منامه	-11.5421
▁مندنی	-11.5421
▁منشأ	-11.5421
▁منصوریان	-11.5421
▁منطبق	-11.5421
▁منهای	-11.5421
▁منهتن	-11.5421
▁منوچین	-11.5421
▁منگل	-11.5421
▁مهد	-11.5421
▁مهدوی	-11.5421
▁مهربان	-11.5421
▁مهیج	-11.5421
▁مواج	-11.5421
▁موثرترین	-11.5421
▁مودم	-11.5421
▁مورفوز	-11.5421
▁موشه	-11.5421
▁مژگان	-11.5421
▁مکاتب	-11.5421
▁مکالمه	-11.5421
▁مکانیزم	-11.5421
▁میرعلی	-11.5421
▁میزانی	-11.5421
▁میلیچ	-11.5421
▁مینسک	-11.5421
▁مینیاتور	-11.5421
▁مینیاپولیس	-11.5421
▁میچام	-11.5421
▁ن	-11.5421
▁ناامیدکننده	-11.5421
▁نابویایی	-11.5421
▁نادرشاه	-11.5421
▁نارنجی،	-11.5421
▁نازلی	-11.5421
▁نازک	-11.5421
▁نامحدود	-11.5421
▁نامساعد	-11.5421
▁نامند	-11.5421
▁ناو	-11.5421
▁ناگفته	-11.5421
▁نبشته	-11.5421
▁نبی	-11.5421
▁نجفی	-11.5421
▁نخواهم	-11.5421
▁نخواهیم	-11.5421
▁نداد.	-11.5421
▁نرسیدن	-11.5421
▁نسب	-11.5421
▁نسکار	-11.5421
▁نشد.او	-11.5421
▁نشدند	-11.5421
▁نصیریان	-11.5421
▁نظرم	-11.5421
▁نظنز	-11.5421
▁نما	-11.5421
▁نمادها	-11.5421
▁نمایشخانه	-11.5421
▁نه.منبع	-11.5421
▁نورستان	-11.5421
▁نوزده	-11.5421
▁نوزدهمین	-11.5421
▁نوشت.	-11.5421
▁نکند.	-11.5421
▁نگرانند	-11.5421
▁نیابد	-11.5421
▁نیامده	-11.5421
▁نیاورد	-11.5421
▁نیت	-11.5421
▁نیر	-11.5421
▁نیمایی	-11.5421
▁نیومکزیکو	-11.5421
▁نیویورکر	-11.5421
▁ها:	-11.5421
▁هارد	-11.5421
▁هالپ	-11.5421
▁هالیوودی	-11.5421
▁هامبورگ	-11.5421
▁هاویلند	-11.5421
▁هایم	-11.5421
▁هراتی	-11.5421
▁هرج	-11.5421
▁هرجا	-11.5421
▁هزاردستان	-11.5421
▁هستند.بر	-11.5421
▁هستی	-11.5421
▁هفته،	-11.5421
▁همخوانی	-11.5421
▁همدانی	-11.5421
▁همسرم	-11.5421
▁همسو	-11.5421
▁همهمه	-11.5421
▁هنجارهای	-11.5421
▁هندرسون	-11.5421
▁هولم	-11.5421
▁هیپی	-11.5421
▁هیچوقت	-11.5421
▁هیچکدام	-11.5421
▁والاس	-11.5421
▁والتری	-11.5421
▁وانتقالات	-11.5421
▁وانگ	-11.5421
▁وجیهه	-11.5421
▁وحشتناکی	-11.5421
▁ورق	-11.5421
▁وزرا	-11.5421
▁وسواس	-11.5421
▁وصول	-11.5421
▁ونزوئلایی	-11.5421
▁وگویی	-11.5421
▁ویرانگر	-11.5421
▁ویرانی	-11.5421
▁ویزا	-11.5421
▁ویلسون	-11.5421
▁پائولو	-11.5421
▁پابرجاست	-11.5421
▁پارتی	-11.5421
▁پارو	-11.5421
▁پاریس،	-11.5421
▁پاستور	-11.5421
▁پاناما	-11.5421
▁پاهایش	-11.5421
▁پایبندی	-11.5421
▁پایداری	-11.5421
▁پدربزرگ	-11.5421
▁پدیدار	-11.5421
▁پرتگاه	-11.5421
▁پرحادثه	-11.5421
▁پردازش	-11.5421
▁پرستون	-11.5421
▁پرسد	-11.5421
▁پرشمار	-11.5421
▁پریده	-11.5421
▁پسری	-11.5421
▁پلکانی	-11.5421
▁پناهجوی	-11.5421
▁پهلوان	-11.5421
▁پهلوی،	-11.5421
▁پهپادی	-11.5421
▁پوشاک	-11.5421
▁پوکی	-11.5421
▁پژوهشگرانی	-11.5421
▁پیروی	-11.5421
▁پیشبینی	-11.5421
▁پیشه	-11.5421
▁چراکه	-11.5421
▁چشمانش	-11.5421
▁چشمه	-11.5421
▁چمپیونشیپ	-11.5421
▁چهارده	-11.5421
▁چوب	-11.5421
▁چون	-11.5421
▁چوپان	-11.5421
▁چکیده	-11.5421
▁چیزبرگر	-11.5421
▁ک	-11.5421
▁کارائیب	-11.5421
▁کارتون	-11.5421
▁کارم	-11.5421
▁کارمندانش	-11.5421
▁کارند	-11.5421
▁کاره	-11.5421
▁کارهایش	-11.5421
▁کاستن	-11.5421
▁کاسینگا	-11.5421
▁کاشف	-11.5421
▁کام	-11.5421
▁کاپیتانی	-11.5421
▁کبیری	-11.5421
▁کتابش	-11.5421
▁کتبی	-11.5421
▁کرایسلر	-11.5421
▁کرد.ایران	-11.5421
▁کرد.با	-11.5421
▁کرد.خانم	-11.5421
▁کردبه	-11.5421
▁کرددر	-11.5421
▁کردرسانه	-11.5421
▁کردسعید	-11.5421
▁کردند.او	-11.5421
▁کرمانی	-11.5421
▁کروناست	-11.5421
▁کسادی	-11.5421
▁کشانده	-11.5421
▁کشند.	-11.5421
▁کشورسه	-11.5421
▁کلا	-11.5421
▁کلت	-11.5421
▁کلر	-11.5421
▁کلروکین	-11.5421
▁کلمبیایی	-11.5421
▁کلکان	-11.5421
▁کلیت	-11.5421
▁کلیسا	-11.5421
▁کمالوندی	-11.5421
▁کمیاب	-11.5421
▁کمین	-11.5421
▁کنارش	-11.5421
▁کناری	-11.5421
▁کند.البته	-11.5421
▁کند.تیم	-11.5421
▁کند.وزیر	-11.5421
▁کنش	-11.5421
▁کنممنبع	-11.5421
▁کنند.آقای	-11.5421
▁کنند.با	-11.5421
▁کنند.پرهام	-11.5421
▁کنندگان،	-11.5421
▁کنیدمنبع	-11.5421
▁کنیم؛	-11.5421
▁کواچ	-11.5421
▁کوتاهتر	-11.5421
▁کودکان،	-11.5421
▁کودکانه	-11.5421
▁کودکانی	-11.5421
▁کور	-11.5421
▁کولاک	-11.5421
▁کوله	-11.5421
▁کوپا	-11.5421
▁کوپرنیک	-11.5421
▁کوچه	-11.5421
▁کوچکش	-11.5421
▁کویت	-11.5421
▁کیارا	-11.5421
▁کیلیان	-11.5421
▁گاراژ	-11.5421
▁گاروس	-11.5421
▁گدامحمد	-11.5421
▁گذارند	-11.5421
▁گذاریم.	-11.5421
▁گذراند	-11.5421
▁گراد	-11.5421
▁گردهم	-11.5421
▁گردیده	-11.5421
▁گرفت.منبع	-11.5421
▁گرفتیم	-11.5421
▁گریه	-11.5421
▁گزینشی	-11.5421
▁گشایشی	-11.5421
▁گشت؛	-11.5421
▁گشتی	-11.5421
▁گفتمان	-11.5421
▁گلدار	-11.5421
▁گلدن	-11.5421
▁گلوی	-11.5421
▁گنج	-11.5421
▁گوستاو	-11.5421
▁گوشتی	-11.5421
▁گون	-11.5421
▁گوها	-11.5421
▁گوهای	-11.5421
▁گوگ	-11.5421
▁گویای	-11.5421
▁گویم	-11.5421
▁گیرد.این	-11.5421
▁گیل	-11.5421
▁یابند	-11.5421
▁یابی	-11.5421
▁یادش	-11.5421
▁یادم	-11.5421
▁یادی	-11.5421
▁یاسمین	-11.5421
▁ید	-11.5421
▁یغما	-11.5421
▁یقین	-11.5421
▁یوآن	-11.5421
▁یوردی	-11.5421
▁یوفا:	-11.5421
▁یونانی	-11.5421
▁یک؛	-11.5421
▁۱۰۲	-11.5421
▁۱۲۳	-11.5421
▁۱۳۱	-11.5421
▁۱۳۳۰	-11.5421
▁۱۳۸۸	-11.5421
▁۱۷۲	-11.5421
▁۱۷۳	-11.5421
▁۱۷۴	-11.5421
▁۱۹۶۳	-11.5421
▁۱۹۶۵	-11.5421
▁۱۹۶۶	-11.5421
▁۱۹۶۸	-11.5421
▁۱۹۸۷	-11.5421
▁۲۰۲۰؛	-11.5421
▁۲۰۲۰منبع	-11.5421
▁۲۰۲۱؛	-11.5421
▁۲۱۰	-11.5421
▁۲۳۴	-11.5421
▁۲۶۰۰	-11.5421
▁۲۶۲	-11.5421
▁۳-۶	-11.5421
▁۳.۹	-11.5421
▁۳۸۰	-11.5421
▁۴۲۰	-11.5421
▁۹۸؛	-11.5421
▁'آزادسازی'	-11.7653
▁'احتمال	-11.7653
▁'با	-11.7653
▁'بازداشت	-11.7653
▁'بدون	-11.7653
▁'حاملگی'	-11.7653
▁'دست	-11.7653
▁'دو	-11.7653
▁'سنگر	-11.7653
▁'صربیناتور'	-11.7653
▁'می	-11.7653
▁'نگرانی	-11.7653
▁'پاسخ	-11.7653
▁'چند	-11.7653
▁'یک	-11.7653
▁(آلمان)،	-11.7653
▁(آمریکا)	-11.7653
▁(استرالیا)،	-11.7653
▁(اسپانیا)،	-11.7653
▁(ایتالیا)	-11.7653
▁(در	-11.7653
▁(دهم	-11.7653
▁(یونان)،	-11.7653
▁-به	-11.7653
▁.اما	-11.7653
▁.علی	-11.7653
▁.عکس	-11.7653
▁آ.ث.	-11.7653
▁آئودی	-11.7653
▁آئین	-11.7653
▁آب،	-11.7653
▁آتشفشان	-11.7653
▁آثارشان	-11.7653
▁آذر،	-11.7653
▁آرمسترانگ	-11.7653
▁آرگیل	-11.7653
▁آریگو	-11.7653
▁آزارهای	-11.7653
▁آزمایشات	-11.7653
▁آستان	-11.7653
▁آسترازنکا	-11.7653
▁آسوده	-11.7653
▁آسیا،	-11.7653
▁آصف	-11.7653
▁آغاخان	-11.7653
▁آغازی	-11.7653
▁آفرود	-11.7653
▁آفرینی	-11.7653
▁آقابابایی	-11.7653
▁آلایندگی	-11.7653
▁آلبانی	-11.7653
▁آلکس	-11.7653
▁آمریکا-	-11.7653
▁آمریکا.	-11.7653
▁آموختن	-11.7653
▁آمونیت	-11.7653
▁آمپول	-11.7653
▁آمیخته	-11.7653
▁آمیز'	-11.7653
▁آن.	-11.7653
▁آنتوان	-11.7653
▁آنجایی	-11.7653
▁آنرا	-11.7653
▁آنست	-11.7653
▁آنها:	-11.7653
▁آنهاست.	-11.7653
▁آنهاست؛	-11.7653
▁آهنگی	-11.7653
▁آورده.	-11.7653
▁آوردیم	-11.7653
▁آورم	-11.7653
▁آوریل،	-11.7653
▁آوینی	-11.7653
▁آپ	-11.7653
▁آپارات	-11.7653
▁آپوفِس	-11.7653
▁آژانسکاظم	-11.7653
▁آکسفام	-11.7653
▁آگاهانه	-11.7653
▁آیشمن	-11.7653
▁آیفون	-11.7653
▁آینده،	-11.7653
▁ابرقدرت	-11.7653
▁ابزاری	-11.7653
▁ابطال	-11.7653
▁ابن	-11.7653
▁اتاقی	-11.7653
▁اتانازی	-11.7653
▁اتوبوسی	-11.7653
▁اتکایی	-11.7653
▁اجدادی	-11.7653
▁اجزای	-11.7653
▁اجساد	-11.7653
▁اجسام	-11.7653
▁احترامی	-11.7653
▁احتمالات	-11.7653
▁احتمالهای	-11.7653
▁احراز	-11.7653
▁احمدشاملو	-11.7653
▁اخطارهای	-11.7653
▁اخطاری	-11.7653
▁اخیرمنبع	-11.7653
▁ادا	-11.7653
▁ادلب	-11.7653
▁ارتقای	-11.7653
▁ارطغرل	-11.7653
▁ارل	-11.7653
▁اروپایی.منبع	-11.7653
▁ازدحام	-11.7653
▁ازمیر	-11.7653
▁است...	-11.7653
▁است.آیت	-11.7653
▁است.اشاره	-11.7653
▁است.اطلاعات	-11.7653
▁است.اعضای	-11.7653
▁است.اکبر	-11.7653
▁است.اکنون	-11.7653
▁است.بعد	-11.7653
▁است.تا	-11.7653
▁است.تخمین	-11.7653
▁است.تیم	-11.7653
▁است.دونالد	-11.7653
▁است.روزنامه	-11.7653
▁است.سال	-11.7653
▁است.سخنگوی	-11.7653
▁است.سیما	-11.7653
▁است.شرکت	-11.7653
▁است.شمار	-11.7653
▁است.مارک	-11.7653
▁است.معاون	-11.7653
▁است.منظور	-11.7653
▁است.هفته	-11.7653
▁است.پروفسور	-11.7653
▁است.کسری	-11.7653
▁است.کشورهای	-11.7653
▁است.گفتگو	-11.7653
▁است.یافته	-11.7653
▁استانداردهای	-11.7653
▁استایران	-11.7653
▁استرا	-11.7653
▁استرالیا،	-11.7653
▁استرالیامنبع	-11.7653
▁استرقابت	-11.7653
▁استسازمان	-11.7653
▁استشرکت	-11.7653
▁استطی	-11.7653
▁استفانونس	-11.7653
▁استفنز	-11.7653
▁استقلال،	-11.7653
▁استمقام	-11.7653
▁استیاسنی	-11.7653
▁اسدبیگی	-11.7653
▁اسرع	-11.7653
▁اسکرین	-11.7653
▁اسکورت	-11.7653
▁اشاراتی	-11.7653
▁اشاعه	-11.7653
▁اشتباهاتی	-11.7653
▁اشتهای	-11.7653
▁اشلی	-11.7653
▁اصلاحاتی	-11.7653
▁اصولی	-11.7653
▁اظهارنظرها	-11.7653
▁اعاده	-11.7653
▁اعلامی	-11.7653
▁افتخارات	-11.7653
▁افتد؟منبع	-11.7653
▁افتی	-11.7653
▁افزارهای	-11.7653
▁افزون	-11.7653
▁افعانستان	-11.7653
▁افغانی	-11.7653
▁اقتصاد،	-11.7653
▁اقتصاددانان	-11.7653
▁اقتصادی،	-11.7653
▁اقوام	-11.7653
▁اقیانوسی	-11.7653
▁الاجرا	-11.7653
▁الاهلی	-11.7653
▁الحاق	-11.7653
▁الدینی	-11.7653
▁الریان	-11.7653
▁الزامات	-11.7653
▁الشعاع	-11.7653
▁الظاهر	-11.7653
▁الف	-11.7653
▁القا	-11.7653
▁اللهی	-11.7653
▁النضال	-11.7653
▁الوقوع	-11.7653
▁الکسا	-11.7653
▁الکساندر	-11.7653
▁الکسیس	-11.7653
▁الگین	-11.7653
▁اما،	-11.7653
▁اماراتی	-11.7653
▁امتیازهای	-11.7653
▁امرار	-11.7653
▁امروز،	-11.7653
▁امکانش	-11.7653
▁امیدوارکننده	-11.7653
▁امیلیا	-11.7653
▁انابی	-11.7653
▁انبارگردانی	-11.7653
▁انبوهی	-11.7653
▁انتظارش	-11.7653
▁انتظاری	-11.7653
▁انتقادهایی	-11.7653
▁اند'منبع	-11.7653
▁اند.از	-11.7653
▁اند.اطلاعاتی	-11.7653
▁اند.افزایش	-11.7653
▁اند.او	-11.7653
▁اند.هکرها	-11.7653
▁انزوا	-11.7653
▁انسولین	-11.7653
▁انصاف	-11.7653
▁انکار	-11.7653
▁اهلی	-11.7653
▁اوریون	-11.7653
▁اوزبیکی	-11.7653
▁اوسیک	-11.7653
▁اوقاف	-11.7653
▁اول،	-11.7653
▁اولیانف	-11.7653
▁اِولین	-11.7653
▁اپراتور	-11.7653
▁اپس	-11.7653
▁اکبری	-11.7653
▁اکتشافی	-11.7653
▁اکثرا	-11.7653
▁ایرانایران،	-11.7653
▁ایرانسل	-11.7653
▁ایرانی-آمریکایی	-11.7653
▁ایرانیک	-11.7653
▁ایرلاین	-11.7653
▁ایرلندشمالی	-11.7653
▁ایرلندی	-11.7653
▁ایزنر	-11.7653
▁ایل	-11.7653
▁ایلون	-11.7653
▁ایکون	-11.7653
▁باتجربه	-11.7653
▁باتر	-11.7653
▁باخت.	-11.7653
▁باختر	-11.7653
▁باختند	-11.7653
▁بازار،	-11.7653
▁بازگرداند	-11.7653
▁بازگرداند.	-11.7653
▁بازگردد.	-11.7653
▁بازگردد.آقای	-11.7653
▁بازگردم.	-11.7653
▁باشد.از	-11.7653
▁باشد.اما	-11.7653
▁باشدمنبع	-11.7653
▁بالیوود	-11.7653
▁بانان	-11.7653
▁بانی	-11.7653
▁باهم	-11.7653
▁باچان	-11.7653
▁باکو	-11.7653
▁ببری	-11.7653
▁ببندند.	-11.7653
▁ببیند.	-11.7653
▁ببینند.	-11.7653
▁بجا	-11.7653
▁بحری	-11.7653
▁بحرین،	-11.7653
▁بختیار،	-11.7653
▁بخواهند	-11.7653
▁بخورد	-11.7653
▁بدان	-11.7653
▁بدرالزمان	-11.7653
▁بدفورد	-11.7653
▁بدنمان	-11.7653
▁بدهم	-11.7653
▁بدویا	-11.7653
▁بدوید	-11.7653
▁برایان	-11.7653
▁برایانت	-11.7653
▁برجی	-11.7653
▁برخاست	-11.7653
▁برخاستن	-11.7653
▁برد.منبع	-11.7653
▁بردی	-11.7653
▁بردیک	-11.7653
▁برغم	-11.7653
▁برقی،	-11.7653
▁برنامک	-11.7653
▁برنلی	-11.7653
▁برود؛	-11.7653
▁برونئی	-11.7653
▁برونته	-11.7653
▁بروند.	-11.7653
▁برونی	-11.7653
▁بروژ	-11.7653
▁بروکسل،	-11.7653
▁بروی	-11.7653
▁بروید	-11.7653
▁برگردد	-11.7653
▁برگردند	-11.7653
▁برگزارمی	-11.7653
▁برگشت.در	-11.7653
▁برگه	-11.7653
▁برگوین	-11.7653
▁بریتز	-11.7653
▁بزرگراه	-11.7653
▁بزرگسال	-11.7653
▁بزن	-11.7653
▁بزند.	-11.7653
▁بزنم.	-11.7653
▁بستکبال	-11.7653
▁بستگان	-11.7653
▁بسختی	-11.7653
▁بفرستند	-11.7653
▁بفروشد،	-11.7653
▁بفهمیم	-11.7653
▁بلنیکن	-11.7653
▁بلوغ	-11.7653
▁بلوچستان،	-11.7653
▁بلک	-11.7653
▁بلیدرانر	-11.7653
▁بلینکن،	-11.7653
▁بلیکن	-11.7653
▁بمراتب	-11.7653
▁بمرور	-11.7653
▁بنأهای	-11.7653
▁بنادر	-11.7653
▁بنتکه	-11.7653
▁بنزمنبع	-11.7653
▁بنویسم	-11.7653
▁بنیامین	-11.7653
▁بنین	-11.7653
▁بهمراه	-11.7653
▁بوئینگ	-11.7653
▁بواسطه	-11.7653
▁بود'منبع	-11.7653
▁بود.مقام	-11.7653
▁بود.و	-11.7653
▁بود.یک	-11.7653
▁بود؟انیس	-11.7653
▁بودآقای	-11.7653
▁بودند.به	-11.7653
▁بودند.نمایندگان	-11.7653
▁بودید	-11.7653
▁بورس؛	-11.7653
▁بوزمن،	-11.7653
▁بوستون	-11.7653
▁بوفالو	-11.7653
▁بوفالوها	-11.7653
▁بوفالوی	-11.7653
▁بوقچی	-11.7653
▁بوقی	-11.7653
▁بولونیا	-11.7653
▁بوندسلیگا	-11.7653
▁بوهایی	-11.7653
▁بپردازد.	-11.7653
▁بچگی	-11.7653
▁بک	-11.7653
▁بکر	-11.7653
▁بکشم	-11.7653
▁بگیرد.پروتکل	-11.7653
▁بیاورند	-11.7653
▁بیاید.	-11.7653
▁بیدگل	-11.7653
▁بیرانوند	-11.7653
▁بیراهه	-11.7653
▁بیرمنگام	-11.7653
▁بیشترشان	-11.7653
▁بیفتد.	-11.7653
▁بینانه	-11.7653
▁بیولوژیک	-11.7653
▁بیکاران	-11.7653
▁تئاتری	-11.7653
▁تابش	-11.7653
▁تاثیرگذاری	-11.7653
▁تاجیکستان؛	-11.7653
▁تالیف	-11.7653
▁تامی	-11.7653
▁تاکسیرانی	-11.7653
▁تایتان	-11.7653
▁تایی	-11.7653
▁تبعیت	-11.7653
▁تبلیغی	-11.7653
▁تترا	-11.7653
▁تجاری-سیاسی	-11.7653
▁تحرکی	-11.7653
▁تحریمی	-11.7653
▁تحلیلی	-11.7653
▁تحولاتی	-11.7653
▁تدارک	-11.7653
▁تذکر	-11.7653
▁تراشیده	-11.7653
▁ترانزیتی	-11.7653
▁تراولتا	-11.7653
▁تراکتورسازی	-11.7653
▁تربت	-11.7653
▁ترتیب،	-11.7653
▁تردیدهایی	-11.7653
▁ترسد.	-11.7653
▁ترشحات	-11.7653
▁تروریست	-11.7653
▁ترکمانچای	-11.7653
▁ترکیه؛	-11.7653
▁تستوسترون	-11.7653
▁تشکیلات	-11.7653
▁تصنیف	-11.7653
▁تعارف	-11.7653
▁تعریفی	-11.7653
▁تفاضل	-11.7653
▁تفنگ	-11.7653
▁تفکر	-11.7653
▁تفکیکی	-11.7653
▁تقبل	-11.7653
▁تقصیر	-11.7653
▁تقلب	-11.7653
▁تقلبی	-11.7653
▁تلاشند	-11.7653
▁تلکوم	-11.7653
▁تماشاگری	-11.7653
▁تمامیت	-11.7653
▁تمایز	-11.7653
▁تنگنا	-11.7653
▁تنی	-11.7653
▁تهدید،	-11.7653
▁تهدیدات	-11.7653
▁تهران.	-11.7653
▁تهران:	-11.7653
▁تهی	-11.7653
▁توئیتی	-11.7653
▁توافق،	-11.7653
▁توانمندی	-11.7653
▁توخالی	-11.7653
▁تورج	-11.7653
▁توریست	-11.7653
▁توسل	-11.7653
▁توضیحاتی	-11.7653
▁توفندها	-11.7653
▁تولیت	-11.7653
▁تونسی	-11.7653
▁تپندگان	-11.7653
▁تکاملی	-11.7653
▁تکثیر	-11.7653
▁تیری	-11.7653
▁تیلدا	-11.7653
▁ثروتمندان	-11.7653
▁ثور	-11.7653
▁جادوی	-11.7653
▁جاسازی	-11.7653
▁جامپائولو	-11.7653
▁جانباختگان	-11.7653
▁جانز	-11.7653
▁جانور	-11.7653
▁جدانشدنی	-11.7653
▁جدیدش	-11.7653
▁جر	-11.7653
▁جراحان	-11.7653
▁جرارد	-11.7653
▁جرد	-11.7653
▁جزای	-11.7653
▁جسارت	-11.7653
▁جفتش	-11.7653
▁جنایتکاران	-11.7653
▁جنایتی	-11.7653
▁جنبشی	-11.7653
▁جنوبی؛	-11.7653
▁جنگند	-11.7653
▁جهان'	-11.7653
▁جوئل	-11.7653
▁جوابگویی	-11.7653
▁جورجینیو	-11.7653
▁جوری	-11.7653
▁جوزپ	-11.7653
▁جولیا	-11.7653
▁جون	-11.7653
▁جونگ	-11.7653
▁جید	-11.7653
▁حبابی	-11.7653
▁حتا	-11.7653
▁حدیث	-11.7653
▁حرارتی	-11.7653
▁حروف	-11.7653
▁حریفش	-11.7653
▁حسابداران	-11.7653
▁حسام	-11.7653
▁حسب	-11.7653
▁حسگرهای	-11.7653
▁حسینیه	-11.7653
▁حقایق	-11.7653
▁حقوقشان	-11.7653
▁حمایتهای	-11.7653
▁حوصله	-11.7653
▁خاطرنشان	-11.7653
▁خاموشی	-11.7653
▁خاندان	-11.7653
▁خاندوزی	-11.7653
▁خاکی	-11.7653
▁خب	-11.7653
▁خبرداده	-11.7653
▁خبرنامه	-11.7653
▁خجالت	-11.7653
▁خداوند	-11.7653
▁خدای	-11.7653
▁خدایان	-11.7653
▁خدایی	-11.7653
▁خر	-11.7653
▁خردسالش	-11.7653
▁خرمشهر	-11.7653
▁خشمی	-11.7653
▁خصوصا	-11.7653
▁خصوصی،	-11.7653
▁خطایی	-11.7653
▁خلاص	-11.7653
▁خلال	-11.7653
▁خوار	-11.7653
▁خوانند	-11.7653
▁خوانندگی	-11.7653
▁خواهتد	-11.7653
▁خودکار	-11.7653
▁خوشبینی	-11.7653
▁خونی	-11.7653
▁خیابانی،	-11.7653
▁خیال	-11.7653
▁خیام،	-11.7653
▁خیل	-11.7653
▁د	-11.7653
▁دابسمش	-11.7653
▁داد.با	-11.7653
▁داد.جوکوویچ	-11.7653
▁داد.رسیدن	-11.7653
▁دادرسی	-11.7653
▁دادند.جاوید	-11.7653
▁دادند؛	-11.7653
▁دادیم.	-11.7653
▁دادیک	-11.7653
▁دارد.بعضی	-11.7653
▁داردهکرهایی	-11.7653
▁دارند؛	-11.7653
▁داروهایی	-11.7653
▁داشت.آقای	-11.7653
▁داشت.منتقدان	-11.7653
▁داشت،	-11.7653
▁داشتند،	-11.7653
▁داشتنی	-11.7653
▁داشته.	-11.7653
▁داعش	-11.7653
▁داغی	-11.7653
▁دامبو	-11.7653
▁دامغان	-11.7653
▁دانستم	-11.7653
▁دانستمنبع	-11.7653
▁دانستیم	-11.7653
▁دایملر	-11.7653
▁داینابوک	-11.7653
▁دختربچه	-11.7653
▁درآورده	-11.7653
▁درآید.	-11.7653
▁درامور	-11.7653
▁دراویش	-11.7653
▁درحضور	-11.7653
▁درخشیده	-11.7653
▁درمیان	-11.7653
▁درگاه	-11.7653
▁درگذشت،	-11.7653
▁درگذشت؛	-11.7653
▁دریاباری	-11.7653
▁دستمزدهای	-11.7653
▁دستیارانش	-11.7653
▁دشتکی	-11.7653
▁دعا	-11.7653
▁دعوتش	-11.7653
▁دقتی	-11.7653
▁دلار'	-11.7653
▁دمام	-11.7653
▁دهد.اما	-11.7653
▁دهد،	-11.7653
▁دوآ	-11.7653
▁دوبار	-11.7653
▁دوبله	-11.7653
▁دورخیز	-11.7653
▁دوری،	-11.7653
▁دوسلدورف	-11.7653
▁دولتها	-11.7653
▁دوک	-11.7653
▁دویده	-11.7653
▁دویچلند	-11.7653
▁دیافراگم	-11.7653
▁دیجیتالی	-11.7653
▁دیدبان	-11.7653
▁دیزل	-11.7653
▁دیسک	-11.7653
▁دیسکوی	-11.7653
▁دیگرهم	-11.7653
▁دیگه	-11.7653
▁ذهنش	-11.7653
▁ذهنیت	-11.7653
▁ذوالفقار	-11.7653
▁ذیربط	-11.7653
▁رئیسی،	-11.7653
▁راتکلیف	-11.7653
▁راجپوت	-11.7653
▁رازآلود	-11.7653
▁رازهای	-11.7653
▁راستا	-11.7653
▁رانا	-11.7653
▁رانگلر	-11.7653
▁راهنمای	-11.7653
▁راهپیمایی	-11.7653
▁راکسی	-11.7653
▁رایانه	-11.7653
▁رایدر	-11.7653
▁ربابه	-11.7653
▁رجبیان	-11.7653
▁رحمانه	-11.7653
▁رحیم	-11.7653
▁رحیمی	-11.7653
▁ردکلیف	-11.7653
▁ردگیری	-11.7653
▁ردیفی	-11.7653
▁رزرو	-11.7653
▁رستورانها	-11.7653
▁رسد.با	-11.7653
▁رسد،	-11.7653
▁رسیم	-11.7653
▁رنسانس	-11.7653
▁رهاسازی	-11.7653
▁روانپزشکی	-11.7653
▁روبات	-11.7653
▁روبین	-11.7653
▁روزبهانه	-11.7653
▁روزمزد	-11.7653
▁روسوم	-11.7653
▁رولات	-11.7653
▁رولت	-11.7653
▁رونان	-11.7653
▁رووانیمی	-11.7653
▁رویال	-11.7653
▁رویان	-11.7653
▁رویت	-11.7653
▁رکسانا	-11.7653
▁رگی	-11.7653
▁ریاحی	-11.7653
▁ریتوناویر	-11.7653
▁رید	-11.7653
▁ریزرو	-11.7653
▁ریش	-11.7653
▁ریل	-11.7653
▁رینولدز	-11.7653
▁رییسه	-11.7653
▁ز	-11.7653
▁زابل	-11.7653
▁زاد،	-11.7653
▁زار	-11.7653
▁زالی	-11.7653
▁زامبی	-11.7653
▁زانوی	-11.7653
▁زدمنبع	-11.7653
▁زده؛	-11.7653
▁زلا	-11.7653
▁زن؛	-11.7653
▁زندگینامه	-11.7653
▁زیارتی	-11.7653
▁زیمبابوه	-11.7653
▁سئوالی	-11.7653
▁ساختاری	-11.7653
▁سادات،	-11.7653
▁ساز،	-11.7653
▁سازهای	-11.7653
▁سال؛	-11.7653
▁سالهاست	-11.7653
▁سامانی	-11.7653
▁سانتیاگو	-11.7653
▁سانتیگراد	-11.7653
▁ساندرلند	-11.7653
▁ساک	-11.7653
▁ساینس	-11.7653
▁سایوز	-11.7653
▁ستوده	-11.7653
▁سحرگاه	-11.7653
▁سختگیری	-11.7653
▁سربسته	-11.7653
▁سرسام	-11.7653
▁سرشان	-11.7653
▁سرشناسی	-11.7653
▁سرلوحه	-11.7653
▁سرو،	-11.7653
▁سرپوشیده	-11.7653
▁سرگذاشته	-11.7653
▁سریعا	-11.7653
▁سریعترین	-11.7653
▁سزاوار	-11.7653
▁سفالی	-11.7653
▁سفرشان	-11.7653
▁سفیدپوست	-11.7653
▁سلب	-11.7653
▁سلطانی،	-11.7653
▁سلیمی	-11.7653
▁سناریوهای	-11.7653
▁سنوات	-11.7653
▁سهامش	-11.7653
▁سوئیس)،	-11.7653
▁سوالاتی	-11.7653
▁سوراخ	-11.7653
▁سوزان	-11.7653
▁سولیوان	-11.7653
▁سوکابومی	-11.7653
▁سوییس	-11.7653
▁سپاه'	-11.7653
▁سپاه:	-11.7653
▁سپردن	-11.7653
▁سپیدار	-11.7653
▁سکنه	-11.7653
▁سی؛	-11.7653
▁سیاستگذاران	-11.7653
▁سیتروئن	-11.7653
▁سیرشا	-11.7653
▁سیریاتل	-11.7653
▁سیستمی	-11.7653
▁سیلان	-11.7653
▁سیلیتو	-11.7653
▁سینماگران	-11.7653
▁سینماگرانی	-11.7653
▁سینوفارم	-11.7653
▁شابلون	-11.7653
▁شادمانی	-11.7653
▁شارپنتیر	-11.7653
▁شاعر،	-11.7653
▁شاغلین	-11.7653
▁شالیزار	-11.7653
▁شاهراه	-11.7653
▁شاهرودی	-11.7653
▁شاپووالوف	-11.7653
▁شایان	-11.7653
▁شبان	-11.7653
▁شبهه	-11.7653
▁شجاعیان	-11.7653
▁شد.از	-11.7653
▁شد.البته	-11.7653
▁شد.ایران	-11.7653
▁شد.پس	-11.7653
▁شد.پوریا	-11.7653
▁شدسازمان	-11.7653
▁شدمعاون	-11.7653
▁شدند.آقای	-11.7653
▁شدند.به	-11.7653
▁شدند:	-11.7653
▁شدنش	-11.7653
▁شده'به	-11.7653
▁شده؟منبع	-11.7653
▁شرایطش	-11.7653
▁شرمانه	-11.7653
▁شروط	-11.7653
▁شریدار	-11.7653
▁شست	-11.7653
▁شعارهای	-11.7653
▁شعرهای	-11.7653
▁شفاخانه	-11.7653
▁شما'	-11.7653
▁شمع	-11.7653
▁شن	-11.7653
▁شنیدنش	-11.7653
▁شهرستانها	-11.7653
▁شهره	-11.7653
▁شهریورماه	-11.7653
▁شهزاده	-11.7653
▁شو	-11.7653
▁شوخ	-11.7653
▁شود.بعضی	-11.7653
▁شود.منابع	-11.7653
▁شود.هکرها	-11.7653
▁شودبا	-11.7653
▁شوددر	-11.7653
▁شوری	-11.7653
▁شومینه	-11.7653
▁شوند.پوریا	-11.7653
▁شوکه	-11.7653
▁شوی	-11.7653
▁شکست.	-11.7653
▁شکستمنبع	-11.7653
▁شکسپیر	-11.7653
▁شکلک	-11.7653
▁شکن	-11.7653
▁شیادی	-11.7653
▁شیرازی	-11.7653
▁شیرجه	-11.7653
▁شیرینی	-11.7653
▁شیفت	-11.7653
▁صادرکنندگانی	-11.7653
▁صالح،	-11.7653
▁صحبتهای	-11.7653
▁صدام	-11.7653
▁صداهای	-11.7653
▁صراحت	-11.7653
▁صلیب	-11.7653
▁صنعت،	-11.7653
▁صیاد	-11.7653
▁صیادان	-11.7653
▁طاهباز	-11.7653
▁طاهری	-11.7653
▁طب	-11.7653
▁طرزی	-11.7653
▁طزره	-11.7653
▁طلاها	-11.7653
▁طلبه	-11.7653
▁طوریکه	-11.7653
▁ظریف:	-11.7653
▁عادلایران،	-11.7653
▁عبارتند	-11.7653
▁عربستانمنبع	-11.7653
▁عرفان	-11.7653
▁عزای	-11.7653
▁عزل	-11.7653
▁عسگری	-11.7653
▁عصبانیت	-11.7653
▁عطف	-11.7653
▁عطفی	-11.7653
▁علایمی	-11.7653
▁عمد	-11.7653
▁عمیقی	-11.7653
▁عناوین	-11.7653
▁عنقا	-11.7653
▁عواید	-11.7653
▁عکسها	-11.7653
▁عیار	-11.7653
▁عینک	-11.7653
▁غایب	-11.7653
▁غدیر	-11.7653
▁غذاخوری	-11.7653
▁غذاهای	-11.7653
▁غرور	-11.7653
▁غلامی	-11.7653
▁غلطی	-11.7653
▁غنی،	-11.7653
▁غیربسته	-11.7653
▁غیرمجاز	-11.7653
▁فارست	-11.7653
▁فاسد	-11.7653
▁فاطمه	-11.7653
▁فالانژهای	-11.7653
▁فالکلند	-11.7653
▁فایننشال	-11.7653
▁فجرسپاسی	-11.7653
▁فحشا	-11.7653
▁فدرالیسم	-11.7653
▁فراخوان	-11.7653
▁فرانسه،	-11.7653
▁فرسایش	-11.7653
▁فرستد.	-11.7653
▁فرستنده	-11.7653
▁فرضی	-11.7653
▁فرنود	-11.7653
▁فرنوش	-11.7653
▁فرنگی	-11.7653
▁فرودست	-11.7653
▁فرگوس	-11.7653
▁فریتز	-11.7653
▁فریدلینگ	-11.7653
▁فشارها	-11.7653
▁فقدان	-11.7653
▁فقیری	-11.7653
▁فلز	-11.7653
▁فلورانس	-11.7653
▁فلوریدای	-11.7653
▁فلک	-11.7653
▁فهمید	-11.7653
▁فوتسی	-11.7653
▁فوربز	-11.7653
▁فولام	-11.7653
▁فون	-11.7653
▁فونینی	-11.7653
▁فکاهی	-11.7653
▁فیات	-11.7653
▁فیزیوتراپ	-11.7653
▁فیسبوک،	-11.7653
▁فیورنتینا	-11.7653
▁فیگو	-11.7653
▁قائمشهر	-11.7653
▁قارچی	-11.7653
▁قالیباف:	-11.7653
▁قامت	-11.7653
▁قاچاقچیان	-11.7653
▁قایدی	-11.7653
▁قبایل	-11.7653
▁قبرستانی	-11.7653
▁قبض	-11.7653
▁قحطی	-11.7653
▁قدرتهای	-11.7653
▁قدرتی	-11.7653
▁قدش	-11.7653
▁قدیم	-11.7653
▁قراردادهایی	-11.7653
▁قرصی	-11.7653
▁قرضی	-11.7653
▁قرمز،	-11.7653
▁قلبش	-11.7653
▁قلمی	-11.7653
▁قمقمه	-11.7653
▁قندوز	-11.7653
▁قهریه	-11.7653
▁قهوه	-11.7653
▁قوز	-11.7653
▁قویا	-11.7653
▁لابی	-11.7653
▁لاتکس	-11.7653
▁لاستیکی	-11.7653
▁لاغر	-11.7653
▁لافرته	-11.7653
▁لاوروف	-11.7653
▁لاین	-11.7653
▁لبریز	-11.7653
▁لرد	-11.7653
▁لرستان	-11.7653
▁لزومی	-11.7653
▁لسلی	-11.7653
▁لندرکینگ	-11.7653
▁لندن.	-11.7653
▁لندنی	-11.7653
▁لنز	-11.7653
▁لوتارو	-11.7653
▁لومامبا	-11.7653
▁لوپیناویر	-11.7653
▁لوییس	-11.7653
▁لیموزین	-11.7653
▁لین	-11.7653
▁لیور	-11.7653
▁لیپا	-11.7653
▁مادربزرگ	-11.7653
▁مارادونا:	-11.7653
▁مارادونا؛	-11.7653
▁مارس،	-11.7653
▁مارچ	-11.7653
▁مارین	-11.7653
▁ماریو	-11.7653
▁ماشینش	-11.7653
▁مالت	-11.7653
▁مالیاتی،	-11.7653
▁ماموریتش	-11.7653
▁ماند.این	-11.7653
▁مانده؛	-11.7653
▁مانسل	-11.7653
▁ماهان	-11.7653
▁ماهیگیران	-11.7653
▁مبارک	-11.7653
▁مبنا	-11.7653
▁متصور	-11.7653
▁متضادی	-11.7653
▁متعجب	-11.7653
▁متنوعش	-11.7653
▁متنوعی	-11.7653
▁متنی	-11.7653
▁متواری	-11.7653
▁متوازنی	-11.7653
▁مثلوثی	-11.7653
▁مجادله	-11.7653
▁مجاری	-11.7653
▁مجذوب	-11.7653
▁مجریه	-11.7653
▁مجزا	-11.7653
▁مجلس.	-11.7653
▁مجوزدار	-11.7653
▁محبوبش	-11.7653
▁محبی	-11.7653
▁محتمل	-11.7653
▁محتویات	-11.7653
▁محدویت	-11.7653
▁محصص	-11.7653
▁محمدتقی	-11.7653
▁محورهای	-11.7653
▁محوری	-11.7653
▁محک	-11.7653
▁مخوف	-11.7653
▁مدارکی	-11.7653
▁مدارگرد	-11.7653
▁مداری	-11.7653
▁مراد	-11.7653
▁مراقب	-11.7653
▁مردانش	-11.7653
▁مردانه	-11.7653
▁مردم،	-11.7653
▁مرز،	-11.7653
▁مرسوم	-11.7653
▁مرطوب	-11.7653
▁مرمر	-11.7653
▁مروی	-11.7653
▁مرگمنبع	-11.7653
▁مزیت	-11.7653
▁مزین	-11.7653
▁مسائلی	-11.7653
▁مسابقاتی	-11.7653
▁مساعد	-11.7653
▁مستحکم	-11.7653
▁مستراح	-11.7653
▁مستندهای	-11.7653
▁مسخ	-11.7653
▁مسری	-11.7653
▁مشترکی	-11.7653
▁مشروب	-11.7653
▁مشروبات	-11.7653
▁مشهوری	-11.7653
▁مصائب	-11.7653
▁مصدومان	-11.7653
▁مصر	-11.7653
▁مصری	-11.7653
▁مضامین	-11.7653
▁معالج	-11.7653
▁معاملاتی	-11.7653
▁معایب	-11.7653
▁معتقدم	-11.7653
▁معدودی	-11.7653
▁معرف	-11.7653
▁معروفترین	-11.7653
▁معظم	-11.7653
▁معلولیت	-11.7653
▁معلومات	-11.7653
▁معنادار	-11.7653
▁معناست	-11.7653
▁معیاری	-11.7653
▁مغانلو	-11.7653
▁مغایرت	-11.7653
▁مغول	-11.7653
▁مقاومتی	-11.7653
▁مقداد	-11.7653
▁ملاک	-11.7653
▁ملکشاه	-11.7653
▁ملکی	-11.7653
▁منافعی	-11.7653
▁منجیل	-11.7653
▁منحرف	-11.7653
▁منحنی	-11.7653
▁مندس	-11.7653
▁مندی	-11.7653
▁منزلش	-11.7653
▁منزله	-11.7653
▁منسوب	-11.7653
▁منسوخ	-11.7653
▁منظومه	-11.7653
▁منفور	-11.7653
▁منقرض	-11.7653
▁منهدم	-11.7653
▁منوط	-11.7653
▁مهاجرانی	-11.7653
▁مهرگان	-11.7653
▁مهیار	-11.7653
▁مهیبی	-11.7653
▁مواجهند.	-11.7653
▁موادی	-11.7653
▁موافقتنامه	-11.7653
▁موجوداتی	-11.7653
▁مور	-11.7653
▁مورخان	-11.7653
▁موردی	-11.7653
▁موری	-11.7653
▁موزیم	-11.7653
▁مولر	-11.7653
▁مومبای	-11.7653
▁مونیخ،	-11.7653
▁مکزیکوسیتی	-11.7653
▁مکس	-11.7653
▁مگو	-11.7653
▁میانمار	-11.7653
▁میخائیل	-11.7653
▁میدهد	-11.7653
▁میزبانش	-11.7653
▁میزی	-11.7653
▁میسر	-11.7653
▁میشائیل	-11.7653
▁میشیگان	-11.7653
▁میلادی)	-11.7653
▁میلز	-11.7653
▁میلیاردرهای	-11.7653
▁میلیاردی	-11.7653
▁میلیونها	-11.7653
▁مینیاتوری	-11.7653
▁میکائل	-11.7653
▁ناامیدی	-11.7653
▁نابرابری	-11.7653
▁نابسامان	-11.7653
▁نابسامانی	-11.7653
▁نابینا	-11.7653
▁ناتینگهام	-11.7653
▁ناخشنودی	-11.7653
▁ناخواسته	-11.7653
▁ناخودآگاه	-11.7653
▁نادقیق	-11.7653
▁ناراحتی	-11.7653
▁ناشده؛	-11.7653
▁ناشر	-11.7653
▁ناقلان	-11.7653
▁نامشروع	-11.7653
▁ناموفق	-11.7653
▁ناهموار	-11.7653
▁ناوشکن	-11.7653
▁ناپلئون	-11.7653
▁نایت	-11.7653
▁نایر	-11.7653
▁نباشند	-11.7653
▁نبرده	-11.7653
▁نبردهای	-11.7653
▁نبردی	-11.7653
▁نبودم	-11.7653
▁نبودن	-11.7653
▁نتواتستند	-11.7653
▁نخبگان	-11.7653
▁ندارد.متوقف	-11.7653
▁ندارد.منبع	-11.7653
▁ندارند.بنا	-11.7653
▁نداشت.منبع	-11.7653
▁ندهند.گزارش	-11.7653
▁نرسید.	-11.7653
▁نروژی	-11.7653
▁نزده	-11.7653
▁نسرین	-11.7653
▁نشاط	-11.7653
▁نشدمنبع	-11.7653
▁نشده.	-11.7653
▁نشود،	-11.7653
▁نشیند	-11.7653
▁نطارتی	-11.7653
▁نظاره	-11.7653
▁نظری	-11.7653
▁نظمی	-11.7653
▁نفت؛	-11.7653
▁نفربراساس	-11.7653
▁نفرشان	-11.7653
▁نماند.	-11.7653
▁نمایشگاهی	-11.7653
▁نمک	-11.7653
▁نهال	-11.7653
▁نورانی	-11.7653
▁نوردهی	-11.7653
▁نوریلسک	-11.7653
▁نوشابه	-11.7653
▁نوشتم	-11.7653
▁نولتی	-11.7653
▁نوپای	-11.7653
▁نوک	-11.7653
▁نویسان	-11.7653
▁نپالی	-11.7653
▁نپذیرفته	-11.7653
▁نکنیدمنبع	-11.7653
▁نکهت	-11.7653
▁نگاتیو	-11.7653
▁نگارشی	-11.7653
▁نگذاشت	-11.7653
▁نگهبانی	-11.7653
▁نگهداشتن	-11.7653
▁نیابتی	-11.7653
▁نیافت.	-11.7653
▁نیافتن	-11.7653
▁نیاورده	-11.7653
▁نیرومند	-11.7653
▁نیست.این	-11.7653
▁نیش	-11.7653
▁نیشابور	-11.7653
▁نیشکر	-11.7653
▁نیمروز	-11.7653
▁نیمکره	-11.7653
▁نیوتن	-11.7653
▁نیویورکی	-11.7653
▁نیچر	-11.7653
▁نیکی	-11.7653
▁هئیت	-11.7653
▁ها'	-11.7653
▁ها؛	-11.7653
▁هابل	-11.7653
▁هاربین	-11.7653
▁هاس	-11.7653
▁هاشمی،	-11.7653
▁هام	-11.7653
▁هایما	-11.7653
▁هایپر	-11.7653
▁هدر	-11.7653
▁هدفگذاری	-11.7653
▁هرمز	-11.7653
▁هزارمین	-11.7653
▁هستند'منبع	-11.7653
▁هستند.اما	-11.7653
▁هستند.به	-11.7653
▁هستند.سازمان	-11.7653
▁هشداردهنده	-11.7653
▁هشدارها	-11.7653
▁هشداری	-11.7653
▁هفدهمین	-11.7653
▁هلیوس	-11.7653
▁همانجا	-11.7653
▁همسایگان	-11.7653
▁همسایگی	-11.7653
▁همسران	-11.7653
▁همسری	-11.7653
▁همشهری	-11.7653
▁همفکری	-11.7653
▁همکارانم	-11.7653
▁همکارش	-11.7653
▁همگان	-11.7653
▁همگانی	-11.7653
▁همیشه.	-11.7653
▁هند،	-11.7653
▁هنرنمایی	-11.7653
▁هنکاک	-11.7653
▁هنکس	-11.7653
▁هوارد	-11.7653
▁هوستون	-11.7653
▁هوشیار	-11.7653
▁هول	-11.7653
▁هولناک	-11.7653
▁هوک	-11.7653
▁هوگو	-11.7653
▁هژمون	-11.7653
▁هکرهای	-11.7653
▁هیرمند	-11.7653
▁هیل	-11.7653
▁هیوستون	-11.7653
▁وار	-11.7653
▁وارتان	-11.7653
▁وارث	-11.7653
▁وارن	-11.7653
▁واسط	-11.7653
▁والنسیا	-11.7653
▁وانمود	-11.7653
▁واژگون	-11.7653
▁واکنش،	-11.7653
▁وایت	-11.7653
▁وتو	-11.7653
▁وجو	-11.7653
▁وجوش	-11.7653
▁وسطی	-11.7653
▁وسعت	-11.7653
▁وصف	-11.7653
▁ولایات	-11.7653
▁ولت	-11.7653
▁ولسوال	-11.7653
▁ولوو	-11.7653
▁ونیز،	-11.7653
▁ووشو	-11.7653
▁وکالت	-11.7653
▁ویدئوهای	-11.7653
▁وین؛	-11.7653
▁وینسلت	-11.7653
▁ویولنسل	-11.7653
▁پائیز	-11.7653
▁پاتل	-11.7653
▁پادمانی	-11.7653
▁پارکینسون	-11.7653
▁پاسداری	-11.7653
▁پالایش	-11.7653
▁پاندمی	-11.7653
▁پانوراما	-11.7653
▁پاپوآ	-11.7653
▁پخته	-11.7653
▁پدافند	-11.7653
▁پدرانه	-11.7653
▁پرادعا	-11.7653
▁پرتنش	-11.7653
▁پرتوافشانی	-11.7653
▁پرداخت.	-11.7653
▁پرداختن	-11.7653
▁پرداختی	-11.7653
▁پردازان	-11.7653
▁پردازنده	-11.7653
▁پرزرق	-11.7653
▁پرستانه	-11.7653
▁پرسنل	-11.7653
▁پرسپولیس:	-11.7653
▁پرسیویرنس	-11.7653
▁پرطرفدارترین	-11.7653
▁پرفسور	-11.7653
▁پرو	-11.7653
▁پروسه	-11.7653
▁پستان	-11.7653
▁پسرانش	-11.7653
▁پشتیبان	-11.7653
▁پشه	-11.7653
▁پغمان	-11.7653
▁پلتفرم	-11.7653
▁پلیموث	-11.7653
▁پنجاهمین	-11.7653
▁پنروز	-11.7653
▁پنل	-11.7653
▁پهنای	-11.7653
▁پوراحمد	-11.7653
▁پورتوریکو	-11.7653
▁پورمختار	-11.7653
▁پول:	-11.7653
▁پولها	-11.7653
▁پولهای	-11.7653
▁پوماگالسکی	-11.7653
▁پژوهشهای	-11.7653
▁پیامبری	-11.7653
▁پیت	-11.7653
▁پیری،	-11.7653
▁پیزا	-11.7653
▁پیشآنتونی	-11.7653
▁پیشخوان	-11.7653
▁پیشگیرانه	-11.7653
▁پیمانی	-11.7653
▁پینک	-11.7653
▁پینکر	-11.7653
▁پیچشی	-11.7653
▁چابک	-11.7653
▁چابکی	-11.7653
▁چارلی	-11.7653
▁چالشی	-11.7653
▁چدویک	-11.7653
▁چرنوبیل	-11.7653
▁چسبناک	-11.7653
▁چسبیده	-11.7653
▁چشمم	-11.7653
▁چغاخور	-11.7653
▁چفرین،	-11.7653
▁چکهایی	-11.7653
▁چیزها	-11.7653
▁چین:	-11.7653
▁ژئوپلیتیک	-11.7653
▁ژیمناست	-11.7653
▁کار،	-11.7653
▁کارآیی	-11.7653
▁کارانه	-11.7653
▁کارفرمای	-11.7653
▁کارچاق	-11.7653
▁کاریلو	-11.7653
▁کاستی	-11.7653
▁کاسیاس	-11.7653
▁کاشته	-11.7653
▁کاغذی	-11.7653
▁کالاهایی	-11.7653
▁کامبالا	-11.7653
▁کانتاس	-11.7653
▁کانترل	-11.7653
▁کانتینر	-11.7653
▁کانل	-11.7653
▁کانونی	-11.7653
▁کانگورو	-11.7653
▁کباب	-11.7653
▁کت	-11.7653
▁کتابفروشی	-11.7653
▁کتمان	-11.7653
▁کثیری	-11.7653
▁کثیف	-11.7653
▁کجاست	-11.7653
▁کجای	-11.7653
▁کدامیک	-11.7653
▁کراسنودار	-11.7653
▁کرامت	-11.7653
▁کرانه	-11.7653
▁کرایه	-11.7653
▁کرد.افغانستان	-11.7653
▁کرد.بسیاری	-11.7653
▁کرد.شبنم	-11.7653
▁کرد.شرکت	-11.7653
▁کرداعتراض	-11.7653
▁کردباشگاه	-11.7653
▁کردند'منبع	-11.7653
▁کردند.آقای	-11.7653
▁کردند.سال	-11.7653
▁کردها	-11.7653
▁کردهیک	-11.7653
▁کردی	-11.7653
▁کرزی	-11.7653
▁کرسی	-11.7653
▁کروز	-11.7653
▁کرونایاب	-11.7653
▁کریستین	-11.7653
▁کریمی،	-11.7653
▁کریگ	-11.7653
▁کسالت	-11.7653
▁کستر	-11.7653
▁کسوت	-11.7653
▁کشاند.	-11.7653
▁کشتارگاه	-11.7653
▁کشتند	-11.7653
▁کشتگان	-11.7653
▁کشیم	-11.7653
▁کلانتری	-11.7653
▁کلاول	-11.7653
▁کلم	-11.7653
▁کله	-11.7653
▁کلونا	-11.7653
▁کلکسیونر	-11.7653
▁کمار	-11.7653
▁کمپ	-11.7653
▁کمیل	-11.7653
▁کند.بیشتر	-11.7653
▁کند.سعید	-11.7653
▁کند.پیش	-11.7653
▁کندبه	-11.7653
▁کنفرانسی	-11.7653
▁کنند.اما	-11.7653
▁کنند.مذاکرات	-11.7653
▁کنندگی	-11.7653
▁کنکور	-11.7653
▁کنید،	-11.7653
▁کنید؛	-11.7653
▁کهکشانی	-11.7653
▁کوب	-11.7653
▁کوبی	-11.7653
▁کوبید	-11.7653
▁کوتاه،	-11.7653
▁کوثر	-11.7653
▁کوزه	-11.7653
▁کوشد	-11.7653
▁کوشیده	-11.7653
▁کولبران	-11.7653
▁کولر	-11.7653
▁کولیوند	-11.7653
▁کوهستانی	-11.7653
▁کپک	-11.7653
▁کیان	-11.7653
▁کیریوس	-11.7653
▁کیست؟منبع	-11.7653
▁کیلوگرمی	-11.7653
▁کیلین	-11.7653
▁گاردن	-11.7653
▁گامبیا	-11.7653
▁گاوخونی	-11.7653
▁گذارد؟منبع	-11.7653
▁گذارند.	-11.7653
▁گذراند.	-11.7653
▁گذرد؟منبع	-11.7653
▁گذرنامه	-11.7653
▁گراز	-11.7653
▁گرافیتی	-11.7653
▁گراناز	-11.7653
▁گرانقیمت	-11.7653
▁گراهام	-11.7653
▁گرجستان	-11.7653
▁گردانند	-11.7653
▁گردهمایی	-11.7653
▁گردون	-11.7653
▁گردی	-11.7653
▁گردید.	-11.7653
▁گرفت؛	-11.7653
▁گرفته:	-11.7653
▁گرفتیم.	-11.7653
▁گرمترین	-11.7653
▁گرونتن	-11.7653
▁گرگوری	-11.7653
▁گریخته	-11.7653
▁گز	-11.7653
▁گزارشهایی	-11.7653
▁گشت.	-11.7653
▁گلاور	-11.7653
▁گلنظر	-11.7653
▁گلیزر	-11.7653
▁گناهی	-11.7653
▁گنجانده	-11.7653
▁گهگاهی	-11.7653
▁گوسفندی	-11.7653
▁گوگوش	-11.7653
▁گویند.	-11.7653
▁گِز	-11.7653
▁گِنزِل	-11.7653
▁گیرانه	-11.7653
▁گیرد.برای	-11.7653
▁گیردمنبع	-11.7653
▁گیلگمش	-11.7653
▁گینه	-11.7653
▁یادمان	-11.7653
▁یادها	-11.7653
▁یاران	-11.7653
▁یاسر	-11.7653
▁یافت'منبع	-11.7653
▁یافت؛	-11.7653
▁یافتند.	-11.7653
▁یافتند؛	-11.7653
▁یافتنداتحادیه	-11.7653
▁یانگ	-11.7653
▁یخچالی	-11.7653
▁یدریچک	-11.7653
▁یدکی	-11.7653
▁یزدی	-11.7653
▁یمنی	-11.7653
▁یه	-11.7653
▁یوسف	-11.7653
▁یولیان	-11.7653
▁یونایتد،	-11.7653
▁یونهاپ	-11.7653
▁یکجانبه	-11.7653
▁یکدست	-11.7653
▁یکساله	-11.7653
▁یکصدمین	-11.7653
▁یکهزار	-11.7653
▁یینیسی	-11.7653
▁۱۰۱	-11.7653
▁۱۰۹	-11.7653
▁۱۱۱	-11.7653
▁۱۱۷	-11.7653
▁۱۲۵	-11.7653
▁۱۳۲	-11.7653
▁۱۳۴۴	-11.7653
▁۱۳۵۱	-11.7653
▁۱۳۶۲	-11.7653
▁۱۳۷۱	-11.7653
▁۱۳۸۳	-11.7653
▁۱۴۲	-11.7653
▁۱۴۶	-11.7653
▁۱۵۰۰۰	-11.7653
▁۱۸۹۳	-11.7653
▁۱۹۰۰	-11.7653
▁۱۹۱۸	-11.7653
▁۱۹۳۸	-11.7653
▁۱۹۴۶	-11.7653
▁۱۹۵	-11.7653
▁۱۹۶۲	-11.7653
▁۱۹۶۴	-11.7653
▁۱۹۷۸	-11.7653
▁۱۹۸۳	-11.7653
▁۱۹۸۵	-11.7653
▁۱۹۸۶رسید	-11.7653
▁۱۹۹۴	-11.7653
▁۲-۶	-11.7653
▁۲میلیون	-11.7653
▁۲۰۲	-11.7653
▁۲۰۲۵	-11.7653
▁۲۰۳۵	-11.7653
▁۲۰۷	-11.7653
▁۲۲۰	-11.7653
▁۲۴۰	-11.7653
▁۲۸۰	-11.7653
▁۳۱۷	-11.7653
▁۳۴۵	-11.7653
▁۴۲۲	-11.7653
▁۴۴۰	-11.7653
▁۵۰۰۰	-11.7653
▁۵۰۱	-11.7653
▁۵۰۸	-11.7653
▁۵۵۰	-11.7653
▁۶۰درصد	-11.7653
▁۶۵۲	-11.7653
▁۶۶	-11.7653
▁۶۹	-11.7653
▁۸۰۰۰	-11.7653
▁۹۶۰	-11.7653
▁'اسپوتنیک	-12.0529
▁'اصلاح'	-12.0529
▁'او	-12.0529
▁'این	-12.0529
▁'بسیار	-12.0529
▁'تولید	-12.0529
▁'جمعیت	-12.0529
▁'دختر	-12.0529
▁'زن	-12.0529
▁'صدای	-12.0529
▁'ما	-12.0529
▁'مالک	-12.0529
▁'من	-12.0529
▁'نظرسنجی'جواد	-12.0529
▁'پس	-12.0529
▁'چهار	-12.0529
▁'گران	-12.0529
▁'۲	-12.0529
▁()	-12.0529
▁(ایسنا)	-12.0529
▁(سنا)	-12.0529
▁(۳۱	-12.0529
▁.آِیت	-12.0529
▁.اکنون	-12.0529
▁.بر	-12.0529
▁.دادسرای	-12.0529
▁.رئیس	-12.0529
▁.مدیر	-12.0529
▁.همزمان	-12.0529
▁.وزیر	-12.0529
▁.پیش	-12.0529
▁.یک	-12.0529
▁آبادان،	-12.0529
▁آبان۹۸	-12.0529
▁آبدات	-12.0529
▁آبراموویچ،	-12.0529
▁آبردین	-12.0529
▁آبریزش	-12.0529
▁آبشار	-12.0529
▁آبی؛	-12.0529
▁آتشی	-12.0529
▁آدمی	-12.0529
▁آذین	-12.0529
▁آرتمیسینین	-12.0529
▁آرد	-12.0529
▁آرسنال،	-12.0529
▁آرم	-12.0529
▁آرماندو	-12.0529
▁آرنو	-12.0529
▁آرژانتین،	-12.0529
▁آرژانتیندرگذشت	-12.0529
▁آریا	-12.0529
▁آزاد،	-12.0529
▁آزادگان،	-12.0529
▁آزاری	-12.0529
▁آزاری،	-12.0529
▁آزمایششان	-12.0529
▁آزنوم	-12.0529
▁آس	-12.0529
▁آسایش	-12.0529
▁آسونسیون،	-12.0529
▁آسپرژیلوس	-12.0529
▁آشوریمنبع	-12.0529
▁آشپزخانه	-12.0529
▁آشیل	-12.0529
▁آفات	-12.0529
▁آفریده	-12.0529
▁آفریقا،	-12.0529
▁آلاسکا	-12.0529
▁آلامدا	-12.0529
▁آلبومش	-12.0529
▁آلرژی	-12.0529
▁آلمان.	-12.0529
▁آلمان،	-12.0529
▁آلمان؛	-12.0529
▁آلمانمنبع	-12.0529
▁آلودی	-12.0529
▁آماندا	-12.0529
▁آمد.منبع	-12.0529
▁آمد؟منبع	-12.0529
▁آمدند.	-12.0529
▁آمدنش	-12.0529
▁آمدنیوز	-12.0529
▁آمدهای	-12.0529
▁آمر	-12.0529
▁آمریکاست.	-12.0529
▁آمفتامین	-12.0529
▁آمه	-12.0529
▁آمو	-12.0529
▁آموزشکده	-12.0529
▁آموس	-12.0529
▁آنالوگ	-12.0529
▁آنجلینا	-12.0529
▁آندر	-12.0529
▁آنفولانزای	-12.0529
▁آنچنان	-12.0529
▁آنگونه	-12.0529
▁آهنگسازی	-12.0529
▁آهنگش	-12.0529
▁آهنین	-12.0529
▁آوازخوان	-12.0529
▁آوازه	-12.0529
▁آوازی	-12.0529
▁آورد.آقای	-12.0529
▁آورد.این	-12.0529
▁آورد.بر	-12.0529
▁آورد.در	-12.0529
▁آوردمنبع	-12.0529
▁آوردند.پرونده	-12.0529
▁آویز	-12.0529
▁آویزان	-12.0529
▁آپارتاید	-12.0529
▁آپارتمانش	-12.0529
▁آژانسیک	-12.0529
▁آگوست	-12.0529
▁آیینی	-12.0529
▁ابتدائی	-12.0529
▁ابتذال	-12.0529
▁ابراهیموویچ	-12.0529
▁ابرستاره	-12.0529
▁ابرهای	-12.0529
▁ابری	-12.0529
▁ابلاغی	-12.0529
▁ابومسلم	-12.0529
▁اتاقش	-12.0529
▁اتراق	-12.0529
▁اتفاقا	-12.0529
▁اتمر	-12.0529
▁اتمسفر	-12.0529
▁اتومبیلش	-12.0529
▁اثربخشی	-12.0529
▁اجاق	-12.0529
▁اجداد	-12.0529
▁احاطه	-12.0529
▁احتیاطی	-12.0529
▁احساساتش	-12.0529
▁احمدزاده	-12.0529
▁احکامی	-12.0529
▁اخبارش	-12.0529
▁اختتامیه	-12.0529
▁ادعاها	-12.0529
▁ادعاهایی	-12.0529
▁ادن	-12.0529
▁ادواردو	-12.0529
▁ادینبورگ	-12.0529
▁ارادی	-12.0529
▁ارتدوکس	-12.0529
▁اردو	-12.0529
▁ارز،	-12.0529
▁ارز؛	-12.0529
▁ارزشهای	-12.0529
▁ارزشی	-12.0529
▁ارعاب	-12.0529
▁ارغندیوال	-12.0529
▁ارمغان	-12.0529
▁اروپابرگزاری	-12.0529
▁اروپالیونل	-12.0529
▁اروپاییان	-12.0529
▁ارکان	-12.0529
▁ازبکی	-12.0529
▁ازدرگاه	-12.0529
▁اس'	-12.0529
▁اسبی	-12.0529
▁است..	-12.0529
▁است.آرامکو	-12.0529
▁است.آزادی	-12.0529
▁است.آمار	-12.0529
▁است.آژانس	-12.0529
▁است.اخیرا	-12.0529
▁است.ارزش	-12.0529
▁است.امسال	-12.0529
▁است.ایالات	-12.0529
▁است.باران	-12.0529
▁است.بحرین	-12.0529
▁است.براساس	-12.0529
▁است.برای	-12.0529
▁است.بورس	-12.0529
▁است.بوریس	-12.0529
▁است.تایسون	-12.0529
▁است.تنها	-12.0529
▁است.تولید	-12.0529
▁است.تولیدکنندگان	-12.0529
▁است.حدود	-12.0529
▁است.حسام	-12.0529
▁است.حسن	-12.0529
▁است.حشمت	-12.0529
▁است.خروج	-12.0529
▁است.روابط	-12.0529
▁است.رکود	-12.0529
▁است.ریچارد	-12.0529
▁است.زبان	-12.0529
▁است.سفارت	-12.0529
▁است.سود	-12.0529
▁است.شرایط	-12.0529
▁است.شورای	-12.0529
▁است.عده	-12.0529
▁است.علاوه	-12.0529
▁است.عکس	-12.0529
▁است.غیبت	-12.0529
▁است.فرنوش	-12.0529
▁است.فریدون	-12.0529
▁است.قرار	-12.0529
▁است.لیورپول	-12.0529
▁است.ماجرای	-12.0529
▁است.مت	-12.0529
▁است.محققان	-12.0529
▁است.محمدجواد	-12.0529
▁است.محمود	-12.0529
▁است.مرکز	-12.0529
▁است.مریم	-12.0529
▁است.مقامات	-12.0529
▁است.منابع	-12.0529
▁است.نام	-12.0529
▁است.نقاشی	-12.0529
▁است.نکات	-12.0529
▁است.همیلتون	-12.0529
▁است.واشنگتن	-12.0529
▁است.وب	-12.0529
▁است.وحیدالله	-12.0529
▁است.ولی	-12.0529
▁است.وی	-12.0529
▁است.کاوه	-12.0529
▁است.کمیته	-12.0529
▁است.کنفدراسیون	-12.0529
▁استادی	-12.0529
▁استارشیپ	-12.0529
▁استانداران	-12.0529
▁استانهای	-12.0529
▁استاگر	-12.0529
▁استایلز	-12.0529
▁استبسیاری	-12.0529
▁استحکام	-12.0529
▁استراتیژیک	-12.0529
▁استرازنکا؛	-12.0529
▁استرالیا؛	-12.0529
▁استرتژیک	-12.0529
▁استرلینگ	-12.0529
▁استسال	-12.0529
▁استعدادی	-12.0529
▁استعفاهای	-12.0529
▁استعماری	-12.0529
▁استف	-12.0529
▁استقلالو	-12.0529
▁استقیمت	-12.0529
▁استلا	-12.0529
▁استلیونل	-12.0529
▁استمرسدس	-12.0529
▁استمسابقات	-12.0529
▁استوار	-12.0529
▁استودیوی	-12.0529
▁استوقتی	-12.0529
▁استونز،	-12.0529
▁استگمانه	-12.0529
▁استیلی	-12.0529
▁استیکی	-12.0529
▁است۱۵	-12.0529
▁اسرائیل:	-12.0529
▁اسرائیل؛	-12.0529
▁اسراییلی	-12.0529
▁اسعد	-12.0529
▁اسفند،	-12.0529
▁اسلامیدر	-12.0529
▁اسلو	-12.0529
▁اسنوپ	-12.0529
▁اسپنس	-12.0529
▁اسکاتلند،	-12.0529
▁اسکلت	-12.0529
▁اشتوتگارت	-12.0529
▁اشرافی	-12.0529
▁اصحاب	-12.0529
▁اصطلاحات	-12.0529
▁اصولا	-12.0529
▁اطاعت	-12.0529
▁اظهارت	-12.0529
▁اعتراضات،	-12.0529
▁اعترافات	-12.0529
▁اعجوبه	-12.0529
▁اعم	-12.0529
▁اغراق	-12.0529
▁افتاد.منبع	-12.0529
▁افتاد،	-12.0529
▁افتادند	-12.0529
▁افتخارآفرینی	-12.0529
▁افتد.	-12.0529
▁افترا	-12.0529
▁افراطی	-12.0529
▁افزوده:	-12.0529
▁افشاری	-12.0529
▁افشاگری	-12.0529
▁افعی	-12.0529
▁افغانستاندر	-12.0529
▁افقی	-12.0529
▁افکنی	-12.0529
▁اقای	-12.0529
▁اقتباسی	-12.0529
▁اقتصادی'	-12.0529
▁اقدامی،	-12.0529
▁اقیانوسیه؛	-12.0529
▁الاحواز	-12.0529
▁التحریر	-12.0529
▁الجزایر	-12.0529
▁الخروجی	-12.0529
▁السیر	-12.0529
▁الشرطه	-12.0529
▁العاده.	-12.0529
▁الفبا	-12.0529
▁المستقبلدادگاه	-12.0529
▁المللی،	-12.0529
▁المپیادی	-12.0529
▁الکترود	-12.0529
▁الکترودها	-12.0529
▁الگو	-12.0529
▁الیزه	-12.0529
▁الیس	-12.0529
▁امتحانات	-12.0529
▁امداد	-12.0529
▁امریکایی	-12.0529
▁امکاناتی	-12.0529
▁امیدورایم	-12.0529
▁امیلی	-12.0529
▁انباری	-12.0529
▁انتشارات	-12.0529
▁انتقالاتی	-12.0529
▁انتها	-12.0529
▁انجامید.	-12.0529
▁انجیر	-12.0529
▁اند.اندی	-12.0529
▁اند.برگزاری	-12.0529
▁اند.بسیاری	-12.0529
▁اند.خبرگزاری	-12.0529
▁اند.شاپی	-12.0529
▁اند.فدراسیون	-12.0529
▁اند.فرین	-12.0529
▁اند.قیمت	-12.0529
▁اند.محققان	-12.0529
▁اند.وزارت	-12.0529
▁اندازیم	-12.0529
▁اندایران	-12.0529
▁اندبا	-12.0529
▁اندرلخت	-12.0529
▁اندروز	-12.0529
▁اندروید	-12.0529
▁اندوخته	-12.0529
▁اندوزی	-12.0529
▁اندومبله	-12.0529
▁اندپس	-12.0529
▁انطباق	-12.0529
▁انظار	-12.0529
▁انقباض	-12.0529
▁انقلاب،	-12.0529
▁انگاری	-12.0529
▁انگشتر	-12.0529
▁انگلی	-12.0529
▁انگلیس،	-12.0529
▁انگلیس؛	-12.0529
▁انگلیسی،	-12.0529
▁انگیس	-12.0529
▁اهرم	-12.0529
▁اهواز،	-12.0529
▁اوبر؛	-12.0529
▁اوتارسون	-12.0529
▁اورانگوتان	-12.0529
▁اورخون	-12.0529
▁اوروگوئه	-12.0529
▁اولا	-12.0529
▁اولویتهایی	-12.0529
▁اونو	-12.0529
▁اوپراتور	-12.0529
▁اوکادو	-12.0529
▁اپرایی	-12.0529
▁اپلیکیشنی	-12.0529
▁اژه	-12.0529
▁اکتشافات	-12.0529
▁اکراه	-12.0529
▁اکسیوس	-12.0529
▁اگنس	-12.0529
▁ایتالیاییمنبع	-12.0529
▁ایدالگو	-12.0529
▁ایرانبه	-12.0529
▁ایرفرانس	-12.0529
▁ایرنا،	-12.0529
▁ایرویز	-12.0529
▁ایزدی	-12.0529
▁ایستاد.این	-12.0529
▁ایستادن	-12.0529
▁ایستادگی	-12.0529
▁ایستند	-12.0529
▁ایستگاهی	-12.0529
▁ایلام	-12.0529
▁ایلام،	-12.0529
▁این،	-12.0529
▁اینحال	-12.0529
▁ایندین	-12.0529
▁اینستاگرام،	-12.0529
▁بابویه	-12.0529
▁باثبات	-12.0529
▁باخبر	-12.0529
▁باخت.لیورپولِ	-12.0529
▁باختمنبع	-12.0529
▁باختن	-12.0529
▁باختند.	-12.0529
▁باخرید	-12.0529
▁بار.	-12.0529
▁بارسلونا،	-12.0529
▁بارسلونا؛	-12.0529
▁بارهای	-12.0529
▁باروک	-12.0529
▁بارگذاری	-12.0529
▁بازخواست	-12.0529
▁بازخواهد	-12.0529
▁بازده	-12.0529
▁بازرگانان	-12.0529
▁بازنده.	-12.0529
▁بازنویسی	-12.0529
▁بازنگشتن	-12.0529
▁بازهای	-12.0529
▁بازوبند	-12.0529
▁بازپس	-12.0529
▁بازکنند	-12.0529
▁بازیها	-12.0529
▁بازیچه	-12.0529
▁بازیکنان.منبع	-12.0529
▁بازیکنانشان	-12.0529
▁باستیل	-12.0529
▁باشد.با	-12.0529
▁باشد.به	-12.0529
▁باشندمنبع	-12.0529
▁باشگاهش	-12.0529
▁باغی	-12.0529
▁بالاتر.	-12.0529
▁بالاست؟منبع	-12.0529
▁بالاگرفتن	-12.0529
▁بالاگه	-12.0529
▁بام	-12.0529
▁بامیه	-12.0529
▁بانوی	-12.0529
▁بانکداری	-12.0529
▁بانکوک	-12.0529
▁باکاملا	-12.0529
▁باکسل	-12.0529
▁بایرنی	-12.0529
▁بایستند	-12.0529
▁بایستند.	-12.0529
▁بایستی	-12.0529
▁بایکونور	-12.0529
▁ببینم	-12.0529
▁ببینم.	-12.0529
▁بحرینفدراسیون	-12.0529
▁بخارا	-12.0529
▁بخشد.	-12.0529
▁بخوانید.	-12.0529
▁بدحساب	-12.0529
▁بدرستی	-12.0529
▁بدرقه	-12.0529
▁بدشانس	-12.0529
▁بدقواره	-12.0529
▁بدلیل	-12.0529
▁بدنام	-12.0529
▁بدنسازی	-12.0529
▁بدنشان.	-12.0529
▁بدهد.جانی	-12.0529
▁بدهد.منبع	-12.0529
▁بدهیم.	-12.0529
▁بدو	-12.0529
▁بدیع	-12.0529
▁بدیل	-12.0529
▁بدیهی	-12.0529
▁بذرها	-12.0529
▁برآوردها	-12.0529
▁براثر	-12.0529
▁بران؛	-12.0529
▁برانگیخت.	-12.0529
▁برانگیزترین	-12.0529
▁برت	-12.0529
▁برتن	-12.0529
▁برجاممنبع	-12.0529
▁برجستگی	-12.0529
▁برخاسته	-12.0529
▁برخط	-12.0529
▁برخورددهنده	-12.0529
▁برخوردی	-12.0529
▁بردارد.	-12.0529
▁بردارم.	-12.0529
▁برداشتی	-12.0529
▁بردرومن	-12.0529
▁بردمنبع	-12.0529
▁بردنشان	-12.0529
▁برزیلی؛	-12.0529
▁برساند؛	-12.0529
▁برسانیم.	-12.0529
▁برسد.پیش	-12.0529
▁برسد؛	-12.0529
▁برسدمنبع	-12.0529
▁برسیم.	-12.0529
▁برش	-12.0529
▁برنابئو	-12.0529
▁برنتفورد	-12.0529
▁برنج	-12.0529
▁برهه	-12.0529
▁برو	-12.0529
▁بروند.به	-12.0529
▁برگر	-12.0529
▁برگردیم؛	-12.0529
▁برگیرنده	-12.0529
▁بریده	-12.0529
▁بریز	-12.0529
▁بریک	-12.0529
▁بزرگ؛	-12.0529
▁بزرگسالی	-12.0529
▁بزنند.	-12.0529
▁بسادگی	-12.0529
▁بسط	-12.0529
▁بشر،	-12.0529
▁بشناسد.	-12.0529
▁بشود	-12.0529
▁بعلت	-12.0529
▁بغل	-12.0529
▁بفرستد	-12.0529
▁بفروشد.	-12.0529
▁بلافصل	-12.0529
▁بلاگر	-12.0529
▁بلای	-12.0529
▁بلر	-12.0529
▁بلندقدترین	-12.0529
▁بلندهای	-12.0529
▁بلندپروازی	-12.0529
▁بلومر	-12.0529
▁بلوک	-12.0529
▁بلید	-12.0529
▁بمبئی	-12.0529
▁بمیرد	-12.0529
▁بنام	-12.0529
▁بناونت	-12.0529
▁بندد	-12.0529
▁بنرهای	-12.0529
▁بنزینآثار	-12.0529
▁بنزینمنبع	-12.0529
▁بنویس	-12.0529
▁بنیانگذاران	-12.0529
▁بنیتس	-12.0529
▁بهزیستی	-12.0529
▁بهمنیار	-12.0529
▁بود.آیت	-12.0529
▁بود.اخیرا	-12.0529
▁بود.از	-12.0529
▁بود.البته	-12.0529
▁بود.دولت	-12.0529
▁بود.سیامک	-12.0529
▁بود.شرکت	-12.0529
▁بود.علیرضا	-12.0529
▁بود.منظور	-12.0529
▁بود.هدف	-12.0529
▁بود.همزمان	-12.0529
▁بود.پیشتر	-12.0529
▁بود.یونایتد	-12.0529
▁بودایران	-12.0529
▁بوداین	-12.0529
▁بودجه،	-12.0529
▁بودند.آرامکو	-12.0529
▁بودند.امروز	-12.0529
▁بودند.تنها	-12.0529
▁بودند.در	-12.0529
▁بودند.مراحل	-12.0529
▁بودند.پس	-12.0529
▁بودندخانم	-12.0529
▁بوده؟	-12.0529
▁بودکمیته	-12.0529
▁بورس:	-12.0529
▁بورسی	-12.0529
▁بورسیا	-12.0529
▁بورلمنبع	-12.0529
▁بورنموث	-12.0529
▁بورگارل	-12.0529
▁بوستان	-12.0529
▁بوسه	-12.0529
▁بوها	-12.0529
▁بوچانی؛	-12.0529
▁بوکر	-12.0529
▁بوکسینگ	-12.0529
▁بویینگ	-12.0529
▁بپردازد.منبع	-12.0529
▁بپیوندد	-12.0529
▁بکند	-12.0529
▁بکند.	-12.0529
▁بکنند	-12.0529
▁بگفته	-12.0529
▁بیاندازد	-12.0529
▁بیاورد	-12.0529
▁بیایند	-12.0529
▁بیتل	-12.0529
▁بیروتمنبع	-12.0529
▁بیشتراز	-12.0529
▁بیضایی	-12.0529
▁بینند.اتفاقات	-12.0529
▁بینید.	-12.0529
▁بیو	-12.0529
▁بیواِن	-12.0529
▁بیولوژی	-12.0529
▁بیکارشدگان	-12.0529
▁بیکر	-12.0529
▁تأثیرگذار	-12.0529
▁تأسیسات	-12.0529
▁تابع	-12.0529
▁تابلوهای	-12.0529
▁تاتنهام،	-12.0529
▁تاثیرات	-12.0529
▁تاجدین	-12.0529
▁تاجیکان	-12.0529
▁تاجیکستان،	-12.0529
▁تاخیری	-12.0529
▁تاریخ،	-12.0529
▁تازی	-12.0529
▁تافته	-12.0529
▁تامینی	-12.0529
▁تاکیدی	-12.0529
▁تایسون-جونز؛	-12.0529
▁تایلندی	-12.0529
▁تاییید	-12.0529
▁تبادلات	-12.0529
▁تباری	-12.0529
▁تباهی	-12.0529
▁تبیین	-12.0529
▁تجارب	-12.0529
▁تجارت،	-12.0529
▁تجارتی	-12.0529
▁تجسسی	-12.0529
▁تجسمی	-12.0529
▁تجمعاتی	-12.0529
▁تحریف	-12.0529
▁تحقیقاتش	-12.0529
▁تحیت	-12.0529
▁تختی	-12.0529
▁تخلفاتی،	-12.0529
▁تخمک	-12.0529
▁تدارکات	-12.0529
▁تدافعی	-12.0529
▁تدروس	-12.0529
▁ترائوره	-12.0529
▁ترات	-12.0529
▁ترازنامه	-12.0529
▁ترامپ:	-12.0529
▁تراپ	-12.0529
▁تراژیک	-12.0529
▁ترتیبی	-12.0529
▁ترحیم	-12.0529
▁ترشح	-12.0529
▁تره	-12.0529
▁تروریستی'	-12.0529
▁تریلر	-12.0529
▁ترین'	-12.0529
▁ترینی	-12.0529
▁تریک	-12.0529
▁تز	-12.0529
▁تسخیر	-12.0529
▁تسهیلاتی	-12.0529
▁تسویه	-12.0529
▁تشخیصی،	-12.0529
▁تشریفات	-12.0529
▁تشعشعات	-12.0529
▁تصویرگری	-12.0529
▁تضمینی	-12.0529
▁تضییع	-12.0529
▁تطابق	-12.0529
▁تظاهر	-12.0529
▁تعاریف	-12.0529
▁تعریضی	-12.0529
▁تعلیقی	-12.0529
▁تعلیمی	-12.0529
▁تعمیراتی	-12.0529
▁تعهداتمان	-12.0529
▁تعهدی	-12.0529
▁تغییرهایی	-12.0529
▁تفاهمی	-12.0529
▁تفلیس	-12.0529
▁تقاضاهای	-12.0529
▁تقبیح	-12.0529
▁تلخی	-12.0529
▁تلگرامی	-12.0529
▁تماسی	-12.0529
▁تماشگران	-12.0529
▁تمسخر	-12.0529
▁تملیکی	-12.0529
▁تمهیدات	-12.0529
▁تندروهای	-12.0529
▁تنزل	-12.0529
▁تنسی	-12.0529
▁تنه	-12.0529
▁تنگاتنگی	-12.0529
▁ته	-12.0529
▁تهراناز	-12.0529
▁تهمت	-12.0529
▁تواضع	-12.0529
▁توافقات	-12.0529
▁توالی	-12.0529
▁توانبخشی	-12.0529
▁توانیر	-12.0529
▁توجیهی	-12.0529
▁توحیدی	-12.0529
▁تورین	-12.0529
▁توزیعی	-12.0529
▁تولیدشان	-12.0529
▁تومانی'	-12.0529
▁توپی	-12.0529
▁تِک	-12.0529
▁تکاوری	-12.0529
▁تکخوانی	-12.0529
▁تیبو	-12.0529
▁تیزر	-12.0529
▁تیم؛	-12.0529
▁تیپ	-12.0529
▁ثابتی	-12.0529
▁ثروتمندتر	-12.0529
▁جابجا	-12.0529
▁جامائیکایی	-12.0529
▁جاماییکایی	-12.0529
▁جانشینی	-12.0529
▁جاه	-12.0529
▁جاودان	-12.0529
▁جاییکه	-12.0529
▁جبرانی	-12.0529
▁جداسازی	-12.0529
▁جده	-12.0529
▁جدیدتر	-12.0529
▁جدیدشان	-12.0529
▁جدیدمنبع	-12.0529
▁جراحات	-12.0529
▁جراحاناخیرا	-12.0529
▁جروم	-12.0529
▁جسته	-12.0529
▁جغرافیای	-12.0529
▁جلساتی	-12.0529
▁جمعیتش	-12.0529
▁جمل	-12.0529
▁جمله،	-12.0529
▁جمله؛	-12.0529
▁جناحی	-12.0529
▁جنگنده	-12.0529
▁جهانگیری:	-12.0529
▁جهشی	-12.0529
▁جو،	-12.0529
▁جوانب	-12.0529
▁جودوکای	-12.0529
▁جوزا	-12.0529
▁جوزجان	-12.0529
▁جویانه	-12.0529
▁جویای	-12.0529
▁جگوار	-12.0529
▁جیدن	-12.0529
▁جیره	-12.0529
▁جیوه	-12.0529
▁حائز	-12.0529
▁حائل	-12.0529
▁حارجه	-12.0529
▁حاضریم	-12.0529
▁حالش	-12.0529
▁حالم	-12.0529
▁حرمت	-12.0529
▁حریت	-12.0529
▁حریری	-12.0529
▁حریفی	-12.0529
▁حسابرسی	-12.0529
▁حساسیتی	-12.0529
▁حسرتی	-12.0529
▁حسی	-12.0529
▁حسینعلی	-12.0529
▁حشد	-12.0529
▁حشرات	-12.0529
▁حضورشان	-12.0529
▁حفر	-12.0529
▁حلب	-12.0529
▁حمیدزیچ	-12.0529
▁حمیرا	-12.0529
▁حوادثی	-12.0529
▁حوت	-12.0529
▁حوله	-12.0529
▁حکیمی	-12.0529
▁حیواناتی	-12.0529
▁خادمی	-12.0529
▁خاطراتی	-12.0529
▁خالدی	-12.0529
▁خان،	-12.0529
▁خانموسیقی	-12.0529
▁خانودوزی	-12.0529
▁خاویر	-12.0529
▁خاکستر	-12.0529
▁خاکستری	-12.0529
▁خبردار	-12.0529
▁خبرست	-12.0529
▁خداحافظ	-12.0529
▁خدایاری،	-12.0529
▁خرابکارانه	-12.0529
▁خرابی	-12.0529
▁خراردو	-12.0529
▁خردپیر	-12.0529
▁خرمشهر،	-12.0529
▁خرند	-12.0529
▁خرند؛	-12.0529
▁خروشان	-12.0529
▁خرید.	-12.0529
▁خشکبار	-12.0529
▁خصمانه	-12.0529
▁خطبه	-12.0529
▁خطور	-12.0529
▁خطوطی	-12.0529
▁خلاصی	-12.0529
▁خلع	-12.0529
▁خنک	-12.0529
▁خوابیده	-12.0529
▁خوارزمی	-12.0529
▁خواری	-12.0529
▁خواند.افغانستان	-12.0529
▁خواند.باشگاه	-12.0529
▁خودخواسته	-12.0529
▁خودخواهانه،	-12.0529
▁خودرساز	-12.0529
▁خودرویی	-12.0529
▁خورد،	-12.0529
▁خورشید.	-12.0529
▁خورند	-12.0529
▁خوشبو	-12.0529
▁خوشبین	-12.0529
▁خونه	-12.0529
▁خویشتن	-12.0529
▁داد.ایران	-12.0529
▁داد.بیشتر	-12.0529
▁داد.پیمان	-12.0529
▁داد:	-12.0529
▁دادتیم	-12.0529
▁دادخواستی	-12.0529
▁دادم.	-12.0529
▁دادن،	-12.0529
▁دادند.بیژن	-12.0529
▁دارالامان	-12.0529
▁دارد.اما	-12.0529
▁دارد.بر	-12.0529
▁دارد.دولت	-12.0529
▁دارد.محمود	-12.0529
▁دارد.همیلتون	-12.0529
▁دارم.	-12.0529
▁دارند.از	-12.0529
▁دارند.در	-12.0529
▁داسگوپتا	-12.0529
▁داشت.رئیس	-12.0529
▁داشت.فدراسیون	-12.0529
▁داشت.کلوپ	-12.0529
▁داشتن'	-12.0529
▁داشتند.قسمت	-12.0529
▁داشته،	-12.0529
▁داشته؛	-12.0529
▁داشتهمنبع	-12.0529
▁داشتیم.او	-12.0529
▁داغدار	-12.0529
▁داغستانی	-12.0529
▁دالان	-12.0529
▁دالگلیش	-12.0529
▁دامان	-12.0529
▁دانست.منبع	-12.0529
▁دانشجویانی	-12.0529
▁دانشمندانی	-12.0529
▁دانشمندی	-12.0529
▁دانشنامه	-12.0529
▁دانند.سازمان	-12.0529
▁دانند.منبع	-12.0529
▁دانیال	-12.0529
▁دانیممنبع	-12.0529
▁دایره	-12.0529
▁دایک؟منبع	-12.0529
▁دبروینه	-12.0529
▁دبی	-12.0529
▁دبیرستانی	-12.0529
▁دبیلو	-12.0529
▁دخترشاولیویا	-12.0529
▁درآمدن	-12.0529
▁درآوردمنبع	-12.0529
▁درازی	-12.0529
▁دربی	-12.0529
▁درتیم	-12.0529
▁درخشید	-12.0529
▁درخصوص	-12.0529
▁دردناکی	-12.0529
▁دردی	-12.0529
▁درصورت	-12.0529
▁درعرصه	-12.0529
▁درمیان.	-12.0529
▁درنظر	-12.0529
▁درنگ	-12.0529
▁درنیامده	-12.0529
▁درو	-12.0529
▁دروه	-12.0529
▁درپی	-12.0529
▁درکی	-12.0529
▁درگذشتدرگذشت	-12.0529
▁درگذشتعلی	-12.0529
▁دزفول،	-12.0529
▁دستاوردهایش	-12.0529
▁دستاوردهایی	-12.0529
▁دستخوش	-12.0529
▁دستشان	-12.0529
▁دستشویی	-12.0529
▁دستهاش	-12.0529
▁دستورالعملی	-12.0529
▁دستگیره	-12.0529
▁دعایی	-12.0529
▁دفترچه	-12.0529
▁دق	-12.0529
▁دلال	-12.0529
▁دلتا	-12.0529
▁دلجویی	-12.0529
▁دلم	-12.0529
▁دلمان	-12.0529
▁دلگرم	-12.0529
▁دموکراسی	-12.0529
▁دنبالش	-12.0529
▁دنباله	-12.0529
▁دنور	-12.0529
▁دنیا.	-12.0529
▁دنیایی	-12.0529
▁دهانی	-12.0529
▁دهد'منبع	-12.0529
▁دهد.انجمن	-12.0529
▁دهد.او	-12.0529
▁دهد.با	-12.0529
▁دهد.گل	-12.0529
▁دهشت	-12.0529
▁دهکهای	-12.0529
▁دوئل	-12.0529
▁دوا	-12.0529
▁دوازدهمین	-12.0529
▁دورانگو	-12.0529
▁دورهمی	-12.0529
▁دوسال	-12.0529
▁دوستانم	-12.0529
▁دوستانی	-12.0529
▁دوستت	-12.0529
▁دوشنبه،	-12.0529
▁دوقلوها	-12.0529
▁دولت،	-12.0529
▁دوهفته	-12.0529
▁دوور	-12.0529
▁دوچندان	-12.0529
▁دپارتمان	-12.0529
▁دچارش	-12.0529
▁دکترا	-12.0529
▁دکترای	-12.0529
▁دکترها	-12.0529
▁دکترین	-12.0529
▁دگراندیش	-12.0529
▁دیتر	-12.0529
▁دید؛	-12.0529
▁دیدم.	-12.0529
▁دیدند.	-12.0529
▁دیدنش	-12.0529
▁دیده،	-12.0529
▁دیری	-12.0529
▁دیفندر	-12.0529
▁دیو	-12.0529
▁دیوارها	-12.0529
▁دیک	-12.0529
▁دیگر.	-12.0529
▁دیگرش	-12.0529
▁ذات	-12.0529
▁ذبیح	-12.0529
▁ذرت	-12.0529
▁ذوالنوری	-12.0529
▁ذوزنقه	-12.0529
▁ذوق	-12.0529
▁ذیصلاح	-12.0529
▁رئیسان	-12.0529
▁رائول	-12.0529
▁راث	-12.0529
▁رادیکال	-12.0529
▁رافا	-12.0529
▁رامش؛	-12.0529
▁رامهرمز،	-12.0529
▁رامیرز	-12.0529
▁راندی	-12.0529
▁رانندگانش	-12.0529
▁راهبری	-12.0529
▁راهور	-12.0529
▁راهکارهایی	-12.0529
▁راهیابی	-12.0529
▁راوی	-12.0529
▁راکت	-12.0529
▁راکتی	-12.0529
▁رباتیک	-12.0529
▁ربوده	-12.0529
▁رجیس	-12.0529
▁رحمان،	-12.0529
▁رحمی	-12.0529
▁رخنه	-12.0529
▁رزمنده	-12.0529
▁رزوکی	-12.0529
▁رساند.مجتبی	-12.0529
▁رسد.در	-12.0529
▁رسید.شرکت	-12.0529
▁رسید،	-12.0529
▁رسیدبا	-12.0529
▁رسیدندمایک	-12.0529
▁رسیدندیک	-12.0529
▁رسیده.	-12.0529
▁رسیده،	-12.0529
▁رعب	-12.0529
▁رفت؛	-12.0529
▁رفته،	-12.0529
▁رفسنجان	-12.0529
▁رفیعی	-12.0529
▁رقیبان	-12.0529
▁رقیق	-12.0529
▁رمزارزهامنبع	-12.0529
▁رنگدکتر	-12.0529
▁رهایش	-12.0529
▁رهن	-12.0529
▁روانشناس	-12.0529
▁روباه	-12.0529
▁روبلف	-12.0529
▁روتردام	-12.0529
▁روث	-12.0529
▁روحانی.	-12.0529
▁رود.این	-12.0529
▁رودی	-12.0529
▁روز،	-12.0529
▁روزافزون	-12.0529
▁روزافزونی	-12.0529
▁روزانه،	-12.0529
▁روزتی	-12.0529
▁روزرسانی	-12.0529
▁روزنه	-12.0529
▁روستاهای	-12.0529
▁روسپی	-12.0529
▁روسیه:	-12.0529
▁روشنفکری	-12.0529
▁روشهای	-12.0529
▁روغنی	-12.0529
▁رونده	-12.0529
▁رویاها	-12.0529
▁رویترز:	-12.0529
▁رویش	-12.0529
▁رویکردش	-12.0529
▁رویکردهای	-12.0529
▁رکودی	-12.0529
▁ریباند	-12.0529
▁ریتراتو	-12.0529
▁ریتم	-12.0529
▁ریدلی	-12.0529
▁ریودوژانیرو	-12.0529
▁ریورا،	-12.0529
▁ریچاردز	-12.0529
▁ریکا	-12.0529
▁زادبوم	-12.0529
▁زادروز	-12.0529
▁زارها	-12.0529
▁زالی،	-12.0529
▁زاها	-12.0529
▁زبانان	-12.0529
▁زد.آقای	-12.0529
▁زد؛	-12.0529
▁زدم	-12.0529
▁زدندلیورپول	-12.0529
▁زدنی	-12.0529
▁زده.	-12.0529
▁زدودن	-12.0529
▁زراعتی	-12.0529
▁زریاب،	-12.0529
▁زشت	-12.0529
▁زمام	-12.0529
▁زمانبندی	-12.0529
▁زمانیکه	-12.0529
▁زمره	-12.0529
▁زمین؛	-12.0529
▁زنان،	-12.0529
▁زند.منبع	-12.0529
▁زندانمنبع	-12.0529
▁زندگی.	-12.0529
▁زنم	-12.0529
▁زنند.	-12.0529
▁زنیهای	-12.0529
▁زهی	-12.0529
▁زکریا	-12.0529
▁زگیل	-12.0529
▁زی	-12.0529
▁زیباست	-12.0529
▁زیدآبادی	-12.0529
▁زیرپوش	-12.0529
▁زیست؟منبع	-12.0529
▁زینب	-12.0529
▁ساختند	-12.0529
▁ساختند.	-12.0529
▁ساری،	-12.0529
▁سازد؟منبع	-12.0529
▁سازماندهی	-12.0529
▁سازمانها	-12.0529
▁سازگار	-12.0529
▁ساسانیان	-12.0529
▁سالش	-12.0529
▁سالمند	-12.0529
▁سالمندان.	-12.0529
▁سالمندی	-12.0529
▁ساله،	-12.0529
▁ساموئل	-12.0529
▁سانتا	-12.0529
▁سانچی	-12.0529
▁سانی	-12.0529
▁ساوتهمپتون	-12.0529
▁ساچمه	-12.0529
▁ساکت	-12.0529
▁ست.آقای	-12.0529
▁ستار	-12.0529
▁ستد	-12.0529
▁ستیزه	-12.0529
▁سخنرانان	-12.0529
▁سخنگو	-12.0529
▁سرآغاز	-12.0529
▁سراغش	-12.0529
▁سرامیک	-12.0529
▁سرانه	-12.0529
▁سراوانهجوم	-12.0529
▁سراینده	-12.0529
▁سرخرگ	-12.0529
▁سردرگم	-12.0529
▁سردی	-12.0529
▁سرسبز	-12.0529
▁سرلشکر	-12.0529
▁سرمربیان	-12.0529
▁سرمی	-12.0529
▁سرنخ	-12.0529
▁سرهنگ	-12.0529
▁سرودن	-12.0529
▁سروستانی	-12.0529
▁سروصدا	-12.0529
▁سرکار	-12.0529
▁سرگذاشتن	-12.0529
▁سریعتر	-12.0529
▁سرینا	-12.0529
▁سعد	-12.0529
▁سعداوی	-12.0529
▁سغدی	-12.0529
▁سفرهایی	-12.0529
▁سفیدپوستان	-12.0529
▁سقوطی	-12.0529
▁سلامتش	-12.0529
▁سلمان،	-12.0529
▁سمتی	-12.0529
▁سمعک	-12.0529
▁سمعی	-12.0529
▁سمنزا	-12.0529
▁سموم	-12.0529
▁سمی	-12.0529
▁سمیعی	-12.0529
▁سن؛	-12.0529
▁سنتنفت	-12.0529
▁سنج	-12.0529
▁سنندج	-12.0529
▁سهامی	-12.0529
▁سواد	-12.0529
▁سوبرانا	-12.0529
▁سوتا	-12.0529
▁سوختهای	-12.0529
▁سوختگی	-12.0529
▁سودآور	-12.0529
▁سوره	-12.0529
▁سوز	-12.0529
▁سوزاندن	-12.0529
▁سوسیالیستی	-12.0529
▁سوفیا	-12.0529
▁سومالی	-12.0529
▁سونامی	-12.0529
▁سونکو	-12.0529
▁سونگ	-12.0529
▁سوپ	-12.0529
▁سوپرکار	-12.0529
▁سپاسی	-12.0529
▁سکس	-12.0529
▁سکوهای	-12.0529
▁سیار	-12.0529
▁سیارات	-12.0529
▁سیاستمداران.	-12.0529
▁سیاستی	-12.0529
▁سیب	-12.0529
▁سیدنیمنبع	-12.0529
▁سیدیبه	-12.0529
▁سیف،	-12.0529
▁سیلوا	-12.0529
▁سیلک	-12.0529
▁سیمین	-12.0529
▁سیناپس	-12.0529
▁سیندمیک	-12.0529
▁سیکو	-12.0529
▁سیگاری	-12.0529
▁شادگان،	-12.0529
▁شار	-12.0529
▁شاعرانی	-12.0529
▁شامپانزه	-12.0529
▁شامگاه	-12.0529
▁شانزه	-12.0529
▁شاهان	-12.0529
▁شاهدخت	-12.0529
▁شاهکارهای	-12.0529
▁شبانه؛	-12.0529
▁شبح	-12.0529
▁شبنم	-12.0529
▁شجاعانه	-12.0529
▁شجریان؛	-12.0529
▁شجریاندر	-12.0529
▁شد.استقلال	-12.0529
▁شد.امیر	-12.0529
▁شد.انتظار	-12.0529
▁شد.بر	-12.0529
▁شد.ترکیه	-12.0529
▁شد.توییتر	-12.0529
▁شد.حدود	-12.0529
▁شد.حمید	-12.0529
▁شد.دولت	-12.0529
▁شد.شرکت	-12.0529
▁شد.همیلتون	-12.0529
▁شد.کمیته	-12.0529
▁شد.گزارش	-12.0529
▁شد.گفته	-12.0529
▁شدبا	-12.0529
▁شدتیم	-12.0529
▁شدنخستین	-12.0529
▁شدند.افزایش	-12.0529
▁شدند.بلژیکی	-12.0529
▁شدند.دادگاه	-12.0529
▁شدند.فرامرز	-12.0529
▁شدند.کمیته	-12.0529
▁شده.این	-12.0529
▁شرعی	-12.0529
▁شرعیات	-12.0529
▁شرودر	-12.0529
▁شریعتمداری	-12.0529
▁شعبی	-12.0529
▁شغال	-12.0529
▁شغلها	-12.0529
▁شغلهای	-12.0529
▁شفیعی	-12.0529
▁شلبی	-12.0529
▁شلوار	-12.0529
▁شمایلی	-12.0529
▁شمسر	-12.0529
▁شمش	-12.0529
▁شناختند.	-12.0529
▁شناسانه	-12.0529
▁شناسیم	-12.0529
▁شنویم	-12.0529
▁شنید.	-12.0529
▁شنیدم	-12.0529
▁شهریور)	-12.0529
▁شهلا	-12.0529
▁شهناز	-12.0529
▁شواری	-12.0529
▁شوالیه	-12.0529
▁شود'محمود	-12.0529
▁شود.حدود	-12.0529
▁شود.دولت	-12.0529
▁شود.دکتر	-12.0529
▁شود.رقابت	-12.0529
▁شود.سازمان	-12.0529
▁شود.صندوق	-12.0529
▁شود.عبدالناصر	-12.0529
▁شود.محمد	-12.0529
▁شود.پیش	-12.0529
▁شود.پیشتر	-12.0529
▁شود.کیوان	-12.0529
▁شود.گسترش	-12.0529
▁شود:	-12.0529
▁شودرسانه	-12.0529
▁شودسازمان	-12.0529
▁شودنشست	-12.0529
▁شودیک	-12.0529
▁شوراها	-12.0529
▁شورشیان	-12.0529
▁شوشتر،	-12.0529
▁شوند.آقای	-12.0529
▁شوند:	-12.0529
▁شونده	-12.0529
▁شوهر	-12.0529
▁شویی	-12.0529
▁شکارچی	-12.0529
▁شکارچیان	-12.0529
▁شکند.	-12.0529
▁شگردهای	-12.0529
▁شیرها	-12.0529
▁شیلد	-12.0529
▁صادقی،	-12.0529
▁صافی	-12.0529
▁صحبتها	-12.0529
▁صحرا	-12.0529
▁صدابرداری	-12.0529
▁صداپیشه	-12.0529
▁صدایشان	-12.0529
▁صدهزار	-12.0529
▁صراحتا	-12.0529
▁صرع	-12.0529
▁صعودش	-12.0529
▁صفاری	-12.0529
▁صفهای	-12.0529
▁صفی	-12.0529
▁صمد	-12.0529
▁صهیونیستی	-12.0529
▁صورت،	-12.0529
▁صورتیکه	-12.0529
▁ضخیم	-12.0529
▁ضرابخانه	-12.0529
▁ضرایب	-12.0529
▁ضرری	-12.0529
▁ضرغام	-12.0529
▁ضمیر	-12.0529
▁طاق	-12.0529
▁طاقت	-12.0529
▁طراحان	-12.0529
▁طرفداری	-12.0529
▁طعمه	-12.0529
▁طعنه	-12.0529
▁طوطی	-12.0529
▁طیور	-12.0529
▁ظاهرشاه	-12.0529
▁ظفر	-12.0529
▁عابران	-12.0529
▁عاطفی	-12.0529
▁عاقبت	-12.0529
▁عالمی،	-12.0529
▁عبادی	-12.0529
▁عباسعلی	-12.0529
▁عبدالرحمان	-12.0529
▁عبدالعلی	-12.0529
▁عبدل	-12.0529
▁عذر	-12.0529
▁عراق.	-12.0529
▁عراقچی،	-12.0529
▁عربستان؛	-12.0529
▁عرشه	-12.0529
▁عریان	-12.0529
▁عزمی	-12.0529
▁عزیزالله	-12.0529
▁عصب	-12.0529
▁عطاالله	-12.0529
▁عطرسازان	-12.0529
▁عطرسازها	-12.0529
▁عطرهای	-12.0529
▁عظمت	-12.0529
▁علامتهایی	-12.0529
▁علنا	-12.0529
▁علی،	-12.0529
▁علیاحضرت	-12.0529
▁علیشاهی	-12.0529
▁عمدا	-12.0529
▁عمری	-12.0529
▁عملکردش	-12.0529
▁عموهایم	-12.0529
▁عنابستانی	-12.0529
▁عناوینی	-12.0529
▁عنصری	-12.0529
▁عنوانش	-12.0529
▁عهدنامه	-12.0529
▁عواطف	-12.0529
▁عوام	-12.0529
▁عکسبرداری	-12.0529
▁عکسش	-12.0529
▁عیب	-12.0529
▁عید،	-12.0529
▁عینا	-12.0529
▁غائله	-12.0529
▁غربت	-12.0529
▁غفاری	-12.0529
▁غلات	-12.0529
▁غمگین	-12.0529
▁غواصی	-12.0529
▁غیرایرانی	-12.0529
▁غیرعلنی	-12.0529
▁غیرفعال	-12.0529
▁غیرنظامیان	-12.0529
▁فائزه	-12.0529
▁فارس،	-12.0529
▁فاصل	-12.0529
▁فانتری	-12.0529
▁فاکتورهایی	-12.0529
▁فایر	-12.0529
▁فدائیان	-12.0529
▁فدارسیون	-12.0529
▁فدایی	-12.0529
▁فرابنفش	-12.0529
▁فرارسیدن	-12.0529
▁فرازمینی	-12.0529
▁فران	-12.0529
▁فرانس	-12.0529
▁فرانسه؛	-12.0529
▁فرانسهمنبع	-12.0529
▁فراهانی	-12.0529
▁فراپار	-12.0529
▁فرایندهای	-12.0529
▁فرحبخش	-12.0529
▁فردا،	-12.0529
▁فردای	-12.0529
▁فرزانه	-12.0529
▁فرزندانش	-12.0529
▁فرزندانشان	-12.0529
▁فرزندانی	-12.0529
▁فرستادمنبع	-12.0529
▁فرشید	-12.0529
▁فرما	-12.0529
▁فرمینو	-12.0529
▁فرودگاههای	-12.0529
▁فروشد	-12.0529
▁فروگذار	-12.0529
▁فرید	-12.0529
▁فضاسازی	-12.0529
▁فضاپیمایی	-12.0529
▁فعالانه	-12.0529
▁فعلی،	-12.0529
▁فغان	-12.0529
▁فلاتو	-12.0529
▁فلسطینی	-12.0529
▁فلسفی	-12.0529
▁فلورنتینو	-12.0529
▁فهمیده	-12.0529
▁فوایدش	-12.0529
▁فوب	-12.0529
▁فوتبال.اگر	-12.0529
▁فوتبال،	-12.0529
▁فوتبالست	-12.0529
▁فوتبالش	-12.0529
▁فوریتی	-12.0529
▁فیروزه	-12.0529
▁فیزیولوژی	-12.0529
▁فیض	-12.0529
▁فیفا؛	-12.0529
▁فیلسوفان	-12.0529
▁فیلم،	-12.0529
▁فیلمش	-12.0529
▁فیودور	-12.0529
▁قابلمه	-12.0529
▁قادرند	-12.0529
▁قادری	-12.0529
▁قاسمی،	-12.0529
▁قاشق	-12.0529
▁قالیباف،	-12.0529
▁قبرستان	-12.0529
▁قبل،	-12.0529
▁قبیله	-12.0529
▁قدترین	-12.0529
▁قرائت	-12.0529
▁قرائن	-12.0529
▁قراردادشان	-12.0529
▁قراردادها	-12.0529
▁قربان	-12.0529
▁قربانعلی	-12.0529
▁قرضه	-12.0529
▁قرمزهای	-12.0529
▁قرملی	-12.0529
▁قرچه	-12.0529
▁قضا	-12.0529
▁قطران	-12.0529
▁قعر	-12.0529
▁قلقلک	-12.0529
▁قمر	-12.0529
▁قناری	-12.0529
▁قناعت	-12.0529
▁قهرمانیمنبع	-12.0529
▁قوطی	-12.0529
▁قولی	-12.0529
▁قومیت	-12.0529
▁قیام	-12.0529
▁قیراطی	-12.0529
▁قیچی	-12.0529
▁لئوناردو	-12.0529
▁لائوس	-12.0529
▁لارنس	-12.0529
▁لالیگا.	-12.0529
▁لاهه،	-12.0529
▁لاورز	-12.0529
▁لایک	-12.0529
▁لت	-12.0529
▁لطیفی	-12.0529
▁لغزان	-12.0529
▁لمباردی	-12.0529
▁لنکس	-12.0529
▁لنگر	-12.0529
▁لوئیجی	-12.0529
▁لوب	-12.0529
▁لوح	-12.0529
▁لوحی	-12.0529
▁لوریس	-12.0529
▁لولا	-12.0529
▁لوکسی	-12.0529
▁لوین	-12.0529
▁لیتری	-12.0529
▁لیر	-12.0529
▁لیزه	-12.0529
▁لیلاز	-12.0529
▁لیم	-12.0529
▁لینگ	-12.0529
▁لیورپول،	-12.0529
▁مأمور	-12.0529
▁مابقی	-12.0529
▁ماتم	-12.0529
▁ماتیلا	-12.0529
▁ماجراهای	-12.0529
▁ماداگاسکار	-12.0529
▁مادون	-12.0529
▁مارسل	-12.0529
▁مارسلو	-12.0529
▁مارشال	-12.0529
▁مارکو	-12.0529
▁ماریان	-12.0529
▁ماریانا	-12.0529
▁ماسیورادزه	-12.0529
▁ماقبل	-12.0529
▁مالکانه	-12.0529
▁مالکین	-12.0529
▁مالیه	-12.0529
▁مامن	-12.0529
▁ماندم.	-12.0529
▁ماندمنبع	-12.0529
▁ماندگاری	-12.0529
▁مانی	-12.0529
▁ماهر	-12.0529
▁ماهشهر،	-12.0529
▁ماهمنبع	-12.0529
▁ماهگی	-12.0529
▁ماهیان	-12.0529
▁ماهیانه	-12.0529
▁ماورای	-12.0529
▁ماژلانی	-12.0529
▁مایایی	-12.0529
▁مبادلاتی	-12.0529
▁مبالغی	-12.0529
▁مبانی	-12.0529
▁مبشر	-12.0529
▁متخصصین	-12.0529
▁متخلفانه	-12.0529
▁مترجمان	-12.0529
▁مترجمی	-12.0529
▁مترقی	-12.0529
▁متشنج	-12.0529
▁متشکریم.	-12.0529
▁متضاد	-12.0529
▁متعادل	-12.0529
▁متقابل	-12.0529
▁متقابلا	-12.0529
▁متقاعد	-12.0529
▁متناوب	-12.0529
▁مته	-12.0529
▁متوسل	-12.0529
▁متوفیان	-12.0529
▁مثلثی	-12.0529
▁مثنوی	-12.0529
▁مجادلات	-12.0529
▁مجارستان	-12.0529
▁مجالس	-12.0529
▁مجرمان	-12.0529
▁مجلل	-12.0529
▁محافظان	-12.0529
▁محب	-12.0529
▁محبوبشان	-12.0529
▁محتوایی	-12.0529
▁محتکر	-12.0529
▁محرک	-12.0529
▁محصور	-12.0529
▁محفل	-12.0529
▁محققی	-12.0529
▁محمدهادی	-12.0529
▁محمودزاده،	-12.0529
▁محول	-12.0529
▁محکومیتش	-12.0529
▁مخاطبانش	-12.0529
▁مخالفتی	-12.0529
▁مختص	-12.0529
▁مخدوش	-12.0529
▁مخملباف	-12.0529
▁مداد	-12.0529
▁مدرنیسم	-12.0529
▁مدیرانی	-12.0529
▁مدیرعاملی	-12.0529
▁مدیرمسئول	-12.0529
▁مدیسون	-12.0529
▁مذاکرت	-12.0529
▁مذهبی،	-12.0529
▁مراجعان	-12.0529
▁مراعات	-12.0529
▁مرخص	-12.0529
▁مردم.	-12.0529
▁مردمم	-12.0529
▁مرزبندی	-12.0529
▁مرزی،	-12.0529
▁مرغی	-12.0529
▁مرندی	-12.0529
▁مرهم	-12.0529
▁مریض	-12.0529
▁مسئولانی	-12.0529
▁مسئولیتی	-12.0529
▁مسالمت	-12.0529
▁مستاجران	-12.0529
▁مستاجرین	-12.0529
▁مستحق	-12.0529
▁مستضعفان؛	-12.0529
▁مستعفی	-12.0529
▁مستندات	-12.0529
▁مستنکفین	-12.0529
▁مسجل	-12.0529
▁مسخره	-12.0529
▁مسلط	-12.0529
▁مسلمیار	-12.0529
▁مسوولیت	-12.0529
▁مسیرش	-12.0529
▁مشاغلی	-12.0529
▁مشام	-12.0529
▁مشاهدات	-12.0529
▁مشتاقان	-12.0529
▁مشترکان	-12.0529
▁مشروطیت	-12.0529
▁مشغولی	-12.0529
▁مشمولان	-12.0529
▁مشهورش	-12.0529
▁مشکوکی	-12.0529
▁مصادف	-12.0529
▁مصدق	-12.0529
▁مضاعفی	-12.0529
▁مضرات	-12.0529
▁مطالعاتی	-12.0529
▁مطبوع	-12.0529
▁مطمئنا	-12.0529
▁مطهر	-12.0529
▁معادلات	-12.0529
▁معادله	-12.0529
▁معاشرت	-12.0529
▁معاهدات	-12.0529
▁معاهده	-12.0529
▁معاونش	-12.0529
▁معبد	-12.0529
▁معتاد	-12.0529
▁معترضین	-12.0529
▁معتقدان	-12.0529
▁معجزه	-12.0529
▁معدنی	-12.0529
▁معذرت	-12.0529
▁معوق	-12.0529
▁مفسر	-12.0529
▁مقادیر	-12.0529
▁مقادیری	-12.0529
▁مقبره	-12.0529
▁مقتدر	-12.0529
▁مقرراتی	-12.0529
▁مقصدی	-12.0529
▁مقصران	-12.0529
▁ملموسی	-12.0529
▁ملوان	-12.0529
▁ملوانان	-12.0529
▁ملکشا	-12.0529
▁ملی،	-12.0529
▁ملی؟واکنش	-12.0529
▁ممتاز	-12.0529
▁ممد	-12.0529
▁منبعی	-12.0529
▁منتفع	-12.0529
▁منجی	-12.0529
▁منحصربه	-12.0529
▁منسجم	-12.0529
▁منصرف	-12.0529
▁منطق	-12.0529
▁منطقه،	-12.0529
▁منقضی	-12.0529
▁مه،	-12.0529
▁مهاجرتی	-12.0529
▁مهاجمانی	-12.0529
▁مهمتر	-12.0529
▁مهیب	-12.0529
▁موازات	-12.0529
▁موازات،	-12.0529
▁موانعی	-12.0529
▁موتسارت	-12.0529
▁موثرتر	-12.0529
▁موروثی	-12.0529
▁موریس	-12.0529
▁موریکونه	-12.0529
▁موزیکال	-12.0529
▁موساد	-12.0529
▁موسوی،	-12.0529
▁موسیقی،	-12.0529
▁موضعی	-12.0529
▁موعود	-12.0529
▁مولایی	-12.0529
▁مولف	-12.0529
▁مون	-12.0529
▁مونت	-12.0529
▁مچ	-12.0529
▁مکارمی	-12.0529
▁مکانیکی	-12.0529
▁میان،	-12.0529
▁میخانه	-12.0529
▁میرزایی	-12.0529
▁میرود.	-12.0529
▁میزنه	-12.0529
▁میسون	-12.0529
▁میشل	-12.0529
▁میشود	-12.0529
▁میلر	-12.0529
▁میلگرام	-12.0529
▁میلیونر	-12.0529
▁میلیونرتر	-12.0529
▁میناری	-12.0529
▁مینه	-12.0529
▁مینک	-12.0529
▁میهن	-12.0529
▁میکروسکوپی	-12.0529
▁نابرابر	-12.0529
▁ناترازی	-12.0529
▁ناتنی	-12.0529
▁ناجا	-12.0529
▁ناخدا	-12.0529
▁ناخن	-12.0529
▁نادال،	-12.0529
▁ناسازگار	-12.0529
▁ناسالم	-12.0529
▁ناشران	-12.0529
▁ناشیانه	-12.0529
▁نافذ	-12.0529
▁ناقضین	-12.0529
▁ناقل	-12.0529
▁نامداران	-12.0529
▁نامزده	-12.0529
▁نامم	-12.0529
▁ناپذیرها	-12.0529
▁ناگلزمان	-12.0529
▁نایک	-12.0529
▁نباشد.	-12.0529
▁نباشید	-12.0529
▁نبود.در	-12.0529
▁نبود.منبع	-12.0529
▁نبود.چهار	-12.0529
▁نبودند	-12.0529
▁نتانیاهو،	-12.0529
▁نتوانستم	-12.0529
▁نثر	-12.0529
▁نجوم	-12.0529
▁نجومی	-12.0529
▁نخواستند	-12.0529
▁نخوانده	-12.0529
▁ندادند.	-12.0529
▁ندارد.بازی	-12.0529
▁ندارد.توافق	-12.0529
▁ندارد؛	-12.0529
▁نداردتفاهمنامه	-12.0529
▁ندارید	-12.0529
▁نداشتند.	-12.0529
▁ندهد.	-12.0529
▁نذری	-12.0529
▁نرفت.	-12.0529
▁نرود	-12.0529
▁نزاع	-12.0529
▁نزدک	-12.0529
▁نزدیکترین	-12.0529
▁نزول	-12.0529
▁نسترن	-12.0529
▁نسی	-12.0529
▁نشتی	-12.0529
▁نشد.برگزاری	-12.0529
▁نشدهمنبع	-12.0529
▁نشناختمنبع	-12.0529
▁نشود.بیشتر	-12.0529
▁نشود.تیم	-12.0529
▁نظران	-12.0529
▁نظرهایی	-12.0529
▁نعمت	-12.0529
▁نعوظ	-12.0529
▁نفرات	-12.0529
▁نفس.	-12.0529
▁نفسم	-12.0529
▁نفوذی	-12.0529
▁نفوس	-12.0529
▁نقدشوندگی	-12.0529
▁نقشش	-12.0529
▁نقیض	-12.0529
▁نمازجمعه	-12.0529
▁نمازگزاران	-12.0529
▁نماند	-12.0529
▁نمودار	-12.0529
▁نموده	-12.0529
▁ننگ	-12.0529
▁ننگین	-12.0529
▁نهادها	-12.0529
▁نهادهایی	-12.0529
▁نهارخوری	-12.0529
▁نهصد	-12.0529
▁نو؛	-12.0529
▁نوا	-12.0529
▁نوابی	-12.0529
▁نواختر	-12.0529
▁نوال	-12.0529
▁نوای	-12.0529
▁نوایی	-12.0529
▁نوترینو	-12.0529
▁نورث	-12.0529
▁نورزی	-12.0529
▁نورنیوز	-12.0529
▁نوروز،	-12.0529
▁نوسازی	-12.0529
▁نوستالژی	-12.0529
▁نوشتارها	-12.0529
▁نوشته:	-12.0529
▁نویدبخش	-12.0529
▁نویدکیا	-12.0529
▁نویسنده،	-12.0529
▁نویسندگان،	-12.0529
▁نویسندگانی	-12.0529
▁نژاد:	-12.0529
▁نکردند.	-12.0529
▁نکرده.	-12.0529
▁نکنند.ورود	-12.0529
▁نگاره	-12.0529
▁نگاهش	-12.0529
▁نگذاشته	-12.0529
▁نگرفت	-12.0529
▁نگرفت.	-12.0529
▁نگفتم.	-12.0529
▁نگهبان:	-12.0529
▁نیا،	-12.0529
▁نیافت	-12.0529
▁نیافتاده	-12.0529
▁نیروانا	-12.0529
▁نیروهایش	-12.0529
▁نیست.باران	-12.0529
▁نیست.در	-12.0529
▁نیست.من	-12.0529
▁نیست.منبع	-12.0529
▁نیستم	-12.0529
▁نیستم.	-12.0529
▁نیفتاده	-12.0529
▁نیلی	-12.0529
▁نیلیبی	-12.0529
▁نیویورکهادی	-12.0529
▁نیکزاد	-12.0529
▁نیکو	-12.0529
▁هاآرتص	-12.0529
▁هاجسون	-12.0529
▁هادرونی	-12.0529
▁هارون	-12.0529
▁هافمن	-12.0529
▁هافکین	-12.0529
▁هانری	-12.0529
▁هانوی	-12.0529
▁هاکی	-12.0529
▁هایتان	-12.0529
▁هایمان	-12.0529
▁هت	-12.0529
▁هجده	-12.0529
▁هدفمند	-12.0529
▁هدفی	-12.0529
▁هذلول	-12.0529
▁هرتزیگ	-12.0529
▁هررا،	-12.0529
▁هرل	-12.0529
▁هرچقدر	-12.0529
▁هریس	-12.0529
▁هزارم	-12.0529
▁هست؟منبع	-12.0529
▁هستند.الکساندر	-12.0529
▁هستند.شیدا	-12.0529
▁هشتادمین	-12.0529
▁هشدارمعاون	-12.0529
▁هلال	-12.0529
▁هلن	-12.0529
▁هما	-12.0529
▁همبازی	-12.0529
▁همت	-12.0529
▁همتایان	-12.0529
▁همراهش	-12.0529
▁همقطاران	-12.0529
▁هموطن	-12.0529
▁همپای	-12.0529
▁همکاریهای	-12.0529
▁همکلاسی	-12.0529
▁همینگوی	-12.0529
▁هندوستان	-12.0529
▁هنرجویان	-12.0529
▁هنرستان	-12.0529
▁هنرمندانی	-12.0529
▁هنگفت	-12.0529
▁هنگفتی	-12.0529
▁هوادارانی	-12.0529
▁هواپیماسازی	-12.0529
▁هولو	-12.0529
▁هکتار	-12.0529
▁هگزافلوراید	-12.0529
▁هیأتی	-12.0529
▁هیبت	-12.0529
▁هیتلر	-12.0529
▁هیج	-12.0529
▁هیدروژن	-12.0529
▁هیلتون	-12.0529
▁هیولا	-12.0529
▁هیولاها	-12.0529
▁هیومن	-12.0529
▁هیچگونه	-12.0529
▁هیچیک	-12.0529
▁و...	-12.0529
▁وا	-12.0529
▁واحدها	-12.0529
▁واخان	-12.0529
▁واران	-12.0529
▁واردکننده	-12.0529
▁وارونه	-12.0529
▁واریاسیون	-12.0529
▁واعظ	-12.0529
▁واقتصاد	-12.0529
▁والتر	-12.0529
▁والر	-12.0529
▁واژگان	-12.0529
▁واکسن،	-12.0529
▁وای	-12.0529
▁وبلاگ	-12.0529
▁وثوقی	-12.0529
▁وجاهت	-12.0529
▁ورا	-12.0529
▁ورای	-12.0529
▁وردی	-12.0529
▁ورزد	-12.0529
▁ورزش،	-12.0529
▁ورزشکارانی	-12.0529
▁ورزشگاهی	-12.0529
▁ورزند.	-12.0529
▁ورشو	-12.0529
▁ورنر	-12.0529
▁وزن؛	-12.0529
▁وسایلی	-12.0529
▁وستکات	-12.0529
▁وضعیتش	-12.0529
▁وفن؛	-12.0529
▁ولاسکز	-12.0529
▁ولایتی	-12.0529
▁ولزی	-12.0529
▁ولورهمپتون	-12.0529
▁وندی	-12.0529
▁ونوس	-12.0529
▁ونچورا	-12.0529
▁ونیم	-12.0529
▁وهله	-12.0529
▁وود	-12.0529
▁وکلا	-12.0529
▁وگاس؛	-12.0529
▁وگوهایی	-12.0529
▁وی'	-12.0529
▁ویاگرا	-12.0529
▁ویدیوهای	-12.0529
▁ویزر	-12.0529
▁ویسل	-12.0529
▁ویلی	-12.0529
▁وینگر	-12.0529
▁ویچنزا	-12.0529
▁ویگن	-12.0529
▁ِ	-12.0529
▁پابرجا	-12.0529
▁پاراگوئهرونالدینیو،	-12.0529
▁پارکور	-12.0529
▁پاریسمنبع	-12.0529
▁پاسخش	-12.0529
▁پاشیده	-12.0529
▁پالیسی	-12.0529
▁پاها	-12.0529
[...]
