<unk>	0
<s>	0
</s>	0
ی	-3.18132
.	-3.43973
ه	-3.73202
▁است	-4.11176
▁می	-4.21918
▁	-4.45196
▁های	-4.60288
▁ایران	-4.67687
▁شده	-5.03937
،	-5.07708
▁سال	-5.15715
▁بود	-5.19287
▁ها	-5.22083
▁یک	-5.22183
▁شد	-5.26602
▁تصویر	-5.40827
▁کرده	-5.42065
▁ای	-5.42737
▁کرد	-5.4805
ان	-5.49355
منبع	-5.59086
▁بر	-5.61189
▁شود	-5.65795
▁گفته	-5.71146
▁دو	-5.75553
▁خود	-5.77203
▁کند	-5.7734
ش	-5.79843
؛	-5.80153
ت	-5.80991
▁اند	-5.85441
▁کرونا	-5.88312
ن	-5.91219
▁در	-5.97973
▁ماه	-6.04909
▁آمریکا	-6.05731
▁کشور	-6.07763
▁پیش	-6.08268
▁گزارش	-6.10211
▁روز	-6.12056
ین	-6.14058
▁فوتبال	-6.22522
▁بی	-6.24652
▁تیم	-6.26791
▁بازی	-6.28334
▁گفت	-6.30021
▁کار	-6.30359
▁دارد	-6.30712
م	-6.30772
▁به	-6.31095
▁دهد	-6.3124
▁اعلام	-6.33987
▁کنند	-6.36851
▁قرار	-6.37544
▁ا	-6.37567
▁دیگر	-6.37606
▁و	-6.38472
▁شرکت	-6.40238
▁هزار	-6.41779
▁داده	-6.42192
▁یا	-6.43457
▁دولت	-6.44372
▁دست	-6.45621
▁رئیس	-6.48323
▁با	-6.50672
▁بین	-6.51033
▁خواهد	-6.52617
▁م	-6.53048
▁سه	-6.53239
ب	-6.53642
▁جهان	-6.54801
▁هر	-6.54909
▁گذشته	-6.55641
▁آقای	-6.55892
▁پس	-6.56081
▁بار	-6.58751
▁گوید	-6.58889
▁درباره	-6.64984
▁تهران	-6.67637
در	-6.67939
▁لیگ	-6.68125
▁درصد	-6.6851
▁آنها	-6.71558
▁جدید	-6.7178
▁چند	-6.71921
▁نفر	-6.72086
▁دلیل	-6.723
▁افزایش	-6.72414
▁داد	-6.73009
▁میلیون	-6.73651
ند	-6.75269
▁بعد	-6.75928
'	-6.76667
▁'	-6.76711
▁قیمت	-6.76826
این	-6.77467
▁بوده	-6.78197
▁از	-6.78205
های	-6.78257
▁افغانستان	-6.79501
▁سازمان	-6.7984
▁حال	-6.80151
▁ملی	-6.8049
ر	-6.80998
ل	-6.82213
▁بازار	-6.82571
:	-6.82715
ا	-6.82767
▁هفته	-6.82783
▁جهانی	-6.83173
▁یکی	-6.83386
ز	-6.84355
▁ویروس	-6.84821
▁همه	-6.85391
ع	-6.85753
▁خبر	-6.85864
▁نمی	-6.86114
▁فیلم	-6.86118
▁نام	-6.86889
ترین	-6.87403
▁نظر	-6.88487
▁جمهوری	-6.88831
د	-6.88993
▁برگزار	-6.89083
▁ترین	-6.89199
▁دلار	-6.89615
▁نفت	-6.89659
▁عنوان	-6.90053
▁بزرگ	-6.90099
▁ن	-6.90766
▁مورد	-6.91078
▁باید	-6.91101
▁هستند	-6.91523
▁داشت	-6.92184
▁بیش	-6.92392
▁علی	-6.92695
▁وزارت	-6.93609
▁شب	-6.9361
▁تولید	-6.9383
▁گرفته	-6.94015
▁مجلس	-6.94442
▁روی	-6.94735
▁کردند	-6.95292
▁امروز	-6.95584
▁سی	-6.96171
▁نیست	-6.96296
▁شدن	-6.96657
▁سر	-6.97438
▁اروپا	-6.97507
▁ف	-6.98006
ات	-6.99228
▁آغاز	-6.99529
▁را	-6.99654
▁بیشتر	-6.99992
▁بودند	-7.00077
▁کاهش	-7.00345
▁چین	-7.00437
س	-7.0094
▁مقابل	-7.00998
▁وزیر	-7.01723
▁نیز	-7.02328
▁اخیر	-7.02386
▁بریتانیا	-7.02966
▁بانک	-7.03251
▁آن	-7.0459
▁همچنین	-7.07051
▁نشان	-7.07157
▁پایان	-7.07393
▁تر	-7.07643
▁حدود	-7.07918
▁راه	-7.08688
▁زمان	-7.09158
▁باشگاه	-7.09854
که	-7.09931
▁تحریم	-7.10533
▁داشته	-7.11033
▁برنامه	-7.11307
▁شیو	-7.13499
▁انجام	-7.13528
▁اول	-7.14006
زه	-7.14239
▁حضور	-7.14313
به	-7.14455
▁صورت	-7.14985
▁باشد	-7.15413
▁اقتصادی	-7.15428
▁باز	-7.15689
▁اساس	-7.15967
▁اش	-7.16724
▁ت	-7.18025
▁اولین	-7.18286
▁ب	-7.18578
▁منتشر	-7.19105
▁توافق	-7.19713
▁گل	-7.20737
▁واکسن	-7.2214
▁بخش	-7.22981
▁شهر	-7.23122
▁استفاده	-7.24458
دامه	-7.24492
▁میان	-7.24651
▁جمله	-7.25067
▁فصل	-7.25287
▁شورا	-7.25532
له	-7.25979
▁مردم	-7.2687
ری	-7.27647
▁رسید	-7.27826
▁شوند	-7.29147
▁کم	-7.29356
▁وجود	-7.29404
▁گروه	-7.29512
؟	-7.29784
▁زندگی	-7.29808
آقای	-7.30846
▁حقوق	-7.31339
او	-7.31876
▁چهار	-7.33309
▁مسابقه	-7.33406
▁مسابقات	-7.3364
▁دارند	-7.33904
▁میلیارد	-7.34104
▁المللی	-7.35121
▁همین	-7.35141
▁ایرانی	-7.35215
▁جام	-7.3525
▁مقام	-7.36272
▁تومان	-7.37074
انه	-7.37241
و	-7.37461
▁گیری	-7.37597
▁تنها	-7.37725
▁جای	-7.37987
▁ر	-7.3818
▁خواست	-7.38299
▁ارز	-7.38309
گی	-7.38508
▁زنان	-7.39362
▁۲۰	-7.39768
▁تمام	-7.40801
▁شدند	-7.41415
▁شرایط	-7.41765
▁غیر	-7.42125
▁دی	-7.42772
▁وقت	-7.43369
▁زیاد	-7.4351
▁ماشین	-7.43515
▁برتر	-7.4418
▁خانه	-7.44946
▁گرفت	-7.45074
▁تواند	-7.45176
▁بدو	-7.45402
▁حالی	-7.45744
▁فعالیت	-7.46628
▁آینده	-7.46733
▁اسلامی	-7.47513
▁محمد	-7.47527
▁تلاش	-7.47937
▁قبل	-7.48518
▁بیماری	-7.48711
عث	-7.48718
ار	-7.48745
▁کردن	-7.48845
▁بسیاری	-7.49186
▁انتخابات	-7.49536
▁وارد	-7.5019
▁اقتصاد	-7.50318
▁افراد	-7.50331
▁کشورهای	-7.50385
▁اجتماعی	-7.50407
▁توان	-7.50484
ق	-7.5051
شان	-7.50936
▁دوران	-7.50956
▁وضعیت	-7.51158
▁هیچ	-7.5116
▁امسال	-7.51234
▁خارجه	-7.51536
▁بورس	-7.51702
▁پی	-7.51828
▁طور	-7.51942
▁هایی	-7.52134
▁نرخ	-7.52533
▁رسان	-7.52558
ها	-7.52642
▁روحانی	-7.52802
▁تغییر	-7.5283
▁نزدیک	-7.53095
▁قهرمان	-7.53616
▁مختلف	-7.53631
رسی	-7.53631
نه	-7.53792
▁مهم	-7.53961
▁سوی	-7.54138
▁بسیار	-7.54331
▁فروش	-7.55322
▁تصمیم	-7.55837
▁ولی	-7.55856
▁کمک	-7.56269
▁مرکزی	-7.56377
▁گویند	-7.56482
▁زمین	-7.57061
▁مدت	-7.5736
قط	-7.57541
▁منبع	-7.57588
▁طرح	-7.57666
▁خانواده	-7.57684
▁پول	-7.58085
▁حالا	-7.58424
▁ریاست	-7.58824
▁تازه	-7.59015
▁نه	-7.59327
▁قهرمانی	-7.59614
▁سرمایه	-7.59764
▁مجموع	-7.6011
▁نخست	-7.60334
▁برابر	-7.60609
▁پنج	-7.60812
▁جان	-7.6158
▁تاریخ	-7.6167
▁دوره	-7.62469
یک	-7.6249
▁استان	-7.62598
▁اثر	-7.63356
▁دهه	-7.63707
▁برجام	-7.63986
گان	-7.64591
▁همراه	-7.64604
▁دوم	-7.64688
▁حت	-7.64871
▁ساله	-7.65563
▁برای	-7.65914
▁شروع	-7.66502
▁س	-7.66594
▁اطلاعات	-7.66876
▁بعضی	-7.67021
▁پیدا	-7.67092
▁شکست	-7.67634
▁موسیقی	-7.67797
▁پرسپولیس	-7.6814
▁مرکز	-7.68268
▁اصلی	-7.68305
▁۱۹	-7.68363
▁زن	-7.69071
▁بالا	-7.69418
▁رسمی	-7.69454
▁اشار	-7.69534
▁که	-7.69571
▁منطقه	-7.69573
▁برخ	-7.70255
▁درگذشت	-7.70931
▁خودرو	-7.71183
▁رقابت	-7.71449
با	-7.71591
بر	-7.71605
▁۱۰	-7.71727
▁توجه	-7.72294
▁هسته	-7.72944
▁نقش	-7.73118
▁۵	-7.73218
▁سفر	-7.73219
▁اینک	-7.73715
▁آمار	-7.73798
▁کر	-7.738
▁۴	-7.73859
▁استقلال	-7.73861
▁عکس	-7.74014
▁دنیا	-7.74085
▁رسیده	-7.74181
▁کنار	-7.742
ک	-7.74219
▁سهام	-7.74793
▁آژانس	-7.75191
▁پر	-7.75233
▁کل	-7.75949
▁آمریکایی	-7.76103
▁زیر	-7.7631
ست	-7.7645
▁نوشته	-7.76767
▁تب	-7.76793
یت	-7.76986
▁جمهور	-7.77269
▁نیمه	-7.77329
▁دور	-7.77595
▁واکنش	-7.77651
▁کمتر	-7.77941
▁رفت	-7.77944
▁حاضر	-7.77963
▁مراسم	-7.78044
▁میلادی	-7.78147
▁صد	-7.78401
▁حمله	-7.78441
ثبت	-7.78756
▁اعتراض	-7.78969
▁حمایت	-7.79416
▁او	-7.80003
▁آلمان	-7.80091
▁انتشار	-7.80189
▁عرض	-7.80511
نامه	-7.80534
▁کتاب	-7.80595
▁یافته	-7.80647
▁بازیکن	-7.80873
▁دنبال	-7.8125
▁فرانسه	-7.81283
▁فدراسیون	-7.8156
▁۲	-7.81605
▁آب	-7.81842
▁ممکن	-7.82081
▁شش	-7.82322
▁همکاری	-7.8263
▁نشده	-7.8279
▁تعداد	-7.82796
▁مالی	-7.82802
تیج	-7.83296
▁رد	-7.83457
▁سیاسی	-7.8358
شنبه	-7.83847
▁شمار	-7.84159
توسط	-7.84497
▁سازی	-7.8461
▁طی	-7.84654
▁کنیم	-7.84678
ور	-7.84786
▁این	-7.84788
▁دانشگاه	-7.85023
▁دریافت	-7.85027
▁عربستان	-7.85028
▁بودجه	-7.85217
▁پرداخت	-7.85274
▁ترامپ	-7.85781
▁خرید	-7.86568
▁موج	-7.86988
▁آزاد	-7.87069
▁دهند	-7.87757
▁هم	-7.8799
▁موضوع	-7.88049
▁۲۰۲۰	-7.88147
▁اتحاد	-7.88215
▁کشتی	-7.88451
روز	-7.88548
▁خبرگزا	-7.88562
▁پیروز	-7.88613
▁قهرمانان	-7.88703
▁نهایی	-7.8897
▁الله	-7.89039
▁گذاری	-7.89048
▁خام	-7.89316
▁پرونده	-7.89356
اکنون	-7.90129
▁اجرای	-7.90219
▁ندارد	-7.90527
▁انرژی	-7.90528
▁مبارز	-7.90935
▁رسد	-7.90946
▁ساعت	-7.90966
▁سابق	-7.91001
▁ویژه	-7.91002
▁ترکیه	-7.91128
▁روند	-7.91493
▁کمی	-7.91677
▁ده	-7.91979
▁آی	-7.92402
▁اقدام	-7.92523
▁بازداشت	-7.9262
▁اجا	-7.92687
▁بازیکنان	-7.92884
▁همان	-7.92916
▁چنین	-7.93433
دیل	-7.9376
▁عراق	-7.9382
▁سیاست	-7.93844
▁مربوط	-7.94254
▁مدیر	-7.94297
▁قابل	-7.94459
▁رشد	-7.94747
▁هدف	-7.94753
ِ	-7.95092
▁طریق	-7.951
▁آمده	-7.95155
▁ابتلا	-7.95518
▁زبان	-7.96434
▁دیدار	-7.97217
▁مذاکرات	-7.97756
▁ورزش	-7.97896
▁سوم	-7.97896
▁تایید	-7.98128
▁درآمد	-7.9835
گیری	-7.98705
کسب	-7.99082
▁متهم	-7.9989
▁هشدار	-8.00192
▁مرگ	-8.00256
▁بهداشت	-8.00257
▁یافت	-8.00735
▁خواهند	-8.00815
▁اتمی	-8.00863
▁آزمایش	-8.01187
از	-8.01353
▁تح	-8.01396
▁خارجی	-8.01745
▁دولتی	-8.01895
▁ام	-8.0192
▁میزان	-8.02193
▁فاصله	-8.02345
▁ساخت	-8.02418
▁نیم	-8.02512
▁ایجاد	-8.0261
▁۳	-8.02614
▁عضو	-8.02626
▁کس	-8.02718
▁کننده	-8.02804
▁خارج	-8.02914
▁تلویزیون	-8.03046
▁رو	-8.03223
▁نمایش	-8.03466
▁نیاز	-8.03589
▁مرد	-8.03962
▁بیمارستان	-8.03972
▁بشر	-8.04
▁زمینه	-8.0406
▁زمانی	-8.0439
▁کشته	-8.0468
▁حسن	-8.04778
▁آسیا	-8.04995
▁لیورپول	-8.05033
▁زده	-8.05088
▁نا	-8.05092
▁نامه	-8.05237
▁جریان	-8.05373
▁مشخص	-8.05659
▁سرمربی	-8.05855
)	-8.06315
▁لغو	-8.06323
▁امنیت	-8.06492
▁دوبار	-8.06777
▁زندان	-8.07081
▁انگلیس	-8.07479
▁معاون	-8.07928
▁بازگشت	-8.08107
ج	-8.08168
▁هفت	-8.08379
▁انسان	-8.08479
▁محل	-8.08551
▁طرف	-8.08746
▁جلو	-8.08817
▁جنوبی	-8.08989
▁آثار	-8.09046
▁محدودیت	-8.09092
نی	-8.09112
▁اعضای	-8.09129
▁نمایندگان	-8.09328
▁پلیس	-8.09337
▁قانون	-8.09466
▁خطر	-8.0958
▁دیده	-8.09778
▁دادگاه	-8.09944
ف	-8.10094
▁رهبر	-8.10156
▁چرا	-8.10272
▁رود	-8.1033
▁جو	-8.10435
▁۶	-8.10459
▁روسیه	-8.10462
▁هنو	-8.10523
▁کامل	-8.10594
▁بیانیه	-8.10729
▁تو	-8.10951
▁تاثیر	-8.11078
▁ح	-8.1112
▁قطع	-8.1114
▁نمایند	-8.11213
▁برد	-8.11217
▁(	-8.11227
▁سن	-8.11404
▁نگاه	-8.11437
▁خط	-8.11547
▁اسرائیل	-8.12117
▁صندوق	-8.12268
▁سخنگوی	-8.12412
▁خیل	-8.13026
▁حکومت	-8.13219
چه	-8.13223
▁سو	-8.13286
▁لندن	-8.13708
▁متحده	-8.13778
▁ارزش	-8.13987
▁انتخاب	-8.14126
▁نسبت	-8.14155
▁صادرات	-8.1426
▁نبود	-8.14321
▁خاطر	-8.14397
▁سخت	-8.14556
▁جنگ	-8.14667
▁سابقه	-8.14725
▁خوب	-8.14736
▁کابل	-8.14744
▁سطح	-8.14745
▁مدل	-8.14816
▁بست	-8.15089
▁حکم	-8.1512
▁تعطیل	-8.15163
▁المپیک	-8.15264
▁جا	-8.15318
▁همزمان	-8.15542
▁نامزد	-8.15618
▁شناخت	-8.15893
▁بالای	-8.16048
▁افت	-8.16245
▁طول	-8.16296
▁ساخته	-8.16425
▁آخر	-8.16528
▁امنیتی	-8.16635
سیون	-8.16755
▁عمومی	-8.16845
▁مرح	-8.16866
▁سپاه	-8.16956
▁جاری	-8.17436
الات	-8.17808
▁گسترده	-8.17897
▁قرنطینه	-8.17914
▁توانست	-8.17959
▁قرارداد	-8.18237
▁نقل	-8.18472
▁چهارم	-8.18542
▁مرغ	-8.19004
▁شکل	-8.19094
▁هز	-8.1923
▁نشست	-8.19304
▁ک	-8.19379
▁انقلاب	-8.19508
▁شدید	-8.19667
ده	-8.19793
ینه	-8.20018
▁سالگی	-8.2028
▁امتیاز	-8.20491
▁پزشکی	-8.2052
▁ج	-8.20754
▁داستان	-8.21489
▁ش	-8.21508
▁مطرح	-8.21697
▁۲۰۰	-8.22154
▁۳۰	-8.22499
▁چهر	-8.22761
▁جلسه	-8.22821
▁آ	-8.23198
▁پخ	-8.23206
▁رکورد	-8.23212
مین	-8.23415
▁کودکان	-8.23634
▁قو	-8.2392
▁ظریف	-8.23948
▁جدی	-8.2436
▁برنده	-8.24403
اما	-8.24681
▁انتقال	-8.25567
▁کسان	-8.25597
▁هوای	-8.25606
▁چ	-8.25665
▁امور	-8.25717
▁۲۵	-8.25914
▁صنعت	-8.26251
ایی	-8.26711
▁اتهام	-8.26729
▁ارائه	-8.26805
▁تنیس	-8.26854
▁منابع	-8.26907
▁روزهای	-8.2693
▁بخشی	-8.27053
▁فشار	-8.27244
▁تع	-8.27304
▁۲۰۱۹	-8.27409
▁ورزشگاه	-8.2744
▁ترک	-8.27471
▁هنر	-8.27745
▁معرف	-8.27979
▁حرکت	-8.28008
▁انداز	-8.28042
▁انتظار	-8.28085
▁برق	-8.28185
▁اتفاق	-8.28362
یم	-8.2849
▁رای	-8.28599
▁دستگاه	-8.28743
▁نظامی	-8.28902
▁گرفتن	-8.29005
▁متوقف	-8.29192
▁نکرده	-8.29268
▁بایدن	-8.29557
▁دانست	-8.29777
▁۱۴۰۰	-8.29803
▁ارتباط	-8.30276
▁اروپایی	-8.30403
▁رقم	-8.30973
▁اسفند	-8.30973
▁فینال	-8.30993
▁رفته	-8.31054
▁۹	-8.31533
▁تورم	-8.31789
▁پیشین	-8.31996
▁آنچ	-8.32095
▁عالی	-8.32194
▁آیا	-8.32211
▁چگون	-8.32222
▁نوع	-8.32341
▁تن	-8.32685
▁اجرا	-8.32854
▁موسس	-8.32892
▁فعال	-8.32929
▁نو	-8.33164
▁انتقاد	-8.33172
ال	-8.33375
▁۱۵	-8.33425
▁نیروهای	-8.33509
▁ورزشی	-8.33694
▁ان	-8.3375
▁چشم	-8.33913
▁پاسخ	-8.34102
▁ورود	-8.34111
▁آبان	-8.34136
▁۷	-8.3425
▁دیگری	-8.34274
۸	-8.34304
▁شدت	-8.3458
-	-8.34751
▁کشید	-8.35065
▁نگرانی	-8.35126
▁داشتند	-8.35216
▁محکوم	-8.35264
▁فروردین	-8.35321
▁الکتریکی	-8.35362
▁معاملات	-8.35386
▁دونالد	-8.35409
▁بشک	-8.35452
▁خانم	-8.35804
▁خودش	-8.35923
▁مصاحبه	-8.35978
▁فن	-8.36129
▁مربی	-8.36384
▁همچن	-8.36493
▁۱۲	-8.36574
▁طراح	-8.36604
▁نهاد	-8.36622
▁گیرد	-8.36653
▁قرن	-8.36668
▁مشکلات	-8.36686
▁آمد	-8.3714
▁طولانی	-8.37265
▁مانده	-8.37274
▁جمعیت	-8.37491
▁تاریخی	-8.37577
نوز	-8.37675
ستاد	-8.37728
▁مسئولان	-8.37781
▁نوشت	-8.38407
▁داخلی	-8.38454
▁سیستم	-8.38647
▁قدرت	-8.38675
▁۱	-8.38805
▁تصوی	-8.3906
▁حساب	-8.39162
▁مصوب	-8.39206
▁عد	-8.39216
گاه	-8.39562
▁آزادی	-8.39568
▁امضا	-8.39571
▁روزنامه	-8.39704
▁دوشنبه	-8.39759
▁کووید	-8.39864
▁بحران	-8.39881
▁نفتی	-8.40272
دی	-8.40283
▁تحقیق	-8.40305
▁تک	-8.40329
▁باشند	-8.40536
▁گذاشته	-8.40548
▁بارسلونا	-8.40571
▁خروج	-8.40571
▁هنگام	-8.40602
▁وی	-8.40676
▁بتوان	-8.40738
▁بد	-8.40905
▁اف	-8.40925
▁بهتر	-8.41111
▁۱۳	-8.41123
▁سریال	-8.41214
▁جامعه	-8.41312
▁احتمال	-8.41715
▁غنی	-8.41887
▁کنترل	-8.41893
▁سایر	-8.41966
▁تشکیل	-8.42459
▁مشکل	-8.42497
▁باقی	-8.42578
▁تجاری	-8.42712
۲	-8.42834
▁دار	-8.42941
▁ایتالیا	-8.43129
▁امکان	-8.43154
▁فرهنگ	-8.43253
▁ملل	-8.43325
▁۱۱	-8.4341
▁تحقیقات	-8.43412
▁دستور	-8.43437
نگ	-8.43535
▁دادند	-8.43989
▁بنزین	-8.44041
▁شاخص	-8.44117
▁ممنوع	-8.4422
▁گاز	-8.44645
▁فکر	-8.44712
▁حذف	-8.44718
▁دادن	-8.44762
▁ابتدای	-8.44798
▁یع	-8.44864
▁هند	-8.45042
▁مبتلا	-8.45317
▁د	-8.4534
▁داخل	-8.4545
▁بودن	-8.45517
▁سیاه	-8.45533
ون	-8.45591
▁نیروی	-8.45622
▁ضرب	-8.46136
▁سیتی	-8.46253
حه	-8.46472
▁یاد	-8.46477
▁شامل	-8.46677
▁ماسک	-8.4676
▁میزبان	-8.46799
▁ترکیب	-8.46812
خانه	-8.46889
▁شان	-8.47194
▁پروژه	-8.4746
▁علت	-8.47567
▁پشت	-8.47912
وز	-8.48058
▁ناشی	-8.48196
▁زیست	-8.48226
▁تجرب	-8.4823
▁محلی	-8.48518
▁فارسی	-8.48547
▁متفاوت	-8.48903
پس	-8.48929
سی	-8.48949
▁آوریل	-8.4897
▁عامل	-8.49019
▁مسی	-8.4918
▁ال	-8.49347
۴	-8.49538
رفع	-8.49577
▁قبلی	-8.49928
▁کارگران	-8.50001
▁واحد	-8.501
▁کوچک	-8.50163
▁ترتیب	-8.50366
▁خبرنگار	-8.50406
▁صحبت	-8.50484
▁واردات	-8.50634
▁نظام	-8.50697
▁بندی	-8.50726
▁جنوب	-8.50726
وابط	-8.50871
▁اختیار	-8.51022
▁محدود	-8.51093
▁اعدام	-8.5112
▁ه	-8.512
▁زد	-8.5121
▁خون	-8.51213
▁پایین	-8.5127
▁شهروندان	-8.51322
ویه	-8.51363
▁سینما	-8.51669
▁عمل	-8.52158
۵	-8.52251
▁گون	-8.52419
▁۵۰	-8.52523
▁مشترک	-8.52605
▁بگیرد	-8.52615
▁طبق	-8.52715
▁چهارشنبه	-8.52759
▁نژاد	-8.5303
▁شماری	-8.53399
▁۲۲	-8.53399
▁سوخت	-8.53415
▁خوانده	-8.53687
▁فضایی	-8.53693
▁روبرو	-8.54087
▁بلند	-8.54112
▁احیا	-8.54129
▁محیط	-8.54129
▁کنید	-8.54146
▁مسئول	-8.54205
▁محمود	-8.54427
▁چپ	-8.54602
▁جمعه	-8.54614
۰۰	-8.54668
▁۸	-8.54679
▁آسیب	-8.54896
▁دقیقه	-8.54908
▁فضای	-8.54933
▁احتمالا	-8.5506
▁هنری	-8.5522
▁شجریان	-8.5567
▁تاکید	-8.55675
▁پارسال	-8.55698
▁سقوط	-8.55713
▁احمد	-8.55714
▁شهرهای	-8.55728
▁بارها	-8.5574
▁متر	-8.55793
▁فرد	-8.55879
▁فرهنگی	-8.55978
▁دفاع	-8.56225
▁نویسنده	-8.56459
▁لای	-8.56473
▁دلایل	-8.56504
▁درخواست	-8.56509
▁درگیر	-8.56963
▁موارد	-8.57098
▁تقریبا	-8.5726
▁نتایج	-8.57292
▁مارادونا	-8.5733
▁شما	-8.57631
▁سنت	-8.57795
▁دسترس	-8.57909
▁نگهبان	-8.58033
▁لازم	-8.58037
براز	-8.58055
ره	-8.58136
▁اقدامات	-8.58212
▁شاید	-8.58236
▁شاهد	-8.58426
▁بینی	-8.58646
▁آتش	-8.58858
▁وین	-8.58924
▁یونایتد	-8.58935
▁صفر	-8.58947
▁تاکنون	-8.5905
▁رشت	-8.59224
▁برده	-8.59345
▁جز	-8.59463
▁انفجار	-8.59654
▁حل	-8.59678
▁اسکار	-8.59681
▁تامین	-8.59693
▁خصوصی	-8.598
▁معروف	-8.60467
▁شکایت	-8.60487
▁کوتاه	-8.6051
▁کلی	-8.60634
▁نقاشی	-8.60641
▁آورد	-8.60669
▁گو	-8.60713
▁گذشت	-8.60818
▁۴۰	-8.60882
▁افتاد	-8.6095
▁مسیر	-8.61005
▁۱۷	-8.61107
▁جدول	-8.61272
▁اولی	-8.61278
▁قوانین	-8.61291
سازی	-8.61346
▁ژان	-8.61363
▁حرفه	-8.61637
▁مواد	-8.62121
▁جشنواره	-8.62154
▁کالا	-8.62172
گر	-8.62174
▁کنم	-8.62245
▁هواپیمایی	-8.62529
▁اس	-8.62834
▁موفق	-8.62884
▁رییس	-8.62968
▁بیرون	-8.62997
▁یکشنبه	-8.6329
▁ستار	-8.63297
▁درمان	-8.63395
▁هواداران	-8.63578
▁اختلاف	-8.63698
▁مرتبط	-8.63773
وازه	-8.63842
▁مهر	-8.63892
▁پل	-8.64103
▁۶۰	-8.64118
مان	-8.64322
▁قرمز	-8.64929
▁انگیز	-8.65389
▁نظیر	-8.65475
▁بخوانید	-8.65475
▁فهرست	-8.6549
▁چاپ	-8.65508
▁همیشه	-8.65511
▁قانونی	-8.65601
▁واقع	-8.65628
▁زاده	-8.65629
▁کمیت	-8.65641
▁ماند	-8.65685
▁قطر	-8.65727
▁اعتراضات	-8.65732
▁شمال	-8.65764
▁رنگ	-8.65887
▁اخیرا	-8.6621
▁حد	-8.66223
▁۱۴	-8.66255
▁نقطه	-8.66343
▁تجارت	-8.66356
▁نسل	-8.66433
▁سرعت	-8.66477
▁سراسر	-8.66525
▁سوار	-8.66577
▁ونزوئلا	-8.67211
▁مقایس	-8.67213
▁سلامت	-8.67238
▁سمت	-8.67261
▁توییتر	-8.67382
حفظ	-8.67429
▁غرب	-8.67463
▁مارس	-8.67542
▁کارگردان	-8.67788
بی	-8.67898
▁بایرن	-8.68105
▁۹۸	-8.68158
ایران	-8.68202
▁قصد	-8.68408
۱	-8.68428
▁بیست	-8.68619
▁هوا	-8.68876
▁مشهور	-8.689
▁باخت	-8.68934
▁ولایت	-8.68973
▁برسد	-8.68993
▁اتاق	-8.68997
▁هشت	-8.6911
▁نخواه	-8.69155
▁خوانند	-8.69196
▁۱۶	-8.69312
▁آخری	-8.69628
▁مجدد	-8.69861
▁آستان	-8.69886
▁اوپک	-8.69958
▁رسیدن	-8.70068
▁گفتگو	-8.70171
▁دارایی	-8.70206
یین	-8.70321
▁تهی	-8.70338
تر	-8.70397
▁بالاتر	-8.70454
▁منج	-8.70525
▁پیشنهاد	-8.70625
▁نظارت	-8.70771
▁عملکرد	-8.70814
▁علاو	-8.7095
▁اطلاع	-8.71074
▁جمع	-8.71135
▁صفح	-8.71359
▁بدن	-8.71572
▁فعالان	-8.71583
▁اعمال	-8.71688
▁مشابه	-8.71732
▁فوت	-8.71734
عودی	-8.71839
▁چیزی	-8.71846
▁روشن	-8.71982
نمایی	-8.72102
▁مذاکر	-8.72503
▁آرژانتین	-8.72594
▁عدالت	-8.72608
▁کشف	-8.72634
▁عملیات	-8.72655
▁دهم	-8.72668
▁حق	-8.72751
▁آماده	-8.72759
▁جهش	-8.72777
▁کاملا	-8.72831
▁زنده	-8.72859
▁پاریس	-8.72902
▁نگران	-8.7302
علی	-8.73109
اخر	-8.73189
▁پرواز	-8.73361
ح	-8.73427
▁فرصت	-8.73542
▁تصاویر	-8.73644
▁علمی	-8.7377
▁عباس	-8.73784
▁نهادهای	-8.73827
▁مل	-8.73852
▁صادر	-8.74206
▁تهدید	-8.74221
▁شناسا	-8.74287
▁هرات	-8.74362
▁پایتخت	-8.74448
▁فساد	-8.74466
▁اداره	-8.74609
▁عمده	-8.74647
▁بازیگر	-8.74794
▁کشورها	-8.74839
وق	-8.75085
اس	-8.75091
▁من	-8.75305
▁مناطق	-8.75398
▁رابطه	-8.75422
▁اینترنت	-8.75422
▁موزه	-8.75447
▁منچستر	-8.75462
▁چلسی	-8.75501
▁رمان	-8.75669
▁میدان	-8.75726
▁سود	-8.758
▁بیشتری	-8.75884
▁ندارند	-8.76344
▁قلب	-8.76368
▁بحرین	-8.76384
▁مه	-8.7643
▁قضایی	-8.76848
▁تابستان	-8.76946
▁هایش	-8.77123
▁مواجه	-8.77282
▁برخورد	-8.77286
▁منتقل	-8.77306
▁توپ	-8.77345
▁حادثه	-8.77394
▁تاج	-8.77598
▁تی	-8.77638
▁یورو	-8.77662
ام	-8.77902
▁ابتدا	-8.78097
▁افغان	-8.7827
▁توصیف	-8.78295
▁ارشد	-8.783
▁موفقیت	-8.78342
▁مردان	-8.78376
▁تغییرات	-8.78634
▁چیز	-8.78896
▁استرالیا	-8.7915
▁توسعه	-8.79276
▁سایت	-8.79524
▁گاه	-8.7958
▁مهدی	-8.79877
▁گروهی	-8.79934
▁پروازهای	-8.80078
▁دچار	-8.80247
▁مسکن	-8.8025
▁۲۰۲۱	-8.80252
▁بریتانیایی	-8.80253
▁رعایت	-8.80254
▁سفید	-8.80258
وس	-8.80365
▁آید	-8.80619
▁خصوص	-8.80803
۶	-8.80804
▁پور	-8.80922
▁جوان	-8.80948
نیوم	-8.80979
اساس	-8.81073
▁پیام	-8.81194
▁انگلستان	-8.81254
▁خواند	-8.81531
▁احمدی	-8.81555
می	-8.81587
▁دوست	-8.81689
▁واقعی	-8.81804
▁پا	-8.81878
▁صدا	-8.81916
اخ	-8.81917
▁مالیات	-8.81996
▁کارخان	-8.8207
▁سنگ	-8.82098
▁مصرف	-8.82099
▁ملت	-8.82129
▁عبور	-8.82156
▁رانند	-8.82198
▁کنون	-8.82257
▁ژوئن	-8.82257
▁خوزستان	-8.82259
▁پدر	-8.82463
▁۵۰۰	-8.82481
▁کودک	-8.82835
▁اورا	-8.83008
▁رفتن	-8.83063
▁اضاف	-8.83097
▁توضیح	-8.83183
▁مجازی	-8.83193
▁کارگر	-8.83224
▁رساند	-8.83229
▁شعر	-8.8325
▁مجبور	-8.83278
▁واکسین	-8.83278
▁کن	-8.83409
▁مانع	-8.83537
▁دختر	-8.83582
▁۱۸	-8.83717
▁یو	-8.83761
محمد	-8.84072
▁۲۳	-8.84261
▁مشغول	-8.84311
▁حوزه	-8.84322
▁سفیر	-8.84379
▁بهمن	-8.84445
بیشتر	-8.84573
▁کدام	-8.84593
▁کنندگان	-8.84803
▁۲۰۱	-8.85189
▁معتقد	-8.85357
▁اوراق	-8.85414
▁فدرر	-8.8551
▁خالی	-8.85662
دو	-8.85842
▁دومین	-8.85895
▁جنسی	-8.85923
▁دریا	-8.85998
۳	-8.8609
طور	-8.8622
▁بهبود	-8.86428
▁خواهان	-8.86533
▁بن	-8.86645
▁چه	-8.86837
ممنوعیت	-8.87028
▁پ	-8.8723
▁افتاده	-8.87455
▁تاجیکستان	-8.8747
▁مجوز	-8.87498
▁دانند	-8.87516
▁سخنران	-8.87518
▁طلا	-8.87538
▁اظهارات	-8.87545
▁سنگین	-8.87722
▁پنجم	-8.88029
▁کاری	-8.88043
▁ایالت	-8.88233
عده	-8.88283
▁پژوهش	-8.88389
▁تا	-8.88422
▁هیا	-8.88795
▁مت	-8.88965
▁۲۴	-8.89208
وایل	-8.89562
▁حداقل	-8.89629
▁خاک	-8.89632
▁کانال	-8.89682
▁حسین	-8.89697
▁گمرک	-8.89702
▁بحث	-8.89735
▁امام	-8.89798
▁سوریه	-8.89948
▁روش	-8.90006
▁سریع	-8.90022
▁۱۰۰	-8.90254
▁پیشتر	-8.90275
یر	-8.90304
▁دین	-8.90336
▁مک	-8.90431
▁معامل	-8.90635
▁دنیای	-8.90665
▁مقررات	-8.90746
▁مادرید	-8.90763
▁فرمانده	-8.90804
▁تاتنهام	-8.90815
۷	-8.91011
▁نشد	-8.91031
▁زدن	-8.91076
▁زود	-8.91195
▁مثبت	-8.91225
▁۹۰	-8.91262
۹	-8.9141
▁بال	-8.91586
▁محمو	-8.91754
▁تجمع	-8.91833
▁طبیعی	-8.91839
▁نقدینگی	-8.91839
▁پاسداران	-8.91868
▁صدای	-8.91897
▁رکود	-8.919
▁موافقت	-8.91971
▁حریف	-8.92535
▁مستند	-8.92854
▁تشخیص	-8.92964
▁گردد	-8.93004
▁عق	-8.93142
فورد	-8.93523
▁حرف	-8.93831
▁۲۱	-8.93853
▁اسپانیا	-8.94018
▁مدیریت	-8.94301
▁مادر	-8.9432
▁امید	-8.94354
▁ژاپن	-8.94546
▁صعود	-8.94551
▁اجرایی	-8.94618
▁برداشت	-8.94646
▁بازارهای	-8.94773
▁عهد	-8.94838
▁قطعی	-8.94866
پ	-8.94893
▁رخ	-8.94947
ول	-8.95173
▁فیفا	-8.95284
▁مرداد	-8.95306
▁روزانه	-8.95342
ستان	-8.95399
▁قدیمی	-8.95424
▁وزن	-8.95471
▁پای	-8.95617
▁گذار	-8.95627
▁امیدوار	-8.95718
▁منف	-8.95977
▁آوری	-8.96134
▁جدا	-8.96221
▁تقوی	-8.96223
▁مرز	-8.96328
▁بستر	-8.96333
▁وضع	-8.96389
▁بنا	-8.96396
▁هوشمند	-8.96414
▁کنونی	-8.96493
▁رفتار	-8.9654
▁دل	-8.96883
▁کیلومتر	-8.96971
▁فارس	-8.97001
▁سعید	-8.97048
▁انگلیسی	-8.97073
▁دید	-8.97092
▁گذاشت	-8.9716
▁دقیق	-8.97552
▁اردیبهشت	-8.97609
▁علاقه	-8.9761
▁۱۳۹۹	-8.97614
▁دفتر	-8.97728
▁دکتر	-8.97827
▁مد	-8.97889
▁پذیر	-8.97987
▁دانشمندان	-8.98091
▁۲۸	-8.98191
▁صحنه	-8.98225
▁صدر	-8.98403
تبه	-8.98447
▁وابست	-8.98779
▁قتل	-8.98779
▁جزئیات	-8.98787
▁یابد	-8.98828
▁پوند	-8.98845
▁اسطوره	-8.98845
▁نفتکش	-8.98892
▁ساز	-8.98997
وی	-8.9902
▁ارزی	-8.99073
▁آورده	-8.99101
▁کارشناسان	-8.9924
▁بنابر	-8.99408
سون	-8.99597
▁گوش	-8.99599
▁درست	-8.99725
▁بیکار	-8.99817
▁قدم	-8.99874
▁مستقیم	-8.99881
▁ظرف	-8.99983
▁مونیخ	-8.99983
▁نشود	-8.99986
▁سرشناس	-8.99994
دار	-9.00018
▁بهار	-9.00026
▁ایمن	-9.00067
▁اوت	-9.00152
▁دارو	-9.00425
▁صف	-9.00485
▁معنای	-9.00704
▁سوئیس	-9.00757
▁مغز	-9.00931
▁نمو	-9.01112
▁دوچرخه	-9.01202
▁قالیباف	-9.01202
▁العاده	-9.01203
▁جشن	-9.01204
▁خرداد	-9.01209
▁موقعیت	-9.01233
▁معادل	-9.01251
▁دبیر	-9.01265
▁رویترز	-9.0127
▁مایک	-9.01274
▁پوست	-9.01297
▁افزوده	-9.01511
لی	-9.01664
▁جنگل	-9.01672
▁مقامات	-9.01817
▁چک	-9.01912
اب	-9.01955
▁برزیل	-9.02009
▁هنرمند	-9.02033
▁نداشته	-9.0208
▁موجود	-9.02088
▁آموزش	-9.02166
▁نقاط	-9.02437
▁مدافع	-9.02441
▁نوبل	-9.02445
▁صبح	-9.0246
▁هدایت	-9.02475
▁واشنگتن	-9.02475
▁جنجال	-9.0252
▁گیرند	-9.0261
نا	-9.02629
▁فنی	-9.03524
یست	-9.03561
▁روایت	-9.03581
▁تورنمنت	-9.03687
▁فراهم	-9.03694
▁پاکستان	-9.03703
▁قاچاق	-9.0371
یا	-9.03717
▁مبتلایان	-9.03717
▁دوربین	-9.03726
▁خواهیم	-9.03746
▁رئال	-9.03756
▁ضد	-9.03768
اسیون	-9.03853
▁مهار	-9.03999
▁درآمدها	-9.04035
▁استاد	-9.04406
▁نشری	-9.04597
▁شخصی	-9.04639
▁ریز	-9.04722
▁لو	-9.0477
ید	-9.049
▁عرب	-9.04997
▁نویس	-9.05026
▁ساختمان	-9.05029
▁نوری	-9.05054
▁ظاهر	-9.05067
▁محمدرضا	-9.05105
▁زنی	-9.05162
▁مجله	-9.05206
▁شخصیت	-9.05268
▁زندانی	-9.0527
▁خودروهای	-9.05357
▁آبی	-9.05363
▁شاه	-9.05405
▁مالک	-9.05784
چند	-9.05882
▁راست	-9.06003
▁-	-9.06105
▁استقبال	-9.06235
▁صلح	-9.06235
▁تحویل	-9.0624
هرگز	-9.06242
▁معتبر	-9.06243
▁دانش	-9.06273
▁خورد	-9.06331
▁آلمانی	-9.06563
کنندگان	-9.0678
▁مکان	-9.06899
▁اشتباه	-9.06989
▁کشاورز	-9.07068
▁ماهه	-9.07097
▁خورده	-9.07195
▁حزب	-9.07534
▁مدعی	-9.07538
▁خانگی	-9.07567
▁چیست	-9.0757
▁قسمت	-9.07605
▁پیشرفت	-9.07703
غلب	-9.08063
▁قبلا	-9.08105
▁همسر	-9.08106
ای	-9.08237
▁جایی	-9.08303
▁آمازون	-9.08849
▁بهادار	-9.08855
▁تزریق	-9.0889
▁کاربران	-9.09001
▁سینمای	-9.09117
▁تومانی	-9.09159
داد	-9.0941
کش	-9.0982
▁فوریه	-9.09856
▁اصلاح	-9.0989
▁ناز	-9.09914
خ	-9.09978
▁شرق	-9.10023
▁ارسال	-9.10186
▁آلبوم	-9.10192
▁ارتش	-9.10219
▁خدمات	-9.10255
▁هاست	-9.10302
▁داریم	-9.10333
▁بهداشتی	-9.10461
▁فعلی	-9.10463
▁بیت	-9.10477
▁تخم	-9.10721
▁تیر	-9.109
▁هستیم	-9.1119
▁خورشیدی	-9.11222
▁کالاهای	-9.11314
▁دریایی	-9.11383
▁اقیانوس	-9.11432
▁خودروساز	-9.11488
▁متعل	-9.11535
▁پروتکل	-9.11608
▁ادبیات	-9.11609
فدراسیون	-9.11704
▁مشا	-9.11771
جا	-9.11857
▁فوری	-9.12387
▁رضا	-9.12465
ریمه	-9.12652
▁ما	-9.12725
▁لحظ	-9.12889
گرد	-9.12894
▁ژوئیه	-9.12904
▁عجیب	-9.12933
▁مدیران	-9.12951
▁مجید	-9.13001
▁تعهدات	-9.13034
▁برگشت	-9.13093
▁میلان	-9.13151
اوری	-9.13176
▁متوسط	-9.13444
▁گر	-9.13728
لان	-9.139
▁بیمار	-9.14016
▁نداشت	-9.14116
▁احساس	-9.14166
▁کارهای	-9.14317
▁کمبود	-9.14322
نقض	-9.14368
▁ایم	-9.14375
▁یکدیگر	-9.14421
▁عادی	-9.14423
▁معترضان	-9.14432
▁سفارت	-9.14437
▁قضائیه	-9.14482
▁۲۶	-9.14762
▁چندان	-9.14814
قیف	-9.14894
▁دختران	-9.14969
رضا	-9.15308
سال	-9.154
▁مطالع	-9.15684
▁نیویورک	-9.15711
▁کارکنان	-9.15711
▁نوامبر	-9.15722
▁مسلح	-9.15727
▁آهنگ	-9.15751
▁اوج	-9.15886
▁عین	-9.16046
▁اساسی	-9.16145
▁شاعر	-9.16151
▁بازرگانی	-9.16397
▁غربی	-9.1672
نین	-9.16768
ازگی	-9.16792
▁گرفتند	-9.16849
▁سهمی	-9.17104
▁اوپ	-9.17121
▁بلوچستان	-9.17131
▁اهمیت	-9.1714
▁آزار	-9.1714
▁خلق	-9.17146
▁سرطان	-9.17174
▁محرم	-9.17174
فرانسوی	-9.17181
▁پست	-9.17183
▁کوین	-9.17203
▁سرخ	-9.17212
▁معمولا	-9.17222
▁گستر	-9.17633
▁واقعیت	-9.17693
▁سینمایی	-9.1778
▁خوش	-9.17818
▁زخمی	-9.17846
▁مهاجم	-9.18155
شب	-9.18235
▁نهایت	-9.18475
▁غذا	-9.18498
▁اختصاص	-9.18579
▁نگه	-9.18651
▁برقرار	-9.18768
سازمان	-9.18855
▁زاد	-9.19024
یابی	-9.19025
▁فرمو	-9.19057
▁سند	-9.19348
▁مارک	-9.19651
توجه	-9.20039
▁بنز	-9.2005
▁۲۰۱۷	-9.20078
▁دما	-9.20094
▁هست	-9.20143
▁گام	-9.20148
من	-9.20431
▁فردا	-9.20503
▁موشک	-9.20832
▁۷۰	-9.20907
▁راهی	-9.21
▁توییت	-9.21338
▁سعی	-9.21441
▁سهم	-9.21475
▁نحو	-9.21543
▁لباس	-9.21557
▁توقف	-9.21573
▁عوامل	-9.21576
▁حاشیه	-9.21643
تا	-9.21654
▁کلوپ	-9.21703
▁ماموران	-9.2171
وع	-9.21723
مقام	-9.21764
▁تیراندازی	-9.2177
▁مخالفان	-9.2189
▁حب	-9.21913
رکت	-9.21942
▁۳۱	-9.22069
ما	-9.22304
گری	-9.22653
▁محصولات	-9.22661
▁شهروند	-9.22738
اک	-9.22954
▁ارقام	-9.23057
▁کنسرت	-9.23088
▁مدیرعامل	-9.23104
۱۶	-9.23132
ستاره	-9.23166
▁دریای	-9.23173
داری	-9.2321
▁تصور	-9.23242
▁هموار	-9.23286
▁ست	-9.23392
▁تقاضا	-9.23521
▁صوتی	-9.23554
وم	-9.23573
▁جمعی	-9.23612
▁زندانیان	-9.23619
وید	-9.23885
▁سپاهان	-9.24323
▁حذفی	-9.24466
جه	-9.24578
▁مبلغ	-9.24596
تنظیم	-9.24596
▁تماس	-9.24629
▁داشتن	-9.24645
▁امارات	-9.24663
▁واگذار	-9.24676
▁تلفن	-9.24734
▁نویسندگان	-9.24751
▁اصل	-9.24778
▁پدید	-9.24784
▁پنجشنبه	-9.24829
▁مخالفت	-9.24865
▁بازگشا	-9.2487
▁برود	-9.24915
▁نشر	-9.25022
▁مو	-9.25087
▁حفاظت	-9.26158
▁متعدد	-9.26171
▁شهریور	-9.26191
▁چالش	-9.26218
▁ایسنا	-9.26225
▁احتمالی	-9.26312
▁عبدال	-9.2634
▁رافائل	-9.26378
▁جایگاه	-9.26393
▁نور	-9.26407
▁مسافران	-9.26436
وزارت	-9.2655
▁ماجرا	-9.26636
▁بیماران	-9.26636
▁ماد	-9.2666
▁پژوهشگران	-9.26698
قانونی	-9.26709
باید	-9.26793
▁دام	-9.2683
▁۹۹	-9.27057
▁برمی	-9.27062
▁۳۵	-9.27259
▁کشورش	-9.27634
▁۳۰۰	-9.27715
▁مشمول	-9.27746
▁اخبار	-9.27747
▁توکیو	-9.27749
▁صنایع	-9.27756
▁تسلا	-9.27779
▁رونالدو	-9.278
▁دشوار	-9.27822
▁۴۲	-9.27829
▁فایل	-9.27831
▁مجری	-9.27836
▁ساکن	-9.27907
▁فوتبالیست	-9.28035
▁داند	-9.2808
▁علیرضا	-9.2818
حسین	-9.28402
▁مرزی	-9.28618
دولت	-9.28691
▁کافی	-9.28726
▁مربیان	-9.28783
▁فردی	-9.28823
▁ارزها	-9.28857
▁ملک	-9.28979
▁پن	-9.29248
▁توصی	-9.29329
▁خشونت	-9.29358
▁زاغری	-9.29358
▁حاصل	-9.29362
▁نتوانست	-9.29375
▁ایستگاه	-9.29405
▁اخراج	-9.29441
امبر	-9.29444
▁اجاره	-9.29444
▁امیر	-9.29449
▁بازنشستگان	-9.29509
▁انجمن	-9.29546
▁راجر	-9.29571
کار	-9.29762
کو	-9.29904
▁سکه	-9.30027
▁قاسم	-9.30095
▁خیابان	-9.30122
▁الملل	-9.30161
▁دیوان	-9.30335
نده	-9.30474
ترانه	-9.3049
▁برادر	-9.3061
ص	-9.30676
تیم	-9.30876
▁۸۰	-9.30887
▁اصفهان	-9.30998
▁مسدود	-9.30998
▁ناگهان	-9.30998
▁سراوان	-9.31001
▁نگهداری	-9.3101
▁صلاحیت	-9.3102
▁آسمان	-9.31023
▁پاس	-9.31029
▁عصر	-9.31053
▁باور	-9.31055
▁مشاور	-9.31125
▁چهل	-9.31357
▁سلیمانی	-9.31392
▁ورزشکاران	-9.31412
▁رادیو	-9.31644
▁ابلاغ	-9.31781
▁تست	-9.31842
▁فضا	-9.31859
▁آل	-9.31892
▁فرزند	-9.321
▁دوستان	-9.32316
▁اینستاگرام	-9.32345
▁ورزشکار	-9.32347
▁گران	-9.3253
▁اجلاس	-9.32664
▁طبیعت	-9.32664
▁بقیه	-9.32665
▁۱۳۹۸	-9.32672
▁فرودگاه	-9.32682
▁پلاس	-9.32692
▁تعوی	-9.32697
کس	-9.32706
▁طالبان	-9.32716
▁نادال	-9.32716
▁تاسیسات	-9.32758
▁ناظر	-9.32798
▁گلستان	-9.32807
▁حج	-9.32858
▁شرقی	-9.32895
کل	-9.32899
▁بعدا	-9.329
▁ع	-9.32931
▁سخنان	-9.32993
▁کارها	-9.33018
▁بو	-9.33064
▁روزها	-9.33275
▁موتور	-9.33461
▁پسر	-9.33472
ساوی	-9.335
▁آذر	-9.33578
▁جراح	-9.33668
▁مناسب	-9.3396
▁حسینی	-9.34043
▁هواپیمای	-9.34075
شیدا	-9.34142
▁دستمزد	-9.34171
▁حس	-9.34176
علوم	-9.34228
▁کردیم	-9.34233
▁توزیع	-9.34359
▁ثابت	-9.3436
▁نجات	-9.3437
▁سیما	-9.34372
▁آنلاین	-9.34373
لو	-9.34398
▁سوپر	-9.34412
▁صراف	-9.34417
▁حکام	-9.34418
▁خیریه	-9.34428
▁۲۹	-9.3444
▁موقت	-9.3445
▁جوایز	-9.34453
▁برجسته	-9.34463
▁سوال	-9.34465
▁صرف	-9.34489
▁جوکوویچ	-9.34495
▁لیون	-9.34601
▁گرم	-9.34663
▁ض	-9.34726
▁تمامی	-9.35083
▁پرس	-9.35289
▁ادبی	-9.35339
▁حیات	-9.35387
▁بان	-9.35423
تان	-9.35497
▁فرار	-9.355
فت	-9.35725
▁تمرین	-9.35988
▁کردم	-9.3599
▁اکتبر	-9.36084
▁تاخیر	-9.36085
▁بوکس	-9.36096
▁باره	-9.361
▁بدهی	-9.3612
▁مطابق	-9.36249
▁قربانیان	-9.36258
▁خدم	-9.36301
خانم	-9.36677
خبرگزا	-9.36766
انجام	-9.37182
▁اکبر	-9.37237
▁تقاضای	-9.37315
▁شمالی	-9.37596
▁بهتری	-9.37656
▁محبوب	-9.37724
▁رویکرد	-9.37727
▁کاپیتان	-9.37838
▁افتخار	-9.37838
▁سلطنت	-9.37838
▁حاکی	-9.37843
▁معرض	-9.37845
▁مراجع	-9.37855
▁فراموش	-9.37871
▁تخریب	-9.37913
▁ضمن	-9.37926
▁شبی	-9.37946
▁گ	-9.37959
▁گذارد	-9.37991
▁مر	-9.3802
▁دادستان	-9.38189
▁آمیز	-9.3824
▁داروی	-9.38287
▁خورشید	-9.383
▁عدد	-9.38361
▁دیدن	-9.3843
▁هواپیما	-9.38453
لاک	-9.38695
▁دارای	-9.38717
نس	-9.38739
▁مخالف	-9.38777
▁جودو	-9.38886
▁وگو	-9.38923
▁بیان	-9.39158
▁صاحب	-9.39204
▁فرستاده	-9.39207
▁نگار	-9.39307
رنگ	-9.39347
▁اطراف	-9.39624
▁هنرپیشه	-9.39624
▁موضع	-9.39628
▁حقیق	-9.3963
ضاع	-9.39641
▁رسما	-9.39658
▁منتظر	-9.39722
▁بازگرداند	-9.39765
▁وکیل	-9.39766
▁فرهاد	-9.39769
افسانه	-9.39773
▁اتریش	-9.39788
▁حمل	-9.39819
▁الدین	-9.39962
▁اسرائیلی	-9.39962
▁اتفاقات	-9.4002
▁منتقدان	-9.40024
▁مواردی	-9.40046
▁وام	-9.40074
گزارش	-9.40257
▁خاص	-9.40305
▁بند	-9.40392
▁نماد	-9.4044
▁گفتند	-9.40444
▁بلا	-9.4046
▁شبانه	-9.4049
▁اندازی	-9.406
▁درجه	-9.40713
▁چرخ	-9.40727
▁مالکی	-9.40897
▁سد	-9.40919
▁رقیب	-9.4097
▁نیستند	-9.40975
مدال	-9.41183
▁مان	-9.41189
▁اید	-9.41285
▁غذای	-9.41378
▁مسئ	-9.41426
▁ویمبلدون	-9.41442
▁قبول	-9.41448
▁همتی	-9.415
▁فرا	-9.41555
▁هماهنگ	-9.41587
▁جه	-9.4166
▁همچو	-9.41897
▁لس	-9.41914
۰	-9.42013
▁بنیاد	-9.42092
▁قضاییه	-9.42347
▁تئاتر	-9.42369
▁نزدیکی	-9.42434
▁شغل	-9.42547
▁موسو	-9.42572
▁نهم	-9.4277
▁محسو	-9.42929
▁کارشناس	-9.43038
▁محروم	-9.43104
▁دعوت	-9.43294
▁نداریم	-9.43294
▁مشهد	-9.43295
▁مسائل	-9.43295
رسدس	-9.43305
▁مقصد	-9.4332
▁ازدواج	-9.43328
▁گذرد	-9.43371
▁تخت	-9.43409
بط	-9.43486
▁سپت	-9.43506
اپی	-9.43621
▁ترس	-9.43667
▁سرای	-9.43701
▁۳۲	-9.43767
قدر	-9.43781
بول	-9.44264
ود	-9.44339
▁آور	-9.44348
▁گیر	-9.44417
▁سای	-9.44743
▁دستگیر	-9.44832
شویی	-9.44867
گین	-9.44937
▁آرام	-9.44948
▁عمیق	-9.45079
▁تحصیل	-9.45087
▁رحمان	-9.45108
▁جذاب	-9.45123
▁بلینکن	-9.45181
▁مراقب	-9.45183
▁تمدید	-9.45194
▁ساحل	-9.4522
▁آلودگی	-9.45231
▁کلاس	-9.45248
۱۸	-9.45254
▁جواد	-9.45359
▁طرفداران	-9.45365
▁روانی	-9.45375
▁پیوست	-9.45447
▁کارمندان	-9.45471
جمع	-9.45512
▁پایه	-9.45513
▁خلی	-9.45685
رئیس	-9.45905
عهد	-9.46036
▁شهرت	-9.46046
▁افزود	-9.46123
▁اطلاعی	-9.46254
▁هی	-9.46416
▁درک	-9.46497
▁یخ	-9.46756
کا	-9.46777
اد	-9.46817
▁نقاش	-9.46857
▁اسکی	-9.47094
▁آنجلس	-9.47104
▁کالیفرنیا	-9.47104
▁چنان	-9.47149
▁سرپرست	-9.47163
▁نارنجی	-9.47232
▁قول	-9.4755
▁سامانه	-9.47718
▁هنرمندان	-9.47761
▁فر	-9.47768
▁کی	-9.47823
▁نداده	-9.47958
برای	-9.47978
▁توانای	-9.48072
▁توانسته	-9.48089
▁نس	-9.48172
تمام	-9.48251
وال	-9.4836
▁خاطره	-9.48446
▁هشتم	-9.48731
▁گرانی	-9.4874
▁موثر	-9.4895
▁محافظ	-9.48953
▁دسته	-9.49042
وئل	-9.49064
▁اضطرار	-9.49064
▁زمستان	-9.49068
▁فیوری	-9.49071
▁متولد	-9.49072
▁متخصص	-9.49078
▁تکرار	-9.49078
▁الهام	-9.49081
▁لوکس	-9.49108
▁ناپذیر	-9.49109
▁اطمینان	-9.49125
▁۲۰۱۵	-9.49127
▁آرسنال	-9.49128
▁اهل	-9.49136
▁نسخ	-9.49138
▁سبک	-9.4915
▁مدیرکل	-9.49167
▁ابراهیم	-9.49197
▁آکادمی	-9.492
▁پارک	-9.49205
▁مج	-9.49226
▁ناسا	-9.49316
▁نشین	-9.49364
▁کنگ	-9.49415
مه	-9.49507
▁بندر	-9.49545
▁ترجم	-9.49811
یکی	-9.49861
▁ذخ	-9.49862
جی	-9.49896
▁اسب	-9.499
▁قال	-9.49955
▁زند	-9.50223
▁روان	-9.50389
▁ل	-9.50425
▁آماد	-9.50741
▁مشاهد	-9.51013
▁مصنوعی	-9.51064
▁ژافره	-9.51064
▁سرنگون	-9.51065
▁اسکاتلند	-9.51065
▁جبران	-9.51065
▁بعدی	-9.51077
▁نت	-9.5109
▁قار	-9.51126
▁عرص	-9.51127
▁وقف	-9.51142
▁رانندگان	-9.51198
▁گری	-9.51268
▁باب	-9.51387
گ	-9.51617
▁پرو	-9.51736
▁کوه	-9.51879
▁جوانان	-9.51948
▁سوزی	-9.51974
▁شناسی	-9.51975
▁نکرد	-9.52054
▁درون	-9.52088
▁شناس	-9.52138
سیم	-9.52179
هفته	-9.52385
▁دامن	-9.52691
▁زا	-9.53101
▁شاغل	-9.53105
▁خسارت	-9.53106
▁اعتبار	-9.53107
▁تشویق	-9.5311
▁پرتاب	-9.53118
▁کلمبیا	-9.53119
▁نفس	-9.53133
▁فیسبوک	-9.53169
▁کادر	-9.53209
▁بخت	-9.53237
▁باغ	-9.53243
▁لی	-9.53505
▁مدرسه	-9.53537
▁حالت	-9.53544
▁اع	-9.53732
▁جامع	-9.53955
حسن	-9.54031
ازم	-9.54414
▁متحد	-9.54466
▁نامداری	-9.54818
▁پدرش	-9.55082
▁دیوار	-9.55129
▁آکسفورد	-9.55188
▁مراکز	-9.55188
▁هیئت	-9.55188
▁صدرنشین	-9.55192
▁ژرمن	-9.55192
▁تبریز	-9.55195
▁مسجد	-9.55196
▁متوالی	-9.55196
▁خطرناک	-9.552
▁جیمز	-9.552
▁شفاف	-9.5521
▁دانیم	-9.55219
▁یوونتوس	-9.55228
▁تولد	-9.55254
▁یمن	-9.55278
▁سیست	-9.55287
▁مشتریان	-9.55412
▁داور	-9.55479
▁نیازمند	-9.55537
▁تری	-9.55579
▁متن	-9.556
▁مس	-9.55773
سا	-9.55998
پیش	-9.56206
▁شک	-9.56213
▁محمدی	-9.56347
▁میانه	-9.5645
▁دیپلما	-9.56474
▁هفتم	-9.56767
▁پاک	-9.57275
▁الحاق	-9.57316
▁پارلمان	-9.57316
▁جذب	-9.57316
▁نطنز	-9.57316
▁جلب	-9.57317
ذیب	-9.57321
▁فعلا	-9.57322
▁گشت	-9.57323
▁جی	-9.57325
▁برخوردار	-9.57328
▁اهواز	-9.5735
▁تأ	-9.57353
▁هویت	-9.57361
▁پنجاه	-9.57379
▁ماموریت	-9.57384
▁پایگاه	-9.574
▁گشایش	-9.57407
▁حملات	-9.57429
▁مجاز	-9.57449
▁۳۳	-9.57632
▁تماشاگران	-9.57765
▁گوشت	-9.57867
▁داوطلبان	-9.57977
▁نادر	-9.57985
▁محققان	-9.58013
▁حامل	-9.58096
کته	-9.58253
همزمان	-9.58299
▁بازرس	-9.58373
کن	-9.58431
▁جر	-9.58438
▁پاری	-9.58478
اوی	-9.58562
صد	-9.58796
گون	-9.58813
...	-9.58863
لا	-9.59079
▁جلوی	-9.59083
▁تماشاگر	-9.59148
▁عمر	-9.5926
▁اظهار	-9.59393
فسور	-9.59443
▁شصت	-9.5949
▁گواردیولا	-9.59557
▁استعفا	-9.5956
▁لبنان	-9.59562
▁مسعود	-9.59567
▁پزشک	-9.59577
▁نرم	-9.59637
▁آفریقا	-9.59764
▁واقعا	-9.59768
▁ادار	-9.59772
▁ریش	-9.59781
▁شانس	-9.5986
▁نشدن	-9.60067
▁برداری	-9.60285
زاده	-9.60391
ناصر	-9.60488
▁زودتر	-9.60581
وثی	-9.60741
▁امیدواری	-9.60808
رو	-9.60861
▁سرود	-9.60915
▁کلید	-9.60947
▁عکاسی	-9.60984
▁ز	-9.61077
▁رویا	-9.61128
یده	-9.61135
▁انداخته	-9.61437
▁آفریقای	-9.61448
ینگ	-9.61514
هر	-9.61637
▁کیلوگرم	-9.61713
▁۱۳۹۷	-9.61719
▁ثانی	-9.61722
▁شگفت	-9.61723
▁مریخ	-9.61758
▁اندک	-9.6181
▁رها	-9.61832
▁مار	-9.61838
▁جسد	-9.61858
جسم	-9.6189
▁۹۷	-9.61903
▁حقوقی	-9.61905
▁تپ	-9.6193
▁تایسون	-9.61952
▁ساده	-9.62061
▁ذهن	-9.6207
▁برآورد	-9.62238
▁تور	-9.62287
▁معن	-9.62339
▁آنتونی	-9.62347
▁۲۷	-9.62589
▁درحالی	-9.62664
▁پیگیری	-9.62897
▁ابر	-9.63038
▁چشمگیر	-9.63047
۱۴	-9.63086
را	-9.63233
▁فرود	-9.63242
شرکت	-9.63249
دست	-9.63353
▁نوجوان	-9.634
▁مبن	-9.63649
اسی	-9.63895
▁رویداد	-9.63906
▁محصول	-9.63922
▁دیجیتال	-9.63985
▁بسکتبال	-9.63985
▁انتظامی	-9.63986
▁نیروگاه	-9.64002
▁ردیف	-9.64008
▁مقدار	-9.64009
▁ایرنا	-9.64032
▁کیفیت	-9.64035
▁عید	-9.64047
▁پادشاه	-9.64056
▁حراج	-9.64079
▁آسان	-9.64095
▁شهرستان	-9.64134
▁لستر	-9.64161
▁دهیم	-9.64175
▁اسناد	-9.64177
▁دقیقا	-9.64197
▁نص	-9.64203
▁آواز	-9.64261
▁آشنا	-9.64321
▁هلند	-9.64333
▁شاهین	-9.64394
▁پزشکان	-9.6442
▁انتخاباتی	-9.64458
▁ایتالیایی	-9.6456
▁جنسیت	-9.64675
ط	-9.65051
▁شرکتهای	-9.65093
▁ایستاده	-9.65271
▁نامید	-9.65331
▁۴۵	-9.65592
آ	-9.65634
▁ماجرای	-9.65648
چی	-9.65711
▁سخن	-9.65801
▁مسافر	-9.65974
واع	-9.66241
▁ثبات	-9.66311
▁برگزید	-9.66311
▁بماند	-9.66312
▁تعلیق	-9.66314
▁بدهد	-9.66319
▁دسامبر	-9.66327
▁عشق	-9.66355
▁بلژیک	-9.66383
▁تبعیض	-9.66383
▁خشک	-9.66412
▁نوسان	-9.66413
▁کارزار	-9.66454
▁مسئولیت	-9.66485
▁فراز	-9.66544
غم	-9.66556
ظ	-9.6656
▁شاملو	-9.66636
تکلیف	-9.66738
▁ذر	-9.6676
▁کلیه	-9.66794
بار	-9.66823
▁معمول	-9.66825
▁همسرش	-9.6686
▁آلوده	-9.67038
▁حداکثر	-9.67065
▁قوی	-9.67348
ورت	-9.67371
▁هوش	-9.67453
بانک	-9.6752
▁کیلومتری	-9.67548
▁یافتن	-9.67699
▁دوز	-9.67724
رگن	-9.67765
▁بردن	-9.67765
▁شهرداری	-9.67882
▁سفرهای	-9.67895
رز	-9.67986
▁راحت	-9.68059
شورای	-9.68106
▁هرچ	-9.68362
▁تحلیل	-9.68503
▁آمدن	-9.68543
ماه	-9.68589
▁۴۰۰	-9.68666
▁اعتماد	-9.68692
▁تعریف	-9.68692
▁امر	-9.68692
▁روغن	-9.68708
▁دستورالعمل	-9.68709
▁ساعات	-9.68714
▁سوئد	-9.68771
▁علنی	-9.68775
▁تحولات	-9.68779
▁اسکن	-9.68784
▁میراث	-9.68788
▁کسر	-9.68815
▁اسدی	-9.6882
▁امشب	-9.68824
▁آرایش	-9.68848
▁بهای	-9.68861
▁خبرساز	-9.68878
▁خرد	-9.68942
▁رویدادها	-9.6895
▁اسپانیایی	-9.69054
▁آم	-9.6906
غول	-9.69161
▁مناسبت	-9.69248
اگر	-9.693
▁مطلب	-9.6933
▁وایلد	-9.69335
تون	-9.69408
▁پالایشگاه	-9.69497
▁جانب	-9.69754
▁کالاها	-9.69833
▁پهلوی	-9.69917
بعضی	-9.69931
فر	-9.70155
▁ژاپنی	-9.70172
▁۱۵۰	-9.70249
▁کارت	-9.70294
▁بازدید	-9.70321
وند	-9.70648
▁ششم	-9.70739
احض	-9.71027
▁عبارت	-9.71131
▁مشاغل	-9.71131
▁تنفس	-9.71131
▁پرتغال	-9.71132
▁زهرا	-9.71133
▁گروسی	-9.71134
▁مثال	-9.71138
▁رونق	-9.71139
▁پنهان	-9.71141
▁تعرف	-9.71151
▁شویم	-9.71157
▁بگیرند	-9.71174
▁تکمیل	-9.71177
▁خودکشی	-9.71231
▁تابلو	-9.7126
▁ملایی	-9.71274
▁خیر	-9.71285
▁نفوذ	-9.71357
▁پو	-9.71372
▁تق	-9.71517
▁خواب	-9.71537
▁سالها	-9.71538
▁عکاس	-9.7164
▁خان	-9.71741
خواهد	-9.71883
▁ریال	-9.71894
ث	-9.71949
▁اقلیم	-9.72009
▁۳۴	-9.72142
▁جزیر	-9.72144
▁اور	-9.7226
▁قر	-9.72276
باقر	-9.72382
بنابر	-9.72466
▁نوروزی	-9.72469
▁نامش	-9.7272
حمل	-9.73196
رون	-9.73455
▁اقدامی	-9.73495
▁مدرن	-9.73496
▁بابا	-9.73507
▁تاسیس	-9.73537
▁محاسب	-9.73538
▁اتومبیل	-9.73631
▁اندونزی	-9.73631
▁غیرمستقیم	-9.73631
▁گرنداسلم	-9.73631
▁پرچم	-9.73631
▁حکایت	-9.73631
▁علائم	-9.73631
▁اولویت	-9.73632
▁تردد	-9.73632
▁عمدتا	-9.73633
▁کانون	-9.73635
▁پکن	-9.73648
▁خمینی	-9.73653
▁غافلگیر	-9.73657
▁دیپلماتیک	-9.73665
▁قایق	-9.73674
ذ	-9.73684
▁پیچید	-9.73686
▁محرومیت	-9.73708
▁سرنوشت	-9.73708
▁وسیع	-9.73711
▁معلوم	-9.73753
▁سازنده	-9.73765
▁آر	-9.73807
▁پوشش	-9.73815
▁بودم	-9.73858
▁عبدالله	-9.73889
▁مسافرت	-9.73953
▁برنت	-9.74009
▁ویدیوی	-9.74013
▁زدند	-9.74264
▁خاتم	-9.74538
▁رهبری	-9.74541
سعید	-9.7499
داران	-9.75177
▁خاصی	-9.75221
▁دان	-9.76016
▁کا	-9.76052
▁ضرور	-9.76079
▁آهن	-9.76083
▁اتفاقی	-9.76128
▁موقع	-9.76131
▁فیزیک	-9.76191
▁چارچوب	-9.76195
▁پاییز	-9.76204
▁نیمکت	-9.76204
▁هافبک	-9.76212
▁فراتر	-9.76219
▁هفتاد	-9.76237
▁کجا	-9.76239
▁شواهد	-9.76243
▁۲۰۱۱	-9.7625
▁کانادا	-9.76254
▁تفاوت	-9.76275
▁خطیب	-9.76286
ناز	-9.76394
▁فروخته	-9.76422
▁فرمان	-9.76436
▁سرکوب	-9.76439
▁اختلال	-9.76445
▁منظور	-9.76445
▁یادآور	-9.76446
▁گزین	-9.76454
▁تجا	-9.76459
قابل	-9.76487
▁بیستم	-9.76513
خالت	-9.76575
▁عملا	-9.76577
▁برند	-9.76586
▁کف	-9.76647
▁شی	-9.76784
▁تحول	-9.76836
▁میر	-9.77035
▁جورج	-9.7705
▁فولا	-9.77096
▁ویژ	-9.77208
▁صادق	-9.77314
▁۱۹۸	-9.77647
▁تماشای	-9.77656
▁مدار	-9.77857
دل	-9.77872
▁جاسوس	-9.7796
▁هو	-9.77993
▁طلب	-9.78087
حال	-9.78089
▁نمای	-9.78197
▁سپر	-9.78461
شدید	-9.78471
▁موافق	-9.78529
▁عطر	-9.78689
▁تردید	-9.78702
▁منع	-9.78736
▁حوادث	-9.78826
▁لذت	-9.78826
▁واگن	-9.78827
▁باشیم	-9.78829
التی	-9.78836
سقف	-9.78838
▁هتل	-9.78848
▁مقدمات	-9.7886
▁نژادپرست	-9.78864
▁تالاب	-9.78879
▁خلاف	-9.78883
▁خفاش	-9.78883
▁نامزدهای	-9.78897
وات	-9.78899
▁لحا	-9.789
▁برج	-9.7892
▁رمز	-9.78925
بو	-9.7896
▁مجازات	-9.78961
▁فقر	-9.78976
▁شهرسازی	-9.79064
▁پرده	-9.79075
▁غلام	-9.79079
▁فولک	-9.79104
بین	-9.79109
سه	-9.79149
▁ایست	-9.7915
ئو	-9.79206
آن	-9.79224
▁جک	-9.79417
آزادسازی	-9.79661
▁اص	-9.79681
چ	-9.79701
وار	-9.79821
نوبت	-9.79881
▁تماشا	-9.80013
ریم	-9.80066
▁تاپ	-9.80096
▁مادرش	-9.80187
▁برون	-9.80255
▁نوروز	-9.80267
▁باد	-9.80502
▁استاندار	-9.80902
▁معدن	-9.81024
▁مسال	-9.81175
▁پژوهشگر	-9.81211
ابت	-9.81298
▁دائم	-9.81408
▁انداخت	-9.81463
▁بهر	-9.815
سبب	-9.81523
▁آشکار	-9.81532
▁تراکتور	-9.81534
▁سلول	-9.81539
▁آدم	-9.81545
▁فرگوسن	-9.81556
▁ناکام	-9.81556
▁رم	-9.81577
▁حیوانات	-9.8159
▁تجهیزات	-9.81615
▁خاورمیانه	-9.81618
▁مدنی	-9.81635
▁اینتر	-9.81648
▁سهامداران	-9.81695
▁مستقل	-9.81705
رد	-9.81875
▁ارد	-9.81949
▁سپرده	-9.81964
▁طلای	-9.82061
▁دهنده	-9.82354
یره	-9.82703
▁عظیم	-9.82781
وف	-9.82815
لند	-9.82892
▁مالیاتی	-9.82936
▁درخشان	-9.83015
▁نود	-9.83076
آزمایی	-9.83088
دکتر	-9.83103
▁عفو	-9.83245
▁مقال	-9.8337
▁جم	-9.8358
▁ماهوار	-9.83581
▁شهرها	-9.8372
▁قد	-9.83775
مون	-9.8391
▁سا	-9.84
▁گرد	-9.84002
▁۶۰۰	-9.84154
▁شل	-9.84163
▁تسلیحات	-9.84307
▁مخفی	-9.84307
▁مورینیو	-9.84307
▁جستجو	-9.84309
▁بگذارد	-9.84312
▁منافع	-9.84326
▁اقامت	-9.84334
▁هیجان	-9.84357
▁اورتون	-9.84369
▁جانشین	-9.84379
▁شرط	-9.84409
▁میناوند	-9.84421
▁خشم	-9.84434
▁پاپ	-9.84441
▁فای	-9.84451
▁کنفرانس	-9.84469
▁نمایشگاه	-9.84501
▁ایفا	-9.84544
▁شورو	-9.84559
▁فروشگاه	-9.84607
احل	-9.84609
▁خریدار	-9.8465
▁آرامش	-9.84765
▁مذهبی	-9.85003
رویی	-9.85004
▁پیوسته	-9.85044
امی	-9.85094
قرار	-9.8558
▁سفارش	-9.85649
▁بردند	-9.85739
▁بودیم	-9.85767
▁یاران	-9.85802
▁اجباری	-9.85849
▁تس	-9.86016
▁حامی	-9.86025
بنا	-9.86049
▁قدر	-9.8613
رسان	-9.86191
فاصله	-9.86432
▁گذر	-9.8662
▁فان	-9.86737
▁عام	-9.86865
▁چا	-9.86895
گفته	-9.8691
پور	-9.86945
▁عاشق	-9.87091
▁مطمئن	-9.87098
▁اقلام	-9.87164
▁عذر	-9.87164
▁مازندران	-9.87164
▁نباشد	-9.87164
▁پیامدهای	-9.87164
▁سلمان	-9.87178
▁برگزیت	-9.87184
▁طبری	-9.87191
▁مرجان	-9.87226
▁تدریج	-9.87255
▁مخاطبان	-9.87267
▁خطاب	-9.87287
▁جواب	-9.87288
▁اسماعیل	-9.87324
▁ذو	-9.8734
▁همکاران	-9.8737
▁فرماندار	-9.87389
▁مرور	-9.87406
ویز	-9.87407
▁مهاجرت	-9.87413
▁سیل	-9.87514
▁امکانات	-9.87582
▁نمایندگی	-9.87587
▁نماز	-9.87657
▁حمید	-9.87682
▁تعطیلات	-9.87691
▁اتهامات	-9.87794
▁بازرسان	-9.87797
▁طلبان	-9.8812
▁گردشگری	-9.88122
▁فرم	-9.88254
▁گزارشگر	-9.88371
اقات	-9.88382
▁ماندن	-9.88427
▁اکثر	-9.88493
▁بازیگران	-9.88511
▁نابودی	-9.88807
الب	-9.8886
▁تنگ	-9.88953
وزیر	-9.88994
▁هجوم	-9.88998
▁خاتمی	-9.89046
▁وال	-9.89077
تو	-9.892
▁مص	-9.8921
▁زنند	-9.89221
لیک	-9.89373
▁داری	-9.89557
▁رهبران	-9.89633
مند	-9.8967
▁۷۰۰	-9.89762
▁فراوان	-9.89764
▁آموز	-9.89818
▁خراسان	-9.90105
▁مشروط	-9.90105
▁معاصر	-9.90105
▁هالیوود	-9.90105
▁پیراهن	-9.90105
▁بغداد	-9.90106
▁بوشهر	-9.90121
▁ماراتن	-9.90126
▁بخار	-9.90127
▁عمق	-9.90141
▁۴۴	-9.90154
▁ارشاد	-9.90173
▁صادرکنندگان	-9.90183
▁اولسان	-9.90203
▁۳۷	-9.90232
▁اپل	-9.90234
▁تل	-9.9024
▁هاشمی	-9.90308
▁خاوران	-9.90332
▁پیمان	-9.90357
▁انگار	-9.90367
▁محکومیت	-9.90394
▁سرد	-9.90406
▁خودروسازی	-9.90436
▁محمدجواد	-9.90572
▁رحمانی	-9.90674
▁قله	-9.90746
▁حلق	-9.90748
وقت	-9.90811
▁۳۹	-9.90872
▁دفاعی	-9.90993
▁زیرا	-9.91095
▁بیمه	-9.91282
▁روب	-9.91448
▁۶۵	-9.91523
▁اسلام	-9.91578
▁گمان	-9.91634
▁وحش	-9.91636
▁سبز	-9.91759
حدود	-9.91786
هم	-9.91792
دن	-9.91935
▁زانو	-9.92005
امروز	-9.92106
داشت	-9.9231
▁۷۵	-9.9241
▁۹۵	-9.92503
خواهی	-9.92555
▁حافظ	-9.92564
▁فرو	-9.92591
▁لیس	-9.92749
▁متشک	-9.9284
▁یازده	-9.92882
▁کلاسیک	-9.93015
تصاب	-9.9311
طئ	-9.93135
▁احترام	-9.93135
▁عوارض	-9.93135
▁تجدید	-9.93137
▁جایگزین	-9.93138
▁سرقت	-9.93139
▁اماکن	-9.93141
▁یوفا	-9.93143
▁لمس	-9.93153
▁معارف	-9.93157
▁قلع	-9.93161
▁بزند	-9.93167
▁تاثیرگذار	-9.93196
▁عاص	-9.93228
▁سانسور	-9.93267
▁کشد	-9.93279
▁سان	-9.93341
▁عادل	-9.93372
لر	-9.93475
▁پوشید	-9.93529
▁ارتباطات	-9.93617
▁تحلیلگر	-9.93643
اجع	-9.93659
راحل	-9.93748
▁درد	-9.93824
وه	-9.93864
نفع	-9.93893
▁باند	-9.93914
▁نبرد	-9.94396
اکان	-9.9442
رت	-9.94519
▁شهری	-9.94545
▁فرستاد	-9.9455
▁عزاداری	-9.94551
▁مرا	-9.9467
کم	-9.94706
▁اسم	-9.94994
افزایش	-9.95062
▁نیرو	-9.95157
▁راز	-9.95169
▁جسم	-9.95349
▁درحال	-9.95373
سل	-9.95425
▁راند	-9.95451
▁اصلا	-9.95457
▁شنا	-9.95557
▁سری	-9.95575
▁کال	-9.957
▁کارمند	-9.96054
▁رستوران	-9.9626
▁قاجار	-9.9626
▁آفتاب	-9.96261
▁فریاد	-9.96261
▁مستمر	-9.96262
▁خلاص	-9.96262
▁پرفروش	-9.96274
▁طوفان	-9.96282
▁قلم	-9.96306
▁وستهم	-9.96328
▁آتی	-9.96331
طی	-9.96336
▁شوک	-9.96355
▁هیوندای	-9.96358
▁بهشت	-9.96368
▁نمایشگر	-9.96386
▁ریه	-9.96388
▁جانسون	-9.96392
▁تف	-9.96401
فرین	-9.96451
▁کام	-9.96492
آی	-9.96503
▁طیف	-9.96517
ابی	-9.96593
▁معمار	-9.96594
▁سوالات	-9.96615
۲۰۱۲	-9.96691
▁اردو	-9.96734
▁شیرین	-9.96748
▁افسر	-9.96767
▁دانستند	-9.9691
▁جیب	-9.96926
▁خوردن	-9.96954
ستون	-9.97244
▁مسئولین	-9.97259
▁قیمتها	-9.97277
▁۴۹	-9.9733
▁بینند	-9.9771
▁گوشی	-9.97721
▁آگاه	-9.97908
▁ق	-9.97965
▁شریفی	-9.98143
▁بلخ	-9.98275
مجموع	-9.98287
قیمت	-9.98291
رسمی	-9.9831
۱۹	-9.98542
▁علم	-9.98549
هزار	-9.98562
فاش	-9.98575
آوری	-9.98666
فق	-9.9874
▁کریست	-9.98838
▁آسیای	-9.98853
▁صالح	-9.99076
▁دانشمند	-9.99086
▁۵۷	-9.99277
▁مطل	-9.99305
▁خ	-9.99354
▁بدتر	-9.99417
▁تاکسی	-9.99445
▁افزار	-9.99465
▁تصادف	-9.99486
▁دبلیو	-9.99486
▁فرآیند	-9.99486
▁وسایل	-9.99487
▁سلاح	-9.99487
▁گوناگون	-9.99488
▁سایپا	-9.99489
▁معاف	-9.9949
▁وسط	-9.99491
▁صمت	-9.99491
▁مطبوعات	-9.99494
▁خطوط	-9.99512
▁دایک	-9.99516
▁حیدر	-9.99523
▁وانت	-9.99531
▁عراقچی	-9.99539
▁جنبش	-9.99553
▁پلاستیک	-9.99556
▁مقاومت	-9.9956
▁بنیان	-9.9957
▁لوئی	-9.99587
▁ص	-9.99628
▁بلیت	-9.99639
▁خواهم	-9.99646
▁لب	-9.99655
▁برندگان	-9.99716
▁بطور	-9.99744
▁خال	-9.99775
▁همیلتون	-9.99909
▁آزمایشگاه	-9.9992
▁اوبر	-9.99925
غان	-9.99935
▁بهایی	-9.99951
▁عادت	-9.99952
▁سالم	-9.99981
اجی	-10.0002
▁نگرفته	-10.0027
▁ضعیف	-10.0027
▁دارم	-10.0037
ران	-10.0039
▁زیبایی	-10.0042
▁راستا	-10.0046
▁فلیک	-10.0064
▁آموزشی	-10.0068
▁کیو	-10.0071
▁مور	-10.0088
جان	-10.0097
▁کارش	-10.0097
▁شا	-10.0113
▁پیک	-10.0115
ولی	-10.0117
▁گرب	-10.0117
▁بازنشست	-10.0123
ماهی	-10.0134
نیم	-10.0143
▁۰	-10.016
▁اگر	-10.0184
▁قطب	-10.0198
دون	-10.021
پی	-10.023
▁قص	-10.0233
بون	-10.0252
زر	-10.0252
▁خلو	-10.0267
▁سرباز	-10.0269
▁تبلیغ	-10.0272
▁آنفلوآنزا	-10.0282
▁انفرادی	-10.0282
▁تائید	-10.0282
▁باشید	-10.0282
▁حساس	-10.0283
▁شوماخر	-10.0283
▁بدهند	-10.0283
خراج	-10.0284
▁۱۹۸۶	-10.0284
▁مصدومیت	-10.0285
▁ربات	-10.0286
▁بورل	-10.0287
ظیف	-10.0287
▁دیگو	-10.0288
▁متاسف	-10.0289
▁مدارس	-10.0294
▁دانشجویان	-10.0298
▁کریستیان	-10.0298
▁برقی	-10.03
▁هنگ	-10.0304
▁شتاب	-10.0315
▁نداشتند	-10.0317
▁ضرورت	-10.0321
▁استادیوم	-10.0326
▁ادعای	-10.0335
▁شنیده	-10.0339
▁نسب	-10.0341
▁جنبه	-10.0342
صاف	-10.0344
▁خاطرات	-10.0355
▁امان	-10.0359
▁جرم	-10.0365
وا	-10.037
▁یکم	-10.0383
▁وسی	-10.0384
نیک	-10.0386
خرج	-10.0392
▁۵۵	-10.041
نام	-10.0417
▁سوئیسی	-10.0421
▁درهای	-10.0428
▁روس	-10.043
▁آزمایی	-10.0439
▁تخیل	-10.0454
کر	-10.0459
کاری	-10.0479
سخنگوی	-10.0507
▁رسیدند	-10.0509
ض	-10.0511
▁کهن	-10.0515
یرت	-10.0531
▁ارزان	-10.0532
▁ریاض	-10.0535
▁سالن	-10.0541
تن	-10.0541
▁فتح	-10.0542
▁اهدا	-10.0554
▁مهاجر	-10.0554
▁نقد	-10.0565
کسی	-10.0567
اوش	-10.0574
▁مون	-10.0577
▁منتقد	-10.0585
جو	-10.0586
▁استخوان	-10.0592
▁۲۵۰	-10.0599
▁شعار	-10.0617
▁شایع	-10.0618
▁مطالب	-10.0619
▁مسکو	-10.0624
خیص	-10.0627
▁ارتفاع	-10.0627
▁استراماچونی	-10.0627
▁تدابیر	-10.0627
▁لاریجانی	-10.0627
▁ولسوال	-10.0627
▁بکشد	-10.0627
▁کهکشان	-10.0627
▁قاطع	-10.0627
▁مترجم	-10.0627
▁دهقان	-10.0627
▁پیاده	-10.0627
▁زلزله	-10.0627
صوفی	-10.0627
▁ترجیح	-10.0628
▁کیلو	-10.0628
▁روزگار	-10.0629
▁قادر	-10.0629
▁نان	-10.0633
▁همسایه	-10.0633
▁غریب	-10.0634
▁گوگل	-10.0637
▁ببرد	-10.0637
▁غار	-10.0642
▁تمایل	-10.065
۵۰	-10.0654
▁مطهری	-10.0665
▁اختلافات	-10.0666
▁صادرکنند	-10.0674
▁ضرر	-10.068
▁محافظت	-10.068
سم	-10.0683
وخیم	-10.0684
▁سگ	-10.0702
▁موش	-10.0703
▁طوری	-10.0704
▁منشا	-10.0706
▁تروریستی	-10.0711
▁باران	-10.0763
یو	-10.0771
ایر	-10.0785
▁صورتی	-10.0788
غ	-10.081
▁نرسیده	-10.0816
▁۳۸	-10.0818
موند	-10.0822
آمریکا	-10.0846
یسم	-10.0849
پنج	-10.0859
پیشتر	-10.0866
▁ویدئویی	-10.0867
امسال	-10.0868
جونز	-10.0868
▁کتی	-10.0879
▁پارسی	-10.0887
اولین	-10.089
▁ویدیو	-10.0916
▁افشار	-10.0924
▁ادعا	-10.0933
لینی	-10.0941
▁کمال	-10.0941
▁سلطان	-10.0942
▁۹۶	-10.0945
▁راستی	-10.0952
است	-10.0955
▁ژنتیکی	-10.0961
▁درخت	-10.0966
▁فکری	-10.0968
▁روح	-10.0976
▁عروس	-10.098
بری	-10.098
وریس	-10.0981
▁مش	-10.0984
▁تگزاس	-10.0984
▁همیشگی	-10.0984
▁دوپینگ	-10.0984
▁دقایق	-10.0984
▁تلخ	-10.0985
▁نکنید	-10.0986
▁ویلموتس	-10.0986
▁بوندس	-10.0986
▁بازگردد	-10.0987
▁سرویس	-10.0987
▁هشتاد	-10.0987
▁راهبرد	-10.0989
▁۲۰۱۰	-10.0989
▁ایرباس	-10.0991
▁تعهد	-10.0993
▁نروژ	-10.0993
▁جلسات	-10.0995
▁وبسایت	-10.0995
▁منچستریونایتد	-10.0996
▁ولز	-10.0997
▁نزد	-10.0999
▁آورند	-10.1007
▁شکار	-10.1007
▁پپ	-10.1008
▁تج	-10.1017
▁عبوری	-10.102
▁شکاف	-10.1023
▁هستم	-10.1029
▁تعل	-10.1032
▁نیوک	-10.1033
ریک	-10.1033
▁شیش	-10.1038
▁جدایی	-10.1038
انکن	-10.104
▁پرسش	-10.1049
سر	-10.1053
▁افتد	-10.1055
▁ترور	-10.1061
▁کاربر	-10.1071
▁موضوعات	-10.1071
▁مگا	-10.1075
▁گرا	-10.1082
▁تبار	-10.1129
▁خبرهای	-10.1131
▁هجومی	-10.1136
رانی	-10.1142
▁شیر	-10.1145
▁دیر	-10.1149
▁داستانی	-10.116
▁خواستند	-10.1165
▁عملی	-10.1167
▁گذراند	-10.1174
لت	-10.1199
▁سنا	-10.12
▁صادقی	-10.1201
▁انبار	-10.1208
راه	-10.1221
افغانستان	-10.1234
▁قوا	-10.1257
▁دلاری	-10.1267
▁سراسری	-10.1275
▁افکن	-10.128
▁۱۳۵	-10.1291
▁فیلمساز	-10.1294
▁ناصر	-10.1299
▁برکنار	-10.131
▁تبلیغات	-10.1321
▁فو	-10.1326
▁گفتگوها	-10.1338
التهاب	-10.135
▁پرافتخار	-10.1354
▁خداحافظ	-10.1354
▁بروکسل	-10.1354
▁بعید	-10.1354
▁تلفیق	-10.1354
▁پانصد	-10.1354
▁واژه	-10.1355
▁ایرلند	-10.1355
▁برانگیخت	-10.1355
▁خوک	-10.1355
▁فلز	-10.1355
▁پردازد	-10.1356
▁برانگیز	-10.1356
▁بامداد	-10.1357
▁شیراز	-10.1359
▁پرندگان	-10.1361
▁اشتغال	-10.1361
▁پرورش	-10.1362
▁منچسترسیتی	-10.1363
▁مدارک	-10.1363
حص	-10.1363
▁پیوند	-10.1364
▁محاسبات	-10.1368
لحق	-10.1375
▁انصاریان	-10.1375
▁کرام	-10.1375
▁منار	-10.1378
▁محاکمه	-10.1378
▁تدو	-10.1385
▁ظاهرا	-10.1387
▁یازدهم	-10.1395
گانه	-10.1399
▁محسن	-10.1407
▁آمارها	-10.1408
▁زیان	-10.1415
▁راک	-10.1426
▁نقدی	-10.1431
▁گذاشتن	-10.1433
مت	-10.1435
▁مبنا	-10.1435
▁قدس	-10.1448
▁قدمت	-10.1449
▁فاز	-10.1457
باران	-10.1458
▁مساو	-10.1463
بورن	-10.1467
▁آگ	-10.1474
عبدال	-10.1476
▁شناور	-10.1479
▁افشا	-10.1507
▁۱۳۸	-10.1519
▁اوست	-10.1524
اج	-10.1534
▁سیار	-10.154
▁بوم	-10.1541
سکی	-10.1563
▁اصطلاح	-10.1564
وریا	-10.1565
▁جعل	-10.1571
اول	-10.1573
ساسی	-10.1576
▁کیم	-10.1591
فن	-10.1596
▁گمانه	-10.1597
▁۱۹۹	-10.1604
▁والی	-10.1617
خره	-10.1621
یژن	-10.1623
▁پانزده	-10.1636
▁معمولی	-10.1648
▁خواه	-10.1661
▁رویای	-10.1669
▁یکصد	-10.1669
نر	-10.1679
یوان	-10.1689
نو	-10.169
لور	-10.1693
▁ارا	-10.1696
▁قبا	-10.17
▁مشتری	-10.1702
▁ایرانیان	-10.1705
▁سل	-10.1709
▁خوشحال	-10.1722
▁درمانی	-10.1722
▁ثروتمند	-10.1732
▁فیلیپ	-10.1737
▁الکترونیک	-10.1739
▁امتحان	-10.1739
▁تأثیر	-10.1739
▁فلوریدا	-10.1739
▁ودیعه	-10.1739
▁اعزام	-10.1739
▁اطلس	-10.1739
▁مفید	-10.1739
▁فردوسی	-10.1739
▁مفهوم	-10.174
▁زرد	-10.174
▁گورستان	-10.174
▁۲۰۲۲	-10.1741
▁ویلیام	-10.1741
▁برخلاف	-10.1741
▁یادداشت	-10.1742
▁منزل	-10.1742
▁استرازنکا	-10.1742
▁قدرتمند	-10.1743
▁مسکونی	-10.1744
▁جمال	-10.1745
▁ابعاد	-10.1746
▁مارتین	-10.1746
▁زوج	-10.175
▁قاضی	-10.1751
▁دادسرا	-10.1751
▁کاوشگر	-10.1751
▁سرزمین	-10.1753
▁کمرنگ	-10.1754
▁آنقدر	-10.1758
▁تفاهم	-10.1761
▁اسپی	-10.1762
▁۴۸	-10.1764
▁امین	-10.1765
▁لحظات	-10.1766
۳۱	-10.1769
مار	-10.1773
▁برایش	-10.1774
▁محتوای	-10.1782
▁لول	-10.1786
▁گردن	-10.1786
کی	-10.1796
▁اهدای	-10.1818
▁بدر	-10.1818
▁شعب	-10.1821
▁رسانی	-10.1824
▁بوش	-10.1829
پوری	-10.1834
▁لاش	-10.1846
▁بران	-10.1859
▁مبادل	-10.1873
▁استعداد	-10.1878
▁کریمی	-10.1904
▁دوام	-10.1912
▁تاک	-10.1914
▁فرید	-10.1925
▁پرند	-10.1934
▁عزیزی	-10.1939
▁وست	-10.1953
▁بازیگری	-10.1958
▁خودم	-10.1991
▁سران	-10.2005
▁اقلیمی	-10.201
▁پیشگیری	-10.2011
▁داوطلب	-10.2017
▁پیست	-10.2018
دانشمندان	-10.2018
محمود	-10.2019
استقلال	-10.2019
۴۳	-10.2031
▁پوری	-10.2032
رنو	-10.2047
▁حضورش	-10.2064
بل	-10.2072
▁کاوا	-10.208
▁خوان	-10.2084
▁اسد	-10.2095
طفی	-10.2124
▁اوکراین	-10.2131
▁کشم	-10.2136
ائی	-10.2136
▁فرزندان	-10.2137
▁داغ	-10.2138
▁آذربایجان	-10.2139
▁موبایل	-10.2139
▁پتروشیمی	-10.2139
▁ثمر	-10.2139
▁رضوی	-10.2139
▁صنف	-10.2139
▁تحمیل	-10.2139
▁منحصر	-10.2139
▁موانع	-10.2139
▁والیبال	-10.2139
▁انقراض	-10.2139
▁بنیانگذار	-10.2139
▁مقطع	-10.2139
▁کریکت	-10.2139
▁همسان	-10.2139
▁کربن	-10.214
▁فلوید	-10.214
▁برساند	-10.214
▁بخصوص	-10.214
▁قریب	-10.214
▁سانتی	-10.2141
▁کابین	-10.2142
▁دموکرات	-10.2142
▁نیوزیلند	-10.2142
▁اهداف	-10.2143
▁زاهد	-10.2143
▁قرص	-10.2143
▁جالب	-10.2143
▁مسلمان	-10.2145
▁راموس	-10.2147
▁منوچ	-10.2147
▁منتف	-10.2147
▁بیاید	-10.2147
▁بچ	-10.2147
▁ثروت	-10.2149
▁ویران	-10.2155
▁جنایت	-10.216
▁اضطراب	-10.2162
▁توماس	-10.2162
▁۵۶	-10.2164
▁یونان	-10.2165
▁بها	-10.2169
▁خند	-10.2173
▁راس	-10.2185
▁ویکتور	-10.2192
▁توجهی	-10.2195
▁جدال	-10.2199
▁ساختار	-10.2201
▁بروند	-10.2233
رس	-10.2238
▁موسوی	-10.2241
هالی	-10.2244
▁تاب	-10.2245
▁رساندن	-10.2248
▁عموم	-10.2261
▁جهانگیری	-10.2276
▁رغ	-10.2283
▁فراری	-10.2328
▁ویل	-10.2329
یون	-10.2333
▁کاسته	-10.2376
▁زیبا	-10.2381
▁نیما	-10.2382
▁بزرگتر	-10.2387
▁دراز	-10.2388
▁وق	-10.239
قب	-10.2395
▁۷۷	-10.2408
۸۵	-10.241
▁کش	-10.2416
▁کاست	-10.242
▁ذخا	-10.242
▁سپ	-10.2424
▁مند	-10.2424
▁باتر	-10.2432
لیورپول	-10.2436
عباس	-10.2436
احمد	-10.244
حالا	-10.2453
▁باخته	-10.2454
▁همگ	-10.2469
▁موشکی	-10.247
▁احس	-10.2472
خارجه	-10.2473
▁سیف	-10.2474
▁آرای	-10.248
▁گروگان	-10.2484
▁آیین	-10.2484
▁امن	-10.2496
اینها	-10.2502
▁میلیاردها	-10.2522
▁محدودیتهای	-10.2523
نظر	-10.2524
▁محقق	-10.2525
▁ابزار	-10.2533
▁آبادی	-10.2538
▁حیوان	-10.255
▁شخص	-10.2552
ارد	-10.2554
▁مقصر	-10.2556
▁لالیگا	-10.2556
▁دادگستری	-10.2556
▁نکند	-10.2556
▁اکسیژن	-10.2556
▁لهستان	-10.2556
▁تروریسم	-10.2556
▁دانمارک	-10.2556
▁تایلند	-10.2556
▁کامیون	-10.2556
▁کنسول	-10.2556
▁تظاهرات	-10.2557
▁اپرا	-10.2557
▁مخابرات	-10.2558
▁برانکو	-10.256
نادیده	-10.256
▁کارگزار	-10.2561
▁جهاد	-10.2561
▁افکار	-10.2563
▁نشت	-10.2564
▁شریک	-10.2564
▁تاز	-10.2565
▁اوکراینی	-10.2567
▁عفونت	-10.2567
▁تسهیلات	-10.2567
▁پوش	-10.2572
▁آهنگساز	-10.2573
▁دایناسور	-10.2573
▁شوم	-10.2573
▁صلاح	-10.2574
▁مکرون	-10.2578
▁کرمان	-10.2579
ناف	-10.2583
▁صرفا	-10.2583
▁کاظم	-10.2595
▁عطرساز	-10.2596
تنش	-10.2598
▁سین	-10.2598
▁۶۷	-10.2608
▁فراگیر	-10.2621
▁فقیر	-10.2628
وحد	-10.2628
▁شدم	-10.2647
▁ویلا	-10.2653
▁خانوارهای	-10.2655
▁صاحبان	-10.2655
▁پرسید	-10.2656
نواک	-10.2663
▁خودران	-10.2671
▁بازماند	-10.2672
▁گرفتار	-10.2686
▁شاهزاد	-10.2695
ممکن	-10.2697
▁دف	-10.2702
راض	-10.2709
گو	-10.2719
▁گنج	-10.2734
▁اشک	-10.274
▁رفتند	-10.2741
عداد	-10.2741
▁استون	-10.2748
▁ایام	-10.2749
راب	-10.2757
▁دهان	-10.2757
▁اسپ	-10.2761
▁وا	-10.2766
▁جوانی	-10.2769
▁خیابانی	-10.2793
▁هاوس	-10.2793
▁جین	-10.2801
بیش	-10.2802
▁سرو	-10.2809
▁پیوستن	-10.2814
▁توانم	-10.2834
صورت	-10.2843
▁ور	-10.2844
۳۰	-10.2847
لم	-10.286
▁بدل	-10.2863
خالص	-10.2867
گروه	-10.2868
▁رنج	-10.2868
کدام	-10.287
طبق	-10.287
معاون	-10.287
آنها	-10.288
▁جلالی	-10.2887
وفر	-10.2894
▁کشی	-10.2908
اسل	-10.2943
▁فرش	-10.2949
▁مامور	-10.2953
أ	-10.2959
▁مستق	-10.2964
▁غ	-10.298
▁لیگا	-10.2981
زیگ	-10.2988
▁دروغ	-10.299
▁تخلف	-10.299
▁مرخص	-10.299
▁موظف	-10.299
▁اصرار	-10.299
▁ببینید	-10.299
▁تفریح	-10.299
▁لزوم	-10.299
خصیص	-10.299
▁فدرال	-10.299
▁انبوه	-10.299
▁ناحیه	-10.299
▁فسیل	-10.2991
▁خوراک	-10.2991
▁رابرت	-10.2991
▁بامیان	-10.2991
▁شکنجه	-10.2991
▁بدانیم	-10.2992
▁اپلیکیشن	-10.2993
▁مصاد	-10.2993
▁هامر	-10.2994
▁خاموش	-10.2994
▁اشرف	-10.2995
▁عروسک	-10.2996
▁مزار	-10.2998
▁صبر	-10.2998
▁شور	-10.2998
▁رولز	-10.2999
▁بیروت	-10.2999
▁مبادلات	-10.3001
▁اسلم	-10.3001
عوض	-10.3004
واک	-10.3005
▁گردشگران	-10.3005
▁شاهکار	-10.3006
▁ایستاد	-10.3011
▁لیدز	-10.3014
▁اریک	-10.3017
▁ژنتیک	-10.3018
▁دانم	-10.3022
▁موجودات	-10.3024
▁شیری	-10.3027
▁گرند	-10.303
▁زک	-10.3032
خوانی	-10.304
▁تبلیغاتی	-10.3042
▁قراردادش	-10.3055
▁تروی	-10.3055
▁ناو	-10.3061
▁تقویم	-10.3067
لک	-10.3073
▁فل	-10.3083
یچ	-10.3095
▁قربانی	-10.3096
▁خودروها	-10.3105
▁پذیرفته	-10.3107
▁خواندن	-10.311
▁سون	-10.3113
▁صالحی	-10.312
میم	-10.3125
▁بوک	-10.3126
▁آوردن	-10.3134
▁بریت	-10.3155
▁نرسید	-10.3157
▁۱۳۷	-10.3168
▁شه	-10.3171
▁سراغ	-10.3182
شار	-10.319
▁۵۲	-10.3227
▁صحن	-10.3228
▁ناراحت	-10.3231
دگی	-10.324
داوم	-10.3246
▁دستگیری	-10.3256
هام	-10.3272
▁تکان	-10.3277
پل	-10.3277
▁بستن	-10.3279
▁صعودی	-10.3279
▁مرس	-10.3288
شده	-10.3295
▁سینماها	-10.3296
▁مح	-10.3296
وجود	-10.3311
▁آندر	-10.3315
▁پالایشگاهی	-10.3319
▁گلزنی	-10.3321
▁نیا	-10.3324
شاخص	-10.3325
ویژه	-10.3325
عنوان	-10.3325
▁دورت	-10.3325
▁عم	-10.3326
▁نهاده	-10.3331
▁اما	-10.3337
برخ	-10.3342
▁مرزهای	-10.3343
بخش	-10.3347
شدت	-10.3353
نت	-10.3358
▁گریز	-10.3367
▁تش	-10.3371
▁۸۰۰	-10.3376
بسیاری	-10.3377
▁آیند	-10.3398
▁احت	-10.3403
▁فضانورد	-10.3406
▁اخطار	-10.3432
ناد	-10.344
▁سحر	-10.344
▁تحقیر	-10.3445
▁دژپسند	-10.3445
▁منتخب	-10.3445
▁متقاضی	-10.3445
▁سئوال	-10.3445
▁ذکر	-10.3445
▁ونیز	-10.3445
▁بندرعباس	-10.3446
▁تلگرام	-10.3446
▁یمانی	-10.3446
▁کیهان	-10.3448
▁زنگنه	-10.3448
▁رمزارزها	-10.3448
▁متعهد	-10.3448
▁بزوس	-10.3448
▁تبعات	-10.3449
▁کو	-10.3449
▁فیلتر	-10.3451
ادورو	-10.3451
▁تقدی	-10.3453
▁علامت	-10.3453
▁تسلیت	-10.3453
▁ترکمن	-10.3454
▁کشاند	-10.3455
▁شاگردان	-10.346
▁مداوم	-10.346
▁برلین	-10.3462
▁رضایت	-10.3465
▁ناجی	-10.347
▁تعجب	-10.3471
▁ترسیم	-10.3474
▁سرنشینان	-10.3475
▁افتتاح	-10.3482
▁برکناری	-10.3499
▁پراکند	-10.3502
▁پیکر	-10.3502
▁نوزدهم	-10.351
▁استرالیایی	-10.3527
▁انتقادات	-10.3531
▁اکرا	-10.3532
▁داشتم	-10.3541
▁سیزدهم	-10.3546
کننده	-10.3552
▁لق	-10.3569
▁ایا	-10.3581
▁عقید	-10.3583
▁گم	-10.3586
مل	-10.3588
▁پرهی	-10.3589
▁الکس	-10.359
▁دود	-10.3601
▁خدا	-10.3612
▁۷۳	-10.3618
▁روسی	-10.3633
▁بمب	-10.3633
یپ	-10.3643
▁حیاتی	-10.3644
▁اکس	-10.3649
ونگ	-10.3657
نیا	-10.3669
▁پروان	-10.3684
▁خواهی	-10.3705
▁نیک	-10.3714
▁گور	-10.3726
مانده	-10.373
▁مهل	-10.3739
مارک	-10.3759
▁ساختن	-10.3772
▁طلایی	-10.3772
▁شاعران	-10.3777
▁ماهها	-10.3785
بعد	-10.3787
ظهر	-10.3805
شاید	-10.3806
مسئولان	-10.3808
▁حداکثری	-10.3811
دادگاه	-10.3818
▁بشری	-10.3822
پای	-10.3851
شیر	-10.3868
رداد	-10.3871
▁۱۲۰	-10.3873
▁مکانی	-10.3876
▁لا	-10.3878
▁پالایش	-10.3919
▁اشتراک	-10.3921
▁استراحت	-10.3921
▁ناامن	-10.3921
▁پادتن	-10.3921
لقی	-10.3922
▁لنون	-10.3922
▁یوگا	-10.3922
▁غرق	-10.3923
▁داغستان	-10.3923
▁سایبری	-10.3923
▁انتقادهای	-10.3923
▁بگیریم	-10.3923
▁کاشی	-10.3924
▁تندرو	-10.3924
▁کمربند	-10.3924
▁کانری	-10.3924
▁دعوا	-10.3924
▁مصون	-10.3925
▁استراتژیک	-10.3926
▁ناپدید	-10.3926
▁ازای	-10.3926
▁بزنند	-10.3927
▁طرفدار	-10.3927
▁همرسان	-10.3928
▁خرند	-10.3929
▁فرونشست	-10.3931
▁جاشوا	-10.3931
▁مرگبار	-10.3932
▁کلود	-10.3933
▁ویلیامز	-10.3934
▁کارلوس	-10.3934
▁طرز	-10.3936
▁پناهجویان	-10.3937
▁صادراتی	-10.394
▁شاخ	-10.3943
▁تاجیک	-10.3947
رده	-10.3948
▁بجا	-10.3951
▁شناسان	-10.3953
▁زو	-10.3953
▁خشکسالی	-10.3954
▁کشند	-10.3955
▁آرامکو	-10.3957
دا	-10.3959
▁سالمندان	-10.3966
▁توضیحات	-10.3966
▁نیش	-10.3968
▁وحید	-10.397
▁بهرام	-10.3975
ایب	-10.3978
نتی	-10.3978
▁اشیا	-10.3983
▁ضربات	-10.3987
▁خریداران	-10.3995
▁جبه	-10.3998
▁آوردند	-10.4004
ایح	-10.4014
چین	-10.4029
▁واسط	-10.4039
جیره	-10.4055
دان	-10.4056
▁۹۱	-10.407
▁کلان	-10.408
▁سید	-10.4094
▁نای	-10.4095
حتی	-10.4101
اق	-10.4124
دور	-10.4146
▁گانه	-10.4158
۲۵	-10.417
▁خودروی	-10.4174
▁سیام	-10.4193
دم	-10.4203
لوت	-10.4216
▁محور	-10.4238
▁بیل	-10.424
▁گفتگوی	-10.4241
▁آرا	-10.4247
نک	-10.4248
▁اوین	-10.4262
▁مست	-10.4262
▁بوق	-10.4266
رق	-10.4271
ارغ	-10.4292
واسط	-10.4299
ضعیف	-10.4299
استفاده	-10.4301
فیلم	-10.4301
پلیس	-10.4302
اتحاد	-10.4302
گل	-10.4328
▁شدیدتر	-10.4331
▁نوار	-10.4336
▁جف	-10.4346
ائ	-10.4347
▁فا	-10.435
▁معترض	-10.4354
بس	-10.4361
▁روستای	-10.4364
▁بدی	-10.4364
وش	-10.4371
▁استعفای	-10.4379
▁رقص	-10.4379
▁ایمان	-10.4389
▁دارا	-10.4399
عکس	-10.4401
▁دم	-10.4413
▁استثنا	-10.4421
▁اعتقاد	-10.4421
▁بنگلادش	-10.4421
▁تجلیل	-10.4421
▁تعقیب	-10.4421
▁خانوادگی	-10.4421
▁شارژ	-10.4421
▁شمخانی	-10.4421
▁ناچار	-10.4421
▁محوطه	-10.4421
▁وقایع	-10.4421
▁ضایع	-10.4421
▁پارالمپیک	-10.4421
▁تعامل	-10.4421
▁بکشند	-10.4421
▁نشیب	-10.4421
▁فجر	-10.4421
▁طنز	-10.4421
▁نوبخت	-10.4422
▁تاکتیک	-10.4422
▁بیاورد	-10.4422
▁قض	-10.4422
هنورد	-10.4422
▁پیشتاز	-10.4422
▁۱۹۹۰	-10.4422
▁آرشیو	-10.4422
▁بختیار	-10.4422
▁تماشاچی	-10.4422
▁خوشنام	-10.4423
▁درآورد	-10.4423
▁دماوند	-10.4423
▁اخلال	-10.4423
▁عرف	-10.4424
▁اعتیاد	-10.4425
▁متناسب	-10.4425
▁ویزا	-10.4425
▁پورتو	-10.4425
▁مهرماه	-10.4425
▁الحسن	-10.4426
▁چراغ	-10.4427
▁موازی	-10.4427
▁کشتار	-10.4427
▁آرامگاه	-10.4427
▁مخدر	-10.4427
▁تکنولوژی	-10.4431
▁ستایش	-10.4431
▁دپ	-10.4432
▁تخلفات	-10.4432
▁بشار	-10.4433
فاد	-10.4434
▁مالاریا	-10.4437
▁محبوبیت	-10.4438
▁اذ	-10.4451
▁تعدیل	-10.4453
▁قبال	-10.4455
▁پایدار	-10.4455
▁مطالعات	-10.4456
▁احساسات	-10.4456
▁تقابل	-10.4458
▁کیفر	-10.4462
▁ربط	-10.4467
▁۶۸	-10.4469
▁صح	-10.4472
▁عبدی	-10.4478
▁روزمر	-10.4487
▁نکردن	-10.4498
▁گلف	-10.4501
▁تاریک	-10.452
▁وجه	-10.4525
▁ظه	-10.4529
▁جنس	-10.4537
گه	-10.4543
▁ری	-10.456
▁انتقادها	-10.4566
▁نمادهای	-10.4567
▁همانند	-10.4572
شهر	-10.458
▁نامزدها	-10.458
▁هواپیماهای	-10.458
▁ببر	-10.4584
▁تصمیمات	-10.4593
▁شر	-10.4603
▁قی	-10.4611
▁واحدها	-10.4624
وب	-10.4633
▁مغزی	-10.4639
سیا	-10.465
▁انت	-10.4661
عب	-10.4663
اژ	-10.4666
سیتی	-10.4667
▁یاری	-10.4669
▁بس	-10.468
اقد	-10.4684
▁ادا	-10.4685
▁کپی	-10.4711
▁موکو	-10.4741
▁۳۶	-10.4744
مال	-10.4753
▁شمسی	-10.4755
▁رزم	-10.476
▁آقا	-10.4773
▁آمریکاست	-10.4776
▁۷۴	-10.4792
▁ط	-10.4799
▁پار	-10.48
▁همای	-10.4803
▁کرو	-10.4818
▁کشت	-10.4819
۷۰	-10.4826
آمیز	-10.4826
آنتونی	-10.4826
▁جوز	-10.4826
محققان	-10.4826
مراسم	-10.4827
▁تورمی	-10.483
▁یکسال	-10.4838
گاهی	-10.485
▁تای	-10.4855
خیلی	-10.4871
▁روستایی	-10.4871
۱۵	-10.4871
اری	-10.4882
▁کلا	-10.4887
▁گیاه	-10.4906
▁اختلا	-10.491
▁اظهارنظر	-10.4929
▁زبا	-10.4932
▁معیار	-10.4938
▁مخصوص	-10.4939
▁مأمور	-10.4941
ژانس	-10.4943
▁استخدام	-10.4947
▁تخصص	-10.4947
▁زریاب	-10.4947
▁سامسونگ	-10.4947
▁مشکوک	-10.4947
▁معدود	-10.4947
▁پرطرفدار	-10.4947
▁بیفتد	-10.4947
▁غیاب	-10.4947
▁خفیف	-10.4947
▁نیجر	-10.4948
▁سکونت	-10.4948
▁رفاه	-10.4948
گذاری	-10.4948
▁ترسناک	-10.4948
▁غزنی	-10.4948
▁اسپرت	-10.4949
▁اقلی	-10.4949
▁خرابکار	-10.4949
▁بمانند	-10.4949
▁قطار	-10.4949
▁نکنند	-10.4949
▁بهبهان	-10.495
▁مرجع	-10.495
▁وفادار	-10.4951
▁توجیه	-10.4951
▁عنکبوت	-10.4951
▁دانشکد	-10.4951
▁هشتگ	-10.4952
▁سلف	-10.4952
▁دستاوردهای	-10.4956
▁تسلیم	-10.4957
▁اخلاق	-10.4958
▁کیانوش	-10.4958
▁ایلنا	-10.4958
▁نادرست	-10.4958
▁لاری	-10.4959
▁بوکسور	-10.496
▁سادات	-10.4961
▁شوید	-10.4962
سپاری	-10.4963
▁تعادل	-10.4963
▁صند	-10.4967
تلاف	-10.4968
▁غالب	-10.4968
▁۲۰۰۴	-10.4968
▁سیاستمداران	-10.4971
▁اسپوت	-10.4971
▁داریوش	-10.4972
▁سناتور	-10.4974
▁علاقمندان	-10.4974
▁عج	-10.4974
اش	-10.4976
▁کادی	-10.4977
▁روبروست	-10.4978
▁دارید	-10.498
▁برنز	-10.4982
▁اموا	-10.4984
▁کاربرد	-10.4984
شمار	-10.4985
▁گیاهان	-10.499
▁ماری	-10.4992
▁برگ	-10.4995
▁کوچکی	-10.4999
▁فرانک	-10.5001
▁کیست	-10.5007
نزا	-10.5008
▁دهک	-10.501
▁پرسی	-10.5033
زاک	-10.5037
▁گزارشگران	-10.5052
یحی	-10.5052
کاب	-10.5053
▁کوچکتر	-10.5055
▁دقت	-10.5058
▁تمرکز	-10.5065
▁داشتیم	-10.5069
▁آمدند	-10.5071
▁جلال	-10.5076
سیویر	-10.5079
▁منته	-10.5081
▁حداد	-10.5081
▁اعضا	-10.5083
▁آباد	-10.509
▁تان	-10.5097
▁صدم	-10.5101
تیک	-10.5106
▁ظهر	-10.5113
▁یافتند	-10.5116
▁رادیویی	-10.5127
▁قائ	-10.5129
مپ	-10.5143
▁ژوز	-10.5156
▁برزیلی	-10.5159
▁نامدار	-10.5164
▁مهمان	-10.519
▁آفرین	-10.5195
افت	-10.5206
▁هروی	-10.5207
▁وب	-10.5218
▁زور	-10.5231
▁ساک	-10.5236
کمیت	-10.5242
▁جرد	-10.5245
▁نداد	-10.5269
▁۴۶	-10.5278
▁۷۲	-10.5285
▁بینیم	-10.5295
▁برداشتن	-10.5302
▁خارا	-10.5319
ناک	-10.5319
مدیر	-10.5331
▁بگوی	-10.5335
▁کاغذ	-10.5337
سن	-10.5352
▁کول	-10.5376
اخیرا	-10.5383
زا	-10.5398
▁تند	-10.5412
مهدی	-10.5412
▁روستا	-10.5421
▁سیزده	-10.5435
بچه	-10.5449
▁۱۹۰	-10.546
پرو	-10.5463
▁تعهداتش	-10.5464
مایک	-10.5472
▁هندی	-10.5474
▁قم	-10.5486
▁مکزیک	-10.5495
شیبا	-10.5502
▁مقرر	-10.5503
▁اتوبوس	-10.5503
▁الانبیا	-10.5503
▁شلوغ	-10.5503
▁صداوسیما	-10.5503
▁غربالگری	-10.5503
▁نتانیاهو	-10.5503
▁المستقبل	-10.5503
▁دریابندری	-10.5503
▁چرنکوف	-10.5503
▁امیرشاهی	-10.5503
▁مدیترانه	-10.5503
گراندپری	-10.5503
▁آسمایی	-10.5503
▁خیانت	-10.5503
▁تضمین	-10.5503
▁سعد	-10.5504
▁مسایل	-10.5504
▁پشتیبان	-10.5504
▁تبادل	-10.5504
▁توفان	-10.5504
▁ساویز	-10.5505
▁آشوری	-10.5506
▁مغاز	-10.5507
▁مقیم	-10.5507
وداع	-10.5507
▁چوب	-10.5507
▁کوهستان	-10.5507
▁ببینند	-10.5507
▁لبخند	-10.5508
▁استراتژی	-10.5508
▁نظم	-10.5509
▁حجاب	-10.5509
▁شیلی	-10.551
▁تعبیر	-10.5511
▁۲۰۳۰	-10.5511
▁حساسیت	-10.5513
وطن	-10.5513
▁انگشت	-10.5514
ختم	-10.5516
▁روبرت	-10.5519
▁کوب	-10.5525
▁شهریار	-10.5527
▁گرای	-10.5535
▁همینطور	-10.5539
▁کاردن	-10.5541
▁اصلاحات	-10.5544
▁کامپیوتر	-10.5554
▁بافت	-10.5562
▁صفحات	-10.5563
▁دیپلمات	-10.5579
▁سازد	-10.5584
▁مسیرهای	-10.5589
▁کلام	-10.5592
سو	-10.5599
تب	-10.5602
▁نداشتن	-10.5608
▁اندیش	-10.5616
▁خواهر	-10.5617
▁مرتب	-10.5629
▁نسبتا	-10.5629
▁انتقالات	-10.563
▁۶۱	-10.5649
▁نجف	-10.5652
شنگ	-10.5653
▁جن	-10.5659
▁گلزن	-10.567
▁منصور	-10.567
▁مغ	-10.5673
جایی	-10.5674
▁روسا	-10.5709
▁رصد	-10.5711
▁دیو	-10.5717
▁درس	-10.5722
▁کردستان	-10.5723
▁وحشی	-10.5728
▁حدی	-10.5734
▁عی	-10.5762
▁عمو	-10.5765
▁باستان	-10.5772
▁کشیدن	-10.5776
▁یکبار	-10.5778
▁نژادی	-10.5795
مرکز	-10.5808
▁مع	-10.5818
▁وار	-10.5819
▁تار	-10.5824
▁انجامید	-10.5826
۱۳	-10.5833
▁قومی	-10.5834
▁شهیدی	-10.585
▁دوازده	-10.5861
▁خوا	-10.5871
▁خطای	-10.5878
الله	-10.5901
خواست	-10.5907
▁۸۲	-10.5911
▁دربار	-10.5919
▁باستانی	-10.5927
دیگر	-10.5935
▁حاکم	-10.5939
▁برگشته	-10.5951
▁علیر	-10.5955
▁۱۳۶	-10.5975
علیرضا	-10.5978
قدس	-10.5978
قص	-10.5978
هدف	-10.5982
▁تثب	-10.5983
▁رحم	-10.5999
▁هوادار	-10.6
▁هل	-10.6004
درصد	-10.6007
شته	-10.6012
▁عکسی	-10.6015
▁رسو	-10.6019
▁کور	-10.6021
▁بازارها	-10.6034
▁تلف	-10.6043
تکب	-10.6047
▁۱۹۷	-10.6053
▁فرج	-10.6066
غال	-10.6073
نصف	-10.6074
▁مکرر	-10.6077
شاه	-10.6077
جد	-10.6083
▁گارد	-10.6085
▁مصدوم	-10.6086
▁مختل	-10.6088
▁اسرار	-10.6091
▁آسوشیتدپرس	-10.6091
▁نوشیدن	-10.6091
▁فروپاشی	-10.6091
▁حرکات	-10.6091
▁غفوری	-10.6091
▁میکروب	-10.6091
نظرسنجی	-10.6091
▁برگردد	-10.6091
▁تأیید	-10.6091
▁آشفت	-10.6091
▁ناشناخت	-10.6092
▁ازبکستان	-10.6092
▁زیرساخت	-10.6092
▁تالار	-10.6092
▁اوباما	-10.6092
▁بپردازد	-10.6092
▁بیلسا	-10.6092
▁مصلحت	-10.6092
▁خوانندگ	-10.6092
▁مسافت	-10.6092
▁بگیرید	-10.6093
▁۱۳۹۵	-10.6094
▁مداخل	-10.6094
▁سردبیر	-10.6094
دربند	-10.6095
▁خلاقیت	-10.6095
▁ناتوان	-10.6095
▁پایبند	-10.6095
▁بلومبرگ	-10.6095
▁خستگی	-10.6096
▁بقایای	-10.6099
▁سنبل	-10.6099
▁خرسند	-10.6099
▁یکسان	-10.6101
▁عزم	-10.6102
▁توخل	-10.6103
▁دیدگاه	-10.6103
▁ابوال	-10.6105
▁فیس	-10.6105
▁متنوع	-10.6105
▁سکوت	-10.6107
▁شایعات	-10.6108
▁حباب	-10.6109
▁گرمایش	-10.611
▁یور	-10.6119
دیه	-10.6119
تمرکز	-10.6126
▁سارا	-10.6129
▁چهاردهم	-10.613
▁رانندگی	-10.613
نج	-10.6132
حقق	-10.6134
▁مایل	-10.6139
انا	-10.6139
▁اج	-10.6144
۴۰	-10.6146
▁نوید	-10.6147
▁ریچارد	-10.6149
صخره	-10.6151
▁نکردند	-10.6152
▁رایج	-10.6155
▁دستیابی	-10.616
▁پوشاند	-10.6162
▁کین	-10.6164
▁مهاجران	-10.6165
▁پیرو	-10.6167
▁سربازان	-10.6167
▁دهندگان	-10.617
▁جانور	-10.6175
▁ادعاهای	-10.6179
▁قوس	-10.6193
گیر	-10.6197
▁الیز	-10.62
▁کت	-10.6201
▁شانزدهم	-10.6202
▁قرض	-10.6212
▁نرفت	-10.6212
▁رسم	-10.6223
▁بالاتری	-10.6234
رینگ	-10.6242
▁سم	-10.6242
یف	-10.6247
▁قطبی	-10.6248
▁همکار	-10.6268
▁اصول	-10.6297
▁مرگش	-10.6298
▁دا	-10.6298
▁ناآرامی	-10.6298
▁خار	-10.6299
▁گرگ	-10.6304
▁داروها	-10.6312
تلتی	-10.6314
▁سختگیر	-10.6316
▁بلوک	-10.6317
▁مرزها	-10.6318
▁حریفان	-10.6322
تل	-10.6329
▁پروازها	-10.6333
▁نوشتن	-10.6345
▁پارس	-10.6346
▁۱۹۴	-10.6355
عان	-10.6357
▁محدودیتها	-10.6362
▁استخر	-10.6367
▁کما	-10.6387
▁الزام	-10.6388
▁مای	-10.6394
یقه	-10.6403
▁مق	-10.6403
▁نماند	-10.6403
▁ابلاغی	-10.6416
▁گزارشها	-10.6421
▁ریخت	-10.6431
مانع	-10.6441
اف	-10.6443
برایتون	-10.6449
برگ	-10.645
▁۱۵۰۰	-10.6462
▁کنو	-10.6464
یلیون	-10.6465
فا	-10.6472
هرانا	-10.6473
▁منظر	-10.6484
روی	-10.6485
▁بنیادی	-10.6506
▁ار	-10.6511
▁یار	-10.6517
▁شانه	-10.6518
▁مادری	-10.6521
واد	-10.6525
▁۱۳۳	-10.6527
۹۱	-10.6542
وارد	-10.6556
▁هلی	-10.6559
شیو	-10.6569
▁فین	-10.6581
▁تیک	-10.6585
بازار	-10.6592
قرض	-10.6593
پژوهشگران	-10.6596
تحول	-10.6596
باشگاه	-10.6596
رقابت	-10.6597
علاو	-10.6599
▁سام	-10.6607
زده	-10.6612
دهنده	-10.6613
آخری	-10.6618
مرگ	-10.6631
خیم	-10.6636
▁ویدئوی	-10.6638
▁مرم	-10.6659
▁۹۰۰	-10.6663
باز	-10.6665
▁سرنشین	-10.6681
وان	-10.6687
▁۱۹۳	-10.6691
▁قاب	-10.6693
▁دردسر	-10.6705
▁ابهام	-10.6707
▁صفرها	-10.6708
کردن	-10.6715
▁آتالانتا	-10.6716
▁شطرنج	-10.6716
▁مغناطیس	-10.6716
▁ابتکار	-10.6716
▁خوست	-10.6716
▁شباهت	-10.6716
▁گشود	-10.6716
▁منفجر	-10.6716
▁طارمی	-10.6716
▁خیال	-10.6716
▁یادبود	-10.6717
▁سوپرلیگ	-10.6717
▁ببیند	-10.6717
▁مجاهد	-10.6717
▁ثامن	-10.6717
▁متاثر	-10.6717
▁مطلوب	-10.6717
▁ماندگار	-10.6717
▁بلاروس	-10.6717
▁نزول	-10.6717
▁زغال	-10.6717
ضعف	-10.6717
▁عارف	-10.6717
ارتاک	-10.6718
▁ویرجی	-10.6718
▁فضلی	-10.6719
▁جابجا	-10.6719
▁پراید	-10.6719
▁فخر	-10.672
رگس	-10.672
▁بگوییم	-10.672
▁طعم	-10.672
▁لامبورگینی	-10.6721
▁اعتراف	-10.6721
▁غیرنظامی	-10.6721
▁کریسمس	-10.6721
جوبی	-10.6721
▁اردوگاه	-10.6723
▁اعطا	-10.6725
▁سیارک	-10.6725
لاتین	-10.6726
▁گابریل	-10.6729
▁شوش	-10.6731
▁آلن	-10.6733
▁کمپین	-10.6734
▁قند	-10.6737
▁تیرماه	-10.674
▁بنکسی	-10.674
▁ندیده	-10.6741
▁بولت	-10.6749
▁دشمنان	-10.6751
▁فرق	-10.6751
▁سیم	-10.6751
▁تایم	-10.6755
گا	-10.6757
▁تابعیت	-10.6762
الدین	-10.6765
▁رول	-10.6766
▁آبادان	-10.6766
▁شناسد	-10.6767
▁۱۳۴	-10.6769
▁مستقیما	-10.6776
مرث	-10.6777
▁مشت	-10.678
آبادی	-10.6781
کره	-10.6789
▁تون	-10.6799
فصل	-10.6799
▁جست	-10.68
وت	-10.68
بهار	-10.6803
▁ناب	-10.6813
کین	-10.6817
▁هکرها	-10.6823
▁پال	-10.6827
خواهید	-10.6831
▁جاست	-10.6834
بت	-10.6836
▁حکمتی	-10.6845
زمان	-10.6847
▁فروشی	-10.6848
▁پیشرو	-10.6855
مجانی	-10.6861
▁فوریت	-10.6866
▁ملا	-10.6872
▁نوجوانان	-10.6882
▁گفتگوهای	-10.6884
▁ریزش	-10.6896
▁بانو	-10.6897
▁اندازد	-10.6898
▁دیدارهای	-10.6899
▁مهندس	-10.69
▁چیزهای	-10.6901
▁کلاهبردار	-10.6902
▁الگوی	-10.6903
▁نویی	-10.6904
▁فیل	-10.6908
▁رخت	-10.691
▁اعما	-10.6911
▁دخترش	-10.6915
▁مهاجمان	-10.6918
آمار	-10.6926
پر	-10.694
▁فرض	-10.6942
▁بل	-10.6951
▁شمس	-10.6955
▁مری	-10.6964
▁بارور	-10.6965
▁ماهیگیر	-10.6966
گرفته	-10.6968
خاطر	-10.6969
▁دوازدهم	-10.6972
▁۳۵۰	-10.6972
▁۵۳	-10.6984
▁کمدی	-10.7014
▁مسیحی	-10.7018
▁معیشتی	-10.7021
▁کارگردانان	-10.7032
▁ادب	-10.7041
▁نورد	-10.7045
▁گرایان	-10.705
کرد	-10.7056
▁پرت	-10.7057
▁زی	-10.7058
▁قش	-10.7059
▁درخشانی	-10.7059
▁بم	-10.7064
لاند	-10.7065
▁آگاهی	-10.708
▁۹۳	-10.7095
▁۵۹	-10.7097
لپ	-10.7106
▁درج	-10.7112
۲۳	-10.7116
▁جنی	-10.7123
▁۱۹۶۰	-10.713
▁نق	-10.7137
▁انیس	-10.7138
برید	-10.7158
۲۰	-10.7167
▁نیازها	-10.7167
امیر	-10.7172
ربی	-10.7182
▁۱۳۹	-10.72
▁منصوری	-10.7205
انس	-10.7215
▁شهردار	-10.7222
گذشت	-10.7223
▁درخش	-10.7232
▁داروهای	-10.7237
ظاهر	-10.7253
انتظار	-10.7263
منابع	-10.7263
حمید	-10.7263
تولید	-10.7263
بینی	-10.7311
▁پیشرفته	-10.7311
▁پهپاد	-10.7368
▁۱۹۵	-10.737
▁تص	-10.7379
▁همجنس	-10.7383
دغدغه	-10.7383
▁اثبات	-10.7383
▁بفروشد	-10.7383
▁خادم	-10.7383
▁واضح	-10.7383
▁مکتوب	-10.7383
▁تفسیر	-10.7383
▁خسارات	-10.7383
▁ببینیم	-10.7383
▁نیسان	-10.7383
▁وصل	-10.7383
▁ارکستر	-10.7383
▁ثانوی	-10.7383
▁ورشکست	-10.7383
▁وحشتناک	-10.7383
▁جلد	-10.7383
▁تمدن	-10.7383
▁بازنگری	-10.7383
▁فروزش	-10.7384
▁آپارتمان	-10.7384
▁سارس	-10.7384
▁زهره	-10.7384
▁گلایه	-10.7384
▁ارگ	-10.7384
▁افکاری	-10.7385
▁پالاس	-10.7385
▁مکتب	-10.7385
▁فرایند	-10.7385
▁تغذیه	-10.7385
▁مبدا	-10.7386
دترا	-10.7386
▁مواضع	-10.7387
▁امواج	-10.7387
▁عصب	-10.7388
▁پیشکسوت	-10.7388
▁اکتشاف	-10.7388
▁کووید۱۹	-10.7388
▁مدرک	-10.7388
▁۱۹۹۸	-10.7388
▁بردارد	-10.7389
▁۱۹۴۰	-10.7389
▁حاکمیت	-10.739
▁برآمد	-10.739
▁ارزشمند	-10.739
▁آشام	-10.7391
▁زنجان	-10.7393
▁گازی	-10.7394
▁انحصار	-10.7396
▁ترافیک	-10.7396
▁اسنپ	-10.7396
▁داوری	-10.7396
▁ایرج	-10.7396
▁الکل	-10.7399
▁پررنگ	-10.74
▁عاشقانه	-10.7401
▁لحن	-10.7401
▁ایراد	-10.7402
▁حتما	-10.7404
▁اقبال	-10.7405
▁مرتضی	-10.7405
تنها	-10.7405
▁ثروتمندتر	-10.7407
دوف	-10.7409
ساب	-10.741
▁دهلی	-10.7413
▁ستارگان	-10.7413
▁اسحاق	-10.7413
▁والدین	-10.7415
ناشناس	-10.7415
▁گرسنگ	-10.7415
▁گویی	-10.7427
▁جنای	-10.743
▁پیتر	-10.7432
تری	-10.7437
▁سانتریفیوژهای	-10.744
نز	-10.7441
▁شام	-10.7442
▁سطو	-10.7444
▁نمایشنامه	-10.7446
گفت	-10.7449
▁روال	-10.745
پاتی	-10.7455
▁شار	-10.7464
▁دنیاست	-10.7471
▁زایی	-10.7473
پرها	-10.7483
▁نمکی	-10.7491
▁سفی	-10.7492
▁قف	-10.7495
▁سلطانی	-10.7502
▁گلو	-10.7507
▁عمران	-10.7527
خواه	-10.754
▁کوبا	-10.7541
▁تام	-10.7542
▁عقل	-10.7547
وخامت	-10.755
▁شرم	-10.7552
کوبی	-10.7558
ستگی	-10.7559
▁مندان	-10.756
تاسف	-10.7564
▁هفدهم	-10.7567
زن	-10.7579
▁خوانی	-10.758
▁خالص	-10.758
▁امپراتوری	-10.7584
▁پاهای	-10.7585
▁حو	-10.7588
▁چار	-10.759
قات	-10.7604
▁حام	-10.7604
▁۸۶	-10.7607
مو	-10.7614
▁کاریر	-10.7619
▁برجا	-10.762
۰۰۰	-10.7622
▁ایکس	-10.7628
▁ناامید	-10.7629
▁اتکا	-10.7638
▁۹۴	-10.7653
▁پژو	-10.7655
▁رنجر	-10.7657
▁دادخواه	-10.7661
▁تحرک	-10.7665
▁شهید	-10.7669
سفر	-10.7671
اع	-10.7675
▁انتها	-10.768
▁اله	-10.7698
▁دانشجویی	-10.7711
یویا	-10.7733
▁شریف	-10.7739
درفتار	-10.775
▁نمود	-10.7768
چهار	-10.7778
▁کیت	-10.7779
▁غم	-10.7788
زم	-10.7829
▁جرا	-10.783
▁قرمزها	-10.7832
▁نظرات	-10.7846
▁وجو	-10.7848
▁مقر	-10.7869
▁ریالی	-10.7879
▁۷۸	-10.7894
▁لوکا	-10.7896
▁گره	-10.7918
▁الهی	-10.7936
▁نوآور	-10.7939
ظن	-10.7944
▁مقا	-10.7953
گشایی	-10.7957
▁استاین	-10.7963
سیلوا	-10.7963
▁تاریکی	-10.7966
سوزی	-10.7969
کارشناسان	-10.7977
گفتگو	-10.7977
صندوق	-10.7977
خانواده	-10.7977
مجلس	-10.7977
▁۶۴	-10.7979
چرا	-10.7982
▁نظرهای	-10.7989
▁فور	-10.7991
فرج	-10.7994
وح	-10.8007
بند	-10.801
▁میز	-10.8029
صالح	-10.8029
▁خشن	-10.8049
▁سکت	-10.8054
برنامه	-10.8064
▁گار	-10.8066
▁نویسندگ	-10.8068
▁خد	-10.8072
▁خانوار	-10.8081
▁ژنو	-10.8083
▁مقدم	-10.8091
▁معل	-10.8095
▁مشکات	-10.8095
▁اتیوپی	-10.8097
▁تصاحب	-10.8097
▁جامائیکا	-10.8097
▁زحمت	-10.8097
▁فلسفه	-10.8097
▁ملاحظ	-10.8097
▁هیأت	-10.8097
▁پنگوئن	-10.8097
▁بدخشان	-10.8097
▁پلامر	-10.8097
▁ناقض	-10.8097
▁کالبد	-10.8097
▁وروورت	-10.8097
▁رژیم	-10.8097
▁گازها	-10.8097
▁پوتین	-10.8097
▁سوگوار	-10.8098
▁مثلث	-10.8098
▁خزان	-10.8098
▁مولوی	-10.8099
▁احتیاط	-10.8099
▁برسند	-10.8099
▁تایتان	-10.8099
▁مسترز	-10.8099
▁شرح	-10.81
▁راپینو	-10.81
▁آمبول	-10.81
▁ارجاع	-10.81
▁اپرای	-10.8101
▁احکام	-10.8101
▁معالج	-10.8101
▁حسرت	-10.8102
▁ماشه	-10.8102
▁توریست	-10.8102
▁مزرعه	-10.8102
▁مرکل	-10.8102
▁لرز	-10.8103
▁تکنیک	-10.8103
▁برشمرد	-10.8103
▁نارس	-10.8104
▁۱۹۷۰	-10.8105
▁۱۹۸۰	-10.8105
▁آنفیلد	-10.8106
▁آلزایمر	-10.8111
▁پرآ	-10.8111
▁ببرند	-10.8115
▁لیور	-10.8118
طرف	-10.8121
▁دندان	-10.8121
▁هرمز	-10.8122
▁قائم	-10.8123
▁جزایر	-10.8125
ائیل	-10.8127
▁سیبری	-10.8128
▁شاپو	-10.8132
▁میهمان	-10.8133
▁نکات	-10.8133
▁خلوت	-10.8135
▁تمرینات	-10.8138
▁انداختند	-10.8139
▁گرایش	-10.8141
ذل	-10.8142
انصراف	-10.8142
▁مثل	-10.8145
▁بانکها	-10.8146
▁شناسند	-10.8147
باب	-10.815
▁ساری	-10.8155
▁برایم	-10.816
▁شون	-10.8166
▁رایزن	-10.8173
▁گذارند	-10.8175
▁ذهنی	-10.8175
▁گردش	-10.8179
▁رضایی	-10.8193
یلی	-10.8199
▁بدنی	-10.8199
▁اسکو	-10.8202
رشد	-10.8207
رویس	-10.821
▁هجدهم	-10.8212
سلسل	-10.8218
▁برف	-10.8218
▁محا	-10.822
▁۵۸	-10.8224
▁زم	-10.8228
▁دلال	-10.8231
▁فیلمبردار	-10.8237
▁بناها	-10.8238
▁۷۶	-10.8238
▁لوو	-10.8244
▁پیر	-10.8249
▁بگیر	-10.8254
ایل	-10.8256
واقع	-10.8268
▁نزدیکان	-10.8268
▁بلو	-10.8269
▁تحقیقی	-10.8281
▁جاهای	-10.8283
گیل	-10.829
۲۴	-10.8291
▁موجودی	-10.8293
لاق	-10.8307
▁گنجی	-10.8308
رشاد	-10.8311
جیغ	-10.8313
▁کارفرمای	-10.8314
بهم	-10.8317
▁وزرای	-10.832
اگ	-10.8322
ندگان	-10.8325
همه	-10.8332
▁افتادن	-10.8337
▁ادوارد	-10.8341
▁آرزوی	-10.8348
▁خر	-10.8352
▁قراردادهای	-10.8354
▁اصولگرای	-10.8355
▁شنیدن	-10.8365
▁وگوی	-10.8374
▁بارداری	-10.8385
▁نگر	-10.839
شد	-10.8401
▁سرا	-10.8406
▁بازنشستگ	-10.8408
▁ویدئو	-10.8419
▁بدین	-10.8423
▁تونس	-10.8431
▁اجبار	-10.8442
▁نابود	-10.8443
▁منطق	-10.8444
▁په	-10.8445
بازی	-10.8446
▁سرگرمی	-10.8452
▁نمادی	-10.8456
▁گذراندن	-10.8469
▁کلم	-10.8476
▁روم	-10.8488
▁۴۷	-10.8495
▁معنا	-10.8497
▁متیو	-10.8502
تواند	-10.8502
▁ذی	-10.8503
▁نیو	-10.8506
▁سامان	-10.8509
▁کوس	-10.8528
▁آس	-10.8538
▁استیون	-10.8546
▁ژو	-10.8554
▁وث	-10.8564
وله	-10.8595
زیه	-10.86
غه	-10.8601
▁میلی	-10.8618
▁انگل	-10.8626
لس	-10.8632
اهید	-10.8632
شوه	-10.8643
▁گویا	-10.8651
▁هرکس	-10.8659
▁کپ	-10.8665
▁مالکان	-10.867
ضان	-10.8675
▁۴۱	-10.8679
ازاد	-10.8687
▁آلود	-10.8689
جاد	-10.8692
خمین	-10.8697
▁بوی	-10.8708
صره	-10.8716
▁پریش	-10.8722
پذیر	-10.873
▁کاف	-10.8731
ورا	-10.8738
▁جیل	-10.8739
محمدجواد	-10.8745
فدرر	-10.8746
پرسپولیس	-10.8747
انتشار	-10.8747
اقتصاد	-10.8749
نمایندگان	-10.8749
همچنین	-10.875
دلال	-10.875
فلیک	-10.8757
▁خبرها	-10.8757
هکرها	-10.8769
الکس	-10.8776
▁آنتی	-10.8787
روسا	-10.8802
▁احمدشا	-10.8804
▁دشمن	-10.8825
روزنامه	-10.8831
جانب	-10.8837
حرفه	-10.8838
▁سلام	-10.8844
▁دستیار	-10.8845
▁سانتریفیوژ	-10.8847
▁پیچ	-10.8848
▁منصو	-10.8848
تخا	-10.885
▁دستاورد	-10.8854
▁مشوق	-10.8855
▁لاس	-10.8857
▁خراب	-10.8857
▁مخلو	-10.8858
▁پائی	-10.886
فیلد	-10.8863
▁تخفیف	-10.8866
▁تزئین	-10.8866
▁رستگار	-10.8866
▁شیکاگو	-10.8866
▁مستضعفان	-10.8866
▁پیرامون	-10.8866
▁کانسپت	-10.8866
▁الاجل	-10.8866
▁بوزمن	-10.8866
▁مسموم	-10.8866
▁نعمت	-10.8866
▁الماس	-10.8866
▁نوازنده	-10.8867
▁ووهان	-10.8867
▁پاکبان	-10.8867
▁خرچنگ	-10.8867
▁بسیج	-10.8867
▁تعاون	-10.8867
▁ارتقا	-10.8867
▁یخچال	-10.8867
▁واریز	-10.8867
▁دردناک	-10.8867
▁محض	-10.8867
▁زودهنگام	-10.8867
▁هواشناسی	-10.8867
▁نوزاد	-10.8868
▁ریورا	-10.8868
▁شرکا	-10.8868
▁کمبریج	-10.8868
▁علایم	-10.8868
▁کولمن	-10.8868
▁خدایاری	-10.8868
▁پردرآمد	-10.8868
▁ارمن	-10.8868
▁نصیب	-10.8869
▁مراود	-10.8869
▁اشعار	-10.8869
▁توس	-10.887
▁ضدحمل	-10.887
▁متولی	-10.8871
▁گواهی	-10.8872
▁جناح	-10.8873
تعداد	-10.8874
▁سرت	-10.8874
فینیتی	-10.8875
▁زیدان	-10.8875
▁اذیت	-10.8875
▁غلط	-10.8876
▁۱۴۰	-10.8877
۹۳	-10.8877
▁مبالغ	-10.8879
▁زادگاه	-10.8879
▁تشری	-10.8881
▁فهمید	-10.8881
▁نقص	-10.8881
▁۱۳۰	-10.8882
▁صحیح	-10.8882
▁محکم	-10.8882
▁نامگذاری	-10.8883
▁فیزیکدان	-10.8883
▁شوت	-10.8883
▁پلاک	-10.8883
▁دایر	-10.8883
▁رولینگ	-10.8884
▁معیارهای	-10.8885
▁شمایل	-10.8886
▁خست	-10.8886
▁فرخ	-10.8889
▁قبرس	-10.8889
▁احساسی	-10.889
▁شستا	-10.889
▁گا	-10.8891
▁رونالدینیو	-10.8892
▁پستاندار	-10.8892
▁مگ	-10.8893
سرعت	-10.8895
فنی	-10.8895
▁دهید	-10.89
خان	-10.8901
▁پیرلو	-10.8903
▁مواقع	-10.8906
▁عزیزان	-10.8908
▁رجب	-10.8911
▁انتخابی	-10.8912
▁پناهندگ	-10.8914
▁اپراتورها	-10.8915
▁جنر	-10.8916
▁معوقه	-10.8917
▁مغول	-10.8919
▁ماهشهر	-10.892
▁پاتر	-10.8921
▁خلیل	-10.8929
▁صریح	-10.8932
▁باگ	-10.8937
▁انداختن	-10.8939
▁فضانوردان	-10.894
▁کرج	-10.8941
▁اعظم	-10.8941
▁خم	-10.8945
نفتی	-10.8946
▁رفتارهای	-10.8952
▁مردگان	-10.8952
▁ماست	-10.8956
▁نیاورد	-10.896
▁درختان	-10.8961
▁ایر	-10.8962
▁گیل	-10.8963
▁معاین	-10.8963
▁اد	-10.8964
▁آرش	-10.8965
ویک	-10.897
▁رساندند	-10.8982
▁درام	-10.8989
یزر	-10.8992
▁شوخی	-10.8992
▁رویس	-10.8993
▁دیدم	-10.9005
اندن	-10.9006
ویل	-10.9007
▁روحی	-10.9013
▁ایوان	-10.9014
▁پسرش	-10.9018
وکی	-10.9021
اطی	-10.9022
▁محسوس	-10.9025
▁حفا	-10.9026
▁پرتر	-10.9026
▁وظایف	-10.9033
▁خطی	-10.9042
▁قطعات	-10.9046
▁چال	-10.9048
▁گوی	-10.9053
▁دن	-10.9054
▁اوار	-10.9058
عت	-10.9063
▁هیولای	-10.9065
برد	-10.907
▁اچ	-10.9071
▁بقای	-10.9075
▁بور	-10.9076
یضا	-10.9092
▁ژاک	-10.9094
▁اح	-10.9119
نگیز	-10.9125
▁آرزوهای	-10.9126
▁کودتای	-10.9138
▁پولی	-10.9148
▁لوان	-10.915
باع	-10.9157
▁آنهاست	-10.9157
شتم	-10.9159
▁صاف	-10.9162
▁آثارش	-10.9173
▁بیگ	-10.9189
▁استرس	-10.9194
تنوع	-10.92
▁شجاع	-10.9205
▁کنیا	-10.9206
▁استودیو	-10.923
▁وگوهای	-10.9231
▁۸۳	-10.9232
خورده	-10.9243
نور	-10.9248
رایش	-10.925
شماری	-10.9251
▁عزیز	-10.9265
▁امت	-10.9265
▁تم	-10.9267
▁باقر	-10.9276
▁زخم	-10.9277
▁پهلو	-10.928
▁میلاد	-10.9281
▁پلی	-10.9295
▁هستی	-10.9303
▁فروشند	-10.9304
ارو	-10.9315
شو	-10.9336
▁۶۵۰	-10.9339
▁۸۹	-10.9348
خته	-10.9367
▁داوی	-10.9374
▁ردیاب	-10.9393
▁آندری	-10.9409
▁ذ	-10.9417
▁چشمان	-10.9428
▁۱۸۰	-10.9448
▁گرفتم	-10.9462
▁سوگ	-10.9468
۶۰	-10.9473
▁استاندارد	-10.9477
▁قبر	-10.9502
عشی	-10.9512
▁سرف	-10.9523
سابقه	-10.9526
مندان	-10.9535
ملک	-10.9542
▁شانزده	-10.9546
شنا	-10.955
دوست	-10.9555
شت	-10.9556
▁سوری	-10.956
▁۵۱	-10.9565
▁مضر	-10.9567
عارض	-10.9575
رافائل	-10.9579
تصاویر	-10.9579
دونالد	-10.958
آژانس	-10.9582
عادت	-10.9586
▁گال	-10.959
نال	-10.959
مدت	-10.9604
بورس	-10.9608
مول	-10.9612
صرف	-10.9614
دریچ	-10.9618
لف	-10.9618
▁مول	-10.9634
هادی	-10.9646
تار	-10.9649
▁انوش	-10.9654
▁همتای	-10.9655
▁علاقمند	-10.9658
غیب	-10.9673
▁همر	-10.9677
▁معلم	-10.9679
▁ژن	-10.9689
▁بوفالو	-10.9694
رچند	-10.9695
▁عضلا	-10.9695
▁خاشق	-10.9699
▁ندارم	-10.9699
▁آلومینیوم	-10.97
▁اسراییل	-10.97
▁ایوانکوویچ	-10.97
▁دگرگون	-10.97
▁سرتاسر	-10.97
▁غرامت	-10.97
▁فزاینده	-10.97
▁پروتئین	-10.97
▁پومپئو	-10.97
▁بسازد	-10.97
▁رئوف	-10.97
▁ربیعی	-10.97
▁محترم	-10.97
▁مستاجر	-10.97
▁نامناسب	-10.97
▁اپیدمی	-10.97
▁تفکیک	-10.97
▁وگاس	-10.97
▁ویتنام	-10.97
▁تعزیری	-10.97
▁هوندا	-10.97
رطوب	-10.97
▁البرز	-10.97
▁عواقب	-10.97
▁گیگز	-10.97
▁رمزارز	-10.97
▁خیام	-10.97
▁قضاوت	-10.97
▁سرماخورد	-10.97
▁خاشقچی	-10.97
▁لگن	-10.9701
▁مارسیال	-10.9701
▁ندهد	-10.9701
▁مکلف	-10.9701
ازی	-10.9701
▁بگذارند	-10.9702
اطم	-10.9702
▁وودز	-10.9703
▁۱۳۹۶	-10.9703
▁استفانو	-10.9703
تناب	-10.9704
▁بیافتد	-10.9704
▁مارچ	-10.9704
▁عصبانی	-10.9705
▁دوستداران	-10.9705
▁ژیمناست	-10.9706
▁انستیتو	-10.9706
▁جونیور	-10.9706
▁ولد	-10.9707
▁فروغ	-10.9708
▁روانشناس	-10.9708
▁عقاب	-10.9709
▁تلفات	-10.9714
▁ژنرا	-10.9715
▁جزییات	-10.9717
▁شناگر	-10.9717
▁سازندگان	-10.9718
▁۱۹۶	-10.972
▁معاد	-10.972
▁تهاجمی	-10.9722
▁استونز	-10.9722
▁سرشار	-10.9723
▁نگفت	-10.9724
▁مباد	-10.9725
ئوری	-10.9725
▁نژادپرستانه	-10.9725
▁دیدیم	-10.9725
▁معاش	-10.9726
▁امریکا	-10.9729
▁قفس	-10.973
ائم	-10.973
▁رامش	-10.973
▁پرستاران	-10.9733
نشین	-10.9734
▁شایست	-10.9734
▁کارتو	-10.974
▁کتک	-10.9741
▁رحمت	-10.9744
▁نهفته	-10.9745
▁باورن	-10.9747
▁ناوگان	-10.9748
▁گردید	-10.9751
▁فیلیپین	-10.9751
وژه	-10.9752
▁گردانند	-10.9756
▁لخت	-10.9758
▁گردند	-10.9761
▁برعکس	-10.9765
▁پویا	-10.9766
وپن	-10.9767
▁جفت	-10.9767
سخ	-10.9769
▁یوو	-10.9769
▁موهای	-10.9769
▁کارگروه	-10.9772
واشی	-10.9779
آقازاده	-10.9781
▁دنیل	-10.9783
▁رایگان	-10.9784
▁رانت	-10.9787
احی	-10.9799
▁۵۴	-10.9802
رالله	-10.9802
▁کینگ	-10.9805
▁گزینش	-10.9806
▁مض	-10.9811
▁سپید	-10.9813
▁هادی	-10.9814
▁سکسک	-10.9815
▁تهدیدهای	-10.9816
۲۹	-10.9816
▁افق	-10.9825
▁گروگانگیر	-10.9849
▁ماندند	-10.9855
▁امتیازات	-10.9855
▁تحریمها	-10.9855
▁کالای	-10.9858
حریم	-10.9859
رود	-10.9863
▁لوف	-10.9866
▁ساسانی	-10.9877
▁یگان	-10.9884
خت	-10.9886
▁جولی	-10.9894
حلال	-10.9898
▁تراز	-10.99
خوان	-10.9903
▁ماس	-10.9906
▁کلور	-10.9906
زنی	-10.9909
۴۶	-10.9909
▁مرادی	-10.9923
▁بخشید	-10.9937
▁بازوی	-10.9937
▁دادیم	-10.9942
▁روزبه	-10.9942
▁شغلی	-10.9957
یکپا	-10.9957
▁کد	-10.996
▁ات	-10.9961
▁بینید	-10.9965
▁درانی	-10.997
قه	-10.9972
▁کلیسای	-10.9973
سیو	-10.9975
▁رش	-10.999
▁مدتها	-10.9996
▁ولا	-11.0017
▁یاب	-11.0025
▁باختری	-11.0029
▁فال	-11.0039
لاله	-11.0047
▁حاجی	-11.0055
▁۶۳	-11.0057
راق	-11.0057
ابلو	-11.0071
▁رنگین	-11.0072
سوم	-11.0078
▁۹۲	-11.0086
امضاکنندگان	-11.0099
▁وارن	-11.011
▁عالم	-11.014
▁ریوی	-11.0155
جمه	-11.0166
▁معیشت	-11.0176
▁سرگرم	-11.0178
کید	-11.0195
▁طب	-11.0195
▁حرا	-11.0195
ائو	-11.0205
▁شع	-11.0215
▁کیا	-11.0224
ضی	-11.023
▁برفی	-11.0239
سول	-11.0264
رمد	-11.0265
▁رایان	-11.0279
▁مهندسی	-11.029
خبر	-11.0292
▁ولت	-11.0294
ائل	-11.0298
نیف	-11.0309
▁زانوی	-11.0312
▁دانشجوی	-11.0317
▁۱۷۶	-11.0339
▁کوش	-11.0356
▁بازیار	-11.0361
پانی	-11.0364
▁شاپ	-11.0364
▁سنج	-11.0379
▁بلی	-11.0386
▁مجرم	-11.0388
برگزار	-11.0403
▁پذیرفت	-11.0404
نوردی	-11.0406
اندر	-11.0413
▁تصویربردار	-11.042
▁بله	-11.043
▁گودا	-11.0437
▁سازه	-11.0439
▁اینجا	-11.044
یامک	-11.0457
▁سیا	-11.0459
کارآمد	-11.0468
▁وات	-11.0468
▁پیری	-11.0473
بزرگ	-11.0486
یونایتد	-11.0487
همیلتون	-11.0487
راجر	-11.0489
اطلاعات	-11.0489
آغاز	-11.0489
چشم	-11.0489
واکنش	-11.0489
▁خوار	-11.049
▁آشنای	-11.0493
ویکتور	-11.0493
انتخابات	-11.0493
خط	-11.0493
فعالان	-11.0507
▁میرزا	-11.0507
جمعیت	-11.0513
کرونا	-11.052
▁۶۲	-11.052
هشدار	-11.0523
لوب	-11.0527
روس	-11.054
▁کاران	-11.0542
دالله	-11.0548
رهبر	-11.0553
▁اسل	-11.0566
فرنو	-11.0591
سلط	-11.0591
▁پناه	-11.0592
▁ندانست	-11.0594
▁نادری	-11.0595
▁کوبید	-11.0598
▁رخداد	-11.0602
یانت	-11.0602
▁اشکال	-11.0605
▁۸۷	-11.0608
▁خلاق	-11.0608
▁بوئن	-11.0609
▁آشپز	-11.0609
▁آبراموویچ	-11.0609
▁بوچانی	-11.0609
▁جاپلقی	-11.0609
▁لاجورد	-11.0609
▁کارداشیان	-11.0609
▁کامبوج	-11.0609
▁کرگدن	-11.0609
▁یونسکو	-11.0609
▁بفروشند	-11.0609
▁مظنون	-11.0609
▁آویو	-11.0609
▁بشردوستانه	-11.0609
▁حاتمی	-11.0609
▁قسط	-11.0609
▁فطر	-11.0609
▁مصیبت	-11.0609
▁انباشت	-11.0609
▁بفتا	-11.0609
▁گریبان	-11.0609
▁تکامل	-11.0609
▁بذر	-11.0609
▁تضاد	-11.0609
▁کاشف	-11.0609
▁فرسایش	-11.0609
▁مونتاژ	-11.0609
▁متوفی	-11.0609
▁گاگا	-11.0609
▁موعد	-11.0609
▁پاراگوئه	-11.0609
▁اشنویه	-11.0609
▁روشنفکر	-11.0609
▁سنگاپور	-11.0609
▁جواهر	-11.0609
▁قزاقستان	-11.061
▁فحش	-11.061
▁حرارت	-11.061
▁زیارت	-11.061
▁گردنبند	-11.061
▁توئیت	-11.061
▁پرشور	-11.0611
▁۱۹۷۳	-11.0611
▁بنجام	-11.0611
▁یوسف	-11.0611
▁شفا	-11.0611
▁نپال	-11.0612
ئرنیک	-11.0612
تینو	-11.0612
▁۱۹۶۶	-11.0612
▁شیفت	-11.0613
▁خردسال	-11.0613
▁ترانزیت	-11.0613
▁کوپا	-11.0613
▁وادار	-11.0614
▁۱۹۶۷	-11.0614
▁باشم	-11.0614
▁تبعید	-11.0614
▁مسن	-11.0615
▁کفتر	-11.0615
▁کلینیک	-11.0615
▁بتهوون	-11.0616
▁متحدان	-11.0616
▁قورباغه	-11.0616
▁آوازخوان	-11.0616
▁هشتصد	-11.0617
▁ذات	-11.0621
بپرس	-11.0623
▁سولو	-11.0626
▁کوپتر	-11.0627
▁جمشید	-11.0627
▁مایع	-11.0627
▁خوشبخت	-11.0627
▁فتاح	-11.0628
▁ماهیچه	-11.063
گبا	-11.063
▁مطالبات	-11.0635
▁۲۰۰۶	-11.0636
▁زنگ	-11.0637
▁درخشید	-11.0638
▁نامجو	-11.0639
▁قارچ	-11.064
▁جعفر	-11.064
▁حفر	-11.0641
▁شعارهای	-11.0644
▁گناه	-11.0646
ابق	-11.0646
▁تیتر	-11.0648
▁معین	-11.0649
▁ادارات	-11.0651
▁صبا	-11.0652
کت	-11.0654
▁خوشحالم	-11.0655
▁درشت	-11.0655
▁شیع	-11.0659
▁حرم	-11.0663
▁سبد	-11.0664
▁متروکه	-11.067
▁کثیر	-11.0677
▁متخلفان	-11.0679
▁مستندساز	-11.0679
▁آدام	-11.068
ازما	-11.068
▁اقیانوسیه	-11.0681
تشکر	-11.0686
▁نخب	-11.0691
▁وض	-11.0698
▁کمپ	-11.0701
شا	-11.0701
▁پادمان	-11.0701
▁ابو	-11.0704
▁وحشت	-11.0706
▁نشانگر	-11.0711
▁محرک	-11.0712
▁دیسک	-11.0714
▁ممیز	-11.0717
▁مانند	-11.0719
▁سهامدار	-11.0723
پتون	-11.0732
▁ادل	-11.0732
▁وکلای	-11.0736
امین	-11.0737
▁نداشتم	-11.0738
▁باختند	-11.0741
علت	-11.0743
▁کوهن	-11.0745
▁دایی	-11.0751
▁گرجستانی	-11.076
▁چرخش	-11.0776
پوچ	-11.0782
وظ	-11.0786
▁بشریت	-11.0793
لای	-11.0795
▁نگارش	-11.0802
▁نوشتند	-11.0804
▁بصر	-11.0805
▁مسیری	-11.0806
▁سومو	-11.082
▁لیست	-11.0825
مسی	-11.0827
▁ریو	-11.0829
▁برهم	-11.085
▁رز	-11.0866
▁کوما	-11.0871
ادا	-11.0874
جیب	-11.0881
▁چارل	-11.0883
ارتوم	-11.0886
▁مولان	-11.0886
رات	-11.0894
▁اتو	-11.0894
▁اراد	-11.0897
▁پانزدهم	-11.0901
▁مبا	-11.0906
▁پوک	-11.0909
بالغ	-11.0917
جیک	-11.0924
▁بروم	-11.0925
ودی	-11.0927
ملو	-11.0931
▁رقبای	-11.0935
▁اق	-11.0938
تیو	-11.0952
▁هول	-11.0956
یاس	-11.0958
▁کلر	-11.0961
▁خدای	-11.0966
گذار	-11.0971
بریتی	-11.0974
▁سیر	-11.0978
الیاس	-11.0994
ماتیک	-11.0995
روسیا	-11.0999
▁گدا	-11.1005
▁دوش	-11.1012
اسکو	-11.1013
▁هشدارهای	-11.1029
▁اکبری	-11.1031
▁شادی	-11.1033
آفرین	-11.1054
▁۸۱	-11.106
▁دادم	-11.1089
▁برپا	-11.1096
▁پرید	-11.1098
روح	-11.11
▁بازرگان	-11.1108
▁گفتن	-11.112
▁رفتم	-11.112
▁ماریا	-11.113
سرین	-11.1131
▁آف	-11.1137
▁قوت	-11.1142
▁گرمی	-11.1149
گن	-11.1154
▁توفیق	-11.1161
▁الس	-11.1182
▁نیکل	-11.1182
▁لطف	-11.1182
گوف	-11.1185
▁دزد	-11.1188
حل	-11.1194
▁ژی	-11.1194
وزن	-11.1197
▁محو	-11.1208
▁شاد	-11.1215
▁۸۴	-11.122
▁سروده	-11.1235
▁رکوردهای	-11.1253
ماری	-11.1261
▁رکوردها	-11.1274
▁غل	-11.1281
قرب	-11.1281
▁نیافت	-11.1283
▁کریم	-11.1295
فون	-11.1304
فع	-11.1309
▁نما	-11.1311
شک	-11.1315
▁سرما	-11.1317
▁هرد	-11.1328
▁درز	-11.1333
▁فورا	-11.136
▁حدادی	-11.1389
▁بت	-11.1393
▁کمتری	-11.1398
▁اعت	-11.1401
زمینی	-11.1414
▁مال	-11.1415
▁ضر	-11.1417
صدایی	-11.1426
ردن	-11.1428
▁بون	-11.1441
پول	-11.1443
▁۳۲۰	-11.1456
نش	-11.1459
▁۱۸۵	-11.146
کسر	-11.1462
▁منجم	-11.1462
فظ	-11.1469
فرگوس	-11.1473
▁تیره	-11.148
سلیم	-11.1483
▁شکستن	-11.1483
▁بزرگان	-11.1485
بانی	-11.1487
ضرر	-11.1487
انجمن	-11.1488
دفتر	-11.1488
مارادونا	-11.1489
مسابقات	-11.1489
تصمیم	-11.1489
موسس	-11.1489
کسل	-11.149
چلسی	-11.149
تصور	-11.1491
داستان	-11.1492
ترکیه	-11.1493
نخست	-11.1493
تلاش	-11.1498
نشست	-11.15
پاش	-11.1501
جامع	-11.1504
▁شرمن	-11.1508
عفون	-11.151
رایان	-11.1511
ویش	-11.1514
▁الع	-11.1514
▁گوهر	-11.1514
▁افتتاحی	-11.1527
▁سینو	-11.1528
رتر	-11.153
▁۱۱۰	-11.1531
▁پیشگام	-11.1535
▁کشمی	-11.1536
▁کنی	-11.155
▁تندی	-11.1553
لقو	-11.1554
▁بهانه	-11.1562
▁فقی	-11.1572
▁تولیدکنند	-11.1572
اتور	-11.158
▁جس	-11.1581
موج	-11.1581
ادین	-11.1585
▁چسب	-11.1595
▁ابداع	-11.1597
▁تسهیل	-11.1599
ویچ	-11.1603
▁کانت	-11.1604
▁موزیک	-11.1608
▁اقتدار	-11.1609
▁آغداشلو	-11.1609
▁اعصاب	-11.1609
▁الگوریتم	-11.1609
▁تلسکوپ	-11.1609
▁زاکربرگ	-11.1609
▁مائوریت	-11.1609
▁معتمد	-11.1609
▁گلمکانی	-11.1609
▁بلانشت	-11.1609
▁مسوول	-11.1609
▁ژس	-11.1609
تصاعد	-11.1609
▁طناب	-11.1609
▁کاندیدا	-11.1609
▁محتوی	-11.1609
▁نجوا	-11.1609
▁پرایس	-11.1609
▁ابرنواختر	-11.1609
▁یهودی	-11.1609
▁زاکانی	-11.1609
▁باکتری	-11.1609
▁بخرد	-11.1609
▁جاودان	-11.1609
▁آنکارا	-11.1609
▁آژیر	-11.1609
▁آموزگار	-11.1609
▁واگیر	-11.1609
▁قبیل	-11.161
▁سلتیک	-11.161
▁قاتل	-11.161
▁بارچا	-11.161
▁رخشانه	-11.161
▁خزر	-11.161
▁۱۳۹۰	-11.161
▁شوهر	-11.1611
▁مبارک	-11.1611
▁علوی	-11.1611
خانقا	-11.1611
▁بدهکار	-11.1611
▁هجر	-11.1611
▁داوود	-11.1611
▁مستعار	-11.1612
▁مسترد	-11.1612
▁اکسید	-11.1613
▁دشت	-11.1613
▁نارضای	-11.1613
▁گردهم	-11.1614
▁صید	-11.1614
▁آث	-11.1615
▁ابولا	-11.1615
▁محف	-11.1616
▁سولشر	-11.1616
▁تأسیس	-11.1616
▁ناپولی	-11.1617
▁عسل	-11.1618
ومبل	-11.1618
▁افزاید	-11.1619
طبی	-11.1619
▁بدانند	-11.1619
▁نامشخص	-11.162
▁بزن	-11.1621
▁گرامی	-11.1621
▁پابند	-11.1621
▁اقامتگاه	-11.1621
▁حبیب	-11.1622
▁طبع	-11.1622
▁بارز	-11.1622
▁کلمات	-11.1623
▁فروشندگان	-11.1623
▁شیمی	-11.1623
مزمن	-11.1624
▁منکر	-11.1624
▁ژور	-11.1624
▁تعویض	-11.1625
پائولو	-11.1625
▁کادیس	-11.1627
▁سانتو	-11.1628
▁تبریک	-11.1628
▁اشخاص	-11.1629
▁کنزو	-11.1632
▁تصدی	-11.1632
▁بگویند	-11.1632
▁تدری	-11.1635
▁جرج	-11.1635
▁مخصوصا	-11.1635
▁مانور	-11.1636
فلاتو	-11.1636
▁سفت	-11.1639
▁یزد	-11.1642
▁جیپ	-11.1643
▁اقتصاددان	-11.1643
▁کشتند	-11.1643
▁مبت	-11.1644
▁گوییم	-11.1644
▁درآمدزا	-11.1644
▁مورل	-11.1646
▁پوشان	-11.1647
▁اندرکاران	-11.1648
▁ویدیوهای	-11.1648
▁خریده	-11.1649
▁کولبر	-11.165
▁ندادن	-11.1653
▁حضرت	-11.1654
▁گیت	-11.1654
▁گدار	-11.1655
▁دیابت	-11.1656
▁آرمان	-11.1657
مانیا	-11.1657
▁کلیپ	-11.1659
▁قاعد	-11.1663
▁سینماگران	-11.1666
▁کریر	-11.1667
▁یاوری	-11.1668
شما	-11.1671
▁دانشگر	-11.1671
▁نامعلوم	-11.1677
▁گویم	-11.1678
▁فیروز	-11.1681
اید	-11.1683
بینند	-11.1684
▁ارگان	-11.1688
▁نهایتا	-11.1691
▁طل	-11.1692
۶۳	-11.1693
▁پیامک	-11.1693
طل	-11.1694
▁علما	-11.1698
▁کشتن	-11.1701
▁پینگ	-11.1705
▁فرزندش	-11.1717
▁شعبان	-11.1729
دین	-11.1735
▁سالیانه	-11.1738
کاران	-11.1743
قبل	-11.1747
▁گذاشتند	-11.1748
▁گرفتیم	-11.1751
▁خش	-11.1759
▁خواندند	-11.1763
▁کیس	-11.1772
لندر	-11.1773
▁اسپورت	-11.1775
▁کامپیوترها	-11.1776
▁نشدند	-11.1776
▁بازجوی	-11.1782
▁اشت	-11.1783
▁نگرفت	-11.1792
▁ریگ	-11.1796
تاج	-11.1801
▁قان	-11.1802
▁جراحت	-11.1803
▁آوا	-11.1807
▁اصلاحی	-11.1813
▁قطعا	-11.1819
▁صمیمی	-11.1822
▁بورگ	-11.1829
۹۹	-11.1832
▁یخی	-11.1838
۱۷	-11.184
ندرت	-11.1843
اپ	-11.1845
▁دوج	-11.1853
▁برگردانده	-11.1853
ارسل	-11.1854
سام	-11.1861
▁پاد	-11.1864
▁آموخت	-11.1864
▁نیافته	-11.1881
▁تابو	-11.1892
سپ	-11.1892
کمی	-11.191
نمای	-11.1917
▁محب	-11.1922
جن	-11.1922
▁رامی	-11.1923
▁کج	-11.1933
▁هراس	-11.1933
▁بیم	-11.195
▁لن	-11.1952
تاب	-11.1952
▁جور	-11.1964
▁گرمای	-11.1969
▁عمدی	-11.1976
▁خاوری	-11.1982
بویایی	-11.1996
▁الن	-11.2004
▁آرت	-11.2013
▁نوین	-11.2014
▁ماخ	-11.2015
▁دژ	-11.2016
▁همب	-11.2021
▁فرحی	-11.2021
▁هانس	-11.2022
▁کلاین	-11.203
▁ریخته	-11.2044
▁دول	-11.2067
▁مهد	-11.2072
▁درگذشته	-11.2082
▁لید	-11.2088
▁اصطلاحا	-11.2093
▁جنگند	-11.2112
راتی	-11.2115
▁مدد	-11.2115
▁پرستار	-11.212
شش	-11.2121
لیون	-11.2151
اکثریت	-11.2154
حق	-11.2162
▁نیت	-11.2183
▁استادان	-11.2186
▁عظیمی	-11.2208
▁مسیح	-11.222
▁رس	-11.2222
قو	-11.2233
▁خوابی	-11.2239
سران	-11.2242
▁پذیری	-11.2246
▁مزای	-11.2247
گوئر	-11.2258
خون	-11.2259
▁پیگیر	-11.2274
▁قاسمی	-11.2279
آور	-11.2279
▁فرح	-11.2288
▁عل	-11.2299
▁شست	-11.2317
▁وگوها	-11.2321
▁بازگو	-11.2322
▁فرضی	-11.2324
▁ون	-11.2332
▁بخشهای	-11.2333
بیه	-11.2346
دنظر	-11.2361
▁دانا	-11.2364
رای	-11.2381
بیست	-11.2386
▁لک	-11.2396
گارت	-11.2404
ارت	-11.2411
کانا	-11.2412
کان	-11.243
ظه	-11.2433
دید	-11.2435
▁اخ	-11.2436
▁میلیاردر	-11.2437
▁کامپیوتری	-11.2443
تور	-11.2449
▁بازدیدکنند	-11.2465
▁خواستم	-11.2469
یکون	-11.2475
▁مدرس	-11.2482
ادیو	-11.2488
▁جانش	-11.2502
▁اب	-11.2503
نگره	-11.2508
▁بطر	-11.2511
بخشی	-11.2514
▁کروناست	-11.2522
جک	-11.2523
گروهی	-11.2527
یافته	-11.2541
ساله	-11.2549
طرح	-11.2585
▁هیل	-11.2585
لیگ	-11.2586
مجتب	-11.2591
منازع	-11.2591
خوشایند	-11.2597
پزشک	-11.2598
منتقدان	-11.2599
تایسون	-11.2599
سفارت	-11.2599
آلمان	-11.26
حضور	-11.26
بریتانیا	-11.26
موسیقی	-11.26
اعلام	-11.26
کلوپ	-11.26
نقاشی	-11.26
تحقیقات	-11.2604
کاهش	-11.2605
چال	-11.2606
▁استیو	-11.261
▁میلو	-11.2611
اور	-11.2614
▁نزدیکتر	-11.2618
▁فرانسیس	-11.2619
▁شهرک	-11.2619
دیمیر	-11.2624
یاق	-11.2632
▁راکت	-11.2632
قصد	-11.2637
مرد	-11.2641
▁نوا	-11.2645
آمریکایی	-11.2658
شیپ	-11.2666
مقامات	-11.2675
▁بزو	-11.2677
▁اندرکار	-11.2677
▁سیاستمدار	-11.2678
نگا	-11.2679
سئول	-11.2686
▁فهم	-11.2688
▁پیمانکار	-11.2691
▁خویش	-11.2698
▁انصاری	-11.2702
▁اصالت	-11.2706
▁سینماگر	-11.2707
▁متغیر	-11.2707
▁جزئی	-11.2711
▁تعمیر	-11.2712
▁مخاطب	-11.2712
کینگ	-11.2716
▁تخل	-11.2717
▁گوسفند	-11.272
▁انیمیشن	-11.272
▁اوربیتر	-11.272
▁بلایندرز	-11.272
▁جغرافیای	-11.272
▁خنثی	-11.272
▁رفسنجان	-11.272
▁جاذبه	-11.272
▁اسپایدر	-11.272
▁سانتیمتر	-11.272
▁ناچیز	-11.272
▁مستثن	-11.272
▁مضاعف	-11.272
▁منظم	-11.272
▁اختراع	-11.272
▁دفاتر	-11.272
▁تجدد	-11.272
▁خودکفا	-11.272
▁مقتدر	-11.272
▁بلغارستان	-11.272
▁برگردیم	-11.272
▁آهسته	-11.272
▁کومله	-11.272
▁مینیاتور	-11.272
▁پیمود	-11.272
▁عنصر	-11.272
▁فرنود	-11.272
▁تورنتو	-11.272
▁تقلب	-11.272
▁کفایت	-11.272
گشاد	-11.272
▁لشگر	-11.272
▁ذیبخش	-11.272
▁یادگار	-11.272
▁وکارها	-11.2721
▁اسعد	-11.2721
▁کبد	-11.2721
▁رغبت	-11.2721
▁عروق	-11.2721
▁بنتلی	-11.2721
▁هلمند	-11.2721
▁مخرب	-11.2721
▁آرتتا	-11.2721
▁قاعدتا	-11.2721
▁تجدیدنظر	-11.2721
▁جادوی	-11.2721
▁قدردان	-11.2721
▁بیاورند	-11.2722
▁ندهند	-11.2722
▁اینفانتی	-11.2722
▁سیگار	-11.2723
▁آلایند	-11.2723
▁گسل	-11.2723
ارومیه	-11.2724
▁خانمان	-11.2724
▁تربیت	-11.2725
▁تنگنا	-11.2725
▁ثا	-11.2726
▁کلکسیون	-11.2726
▁گهر	-11.2727
▁موکل	-11.2727
▁گیتار	-11.2728
▁سردرگم	-11.2728
▁سیگنال	-11.2728
▁اخترشناس	-11.2728
▁آغوش	-11.2728
▁فریب	-11.2729
▁مساحت	-11.273
▁نشوند	-11.2731
▁۱۳۵۰	-11.2731
▁منقل	-11.2732
▁بکند	-11.2733
▁حشر	-11.2733
▁حاد	-11.2733
▁بغلان	-11.2733
▁پابرجاست	-11.2733
▁دبیرستان	-11.2733
▁تعلیم	-11.2733
▁ربای	-11.2734
▁ضوابط	-11.2735
ضب	-11.2736
▁کارولین	-11.2736
▁آرایشگاه	-11.2736
▁پردازند	-11.2737
▁بالگرد	-11.2737
▁القا	-11.274
▁شانگ	-11.2742
▁اسمیت	-11.2742
▁لیتر	-11.2745
▁بخواهی	-11.2745
▁حکیم	-11.2745
▁بگوید	-11.2747
زادگان	-11.2747
نیروی	-11.2748
▁گودال	-11.2749
▁استقراض	-11.2749
▁کدخدایی	-11.275
ستانگ	-11.2751
بیح	-11.2752
▁پارکور	-11.2753
▁غیبت	-11.2758
▁نشدنی	-11.2759
▁کوشید	-11.276
▁ازسر	-11.276
▁هیچکس	-11.276
▁رسن	-11.2761
▁شوق	-11.2762
تراشه	-11.2763
▁سادگی	-11.2764
میلیون	-11.2768
▁دوتار	-11.2771
▁استقامت	-11.2773
▁منک	-11.2778
▁گاو	-11.2779
▁یابند	-11.2779
▁دینی	-11.278
▁رائو	-11.2783
▁دستیاران	-11.2785
▁گیلان	-11.2785
▁خیز	-11.2789
▁عمیقا	-11.2791
▁بیانسه	-11.2795
▁امری	-11.2795
قدرت	-11.2796
▁فابی	-11.2796
▁هک	-11.2797
▁کامیاب	-11.2797
▁شکوه	-11.2798
▁مرت	-11.2799
▁کانادایی	-11.2801
▁پیشگامان	-11.2803
دخت	-11.2804
▁ساید	-11.2808
باد	-11.2808
▁اشتباهات	-11.2809
▁زلا	-11.281
درون	-11.2811
▁سکو	-11.2814
▁عطا	-11.2814
▁کلدی	-11.2814
واز	-11.282
▁گیم	-11.2822
جوزپ	-11.2833
▁دوید	-11.2834
▁مهندسان	-11.2836
▁نبو	-11.2848
▁هولم	-11.286
▁آرم	-11.2864
▁اختیارات	-11.2877
▁کارتون	-11.2882
▁پیداست	-11.2886
▁پسند	-11.2887
سیما	-11.2888
فتن	-11.2896
▁سیمون	-11.2899
ستند	-11.2905
اراک	-11.2905
▁کیلی	-11.2906
۷۵	-11.2907
▁هوشیاری	-11.2909
▁یوس	-11.2911
▁نر	-11.2914
▁عکاسان	-11.2928
▁کاوه	-11.2929
▁رج	-11.2932
▁برگرداند	-11.2936
▁اینستاگرامش	-11.2947
حصول	-11.296
▁تبع	-11.2962
▁هامون	-11.2964
▁شکستگی	-11.2965
▁کشیدند	-11.2974
▁ضیا	-11.2983
▁نیستیم	-11.2983
▁گرما	-11.2988
▁سرمای	-11.2992
وپ	-11.2996
اردو	-11.3008
▁فتحی	-11.3011
امید	-11.3023
▁سردار	-11.3026
▁نیکولا	-11.3031
شدن	-11.304
اویر	-11.3053
▁اروپاست	-11.3055
▁مزایای	-11.3061
ایدو	-11.3061
▁ساختند	-11.307
▁صدد	-11.307
▁مصر	-11.3081
دلیل	-11.3082
▁پشتو	-11.3091
جهان	-11.3104
وحید	-11.3105
▁بایر	-11.3123
▁۷۹	-11.3127
▁مینا	-11.3136
▁معمای	-11.3143
▁بگذاری	-11.3147
▁آنا	-11.3149
▁راستش	-11.3153
۲۸	-11.3157
▁درمی	-11.3179
▁ناک	-11.32
▁منظره	-11.3202
▁شیوا	-11.3225
▁۴۵۰	-11.3227
کام	-11.323
▁ارت	-11.324
ومی	-11.3248
▁ساع	-11.3253
▁نیکلا	-11.3255
▁برگزارکنند	-11.3285
▁کلاه	-11.3309
▁برنا	-11.3312
▁عفون	-11.3317
▁پاش	-11.3353
▁راد	-11.3365
▁درآمده	-11.3365
▁الی	-11.3372
۸۹	-11.3379
▁دیوانه	-11.3381
▁مصل	-11.3382
▁سیری	-11.3383
▁بدان	-11.3391
▁گوها	-11.3407
الت	-11.3416
▁معما	-11.3419
▁دخ	-11.3425
بال	-11.3425
▁مردن	-11.3426
گران	-11.3428
▁عزادار	-11.3453
▁استعمار	-11.3487
▁خاور	-11.3492
لاب	-11.3495
▁۸۸	-11.3497
▁پسران	-11.3498
▁درها	-11.3502
▁گردشگر	-11.3504
صیل	-11.3519
ریت	-11.3519
ستیک	-11.3528
کنیم	-11.3529
▁رقبا	-11.3531
▁کودتا	-11.3534
▁اصولگرا	-11.3535
▁ناآرام	-11.3538
گور	-11.3542
▁آرزو	-11.3542
▁قربان	-11.3542
▁شن	-11.3547
۴۲	-11.3547
▁صوت	-11.3549
▁اجتماع	-11.355
پو	-11.3552
▁نیل	-11.3556
▁جوش	-11.3559
▁جوی	-11.3584
لین	-11.3591
ریس	-11.3591
▁جورجی	-11.3592
▁عمد	-11.3599
▁قطرک	-11.3603
▁قوم	-11.3609
▁ترکی	-11.3616
▁هفده	-11.3624
▁آلبر	-11.3633
▁برآوردها	-11.3637
ستردا	-11.3638
سرجی	-11.3645
جل	-11.3652
▁خل	-11.3654
پا	-11.3667
ادت	-11.3675
ورانه	-11.3676
▁دوگان	-11.3686
▁پهن	-11.3692
▁مطلبی	-11.3698
▁۲۰۲	-11.37
▁گرانتر	-11.3721
▁قل	-11.3739
▁ماتی	-11.374
▁باریک	-11.376
▁نمازی	-11.376
▁اینچ	-11.3761
▁مغزش	-11.3763
▁۱۷۳	-11.3767
▁مسافری	-11.3769
▁سفرها	-11.3772
▁جیم	-11.3774
وویچ	-11.3777
▁پاب	-11.3782
▁خطا	-11.3784
صول	-11.3788
ائب	-11.3791
▁رنگی	-11.3802
▁اسک	-11.3807
وفون	-11.3809
▁پراکن	-11.381
نیوز	-11.381
▁بیدار	-11.3813
گرا	-11.3817
مزد	-11.3825
عطا	-11.3829
قبض	-11.3841
▁معاونان	-11.3841
بفرستید	-11.3842
نوم	-11.3845
ریچارد	-11.3847
شریف	-11.3847
کاظم	-11.3848
حداکثر	-11.3849
غلام	-11.3849
منظور	-11.3849
نفوذ	-11.3849
کانادا	-11.3849
حادثه	-11.385
(	-11.385
اعضای	-11.385
شرایط	-11.385
مذاکرات	-11.3851
مرغ	-11.3851
عضو	-11.3851
اتریش	-11.3851
هنگام	-11.3852
ویروس	-11.3853
پرونده	-11.3853
کاوه	-11.3854
مطابق	-11.3856
پادمان	-11.3856
اداره	-11.3857
کمتر	-11.3857
مورد	-11.3859
دادستان	-11.3863
عادی	-11.3863
بحث	-11.3865
▁سور	-11.3865
خطر	-11.3866
تهران	-11.3873
▁پناهند	-11.3875
درگذشت	-11.3876
دوغا	-11.3884
سایت	-11.3885
▁رومانی	-11.3898
اکبر	-11.3901
تحریم	-11.3901
آیا	-11.3907
برداری	-11.3909
▁پروازهایش	-11.3918
▁معلول	-11.3922
▁کوهنورد	-11.3925
▁سرگرفت	-11.3926
▁لبنانی	-11.3927
▁شاگرد	-11.3932
۵۸	-11.3934
نمایند	-11.394
▁مقاوم	-11.3942
▁سوئ	-11.395
وتی	-11.3955
حث	-11.3956
▁تقریب	-11.3959
زار	-11.3963
▁وزار	-11.3965
فضل	-11.3965
رژی	-11.3967
▁بلوچ	-11.397
▁احداث	-11.397
▁اردکانیان	-11.397
▁ارژن	-11.397
▁انتقام	-11.397
▁اوگوپوگو	-11.397
▁بیندازند	-11.397
▁رفراند	-11.397
▁رژه	-11.397
▁مشروب	-11.397
▁مقصود	-11.397
▁پاختاکور	-11.397
▁کاسموس	-11.397
▁کانگورو	-11.397
▁گریگوریان	-11.397
▁اقتباس	-11.397
▁تلویح	-11.397
▁طغیان	-11.397
▁پولیتزر	-11.397
▁کمونیست	-11.397
▁یادماندنی	-11.397
▁ناگزیر	-11.397
▁اولیانوف	-11.397
▁مرضیه	-11.397
▁فرناند	-11.397
▁تویوتا	-11.397
▁لشکر	-11.397
▁سرسخت	-11.397
▁چابک	-11.397
▁متصل	-11.397
▁رفیق	-11.397
▁اتصال	-11.397
▁متمایز	-11.397
▁برگردند	-11.397
▁تکواندو	-11.397
▁برنگشت	-11.397
▁اسرارآمیز	-11.3971
▁تمیز	-11.3971
▁یقین	-11.3971
▁هیدرو	-11.3971
کیو	-11.3971
▁احوال	-11.3971
▁پیانو	-11.3972
▁هاپک	-11.3972
کاراکاس	-11.3972
جیمزباند	-11.3973
▁شنوایی	-11.3973
هالیفیلد	-11.3973
▁ربود	-11.3973
▁نوازندگان	-11.3973
تفرق	-11.3974
▁برسانند	-11.3974
▁میدهد	-11.3974
▁مرموز	-11.3975
▁مختاری	-11.3975
▁مکالمات	-11.3976
▁داگ	-11.3976
▁گرافیک	-11.3976
▁عضلانی	-11.3977
▁دنی	-11.3977
▁واپس	-11.3977
▁منفرد	-11.3978
▁متکی	-11.3979
▁الاکلنگ	-11.398
▁نابسامان	-11.398
▁۱۹۲۰	-11.398
▁نورالله	-11.398
▁ایسلند	-11.398
▁صراحت	-11.398
▁خرمشهر	-11.398
▁لورک	-11.3981
▁شکننده	-11.3981
▁بایستند	-11.3981
▁کیلوولت	-11.3981
▁سحرگاه	-11.3983
▁نورمحمد	-11.3983
▁سفیددره	-11.3984
▁لبخندها	-11.3984
▁سیدنی	-11.3984
وژان	-11.3985
▁گردیم	-11.3987
▁فش	-11.3987
▁رودکی	-11.3987
▁خانود	-11.399
▁پردازش	-11.399
▁ابهامات	-11.399
▁اشکالات	-11.3993
▁سانتا	-11.3994
▁مأموریت	-11.3994
▁تناقض	-11.3996
▁گیلبرت	-11.3996
▁فرندز	-11.3996
▁عزت	-11.3997
▁والتر	-11.3997
▁رکوردشکن	-11.3998
▁دادخواست	-11.3998
▁سولار	-11.3998
▁ونگر	-11.3999
▁بخواهید	-11.4
▁دعا	-11.4001
▁کوید	-11.4002
پیچیده	-11.4005
▁کامران	-11.4005
هاب	-11.4005
▁امپر	-11.4006
▁شخصا	-11.4006
▁ریسک	-11.4008
▁آپو	-11.4008
▁ساترا	-11.4013
▁ترابی	-11.4014
سارت	-11.4014
▁داش	-11.4014
▁دریانورد	-11.4016
▁ملکشا	-11.4017
▁بزرگسالان	-11.4018
▁لیک	-11.4019
▁پینک	-11.402
▁بخواهد	-11.4022
رین	-11.4025
▁آزمو	-11.4026
▁سرگردان	-11.4027
▁نایا	-11.4029
افشاری	-11.4029
▁دوندگان	-11.4032
▁آز	-11.4033
ولا	-11.4033
▁بیورن	-11.4034
▁مورف	-11.4034
▁تحصیلات	-11.4039
▁لوپ	-11.4042
سنگ	-11.4045
▁عطف	-11.4045
▁ابد	-11.4049
ماجرای	-11.405
شبن	-11.4053
▁مصم	-11.4056
▁بازنده	-11.4063
مبا	-11.4066
▁خران	-11.4066
▁تراک	-11.4068
▁آئ	-11.4068
▁بازیافت	-11.4072
کری	-11.4073
رل	-11.4075
لبان	-11.4083
▁پوستر	-11.4083
▁پذیرای	-11.4083
▁مهمانان	-11.4084
▁هالپ	-11.4085
▁تجمعات	-11.4089
لزم	-11.4089
ودن	-11.409
▁فق	-11.4094
▁برآورده	-11.4098
▁بفرستید	-11.4099
▁سکوها	-11.41
▁بدنشان	-11.4102
دیس	-11.4104
▁دز	-11.4115
▁امیدهای	-11.4118
▁کاشت	-11.4122
لز	-11.4126
▁فرشت	-11.4127
▁نیوز	-11.4129
▁صحرای	-11.4129
سته	-11.4129
وجیه	-11.4139
▁پناهجوی	-11.4143
▁کان	-11.4147
شکاف	-11.4148
میر	-11.4148
زائ	-11.4151
▁مادی	-11.4157
▁بالاست	-11.4159
▁لینک	-11.4165
یاط	-11.4166
عطوف	-11.4174
زیان	-11.4177
▁گذران	-11.4185
یخته	-11.4189
▁فرز	-11.4195
▁ماز	-11.4207
▁مخ	-11.4216
▁سکان	-11.4216
▁کاسی	-11.4226
▁افزودن	-11.4232
ندرسون	-11.4233
▁متحدانش	-11.4237
▁بازده	-11.4242
▁نفی	-11.4244
▁اجراهای	-11.4245
▁راهنمای	-11.4247
جاست	-11.4248
▁مصرفی	-11.4248
▁شیب	-11.4265
▁دات	-11.4265
پرس	-11.4266
خیر	-11.4268
▁ناقل	-11.427
اصل	-11.427
▁موسی	-11.4271
زین	-11.4275
▁همگان	-11.4286
▁لاب	-11.4287
▁مجرمان	-11.4289
کسین	-11.4294
▁خلا	-11.4298
مد	-11.43
لث	-11.4306
▁آسا	-11.4307
▁لوک	-11.431
▁بازگرد	-11.4312
▁نبی	-11.4313
▁سفرش	-11.4313
▁فضاپیمای	-11.4325
▁گز	-11.4329
دانه	-11.4337
اشار	-11.4337
▁درسی	-11.4345
▁حول	-11.4347
▁زودرس	-11.4354
▁عدل	-11.4366
▁محصولاتش	-11.4378
▁برخاست	-11.4381
اپیش	-11.4392
▁پان	-11.441
▁بدنش	-11.4411
▁کنش	-11.4412
نوش	-11.4418
لسون	-11.4419
▁آبهای	-11.443
▁منه	-11.4438
نچی	-11.4442
▁آلت	-11.4446
ردام	-11.4447
▁جیمی	-11.4449
▁داروین	-11.446
▁غیربو	-11.4472
▁لیر	-11.4478
▁سمی	-11.4481
۶۱	-11.4486
پارد	-11.4489
▁۷۵۰	-11.4491
▁لیپ	-11.4494
▁هوادارانش	-11.4495
▁بخشیده	-11.4495
قای	-11.4505
▁شنای	-11.4516
کافی	-11.4517
▁نوآوران	-11.4519
۶۷	-11.4523
بیل	-11.4524
پولیس	-11.4536
▁فشارهای	-11.4544
▁تابستانی	-11.4544
تورهای	-11.4563
▁ران	-11.4566
▁توفیقی	-11.4568
▁لطفی	-11.4571
▁سنگر	-11.4593
دارا	-11.4601
ساز	-11.4611
▁درهم	-11.4624
▁نشستن	-11.4625
▁کریس	-11.4626
▁دال	-11.4634
▁مسا	-11.4643
▁ساو	-11.4649
اندا	-11.4669
▁گذاریم	-11.4672
▁بخشد	-11.4678
▁کارند	-11.4685
زاب	-11.4696
▁سفارشی	-11.4697
▁رودر	-11.471
چل	-11.4716
ونته	-11.4718
▁لیو	-11.4723
▁گرین	-11.4727
فین	-11.473
اهی	-11.4755
▁انسانها	-11.4762
موث	-11.4766
ولکس	-11.4785
نما	-11.4795
بازد	-11.4797
▁کارل	-11.481
▁برگرداندن	-11.4816
▁اصلان	-11.4818
▁حاج	-11.4827
شر	-11.4829
▁طر	-11.4833
▁شنید	-11.4835
▁اسلو	-11.4835
▁سرش	-11.4839
آباد	-11.4869
▁موثری	-11.488
▁ول	-11.4884
▁والا	-11.4888
شکل	-11.4897
انزا	-11.4908
▁ادوار	-11.4916
▁بلندپرواز	-11.4916
▁خریدن	-11.4916
رهای	-11.4917
کمه	-11.4925
چمن	-11.4928
▁بیتل	-11.4943
۴۹	-11.4949
▁پرتو	-11.4954
▁کارفرما	-11.4963
▁امپراتور	-11.4967
کست	-11.4973
▁کلیسا	-11.4976
گزار	-11.4982
▁مهمتر	-11.4988
اتل	-11.4995
▁شکوفا	-11.4995
داده	-11.5002
▁کلک	-11.5008
فاصل	-11.5014
جیان	-11.5023
▁شورش	-11.5023
▁سرم	-11.5042
▁بادی	-11.5044
وایی	-11.5053
▁پیت	-11.5054
یتا	-11.5068
▁کورو	-11.5073
رسیدن	-11.5074
▁فرستادن	-11.5077
▁دیا	-11.509
توت	-11.5094
▁دقتی	-11.5101
▁الگو	-11.5103
▁مرب	-11.5113
▁موت	-11.5126
▁باردار	-11.5146
زو	-11.5158
▁باختر	-11.516
▁پژ	-11.5171
▁سناریو	-11.519
▁جنب	-11.5193
▁بدنم	-11.52
▁بسر	-11.5205
کول	-11.5211
▁ارو	-11.5211
▁گارس	-11.5226
آر	-11.5234
▁هلندی	-11.5234
▁مشتاق	-11.5237
▁لیز	-11.5238
▁بهرامی	-11.5243
▁هندو	-11.5245
▁بیو	-11.5248
بیز	-11.5251
بورد	-11.526
افتاده	-11.5262
ارزش	-11.5262
آلود	-11.5266
ادیوم	-11.5266
نقل	-11.527
مشخص	-11.5275
صریح	-11.5278
فیروز	-11.5278
منچستر	-11.5278
جوکوویچ	-11.5278
فرهاد	-11.5278
ناظر	-11.5278
اسپانیا	-11.5278
هماهنگ	-11.5278
تاتنهام	-11.5278
اوپک	-11.5278
هواداران	-11.5278
تجرب	-11.5278
رکورد	-11.5279
تصویر	-11.5279
میلیارد	-11.5279
کارگران	-11.528
تحلیلگر	-11.528
بازداشت	-11.528
ابتدا	-11.528
سیزدهم	-11.5281
تنیس	-11.5281
اسناد	-11.5283
الگو	-11.5283
دقیق	-11.5286
اعظم	-11.5287
کتاب	-11.5288
شناسی	-11.5293
محمدرضا	-11.5295
آبی	-11.5295
ضا	-11.5295
وکیل	-11.5298
پیروز	-11.53
کشته	-11.5302
وندی	-11.531
▁مایا	-11.531
▁سوز	-11.5311
▁پوشیدن	-11.5317
دختر	-11.5348
ادی	-11.535
نوایی	-11.5353
أی	-11.5362
▁لات	-11.5366
مسابقه	-11.5368
گوت	-11.5372
عظم	-11.5373
دوزی	-11.5373
▁خور	-11.5377
▁سازوکار	-11.5386
زیو	-11.5387
اچو	-11.5388
▁مارکو	-11.5389
▁مخابر	-11.5389
واره	-11.5396
تازه	-11.5396
▁بنویس	-11.5396
▁آرسن	-11.5398
▁فیلسوف	-11.5398
▁نیفتاد	-11.5398
▁ارواح	-11.5398
▁اصغر	-11.5398
▁انقطاع	-11.5398
▁اورشلیم	-11.5398
▁بخورد	-11.5398
▁سرگذاشت	-11.5398
▁عناوین	-11.5398
▁محتاط	-11.5398
▁تدفین	-11.5398
▁تذکر	-11.5398
▁متضاد	-11.5398
▁باشکوه	-11.5399
▁ضابط	-11.5399
▁قتالی	-11.5399
▁جهرمی	-11.5399
▁انزوا	-11.5399
▁بازنگشت	-11.5399
▁فرستد	-11.5399
▁رزیدن	-11.5399
▁جاسک	-11.5399
▁درآید	-11.5399
▁آفرید	-11.5399
▁کانتینر	-11.5399
▁کواچ	-11.5399
▁ناخودآگاه	-11.5399
▁ماراکانا	-11.5399
▁توقع	-11.5399
▁سمفونی	-11.5399
▁تدارک	-11.5399
▁ترشح	-11.5399
▁لامرد	-11.5399
▁صلیب	-11.5399
▁النصر	-11.5399
▁فرهیخت	-11.5399
▁خاکستر	-11.5399
▁کوشنر	-11.5399
▁قضا	-11.5399
▁طلسم	-11.5399
▁یونسی	-11.5399
▁کوپر	-11.5399
▁کرمانشاه	-11.5399
▁رستم	-11.5399
▁هریرود	-11.54
▁واجد	-11.54
▁نابرابر	-11.54
▁کاسپی	-11.54
▁مذک	-11.54
▁مجادل	-11.54
▁کرمانپور	-11.5401
▁سازگار	-11.5401
▁بدانید	-11.5401
▁بکاهند	-11.5401
▁لط	-11.5401
▁ظالمانه	-11.5402
خضر	-11.5402
▁بیولوژیک	-11.5402
▁اجداد	-11.5402
نتسب	-11.5402
▁۱۹۷۹	-11.5402
▁قرآن	-11.5402
▁بزاق	-11.5402
انسان	-11.5402
▁حواس	-11.5402
▁نیابد	-11.5403
▁رشید	-11.5403
▁فرنگی	-11.5403
▁قبرستان	-11.5403
▁بگذارم	-11.5404
▁روانچی	-11.5404
▁تقلا	-11.5404
▁بنشیند	-11.5404
▁کولاک	-11.5404
▁مراکش	-11.5405
▁جملات	-11.5405
▁عالیشاه	-11.5405
▁۱۹۶۸	-11.5406
▁پرجمعیت	-11.5406
▁ویلسون	-11.5407
▁تجربیات	-11.5407
▁۱۳۶۰	-11.5407
▁مردادماه	-11.5408
▁ناشر	-11.5409
▁۱۹۹۵	-11.541
▁گرگور	-11.5411
▁ناشده	-11.5411
▁سازوکارهای	-11.5411
▁مارلی	-11.5412
▁بازتاب	-11.5412
▁۱۹۹۴	-11.5412
▁مولف	-11.5412
▁استبا	-11.5413
▁زالی	-11.5413
▁طو	-11.5413
▁بهزاد	-11.5413
▁نورستان	-11.5414
▁برویم	-11.5414
▁انتصاب	-11.5415
▁لیبی	-11.5419
▁راسخ	-11.542
▁ترقی	-11.5421
▁خودمختار	-11.5422
▁راشد	-11.5422
▁دلتا	-11.5423
▁خفا	-11.5424
▁نخواست	-11.5426
نولد	-11.5428
▁سمع	-11.5428
▁لاپورتا	-11.5429
▁ماوریک	-11.5429
▁بدهم	-11.5429
▁تعرض	-11.543
▁فهیم	-11.543
مرز	-11.543
▁بلید	-11.5431
▁حوال	-11.5431
▁آندرس	-11.5431
▁فلامینگوها	-11.5432
▁شکنی	-11.5432
▁مهیب	-11.5433
▁فیروزجا	-11.5434
▁طاق	-11.5435
▁آنگل	-11.5436
▁مطلق	-11.5438
▁کمربندهای	-11.5438
▁فلزات	-11.5439
▁خوشبین	-11.544
▁دردسرهای	-11.5441
▁ژنوم	-11.5441
نقش	-11.5441
▁آشو	-11.5444
▁ثور	-11.5444
▁ویرانگر	-11.5445
▁آگوست	-11.5445
▁بلک	-11.5445
▁ابزارهای	-11.5446
▁فراخواند	-11.5446
▁برونته	-11.5446
▁ایستادند	-11.5447
▁جذابیت	-11.5447
▁توبین	-11.5448
▁سرخک	-11.5449
▁ندادند	-11.5449
▁پروست	-11.545
▁معلولان	-11.545
اثر	-11.5451
▁چای	-11.5451
▁مادام	-11.5452
▁کروات	-11.5454
▁گریخت	-11.5458
گرنه	-11.546
لون	-11.546
▁فاضل	-11.5464
▁زوم	-11.5472
▁بزرگسال	-11.5473
▁صرب	-11.5473
زود	-11.5474
▁فراور	-11.5478
▁دیاب	-11.5479
▁کجاست	-11.548
▁فروند	-11.5482
▁لوح	-11.5483
▁توسان	-11.5486
▁کویت	-11.5486
▁درمیان	-11.5487
▁ورق	-11.5488
▁مسبب	-11.5488
خو	-11.5489
▁ریختن	-11.5489
▁پارکر	-11.5492
روا	-11.5493
▁بدهید	-11.5494
▁رومانیا	-11.5498
▁چاق	-11.5502
▁پرکار	-11.5512
▁توبی	-11.5515
اقش	-11.5516
گرفتن	-11.5521
▁رخدادهای	-11.5528
▁نیامد	-11.5528
▁نویسد	-11.5528
▁فیش	-11.5529
▁نوردی	-11.5533
هفتصد	-11.5539
▁غرو	-11.5544
▁نایاب	-11.5553
▁جوانا	-11.5556
▁شکم	-11.5557
نچ	-11.5557
▁هاروی	-11.5559
▁قانونگذار	-11.5566
▁مزد	-11.5569
▁منازع	-11.557
▁مجتب	-11.5573
کسیون	-11.5577
▁مستندهای	-11.5578
اتح	-11.5579
▁سانچ	-11.5584
▁نیستم	-11.5586
نگرانی	-11.5587
▁لین	-11.5596
▁خصوصیات	-11.5596
▁اینست	-11.5597
▁شعرهای	-11.56
▁رسال	-11.5602
خزن	-11.5604
انشهر	-11.5604
▁راهکار	-11.5606
▁کارلو	-11.5607
▁احتیا	-11.5609
▁چید	-11.5612
▁عز	-11.5612
ناتان	-11.5622
دایی	-11.5623
▁حسابدار	-11.5628
▁پیامبر	-11.5629
▁اسکان	-11.563
چهل	-11.5646
نوی	-11.5651
وتو	-11.566
عادل	-11.5661
▁دیدند	-11.5661
رنج	-11.5663
ینز	-11.5663
▁حک	-11.5671
۱۰	-11.5672
▁اضافی	-11.5672
یلد	-11.5699
▁قوز	-11.5703
▁پردازی	-11.5705
▁درسال	-11.5708
▁امیرم	-11.5722
▁پهنه	-11.5724
▁عثمانی	-11.5724
سپاس	-11.5725
ارمی	-11.5727
فیه	-11.5728
▁یوآن	-11.5734
▁شدیم	-11.5746
موتو	-11.5754
▁سردست	-11.577
▁هارد	-11.5777
▁بگ	-11.5777
▁افع	-11.578
▁کوارت	-11.5782
▁نبودند	-11.5788
ایت	-11.579
کوس	-11.5793
▁پاسخگوی	-11.5798
▁ریاضی	-11.58
▁لوکه	-11.5804
▁بازگشتند	-11.5806
▁جراحان	-11.5806
▁نازل	-11.5811
▁نب	-11.5812
▁داران	-11.5813
▁بروید	-11.5817
۹۴	-11.5818
▁کارتر	-11.582
فرجام	-11.5828
▁ائ	-11.5848
▁نزدیکانش	-11.5852
▁بستند	-11.5857
▁شکن	-11.5875
▁نواخت	-11.5882
▁دیدگ	-11.5886
رعه	-11.5911
۱۱	-11.5913
▁عر	-11.5938
▁جع	-11.5948
برده	-11.5951
▁خوابیدن	-11.5958
▁سندر	-11.5977
▁سیرو	-11.5981
▁دلو	-11.5982
▁مجل	-11.5998
▁صداها	-11.5999
خه	-11.6014
▁سهیم	-11.6018
لمپ	-11.6052
۱۲	-11.6066
▁محوری	-11.609
▁منامه	-11.6095
▁جودوکا	-11.6099
▁ساد	-11.6106
▁پرز	-11.6112
صدا	-11.6123
زیر	-11.6129
▁سپرد	-11.6129
▁دانستن	-11.6144
▁هوم	-11.6149
▁ملته	-11.6175
برو	-11.6175
لیت	-11.6176
۳۶۰	-11.6186
▁جید	-11.6198
درهای	-11.6223
▁استرا	-11.6232
هیچ	-11.6247
▁فک	-11.6251
▁کیمی	-11.6279
مک	-11.6282
▁شناختن	-11.6296
▁حر	-11.6303
▁کلیو	-11.6317
▁اک	-11.6322
▁کورت	-11.6322
▁تبر	-11.6334
لینگ	-11.6345
▁اشع	-11.6352
امد	-11.6353
▁فرهنگیان	-11.6356
▁هیو	-11.6362
فول	-11.6363
▁اغ	-11.6368
لائو	-11.637
گراد	-11.6375
▁فضاپیما	-11.638
▁عکسها	-11.6412
ملا	-11.6415
▁شدایران	-11.6421
باره	-11.6425
پرسینگ	-11.6441
فروش	-11.6449
وادا	-11.6458
یتز	-11.6462
▁استانداری	-11.6463
▁هرج	-11.6465
نیچ	-11.6473
گردانی	-11.6476
▁شناورها	-11.6509
▁غد	-11.6509
تاد	-11.6511
▁آرزوها	-11.6524
فان	-11.6528
▁ناصری	-11.6528
▁رویز	-11.6552
رگ	-11.6554
ساعد	-11.6555
تاکنون	-11.6559
▁سرب	-11.6574
جام	-11.6574
▁حریر	-11.6604
▁پنس	-11.6612
▁بیند	-11.6615
▁پاسخگو	-11.6624
▁هیولا	-11.6632
▁بقا	-11.664
▁مزایا	-11.664
▁مذهب	-11.664
▁نجفی	-11.665
▁زیبای	-11.665
▁تروریست	-11.6658
▁غور	-11.6658
▁ماریان	-11.6658
▁۱۳۱	-11.667
▁سلیمان	-11.6678
▁سک	-11.6681
▁هواپیماها	-11.6695
▁باخ	-11.6697
جات	-11.6702
اند	-11.6719
▁مراد	-11.6724
▁داو	-11.6768
وثر	-11.6775
دیدار	-11.678
▁لندر	-11.6797
نفت	-11.6802
▁تقی	-11.6802
▁یاسم	-11.6802
▁اط	-11.6805
▁رپ	-11.6821
▁قضائی	-11.6825
تک	-11.6825
▁ترانس	-11.6833
خواهند	-11.6835
ایش	-11.6841
▁یوآ	-11.6846
▁حقوقدان	-11.6861
یغ	-11.6867
پانز	-11.6867
تال	-11.6869
▁خاو	-11.6869
▁نامند	-11.687
▁وزرا	-11.6875
روژ	-11.6882
▁درصدد	-11.6882
وستا	-11.6891
تهم	-11.69
▁بارش	-11.6916
▁بینم	-11.6923
لسک	-11.6924
نژاد	-11.6925
کوئین	-11.6928
خودرو	-11.6932
گردانده	-11.6935
پوش	-11.6937
میو	-11.694
تحرک	-11.6941
تابعیت	-11.6942
درآمد	-11.6942
آرامکو	-11.6943
خشکسالی	-11.6943
ضرور	-11.6944
آکادمی	-11.6944
ابراهیم	-11.6944
قاسم	-11.6945
حاشیه	-11.6945
جنجال	-11.6945
استرالیا	-11.6945
احتمال	-11.6945
جشنواره	-11.6945
نتایج	-11.6945
گمرک	-11.6945
▁کوچ	-11.6945
پاسخ	-11.6945
آزادی	-11.6946
ترکیب	-11.6946
ادعا	-11.6946
حقوق	-11.6948
لستر	-11.6948
شعر	-11.6949
جواد	-11.6951
▁متخلف	-11.6951
حساب	-11.6957
مرور	-11.6958
فیک	-11.6959
سنگر	-11.696
گردون	-11.698
کریست	-11.6988
مالک	-11.6988
▁رکس	-11.6993
بالا	-11.6994
جف	-11.6998
زندگی	-11.6999
▁۱۶۰	-11.7004
▁اپی	-11.7004
احسا	-11.7007
ولوژی	-11.7008
سریع	-11.7012
▁روا	-11.7013
▁کیف	-11.7013
مهم	-11.7014
الیز	-11.7017
اکتی	-11.7019
▁صیاد	-11.702
غی	-11.7025
▁تسلی	-11.703
ارل	-11.7032
همکاری	-11.7035
▁مافی	-11.7035
▁سرزن	-11.7039
▁اقام	-11.7039
▁ادین	-11.7039
روج	-11.7046
▁مکاتب	-11.7055
غوری	-11.7059
لات	-11.7061
▁قزاق	-11.7064
▁چمپیون	-11.7065
▁اختاپوس	-11.7065
▁التحصیل	-11.7065
▁انحراف	-11.7065
▁بیضائی	-11.7065
▁دانچیچ	-11.7065
▁روزافزون	-11.7065
▁سخاوتمند	-11.7065
▁سزاوار	-11.7065
▁غواص	-11.7065
▁قیصر	-11.7065
▁لغز	-11.7065
▁لومامبا	-11.7065
▁نپذیرفت	-11.7065
▁هژمون	-11.7065
▁پلتفرم	-11.7065
▁ژئوفیزیک	-11.7065
▁ژئوپلیتیک	-11.7065
▁اوقاف	-11.7065
▁بولونیا	-11.7065
▁سارقان	-11.7065
▁سیاهپوست	-11.7065
▁لغت	-11.7065
▁انسولین	-11.7065
▁مصداق	-11.7065
▁وسواس	-11.7065
▁زوایا	-11.7065
▁هامبورگ	-11.7065
▁غلیظ	-11.7065
▁موازات	-11.7065
▁جوامع	-11.7065
▁متوازن	-11.7065
▁واعظ	-11.7065
▁مقادیر	-11.7065
▁اقوام	-11.7065
▁نگیرد	-11.7065
▁ببینم	-11.7065
▁کارائیب	-11.7065
▁ذوالنور	-11.7065
▁سحابی	-11.7065
▁زیراتمی	-11.7065
▁غذاخور	-11.7065
▁جلیل	-11.7065
▁میچام	-11.7065
▁بلندپایه	-11.7065
▁اوزون	-11.7065
▁تتلو	-11.7065
▁فلاکت	-11.7065
▁کابوس	-11.7066
▁لاوروف	-11.7066
▁ظلم	-11.7066
▁سانتیگراد	-11.7066
▁باچان	-11.7066
▁ترفند	-11.7066
▁حصبه	-11.7066
▁ژائو	-11.7066
▁عناب	-11.7066
▁نیچر	-11.7066
▁توازن	-11.7066
رالزمان	-11.7066
▁معاهد	-11.7066
▁مالزی	-11.7066
بالاحصار	-11.7066
▁فرسود	-11.7066
▁سیرجان	-11.7066
▁ارباب	-11.7066
▁اجزا	-11.7066
▁ارمجانی	-11.7066
▁سرور	-11.7066
▁تظاهرکنندگان	-11.7066
▁دشتکی	-11.7066
▁لاتکس	-11.7066
▁دروغگو	-11.7067
▁حیثیت	-11.7067
▁پاستور	-11.7067
▁ایلام	-11.7067
▁مغایر	-11.7067
▁همفکر	-11.7067
▁فیصل	-11.7067
▁رفقا	-11.7067
▁شروط	-11.7068
▁یدک	-11.7068
▁سفال	-11.7068
▁نیرومند	-11.7068
▁کبیری	-11.7069
▁نابینا	-11.7069
▁شکارچی	-11.7069
▁دوبلور	-11.7069
▁شارپ	-11.7069
▁منفعت	-11.7069
فراگ	-11.7069
▁زیردریا	-11.7069
▁چوپ	-11.7069
▁هنگفت	-11.707
▁۲۰۵	-11.707
▁مشروعیت	-11.707
▁جرارد	-11.707
▁حوض	-11.7071
▁مجرد	-11.7071
▁نابویایی	-11.7071
▁اتلان	-11.7071
▁لوگو	-11.7071
ذاب	-11.7072
حریف	-11.7072
▁نکشید	-11.7072
▁ملوان	-11.7072
▁نثر	-11.7073
▁محفظه	-11.7073
▁هندرسون	-11.7074
▁سعیدپور	-11.7074
نعیم	-11.7074
▁تفکر	-11.7075
▁سرپوش	-11.7076
▁محاف	-11.7076
▁بریجز	-11.7076
▁اجساد	-11.7078
▁ببریم	-11.7078
▁وانگ	-11.7078
تعدد	-11.7078
▁خرس	-11.7078
▁همسو	-11.7078
▁اسکورسیزی	-11.7079
▁ریاضیات	-11.7079
▁تزار	-11.7079
تالیا	-11.7079
▁میلیچ	-11.7081
▁صفاری	-11.7081
▁پرشمار	-11.7081
▁ارج	-11.7082
گوگوش	-11.7083
▁خطاهای	-11.7084
▁آویز	-11.7084
▁علام	-11.7084
▁مختصر	-11.7085
▁متغیرهای	-11.7085
فرشی	-11.7085
▁متقابل	-11.7085
▁همدان	-11.7085
▁بپذیر	-11.7086
الیف	-11.7086
▁فاطم	-11.7086
▁موسیقیدان	-11.7087
▁قمار	-11.7088
▁شیاد	-11.709
▁تحرکات	-11.7091
▁رباب	-11.7092
▁غزل	-11.7092
▁دلسوز	-11.7093
▁فلسطینیان	-11.7094
قندهار	-11.7095
▁ویدئوهای	-11.7097
نیتو	-11.71
▁انکار	-11.7101
▁خویشتن	-11.7101
فارم	-11.7101
نرخ	-11.7106
▁دفع	-11.7106
اطبا	-11.7106
▁پرستون	-11.7107
▁اسکات	-11.7107
▁رسند	-11.7107
▁تاکسیران	-11.7108
▁ظ	-11.7109
▁وفا	-11.711
▁چرخید	-11.711
سود	-11.711
مادر	-11.7111
دلایل	-11.7111
▁سلیق	-11.7111
▁بگیرم	-11.7112
▁اسید	-11.7114
▁امضاکنند	-11.7116
▁تیموری	-11.7117
▁کانل	-11.7119
▁چتر	-11.7123
فرد	-11.7124
▁حسگرها	-11.7124
▁قامت	-11.7127
صنوف	-11.7131
▁تحریر	-11.7131
▁روبات	-11.7131
▁یولیا	-11.7131
حور	-11.7133
▁گیران	-11.7135
▁متال	-11.7137
▁توسل	-11.7137
▁اکثرا	-11.7138
▁نصیر	-11.7138
▁خلوتگر	-11.7138
سپیر	-11.7138
▁افزارهای	-11.7139
▁سوییس	-11.714
نفر	-11.7141
▁الکترودها	-11.7141
▁لیبر	-11.7142
▁نماید	-11.7142
▁۴۲۰	-11.7143
▁نزن	-11.7144
شوند	-11.7144
▁اثرگذار	-11.7145
▁رازهای	-11.7146
▁زینب	-11.7147
▁علیزاده	-11.7154
اران	-11.7154
▁نیافتن	-11.7155
▁نازک	-11.7156
▁توانمند	-11.7158
▁آپ	-11.7158
▁کشورهاست	-11.7158
▁گوستا	-11.7158
▁دانل	-11.7162
لاخ	-11.7167
▁ربکا	-11.7173
▁مناسبات	-11.7173
▁ترسد	-11.7174
▁افول	-11.7179
▁بریج	-11.718
فرانسه	-11.7182
▁عینک	-11.7185
▁بکار	-11.7186
▁دیرتر	-11.7191
شقان	-11.7193
▁کساد	-11.7196
▁قهری	-11.7197
۹۶	-11.7199
▁استیل	-11.7199
▁بدویا	-11.7204
نشأ	-11.7205
▁بازنش	-11.7206
▁سیاستگذار	-11.7209
▁اقسا	-11.7215
محسن	-11.7217
▁نکو	-11.7217
تمایل	-11.7222
▁گردون	-11.7222
▁قصر	-11.7223
▁نوپا	-11.7228
▁نیمروز	-11.7229
▁پاسدار	-11.7231
اسکورت	-11.7232
ویر	-11.7236
▁قبض	-11.7246
▁گراند	-11.7248
▁همهمه	-11.7251
آفرینی	-11.7251
▁شالی	-11.7258
خشنود	-11.7263
▁بنده	-11.7268
▁خوشایند	-11.7271
▁بدهیم	-11.7273
▁سوزاند	-11.7273
وکین	-11.728
یلدا	-11.7281
▁کرایس	-11.7284
▁الیو	-11.7287
مص	-11.7288
▁سبی	-11.7297
سانس	-11.7299
▁کریستین	-11.7301
▁مجا	-11.7306
▁خوردند	-11.7308
▁استوایی	-11.7309
▁طبقات	-11.7312
▁سناریوها	-11.7317
▁سازهای	-11.732
جنگ	-11.7324
▁گاردن	-11.7327
▁۶۹	-11.7328
▁نانو	-11.7332
قهرمانی	-11.7336
▁راوی	-11.7336
▁تشکیلات	-11.7338
▁ترسید	-11.7339
▁کوچه	-11.7344
▁تپند	-11.7349
▁بخوان	-11.7352
▁تایی	-11.7353
▁لوس	-11.7354
▁نظرش	-11.7355
▁عار	-11.7357
روند	-11.7364
▁وول	-11.7367
ورس	-11.7367
▁بریم	-11.7372
۱۹۶۵	-11.7376
▁گوا	-11.7379
جماع	-11.7383
▁دیوارهای	-11.7394
▁باک	-11.7402
معدنچی	-11.7408
▁اظهارنظرهای	-11.7413
▁همخوان	-11.7421
▁ننگ	-11.7423
▁پترو	-11.7431
▁اون	-11.7437
نسک	-11.7461
اتنگ	-11.7461
▁شرعی	-11.7462
فهمد	-11.7474
▁مشخصات	-11.7488
▁فورب	-11.7498
▁سالمند	-11.7508
▁بک	-11.7511
▁کمیاب	-11.7523
یوآ	-11.753
مور	-11.7532
▁پارو	-11.7538
▁مونت	-11.7538
▁سوپ	-11.7541
سوری	-11.7546
▁نشاند	-11.7552
▁زین	-11.7554
نزو	-11.7554
عل	-11.7561
▁زنیم	-11.7561
▁ریس	-11.7562
دهم	-11.7565
▁سیلی	-11.7572
▁میلیاردرها	-11.7578
اط	-11.7578
▁لندرو	-11.7595
▁علا	-11.7598
کوم	-11.76
ریدار	-11.7602
پار	-11.7604
▁شکوف	-11.7608
▁اشتها	-11.7624
▁کریستی	-11.7632
په	-11.7641
▁رادیوی	-11.7642
سوس	-11.7643
▁تدا	-11.7652
▁عط	-11.7665
▁رویاهای	-11.7667
▁روما	-11.7668
▁نف	-11.7677
▁پارت	-11.7678
▁ایرانسل	-11.7681
▁غوری	-11.7684
▁اشتباهی	-11.7706
▁همسران	-11.7711
▁تیز	-11.7716
ورود	-11.7722
نقدر	-11.7737
▁آندریا	-11.7739
▁یابی	-11.7749
▁گریه	-11.7749
▁کیپ	-11.7756
▁نیلی	-11.7762
▁چی	-11.7764
▁بلخی	-11.7766
وئر	-11.7766
▁سازان	-11.7768
ندگی	-11.7772
▁آلم	-11.7778
کور	-11.7796
زیرو	-11.7798
▁آمونی	-11.7798
▁بیکاران	-11.78
▁نفربر	-11.7808
رمان	-11.7814
▁دزدی	-11.7823
▁شکستند	-11.7832
▁صدایش	-11.7847
ریض	-11.7853
۶۲	-11.7866
▁رید	-11.7868
نشان	-11.7874
▁پیل	-11.7877
کیا	-11.788
▁کلت	-11.7882
جویان	-11.7887
لیا	-11.7888
▁پلک	-11.7892
اقت	-11.7894
▁دوسال	-11.7897
▁رایانه	-11.79
غفو	-11.7901
زبان	-11.7906
لار	-11.7909
آنچ	-11.7923
۲۱	-11.7926
▁منفور	-11.7936
▁فرودست	-11.7956
ینکی	-11.7958
واقعی	-11.797
ملی	-11.7973
▁کالی	-11.7984
▁شوی	-11.7987
سیاس	-11.7991
گزا	-11.7997
وکس	-11.8009
▁۱۷۴	-11.8012
▁عا	-11.8048
▁مهیا	-11.8061
▁آذری	-11.8073
▁بخ	-11.8076
▁دبی	-11.8079
▁قای	-11.8082
▁خوشی	-11.8082
▁کاپ	-11.8099
ولین	-11.81
▁شجاعی	-11.8104
یکا	-11.8122
۹۷	-11.8132
بندی	-11.8135
▁کلن	-11.8136
یوم	-11.8142
▁شاهدان	-11.8147
نمی	-11.8149
وفق	-11.815
سمن	-11.8155
اچ	-11.8155
فرانس	-11.8164
▁موتورها	-11.8168
▁آرمی	-11.8171
فری	-11.8193
▁تونسی	-11.8201
▁زنم	-11.8213
▁ژا	-11.8232
۲۷	-11.8266
دولتی	-11.8277
▁دلیلش	-11.8284
▁اتکای	-11.8291
▁هرجا	-11.8294
▁نبردها	-11.8298
▁اتم	-11.8311
▁موری	-11.8316
۲۲	-11.8325
حاملگی	-11.8347
▁پرش	-11.835
▁الف	-11.8355
زاد	-11.8355
راماتیک	-11.8392
اتیو	-11.8412
یدند	-11.8414
کانس	-11.8456
برگر	-11.8464
▁یوت	-11.8468
▁ایگ	-11.8472
▁بایست	-11.8479
قهرمان	-11.8488
▁بروی	-11.8495
اعت	-11.8507
نویس	-11.8511
باف	-11.8529
▁پرداز	-11.8534
▁چاو	-11.8538
برآورد	-11.8551
رعلی	-11.8561
▁رانگل	-11.8565
▁نامم	-11.8583
▁فیلی	-11.8583
▁صفا	-11.8587
رانر	-11.8601
▁عثمان	-11.8615
▁ماریو	-11.8618
▁العم	-11.8622
▁ساسان	-11.8629
الف	-11.863
▁امیدی	-11.8632
▁دانشجو	-11.8634
میخ	-11.8636
ثه	-11.8645
▁شرع	-11.8648
▁خانوارها	-11.8655
▁بعض	-11.8658
▁تجسم	-11.8672
ونا	-11.8676
رویا	-11.8684
ناوب	-11.8687
حرف	-11.8697
راد	-11.8704
▁نمادها	-11.8708
تامی	-11.8718
سلطان	-11.8721
گاتی	-11.8737
▁آرن	-11.8738
▁مساعد	-11.8744
▁گفتم	-11.8745
▁تجار	-11.8751
▁۱۸۹	-11.8756
▁۱۸۸	-11.8766
▁۲۶۰	-11.8767
زنان	-11.8768
▁نوزده	-11.8772
▁متما	-11.8784
▁صحبتها	-11.8786
راجع	-11.879
▁دویدن	-11.8796
▁نیاورده	-11.8812
▁امیلی	-11.8818
▁عس	-11.8818
تقبل	-11.8825
زیست	-11.8825
جیل	-11.883
▁مواج	-11.883
▁۱۳۲	-11.8835
▁باکر	-11.8857
حکم	-11.8858
▁آریا	-11.8858
ولت	-11.8868
سارا	-11.8878
▁نتوا	-11.8879
عمل	-11.8881
▁محر	-11.8881
ینیو	-11.8888
▁فشارها	-11.8889
▁کارهایش	-11.8912
صلاح	-11.8913
▁۱۰۲	-11.8914
اندی	-11.8916
▁فاین	-11.8924
فعال	-11.8925
▁۳۸۰	-11.8932
پرداخت	-11.8932
مکزیکو	-11.8932
▁۲۱۰	-11.8933
ربکا	-11.8935
اعتراض	-11.8935
انتخاب	-11.8936
دبیر	-11.8936
بیانسه	-11.8939
کیت	-11.8941
تعجب	-11.8943
اضطراب	-11.8943
توماس	-11.8943
تفاهم	-11.8943
اسماعیل	-11.8944
پالایشگاه	-11.8944
مناسبت	-11.8944
آذر	-11.8944
خروج	-11.8944
منتظر	-11.8945
اتفاقات	-11.8945
جوایز	-11.8945
مطالع	-11.8945
پروتکل	-11.8945
رئال	-11.8945
رویترز	-11.8945
شروع	-11.8945
لحظ	-11.8945
قسمت	-11.8945
اسرائیل	-11.8945
سقوط	-11.8945
خبرنگار	-11.8945
رکود	-11.8945
بارسلونا	-11.8945
قرنطینه	-11.8945
عملکرد	-11.8945
آزمایش	-11.8945
موضوع	-11.8945
عربستان	-11.8945
محدودیت	-11.8945
تاریخ	-11.8945
توافق	-11.8946
جمهوری	-11.8946
۲۰۲۰	-11.8946
عکاس	-11.8946
ماشین	-11.8947
مجید	-11.8947
ایتالیا	-11.8947
خیز	-11.8948
وزرای	-11.8948
فرمانده	-11.8948
▁کوتاهتر	-11.8949
اتهامات	-11.895
سبد	-11.895
جسد	-11.8951
گنجی	-11.8952
فعالیت	-11.8952
کنفرانس	-11.8952
کشورهای	-11.8953
انتقالات	-11.8955
▁کرای	-11.8955
واکسن	-11.8957
لیگا	-11.8957
کمل	-11.8958
▁چون	-11.8959
▁اسکا	-11.8962
بیماری	-11.8967
تیس	-11.8967
لیتو	-11.8968
کشتی	-11.8968
نشری	-11.8976
گارد	-11.8976
▁سوزان	-11.898
بازیکنان	-11.8981
حام	-11.8981
مستند	-11.8983
میلان	-11.8987
عبدالله	-11.8992
▁لح	-11.8993
نمود	-11.8995
▁عزا	-11.8996
مردم	-11.8999
حک	-11.9006
شکست	-11.9008
▁فلامینگو	-11.9017
▁بولد	-11.9017
▁گلوی	-11.9026
رگامو	-11.9027
صال	-11.9028
ریکو	-11.9028
▁مسخ	-11.9029
▁پدربزرگ	-11.9029
سورها	-11.9031
▁هموطن	-11.9035
ارا	-11.9037
باستان	-11.9039
▁اپ	-11.904
▁موس	-11.904
پدیده	-11.9043
لوگ	-11.9045
▁استرول	-11.9048
سترازنکا	-11.9048
رگبار	-11.9053
▁گوگ	-11.9055
▁مکالم	-11.9056
انیس	-11.9056
سوخت	-11.906
گوئه	-11.9065
▁آکسفام	-11.9065
▁ابتذال	-11.9065
▁اوزبیک	-11.9065
▁بوئین	-11.9065
▁بیرمنگ	-11.9065
▁تشعشع	-11.9065
▁دموکراسی	-11.9065
▁غیرمجاز	-11.9065
▁منسجم	-11.9065
▁ناپلئون	-11.9065
▁نباشید	-11.9065
▁هنجار	-11.9065
▁هیدروژن	-11.9065
▁پدافند	-11.9065
▁ژرف	-11.9065
▁آصف	-11.9065
▁بپیوندد	-11.9065
▁تمایز	-11.9065
▁جگوار	-11.9065
▁خجالت	-11.9065
▁منحنی	-11.9065
▁وبلاگ	-11.9065
▁مغانلو	-11.9065
▁۲۰۳۵	-11.9065
▁آوینی	-11.9065
▁بالیوود	-11.9065
▁سولیوان	-11.9065
▁مارگاریتا	-11.9065
▁پرتوافشانی	-11.9065
▁پغمان	-11.9065
▁عنابستانی	-11.9065
▁جوابگوی	-11.9065
▁بیضایی	-11.9065
▁تمهید	-11.9065
▁تراشید	-11.9065
▁ایرلاین	-11.9065
▁افراط	-11.9065
▁بنکدارپور	-11.9065
▁ندارید	-11.9065
▁نقیض	-11.9065
▁تجسس	-11.9065
▁ویولن	-11.9065
▁بیانجامد	-11.9065
▁فاسد	-11.9065
▁فکاهی	-11.9065
▁سانتیاگو	-11.9065
▁بکشم	-11.9065
▁پاندمی	-11.9065
▁برنامک	-11.9066
▁نیکزاد	-11.9066
▁بانکوک	-11.9066
▁بسپارد	-11.9066
▁ماهرویان	-11.9066
▁لطیف	-11.9066
▁تنگاتنگ	-11.9066
▁پرسنل	-11.9066
▁لرزاند	-11.9066
▁مخوف	-11.9066
▁بکنید	-11.9066
▁شمع	-11.9066
▁دیزل	-11.9066
▁بشود	-11.9066
▁شرمسار	-11.9066
▁فواید	-11.9066
▁فونینی	-11.9066
▁مزیت	-11.9066
▁بلوغ	-11.9067
▁بفرستد	-11.9067
▁مفسر	-11.9067
▁ازبک	-11.9067
▁بفرستند	-11.9067
▁روانپزشک	-11.9067
▁هیوستون	-11.9067
▁فرستند	-11.9067
▁کریگ	-11.9067
▁کبود	-11.9068
▁برنگرداند	-11.9068
▁گوریل	-11.9068
▁سوراخ	-11.9068
▁غمگین	-11.9068
▁آسپر	-11.9068
▁مرج	-11.9068
▁شاهرود	-11.9069
▁مادربزرگ	-11.9069
▁چشید	-11.9069
▁خاندان	-11.9069
▁زشت	-11.9069
▁الاجراست	-11.9069
ورلد	-11.9069
▁پترولی	-11.9069
زامبی	-11.9069
▁زراعت	-11.9069
▁ناخشنود	-11.9069
▁خرمش	-11.907
▁شادمان	-11.907
▁شنویم	-11.907
▁آلبانی	-11.907
▁نیابت	-11.9071
▁مجزا	-11.9071
یگز	-11.9071
▁آپوف	-11.9071
▁میشود	-11.9071
▁امیدوارکننده	-11.9072
▁آسود	-11.9072
▁دامغان	-11.9072
▁گرداند	-11.9072
▁معصوم	-11.9073
▁نگهداشت	-11.9074
▁توفندها	-11.9074
ناگلزم	-11.9074
تمع	-11.9074
▁رونالد	-11.9074
▁شیرجه	-11.9075
▁برایانت	-11.9075
▁هنکس	-11.9075
▁معلولیت	-11.9076
▁مشروع	-11.9076
▁سودجو	-11.9076
▁بخواهند	-11.9077
▁جهنم	-11.9077
▁محی	-11.9078
▁حماس	-11.9079
▁فرشید	-11.908
▁ستود	-11.908
▁شایان	-11.9081
▁جانباخت	-11.9081
▁راجپوت	-11.9082
▁لافرته	-11.9082
▁محتمل	-11.9082
▁هافکین	-11.9082
▁آنتوان	-11.9082
▁فدریک	-11.9082
▁سرلشکر	-11.9082
▁سازندگ	-11.9083
▁هنک	-11.9083
▁قرائت	-11.9083
▁معنادار	-11.9084
▁تعمیرات	-11.9085
▁امپرا	-11.9085
ستیو	-11.9085
▁چفرین	-11.9085
▁سوفی	-11.9086
طالب	-11.9086
▁راهکارهای	-11.9086
▁غرور	-11.9087
غذیه	-11.9088
▁وارث	-11.9089
▁زیباست	-11.909
متاز	-11.9091
▁لنز	-11.9091
اطع	-11.9091
▁رجیس	-11.9092
▁گلیزر	-11.9092
اسب	-11.9093
▁خائ	-11.9094
▁قبایل	-11.9094
▁لاهه	-11.9095
▁پائیز	-11.9095
▁چسباند	-11.9096
ربط	-11.9099
▁کلانتر	-11.91
▁کیار	-11.91
▁همسایگان	-11.9101
▁واژگان	-11.9101
مختار	-11.9101
▁امداد	-11.9102
وانیم	-11.9107
▁چرن	-11.9109
▁پربار	-11.9112
▁شو	-11.9112
▁پرفسور	-11.9113
ساعت	-11.9116
▁فاکتور	-11.9117
▁۲۴۸	-11.912
▁صیادان	-11.9121
▁لج	-11.9121
▁۱۹۱۸	-11.9123
▁تابع	-11.9123
مدیران	-11.9124
▁فالک	-11.9127
▁وایت	-11.9128
▁اخطارهای	-11.9129
▁فوتسی	-11.913
▁دوک	-11.9131
وبیل	-11.9132
▁بدیع	-11.9132
یلیچ	-11.9134
▁مستع	-11.9134
دخیل	-11.9136
▁بکر	-11.9137
▁شمرد	-11.9138
▁بیدگ	-11.914
شابه	-11.914
یزلی	-11.9141
▁گرون	-11.9142
▁ترکمان	-11.9144
▁رن	-11.9149
▁سوت	-11.915
شواری	-11.915
▁گلوب	-11.9151
پایان	-11.9155
▁معلومات	-11.9156
▁مرمر	-11.9156
▁مطمئنا	-11.9157
▁محص	-11.9161
▁۲۱۶	-11.9162
▁پاور	-11.9165
▁مگو	-11.9169
گرافی	-11.917
▁شجاعت	-11.917
▁کنسر	-11.9174
▁چانگ	-11.9176
▁متو	-11.9176
وتاس	-11.9178
▁موریس	-11.9179
▁وفن	-11.918
▁هادرون	-11.9181
▁خب	-11.9182
▁همتایان	-11.9182
▁تردیدهای	-11.9185
▁شگرد	-11.9186
▁محبوبش	-11.9189
دوران	-11.919
▁یاسر	-11.9192
▁سوسی	-11.9193
▁گراز	-11.9194
غما	-11.9202
▁نرسیدن	-11.922
▁فلورا	-11.9221
گرم	-11.9223
ندگرن	-11.9226
▁غر	-11.9228
▁کشیم	-11.9231
▁مکزیکو	-11.9231
▁نگا	-11.9232
▁افزودند	-11.9233
مهربان	-11.9234
▁یونه	-11.9236
▁رویکردهای	-11.9238
متن	-11.9245
تعلل	-11.9245
▁احرا	-11.9247
یونان	-11.9261
▁ساندر	-11.9263
▁غذاهای	-11.9266
▁پهنا	-11.9267
رومن	-11.9269
تناسب	-11.9271
▁آری	-11.9273
ماگال	-11.9276
▁بفهم	-11.9279
زره	-11.928
مشق	-11.9286
▁مجال	-11.9295
▁آورم	-11.9301
▁مشتاقان	-11.9304
▁هیپ	-11.9305
▁رکسا	-11.9306
▁فنر	-11.9307
▁ابول	-11.9311
▁چهارده	-11.9311
▁تهدیدات	-11.9312
عود	-11.9313
▁معط	-11.9313
▁پشتکار	-11.9313
▁دایم	-11.9315
وشیرو	-11.9319
رسید	-11.9319
▁آرین	-11.932
▁لیمو	-11.9323
▁چکهای	-11.9328
بندند	-11.933
ارث	-11.933
▁الری	-11.933
▁درخشند	-11.9332
▁سلیم	-11.9337
▁بیک	-11.9338
▁دستمزدها	-11.934
▁پژوهشهای	-11.9342
▁نیوت	-11.9344
▁تشوی	-11.9346
▁بیانداز	-11.935
▁نتوان	-11.935
▁مورخ	-11.9352
▁کانتر	-11.9363
▁ماهیان	-11.9364
▁نیر	-11.9366
▁مواجهند	-11.9367
انریک	-11.937
▁قبای	-11.9374
▁تعبی	-11.9379
نزل	-11.9379
▁رف	-11.9387
فروشی	-11.9392
▁وتو	-11.9415
ریا	-11.9417
پپ	-11.942
▁پیشنهادهای	-11.9427
▁ساچ	-11.9431
▁فاک	-11.9437
▁رحیمی	-11.9443
▁طاهری	-11.9445
▁هایپر	-11.9448
▁یورد	-11.945
روف	-11.9451
دستان	-11.9452
▁سالار	-11.9454
۱۹۶۴	-11.9455
▁دوبل	-11.9457
درنا	-11.9457
▁بلندهای	-11.9469
▁گود	-11.9471
ارگ	-11.9474
▁میرود	-11.9488
غلو	-11.9489
▁فوتو	-11.9498
▁کلینت	-11.9502
▁کیان	-11.9514
▁دلم	-11.952
▁بوهای	-11.9532
▁تاثیرات	-11.9535
پچو	-11.9543
▁خودکار	-11.9548
▁فیزیوتراپ	-11.9582
▁مالت	-11.9585
لیس	-11.959
فرانسی	-11.9591
▁بش	-11.9594
چر	-11.96
▁دیرین	-11.9602
▁مشخصا	-11.961
۴۴	-11.9619
فاق	-11.9626
▁کیش	-11.963
▁قبرها	-11.964
▁ضم	-11.9641
▁شناختند	-11.9647
▁کمالی	-11.9651
▁یانگ	-11.9656
اشک	-11.9669
▁حریری	-11.967
پالا	-11.9675
▁هوک	-11.9676
رحمان	-11.9681
▁بریتانیاست	-11.9704
▁یادش	-11.9709
▁بیگان	-11.9711
▁دریابا	-11.972
وشو	-11.972
▁وکا	-11.9725
نتو	-11.9725
▁عطار	-11.9727
▁بگو	-11.9729
انچین	-11.9734
▁پش	-11.9737
▁دکترای	-11.9739
▁استانداردها	-11.9744
▁رگی	-11.9749
▁یادم	-11.975
▁بلیک	-11.9761
▁دویچ	-11.9769
▁بنین	-11.9769
▁وس	-11.9781
▁حم	-11.9787
▁اوس	-11.9791
ولتی	-11.9793
تینگ	-11.9811
▁شیرها	-11.9818
▁حائ	-11.9825
▁لویی	-11.9826
▁دانستم	-11.9828
شون	-11.9845
وستون	-11.9862
▁مینیا	-11.9865
▁لع	-11.9865
▁آمل	-11.9874
▁بنت	-11.9877
▁لیلا	-11.9891
▁پخت	-11.9895
خونی	-11.9914
بیا	-11.9934
▁افشاری	-11.9937
▁وجوه	-11.9941
ایان	-11.9944
خر	-11.9947
رمند	-11.9952
▁اخت	-11.9962
علم	-11.9963
ینک	-11.9976
عاب	-11.9982
▁درو	-11.9993
▁استرلی	-11.9993
▁استوار	-12.0003
▁پستان	-12.0009
پرت	-12.0015
▁حض	-12.0029
▁فرزندانش	-12.0035
▁کون	-12.0043
▁بازیکنانش	-12.0059
▁چش	-12.0068
اض	-12.0072
کات	-12.0075
▁قا	-12.008
▁ژیل	-12.008
خوانده	-12.009
▁دارن	-12.0098
▁ورز	-12.0099
▁دیگ	-12.0102
زمه	-12.0149
▁حکمت	-12.0161
▁کلیت	-12.0167
فرود	-12.0175
میرا	-12.0181
▁غای	-12.0182
▁رازی	-12.0217
ایف	-12.0222
▁سبزی	-12.0224
▁رون	-12.0227
▁شرکتها	-12.0237
▁فیو	-12.0241
ناپس	-12.0248
▁عالمی	-12.025
▁لاین	-12.03
خانی	-12.03
لستون	-12.0301
▁مارین	-12.0303
▁لینگ	-12.0305
خوانند	-12.0306
▁هوگ	-12.0306
ختی	-12.031
مایه	-12.0315
▁چغ	-12.0321
▁کوک	-12.0363
▁بازن	-12.0374
▁ریل	-12.0377
نیو	-12.039
▁استودیوی	-12.0391
▁نظ	-12.0407
▁دارداین	-12.0409
▁آش	-12.0422
▁کولی	-12.0429
▁سامانی	-12.0442
کرده	-12.0443
گرانی	-12.0454
۹۵	-12.0468
▁جون	-12.0469
▁نبودن	-12.0474
▁جوری	-12.0488
▁رزو	-12.0529
▁پولهای	-12.0541
▁فره	-12.0551
روث	-12.0573
▁ماسی	-12.0582
▁مخاط	-12.0585
▁ناامیدی	-12.0619
▁تحرکی	-12.062
یابان	-12.0646
باسی	-12.0652
پژوه	-12.0661
▁۱۶۶	-12.0687
▁منسو	-12.0688
وتا	-12.0701
ترا	-12.0725
ریگو	-12.0736
زیا	-12.0744
تعارف	-12.0744
ریوس	-12.0748
گد	-12.0749
▁۱۲۵	-12.0753
گردها	-12.0759
▁برخاستن	-12.0778
▁الاه	-12.0784
جران	-12.0801
۹۸	-12.0803
ستراز	-12.0809
صله	-12.0814
▁ناخ	-12.0819
ثر	-12.0821
▁ندا	-12.0822
کستر	-12.0824
▁۱۰۹	-12.0849
▁اصولی	-12.0871
▁ذهنش	-12.0897
آلات	-12.0911
▁نوک	-12.0916
▁لوی	-12.0924
▁آموختن	-12.0936
▁کنارش	-12.0943
ربین	-12.0947
وط	-12.095
▁ارتد	-12.0953
▁گرینو	-12.0967
پرای	-12.0973
وشن	-12.0976
▁گفتار	-12.0981
خال	-12.0988
رف	-12.0989
ماجرا	-12.0995
▁بستگان	-12.0998
دالر	-12.1001
۶۶	-12.1005
رزرو	-12.1005
گستر	-12.1009
رفتن	-12.1014
▁اوب	-12.1045
فشار	-12.1046
کلیف	-12.1058
▁الک	-12.1067
نگاره	-12.1073
روزهای	-12.1077
غدی	-12.1104
▁پناهجو	-12.112
▁هوشیار	-12.1125
▁کیک	-12.1125
▁گرجستان	-12.1127
میزان	-12.1131
▁شوخ	-12.1132
▁ورا	-12.1137
▁اظهارنظرها	-12.114
بیت	-12.1147
▁نمک	-12.1153
▁قدیم	-12.1181
خوش	-12.1188
نگوی	-12.1195
روها	-12.1201
خارج	-12.1202
▁آغ	-12.1206
ترک	-12.121
▁الکسا	-12.1219
▁قنا	-12.1228
▁رحیم	-12.1231
چو	-12.1242
ئون	-12.1253
▁پیشگیر	-12.1263
▁نگذاشت	-12.1291
۹۶۰	-12.1296
کنند	-12.1298
▁هریس	-12.1299
▁سکس	-12.1304
▁چیزها	-12.1311
سوی	-12.1321
▁طاهر	-12.1322
▁فروخت	-12.1327
ذو	-12.134
▁پاشید	-12.134
ادل	-12.1341
▁بفهمی	-12.1345
وشکن	-12.1356
یناتور	-12.1361
هوش	-12.1362
کریس	-12.1376
اجرای	-12.1377
گذران	-12.1379
▁اوکا	-12.1379
▁دکترا	-12.1381
▁فول	-12.1389
▁طاه	-12.1396
▁۲۰۷	-12.1399
بازیکن	-12.1403
گوین	-12.1405
▁گزی	-12.1408
بنیا	-12.1409
خصوص	-12.1412
گمش	-12.1415
نهادهای	-12.1421
▁اپراتور	-12.1424
مسلم	-12.1425
پینو	-12.1427
۶۸	-12.1428
فرام	-12.1429
صمد	-12.1431
سیاستگذار	-12.1435
تحقیق	-12.1435
نقا	-12.1436
فاضل	-12.1437
نظار	-12.1439
بیورن	-12.144
چاق	-12.144
اسحاق	-12.1442
پیرلو	-12.1442
صرب	-12.1443
نشدنی	-12.1443
ثروت	-12.1444
اسپوت	-12.1444
تخریب	-12.1445
خاوران	-12.1445
سوئیس	-12.1445
برزیل	-12.1445
تیراندازی	-12.1445
نویسندگان	-12.1445
سفیر	-12.1445
صنعت	-12.1445
حکومت	-12.1446
مشاور	-12.1446
کودک	-12.1446
نزدیک	-12.1446
سبک	-12.1446
آثار	-12.1446
عملیات	-12.1446
شکایت	-12.1446
افراد	-12.1446
جنوب	-12.1446
دنیل	-12.1446
سبز	-12.1446
کثیر	-12.1446
همیشه	-12.1446
سازنده	-12.1447
حذف	-12.1447
لیدز	-12.1448
کاملا	-12.1449
تابستان	-12.1449
ربات	-12.1449
داریوش	-12.145
درحالی	-12.1451
سناتور	-12.1452
پیر	-12.1452
ذخا	-12.1452
امارات	-12.1455
متوقف	-12.1455
اقدام	-12.1455
خدم	-12.1455
عزیز	-12.1455
مکرون	-12.1455
مایند	-12.1456
مرح	-12.1456
هموار	-12.1457
▁جمل	-12.1457
چای	-12.1458
شمالی	-12.1458
اعتراضات	-12.1459
هجوم	-12.146
ناتی	-12.1461
ناسا	-12.1461
خودروهای	-12.1466
۱۴۰۰	-12.1472
نژادپرست	-12.1475
▁لیم	-12.1476
اسنو	-12.1478
سپاهان	-12.1478
▁یزدان	-12.1479
مدیریت	-12.148
بدهی	-12.1484
▁چشمم	-12.1486
کانال	-12.1486
بشر	-12.1489
ئیت	-12.149
اغر	-12.1492
▁تفنگ	-12.1493
▁فراخوان	-12.1493
▁کثی	-12.1494
بوک	-12.1495
ناتالی	-12.1501
ناوگان	-12.1502
رییس	-12.1503
بازارهای	-12.1504
▁داینا	-12.1504
رانگ	-12.1508
واگذار	-12.1511
نوسان	-12.1516
رحیم	-12.1518
کشف	-12.1518
▁همسایگ	-12.152
ژهای	-12.1521
بنز	-12.1523
▁هشدارها	-12.1523
ئیل	-12.1526
پوشان	-12.1528
ورنتین	-12.1531
▁آپار	-12.1532
▁پابرجا	-12.1533
رونا	-12.1535
▁کاس	-12.1539
▁نخ	-12.154
▁سفیدپوست	-12.154
▁جولیا	-12.1546
دیوان	-12.1547
فورا	-12.1547
سانسور	-12.1548
▁محدو	-12.155
▁واژگ	-12.1551
▁سلب	-12.1551
▁منظو	-12.1552
پراتور	-12.1553
واضع	-12.1554
سالار	-12.1554
پیمایی	-12.1555
لگرام	-12.1557
هرزاد	-12.1559
قایق	-12.1561
▁الاجرا	-12.1562
زلزل	-12.1562
▁عوا	-12.1564
▁المپی	-12.1564
لژی	-12.1565
تروئ	-12.1565
موکورمایکوزیس	-12.1565
▁انقباض	-12.1565
▁انهدام	-12.1565
▁باثبات	-12.1565
▁برگردانند	-12.1565
▁بشناسد	-12.1565
▁بشنوند	-12.1565
▁بورکینافاسو	-12.1565
▁تماشگر	-12.1565
▁تمسخر	-12.1565
▁دگراندیش	-12.1565
▁عاقبت	-12.1565
▁فانخیو	-12.1565
▁فلسفی	-12.1565
▁فیزیولوژی	-12.1565
▁قزوین	-12.1565
▁مرتضوی	-12.1565
▁ناسازگار	-12.1565
▁نباشند	-12.1565
▁همقطاران	-12.1565
▁ولاسکز	-12.1565
▁کوکائین	-12.1565
▁الارض	-12.1565
▁ترائوره	-12.1565
▁متذکر	-12.1565
▁ناظمی	-12.1565
▁پرینسخرا	-12.1565
▁اکونومی	-12.1565
▁بیندازد	-12.1565
▁سوبرانا	-12.1565
▁محتکر	-12.1565
▁تشریفات	-12.1565
▁میکروسکوپ	-12.1565
▁ناپایدار	-12.1565
▁کاریکاتور	-12.1565
▁قیراط	-12.1565
▁همجوار	-12.1565
▁کذب	-12.1565
▁شریعت	-12.1565
▁نافذ	-12.1565
▁هولدینگ	-12.1565
▁بپرسید	-12.1565
▁هزارتومان	-12.1565
▁گانگستر	-12.1565
▁مجارستان	-12.1565
▁گدوت	-12.1565
▁خودخواهانه	-12.1565
▁نذری	-12.1565
▁اگنس	-12.1565
▁بازوبند	-12.1565
▁ملموس	-12.1565
▁گماشت	-12.1565
▁بمیرد	-12.1565
▁ضرغام	-12.1565
▁عبادی	-12.1565
▁قعر	-12.1565
▁موثق	-12.1565
▁کوواکس	-12.1565
▁سانفرانسیسکو	-12.1565
▁فرخزاد	-12.1565
▁سوینتن	-12.1565
▁نوترینو	-12.1565
▁یوردانس	-12.1566
▁معبد	-12.1566
▁ناخدا	-12.1566
▁وجدان	-12.1566
▁۲۴۰	-12.1566
▁الکسی	-12.1566
▁هکتار	-12.1566
▁اهرم	-12.1566
▁اکرم	-12.1566
▁سروصدا	-12.1566
▁گوارش	-12.1566
▁فراهانی	-12.1566
▁نزاع	-12.1566
▁باروک	-12.1566
معجزه	-12.1566
▁ژنشنگ	-12.1566
ستراح	-12.1566
▁ستمگر	-12.1566
▁لئون	-12.1566
▁نحس	-12.1566
▁الشع	-12.1566
▁تسخیر	-12.1566
▁مبتکر	-12.1566
▁سیلیکون	-12.1567
▁سمنزا	-12.1567
▁اوباش	-12.1567
▁بازوهای	-12.1567
▁هیلتون	-12.1567
▁ربع	-12.1567
▁همینگوی	-12.1567
▁شنوند	-12.1567
▁علیشاهی	-12.1567
▁پوینت	-12.1567
▁مرزبندی	-12.1567
▁نوشتارها	-12.1568
▁بردارم	-12.1568
▁ریتم	-12.1568
▁سیستماتیک	-12.1568
▁عواطف	-12.1568
▁صربستان	-12.1568
▁ایرویز	-12.1568
▁الخروج	-12.1568
▁اسکلت	-12.1568
▁چرم	-12.1569
▁معذ	-12.1569
▁مکوندی	-12.1569
▁گمارد	-12.1569
▁بسط	-12.1569
▁بنرهای	-12.1569
▁فرازمینی	-12.1569
▁مقبول	-12.1569
نکات	-12.157
ریحان	-12.157
▁دلنشین	-12.157
▁غیرمعمول	-12.157
▁نشناخت	-12.157
▁بزنید	-12.157
▁آقاخان	-12.1571
▁بیایند	-12.1571
▁ماورا	-12.1571
▁محصور	-12.1571
▁بپردازند	-12.1571
وصف	-12.1571
طغ	-12.1571
▁نویدبخش	-12.1571
▁قدیس	-12.1571
▁ونوس	-12.1571
▁سیندمی	-12.1572
▁نافرجام	-12.1572
▁زمام	-12.1572
▁گیج	-12.1572
▁موزیکال	-12.1573
▁۱۳۸۰	-12.1573
▁امیدورا	-12.1573
▁ستیزانه	-12.1573
سگ	-12.1573
▁فاضلاب	-12.1574
▁تخار	-12.1574
▁کانتونا	-12.1574
ضلع	-12.1574
▁برچید	-12.1574
اکولوژی	-12.1574
▁پرمخاط	-12.1574
▁خص	-12.1574
▁مرندی	-12.1574
▁همجنسگرا	-12.1574
▁سموم	-12.1575
▁پنداشت	-12.1575
▁بزنیم	-12.1575
▁آنچنان	-12.1576
▁معابد	-12.1576
▁کوئینز	-12.1576
▁دلجو	-12.1577
▁پالیس	-12.1577
▁خوشبو	-12.1578
▁فیض	-12.1578
آنگولا	-12.1578
▁۷۶۰	-12.1578
▁تایوان	-12.1579
غام	-12.1579
▁افراز	-12.158
▁رادیک	-12.158
دخا	-12.1581
▁پارکین	-12.1581
▁زهیر	-12.1581
▁لرزید	-12.1581
▁مکاتبات	-12.1582
▁هورن	-12.1582
▁روباه	-12.1582
▁۱۹۴۴	-12.1582
▁اتمر	-12.1583
ولوو	-12.1583
▁گاف	-12.1583
▁گنبد	-12.1583
▁پورنو	-12.1583
تقی	-12.1583
▁همبازی	-12.1583
▁سهمگین	-12.1583
انجیر	-12.1584
▁بکنند	-12.1584
▁دارالا	-12.1585
▁بوفالوران	-12.1585
▁بامیه	-12.1585
▁عابران	-12.1586
▁دانید	-12.1586
▁لمب	-12.1586
▁۲۲۰	-12.1587
▁بنشین	-12.1587
▁دهشت	-12.1587
▁چریک	-12.1589
دوستان	-12.1589
▁شهباز	-12.1589
▁گوترش	-12.159
▁محک	-12.159
▁هنرپیشگ	-12.159
▁خورند	-12.159
حج	-12.1591
سیاست	-12.1591
▁لارن	-12.1593
▁خفت	-12.1593
▁میناری	-12.1593
▁افزو	-12.1594
▁ورزند	-12.1594
▁دیلن	-12.1594
▁آنجلی	-12.1594
▁آموس	-12.1595
▁بخوانند	-12.1596
▁هولو	-12.1597
پوآ	-12.1598
▁نیافتاد	-12.1598
▁بلاتکلیف	-12.1598
▁فلسطینی	-12.1598
ارزپاشی	-12.1599
بنوی	-12.1599
▁مجلل	-12.1601
▁پرالتهاب	-12.1602
سوار	-12.1603
▁نیکو	-12.1603
▁ویسل	-12.1603
▁مفتو	-12.1604
▁نرود	-12.1604
▁ذوال	-12.1605
▁آبراه	-12.1605
▁شنیدم	-12.1605
▁جبار	-12.1606
▁دورانگو	-12.1607
▁خیرخواه	-12.1607
▁فونت	-12.1607
▁دوقلوها	-12.1607
▁انرو	-12.1607
▁خرابکارانه	-12.1609
▁جزای	-12.1609
▁برسید	-12.161
سوال	-12.161
▁اغما	-12.161
نتس	-12.161
▁سفیدپوستان	-12.1612
▁ایزد	-12.1613
▁جویا	-12.1613
▁ممد	-12.1613
▁بحری	-12.1615
▁جویانه	-12.1616
▁جداسازی	-12.1616
▁مبد	-12.1618
دانف	-12.162
گشایش	-12.1621
▁نمودار	-12.1623
▁هالووین	-12.1625
▁هموطنان	-12.1625
▁لاپ	-12.1628
فائ	-12.1629
▁بشنوید	-12.163
▁قلو	-12.1632
▁منکین	-12.1634
▁۱۲۷	-12.1635
فیو	-12.1636
▁تراژ	-12.1636
▁ناباور	-12.1639
لومین	-12.164
▁نداشتیم	-12.1642
▁دیوارنگار	-12.1643
▁یوهان	-12.1648
▁فراگرفت	-12.1649
▁۱۷۵	-12.165
▁بلوم	-12.1652
ستحکم	-12.1654
▁کارکرد	-12.1654
▁رباتیک	-12.1657
▁ماجراجوی	-12.1659
▁الط	-12.1659
▁چهارصد	-12.1663
▁بیکارشد	-12.1664
▁بنفش	-12.1664
▁دالان	-12.1664
▁پیوندند	-12.1666
▁عاج	-12.1669
▁اژدها	-12.167
▁بوسی	-12.167
▁سودده	-12.1671
▁پیمانکاران	-12.1681
▁نظار	-12.1681
▁نورال	-12.1689
چنین	-12.169
اخور	-12.1691
▁آتن	-12.1691
حاب	-12.1694
▁شنیدنش	-12.1695
▁آوردیم	-12.1696
سترون	-12.1699
▁نط	-12.17
▁پولها	-12.17
▁رسیم	-12.1704
▁صمد	-12.1705
خاش	-12.1705
کبیر	-12.1705
▁معترضین	-12.1707
▁یادمان	-12.1709
کشید	-12.1715
▁مشاهدات	-12.1715
صیر	-12.1721
▁موزی	-12.1723
▁دزدید	-12.1724
ریاست	-12.1724
▁دستفروش	-12.1727
▁وسائ	-12.1728
▁گرافی	-12.1731
▁افشاگر	-12.1734
اندیش	-12.1737
▁هیج	-12.1741
حضرت	-12.1743
▁درصورت	-12.1755
لاستیک	-12.1756
▁ایندی	-12.1759
▁مجاور	-12.1759
▁بلد	-12.1759
▁پرشک	-12.1761
▁درنظر	-12.1761
▁حریفش	-12.1764
عاده	-12.1767
▁جده	-12.1768
▁محرومند	-12.177
▁درازا	-12.177
▁والن	-12.1771
▁مخالفند	-12.1779
▁غفاری	-12.178
▁برنج	-12.1785
▁تباه	-12.1786
▁مشق	-12.1795
▁کوئین	-12.1798
▁ستیز	-12.1798
▁بغ	-12.1799
▁کربی	-12.18
▁ماجراهای	-12.1815
▁فوب	-12.1819
▁تاس	-12.1821
نخ	-12.1823
▁فون	-12.1825
فشان	-12.1827
شکنی	-12.1827
سرگ	-12.1841
همراه	-12.1844
▁برگشتند	-12.1845
▁بدق	-12.1846
▁آبیار	-12.1847
▁نگذاشته	-12.1847
▁پاشیده	-12.1848
▁قمر	-12.1858
▁ابط	-12.1869
پرستانه	-12.1874
وچی	-12.1875
سرع	-12.1876
▁خسرو	-12.188
▁دوهزار	-12.1889
▁هوادارن	-12.1889
مانند	-12.1893
چس	-12.1894
▁فراوانش	-12.19
▁فرگوس	-12.1912
▁چادر	-12.1914
▁سپاس	-12.1917
خسار	-12.1918
وود	-12.1919
▁شناسیم	-12.1921
▁نجومی	-12.1923
▁چشمک	-12.193
▁آغا	-12.1949
تابلو	-12.195
خالی	-12.195
بخت	-12.1954
تجمع	-12.1955
▁بندهای	-12.1956
خن	-12.1966
ورال	-12.1967
▁ترسم	-12.1969
▁فلور	-12.1969
▁کنگو	-12.1974
بولت	-12.1983
▁وود	-12.1984
وض	-12.1993
▁فریم	-12.1998
کادی	-12.2006
▁اجسا	-12.2009
▁آمری	-12.2019
رمو	-12.202
▁جیو	-12.2021
▁زاها	-12.2022
۷۷	-12.2025
▁بریز	-12.2026
الفبا	-12.2027
هیج	-12.2045
▁سرام	-12.2045
تص	-12.2068
▁گند	-12.2075
انزی	-12.2079
▁لائو	-12.2081
▁افتادند	-12.2083
روید	-12.2095
▁فرمین	-12.2098
مونت	-12.2104
▁ویچ	-12.2107
جیح	-12.2111
زندگان	-12.2111
▁سیلوا	-12.2117
▁منش	-12.2118
▁والد	-12.2119
▁روبل	-12.212
▁ادینبور	-12.2125
▁چرخاند	-12.213
گرمی	-12.2131
کلت	-12.214
▁شغلهای	-12.214
سپورت	-12.2141
نادر	-12.2141
ساتبی	-12.2141
رشا	-12.2151
▁کانا	-12.2154
▁فرزان	-12.2155
۴۵	-12.2158
حشم	-12.2159
▁افکند	-12.2172
▁گرانش	-12.2175
▁نائ	-12.2177
▁۲۰۶	-12.2181
▁هواپیماساز	-12.2181
▁برسیم	-12.2189
▁فدا	-12.22
▁لوین	-12.2207
▁تجسمی	-12.2217
سپر	-12.222
▁پروس	-12.2239
سیاسی	-12.224
نتر	-12.2254
شمن	-12.2286
▁سیمین	-12.2291
▁بویی	-12.2292
▁پولدار	-12.2293
▁کورس	-12.2305
بریز	-12.2318
▁راهور	-12.2319
▁رقیبان	-12.2324
▁ویا	-12.2327
▁فلی	-12.2334
▁داس	-12.2345
شاپی	-12.2348
▁ضمی	-12.2368
▁ارغ	-12.2368
▁نگو	-12.2383
▁زدم	-12.2386
کابو	-12.2388
▁لوب	-12.2394
تقابل	-12.2431
▁نشا	-12.2432
▁رزمند	-12.2434
▁آمو	-12.244
شرف	-12.2442
اعش	-12.2443
▁نوارها	-12.2477
▁بشوی	-12.248
دنبال	-12.2481
جروم	-12.2487
چندان	-12.2506
اعات	-12.2519
▁بلندپروازی	-12.2523
▁شورشی	-12.2524
یکایی	-12.2524
▁پرتوی	-12.2531
▁داکا	-12.2532
نسوخ	-12.2548
گوید	-12.2558
▁مث	-12.256
▁رک	-12.2566
طبا	-12.2577
چهارم	-12.2585
▁بنیا	-12.2596
▁پرداختند	-12.2608
▁زهی	-12.2624
▁کوئ	-12.2631
▁بنام	-12.2631
▁گنجا	-12.264
▁پلات	-12.2646
ریتز	-12.2648
▁زیباتر	-12.265
▁چندسال	-12.2654
▁کشاورزان	-12.2654
▁ترها	-12.266
▁آتا	-12.2661
▁ورای	-12.2661
▁استعماری	-12.2681
▁ویلر	-12.2683
▁۱۲۸	-12.2698
▁غیرمت	-12.2726
رخ	-12.2736
سنده	-12.2744
▁میشی	-12.2763
▁فروشد	-12.2774
▁انبارها	-12.2786
▁پیکا	-12.279
فال	-12.2791
▁بایستی	-12.2802
ارتی	-12.2804
▁آلیس	-12.2807
▁موثرتر	-12.2812
وجه	-12.2813
کسان	-12.2831
▁لوت	-12.2836
▁پیس	-12.2838
▁روستاها	-12.2844
▁سوریا	-12.2852
▁غز	-12.2853
▁هلا	-12.287
▁چپگرا	-12.2874
▁ناراحتی	-12.2885
▁جفا	-12.29
سیستم	-12.2918
اگون	-12.2934
آمارها	-12.2974
▁ایرانروزها	-12.2977
لوح	-12.2989
لنگر	-12.3003
انستان	-12.3024
الین	-12.304
▁پورت	-12.3049
▁بوستا	-12.3055
وگو	-12.3062
▁دس	-12.3062
ریکا	-12.3124
▁الزاما	-12.3174
۵۳	-12.3175
ضراب	-12.3181
مثبت	-12.3195
▁فتو	-12.32
▁کردید	-12.3207
▁معای	-12.3262
کسوت	-12.3279
▁تغییرهای	-12.3291
▁وینس	-12.3304
▁سراغش	-12.3343
رزم	-12.3351
▁ریلی	-12.3365
اندرو	-12.3372
▁بازدیدها	-12.3384
▁فران	-12.3413
▁دبیل	-12.3414
▁لایک	-12.3421
▁آق	-12.3459
مالیا	-12.3508
▁۱۳۸۶	-12.3526
▁خرو	-12.3539
وگند	-12.3543
ایکون	-12.3547
▁گرو	-12.3587
ئوس	-12.3595
رستان	-12.3595
▁سنجی	-12.3599
وردی	-12.3633
اپور	-12.3652
بود	-12.3657
▁۱۵۲	-12.3669
پال	-12.367
مگان	-12.367
سالگی	-12.3693
خاطره	-12.3706
▁بلن	-12.3727
فمن	-12.3727
درآمدهای	-12.3728
صدق	-12.3736
تروف	-12.3765
▁مارسل	-12.3766
لمن	-12.379
▁چنگ	-12.3794
والد	-12.3827
ارگردان	-12.3832
▁۱۱۹	-12.3846
ناتور	-12.3857
اسکا	-12.3889
▁کاو	-12.3927
▁پاین	-12.3932
▁محبو	-12.3951
ارجه	-12.3984
▁تمل	-12.4004
زاق	-12.4005
▁رویاها	-12.4016
▁گلشی	-12.4018
▁سریعتر	-12.4028
▁فیزیوتراپی	-12.4038
▁۴۸۰	-12.408
مالا	-12.4083
▁وظایفش	-12.4115
بوم	-12.4119
۱۴۶	-12.4121
▁مضا	-12.4137
▁صمیم	-12.4141
رزاده	-12.4143
عرض	-12.4153
۶۲۰	-12.4164
رتون	-12.4186
▁حف	-12.4207
نتینو	-12.4226
▁لنگ	-12.4226
وخته	-12.4231
▁کتابدار	-12.4233
گسترد	-12.4249
▁هید	-12.426
ناوند	-12.427
اسف	-12.4271
فلورای	-12.4281
فولا	-12.4283
▁کارآمد	-12.4286
ژیک	-12.4286
▁هجده	-12.4308
▁۱۱۴	-12.4339
تراز	-12.4352
راحتی	-12.4354
بسیار	-12.4356
آقا	-12.4358
قانون	-12.436
▁تولی	-12.4363
▁نجوم	-12.4421
۳۰۰	-12.4433
▁السی	-12.4436
ونکو	-12.444
رنوش	-12.4457
▁اعم	-12.446
▁وکلا	-12.4462
مایش	-12.4471
▁محتوا	-12.4473
▁مطهر	-12.4474
تورم	-12.4476
▁تیرانداز	-12.4478
▁سخنگو	-12.4487
یونیست	-12.4491
▁فعل	-12.4493
▁۷۱	-12.4503
▁پاها	-12.4504
عیار	-12.451
▁دلخو	-12.4525
▁بورد	-12.4529
▁صحرا	-12.453
▁ادعاها	-12.4539
▁عبد	-12.4549
ثمی	-12.4551
▁شغلها	-12.4556
▁دیوارها	-12.4563
صراف	-12.4566
▁بیوا	-12.4568
▁بوها	-12.4581
قامت	-12.4585
دورا	-12.4587
▁کالو	-12.461
ارکان	-12.4625
رفته	-12.4626
▁آمر	-12.4628
رخوری	-12.4637
دروس	-12.4641
خلال	-12.4653
▁محاکم	-12.4658
▁معوق	-12.4662
چگون	-12.4663
آمد	-12.467
۴۰۰	-12.4672
بورک	-12.4686
▁وزر	-12.4687
▁شکو	-12.4696
▁۱۲۶	-12.471
▁خوابید	-12.4726
یامده	-12.4726
▁متروک	-12.4731
قاعد	-12.4732
▁زل	-12.4733
▁الکترود	-12.4734
سپاه	-12.4735
وام	-12.4737
▁فاکس	-12.4745
زارها	-12.4745
▁سط	-12.4748
محل	-12.4749
بنفش	-12.4763
تفاوت	-12.4763
داخل	-12.4763
کوب	-12.4766
▁بخواب	-12.4766
مسئول	-12.4766
▁۳۵۰۰	-12.4766
ژیل	-12.4767
تولد	-12.4768
تغییر	-12.4768
انتقال	-12.4769
حکام	-12.477
توییت	-12.477
راست	-12.4771
مهندسان	-12.4772
جعفر	-12.4774
رامش	-12.4774
رونالدینیو	-12.4775
پناه	-12.4775
مرتضی	-12.4775
تیرماه	-12.4776
هرمز	-12.4776
بنکسی	-12.4776
تحریر	-12.4777
مالاریا	-12.4777
اقبال	-12.4777
قاضی	-12.4777
عطرساز	-12.4777
برابر	-12.4777
آلن	-12.4777
کاوشگر	-12.4777
دادسرا	-12.4777
جلسات	-12.4777
ویلیام	-12.4778
هیوندای	-12.4778
منچستریونایتد	-12.4778
تجهیزات	-12.4778
لوئی	-12.4778
اختلال	-12.4778
آموز	-12.4778
سرنوشت	-12.4778
خودکشی	-12.4778
تبعیض	-12.4778
پادشاه	-12.4778
گواردیولا	-12.4778
مسعود	-12.4778
خورشید	-12.4778
فیسبوک	-12.4778
آرسنال	-12.4778
سرپرست	-12.4778
اولسان	-12.4778
حراج	-12.4778
وبسایت	-12.4778
مدیرعامل	-12.4779
بلژیک	-12.4779
عرص	-12.4779
سرطان	-12.4779
واشنگتن	-12.4779
اطمینان	-12.4779
عصر	-12.4779
تزریق	-12.4779
اظهارات	-12.4779
بحرین	-12.4779
برخورد	-12.4779
فرصت	-12.4779
صحبت	-12.4779
ظریف	-12.4779
سرمربی	-12.4779
واحد	-12.4779
دانشگاه	-12.4779
حمایت	-12.4779
رابطه	-12.4779
نهاده	-12.478
صعود	-12.478
ایسنا	-12.4781
شرط	-12.4781
آتش	-12.4781
هدایت	-12.4781
ورزش	-12.4781
پیدا	-12.4781
جمله	-12.4781
چاپ	-12.4781
بودجه	-12.4781
پارسال	-12.4781
ورزشگاه	-12.4782
بیانیه	-12.4782
جلسه	-12.4783
رونالدو	-12.4783
وضعیت	-12.4783
انتقادات	-12.4783
شایست	-12.4783
امضا	-12.4784
تایید	-12.4784
بازدید	-12.4785
کجاست	-12.4785
گمانه	-12.4785
مدیرکل	-12.4786
روحانی	-12.4787
فیفا	-12.4787
فینال	-12.4788
سادگی	-12.4789
علنی	-12.479
تغییرات	-12.479
مثل	-12.479
توییتر	-12.4792
جنسی	-12.4792
ضمن	-12.4793
دندان	-12.4795
جدال	-12.4796
کالا	-12.4796
▁ساق	-12.4797
قرارداد	-12.4797
رجب	-12.4797
صفر	-12.48
چپ	-12.4801
اصلاح	-12.4801
فکر	-12.4803
نادال	-12.4803
چهارشنبه	-12.4805
پیمان	-12.4807
ریزش	-12.4814
پشت	-12.4816
معمول	-12.4818
قدم	-12.4821
الیستی	-12.4823
درباره	-12.4823
فراز	-12.4825
امشب	-12.483
حکمت	-12.483
خرید	-12.4831
قبلا	-12.4834
اسکار	-12.4839
مشکل	-12.4841
ایمن	-12.4841
شاهد	-12.4842
▁فرانس	-12.4844
▁۲۹۰	-12.4845
حرکت	-12.4845
بندهای	-12.4845
گوپ	-12.4846
▁الاح	-12.4853
▁مختص	-12.4856
کمک	-12.4858
گذراند	-12.486
▁افزای	-12.4862
کاوا	-12.4862
دستور	-12.4863
طالبان	-12.4865
▁۳۳۰	-12.4865
اتاق	-12.4866
متیو	-12.4867
رافی	-12.4867
▁برجست	-12.4867
▁عص	-12.4869
پهن	-12.4869
جنر	-12.487
▁قرائ	-12.4872
طابق	-12.4872
▁بغل	-12.4873
مصرف	-12.4876
استیل	-12.4878
درخواست	-12.4878
▁۲۵۰۰	-12.488
واقعیت	-12.4883
▁شفی	-12.4887
وقف	-12.4888
▁آذ	-12.4889
▁مطبوع	-12.489
▁ظالم	-12.4891
یکصد	-12.4896
▁آرنو	-12.4896
تراتو	-12.4896
پارتمان	-12.4897
▁شمش	-12.4897
اراگوئه	-12.4897
▁کانتون	-12.4898
▁لابراتوار	-12.4898
لئوپولد	-12.4898
▁ابرکامپیوترها	-12.4898
▁ابوظبی	-12.4898
▁الکترومغناطیس	-12.4898
▁اکسیدکربن	-12.4898
▁ایزوتوپ	-12.4898
▁حوتاسفند	-12.4898
▁دگرباش	-12.4898
▁دیپلومات	-12.4898
▁روئی	-12.4898
▁زاناردی	-12.4898
▁سریلانکا	-12.4898
▁سولوویوف	-12.4898
▁شقاقی	-12.4898
▁طنزپرداز	-12.4898
▁غوغای	-12.4898
▁متعاقب	-12.4898
▁مفاهیم	-12.4898
▁واینالد	-12.4898
▁وبیتکو	-12.4898
▁ومعرف	-12.4898
▁پلاکاردهایی	-12.4898
▁پنتاگون	-12.4898
▁ژئوپلتیک	-12.4898
▁یوکوکورا	-12.4898
▁تمساح	-12.4898
▁مدودف	-12.4898
▁مطیعی	-12.4898
▁نیفتند	-12.4898
▁الاسلام	-12.4899
▁بیندازید	-12.4899
▁خرگوش	-12.4899
▁زحمات	-12.4899
▁پوآرو	-12.4899
▁استنشاق	-12.4899
▁اوکلاه	-12.4899
▁جادوگر	-12.4899
▁خویشاوند	-12.4899
▁معضل	-12.4899
افروختن	-12.4899
▁اسپانسر	-12.4899
▁غیرعمد	-12.4899
▁معشوق	-12.4899
▁کاذب	-12.4899
الشهدا	-12.4899
▁هورمون	-12.4899
▁واکاندا	-12.4899
▁استروئید	-12.4899
▁احمق	-12.4899
▁سربگیرند	-12.4899
▁ابطحی	-12.4899
▁اساتید	-12.4899
▁بمانید	-12.4899
▁آتلانتا	-12.4899
▁نکنم	-12.4899
▁قاپید	-12.4899
▁نگشته	-12.4899
▁هلیکوپتر	-12.4899
▁کمرشکن	-12.4899
▁بروکلی	-12.4899
کوبا	-12.4899
▁ولگردها	-12.4899
▁بنگال	-12.4899
▁مشهود	-12.4899
▁مقتض	-12.4899
▁ندوشن	-12.4899
▁وصیت	-12.4899
▁ضامن	-12.4899
▁عنف	-12.4899
▁میگویند	-12.4899
▁کلارک	-12.4899
▁ارنست	-12.4899
▁هورایزن	-12.4899
▁جانبازان	-12.4899
▁عقوبت	-12.4899
▁مانیتور	-12.4899
▁بوسد	-12.4899
▁درنوردید	-12.4899
▁گمپرت	-12.4899
▁گردآمد	-12.4899
▁ویسکانس	-12.4899
▁گزاف	-12.4899
▁رهنوش	-12.4899
▁نگرائو	-12.4899
آتلانت	-12.49
▁روایات	-12.49
▁نکونام	-12.49
▁گریبانگیر	-12.49
حسا	-12.49
▁اسنوبرد	-12.49
▁کوانت	-12.49
تیاگو	-12.49
▁مزاح	-12.49
▁متهیا	-12.49
▁ووندر	-12.49
▁غنای	-12.49
▁بیایید	-12.49
▁فورهند	-12.49
▁آسایش	-12.49
▁آجر	-12.49
▁شکوهمند	-12.4901
▁تلاقی	-12.4901
▁بازدارند	-12.4901
▁مصادیق	-12.4901
▁خیاط	-12.4901
▁کالینز	-12.4901
▁عریض	-12.4901
▁سمنان	-12.4901
▁گاندو	-12.4901
▁موازن	-12.4901
▁همدلی	-12.4901
▁مهدیخانی	-12.4902
تأسف	-12.4902
▁بیاییم	-12.4902
▁توکلی	-12.4902
▁کلمبو	-12.4902
دومین	-12.4902
مویرگی	-12.4902
▁رادارها	-12.4902
وزش	-12.4902
▁فرمایش	-12.4903
▁فیروزکو	-12.4903
▁پاکیزگی	-12.4903
▁ضدویروس	-12.4903
▁نومید	-12.4903
▁ترمز	-12.4903
▁آزاردید	-12.4903
▁نیمرخ	-12.4904
▁عمارت	-12.4904
▁فروزان	-12.4904
▁گرکان	-12.4904
▁شئون	-12.4904
▁کوونی	-12.4904
▁انعکاس	-12.4905
وتنبرگ	-12.4905
▁ایروان	-12.4905
▁سرمنشا	-12.4905
▁منشور	-12.4905
▁ببخشد	-12.4906
▁بکاهد	-12.4906
▁بگریزد	-12.4906
▁الاصل	-12.4906
لجستیک	-12.4906
▁وولف	-12.4906
اسرای	-12.4906
▁هرچیز	-12.4907
▁کاسکی	-12.4907
▁آبتین	-12.4907
کشور	-12.4907
▁توتال	-12.4907
▁پنهانکاری	-12.4908
▁ورزید	-12.4908
▁نطق	-12.4908
▁کوئیک	-12.4908
▁هتلداران	-12.4909
▁فرازمند	-12.4909
▁مشکاتیان	-12.4909
▁صداقت	-12.4909
▁۱۹۳۹	-12.4909
اتهام	-12.491
▁نوازد	-12.491
▁سرآمد	-12.491
زبور	-12.491
▁ولیحی	-12.491
▁استمفورد	-12.4911
▁نخرید	-12.4911
▁شاکی	-12.4911
▁جانورشناس	-12.4911
رپیچ	-12.4912
▁بندپی	-12.4912
▁ناسیونالیس	-12.4912
▁بگویید	-12.4912
▁۱۹۱۲	-12.4913
▁بساط	-12.4913
▁پردیس	-12.4914
▁اولترا	-12.4914
▁معصومانه	-12.4914
▁سرمست	-12.4914
▁عوام	-12.4914
▁بارکلی	-12.4915
▁اوتیسم	-12.4915
موارد	-12.4915
▁کاکس	-12.4915
▁دستگیرزاده	-12.4915
▁نوگرا	-12.4917
▁کالینگ	-12.4917
▁۱۹۷۷	-12.4917
▁جنون	-12.4917
▁جوانب	-12.4917
▁آغازکرده	-12.4917
▁۱۳۲۳	-12.4917
▁کولون	-12.4918
▁معاند	-12.4918
کلاسی	-12.492
▁تظاهر	-12.492
▁بلندگو	-12.492
▁رینت	-12.492
بلنک	-12.4921
▁آنالیز	-12.4921
▁حادتر	-12.4922
▁۷۲۲	-12.4923
▁دفعات	-12.4923
▁ملایم	-12.4924
▁سنجاب	-12.4925
امدا	-12.4925
▁برازند	-12.4925
▁آلترن	-12.4925
▁باغبان	-12.4927
▁بازپرس	-12.4927
▁میکند	-12.4928
▁مرورگر	-12.4928
▁آدا	-12.4928
▁فتوا	-12.4929
▁نزند	-12.4929
▁روسکو	-12.4929
▁بنویسد	-12.4929
▁تسایت	-12.4929
▁مگاصیص	-12.493
▁نامطلوب	-12.493
▁گاسکوئین	-12.493
▁لوکالکان	-12.493
شنود	-12.4931
عقوب	-12.4932
▁مالباخت	-12.4932
▁مومن	-12.4932
غیبت	-12.4933
مفس	-12.4933
▁گریختند	-12.4934
▁جووان	-12.4935
▁مامن	-12.4938
▁نوشتاری	-12.4938
رج	-12.4941
پدر	-12.4942
▁امدادگر	-12.4942
▁بیولوژی	-12.4942
▁سالوادور	-12.4944
▁باارزش	-12.4945
▁پوسترهای	-12.4946
▁وصدا	-12.4948
▁مخلوط	-12.4948
▁قلمرو	-12.4949
▁متخ	-12.4952
قیق	-12.4952
▁قراردادها	-12.4952
▁هملت	-12.4953
▁لودو	-12.4955
▁مولد	-12.4956
▁دمکرات	-12.4956
▁اوصاف	-12.4957
▁۲۶۶	-12.4957
▁لاور	-12.4957
▁لومب	-12.4958
▁مستعد	-12.4958
▁کوو	-12.4958
قیاف	-12.4958
لوژی	-12.4959
▁پردازیم	-12.4959
▁۲۳۹	-12.496
ساخته	-12.4961
▁تازیان	-12.4961
▁جنایات	-12.4962
▁آلپ	-12.4963
کانتر	-12.4964
▁آپارت	-12.4965
دوگا	-12.4966
▁زید	-12.4967
▁رافا	-12.4968
رساز	-12.4969
▁طع	-12.4969
▁مشوقهای	-12.4971
▁دایان	-12.4971
سایر	-12.4973
▁ایفل	-12.4974
▁اینترف	-12.4976
رها	-12.4977
▁کبری	-12.4977
پیوند	-12.4977
خاطرات	-12.4982
▁پهپادهای	-12.4982
▁مقل	-12.4983
▁کاوش	-12.4985
▁ابزارک	-12.4986
▁اوساکا	-12.4986
▁خوانید	-12.4986
▁باربارا	-12.4986
▁بولدو	-12.4989
زستان	-12.4992
▁کاتال	-12.4992
▁ایمیل	-12.4993
▁نهادها	-12.4995
▁دماغ	-12.4997
زیاد	-12.4997
▁بیگم	-12.4999
حفاظ	-12.4999
یوئیت	-12.5
▁اپوز	-12.5004
▁پسندید	-12.5004
زیچ	-12.5006
خراش	-12.5009
▁ریاکاری	-12.5013
▁منصف	-12.5014
▁گرانبهای	-12.5015
ورسوی	-12.5017
▁تاخت	-12.5017
▁ریختند	-12.5017
▁ناراحتند	-12.5019
▁پراوی	-12.502
غات	-12.5021
▁رهن	-12.5022
▁خندد	-12.5023
▁زبر	-12.5024
▁پرماجرا	-12.5027
▁شرو	-12.5028
▁چول	-12.5031
▁بوکا	-12.5034
ارنوک	-12.5035
ساری	-12.5035
هفتم	-12.5038
شهرهای	-12.5041
▁صر	-12.5041
▁نرسیدند	-12.5042
▁کینگز	-12.5042
▁گیگاب	-12.5046
▁نفیس	-12.5047
▁۱۵۵	-12.5048
▁نزدند	-12.5051
▁معا	-12.5053
انزلی	-12.5054
▁مسلم	-12.5054
▁درایو	-12.5057
شهرت	-12.506
▁فرما	-12.5061
▁جدیدتر	-12.5062
▁۱۲۲	-12.5065
▁خوانیم	-12.5066
▁فاصل	-12.5071
فوت	-12.5073
▁کوهنوردان	-12.5078
▁کورین	-12.5079
▁فرمانیه	-12.508
▁گوتر	-12.508
▁تقلی	-12.5082
▁تانس	-12.5084
▁مبل	-12.5084
▁نخل	-12.5085
▁دائما	-12.5086
▁کتا	-12.5093
▁پریا	-12.5094
خواهر	-12.5096
ادزه	-12.5098
میسی	-12.5099
▁ستد	-12.5102
▁دمید	-12.5103
▁هلن	-12.5104
▁درگذشتمحمد	-12.5106
ملامت	-12.5107
▁زدیم	-12.511
کلاغ	-12.5113
مداری	-12.5114
▁نشو	-12.5116
▁اندیشید	-12.5117
▁محبت	-12.5118
▁لوور	-12.5119
▁صل	-12.5125
▁استعفاها	-12.5127
▁حوت	-12.5128
▁گذراندم	-12.513
▁وایلر	-12.5132
بریج	-12.5133
▁کورن	-12.5136
▁معلمان	-12.5137
▁شهیر	-12.5143
▁سرکو	-12.5148
موت	-12.5155
مغان	-12.5158
▁برخوردارند	-12.5158
▁متاب	-12.516
▁کلاسیکو	-12.5161
▁پناهندگان	-12.5161
سنا	-12.5163
▁پریان	-12.5166
ینگز	-12.5167
▁برسان	-12.5172
نوپ	-12.5172
▁بکن	-12.5175
▁جوانتر	-12.5179
▁بکت	-12.5181
▁نشرات	-12.5186
تورباز	-12.5187
▁ایستادن	-12.5191
▁بدبین	-12.5192
ماجد	-12.5192
ردین	-12.5195
▁مظ	-12.5198
▁طلاق	-12.5202
گیرند	-12.5203
▁انریک	-12.5204
سید	-12.5207
▁جولیان	-12.5211
▁خطاط	-12.5217
▁بردیم	-12.5225
مدان	-12.5226
▁اجراست	-12.5227
▁مشهورتر	-12.5232
▁بلندق	-12.5244
جوانمرد	-12.5244
ریدلی	-12.5248
▁قرادادش	-12.525
پارل	-12.5254
▁آخ	-12.5256
▁شارل	-12.5257
▁آلبا	-12.5259
▁روایتگر	-12.526
▁درشبا	-12.5265
حافظه	-12.5272
▁تعار	-12.5274
ترونیک	-12.5277
نگل	-12.5286
▁نخوان	-12.5293
▁اردبی	-12.5295
▁دق	-12.5297
▁سالخورد	-12.5297
▁پذیرد	-12.5302
لخت	-12.5303
نقی	-12.532
▁نکردم	-12.5322
سیمون	-12.5329
اگرا	-12.5333
▁مونش	-12.5337
لگار	-12.534
دافع	-12.5346
▁رفتیم	-12.5347
علیر	-12.5354
▁اض	-12.5357
▁گیرم	-12.5359
اویل	-12.5363
▁پز	-12.5374
▁فلین	-12.5377
▁فاخر	-12.5381
▁نگارم	-12.5382
▁مخد	-12.5385
۸۷	-12.5412
▁مالدار	-12.5412
▁بپیچ	-12.5418
رگاه	-12.542
▁نایم	-12.542
ستاران	-12.5429
درینو	-12.543
▁فضاپیماها	-12.5436
▁تریست	-12.5438
▁آزمود	-12.5447
یابد	-12.5454
▁انگیزد	-12.5463
▁شیپ	-12.5471
جس	-12.5478
▁آوار	-12.5478
قبره	-12.5517
نهام	-12.5522
اشق	-12.5524
▁ساند	-12.5527
▁هیپستر	-12.5528
تژیک	-12.5529
پولیتیک	-12.5532
خصوصا	-12.5543
▁کشا	-12.5549
۳۷	-12.5559
▁رادو	-12.5561
▁دستورات	-12.5563
عابد	-12.5571
▁دیک	-12.5574
▁مساعدت	-12.5577
▁ریچ	-12.558
▁نواز	-12.5611
وارت	-12.5614
شاملو	-12.563
تاژ	-12.5676
کاتان	-12.568
نگولی	-12.5692
▁نشدم	-12.5697
▁گرج	-12.5699
▁روست	-12.5711
▁اتفاقا	-12.5771
▁مارکان	-12.5771
▁دژها	-12.5799
▁یورک	-12.5842
کاس	-12.585
نورلند	-12.5852
راث	-12.586
راکتور	-12.5884
▁برادرز	-12.5905
▁حاکمان	-12.5909
▁دیپلم	-12.5928
باخ	-12.5934
▁مسیریاب	-12.5936
▁گردان	-12.5954
▁مزا	-12.5996
مگ	-12.6001
▁رامین	-12.601
▁طبل	-12.6018
▁ث	-12.6074
گما	-12.612
نیرو	-12.6157
▁جوید	-12.6165
فردو	-12.6188
راژ	-12.6221
آمدتر	-12.6224
▁صب	-12.6231
▁انف	-12.6237
▁شهنا	-12.6244
▁معر	-12.625
شمرد	-12.6262
حذ	-12.6262
▁متوس	-12.6263
▁تض	-12.6272
قوایی	-12.6278
ساکو	-12.6281
جاسوسی	-12.6284
▁کارتن	-12.6342
کمپ	-12.6348
▁بیشمار	-12.6361
جهش	-12.6364
بورگ	-12.6396
▁۱۵سال	-12.6416
متعارف	-12.6435
توالی	-12.6536
نواز	-12.6561
▁کشو	-12.6596
▁واردکنند	-12.6609
▁نوآ	-12.6618
اشتن	-12.6635
▁جنگیدن	-12.665
شستن	-12.6702
▁ناگ	-12.6713
▁فراپا	-12.6719
ورهم	-12.6731
میلیا	-12.674
تنبور	-12.6805
▁کردآ	-12.6866
ستره	-12.6885
رفتار	-12.6888
▁بالاگ	-12.6929
▁سیریا	-12.6933
▁راکل	-12.6939
گار	-12.6959
امور	-12.6969
جزایر	-12.6984
ناوال	-12.7007
درومن	-12.7014
عبدالو	-12.7057
اغت	-12.7073
▁تئاترها	-12.7081
▁الجز	-12.7086
▁حیا	-12.7106
کولبر	-12.7122
رنجر	-12.7214
▁خف	-12.7266
گرایان	-12.7284
۸۰۰۰	-12.7329
کنت	-12.735
انگلر	-12.736
مترو	-12.7383
امیلی	-12.7408
▁ویرا	-12.7423
▁کاپل	-12.743
وتک	-12.7459
▁اکوس	-12.7486
اوران	-12.7507
گدا	-12.7517
▁خدایا	-12.7533
▁اورگ	-12.7578
▁ثق	-12.7678
عمر	-12.7679
کرون	-12.7914
▁بگذار	-12.7923
▁مثا	-12.8111
نواختر	-12.814
توحید	-12.8159
▁مسج	-12.8201
▁همزی	-12.8202
تعادل	-12.825
الیا	-12.8287
▁غیربورسی	-12.8318
▁حری	-12.8358
رهایش	-12.8371
▁نیکول	-12.8396
چون	-12.841
الیات	-12.8439
خامت	-12.8455
چنان	-12.8456
ایستند	-12.8471
▁وینفر	-12.8471
۲۶	-12.8511
تراپ	-12.856
▁کوار	-12.8603
اقلان	-12.861
یوشیت	-12.8664
پنجاه	-12.887
الیزا	-12.8871
▁فرزندانم	-12.8893
حاف	-12.8911
شناس	-12.8916
استفان	-12.893
▁هیپستره	-12.8948
بدین	-12.8965
اشیا	-12.8995
رکنا	-12.9011
ورتینگ	-12.9014
▁بپی	-12.9026
▁هیب	-12.9034
▁بلندتر	-12.9053
▁فقیرتر	-12.9098
میرز	-12.9107
دینامیک	-12.9149
شتابند	-12.9186
▁درآو	-12.9231
برگرفت	-12.9233
ژ	-14.7061
ئ	-14.7062
