{
  "src_word2id": {
    "<pad>": 0,
    "<s>": 1,
    "</s>": 2,
    "<unk>": 3,
    "ی": 4,
    ".": 5,
    "ه": 6,
    "▁است": 7,
    "▁می": 8,
    "▁": 9,
    "▁های": 10,
    "▁ایران": 11,
    "▁شده": 12,
    "،": 13,
    "▁سال": 14,
    "▁بود": 15,
    "▁ها": 16,
    "▁یک": 17,
    "▁شد": 18,
    "▁تصویر": 19,
    "▁کرده": 20,
    "▁ای": 21,
    "▁کرد": 22,
    "ان": 23,
    "منبع": 24,
    "▁بر": 25,
    "▁شود": 26,
    "▁گفته": 27,
    "▁دو": 28,
    "▁خود": 29,
    "▁کند": 30,
    "ش": 31,
    "؛": 32,
    "ت": 33,
    "▁اند": 34,
    "▁کرونا": 35,
    "ن": 36,
    "▁در": 37,
    "▁ماه": 38,
    "▁آمریکا": 39,
    "▁کشور": 40,
    "▁پیش": 41,
    "▁گزارش": 42,
    "▁روز": 43,
    "ین": 44,
    "▁فوتبال": 45,
    "▁بی": 46,
    "▁تیم": 47,
    "▁بازی": 48,
    "▁گفت": 49,
    "▁کار": 50,
    "▁دارد": 51,
    "م": 52,
    "▁به": 53,
    "▁دهد": 54,
    "▁اعلام": 55,
    "▁کنند": 56,
    "▁قرار": 57,
    "▁ا": 58,
    "▁دیگر": 59,
    "▁و": 60,
    "▁شرکت": 61,
    "▁هزار": 62,
    "▁داده": 63,
    "▁یا": 64,
    "▁دولت": 65,
    "▁دست": 66,
    "▁رئیس": 67,
    "▁با": 68,
    "▁بین": 69,
    "▁خواهد": 70,
    "▁م": 71,
    "▁سه": 72,
    "ب": 73,
    "▁جهان": 74,
    "▁هر": 75,
    "▁گذشته": 76,
    "▁آقای": 77,
    "▁پس": 78,
    "▁بار": 79,
    "▁گوید": 80,
    "▁درباره": 81,
    "▁تهران": 82,
    "در": 83,
    "▁لیگ": 84,
    "▁درصد": 85,
    "▁آنها": 86,
    "▁جدید": 87,
    "▁چند": 88,
    "▁نفر": 89,
    "▁دلیل": 90,
    "▁افزایش": 91,
    "▁داد": 92,
    "▁میلیون": 93,
    "ند": 94,
    "▁بعد": 95,
    "'": 96,
    "▁'": 97,
    "▁قیمت": 98,
    "این": 99,
    "▁بوده": 100,
    "▁از": 101,
    "های": 102,
    "▁افغانستان": 103,
    "▁سازمان": 104,
    "▁حال": 105,
    "▁ملی": 106,
    "ر": 107,
    "ل": 108,
    "▁بازار": 109,
    ":": 110,
    "ا": 111,
    "▁هفته": 112,
    "▁جهانی": 113,
    "▁یکی": 114,
    "ز": 115,
    "▁ویروس": 116,
    "▁همه": 117,
    "ع": 118,
    "▁خبر": 119,
    "▁نمی": 120,
    "▁فیلم": 121,
    "▁نام": 122,
    "ترین": 123,
    "▁نظر": 124,
    "▁جمهوری": 125,
    "د": 126,
    "▁برگزار": 127,
    "▁ترین": 128,
    "▁دلار": 129,
    "▁نفت": 130,
    "▁عنوان": 131,
    "▁بزرگ": 132,
    "▁ن": 133,
    "▁مورد": 134,
    "▁باید": 135,
    "▁هستند": 136,
    "▁داشت": 137,
    "▁بیش": 138,
    "▁علی": 139,
    "▁وزارت": 140,
    "▁شب": 141,
    "▁تولید": 142,
    "▁گرفته": 143,
    "▁مجلس": 144,
    "▁روی": 145,
    "▁کردند": 146,
    "▁امروز": 147,
    "▁سی": 148,
    "▁نیست": 149,
    "▁شدن": 150,
    "▁سر": 151,
    "▁اروپا": 152,
    "▁ف": 153,
    "ات": 154,
    "▁آغاز": 155,
    "▁را": 156,
    "▁بیشتر": 157,
    "▁بودند": 158,
    "▁کاهش": 159,
    "▁چین": 160,
    "س": 161,
    "▁مقابل": 162,
    "▁وزیر": 163,
    "▁نیز": 164,
    "▁اخیر": 165,
    "▁بریتانیا": 166,
    "▁بانک": 167,
    "▁آن": 168,
    "▁همچنین": 169,
    "▁نشان": 170,
    "▁پایان": 171,
    "▁تر": 172,
    "▁حدود": 173,
    "▁راه": 174,
    "▁زمان": 175,
    "▁باشگاه": 176,
    "که": 177,
    "▁تحریم": 178,
    "▁داشته": 179,
    "▁برنامه": 180,
    "▁شیو": 181,
    "▁انجام": 182,
    "▁اول": 183,
    "زه": 184,
    "▁حضور": 185,
    "به": 186,
    "▁صورت": 187,
    "▁باشد": 188,
    "▁اقتصادی": 189,
    "▁باز": 190,
    "▁اساس": 191,
    "▁اش": 192,
    "▁ت": 193,
    "▁اولین": 194,
    "▁ب": 195,
    "▁منتشر": 196,
    "▁توافق": 197,
    "▁گل": 198,
    "▁واکسن": 199,
    "▁بخش": 200,
    "▁شهر": 201,
    "▁استفاده": 202,
    "دامه": 203,
    "▁میان": 204,
    "▁جمله": 205,
    "▁فصل": 206,
    "▁شورا": 207,
    "له": 208,
    "▁مردم": 209,
    "ری": 210,
    "▁رسید": 211,
    "▁شوند": 212,
    "▁کم": 213,
    "▁وجود": 214,
    "▁گروه": 215,
    "؟": 216,
    "▁زندگی": 217,
    "آقای": 218,
    "▁حقوق": 219,
    "او": 220,
    "▁چهار": 221,
    "▁مسابقه": 222,
    "▁مسابقات": 223,
    "▁دارند": 224,
    "▁میلیارد": 225,
    "▁المللی": 226,
    "▁همین": 227,
    "▁ایرانی": 228,
    "▁جام": 229,
    "▁مقام": 230,
    "▁تومان": 231,
    "انه": 232,
    "و": 233,
    "▁گیری": 234,
    "▁تنها": 235,
    "▁جای": 236,
    "▁ر": 237,
    "▁خواست": 238,
    "▁ارز": 239,
    "گی": 240,
    "▁زنان": 241,
    "▁۲۰": 242,
    "▁تمام": 243,
    "▁شدند": 244,
    "▁شرایط": 245,
    "▁غیر": 246,
    "▁دی": 247,
    "▁وقت": 248,
    "▁زیاد": 249,
    "▁ماشین": 250,
    "▁برتر": 251,
    "▁خانه": 252,
    "▁گرفت": 253,
    "▁تواند": 254,
    "▁بدو": 255,
    "▁حالی": 256,
    "▁فعالیت": 257,
    "▁آینده": 258,
    "▁اسلامی": 259,
    "▁محمد": 260,
    "▁تلاش": 261,
    "▁قبل": 262,
    "▁بیماری": 263,
    "عث": 264,
    "ار": 265,
    "▁کردن": 266,
    "▁بسیاری": 267,
    "▁انتخابات": 268,
    "▁وارد": 269,
    "▁اقتصاد": 270,
    "▁افراد": 271,
    "▁کشورهای": 272,
    "▁اجتماعی": 273,
    "▁توان": 274,
    "ق": 275,
    "شان": 276,
    "▁دوران": 277,
    "▁وضعیت": 278,
    "▁هیچ": 279,
    "▁امسال": 280,
    "▁خارجه": 281,
    "▁بورس": 282,
    "▁پی": 283,
    "▁طور": 284,
    "▁هایی": 285,
    "▁نرخ": 286,
    "▁رسان": 287,
    "ها": 288,
    "▁روحانی": 289,
    "▁تغییر": 290,
    "▁نزدیک": 291,
    "▁قهرمان": 292,
    "▁مختلف": 293,
    "رسی": 294,
    "نه": 295,
    "▁مهم": 296,
    "▁سوی": 297,
    "▁بسیار": 298,
    "▁فروش": 299,
    "▁تصمیم": 300,
    "▁ولی": 301,
    "▁کمک": 302,
    "▁مرکزی": 303,
    "▁گویند": 304,
    "▁زمین": 305,
    "▁مدت": 306,
    "قط": 307,
    "▁منبع": 308,
    "▁طرح": 309,
    "▁خانواده": 310,
    "▁پول": 311,
    "▁حالا": 312,
    "▁ریاست": 313,
    "▁تازه": 314,
    "▁نه": 315,
    "▁قهرمانی": 316,
    "▁سرمایه": 317,
    "▁مجموع": 318,
    "▁نخست": 319,
    "▁برابر": 320,
    "▁پنج": 321,
    "▁جان": 322,
    "▁تاریخ": 323,
    "▁دوره": 324,
    "یک": 325,
    "▁استان": 326,
    "▁اثر": 327,
    "▁دهه": 328,
    "▁برجام": 329,
    "گان": 330,
    "▁همراه": 331,
    "▁دوم": 332,
    "▁حت": 333,
    "▁ساله": 334,
    "▁برای": 335,
    "▁شروع": 336,
    "▁س": 337,
    "▁اطلاعات": 338,
    "▁بعضی": 339,
    "▁پیدا": 340,
    "▁شکست": 341,
    "▁موسیقی": 342,
    "▁پرسپولیس": 343,
    "▁مرکز": 344,
    "▁اصلی": 345,
    "▁۱۹": 346,
    "▁زن": 347,
    "▁بالا": 348,
    "▁رسمی": 349,
    "▁اشار": 350,
    "▁که": 351,
    "▁منطقه": 352,
    "▁برخ": 353,
    "▁درگذشت": 354,
    "▁خودرو": 355,
    "▁رقابت": 356,
    "با": 357,
    "بر": 358,
    "▁۱۰": 359,
    "▁توجه": 360,
    "▁هسته": 361,
    "▁نقش": 362,
    "▁۵": 363,
    "▁سفر": 364,
    "▁اینک": 365,
    "▁آمار": 366,
    "▁کر": 367,
    "▁۴": 368,
    "▁استقلال": 369,
    "▁عکس": 370,
    "▁دنیا": 371,
    "▁رسیده": 372,
    "▁کنار": 373,
    "ک": 374,
    "▁سهام": 375,
    "▁آژانس": 376,
    "▁پر": 377,
    "▁کل": 378,
    "▁آمریکایی": 379,
    "▁زیر": 380,
    "ست": 381,
    "▁نوشته": 382,
    "▁تب": 383,
    "یت": 384,
    "▁جمهور": 385,
    "▁نیمه": 386,
    "▁دور": 387,
    "▁واکنش": 388,
    "▁کمتر": 389,
    "▁رفت": 390,
    "▁حاضر": 391,
    "▁مراسم": 392,
    "▁میلادی": 393,
    "▁صد": 394,
    "▁حمله": 395,
    "ثبت": 396,
    "▁اعتراض": 397,
    "▁حمایت": 398,
    "▁او": 399,
    "▁آلمان": 400,
    "▁انتشار": 401,
    "▁عرض": 402,
    "نامه": 403,
    "▁کتاب": 404,
    "▁یافته": 405,
    "▁بازیکن": 406,
    "▁دنبال": 407,
    "▁فرانسه": 408,
    "▁فدراسیون": 409,
    "▁۲": 410,
    "▁آب": 411,
    "▁ممکن": 412,
    "▁شش": 413,
    "▁همکاری": 414,
    "▁نشده": 415,
    "▁تعداد": 416,
    "▁مالی": 417,
    "تیج": 418,
    "▁رد": 419,
    "▁سیاسی": 420,
    "شنبه": 421,
    "▁شمار": 422,
    "توسط": 423,
    "▁سازی": 424,
    "▁طی": 425,
    "▁کنیم": 426,
    "ور": 427,
    "▁این": 428,
    "▁دانشگاه": 429,
    "▁دریافت": 430,
    "▁عربستان": 431,
    "▁بودجه": 432,
    "▁پرداخت": 433,
    "▁ترامپ": 434,
    "▁خرید": 435,
    "▁موج": 436,
    "▁آزاد": 437,
    "▁دهند": 438,
    "▁هم": 439,
    "▁موضوع": 440,
    "▁۲۰۲۰": 441,
    "▁اتحاد": 442,
    "▁کشتی": 443,
    "روز": 444,
    "▁خبرگزا": 445,
    "▁پیروز": 446,
    "▁قهرمانان": 447,
    "▁نهایی": 448,
    "▁الله": 449,
    "▁گذاری": 450,
    "▁خام": 451,
    "▁پرونده": 452,
    "اکنون": 453,
    "▁اجرای": 454,
    "▁ندارد": 455,
    "▁انرژی": 456,
    "▁مبارز": 457,
    "▁رسد": 458,
    "▁ساعت": 459,
    "▁سابق": 460,
    "▁ویژه": 461,
    "▁ترکیه": 462,
    "▁روند": 463,
    "▁کمی": 464,
    "▁ده": 465,
    "▁آی": 466,
    "▁اقدام": 467,
    "▁بازداشت": 468,
    "▁اجا": 469,
    "▁بازیکنان": 470,
    "▁همان": 471,
    "▁چنین": 472,
    "دیل": 473,
    "▁عراق": 474,
    "▁سیاست": 475,
    "▁مربوط": 476,
    "▁مدیر": 477,
    "▁قابل": 478,
    "▁رشد": 479,
    "▁هدف": 480,
    "ِ": 481,
    "▁طریق": 482,
    "▁آمده": 483,
    "▁ابتلا": 484,
    "▁زبان": 485,
    "▁دیدار": 486,
    "▁مذاکرات": 487,
    "▁ورزش": 488,
    "▁سوم": 489,
    "▁تایید": 490,
    "▁درآمد": 491,
    "گیری": 492,
    "کسب": 493,
    "▁متهم": 494,
    "▁هشدار": 495,
    "▁مرگ": 496,
    "▁بهداشت": 497,
    "▁یافت": 498,
    "▁خواهند": 499,
    "▁اتمی": 500,
    "▁آزمایش": 501,
    "از": 502,
    "▁تح": 503,
    "▁خارجی": 504,
    "▁دولتی": 505,
    "▁ام": 506,
    "▁میزان": 507,
    "▁فاصله": 508,
    "▁ساخت": 509,
    "▁نیم": 510,
    "▁ایجاد": 511,
    "▁۳": 512,
    "▁عضو": 513,
    "▁کس": 514,
    "▁کننده": 515,
    "▁خارج": 516,
    "▁تلویزیون": 517,
    "▁رو": 518,
    "▁نمایش": 519,
    "▁نیاز": 520,
    "▁مرد": 521,
    "▁بیمارستان": 522,
    "▁بشر": 523,
    "▁زمینه": 524,
    "▁زمانی": 525,
    "▁کشته": 526,
    "▁حسن": 527,
    "▁آسیا": 528,
    "▁لیورپول": 529,
    "▁زده": 530,
    "▁نا": 531,
    "▁نامه": 532,
    "▁جریان": 533,
    "▁مشخص": 534,
    "▁سرمربی": 535,
    ")": 536,
    "▁لغو": 537,
    "▁امنیت": 538,
    "▁دوبار": 539,
    "▁زندان": 540,
    "▁انگلیس": 541,
    "▁معاون": 542,
    "▁بازگشت": 543,
    "ج": 544,
    "▁هفت": 545,
    "▁انسان": 546,
    "▁محل": 547,
    "▁طرف": 548,
    "▁جلو": 549,
    "▁جنوبی": 550,
    "▁آثار": 551,
    "▁محدودیت": 552,
    "نی": 553,
    "▁اعضای": 554,
    "▁نمایندگان": 555,
    "▁پلیس": 556,
    "▁قانون": 557,
    "▁خطر": 558,
    "▁دیده": 559,
    "▁دادگاه": 560,
    "ف": 561,
    "▁رهبر": 562,
    "▁چرا": 563,
    "▁رود": 564,
    "▁جو": 565,
    "▁۶": 566,
    "▁روسیه": 567,
    "▁هنو": 568,
    "▁کامل": 569,
    "▁بیانیه": 570,
    "▁تو": 571,
    "▁تاثیر": 572,
    "▁ح": 573,
    "▁قطع": 574,
    "▁نمایند": 575,
    "▁برد": 576,
    "▁(": 577,
    "▁سن": 578,
    "▁نگاه": 579,
    "▁خط": 580,
    "▁اسرائیل": 581,
    "▁صندوق": 582,
    "▁سخنگوی": 583,
    "▁خیل": 584,
    "▁حکومت": 585,
    "چه": 586,
    "▁سو": 587,
    "▁لندن": 588,
    "▁متحده": 589,
    "▁ارزش": 590,
    "▁انتخاب": 591,
    "▁نسبت": 592,
    "▁صادرات": 593,
    "▁نبود": 594,
    "▁خاطر": 595,
    "▁سخت": 596,
    "▁جنگ": 597,
    "▁سابقه": 598,
    "▁خوب": 599,
    "▁کابل": 600,
    "▁سطح": 601,
    "▁مدل": 602,
    "▁بست": 603,
    "▁حکم": 604,
    "▁تعطیل": 605,
    "▁المپیک": 606,
    "▁جا": 607,
    "▁همزمان": 608,
    "▁نامزد": 609,
    "▁شناخت": 610,
    "▁بالای": 611,
    "▁افت": 612,
    "▁طول": 613,
    "▁ساخته": 614,
    "▁آخر": 615,
    "▁امنیتی": 616,
    "سیون": 617,
    "▁عمومی": 618,
    "▁مرح": 619,
    "▁سپاه": 620,
    "▁جاری": 621,
    "الات": 622,
    "▁گسترده": 623,
    "▁قرنطینه": 624,
    "▁توانست": 625,
    "▁قرارداد": 626,
    "▁نقل": 627,
    "▁چهارم": 628,
    "▁مرغ": 629,
    "▁شکل": 630,
    "▁هز": 631,
    "▁نشست": 632,
    "▁ک": 633,
    "▁انقلاب": 634,
    "▁شدید": 635,
    "ده": 636,
    "ینه": 637,
    "▁سالگی": 638,
    "▁امتیاز": 639,
    "▁پزشکی": 640,
    "▁ج": 641,
    "▁داستان": 642,
    "▁ش": 643,
    "▁مطرح": 644,
    "▁۲۰۰": 645,
    "▁۳۰": 646,
    "▁چهر": 647,
    "▁جلسه": 648,
    "▁آ": 649,
    "▁پخ": 650,
    "▁رکورد": 651,
    "مین": 652,
    "▁کودکان": 653,
    "▁قو": 654,
    "▁ظریف": 655,
    "▁جدی": 656,
    "▁برنده": 657,
    "اما": 658,
    "▁انتقال": 659,
    "▁کسان": 660,
    "▁هوای": 661,
    "▁چ": 662,
    "▁امور": 663,
    "▁۲۵": 664,
    "▁صنعت": 665,
    "ایی": 666,
    "▁اتهام": 667,
    "▁ارائه": 668,
    "▁تنیس": 669,
    "▁منابع": 670,
    "▁روزهای": 671,
    "▁بخشی": 672,
    "▁فشار": 673,
    "▁تع": 674,
    "▁۲۰۱۹": 675,
    "▁ورزشگاه": 676,
    "▁ترک": 677,
    "▁هنر": 678,
    "▁معرف": 679,
    "▁حرکت": 680,
    "▁انداز": 681,
    "▁انتظار": 682,
    "▁برق": 683,
    "▁اتفاق": 684,
    "یم": 685,
    "▁رای": 686,
    "▁دستگاه": 687,
    "▁نظامی": 688,
    "▁گرفتن": 689,
    "▁متوقف": 690,
    "▁نکرده": 691,
    "▁بایدن": 692,
    "▁دانست": 693,
    "▁۱۴۰۰": 694,
    "▁ارتباط": 695,
    "▁اروپایی": 696,
    "▁رقم": 697,
    "▁اسفند": 698,
    "▁فینال": 699,
    "▁رفته": 700,
    "▁۹": 701,
    "▁تورم": 702,
    "▁پیشین": 703,
    "▁آنچ": 704,
    "▁عالی": 705,
    "▁آیا": 706,
    "▁چگون": 707,
    "▁نوع": 708,
    "▁تن": 709,
    "▁اجرا": 710,
    "▁موسس": 711,
    "▁فعال": 712,
    "▁نو": 713,
    "▁انتقاد": 714,
    "ال": 715,
    "▁۱۵": 716,
    "▁نیروهای": 717,
    "▁ورزشی": 718,
    "▁ان": 719,
    "▁چشم": 720,
    "▁پاسخ": 721,
    "▁ورود": 722,
    "▁آبان": 723,
    "▁۷": 724,
    "▁دیگری": 725,
    "۸": 726,
    "▁شدت": 727,
    "-": 728,
    "▁کشید": 729,
    "▁نگرانی": 730,
    "▁داشتند": 731,
    "▁محکوم": 732,
    "▁فروردین": 733,
    "▁الکتریکی": 734,
    "▁معاملات": 735,
    "▁دونالد": 736,
    "▁بشک": 737,
    "▁خانم": 738,
    "▁خودش": 739,
    "▁مصاحبه": 740,
    "▁فن": 741,
    "▁مربی": 742,
    "▁همچن": 743,
    "▁۱۲": 744,
    "▁طراح": 745,
    "▁نهاد": 746,
    "▁گیرد": 747,
    "▁قرن": 748,
    "▁مشکلات": 749,
    "▁آمد": 750,
    "▁طولانی": 751,
    "▁مانده": 752,
    "▁جمعیت": 753,
    "▁تاریخی": 754,
    "نوز": 755,
    "ستاد": 756,
    "▁مسئولان": 757,
    "▁نوشت": 758,
    "▁داخلی": 759,
    "▁سیستم": 760,
    "▁قدرت": 761,
    "▁۱": 762,
    "▁تصوی": 763,
    "▁حساب": 764,
    "▁مصوب": 765,
    "▁عد": 766,
    "گاه": 767,
    "▁آزادی": 768,
    "▁امضا": 769,
    "▁روزنامه": 770,
    "▁دوشنبه": 771,
    "▁کووید": 772,
    "▁بحران": 773,
    "▁نفتی": 774,
    "دی": 775,
    "▁تحقیق": 776,
    "▁تک": 777,
    "▁باشند": 778,
    "▁گذاشته": 779,
    "▁بارسلونا": 780,
    "▁خروج": 781,
    "▁هنگام": 782,
    "▁وی": 783,
    "▁بتوان": 784,
    "▁بد": 785,
    "▁اف": 786,
    "▁بهتر": 787,
    "▁۱۳": 788,
    "▁سریال": 789,
    "▁جامعه": 790,
    "▁احتمال": 791,
    "▁غنی": 792,
    "▁کنترل": 793,
    "▁سایر": 794,
    "▁تشکیل": 795,
    "▁مشکل": 796,
    "▁باقی": 797,
    "▁تجاری": 798,
    "۲": 799,
    "▁دار": 800,
    "▁ایتالیا": 801,
    "▁امکان": 802,
    "▁فرهنگ": 803,
    "▁ملل": 804,
    "▁۱۱": 805,
    "▁تحقیقات": 806,
    "▁دستور": 807,
    "نگ": 808,
    "▁دادند": 809,
    "▁بنزین": 810,
    "▁شاخص": 811,
    "▁ممنوع": 812,
    "▁گاز": 813,
    "▁فکر": 814,
    "▁حذف": 815,
    "▁دادن": 816,
    "▁ابتدای": 817,
    "▁یع": 818,
    "▁هند": 819,
    "▁مبتلا": 820,
    "▁د": 821,
    "▁داخل": 822,
    "▁بودن": 823,
    "▁سیاه": 824,
    "ون": 825,
    "▁نیروی": 826,
    "▁ضرب": 827,
    "▁سیتی": 828,
    "حه": 829,
    "▁یاد": 830,
    "▁شامل": 831,
    "▁ماسک": 832,
    "▁میزبان": 833,
    "▁ترکیب": 834,
    "خانه": 835,
    "▁شان": 836,
    "▁پروژه": 837,
    "▁علت": 838,
    "▁پشت": 839,
    "وز": 840,
    "▁ناشی": 841,
    "▁زیست": 842,
    "▁تجرب": 843,
    "▁محلی": 844,
    "▁فارسی": 845,
    "▁متفاوت": 846,
    "پس": 847,
    "سی": 848,
    "▁آوریل": 849,
    "▁عامل": 850,
    "▁مسی": 851,
    "▁ال": 852,
    "۴": 853,
    "رفع": 854,
    "▁قبلی": 855,
    "▁کارگران": 856,
    "▁واحد": 857,
    "▁کوچک": 858,
    "▁ترتیب": 859,
    "▁خبرنگار": 860,
    "▁صحبت": 861,
    "▁واردات": 862,
    "▁نظام": 863,
    "▁بندی": 864,
    "▁جنوب": 865,
    "وابط": 866,
    "▁اختیار": 867,
    "▁محدود": 868,
    "▁اعدام": 869,
    "▁ه": 870,
    "▁زد": 871,
    "▁خون": 872,
    "▁پایین": 873,
    "▁شهروندان": 874,
    "ویه": 875,
    "▁سینما": 876,
    "▁عمل": 877,
    "۵": 878,
    "▁گون": 879,
    "▁۵۰": 880,
    "▁مشترک": 881,
    "▁بگیرد": 882,
    "▁طبق": 883,
    "▁چهارشنبه": 884,
    "▁نژاد": 885,
    "▁شماری": 886,
    "▁۲۲": 887,
    "▁سوخت": 888,
    "▁خوانده": 889,
    "▁فضایی": 890,
    "▁روبرو": 891,
    "▁بلند": 892,
    "▁احیا": 893,
    "▁محیط": 894,
    "▁کنید": 895,
    "▁مسئول": 896,
    "▁محمود": 897,
    "▁چپ": 898,
    "▁جمعه": 899,
    "۰۰": 900,
    "▁۸": 901,
    "▁آسیب": 902,
    "▁دقیقه": 903,
    "▁فضای": 904,
    "▁احتمالا": 905,
    "▁هنری": 906,
    "▁شجریان": 907,
    "▁تاکید": 908,
    "▁پارسال": 909,
    "▁سقوط": 910,
    "▁احمد": 911,
    "▁شهرهای": 912,
    "▁بارها": 913,
    "▁متر": 914,
    "▁فرد": 915,
    "▁فرهنگی": 916,
    "▁دفاع": 917,
    "▁نویسنده": 918,
    "▁لای": 919,
    "▁دلایل": 920,
    "▁درخواست": 921,
    "▁درگیر": 922,
    "▁موارد": 923,
    "▁تقریبا": 924,
    "▁نتایج": 925,
    "▁مارادونا": 926,
    "▁شما": 927,
    "▁سنت": 928,
    "▁دسترس": 929,
    "▁نگهبان": 930,
    "▁لازم": 931,
    "براز": 932,
    "ره": 933,
    "▁اقدامات": 934,
    "▁شاید": 935,
    "▁شاهد": 936,
    "▁بینی": 937,
    "▁آتش": 938,
    "▁وین": 939,
    "▁یونایتد": 940,
    "▁صفر": 941,
    "▁تاکنون": 942,
    "▁رشت": 943,
    "▁برده": 944,
    "▁جز": 945,
    "▁انفجار": 946,
    "▁حل": 947,
    "▁اسکار": 948,
    "▁تامین": 949,
    "▁خصوصی": 950,
    "▁معروف": 951,
    "▁شکایت": 952,
    "▁کوتاه": 953,
    "▁کلی": 954,
    "▁نقاشی": 955,
    "▁آورد": 956,
    "▁گو": 957,
    "▁گذشت": 958,
    "▁۴۰": 959,
    "▁افتاد": 960,
    "▁مسیر": 961,
    "▁۱۷": 962,
    "▁جدول": 963,
    "▁اولی": 964,
    "▁قوانین": 965,
    "سازی": 966,
    "▁ژان": 967,
    "▁حرفه": 968,
    "▁مواد": 969,
    "▁جشنواره": 970,
    "▁کالا": 971,
    "گر": 972,
    "▁کنم": 973,
    "▁هواپیمایی": 974,
    "▁اس": 975,
    "▁موفق": 976,
    "▁رییس": 977,
    "▁بیرون": 978,
    "▁یکشنبه": 979,
    "▁ستار": 980,
    "▁درمان": 981,
    "▁هواداران": 982,
    "▁اختلاف": 983,
    "▁مرتبط": 984,
    "وازه": 985,
    "▁مهر": 986,
    "▁پل": 987,
    "▁۶۰": 988,
    "مان": 989,
    "▁قرمز": 990,
    "▁انگیز": 991,
    "▁نظیر": 992,
    "▁بخوانید": 993,
    "▁فهرست": 994,
    "▁چاپ": 995,
    "▁همیشه": 996,
    "▁قانونی": 997,
    "▁واقع": 998,
    "▁زاده": 999,
    "▁کمیت": 1000,
    "▁ماند": 1001,
    "▁قطر": 1002,
    "▁اعتراضات": 1003,
    "▁شمال": 1004,
    "▁رنگ": 1005,
    "▁اخیرا": 1006,
    "▁حد": 1007,
    "▁۱۴": 1008,
    "▁نقطه": 1009,
    "▁تجارت": 1010,
    "▁نسل": 1011,
    "▁سرعت": 1012,
    "▁سراسر": 1013,
    "▁سوار": 1014,
    "▁ونزوئلا": 1015,
    "▁مقایس": 1016,
    "▁سلامت": 1017,
    "▁سمت": 1018,
    "▁توییتر": 1019,
    "حفظ": 1020,
    "▁غرب": 1021,
    "▁مارس": 1022,
    "▁کارگردان": 1023,
    "بی": 1024,
    "▁بایرن": 1025,
    "▁۹۸": 1026,
    "ایران": 1027,
    "▁قصد": 1028,
    "۱": 1029,
    "▁بیست": 1030,
    "▁هوا": 1031,
    "▁مشهور": 1032,
    "▁باخت": 1033,
    "▁ولایت": 1034,
    "▁برسد": 1035,
    "▁اتاق": 1036,
    "▁هشت": 1037,
    "▁نخواه": 1038,
    "▁خوانند": 1039,
    "▁۱۶": 1040,
    "▁آخری": 1041,
    "▁مجدد": 1042,
    "▁آستان": 1043,
    "▁اوپک": 1044,
    "▁رسیدن": 1045,
    "▁گفتگو": 1046,
    "▁دارایی": 1047,
    "یین": 1048,
    "▁تهی": 1049,
    "تر": 1050,
    "▁بالاتر": 1051,
    "▁منج": 1052,
    "▁پیشنهاد": 1053,
    "▁نظارت": 1054,
    "▁عملکرد": 1055,
    "▁علاو": 1056,
    "▁اطلاع": 1057,
    "▁جمع": 1058,
    "▁صفح": 1059,
    "▁بدن": 1060,
    "▁فعالان": 1061,
    "▁اعمال": 1062,
    "▁مشابه": 1063,
    "▁فوت": 1064,
    "عودی": 1065,
    "▁چیزی": 1066,
    "▁روشن": 1067,
    "نمایی": 1068,
    "▁مذاکر": 1069,
    "▁آرژانتین": 1070,
    "▁عدالت": 1071,
    "▁کشف": 1072,
    "▁عملیات": 1073,
    "▁دهم": 1074,
    "▁حق": 1075,
    "▁آماده": 1076,
    "▁جهش": 1077,
    "▁کاملا": 1078,
    "▁زنده": 1079,
    "▁پاریس": 1080,
    "▁نگران": 1081,
    "علی": 1082,
    "اخر": 1083,
    "▁پرواز": 1084,
    "ح": 1085,
    "▁فرصت": 1086,
    "▁تصاویر": 1087,
    "▁علمی": 1088,
    "▁عباس": 1089,
    "▁نهادهای": 1090,
    "▁مل": 1091,
    "▁صادر": 1092,
    "▁تهدید": 1093,
    "▁شناسا": 1094,
    "▁هرات": 1095,
    "▁پایتخت": 1096,
    "▁فساد": 1097,
    "▁اداره": 1098,
    "▁عمده": 1099,
    "▁بازیگر": 1100,
    "▁کشورها": 1101,
    "وق": 1102,
    "اس": 1103,
    "▁من": 1104,
    "▁مناطق": 1105,
    "▁رابطه": 1106,
    "▁اینترنت": 1107,
    "▁موزه": 1108,
    "▁منچستر": 1109,
    "▁چلسی": 1110,
    "▁رمان": 1111,
    "▁میدان": 1112,
    "▁سود": 1113,
    "▁بیشتری": 1114,
    "▁ندارند": 1115,
    "▁قلب": 1116,
    "▁بحرین": 1117,
    "▁مه": 1118,
    "▁قضایی": 1119,
    "▁تابستان": 1120,
    "▁هایش": 1121,
    "▁مواجه": 1122,
    "▁برخورد": 1123,
    "▁منتقل": 1124,
    "▁توپ": 1125,
    "▁حادثه": 1126,
    "▁تاج": 1127,
    "▁تی": 1128,
    "▁یورو": 1129,
    "ام": 1130,
    "▁ابتدا": 1131,
    "▁افغان": 1132,
    "▁توصیف": 1133,
    "▁ارشد": 1134,
    "▁موفقیت": 1135,
    "▁مردان": 1136,
    "▁تغییرات": 1137,
    "▁چیز": 1138,
    "▁استرالیا": 1139,
    "▁توسعه": 1140,
    "▁سایت": 1141,
    "▁گاه": 1142,
    "▁مهدی": 1143,
    "▁گروهی": 1144,
    "▁پروازهای": 1145,
    "▁دچار": 1146,
    "▁مسکن": 1147,
    "▁۲۰۲۱": 1148,
    "▁بریتانیایی": 1149,
    "▁رعایت": 1150,
    "▁سفید": 1151,
    "وس": 1152,
    "▁آید": 1153,
    "▁خصوص": 1154,
    "۶": 1155,
    "▁پور": 1156,
    "▁جوان": 1157,
    "نیوم": 1158,
    "اساس": 1159,
    "▁پیام": 1160,
    "▁انگلستان": 1161,
    "▁خواند": 1162,
    "▁احمدی": 1163,
    "می": 1164,
    "▁دوست": 1165,
    "▁واقعی": 1166,
    "▁پا": 1167,
    "▁صدا": 1168,
    "اخ": 1169,
    "▁مالیات": 1170,
    "▁کارخان": 1171,
    "▁سنگ": 1172,
    "▁مصرف": 1173,
    "▁ملت": 1174,
    "▁عبور": 1175,
    "▁رانند": 1176,
    "▁کنون": 1177,
    "▁ژوئن": 1178,
    "▁خوزستان": 1179,
    "▁پدر": 1180,
    "▁۵۰۰": 1181,
    "▁کودک": 1182,
    "▁اورا": 1183,
    "▁رفتن": 1184,
    "▁اضاف": 1185,
    "▁توضیح": 1186,
    "▁مجازی": 1187,
    "▁کارگر": 1188,
    "▁رساند": 1189,
    "▁شعر": 1190,
    "▁مجبور": 1191,
    "▁واکسین": 1192,
    "▁کن": 1193,
    "▁مانع": 1194,
    "▁دختر": 1195,
    "▁۱۸": 1196,
    "▁یو": 1197,
    "محمد": 1198,
    "▁۲۳": 1199,
    "▁مشغول": 1200,
    "▁حوزه": 1201,
    "▁سفیر": 1202,
    "▁بهمن": 1203,
    "بیشتر": 1204,
    "▁کدام": 1205,
    "▁کنندگان": 1206,
    "▁۲۰۱": 1207,
    "▁معتقد": 1208,
    "▁اوراق": 1209,
    "▁فدرر": 1210,
    "▁خالی": 1211,
    "دو": 1212,
    "▁دومین": 1213,
    "▁جنسی": 1214,
    "▁دریا": 1215,
    "۳": 1216,
    "طور": 1217,
    "▁بهبود": 1218,
    "▁خواهان": 1219,
    "▁بن": 1220,
    "▁چه": 1221,
    "ممنوعیت": 1222,
    "▁پ": 1223,
    "▁افتاده": 1224,
    "▁تاجیکستان": 1225,
    "▁مجوز": 1226,
    "▁دانند": 1227,
    "▁سخنران": 1228,
    "▁طلا": 1229,
    "▁اظهارات": 1230,
    "▁سنگین": 1231,
    "▁پنجم": 1232,
    "▁کاری": 1233,
    "▁ایالت": 1234,
    "عده": 1235,
    "▁پژوهش": 1236,
    "▁تا": 1237,
    "▁هیا": 1238,
    "▁مت": 1239,
    "▁۲۴": 1240,
    "وایل": 1241,
    "▁حداقل": 1242,
    "▁خاک": 1243,
    "▁کانال": 1244,
    "▁حسین": 1245,
    "▁گمرک": 1246,
    "▁بحث": 1247,
    "▁امام": 1248,
    "▁سوریه": 1249,
    "▁روش": 1250,
    "▁سریع": 1251,
    "▁۱۰۰": 1252,
    "▁پیشتر": 1253,
    "یر": 1254,
    "▁دین": 1255,
    "▁مک": 1256,
    "▁معامل": 1257,
    "▁دنیای": 1258,
    "▁مقررات": 1259,
    "▁مادرید": 1260,
    "▁فرمانده": 1261,
    "▁تاتنهام": 1262,
    "۷": 1263,
    "▁نشد": 1264,
    "▁زدن": 1265,
    "▁زود": 1266,
    "▁مثبت": 1267,
    "▁۹۰": 1268,
    "۹": 1269,
    "▁بال": 1270,
    "▁محمو": 1271,
    "▁تجمع": 1272,
    "▁طبیعی": 1273,
    "▁نقدینگی": 1274,
    "▁پاسداران": 1275,
    "▁صدای": 1276,
    "▁رکود": 1277,
    "▁موافقت": 1278,
    "▁حریف": 1279,
    "▁مستند": 1280,
    "▁تشخیص": 1281,
    "▁گردد": 1282,
    "▁عق": 1283,
    "فورد": 1284,
    "▁حرف": 1285,
    "▁۲۱": 1286,
    "▁اسپانیا": 1287,
    "▁مدیریت": 1288,
    "▁مادر": 1289,
    "▁امید": 1290,
    "▁ژاپن": 1291,
    "▁صعود": 1292,
    "▁اجرایی": 1293,
    "▁برداشت": 1294,
    "▁بازارهای": 1295,
    "▁عهد": 1296,
    "▁قطعی": 1297,
    "پ": 1298,
    "▁رخ": 1299,
    "ول": 1300,
    "▁فیفا": 1301,
    "▁مرداد": 1302,
    "▁روزانه": 1303,
    "ستان": 1304,
    "▁قدیمی": 1305,
    "▁وزن": 1306,
    "▁پای": 1307,
    "▁گذار": 1308,
    "▁امیدوار": 1309,
    "▁منف": 1310,
    "▁آوری": 1311,
    "▁جدا": 1312,
    "▁تقوی": 1313,
    "▁مرز": 1314,
    "▁بستر": 1315,
    "▁وضع": 1316,
    "▁بنا": 1317,
    "▁هوشمند": 1318,
    "▁کنونی": 1319,
    "▁رفتار": 1320,
    "▁دل": 1321,
    "▁کیلومتر": 1322,
    "▁فارس": 1323,
    "▁سعید": 1324,
    "▁انگلیسی": 1325,
    "▁دید": 1326,
    "▁گذاشت": 1327,
    "▁دقیق": 1328,
    "▁اردیبهشت": 1329,
    "▁علاقه": 1330,
    "▁۱۳۹۹": 1331,
    "▁دفتر": 1332,
    "▁دکتر": 1333,
    "▁مد": 1334,
    "▁پذیر": 1335,
    "▁دانشمندان": 1336,
    "▁۲۸": 1337,
    "▁صحنه": 1338,
    "▁صدر": 1339,
    "تبه": 1340,
    "▁وابست": 1341,
    "▁قتل": 1342,
    "▁جزئیات": 1343,
    "▁یابد": 1344,
    "▁پوند": 1345,
    "▁اسطوره": 1346,
    "▁نفتکش": 1347,
    "▁ساز": 1348,
    "وی": 1349,
    "▁ارزی": 1350,
    "▁آورده": 1351,
    "▁کارشناسان": 1352,
    "▁بنابر": 1353,
    "سون": 1354,
    "▁گوش": 1355,
    "▁درست": 1356,
    "▁بیکار": 1357,
    "▁قدم": 1358,
    "▁مستقیم": 1359,
    "▁ظرف": 1360,
    "▁مونیخ": 1361,
    "▁نشود": 1362,
    "▁سرشناس": 1363,
    "دار": 1364,
    "▁بهار": 1365,
    "▁ایمن": 1366,
    "▁اوت": 1367,
    "▁دارو": 1368,
    "▁صف": 1369,
    "▁معنای": 1370,
    "▁سوئیس": 1371,
    "▁مغز": 1372,
    "▁نمو": 1373,
    "▁دوچرخه": 1374,
    "▁قالیباف": 1375,
    "▁العاده": 1376,
    "▁جشن": 1377,
    "▁خرداد": 1378,
    "▁موقعیت": 1379,
    "▁معادل": 1380,
    "▁دبیر": 1381,
    "▁رویترز": 1382,
    "▁مایک": 1383,
    "▁پوست": 1384,
    "▁افزوده": 1385,
    "لی": 1386,
    "▁جنگل": 1387,
    "▁مقامات": 1388,
    "▁چک": 1389,
    "اب": 1390,
    "▁برزیل": 1391,
    "▁هنرمند": 1392,
    "▁نداشته": 1393,
    "▁موجود": 1394,
    "▁آموزش": 1395,
    "▁نقاط": 1396,
    "▁مدافع": 1397,
    "▁نوبل": 1398,
    "▁صبح": 1399,
    "▁هدایت": 1400,
    "▁واشنگتن": 1401,
    "▁جنجال": 1402,
    "▁گیرند": 1403,
    "نا": 1404,
    "▁فنی": 1405,
    "یست": 1406,
    "▁روایت": 1407,
    "▁تورنمنت": 1408,
    "▁فراهم": 1409,
    "▁پاکستان": 1410,
    "▁قاچاق": 1411,
    "یا": 1412,
    "▁مبتلایان": 1413,
    "▁دوربین": 1414,
    "▁خواهیم": 1415,
    "▁رئال": 1416,
    "▁ضد": 1417,
    "اسیون": 1418,
    "▁مهار": 1419,
    "▁درآمدها": 1420,
    "▁استاد": 1421,
    "▁نشری": 1422,
    "▁شخصی": 1423,
    "▁ریز": 1424,
    "▁لو": 1425,
    "ید": 1426,
    "▁عرب": 1427,
    "▁نویس": 1428,
    "▁ساختمان": 1429,
    "▁نوری": 1430,
    "▁ظاهر": 1431,
    "▁محمدرضا": 1432,
    "▁زنی": 1433,
    "▁مجله": 1434,
    "▁شخصیت": 1435,
    "▁زندانی": 1436,
    "▁خودروهای": 1437,
    "▁آبی": 1438,
    "▁شاه": 1439,
    "▁مالک": 1440,
    "چند": 1441,
    "▁راست": 1442,
    "▁-": 1443,
    "▁استقبال": 1444,
    "▁صلح": 1445,
    "▁تحویل": 1446,
    "هرگز": 1447,
    "▁معتبر": 1448,
    "▁دانش": 1449,
    "▁خورد": 1450,
    "▁آلمانی": 1451,
    "کنندگان": 1452,
    "▁مکان": 1453,
    "▁اشتباه": 1454,
    "▁کشاورز": 1455,
    "▁ماهه": 1456,
    "▁خورده": 1457,
    "▁حزب": 1458,
    "▁مدعی": 1459,
    "▁خانگی": 1460,
    "▁چیست": 1461,
    "▁قسمت": 1462,
    "▁پیشرفت": 1463,
    "غلب": 1464,
    "▁قبلا": 1465,
    "▁همسر": 1466,
    "ای": 1467,
    "▁جایی": 1468,
    "▁آمازون": 1469,
    "▁بهادار": 1470,
    "▁تزریق": 1471,
    "▁کاربران": 1472,
    "▁سینمای": 1473,
    "▁تومانی": 1474,
    "داد": 1475,
    "کش": 1476,
    "▁فوریه": 1477,
    "▁اصلاح": 1478,
    "▁ناز": 1479,
    "خ": 1480,
    "▁شرق": 1481,
    "▁ارسال": 1482,
    "▁آلبوم": 1483,
    "▁ارتش": 1484,
    "▁خدمات": 1485,
    "▁هاست": 1486,
    "▁داریم": 1487,
    "▁بهداشتی": 1488,
    "▁فعلی": 1489,
    "▁بیت": 1490,
    "▁تخم": 1491,
    "▁تیر": 1492,
    "▁هستیم": 1493,
    "▁خورشیدی": 1494,
    "▁کالاهای": 1495,
    "▁دریایی": 1496,
    "▁اقیانوس": 1497,
    "▁خودروساز": 1498,
    "▁متعل": 1499,
    "▁پروتکل": 1500,
    "▁ادبیات": 1501,
    "فدراسیون": 1502,
    "▁مشا": 1503,
    "جا": 1504,
    "▁فوری": 1505,
    "▁رضا": 1506,
    "ریمه": 1507,
    "▁ما": 1508,
    "▁لحظ": 1509,
    "گرد": 1510,
    "▁ژوئیه": 1511,
    "▁عجیب": 1512,
    "▁مدیران": 1513,
    "▁مجید": 1514,
    "▁تعهدات": 1515,
    "▁برگشت": 1516,
    "▁میلان": 1517,
    "اوری": 1518,
    "▁متوسط": 1519,
    "▁گر": 1520,
    "لان": 1521,
    "▁بیمار": 1522,
    "▁نداشت": 1523,
    "▁احساس": 1524,
    "▁کارهای": 1525,
    "▁کمبود": 1526,
    "نقض": 1527,
    "▁ایم": 1528,
    "▁یکدیگر": 1529,
    "▁عادی": 1530,
    "▁معترضان": 1531,
    "▁سفارت": 1532,
    "▁قضائیه": 1533,
    "▁۲۶": 1534,
    "▁چندان": 1535,
    "قیف": 1536,
    "▁دختران": 1537,
    "رضا": 1538,
    "سال": 1539,
    "▁مطالع": 1540,
    "▁نیویورک": 1541,
    "▁کارکنان": 1542,
    "▁نوامبر": 1543,
    "▁مسلح": 1544,
    "▁آهنگ": 1545,
    "▁اوج": 1546,
    "▁عین": 1547,
    "▁اساسی": 1548,
    "▁شاعر": 1549,
    "▁بازرگانی": 1550,
    "▁غربی": 1551,
    "نین": 1552,
    "ازگی": 1553,
    "▁گرفتند": 1554,
    "▁سهمی": 1555,
    "▁اوپ": 1556,
    "▁بلوچستان": 1557,
    "▁اهمیت": 1558,
    "▁آزار": 1559,
    "▁خلق": 1560,
    "▁سرطان": 1561,
    "▁محرم": 1562,
    "فرانسوی": 1563,
    "▁پست": 1564,
    "▁کوین": 1565,
    "▁سرخ": 1566,
    "▁معمولا": 1567,
    "▁گستر": 1568,
    "▁واقعیت": 1569,
    "▁سینمایی": 1570,
    "▁خوش": 1571,
    "▁زخمی": 1572,
    "▁مهاجم": 1573,
    "شب": 1574,
    "▁نهایت": 1575,
    "▁غذا": 1576,
    "▁اختصاص": 1577,
    "▁نگه": 1578,
    "▁برقرار": 1579,
    "سازمان": 1580,
    "▁زاد": 1581,
    "یابی": 1582,
    "▁فرمو": 1583,
    "▁سند": 1584,
    "▁مارک": 1585,
    "توجه": 1586,
    "▁بنز": 1587,
    "▁۲۰۱۷": 1588,
    "▁دما": 1589,
    "▁هست": 1590,
    "▁گام": 1591,
    "من": 1592,
    "▁فردا": 1593,
    "▁موشک": 1594,
    "▁۷۰": 1595,
    "▁راهی": 1596,
    "▁توییت": 1597,
    "▁سعی": 1598,
    "▁سهم": 1599,
    "▁نحو": 1600,
    "▁لباس": 1601,
    "▁توقف": 1602,
    "▁عوامل": 1603,
    "▁حاشیه": 1604,
    "تا": 1605,
    "▁کلوپ": 1606,
    "▁ماموران": 1607,
    "وع": 1608,
    "مقام": 1609,
    "▁تیراندازی": 1610,
    "▁مخالفان": 1611,
    "▁حب": 1612,
    "رکت": 1613,
    "▁۳۱": 1614,
    "ما": 1615,
    "گری": 1616,
    "▁محصولات": 1617,
    "▁شهروند": 1618,
    "اک": 1619,
    "▁ارقام": 1620,
    "▁کنسرت": 1621,
    "▁مدیرعامل": 1622,
    "۱۶": 1623,
    "ستاره": 1624,
    "▁دریای": 1625,
    "داری": 1626,
    "▁تصور": 1627,
    "▁هموار": 1628,
    "▁ست": 1629,
    "▁تقاضا": 1630,
    "▁صوتی": 1631,
    "وم": 1632,
    "▁جمعی": 1633,
    "▁زندانیان": 1634,
    "وید": 1635,
    "▁سپاهان": 1636,
    "▁حذفی": 1637,
    "جه": 1638,
    "▁مبلغ": 1639,
    "تنظیم": 1640,
    "▁تماس": 1641,
    "▁داشتن": 1642,
    "▁امارات": 1643,
    "▁واگذار": 1644,
    "▁تلفن": 1645,
    "▁نویسندگان": 1646,
    "▁اصل": 1647,
    "▁پدید": 1648,
    "▁پنجشنبه": 1649,
    "▁مخالفت": 1650,
    "▁بازگشا": 1651,
    "▁برود": 1652,
    "▁نشر": 1653,
    "▁مو": 1654,
    "▁حفاظت": 1655,
    "▁متعدد": 1656,
    "▁شهریور": 1657,
    "▁چالش": 1658,
    "▁ایسنا": 1659,
    "▁احتمالی": 1660,
    "▁عبدال": 1661,
    "▁رافائل": 1662,
    "▁جایگاه": 1663,
    "▁نور": 1664,
    "▁مسافران": 1665,
    "وزارت": 1666,
    "▁ماجرا": 1667,
    "▁بیماران": 1668,
    "▁ماد": 1669,
    "▁پژوهشگران": 1670,
    "قانونی": 1671,
    "باید": 1672,
    "▁دام": 1673,
    "▁۹۹": 1674,
    "▁برمی": 1675,
    "▁۳۵": 1676,
    "▁کشورش": 1677,
    "▁۳۰۰": 1678,
    "▁مشمول": 1679,
    "▁اخبار": 1680,
    "▁توکیو": 1681,
    "▁صنایع": 1682,
    "▁تسلا": 1683,
    "▁رونالدو": 1684,
    "▁دشوار": 1685,
    "▁۴۲": 1686,
    "▁فایل": 1687,
    "▁مجری": 1688,
    "▁ساکن": 1689,
    "▁فوتبالیست": 1690,
    "▁داند": 1691,
    "▁علیرضا": 1692,
    "حسین": 1693,
    "▁مرزی": 1694,
    "دولت": 1695,
    "▁کافی": 1696,
    "▁مربیان": 1697,
    "▁فردی": 1698,
    "▁ارزها": 1699,
    "▁ملک": 1700,
    "▁پن": 1701,
    "▁توصی": 1702,
    "▁خشونت": 1703,
    "▁زاغری": 1704,
    "▁حاصل": 1705,
    "▁نتوانست": 1706,
    "▁ایستگاه": 1707,
    "▁اخراج": 1708,
    "امبر": 1709,
    "▁اجاره": 1710,
    "▁امیر": 1711,
    "▁بازنشستگان": 1712,
    "▁انجمن": 1713,
    "▁راجر": 1714,
    "کار": 1715,
    "کو": 1716,
    "▁سکه": 1717,
    "▁قاسم": 1718,
    "▁خیابان": 1719,
    "▁الملل": 1720,
    "▁دیوان": 1721,
    "نده": 1722,
    "ترانه": 1723,
    "▁برادر": 1724,
    "ص": 1725,
    "تیم": 1726,
    "▁۸۰": 1727,
    "▁اصفهان": 1728,
    "▁مسدود": 1729,
    "▁ناگهان": 1730,
    "▁سراوان": 1731,
    "▁نگهداری": 1732,
    "▁صلاحیت": 1733,
    "▁آسمان": 1734,
    "▁پاس": 1735,
    "▁عصر": 1736,
    "▁باور": 1737,
    "▁مشاور": 1738,
    "▁چهل": 1739,
    "▁سلیمانی": 1740,
    "▁ورزشکاران": 1741,
    "▁رادیو": 1742,
    "▁ابلاغ": 1743,
    "▁تست": 1744,
    "▁فضا": 1745,
    "▁آل": 1746,
    "▁فرزند": 1747,
    "▁دوستان": 1748,
    "▁اینستاگرام": 1749,
    "▁ورزشکار": 1750,
    "▁گران": 1751,
    "▁اجلاس": 1752,
    "▁طبیعت": 1753,
    "▁بقیه": 1754,
    "▁۱۳۹۸": 1755,
    "▁فرودگاه": 1756,
    "▁پلاس": 1757,
    "▁تعوی": 1758,
    "کس": 1759,
    "▁طالبان": 1760,
    "▁نادال": 1761,
    "▁تاسیسات": 1762,
    "▁ناظر": 1763,
    "▁گلستان": 1764,
    "▁حج": 1765,
    "▁شرقی": 1766,
    "کل": 1767,
    "▁بعدا": 1768,
    "▁ع": 1769,
    "▁سخنان": 1770,
    "▁کارها": 1771,
    "▁بو": 1772,
    "▁روزها": 1773,
    "▁موتور": 1774,
    "▁پسر": 1775,
    "ساوی": 1776,
    "▁آذر": 1777,
    "▁جراح": 1778,
    "▁مناسب": 1779,
    "▁حسینی": 1780,
    "▁هواپیمای": 1781,
    "شیدا": 1782,
    "▁دستمزد": 1783,
    "▁حس": 1784,
    "علوم": 1785,
    "▁کردیم": 1786,
    "▁توزیع": 1787,
    "▁ثابت": 1788,
    "▁نجات": 1789,
    "▁سیما": 1790,
    "▁آنلاین": 1791,
    "لو": 1792,
    "▁سوپر": 1793,
    "▁صراف": 1794,
    "▁حکام": 1795,
    "▁خیریه": 1796,
    "▁۲۹": 1797,
    "▁موقت": 1798,
    "▁جوایز": 1799,
    "▁برجسته": 1800,
    "▁سوال": 1801,
    "▁صرف": 1802,
    "▁جوکوویچ": 1803,
    "▁لیون": 1804,
    "▁گرم": 1805,
    "▁ض": 1806,
    "▁تمامی": 1807,
    "▁پرس": 1808,
    "▁ادبی": 1809,
    "▁حیات": 1810,
    "▁بان": 1811,
    "تان": 1812,
    "▁فرار": 1813,
    "فت": 1814,
    "▁تمرین": 1815,
    "▁کردم": 1816,
    "▁اکتبر": 1817,
    "▁تاخیر": 1818,
    "▁بوکس": 1819,
    "▁باره": 1820,
    "▁بدهی": 1821,
    "▁مطابق": 1822,
    "▁قربانیان": 1823,
    "▁خدم": 1824,
    "خانم": 1825,
    "خبرگزا": 1826,
    "انجام": 1827,
    "▁اکبر": 1828,
    "▁تقاضای": 1829,
    "▁شمالی": 1830,
    "▁بهتری": 1831,
    "▁محبوب": 1832,
    "▁رویکرد": 1833,
    "▁کاپیتان": 1834,
    "▁افتخار": 1835,
    "▁سلطنت": 1836,
    "▁حاکی": 1837,
    "▁معرض": 1838,
    "▁مراجع": 1839,
    "▁فراموش": 1840,
    "▁تخریب": 1841,
    "▁ضمن": 1842,
    "▁شبی": 1843,
    "▁گ": 1844,
    "▁گذارد": 1845,
    "▁مر": 1846,
    "▁دادستان": 1847,
    "▁آمیز": 1848,
    "▁داروی": 1849,
    "▁خورشید": 1850,
    "▁عدد": 1851,
    "▁دیدن": 1852,
    "▁هواپیما": 1853,
    "لاک": 1854,
    "▁دارای": 1855,
    "نس": 1856,
    "▁مخالف": 1857,
    "▁جودو": 1858,
    "▁وگو": 1859,
    "▁بیان": 1860,
    "▁صاحب": 1861,
    "▁فرستاده": 1862,
    "▁نگار": 1863,
    "رنگ": 1864,
    "▁اطراف": 1865,
    "▁هنرپیشه": 1866,
    "▁موضع": 1867,
    "▁حقیق": 1868,
    "ضاع": 1869,
    "▁رسما": 1870,
    "▁منتظر": 1871,
    "▁بازگرداند": 1872,
    "▁وکیل": 1873,
    "▁فرهاد": 1874,
    "افسانه": 1875,
    "▁اتریش": 1876,
    "▁حمل": 1877,
    "▁الدین": 1878,
    "▁اسرائیلی": 1879,
    "▁اتفاقات": 1880,
    "▁منتقدان": 1881,
    "▁مواردی": 1882,
    "▁وام": 1883,
    "گزارش": 1884,
    "▁خاص": 1885,
    "▁بند": 1886,
    "▁نماد": 1887,
    "▁گفتند": 1888,
    "▁بلا": 1889,
    "▁شبانه": 1890,
    "▁اندازی": 1891,
    "▁درجه": 1892,
    "▁چرخ": 1893,
    "▁مالکی": 1894,
    "▁سد": 1895,
    "▁رقیب": 1896,
    "▁نیستند": 1897,
    "مدال": 1898,
    "▁مان": 1899,
    "▁اید": 1900,
    "▁غذای": 1901,
    "▁مسئ": 1902,
    "▁ویمبلدون": 1903,
    "▁قبول": 1904,
    "▁همتی": 1905,
    "▁فرا": 1906,
    "▁هماهنگ": 1907,
    "▁جه": 1908,
    "▁همچو": 1909,
    "▁لس": 1910,
    "۰": 1911,
    "▁بنیاد": 1912,
    "▁قضاییه": 1913,
    "▁تئاتر": 1914,
    "▁نزدیکی": 1915,
    "▁شغل": 1916,
    "▁موسو": 1917,
    "▁نهم": 1918,
    "▁محسو": 1919,
    "▁کارشناس": 1920,
    "▁محروم": 1921,
    "▁دعوت": 1922,
    "▁نداریم": 1923,
    "▁مشهد": 1924,
    "▁مسائل": 1925,
    "رسدس": 1926,
    "▁مقصد": 1927,
    "▁ازدواج": 1928,
    "▁گذرد": 1929,
    "▁تخت": 1930,
    "بط": 1931,
    "▁سپت": 1932,
    "اپی": 1933,
    "▁ترس": 1934,
    "▁سرای": 1935,
    "▁۳۲": 1936,
    "قدر": 1937,
    "بول": 1938,
    "ود": 1939,
    "▁آور": 1940,
    "▁گیر": 1941,
    "▁سای": 1942,
    "▁دستگیر": 1943,
    "شویی": 1944,
    "گین": 1945,
    "▁آرام": 1946,
    "▁عمیق": 1947,
    "▁تحصیل": 1948,
    "▁رحمان": 1949,
    "▁جذاب": 1950,
    "▁بلینکن": 1951,
    "▁مراقب": 1952,
    "▁تمدید": 1953,
    "▁ساحل": 1954,
    "▁آلودگی": 1955,
    "▁کلاس": 1956,
    "۱۸": 1957,
    "▁جواد": 1958,
    "▁طرفداران": 1959,
    "▁روانی": 1960,
    "▁پیوست": 1961,
    "▁کارمندان": 1962,
    "جمع": 1963,
    "▁پایه": 1964,
    "▁خلی": 1965,
    "رئیس": 1966,
    "عهد": 1967,
    "▁شهرت": 1968,
    "▁افزود": 1969,
    "▁اطلاعی": 1970,
    "▁هی": 1971,
    "▁درک": 1972,
    "▁یخ": 1973,
    "کا": 1974,
    "اد": 1975,
    "▁نقاش": 1976,
    "▁اسکی": 1977,
    "▁آنجلس": 1978,
    "▁کالیفرنیا": 1979,
    "▁چنان": 1980,
    "▁سرپرست": 1981,
    "▁نارنجی": 1982,
    "▁قول": 1983,
    "▁سامانه": 1984,
    "▁هنرمندان": 1985,
    "▁فر": 1986,
    "▁کی": 1987,
    "▁نداده": 1988,
    "برای": 1989,
    "▁توانای": 1990,
    "▁توانسته": 1991,
    "▁نس": 1992,
    "تمام": 1993,
    "وال": 1994,
    "▁خاطره": 1995,
    "▁هشتم": 1996,
    "▁گرانی": 1997,
    "▁موثر": 1998,
    "▁محافظ": 1999,
    "▁دسته": 2000,
    "وئل": 2001,
    "▁اضطرار": 2002,
    "▁زمستان": 2003,
    "▁فیوری": 2004,
    "▁متولد": 2005,
    "▁متخصص": 2006,
    "▁تکرار": 2007,
    "▁الهام": 2008,
    "▁لوکس": 2009,
    "▁ناپذیر": 2010,
    "▁اطمینان": 2011,
    "▁۲۰۱۵": 2012,
    "▁آرسنال": 2013,
    "▁اهل": 2014,
    "▁نسخ": 2015,
    "▁سبک": 2016,
    "▁مدیرکل": 2017,
    "▁ابراهیم": 2018,
    "▁آکادمی": 2019,
    "▁پارک": 2020,
    "▁مج": 2021,
    "▁ناسا": 2022,
    "▁نشین": 2023,
    "▁کنگ": 2024,
    "مه": 2025,
    "▁بندر": 2026,
    "▁ترجم": 2027,
    "یکی": 2028,
    "▁ذخ": 2029,
    "جی": 2030,
    "▁اسب": 2031,
    "▁قال": 2032,
    "▁زند": 2033,
    "▁روان": 2034,
    "▁ل": 2035,
    "▁آماد": 2036,
    "▁مشاهد": 2037,
    "▁مصنوعی": 2038,
    "▁ژافره": 2039,
    "▁سرنگون": 2040,
    "▁اسکاتلند": 2041,
    "▁جبران": 2042,
    "▁بعدی": 2043,
    "▁نت": 2044,
    "▁قار": 2045,
    "▁عرص": 2046,
    "▁وقف": 2047,
    "▁رانندگان": 2048,
    "▁گری": 2049,
    "▁باب": 2050,
    "گ": 2051,
    "▁پرو": 2052,
    "▁کوه": 2053,
    "▁جوانان": 2054,
    "▁سوزی": 2055,
    "▁شناسی": 2056,
    "▁نکرد": 2057,
    "▁درون": 2058,
    "▁شناس": 2059,
    "سیم": 2060,
    "هفته": 2061,
    "▁دامن": 2062,
    "▁زا": 2063,
    "▁شاغل": 2064,
    "▁خسارت": 2065,
    "▁اعتبار": 2066,
    "▁تشویق": 2067,
    "▁پرتاب": 2068,
    "▁کلمبیا": 2069,
    "▁نفس": 2070,
    "▁فیسبوک": 2071,
    "▁کادر": 2072,
    "▁بخت": 2073,
    "▁باغ": 2074,
    "▁لی": 2075,
    "▁مدرسه": 2076,
    "▁حالت": 2077,
    "▁اع": 2078,
    "▁جامع": 2079,
    "حسن": 2080,
    "ازم": 2081,
    "▁متحد": 2082,
    "▁نامداری": 2083,
    "▁پدرش": 2084,
    "▁دیوار": 2085,
    "▁آکسفورد": 2086,
    "▁مراکز": 2087,
    "▁هیئت": 2088,
    "▁صدرنشین": 2089,
    "▁ژرمن": 2090,
    "▁تبریز": 2091,
    "▁مسجد": 2092,
    "▁متوالی": 2093,
    "▁خطرناک": 2094,
    "▁جیمز": 2095,
    "▁شفاف": 2096,
    "▁دانیم": 2097,
    "▁یوونتوس": 2098,
    "▁تولد": 2099,
    "▁یمن": 2100,
    "▁سیست": 2101,
    "▁مشتریان": 2102,
    "▁داور": 2103,
    "▁نیازمند": 2104,
    "▁تری": 2105,
    "▁متن": 2106,
    "▁مس": 2107,
    "سا": 2108,
    "پیش": 2109,
    "▁شک": 2110,
    "▁محمدی": 2111,
    "▁میانه": 2112,
    "▁دیپلما": 2113,
    "▁هفتم": 2114,
    "▁پاک": 2115,
    "▁الحاق": 2116,
    "▁پارلمان": 2117,
    "▁جذب": 2118,
    "▁نطنز": 2119,
    "▁جلب": 2120,
    "ذیب": 2121,
    "▁فعلا": 2122,
    "▁گشت": 2123,
    "▁جی": 2124,
    "▁برخوردار": 2125,
    "▁اهواز": 2126,
    "▁تأ": 2127,
    "▁هویت": 2128,
    "▁پنجاه": 2129,
    "▁ماموریت": 2130,
    "▁پایگاه": 2131,
    "▁گشایش": 2132,
    "▁حملات": 2133,
    "▁مجاز": 2134,
    "▁۳۳": 2135,
    "▁تماشاگران": 2136,
    "▁گوشت": 2137,
    "▁داوطلبان": 2138,
    "▁نادر": 2139,
    "▁محققان": 2140,
    "▁حامل": 2141,
    "کته": 2142,
    "همزمان": 2143,
    "▁بازرس": 2144,
    "کن": 2145,
    "▁جر": 2146,
    "▁پاری": 2147,
    "اوی": 2148,
    "صد": 2149,
    "گون": 2150,
    "...": 2151,
    "لا": 2152,
    "▁جلوی": 2153,
    "▁تماشاگر": 2154,
    "▁عمر": 2155,
    "▁اظهار": 2156,
    "فسور": 2157,
    "▁شصت": 2158,
    "▁گواردیولا": 2159,
    "▁استعفا": 2160,
    "▁لبنان": 2161,
    "▁مسعود": 2162,
    "▁پزشک": 2163,
    "▁نرم": 2164,
    "▁آفریقا": 2165,
    "▁واقعا": 2166,
    "▁ادار": 2167,
    "▁ریش": 2168,
    "▁شانس": 2169,
    "▁نشدن": 2170,
    "▁برداری": 2171,
    "زاده": 2172,
    "ناصر": 2173,
    "▁زودتر": 2174,
    "وثی": 2175,
    "▁امیدواری": 2176,
    "رو": 2177,
    "▁سرود": 2178,
    "▁کلید": 2179,
    "▁عکاسی": 2180,
    "▁ز": 2181,
    "▁رویا": 2182,
    "یده": 2183,
    "▁انداخته": 2184,
    "▁آفریقای": 2185,
    "ینگ": 2186,
    "هر": 2187,
    "▁کیلوگرم": 2188,
    "▁۱۳۹۷": 2189,
    "▁ثانی": 2190,
    "▁شگفت": 2191,
    "▁مریخ": 2192,
    "▁اندک": 2193,
    "▁رها": 2194,
    "▁مار": 2195,
    "▁جسد": 2196,
    "جسم": 2197,
    "▁۹۷": 2198,
    "▁حقوقی": 2199,
    "▁تپ": 2200,
    "▁تایسون": 2201,
    "▁ساده": 2202,
    "▁ذهن": 2203,
    "▁برآورد": 2204,
    "▁تور": 2205,
    "▁معن": 2206,
    "▁آنتونی": 2207,
    "▁۲۷": 2208,
    "▁درحالی": 2209,
    "▁پیگیری": 2210,
    "▁ابر": 2211,
    "▁چشمگیر": 2212,
    "۱۴": 2213,
    "را": 2214,
    "▁فرود": 2215,
    "شرکت": 2216,
    "دست": 2217,
    "▁نوجوان": 2218,
    "▁مبن": 2219,
    "اسی": 2220,
    "▁رویداد": 2221,
    "▁محصول": 2222,
    "▁دیجیتال": 2223,
    "▁بسکتبال": 2224,
    "▁انتظامی": 2225,
    "▁نیروگاه": 2226,
    "▁ردیف": 2227,
    "▁مقدار": 2228,
    "▁ایرنا": 2229,
    "▁کیفیت": 2230,
    "▁عید": 2231,
    "▁پادشاه": 2232,
    "▁حراج": 2233,
    "▁آسان": 2234,
    "▁شهرستان": 2235,
    "▁لستر": 2236,
    "▁دهیم": 2237,
    "▁اسناد": 2238,
    "▁دقیقا": 2239,
    "▁نص": 2240,
    "▁آواز": 2241,
    "▁آشنا": 2242,
    "▁هلند": 2243,
    "▁شاهین": 2244,
    "▁پزشکان": 2245,
    "▁انتخاباتی": 2246,
    "▁ایتالیایی": 2247,
    "▁جنسیت": 2248,
    "ط": 2249,
    "▁شرکتهای": 2250,
    "▁ایستاده": 2251,
    "▁نامید": 2252,
    "▁۴۵": 2253,
    "آ": 2254,
    "▁ماجرای": 2255,
    "چی": 2256,
    "▁سخن": 2257,
    "▁مسافر": 2258,
    "واع": 2259,
    "▁ثبات": 2260,
    "▁برگزید": 2261,
    "▁بماند": 2262,
    "▁تعلیق": 2263,
    "▁بدهد": 2264,
    "▁دسامبر": 2265,
    "▁عشق": 2266,
    "▁بلژیک": 2267,
    "▁تبعیض": 2268,
    "▁خشک": 2269,
    "▁نوسان": 2270,
    "▁کارزار": 2271,
    "▁مسئولیت": 2272,
    "▁فراز": 2273,
    "غم": 2274,
    "ظ": 2275,
    "▁شاملو": 2276,
    "تکلیف": 2277,
    "▁ذر": 2278,
    "▁کلیه": 2279,
    "بار": 2280,
    "▁معمول": 2281,
    "▁همسرش": 2282,
    "▁آلوده": 2283,
    "▁حداکثر": 2284,
    "▁قوی": 2285,
    "ورت": 2286,
    "▁هوش": 2287,
    "بانک": 2288,
    "▁کیلومتری": 2289,
    "▁یافتن": 2290,
    "▁دوز": 2291,
    "رگن": 2292,
    "▁بردن": 2293,
    "▁شهرداری": 2294,
    "▁سفرهای": 2295,
    "رز": 2296,
    "▁راحت": 2297,
    "شورای": 2298,
    "▁هرچ": 2299,
    "▁تحلیل": 2300,
    "▁آمدن": 2301,
    "ماه": 2302,
    "▁۴۰۰": 2303,
    "▁اعتماد": 2304,
    "▁تعریف": 2305,
    "▁امر": 2306,
    "▁روغن": 2307,
    "▁دستورالعمل": 2308,
    "▁ساعات": 2309,
    "▁سوئد": 2310,
    "▁علنی": 2311,
    "▁تحولات": 2312,
    "▁اسکن": 2313,
    "▁میراث": 2314,
    "▁کسر": 2315,
    "▁اسدی": 2316,
    "▁امشب": 2317,
    "▁آرایش": 2318,
    "▁بهای": 2319,
    "▁خبرساز": 2320,
    "▁خرد": 2321,
    "▁رویدادها": 2322,
    "▁اسپانیایی": 2323,
    "▁آم": 2324,
    "غول": 2325,
    "▁مناسبت": 2326,
    "اگر": 2327,
    "▁مطلب": 2328,
    "▁وایلد": 2329,
    "تون": 2330,
    "▁پالایشگاه": 2331,
    "▁جانب": 2332,
    "▁کالاها": 2333,
    "▁پهلوی": 2334,
    "بعضی": 2335,
    "فر": 2336,
    "▁ژاپنی": 2337,
    "▁۱۵۰": 2338,
    "▁کارت": 2339,
    "▁بازدید": 2340,
    "وند": 2341,
    "▁ششم": 2342,
    "احض": 2343,
    "▁عبارت": 2344,
    "▁مشاغل": 2345,
    "▁تنفس": 2346,
    "▁پرتغال": 2347,
    "▁زهرا": 2348,
    "▁گروسی": 2349,
    "▁مثال": 2350,
    "▁رونق": 2351,
    "▁پنهان": 2352,
    "▁تعرف": 2353,
    "▁شویم": 2354,
    "▁بگیرند": 2355,
    "▁تکمیل": 2356,
    "▁خودکشی": 2357,
    "▁تابلو": 2358,
    "▁ملایی": 2359,
    "▁خیر": 2360,
    "▁نفوذ": 2361,
    "▁پو": 2362,
    "▁تق": 2363,
    "▁خواب": 2364,
    "▁سالها": 2365,
    "▁عکاس": 2366,
    "▁خان": 2367,
    "خواهد": 2368,
    "▁ریال": 2369,
    "ث": 2370,
    "▁اقلیم": 2371,
    "▁۳۴": 2372,
    "▁جزیر": 2373,
    "▁اور": 2374,
    "▁قر": 2375,
    "باقر": 2376,
    "بنابر": 2377,
    "▁نوروزی": 2378,
    "▁نامش": 2379,
    "حمل": 2380,
    "رون": 2381,
    "▁اقدامی": 2382,
    "▁مدرن": 2383,
    "▁بابا": 2384,
    "▁تاسیس": 2385,
    "▁محاسب": 2386,
    "▁اتومبیل": 2387,
    "▁اندونزی": 2388,
    "▁غیرمستقیم": 2389,
    "▁گرنداسلم": 2390,
    "▁پرچم": 2391,
    "▁حکایت": 2392,
    "▁علائم": 2393,
    "▁اولویت": 2394,
    "▁تردد": 2395,
    "▁عمدتا": 2396,
    "▁کانون": 2397,
    "▁پکن": 2398,
    "▁خمینی": 2399,
    "▁غافلگیر": 2400,
    "▁دیپلماتیک": 2401,
    "▁قایق": 2402,
    "ذ": 2403,
    "▁پیچید": 2404,
    "▁محرومیت": 2405,
    "▁سرنوشت": 2406,
    "▁وسیع": 2407,
    "▁معلوم": 2408,
    "▁سازنده": 2409,
    "▁آر": 2410,
    "▁پوشش": 2411,
    "▁بودم": 2412,
    "▁عبدالله": 2413,
    "▁مسافرت": 2414,
    "▁برنت": 2415,
    "▁ویدیوی": 2416,
    "▁زدند": 2417,
    "▁خاتم": 2418,
    "▁رهبری": 2419,
    "سعید": 2420,
    "داران": 2421,
    "▁خاصی": 2422,
    "▁دان": 2423,
    "▁کا": 2424,
    "▁ضرور": 2425,
    "▁آهن": 2426,
    "▁اتفاقی": 2427,
    "▁موقع": 2428,
    "▁فیزیک": 2429,
    "▁چارچوب": 2430,
    "▁پاییز": 2431,
    "▁نیمکت": 2432,
    "▁هافبک": 2433,
    "▁فراتر": 2434,
    "▁هفتاد": 2435,
    "▁کجا": 2436,
    "▁شواهد": 2437,
    "▁۲۰۱۱": 2438,
    "▁کانادا": 2439,
    "▁تفاوت": 2440,
    "▁خطیب": 2441,
    "ناز": 2442,
    "▁فروخته": 2443,
    "▁فرمان": 2444,
    "▁سرکوب": 2445,
    "▁اختلال": 2446,
    "▁منظور": 2447,
    "▁یادآور": 2448,
    "▁گزین": 2449,
    "▁تجا": 2450,
    "قابل": 2451,
    "▁بیستم": 2452,
    "خالت": 2453,
    "▁عملا": 2454,
    "▁برند": 2455,
    "▁کف": 2456,
    "▁شی": 2457,
    "▁تحول": 2458,
    "▁میر": 2459,
    "▁جورج": 2460,
    "▁فولا": 2461,
    "▁ویژ": 2462,
    "▁صادق": 2463,
    "▁۱۹۸": 2464,
    "▁تماشای": 2465,
    "▁مدار": 2466,
    "دل": 2467,
    "▁جاسوس": 2468,
    "▁هو": 2469,
    "▁طلب": 2470,
    "حال": 2471,
    "▁نمای": 2472,
    "▁سپر": 2473,
    "شدید": 2474,
    "▁موافق": 2475,
    "▁عطر": 2476,
    "▁تردید": 2477,
    "▁منع": 2478,
    "▁حوادث": 2479,
    "▁لذت": 2480,
    "▁واگن": 2481,
    "▁باشیم": 2482,
    "التی": 2483,
    "سقف": 2484,
    "▁هتل": 2485,
    "▁مقدمات": 2486,
    "▁نژادپرست": 2487,
    "▁تالاب": 2488,
    "▁خلاف": 2489,
    "▁خفاش": 2490,
    "▁نامزدهای": 2491,
    "وات": 2492,
    "▁لحا": 2493,
    "▁برج": 2494,
    "▁رمز": 2495,
    "بو": 2496,
    "▁مجازات": 2497,
    "▁فقر": 2498,
    "▁شهرسازی": 2499,
    "▁پرده": 2500,
    "▁غلام": 2501,
    "▁فولک": 2502,
    "بین": 2503,
    "سه": 2504,
    "▁ایست": 2505,
    "ئو": 2506,
    "آن": 2507,
    "▁جک": 2508,
    "آزادسازی": 2509,
    "▁اص": 2510,
    "چ": 2511,
    "وار": 2512,
    "نوبت": 2513,
    "▁تماشا": 2514,
    "ریم": 2515,
    "▁تاپ": 2516,
    "▁مادرش": 2517,
    "▁برون": 2518,
    "▁نوروز": 2519,
    "▁باد": 2520,
    "▁استاندار": 2521,
    "▁معدن": 2522,
    "▁مسال": 2523,
    "▁پژوهشگر": 2524,
    "ابت": 2525,
    "▁دائم": 2526,
    "▁انداخت": 2527,
    "▁بهر": 2528,
    "سبب": 2529,
    "▁آشکار": 2530,
    "▁تراکتور": 2531,
    "▁سلول": 2532,
    "▁آدم": 2533,
    "▁فرگوسن": 2534,
    "▁ناکام": 2535,
    "▁رم": 2536,
    "▁حیوانات": 2537,
    "▁تجهیزات": 2538,
    "▁خاورمیانه": 2539,
    "▁مدنی": 2540,
    "▁اینتر": 2541,
    "▁سهامداران": 2542,
    "▁مستقل": 2543,
    "رد": 2544,
    "▁ارد": 2545,
    "▁سپرده": 2546,
    "▁طلای": 2547,
    "▁دهنده": 2548,
    "یره": 2549,
    "▁عظیم": 2550,
    "وف": 2551,
    "لند": 2552,
    "▁مالیاتی": 2553,
    "▁درخشان": 2554,
    "▁نود": 2555,
    "آزمایی": 2556,
    "دکتر": 2557,
    "▁عفو": 2558,
    "▁مقال": 2559,
    "▁جم": 2560,
    "▁ماهوار": 2561,
    "▁شهرها": 2562,
    "▁قد": 2563,
    "مون": 2564,
    "▁سا": 2565,
    "▁گرد": 2566,
    "▁۶۰۰": 2567,
    "▁شل": 2568,
    "▁تسلیحات": 2569,
    "▁مخفی": 2570,
    "▁مورینیو": 2571,
    "▁جستجو": 2572,
    "▁بگذارد": 2573,
    "▁منافع": 2574,
    "▁اقامت": 2575,
    "▁هیجان": 2576,
    "▁اورتون": 2577,
    "▁جانشین": 2578,
    "▁شرط": 2579,
    "▁میناوند": 2580,
    "▁خشم": 2581,
    "▁پاپ": 2582,
    "▁فای": 2583,
    "▁کنفرانس": 2584,
    "▁نمایشگاه": 2585,
    "▁ایفا": 2586,
    "▁شورو": 2587,
    "▁فروشگاه": 2588,
    "احل": 2589,
    "▁خریدار": 2590,
    "▁آرامش": 2591,
    "▁مذهبی": 2592,
    "رویی": 2593,
    "▁پیوسته": 2594,
    "امی": 2595,
    "قرار": 2596,
    "▁سفارش": 2597,
    "▁بردند": 2598,
    "▁بودیم": 2599,
    "▁یاران": 2600,
    "▁اجباری": 2601,
    "▁تس": 2602,
    "▁حامی": 2603,
    "بنا": 2604,
    "▁قدر": 2605,
    "رسان": 2606,
    "فاصله": 2607,
    "▁گذر": 2608,
    "▁فان": 2609,
    "▁عام": 2610,
    "▁چا": 2611,
    "گفته": 2612,
    "پور": 2613,
    "▁عاشق": 2614,
    "▁مطمئن": 2615,
    "▁اقلام": 2616,
    "▁عذر": 2617,
    "▁مازندران": 2618,
    "▁نباشد": 2619,
    "▁پیامدهای": 2620,
    "▁سلمان": 2621,
    "▁برگزیت": 2622,
    "▁طبری": 2623,
    "▁مرجان": 2624,
    "▁تدریج": 2625,
    "▁مخاطبان": 2626,
    "▁خطاب": 2627,
    "▁جواب": 2628,
    "▁اسماعیل": 2629,
    "▁ذو": 2630,
    "▁همکاران": 2631,
    "▁فرماندار": 2632,
    "▁مرور": 2633,
    "ویز": 2634,
    "▁مهاجرت": 2635,
    "▁سیل": 2636,
    "▁امکانات": 2637,
    "▁نمایندگی": 2638,
    "▁نماز": 2639,
    "▁حمید": 2640,
    "▁تعطیلات": 2641,
    "▁اتهامات": 2642,
    "▁بازرسان": 2643,
    "▁طلبان": 2644,
    "▁گردشگری": 2645,
    "▁فرم": 2646,
    "▁گزارشگر": 2647,
    "اقات": 2648,
    "▁ماندن": 2649,
    "▁اکثر": 2650,
    "▁بازیگران": 2651,
    "▁نابودی": 2652,
    "الب": 2653,
    "▁تنگ": 2654,
    "وزیر": 2655,
    "▁هجوم": 2656,
    "▁خاتمی": 2657,
    "▁وال": 2658,
    "تو": 2659,
    "▁مص": 2660,
    "▁زنند": 2661,
    "لیک": 2662,
    "▁داری": 2663,
    "▁رهبران": 2664,
    "مند": 2665,
    "▁۷۰۰": 2666,
    "▁فراوان": 2667,
    "▁آموز": 2668,
    "▁خراسان": 2669,
    "▁مشروط": 2670,
    "▁معاصر": 2671,
    "▁هالیوود": 2672,
    "▁پیراهن": 2673,
    "▁بغداد": 2674,
    "▁بوشهر": 2675,
    "▁ماراتن": 2676,
    "▁بخار": 2677,
    "▁عمق": 2678,
    "▁۴۴": 2679,
    "▁ارشاد": 2680,
    "▁صادرکنندگان": 2681,
    "▁اولسان": 2682,
    "▁۳۷": 2683,
    "▁اپل": 2684,
    "▁تل": 2685,
    "▁هاشمی": 2686,
    "▁خاوران": 2687,
    "▁پیمان": 2688,
    "▁انگار": 2689,
    "▁محکومیت": 2690,
    "▁سرد": 2691,
    "▁خودروسازی": 2692,
    "▁محمدجواد": 2693,
    "▁رحمانی": 2694,
    "▁قله": 2695,
    "▁حلق": 2696,
    "وقت": 2697,
    "▁۳۹": 2698,
    "▁دفاعی": 2699,
    "▁زیرا": 2700,
    "▁بیمه": 2701,
    "▁روب": 2702,
    "▁۶۵": 2703,
    "▁اسلام": 2704,
    "▁گمان": 2705,
    "▁وحش": 2706,
    "▁سبز": 2707,
    "حدود": 2708,
    "هم": 2709,
    "دن": 2710,
    "▁زانو": 2711,
    "امروز": 2712,
    "داشت": 2713,
    "▁۷۵": 2714,
    "▁۹۵": 2715,
    "خواهی": 2716,
    "▁حافظ": 2717,
    "▁فرو": 2718,
    "▁لیس": 2719,
    "▁متشک": 2720,
    "▁یازده": 2721,
    "▁کلاسیک": 2722,
    "تصاب": 2723,
    "طئ": 2724,
    "▁احترام": 2725,
    "▁عوارض": 2726,
    "▁تجدید": 2727,
    "▁جایگزین": 2728,
    "▁سرقت": 2729,
    "▁اماکن": 2730,
    "▁یوفا": 2731,
    "▁لمس": 2732,
    "▁معارف": 2733,
    "▁قلع": 2734,
    "▁بزند": 2735,
    "▁تاثیرگذار": 2736,
    "▁عاص": 2737,
    "▁سانسور": 2738,
    "▁کشد": 2739,
    "▁سان": 2740,
    "▁عادل": 2741,
    "لر": 2742,
    "▁پوشید": 2743,
    "▁ارتباطات": 2744,
    "▁تحلیلگر": 2745,
    "اجع": 2746,
    "راحل": 2747,
    "▁درد": 2748,
    "وه": 2749,
    "نفع": 2750,
    "▁باند": 2751,
    "▁نبرد": 2752,
    "اکان": 2753,
    "رت": 2754,
    "▁شهری": 2755,
    "▁فرستاد": 2756,
    "▁عزاداری": 2757,
    "▁مرا": 2758,
    "کم": 2759,
    "▁اسم": 2760,
    "افزایش": 2761,
    "▁نیرو": 2762,
    "▁راز": 2763,
    "▁جسم": 2764,
    "▁درحال": 2765,
    "سل": 2766,
    "▁راند": 2767,
    "▁اصلا": 2768,
    "▁شنا": 2769,
    "▁سری": 2770,
    "▁کال": 2771,
    "▁کارمند": 2772,
    "▁رستوران": 2773,
    "▁قاجار": 2774,
    "▁آفتاب": 2775,
    "▁فریاد": 2776,
    "▁مستمر": 2777,
    "▁خلاص": 2778,
    "▁پرفروش": 2779,
    "▁طوفان": 2780,
    "▁قلم": 2781,
    "▁وستهم": 2782,
    "▁آتی": 2783,
    "طی": 2784,
    "▁شوک": 2785,
    "▁هیوندای": 2786,
    "▁بهشت": 2787,
    "▁نمایشگر": 2788,
    "▁ریه": 2789,
    "▁جانسون": 2790,
    "▁تف": 2791,
    "فرین": 2792,
    "▁کام": 2793,
    "آی": 2794,
    "▁طیف": 2795,
    "ابی": 2796,
    "▁معمار": 2797,
    "▁سوالات": 2798,
    "۲۰۱۲": 2799,
    "▁اردو": 2800,
    "▁شیرین": 2801,
    "▁افسر": 2802,
    "▁دانستند": 2803,
    "▁جیب": 2804,
    "▁خوردن": 2805,
    "ستون": 2806,
    "▁مسئولین": 2807,
    "▁قیمتها": 2808,
    "▁۴۹": 2809,
    "▁بینند": 2810,
    "▁گوشی": 2811,
    "▁آگاه": 2812,
    "▁ق": 2813,
    "▁شریفی": 2814,
    "▁بلخ": 2815,
    "مجموع": 2816,
    "قیمت": 2817,
    "رسمی": 2818,
    "۱۹": 2819,
    "▁علم": 2820,
    "هزار": 2821,
    "فاش": 2822,
    "آوری": 2823,
    "فق": 2824,
    "▁کریست": 2825,
    "▁آسیای": 2826,
    "▁صالح": 2827,
    "▁دانشمند": 2828,
    "▁۵۷": 2829,
    "▁مطل": 2830,
    "▁خ": 2831,
    "▁بدتر": 2832,
    "▁تاکسی": 2833,
    "▁افزار": 2834,
    "▁تصادف": 2835,
    "▁دبلیو": 2836,
    "▁فرآیند": 2837,
    "▁وسایل": 2838,
    "▁سلاح": 2839,
    "▁گوناگون": 2840,
    "▁سایپا": 2841,
    "▁معاف": 2842,
    "▁وسط": 2843,
    "▁صمت": 2844,
    "▁مطبوعات": 2845,
    "▁خطوط": 2846,
    "▁دایک": 2847,
    "▁حیدر": 2848,
    "▁وانت": 2849,
    "▁عراقچی": 2850,
    "▁جنبش": 2851,
    "▁پلاستیک": 2852,
    "▁مقاومت": 2853,
    "▁بنیان": 2854,
    "▁لوئی": 2855,
    "▁ص": 2856,
    "▁بلیت": 2857,
    "▁خواهم": 2858,
    "▁لب": 2859,
    "▁برندگان": 2860,
    "▁بطور": 2861,
    "▁خال": 2862,
    "▁همیلتون": 2863,
    "▁آزمایشگاه": 2864,
    "▁اوبر": 2865,
    "غان": 2866,
    "▁بهایی": 2867,
    "▁عادت": 2868,
    "▁سالم": 2869,
    "اجی": 2870,
    "▁نگرفته": 2871,
    "▁ضعیف": 2872,
    "▁دارم": 2873,
    "ران": 2874,
    "▁زیبایی": 2875,
    "▁راستا": 2876,
    "▁فلیک": 2877,
    "▁آموزشی": 2878,
    "▁کیو": 2879,
    "▁مور": 2880,
    "جان": 2881,
    "▁کارش": 2882,
    "▁شا": 2883,
    "▁پیک": 2884,
    "ولی": 2885,
    "▁گرب": 2886,
    "▁بازنشست": 2887,
    "ماهی": 2888,
    "نیم": 2889,
    "▁۰": 2890,
    "▁اگر": 2891,
    "▁قطب": 2892,
    "دون": 2893,
    "پی": 2894,
    "▁قص": 2895,
    "بون": 2896,
    "زر": 2897,
    "▁خلو": 2898,
    "▁سرباز": 2899,
    "▁تبلیغ": 2900,
    "▁آنفلوآنزا": 2901,
    "▁انفرادی": 2902,
    "▁تائید": 2903,
    "▁باشید": 2904,
    "▁حساس": 2905,
    "▁شوماخر": 2906,
    "▁بدهند": 2907,
    "خراج": 2908,
    "▁۱۹۸۶": 2909,
    "▁مصدومیت": 2910,
    "▁ربات": 2911,
    "▁بورل": 2912,
    "ظیف": 2913,
    "▁دیگو": 2914,
    "▁متاسف": 2915,
    "▁مدارس": 2916,
    "▁دانشجویان": 2917,
    "▁کریستیان": 2918,
    "▁برقی": 2919,
    "▁هنگ": 2920,
    "▁شتاب": 2921,
    "▁نداشتند": 2922,
    "▁ضرورت": 2923,
    "▁استادیوم": 2924,
    "▁ادعای": 2925,
    "▁شنیده": 2926,
    "▁نسب": 2927,
    "▁جنبه": 2928,
    "صاف": 2929,
    "▁خاطرات": 2930,
    "▁امان": 2931,
    "▁جرم": 2932,
    "وا": 2933,
    "▁یکم": 2934,
    "▁وسی": 2935,
    "نیک": 2936,
    "خرج": 2937,
    "▁۵۵": 2938,
    "نام": 2939,
    "▁سوئیسی": 2940,
    "▁درهای": 2941,
    "▁روس": 2942,
    "▁آزمایی": 2943,
    "▁تخیل": 2944,
    "کر": 2945,
    "کاری": 2946,
    "سخنگوی": 2947,
    "▁رسیدند": 2948,
    "ض": 2949,
    "▁کهن": 2950,
    "یرت": 2951,
    "▁ارزان": 2952,
    "▁ریاض": 2953,
    "▁سالن": 2954,
    "تن": 2955,
    "▁فتح": 2956,
    "▁اهدا": 2957,
    "▁مهاجر": 2958,
    "▁نقد": 2959,
    "کسی": 2960,
    "اوش": 2961,
    "▁مون": 2962,
    "▁منتقد": 2963,
    "جو": 2964,
    "▁استخوان": 2965,
    "▁۲۵۰": 2966,
    "▁شعار": 2967,
    "▁شایع": 2968,
    "▁مطالب": 2969,
    "▁مسکو": 2970,
    "خیص": 2971,
    "▁ارتفاع": 2972,
    "▁استراماچونی": 2973,
    "▁تدابیر": 2974,
    "▁لاریجانی": 2975,
    "▁ولسوال": 2976,
    "▁بکشد": 2977,
    "▁کهکشان": 2978,
    "▁قاطع": 2979,
    "▁مترجم": 2980,
    "▁دهقان": 2981,
    "▁پیاده": 2982,
    "▁زلزله": 2983,
    "صوفی": 2984,
    "▁ترجیح": 2985,
    "▁کیلو": 2986,
    "▁روزگار": 2987,
    "▁قادر": 2988,
    "▁نان": 2989,
    "▁همسایه": 2990,
    "▁غریب": 2991,
    "▁گوگل": 2992,
    "▁ببرد": 2993,
    "▁غار": 2994,
    "▁تمایل": 2995,
    "۵۰": 2996,
    "▁مطهری": 2997,
    "▁اختلافات": 2998,
    "▁صادرکنند": 2999,
    "▁ضرر": 3000,
    "▁محافظت": 3001,
    "سم": 3002,
    "وخیم": 3003,
    "▁سگ": 3004,
    "▁موش": 3005,
    "▁طوری": 3006,
    "▁منشا": 3007,
    "▁تروریستی": 3008,
    "▁باران": 3009,
    "یو": 3010,
    "ایر": 3011,
    "▁صورتی": 3012,
    "غ": 3013,
    "▁نرسیده": 3014,
    "▁۳۸": 3015,
    "موند": 3016,
    "آمریکا": 3017,
    "یسم": 3018,
    "پنج": 3019,
    "پیشتر": 3020,
    "▁ویدئویی": 3021,
    "امسال": 3022,
    "جونز": 3023,
    "▁کتی": 3024,
    "▁پارسی": 3025,
    "اولین": 3026,
    "▁ویدیو": 3027,
    "▁افشار": 3028,
    "▁ادعا": 3029,
    "لینی": 3030,
    "▁کمال": 3031,
    "▁سلطان": 3032,
    "▁۹۶": 3033,
    "▁راستی": 3034,
    "است": 3035,
    "▁ژنتیکی": 3036,
    "▁درخت": 3037,
    "▁فکری": 3038,
    "▁روح": 3039,
    "▁عروس": 3040,
    "بری": 3041,
    "وریس": 3042,
    "▁مش": 3043,
    "▁تگزاس": 3044,
    "▁همیشگی": 3045,
    "▁دوپینگ": 3046,
    "▁دقایق": 3047,
    "▁تلخ": 3048,
    "▁نکنید": 3049,
    "▁ویلموتس": 3050,
    "▁بوندس": 3051,
    "▁بازگردد": 3052,
    "▁سرویس": 3053,
    "▁هشتاد": 3054,
    "▁راهبرد": 3055,
    "▁۲۰۱۰": 3056,
    "▁ایرباس": 3057,
    "▁تعهد": 3058,
    "▁نروژ": 3059,
    "▁جلسات": 3060,
    "▁وبسایت": 3061,
    "▁منچستریونایتد": 3062,
    "▁ولز": 3063,
    "▁نزد": 3064,
    "▁آورند": 3065,
    "▁شکار": 3066,
    "▁پپ": 3067,
    "▁تج": 3068,
    "▁عبوری": 3069,
    "▁شکاف": 3070,
    "▁هستم": 3071,
    "▁تعل": 3072,
    "▁نیوک": 3073,
    "ریک": 3074,
    "▁شیش": 3075,
    "▁جدایی": 3076,
    "انکن": 3077,
    "▁پرسش": 3078,
    "سر": 3079,
    "▁افتد": 3080,
    "▁ترور": 3081,
    "▁کاربر": 3082,
    "▁موضوعات": 3083,
    "▁مگا": 3084,
    "▁گرا": 3085,
    "▁تبار": 3086,
    "▁خبرهای": 3087,
    "▁هجومی": 3088,
    "رانی": 3089,
    "▁شیر": 3090,
    "▁دیر": 3091,
    "▁داستانی": 3092,
    "▁خواستند": 3093,
    "▁عملی": 3094,
    "▁گذراند": 3095,
    "لت": 3096,
    "▁سنا": 3097,
    "▁صادقی": 3098,
    "▁انبار": 3099,
    "راه": 3100,
    "افغانستان": 3101,
    "▁قوا": 3102,
    "▁دلاری": 3103,
    "▁سراسری": 3104,
    "▁افکن": 3105,
    "▁۱۳۵": 3106,
    "▁فیلمساز": 3107,
    "▁ناصر": 3108,
    "▁برکنار": 3109,
    "▁تبلیغات": 3110,
    "▁فو": 3111,
    "▁گفتگوها": 3112,
    "التهاب": 3113,
    "▁پرافتخار": 3114,
    "▁خداحافظ": 3115,
    "▁بروکسل": 3116,
    "▁بعید": 3117,
    "▁تلفیق": 3118,
    "▁پانصد": 3119,
    "▁واژه": 3120,
    "▁ایرلند": 3121,
    "▁برانگیخت": 3122,
    "▁خوک": 3123,
    "▁فلز": 3124,
    "▁پردازد": 3125,
    "▁برانگیز": 3126,
    "▁بامداد": 3127,
    "▁شیراز": 3128,
    "▁پرندگان": 3129,
    "▁اشتغال": 3130,
    "▁پرورش": 3131,
    "▁منچسترسیتی": 3132,
    "▁مدارک": 3133,
    "حص": 3134,
    "▁پیوند": 3135,
    "▁محاسبات": 3136,
    "لحق": 3137,
    "▁انصاریان": 3138,
    "▁کرام": 3139,
    "▁منار": 3140,
    "▁محاکمه": 3141,
    "▁تدو": 3142,
    "▁ظاهرا": 3143,
    "▁یازدهم": 3144,
    "گانه": 3145,
    "▁محسن": 3146,
    "▁آمارها": 3147,
    "▁زیان": 3148,
    "▁راک": 3149,
    "▁نقدی": 3150,
    "▁گذاشتن": 3151,
    "مت": 3152,
    "▁مبنا": 3153,
    "▁قدس": 3154,
    "▁قدمت": 3155,
    "▁فاز": 3156,
    "باران": 3157,
    "▁مساو": 3158,
    "بورن": 3159,
    "▁آگ": 3160,
    "عبدال": 3161,
    "▁شناور": 3162,
    "▁افشا": 3163,
    "▁۱۳۸": 3164,
    "▁اوست": 3165,
    "اج": 3166,
    "▁سیار": 3167,
    "▁بوم": 3168,
    "سکی": 3169,
    "▁اصطلاح": 3170,
    "وریا": 3171,
    "▁جعل": 3172,
    "اول": 3173,
    "ساسی": 3174,
    "▁کیم": 3175,
    "فن": 3176,
    "▁گمانه": 3177,
    "▁۱۹۹": 3178,
    "▁والی": 3179,
    "خره": 3180,
    "یژن": 3181,
    "▁پانزده": 3182,
    "▁معمولی": 3183,
    "▁خواه": 3184,
    "▁رویای": 3185,
    "▁یکصد": 3186,
    "نر": 3187,
    "یوان": 3188,
    "نو": 3189,
    "لور": 3190,
    "▁ارا": 3191,
    "▁قبا": 3192,
    "▁مشتری": 3193,
    "▁ایرانیان": 3194,
    "▁سل": 3195,
    "▁خوشحال": 3196,
    "▁درمانی": 3197,
    "▁ثروتمند": 3198,
    "▁فیلیپ": 3199,
    "▁الکترونیک": 3200,
    "▁امتحان": 3201,
    "▁تأثیر": 3202,
    "▁فلوریدا": 3203,
    "▁ودیعه": 3204,
    "▁اعزام": 3205,
    "▁اطلس": 3206,
    "▁مفید": 3207,
    "▁فردوسی": 3208,
    "▁مفهوم": 3209,
    "▁زرد": 3210,
    "▁گورستان": 3211,
    "▁۲۰۲۲": 3212,
    "▁ویلیام": 3213,
    "▁برخلاف": 3214,
    "▁یادداشت": 3215,
    "▁منزل": 3216,
    "▁استرازنکا": 3217,
    "▁قدرتمند": 3218,
    "▁مسکونی": 3219,
    "▁جمال": 3220,
    "▁ابعاد": 3221,
    "▁مارتین": 3222,
    "▁زوج": 3223,
    "▁قاضی": 3224,
    "▁دادسرا": 3225,
    "▁کاوشگر": 3226,
    "▁سرزمین": 3227,
    "▁کمرنگ": 3228,
    "▁آنقدر": 3229,
    "▁تفاهم": 3230,
    "▁اسپی": 3231,
    "▁۴۸": 3232,
    "▁امین": 3233,
    "▁لحظات": 3234,
    "۳۱": 3235,
    "مار": 3236,
    "▁برایش": 3237,
    "▁محتوای": 3238,
    "▁لول": 3239,
    "▁گردن": 3240,
    "کی": 3241,
    "▁اهدای": 3242,
    "▁بدر": 3243,
    "▁شعب": 3244,
    "▁رسانی": 3245,
    "▁بوش": 3246,
    "پوری": 3247,
    "▁لاش": 3248,
    "▁بران": 3249,
    "▁مبادل": 3250,
    "▁استعداد": 3251,
    "▁کریمی": 3252,
    "▁دوام": 3253,
    "▁تاک": 3254,
    "▁فرید": 3255,
    "▁پرند": 3256,
    "▁عزیزی": 3257,
    "▁وست": 3258,
    "▁بازیگری": 3259,
    "▁خودم": 3260,
    "▁سران": 3261,
    "▁اقلیمی": 3262,
    "▁پیشگیری": 3263,
    "▁داوطلب": 3264,
    "▁پیست": 3265,
    "دانشمندان": 3266,
    "محمود": 3267,
    "استقلال": 3268,
    "۴۳": 3269,
    "▁پوری": 3270,
    "رنو": 3271,
    "▁حضورش": 3272,
    "بل": 3273,
    "▁کاوا": 3274,
    "▁خوان": 3275,
    "▁اسد": 3276,
    "طفی": 3277,
    "▁اوکراین": 3278,
    "▁کشم": 3279,
    "ائی": 3280,
    "▁فرزندان": 3281,
    "▁داغ": 3282,
    "▁آذربایجان": 3283,
    "▁موبایل": 3284,
    "▁پتروشیمی": 3285,
    "▁ثمر": 3286,
    "▁رضوی": 3287,
    "▁صنف": 3288,
    "▁تحمیل": 3289,
    "▁منحصر": 3290,
    "▁موانع": 3291,
    "▁والیبال": 3292,
    "▁انقراض": 3293,
    "▁بنیانگذار": 3294,
    "▁مقطع": 3295,
    "▁کریکت": 3296,
    "▁همسان": 3297,
    "▁کربن": 3298,
    "▁فلوید": 3299,
    "▁برساند": 3300,
    "▁بخصوص": 3301,
    "▁قریب": 3302,
    "▁سانتی": 3303,
    "▁کابین": 3304,
    "▁دموکرات": 3305,
    "▁نیوزیلند": 3306,
    "▁اهداف": 3307,
    "▁زاهد": 3308,
    "▁قرص": 3309,
    "▁جالب": 3310,
    "▁مسلمان": 3311,
    "▁راموس": 3312,
    "▁منوچ": 3313,
    "▁منتف": 3314,
    "▁بیاید": 3315,
    "▁بچ": 3316,
    "▁ثروت": 3317,
    "▁ویران": 3318,
    "▁جنایت": 3319,
    "▁اضطراب": 3320,
    "▁توماس": 3321,
    "▁۵۶": 3322,
    "▁یونان": 3323,
    "▁بها": 3324,
    "▁خند": 3325,
    "▁راس": 3326,
    "▁ویکتور": 3327,
    "▁توجهی": 3328,
    "▁جدال": 3329,
    "▁ساختار": 3330,
    "▁بروند": 3331,
    "رس": 3332,
    "▁موسوی": 3333,
    "هالی": 3334,
    "▁تاب": 3335,
    "▁رساندن": 3336,
    "▁عموم": 3337,
    "▁جهانگیری": 3338,
    "▁رغ": 3339,
    "▁فراری": 3340,
    "▁ویل": 3341,
    "یون": 3342,
    "▁کاسته": 3343,
    "▁زیبا": 3344,
    "▁نیما": 3345,
    "▁بزرگتر": 3346,
    "▁دراز": 3347,
    "▁وق": 3348,
    "قب": 3349,
    "▁۷۷": 3350,
    "۸۵": 3351,
    "▁کش": 3352,
    "▁کاست": 3353,
    "▁ذخا": 3354,
    "▁سپ": 3355,
    "▁مند": 3356,
    "▁باتر": 3357,
    "لیورپول": 3358,
    "عباس": 3359,
    "احمد": 3360,
    "حالا": 3361,
    "▁باخته": 3362,
    "▁همگ": 3363,
    "▁موشکی": 3364,
    "▁احس": 3365,
    "خارجه": 3366,
    "▁سیف": 3367,
    "▁آرای": 3368,
    "▁گروگان": 3369,
    "▁آیین": 3370,
    "▁امن": 3371,
    "اینها": 3372,
    "▁میلیاردها": 3373,
    "▁محدودیتهای": 3374,
    "نظر": 3375,
    "▁محقق": 3376,
    "▁ابزار": 3377,
    "▁آبادی": 3378,
    "▁حیوان": 3379,
    "▁شخص": 3380,
    "ارد": 3381,
    "▁مقصر": 3382,
    "▁لالیگا": 3383,
    "▁دادگستری": 3384,
    "▁نکند": 3385,
    "▁اکسیژن": 3386,
    "▁لهستان": 3387,
    "▁تروریسم": 3388,
    "▁دانمارک": 3389,
    "▁تایلند": 3390,
    "▁کامیون": 3391,
    "▁کنسول": 3392,
    "▁تظاهرات": 3393,
    "▁اپرا": 3394,
    "▁مخابرات": 3395,
    "▁برانکو": 3396,
    "نادیده": 3397,
    "▁کارگزار": 3398,
    "▁جهاد": 3399,
    "▁افکار": 3400,
    "▁نشت": 3401,
    "▁شریک": 3402,
    "▁تاز": 3403,
    "▁اوکراینی": 3404,
    "▁عفونت": 3405,
    "▁تسهیلات": 3406,
    "▁پوش": 3407,
    "▁آهنگساز": 3408,
    "▁دایناسور": 3409,
    "▁شوم": 3410,
    "▁صلاح": 3411,
    "▁مکرون": 3412,
    "▁کرمان": 3413,
    "ناف": 3414,
    "▁صرفا": 3415,
    "▁کاظم": 3416,
    "▁عطرساز": 3417,
    "تنش": 3418,
    "▁سین": 3419,
    "▁۶۷": 3420,
    "▁فراگیر": 3421,
    "▁فقیر": 3422,
    "وحد": 3423,
    "▁شدم": 3424,
    "▁ویلا": 3425,
    "▁خانوارهای": 3426,
    "▁صاحبان": 3427,
    "▁پرسید": 3428,
    "نواک": 3429,
    "▁خودران": 3430,
    "▁بازماند": 3431,
    "▁گرفتار": 3432,
    "▁شاهزاد": 3433,
    "ممکن": 3434,
    "▁دف": 3435,
    "راض": 3436,
    "گو": 3437,
    "▁گنج": 3438,
    "▁اشک": 3439,
    "▁رفتند": 3440,
    "عداد": 3441,
    "▁استون": 3442,
    "▁ایام": 3443,
    "راب": 3444,
    "▁دهان": 3445,
    "▁اسپ": 3446,
    "▁وا": 3447,
    "▁جوانی": 3448,
    "▁خیابانی": 3449,
    "▁هاوس": 3450,
    "▁جین": 3451,
    "بیش": 3452,
    "▁سرو": 3453,
    "▁پیوستن": 3454,
    "▁توانم": 3455,
    "صورت": 3456,
    "▁ور": 3457,
    "۳۰": 3458,
    "لم": 3459,
    "▁بدل": 3460,
    "خالص": 3461,
    "گروه": 3462,
    "▁رنج": 3463,
    "کدام": 3464,
    "طبق": 3465,
    "معاون": 3466,
    "آنها": 3467,
    "▁جلالی": 3468,
    "وفر": 3469,
    "▁کشی": 3470,
    "اسل": 3471,
    "▁فرش": 3472,
    "▁مامور": 3473,
    "أ": 3474,
    "▁مستق": 3475,
    "▁غ": 3476,
    "▁لیگا": 3477,
    "زیگ": 3478,
    "▁دروغ": 3479,
    "▁تخلف": 3480,
    "▁مرخص": 3481,
    "▁موظف": 3482,
    "▁اصرار": 3483,
    "▁ببینید": 3484,
    "▁تفریح": 3485,
    "▁لزوم": 3486,
    "خصیص": 3487,
    "▁فدرال": 3488,
    "▁انبوه": 3489,
    "▁ناحیه": 3490,
    "▁فسیل": 3491,
    "▁خوراک": 3492,
    "▁رابرت": 3493,
    "▁بامیان": 3494,
    "▁شکنجه": 3495,
    "▁بدانیم": 3496,
    "▁اپلیکیشن": 3497,
    "▁مصاد": 3498,
    "▁هامر": 3499,
    "▁خاموش": 3500,
    "▁اشرف": 3501,
    "▁عروسک": 3502,
    "▁مزار": 3503,
    "▁صبر": 3504,
    "▁شور": 3505,
    "▁رولز": 3506,
    "▁بیروت": 3507,
    "▁مبادلات": 3508,
    "▁اسلم": 3509,
    "عوض": 3510,
    "واک": 3511,
    "▁گردشگران": 3512,
    "▁شاهکار": 3513,
    "▁ایستاد": 3514,
    "▁لیدز": 3515,
    "▁اریک": 3516,
    "▁ژنتیک": 3517,
    "▁دانم": 3518,
    "▁موجودات": 3519,
    "▁شیری": 3520,
    "▁گرند": 3521,
    "▁زک": 3522,
    "خوانی": 3523,
    "▁تبلیغاتی": 3524,
    "▁قراردادش": 3525,
    "▁تروی": 3526,
    "▁ناو": 3527,
    "▁تقویم": 3528,
    "لک": 3529,
    "▁فل": 3530,
    "یچ": 3531,
    "▁قربانی": 3532,
    "▁خودروها": 3533,
    "▁پذیرفته": 3534,
    "▁خواندن": 3535,
    "▁سون": 3536,
    "▁صالحی": 3537,
    "میم": 3538,
    "▁بوک": 3539,
    "▁آوردن": 3540,
    "▁بریت": 3541,
    "▁نرسید": 3542,
    "▁۱۳۷": 3543,
    "▁شه": 3544,
    "▁سراغ": 3545,
    "شار": 3546,
    "▁۵۲": 3547,
    "▁صحن": 3548,
    "▁ناراحت": 3549,
    "دگی": 3550,
    "داوم": 3551,
    "▁دستگیری": 3552,
    "هام": 3553,
    "▁تکان": 3554,
    "پل": 3555,
    "▁بستن": 3556,
    "▁صعودی": 3557,
    "▁مرس": 3558,
    "شده": 3559,
    "▁سینماها": 3560,
    "▁مح": 3561,
    "وجود": 3562,
    "▁آندر": 3563,
    "▁پالایشگاهی": 3564,
    "▁گلزنی": 3565,
    "▁نیا": 3566,
    "شاخص": 3567,
    "ویژه": 3568,
    "عنوان": 3569,
    "▁دورت": 3570,
    "▁عم": 3571,
    "▁نهاده": 3572,
    "▁اما": 3573,
    "برخ": 3574,
    "▁مرزهای": 3575,
    "بخش": 3576,
    "شدت": 3577,
    "نت": 3578,
    "▁گریز": 3579,
    "▁تش": 3580,
    "▁۸۰۰": 3581,
    "بسیاری": 3582,
    "▁آیند": 3583,
    "▁احت": 3584,
    "▁فضانورد": 3585,
    "▁اخطار": 3586,
    "ناد": 3587,
    "▁سحر": 3588,
    "▁تحقیر": 3589,
    "▁دژپسند": 3590,
    "▁منتخب": 3591,
    "▁متقاضی": 3592,
    "▁سئوال": 3593,
    "▁ذکر": 3594,
    "▁ونیز": 3595,
    "▁بندرعباس": 3596,
    "▁تلگرام": 3597,
    "▁یمانی": 3598,
    "▁کیهان": 3599,
    "▁زنگنه": 3600,
    "▁رمزارزها": 3601,
    "▁متعهد": 3602,
    "▁بزوس": 3603,
    "▁تبعات": 3604,
    "▁کو": 3605,
    "▁فیلتر": 3606,
    "ادورو": 3607,
    "▁تقدی": 3608,
    "▁علامت": 3609,
    "▁تسلیت": 3610,
    "▁ترکمن": 3611,
    "▁کشاند": 3612,
    "▁شاگردان": 3613,
    "▁مداوم": 3614,
    "▁برلین": 3615,
    "▁رضایت": 3616,
    "▁ناجی": 3617,
    "▁تعجب": 3618,
    "▁ترسیم": 3619,
    "▁سرنشینان": 3620,
    "▁افتتاح": 3621,
    "▁برکناری": 3622,
    "▁پراکند": 3623,
    "▁پیکر": 3624,
    "▁نوزدهم": 3625,
    "▁استرالیایی": 3626,
    "▁انتقادات": 3627,
    "▁اکرا": 3628,
    "▁داشتم": 3629,
    "▁سیزدهم": 3630,
    "کننده": 3631,
    "▁لق": 3632,
    "▁ایا": 3633,
    "▁عقید": 3634,
    "▁گم": 3635,
    "مل": 3636,
    "▁پرهی": 3637,
    "▁الکس": 3638,
    "▁دود": 3639,
    "▁خدا": 3640,
    "▁۷۳": 3641,
    "▁روسی": 3642,
    "▁بمب": 3643,
    "یپ": 3644,
    "▁حیاتی": 3645,
    "▁اکس": 3646,
    "ونگ": 3647,
    "نیا": 3648,
    "▁پروان": 3649,
    "▁خواهی": 3650,
    "▁نیک": 3651,
    "▁گور": 3652,
    "مانده": 3653,
    "▁مهل": 3654,
    "مارک": 3655,
    "▁ساختن": 3656,
    "▁طلایی": 3657,
    "▁شاعران": 3658,
    "▁ماهها": 3659,
    "بعد": 3660,
    "ظهر": 3661,
    "شاید": 3662,
    "مسئولان": 3663,
    "▁حداکثری": 3664,
    "دادگاه": 3665,
    "▁بشری": 3666,
    "پای": 3667,
    "شیر": 3668,
    "رداد": 3669,
    "▁۱۲۰": 3670,
    "▁مکانی": 3671,
    "▁لا": 3672,
    "▁پالایش": 3673,
    "▁اشتراک": 3674,
    "▁استراحت": 3675,
    "▁ناامن": 3676,
    "▁پادتن": 3677,
    "لقی": 3678,
    "▁لنون": 3679,
    "▁یوگا": 3680,
    "▁غرق": 3681,
    "▁داغستان": 3682,
    "▁سایبری": 3683,
    "▁انتقادهای": 3684,
    "▁بگیریم": 3685,
    "▁کاشی": 3686,
    "▁تندرو": 3687,
    "▁کمربند": 3688,
    "▁کانری": 3689,
    "▁دعوا": 3690,
    "▁مصون": 3691,
    "▁استراتژیک": 3692,
    "▁ناپدید": 3693,
    "▁ازای": 3694,
    "▁بزنند": 3695,
    "▁طرفدار": 3696,
    "▁همرسان": 3697,
    "▁خرند": 3698,
    "▁فرونشست": 3699,
    "▁جاشوا": 3700,
    "▁مرگبار": 3701,
    "▁کلود": 3702,
    "▁ویلیامز": 3703,
    "▁کارلوس": 3704,
    "▁طرز": 3705,
    "▁پناهجویان": 3706,
    "▁صادراتی": 3707,
    "▁شاخ": 3708,
    "▁تاجیک": 3709,
    "رده": 3710,
    "▁بجا": 3711,
    "▁شناسان": 3712,
    "▁زو": 3713,
    "▁خشکسالی": 3714,
    "▁کشند": 3715,
    "▁آرامکو": 3716,
    "دا": 3717,
    "▁سالمندان": 3718,
    "▁توضیحات": 3719,
    "▁نیش": 3720,
    "▁وحید": 3721,
    "▁بهرام": 3722,
    "ایب": 3723,
    "نتی": 3724,
    "▁اشیا": 3725,
    "▁ضربات": 3726,
    "▁خریداران": 3727,
    "▁جبه": 3728,
    "▁آوردند": 3729,
    "ایح": 3730,
    "چین": 3731,
    "▁واسط": 3732,
    "جیره": 3733,
    "دان": 3734,
    "▁۹۱": 3735,
    "▁کلان": 3736,
    "▁سید": 3737,
    "▁نای": 3738,
    "حتی": 3739,
    "اق": 3740,
    "دور": 3741,
    "▁گانه": 3742,
    "۲۵": 3743,
    "▁خودروی": 3744,
    "▁سیام": 3745,
    "دم": 3746,
    "لوت": 3747,
    "▁محور": 3748,
    "▁بیل": 3749,
    "▁گفتگوی": 3750,
    "▁آرا": 3751,
    "نک": 3752,
    "▁اوین": 3753,
    "▁مست": 3754,
    "▁بوق": 3755,
    "رق": 3756,
    "ارغ": 3757,
    "واسط": 3758,
    "ضعیف": 3759,
    "استفاده": 3760,
    "فیلم": 3761,
    "پلیس": 3762,
    "اتحاد": 3763,
    "گل": 3764,
    "▁شدیدتر": 3765,
    "▁نوار": 3766,
    "▁جف": 3767,
    "ائ": 3768,
    "▁فا": 3769,
    "▁معترض": 3770,
    "بس": 3771,
    "▁روستای": 3772,
    "▁بدی": 3773,
    "وش": 3774,
    "▁استعفای": 3775,
    "▁رقص": 3776,
    "▁ایمان": 3777,
    "▁دارا": 3778,
    "عکس": 3779,
    "▁دم": 3780,
    "▁استثنا": 3781,
    "▁اعتقاد": 3782,
    "▁بنگلادش": 3783,
    "▁تجلیل": 3784,
    "▁تعقیب": 3785,
    "▁خانوادگی": 3786,
    "▁شارژ": 3787,
    "▁شمخانی": 3788,
    "▁ناچار": 3789,
    "▁محوطه": 3790,
    "▁وقایع": 3791,
    "▁ضایع": 3792,
    "▁پارالمپیک": 3793,
    "▁تعامل": 3794,
    "▁بکشند": 3795,
    "▁نشیب": 3796,
    "▁فجر": 3797,
    "▁طنز": 3798,
    "▁نوبخت": 3799,
    "▁تاکتیک": 3800,
    "▁بیاورد": 3801,
    "▁قض": 3802,
    "هنورد": 3803,
    "▁پیشتاز": 3804,
    "▁۱۹۹۰": 3805,
    "▁آرشیو": 3806,
    "▁بختیار": 3807,
    "▁تماشاچی": 3808,
    "▁خوشنام": 3809,
    "▁درآورد": 3810,
    "▁دماوند": 3811,
    "▁اخلال": 3812,
    "▁عرف": 3813,
    "▁اعتیاد": 3814,
    "▁متناسب": 3815,
    "▁ویزا": 3816,
    "▁پورتو": 3817,
    "▁مهرماه": 3818,
    "▁الحسن": 3819,
    "▁چراغ": 3820,
    "▁موازی": 3821,
    "▁کشتار": 3822,
    "▁آرامگاه": 3823,
    "▁مخدر": 3824,
    "▁تکنولوژی": 3825,
    "▁ستایش": 3826,
    "▁دپ": 3827,
    "▁تخلفات": 3828,
    "▁بشار": 3829,
    "فاد": 3830,
    "▁مالاریا": 3831,
    "▁محبوبیت": 3832,
    "▁اذ": 3833,
    "▁تعدیل": 3834,
    "▁قبال": 3835,
    "▁پایدار": 3836,
    "▁مطالعات": 3837,
    "▁احساسات": 3838,
    "▁تقابل": 3839,
    "▁کیفر": 3840,
    "▁ربط": 3841,
    "▁۶۸": 3842,
    "▁صح": 3843,
    "▁عبدی": 3844,
    "▁روزمر": 3845,
    "▁نکردن": 3846,
    "▁گلف": 3847,
    "▁تاریک": 3848,
    "▁وجه": 3849,
    "▁ظه": 3850,
    "▁جنس": 3851,
    "گه": 3852,
    "▁ری": 3853,
    "▁انتقادها": 3854,
    "▁نمادهای": 3855,
    "▁همانند": 3856,
    "شهر": 3857,
    "▁نامزدها": 3858,
    "▁هواپیماهای": 3859,
    "▁ببر": 3860,
    "▁تصمیمات": 3861,
    "▁شر": 3862,
    "▁قی": 3863,
    "▁واحدها": 3864,
    "وب": 3865,
    "▁مغزی": 3866,
    "سیا": 3867,
    "▁انت": 3868,
    "عب": 3869,
    "اژ": 3870,
    "سیتی": 3871,
    "▁یاری": 3872,
    "▁بس": 3873,
    "اقد": 3874,
    "▁ادا": 3875,
    "▁کپی": 3876,
    "▁موکو": 3877,
    "▁۳۶": 3878,
    "مال": 3879,
    "▁شمسی": 3880,
    "▁رزم": 3881,
    "▁آقا": 3882,
    "▁آمریکاست": 3883,
    "▁۷۴": 3884,
    "▁ط": 3885,
    "▁پار": 3886,
    "▁همای": 3887,
    "▁کرو": 3888,
    "▁کشت": 3889,
    "۷۰": 3890,
    "آمیز": 3891,
    "آنتونی": 3892,
    "▁جوز": 3893,
    "محققان": 3894,
    "مراسم": 3895,
    "▁تورمی": 3896,
    "▁یکسال": 3897,
    "گاهی": 3898,
    "▁تای": 3899,
    "خیلی": 3900,
    "▁روستایی": 3901,
    "۱۵": 3902,
    "اری": 3903,
    "▁کلا": 3904,
    "▁گیاه": 3905,
    "▁اختلا": 3906,
    "▁اظهارنظر": 3907,
    "▁زبا": 3908,
    "▁معیار": 3909,
    "▁مخصوص": 3910,
    "▁مأمور": 3911,
    "ژانس": 3912,
    "▁استخدام": 3913,
    "▁تخصص": 3914,
    "▁زریاب": 3915,
    "▁سامسونگ": 3916,
    "▁مشکوک": 3917,
    "▁معدود": 3918,
    "▁پرطرفدار": 3919,
    "▁بیفتد": 3920,
    "▁غیاب": 3921,
    "▁خفیف": 3922,
    "▁نیجر": 3923,
    "▁سکونت": 3924,
    "▁رفاه": 3925,
    "گذاری": 3926,
    "▁ترسناک": 3927,
    "▁غزنی": 3928,
    "▁اسپرت": 3929,
    "▁اقلی": 3930,
    "▁خرابکار": 3931,
    "▁بمانند": 3932,
    "▁قطار": 3933,
    "▁نکنند": 3934,
    "▁بهبهان": 3935,
    "▁مرجع": 3936,
    "▁وفادار": 3937,
    "▁توجیه": 3938,
    "▁عنکبوت": 3939,
    "▁دانشکد": 3940,
    "▁هشتگ": 3941,
    "▁سلف": 3942,
    "▁دستاوردهای": 3943,
    "▁تسلیم": 3944,
    "▁اخلاق": 3945,
    "▁کیانوش": 3946,
    "▁ایلنا": 3947,
    "▁نادرست": 3948,
    "▁لاری": 3949,
    "▁بوکسور": 3950,
    "▁سادات": 3951,
    "▁شوید": 3952,
    "سپاری": 3953,
    "▁تعادل": 3954,
    "▁صند": 3955,
    "تلاف": 3956,
    "▁غالب": 3957,
    "▁۲۰۰۴": 3958,
    "▁سیاستمداران": 3959,
    "▁اسپوت": 3960,
    "▁داریوش": 3961,
    "▁سناتور": 3962,
    "▁علاقمندان": 3963,
    "▁عج": 3964,
    "اش": 3965,
    "▁کادی": 3966,
    "▁روبروست": 3967,
    "▁دارید": 3968,
    "▁برنز": 3969,
    "▁اموا": 3970,
    "▁کاربرد": 3971,
    "شمار": 3972,
    "▁گیاهان": 3973,
    "▁ماری": 3974,
    "▁برگ": 3975,
    "▁کوچکی": 3976,
    "▁فرانک": 3977,
    "▁کیست": 3978,
    "نزا": 3979,
    "▁دهک": 3980,
    "▁پرسی": 3981,
    "زاک": 3982,
    "▁گزارشگران": 3983,
    "یحی": 3984,
    "کاب": 3985,
    "▁کوچکتر": 3986,
    "▁دقت": 3987,
    "▁تمرکز": 3988,
    "▁داشتیم": 3989,
    "▁آمدند": 3990,
    "▁جلال": 3991,
    "سیویر": 3992,
    "▁منته": 3993,
    "▁حداد": 3994,
    "▁اعضا": 3995,
    "▁آباد": 3996,
    "▁تان": 3997,
    "▁صدم": 3998,
    "تیک": 3999,
    "▁ظهر": 4000,
    "▁یافتند": 4001,
    "▁رادیویی": 4002,
    "▁قائ": 4003,
    "مپ": 4004,
    "▁ژوز": 4005,
    "▁برزیلی": 4006,
    "▁نامدار": 4007,
    "▁مهمان": 4008,
    "▁آفرین": 4009,
    "افت": 4010,
    "▁هروی": 4011,
    "▁وب": 4012,
    "▁زور": 4013,
    "▁ساک": 4014,
    "کمیت": 4015,
    "▁جرد": 4016,
    "▁نداد": 4017,
    "▁۴۶": 4018,
    "▁۷۲": 4019,
    "▁بینیم": 4020,
    "▁برداشتن": 4021,
    "▁خارا": 4022,
    "ناک": 4023,
    "مدیر": 4024,
    "▁بگوی": 4025,
    "▁کاغذ": 4026,
    "سن": 4027,
    "▁کول": 4028,
    "اخیرا": 4029,
    "زا": 4030,
    "▁تند": 4031,
    "مهدی": 4032,
    "▁روستا": 4033,
    "▁سیزده": 4034,
    "بچه": 4035,
    "▁۱۹۰": 4036,
    "پرو": 4037,
    "▁تعهداتش": 4038,
    "مایک": 4039,
    "▁هندی": 4040,
    "▁قم": 4041,
    "▁مکزیک": 4042,
    "شیبا": 4043,
    "▁مقرر": 4044,
    "▁اتوبوس": 4045,
    "▁الانبیا": 4046,
    "▁شلوغ": 4047,
    "▁صداوسیما": 4048,
    "▁غربالگری": 4049,
    "▁نتانیاهو": 4050,
    "▁المستقبل": 4051,
    "▁دریابندری": 4052,
    "▁چرنکوف": 4053,
    "▁امیرشاهی": 4054,
    "▁مدیترانه": 4055,
    "گراندپری": 4056,
    "▁آسمایی": 4057,
    "▁خیانت": 4058,
    "▁تضمین": 4059,
    "▁سعد": 4060,
    "▁مسایل": 4061,
    "▁پشتیبان": 4062,
    "▁تبادل": 4063,
    "▁توفان": 4064,
    "▁ساویز": 4065,
    "▁آشوری": 4066,
    "▁مغاز": 4067,
    "▁مقیم": 4068,
    "وداع": 4069,
    "▁چوب": 4070,
    "▁کوهستان": 4071,
    "▁ببینند": 4072,
    "▁لبخند": 4073,
    "▁استراتژی": 4074,
    "▁نظم": 4075,
    "▁حجاب": 4076,
    "▁شیلی": 4077,
    "▁تعبیر": 4078,
    "▁۲۰۳۰": 4079,
    "▁حساسیت": 4080,
    "وطن": 4081,
    "▁انگشت": 4082,
    "ختم": 4083,
    "▁روبرت": 4084,
    "▁کوب": 4085,
    "▁شهریار": 4086,
    "▁گرای": 4087,
    "▁همینطور": 4088,
    "▁کاردن": 4089,
    "▁اصلاحات": 4090,
    "▁کامپیوتر": 4091,
    "▁بافت": 4092,
    "▁صفحات": 4093,
    "▁دیپلمات": 4094,
    "▁سازد": 4095,
    "▁مسیرهای": 4096,
    "▁کلام": 4097,
    "سو": 4098,
    "تب": 4099,
    "▁نداشتن": 4100,
    "▁اندیش": 4101,
    "▁خواهر": 4102,
    "▁مرتب": 4103,
    "▁نسبتا": 4104,
    "▁انتقالات": 4105,
    "▁۶۱": 4106,
    "▁نجف": 4107,
    "شنگ": 4108,
    "▁جن": 4109,
    "▁گلزن": 4110,
    "▁منصور": 4111,
    "▁مغ": 4112,
    "جایی": 4113,
    "▁روسا": 4114,
    "▁رصد": 4115,
    "▁دیو": 4116,
    "▁درس": 4117,
    "▁کردستان": 4118,
    "▁وحشی": 4119,
    "▁حدی": 4120,
    "▁عی": 4121,
    "▁عمو": 4122,
    "▁باستان": 4123,
    "▁کشیدن": 4124,
    "▁یکبار": 4125,
    "▁نژادی": 4126,
    "مرکز": 4127,
    "▁مع": 4128,
    "▁وار": 4129,
    "▁تار": 4130,
    "▁انجامید": 4131,
    "۱۳": 4132,
    "▁قومی": 4133,
    "▁شهیدی": 4134,
    "▁دوازده": 4135,
    "▁خوا": 4136,
    "▁خطای": 4137,
    "الله": 4138,
    "خواست": 4139,
    "▁۸۲": 4140,
    "▁دربار": 4141,
    "▁باستانی": 4142,
    "دیگر": 4143,
    "▁حاکم": 4144,
    "▁برگشته": 4145,
    "▁علیر": 4146,
    "▁۱۳۶": 4147,
    "علیرضا": 4148,
    "قدس": 4149,
    "قص": 4150,
    "هدف": 4151,
    "▁تثب": 4152,
    "▁رحم": 4153,
    "▁هوادار": 4154,
    "▁هل": 4155,
    "درصد": 4156,
    "شته": 4157,
    "▁عکسی": 4158,
    "▁رسو": 4159,
    "▁کور": 4160,
    "▁بازارها": 4161,
    "▁تلف": 4162,
    "تکب": 4163,
    "▁۱۹۷": 4164,
    "▁فرج": 4165,
    "غال": 4166,
    "نصف": 4167,
    "▁مکرر": 4168,
    "شاه": 4169,
    "جد": 4170,
    "▁گارد": 4171,
    "▁مصدوم": 4172,
    "▁مختل": 4173,
    "▁اسرار": 4174,
    "▁آسوشیتدپرس": 4175,
    "▁نوشیدن": 4176,
    "▁فروپاشی": 4177,
    "▁حرکات": 4178,
    "▁غفوری": 4179,
    "▁میکروب": 4180,
    "نظرسنجی": 4181,
    "▁برگردد": 4182,
    "▁تأیید": 4183,
    "▁آشفت": 4184,
    "▁ناشناخت": 4185,
    "▁ازبکستان": 4186,
    "▁زیرساخت": 4187,
    "▁تالار": 4188,
    "▁اوباما": 4189,
    "▁بپردازد": 4190,
    "▁بیلسا": 4191,
    "▁مصلحت": 4192,
    "▁خوانندگ": 4193,
    "▁مسافت": 4194,
    "▁بگیرید": 4195,
    "▁۱۳۹۵": 4196,
    "▁مداخل": 4197,
    "▁سردبیر": 4198,
    "دربند": 4199,
    "▁خلاقیت": 4200,
    "▁ناتوان": 4201,
    "▁پایبند": 4202,
    "▁بلومبرگ": 4203,
    "▁خستگی": 4204,
    "▁بقایای": 4205,
    "▁سنبل": 4206,
    "▁خرسند": 4207,
    "▁یکسان": 4208,
    "▁عزم": 4209,
    "▁توخل": 4210,
    "▁دیدگاه": 4211,
    "▁ابوال": 4212,
    "▁فیس": 4213,
    "▁متنوع": 4214,
    "▁سکوت": 4215,
    "▁شایعات": 4216,
    "▁حباب": 4217,
    "▁گرمایش": 4218,
    "▁یور": 4219,
    "دیه": 4220,
    "تمرکز": 4221,
    "▁سارا": 4222,
    "▁چهاردهم": 4223,
    "▁رانندگی": 4224,
    "نج": 4225,
    "حقق": 4226,
    "▁مایل": 4227,
    "انا": 4228,
    "▁اج": 4229,
    "۴۰": 4230,
    "▁نوید": 4231,
    "▁ریچارد": 4232,
    "صخره": 4233,
    "▁نکردند": 4234,
    "▁رایج": 4235,
    "▁دستیابی": 4236,
    "▁پوشاند": 4237,
    "▁کین": 4238,
    "▁مهاجران": 4239,
    "▁پیرو": 4240,
    "▁سربازان": 4241,
    "▁دهندگان": 4242,
    "▁جانور": 4243,
    "▁ادعاهای": 4244,
    "▁قوس": 4245,
    "گیر": 4246,
    "▁الیز": 4247,
    "▁کت": 4248,
    "▁شانزدهم": 4249,
    "▁قرض": 4250,
    "▁نرفت": 4251,
    "▁رسم": 4252,
    "▁بالاتری": 4253,
    "رینگ": 4254,
    "▁سم": 4255,
    "یف": 4256,
    "▁قطبی": 4257,
    "▁همکار": 4258,
    "▁اصول": 4259,
    "▁مرگش": 4260,
    "▁دا": 4261,
    "▁ناآرامی": 4262,
    "▁خار": 4263,
    "▁گرگ": 4264,
    "▁داروها": 4265,
    "تلتی": 4266,
    "▁سختگیر": 4267,
    "▁بلوک": 4268,
    "▁مرزها": 4269,
    "▁حریفان": 4270,
    "تل": 4271,
    "▁پروازها": 4272,
    "▁نوشتن": 4273,
    "▁پارس": 4274,
    "▁۱۹۴": 4275,
    "عان": 4276,
    "▁محدودیتها": 4277,
    "▁استخر": 4278,
    "▁کما": 4279,
    "▁الزام": 4280,
    "▁مای": 4281,
    "یقه": 4282,
    "▁مق": 4283,
    "▁نماند": 4284,
    "▁ابلاغی": 4285,
    "▁گزارشها": 4286,
    "▁ریخت": 4287,
    "مانع": 4288,
    "اف": 4289,
    "برایتون": 4290,
    "برگ": 4291,
    "▁۱۵۰۰": 4292,
    "▁کنو": 4293,
    "یلیون": 4294,
    "فا": 4295,
    "هرانا": 4296,
    "▁منظر": 4297,
    "روی": 4298,
    "▁بنیادی": 4299,
    "▁ار": 4300,
    "▁یار": 4301,
    "▁شانه": 4302,
    "▁مادری": 4303,
    "واد": 4304,
    "▁۱۳۳": 4305,
    "۹۱": 4306,
    "وارد": 4307,
    "▁هلی": 4308,
    "شیو": 4309,
    "▁فین": 4310,
    "▁تیک": 4311,
    "بازار": 4312,
    "قرض": 4313,
    "پژوهشگران": 4314,
    "تحول": 4315,
    "باشگاه": 4316,
    "رقابت": 4317,
    "علاو": 4318,
    "▁سام": 4319,
    "زده": 4320,
    "دهنده": 4321,
    "آخری": 4322,
    "مرگ": 4323,
    "خیم": 4324,
    "▁ویدئوی": 4325,
    "▁مرم": 4326,
    "▁۹۰۰": 4327,
    "باز": 4328,
    "▁سرنشین": 4329,
    "وان": 4330,
    "▁۱۹۳": 4331,
    "▁قاب": 4332,
    "▁دردسر": 4333,
    "▁ابهام": 4334,
    "▁صفرها": 4335,
    "کردن": 4336,
    "▁آتالانتا": 4337,
    "▁شطرنج": 4338,
    "▁مغناطیس": 4339,
    "▁ابتکار": 4340,
    "▁خوست": 4341,
    "▁شباهت": 4342,
    "▁گشود": 4343,
    "▁منفجر": 4344,
    "▁طارمی": 4345,
    "▁خیال": 4346,
    "▁یادبود": 4347,
    "▁سوپرلیگ": 4348,
    "▁ببیند": 4349,
    "▁مجاهد": 4350,
    "▁ثامن": 4351,
    "▁متاثر": 4352,
    "▁مطلوب": 4353,
    "▁ماندگار": 4354,
    "▁بلاروس": 4355,
    "▁نزول": 4356,
    "▁زغال": 4357,
    "ضعف": 4358,
    "▁عارف": 4359,
    "ارتاک": 4360,
    "▁ویرجی": 4361,
    "▁فضلی": 4362,
    "▁جابجا": 4363,
    "▁پراید": 4364,
    "▁فخر": 4365,
    "رگس": 4366,
    "▁بگوییم": 4367,
    "▁طعم": 4368,
    "▁لامبورگینی": 4369,
    "▁اعتراف": 4370,
    "▁غیرنظامی": 4371,
    "▁کریسمس": 4372,
    "جوبی": 4373,
    "▁اردوگاه": 4374,
    "▁اعطا": 4375,
    "▁سیارک": 4376,
    "لاتین": 4377,
    "▁گابریل": 4378,
    "▁شوش": 4379,
    "▁آلن": 4380,
    "▁کمپین": 4381,
    "▁قند": 4382,
    "▁تیرماه": 4383,
    "▁بنکسی": 4384,
    "▁ندیده": 4385,
    "▁بولت": 4386,
    "▁دشمنان": 4387,
    "▁فرق": 4388,
    "▁سیم": 4389,
    "▁تایم": 4390,
    "گا": 4391,
    "▁تابعیت": 4392,
    "الدین": 4393,
    "▁رول": 4394,
    "▁آبادان": 4395,
    "▁شناسد": 4396,
    "▁۱۳۴": 4397,
    "▁مستقیما": 4398,
    "مرث": 4399,
    "▁مشت": 4400,
    "آبادی": 4401,
    "کره": 4402,
    "▁تون": 4403,
    "فصل": 4404,
    "▁جست": 4405,
    "وت": 4406,
    "بهار": 4407,
    "▁ناب": 4408,
    "کین": 4409,
    "▁هکرها": 4410,
    "▁پال": 4411,
    "خواهید": 4412,
    "▁جاست": 4413,
    "بت": 4414,
    "▁حکمتی": 4415,
    "زمان": 4416,
    "▁فروشی": 4417,
    "▁پیشرو": 4418,
    "مجانی": 4419,
    "▁فوریت": 4420,
    "▁ملا": 4421,
    "▁نوجوانان": 4422,
    "▁گفتگوهای": 4423,
    "▁ریزش": 4424,
    "▁بانو": 4425,
    "▁اندازد": 4426,
    "▁دیدارهای": 4427,
    "▁مهندس": 4428,
    "▁چیزهای": 4429,
    "▁کلاهبردار": 4430,
    "▁الگوی": 4431,
    "▁نویی": 4432,
    "▁فیل": 4433,
    "▁رخت": 4434,
    "▁اعما": 4435,
    "▁دخترش": 4436,
    "▁مهاجمان": 4437,
    "آمار": 4438,
    "پر": 4439,
    "▁فرض": 4440,
    "▁بل": 4441,
    "▁شمس": 4442,
    "▁مری": 4443,
    "▁بارور": 4444,
    "▁ماهیگیر": 4445,
    "گرفته": 4446,
    "خاطر": 4447,
    "▁دوازدهم": 4448,
    "▁۳۵۰": 4449,
    "▁۵۳": 4450,
    "▁کمدی": 4451,
    "▁مسیحی": 4452,
    "▁معیشتی": 4453,
    "▁کارگردانان": 4454,
    "▁ادب": 4455,
    "▁نورد": 4456,
    "▁گرایان": 4457,
    "کرد": 4458,
    "▁پرت": 4459,
    "▁زی": 4460,
    "▁قش": 4461,
    "▁درخشانی": 4462,
    "▁بم": 4463,
    "لاند": 4464,
    "▁آگاهی": 4465,
    "▁۹۳": 4466,
    "▁۵۹": 4467,
    "لپ": 4468,
    "▁درج": 4469,
    "۲۳": 4470,
    "▁جنی": 4471,
    "▁۱۹۶۰": 4472,
    "▁نق": 4473,
    "▁انیس": 4474,
    "برید": 4475,
    "۲۰": 4476,
    "▁نیازها": 4477,
    "امیر": 4478,
    "ربی": 4479,
    "▁۱۳۹": 4480,
    "▁منصوری": 4481,
    "انس": 4482,
    "▁شهردار": 4483,
    "گذشت": 4484,
    "▁درخش": 4485,
    "▁داروهای": 4486,
    "ظاهر": 4487,
    "انتظار": 4488,
    "منابع": 4489,
    "حمید": 4490,
    "تولید": 4491,
    "بینی": 4492,
    "▁پیشرفته": 4493,
    "▁پهپاد": 4494,
    "▁۱۹۵": 4495,
    "▁تص": 4496,
    "▁همجنس": 4497,
    "دغدغه": 4498,
    "▁اثبات": 4499,
    "▁بفروشد": 4500,
    "▁خادم": 4501,
    "▁واضح": 4502,
    "▁مکتوب": 4503,
    "▁تفسیر": 4504,
    "▁خسارات": 4505,
    "▁ببینیم": 4506,
    "▁نیسان": 4507,
    "▁وصل": 4508,
    "▁ارکستر": 4509,
    "▁ثانوی": 4510,
    "▁ورشکست": 4511,
    "▁وحشتناک": 4512,
    "▁جلد": 4513,
    "▁تمدن": 4514,
    "▁بازنگری": 4515,
    "▁فروزش": 4516,
    "▁آپارتمان": 4517,
    "▁سارس": 4518,
    "▁زهره": 4519,
    "▁گلایه": 4520,
    "▁ارگ": 4521,
    "▁افکاری": 4522,
    "▁پالاس": 4523,
    "▁مکتب": 4524,
    "▁فرایند": 4525,
    "▁تغذیه": 4526,
    "▁مبدا": 4527,
    "دترا": 4528,
    "▁مواضع": 4529,
    "▁امواج": 4530,
    "▁عصب": 4531,
    "▁پیشکسوت": 4532,
    "▁اکتشاف": 4533,
    "▁کووید۱۹": 4534,
    "▁مدرک": 4535,
    "▁۱۹۹۸": 4536,
    "▁بردارد": 4537,
    "▁۱۹۴۰": 4538,
    "▁حاکمیت": 4539,
    "▁برآمد": 4540,
    "▁ارزشمند": 4541,
    "▁آشام": 4542,
    "▁زنجان": 4543,
    "▁گازی": 4544,
    "▁انحصار": 4545,
    "▁ترافیک": 4546,
    "▁اسنپ": 4547,
    "▁داوری": 4548,
    "▁ایرج": 4549,
    "▁الکل": 4550,
    "▁پررنگ": 4551,
    "▁عاشقانه": 4552,
    "▁لحن": 4553,
    "▁ایراد": 4554,
    "▁حتما": 4555,
    "▁اقبال": 4556,
    "▁مرتضی": 4557,
    "تنها": 4558,
    "▁ثروتمندتر": 4559,
    "دوف": 4560,
    "ساب": 4561,
    "▁دهلی": 4562,
    "▁ستارگان": 4563,
    "▁اسحاق": 4564,
    "▁والدین": 4565,
    "ناشناس": 4566,
    "▁گرسنگ": 4567,
    "▁گویی": 4568,
    "▁جنای": 4569,
    "▁پیتر": 4570,
    "تری": 4571,
    "▁سانتریفیوژهای": 4572,
    "نز": 4573,
    "▁شام": 4574,
    "▁سطو": 4575,
    "▁نمایشنامه": 4576,
    "گفت": 4577,
    "▁روال": 4578,
    "پاتی": 4579,
    "▁شار": 4580,
    "▁دنیاست": 4581,
    "▁زایی": 4582,
    "پرها": 4583,
    "▁نمکی": 4584,
    "▁سفی": 4585,
    "▁قف": 4586,
    "▁سلطانی": 4587,
    "▁گلو": 4588,
    "▁عمران": 4589,
    "خواه": 4590,
    "▁کوبا": 4591,
    "▁تام": 4592,
    "▁عقل": 4593,
    "وخامت": 4594,
    "▁شرم": 4595,
    "کوبی": 4596,
    "ستگی": 4597,
    "▁مندان": 4598,
    "تاسف": 4599,
    "▁هفدهم": 4600,
    "زن": 4601,
    "▁خوانی": 4602,
    "▁خالص": 4603,
    "▁امپراتوری": 4604,
    "▁پاهای": 4605,
    "▁حو": 4606,
    "▁چار": 4607,
    "قات": 4608,
    "▁حام": 4609,
    "▁۸۶": 4610,
    "مو": 4611,
    "▁کاریر": 4612,
    "▁برجا": 4613,
    "۰۰۰": 4614,
    "▁ایکس": 4615,
    "▁ناامید": 4616,
    "▁اتکا": 4617,
    "▁۹۴": 4618,
    "▁پژو": 4619,
    "▁رنجر": 4620,
    "▁دادخواه": 4621,
    "▁تحرک": 4622,
    "▁شهید": 4623,
    "سفر": 4624,
    "اع": 4625,
    "▁انتها": 4626,
    "▁اله": 4627,
    "▁دانشجویی": 4628,
    "یویا": 4629,
    "▁شریف": 4630,
    "درفتار": 4631,
    "▁نمود": 4632,
    "چهار": 4633,
    "▁کیت": 4634,
    "▁غم": 4635,
    "زم": 4636,
    "▁جرا": 4637,
    "▁قرمزها": 4638,
    "▁نظرات": 4639,
    "▁وجو": 4640,
    "▁مقر": 4641,
    "▁ریالی": 4642,
    "▁۷۸": 4643,
    "▁لوکا": 4644,
    "▁گره": 4645,
    "▁الهی": 4646,
    "▁نوآور": 4647,
    "ظن": 4648,
    "▁مقا": 4649,
    "گشایی": 4650,
    "▁استاین": 4651,
    "سیلوا": 4652,
    "▁تاریکی": 4653,
    "سوزی": 4654,
    "کارشناسان": 4655,
    "گفتگو": 4656,
    "صندوق": 4657,
    "خانواده": 4658,
    "مجلس": 4659,
    "▁۶۴": 4660,
    "چرا": 4661,
    "▁نظرهای": 4662,
    "▁فور": 4663,
    "فرج": 4664,
    "وح": 4665,
    "بند": 4666,
    "▁میز": 4667,
    "صالح": 4668,
    "▁خشن": 4669,
    "▁سکت": 4670,
    "برنامه": 4671,
    "▁گار": 4672,
    "▁نویسندگ": 4673,
    "▁خد": 4674,
    "▁خانوار": 4675,
    "▁ژنو": 4676,
    "▁مقدم": 4677,
    "▁معل": 4678,
    "▁مشکات": 4679,
    "▁اتیوپی": 4680,
    "▁تصاحب": 4681,
    "▁جامائیکا": 4682,
    "▁زحمت": 4683,
    "▁فلسفه": 4684,
    "▁ملاحظ": 4685,
    "▁هیأت": 4686,
    "▁پنگوئن": 4687,
    "▁بدخشان": 4688,
    "▁پلامر": 4689,
    "▁ناقض": 4690,
    "▁کالبد": 4691,
    "▁وروورت": 4692,
    "▁رژیم": 4693,
    "▁گازها": 4694,
    "▁پوتین": 4695,
    "▁سوگوار": 4696,
    "▁مثلث": 4697,
    "▁خزان": 4698,
    "▁مولوی": 4699,
    "▁احتیاط": 4700,
    "▁برسند": 4701,
    "▁تایتان": 4702,
    "▁مسترز": 4703,
    "▁شرح": 4704,
    "▁راپینو": 4705,
    "▁آمبول": 4706,
    "▁ارجاع": 4707,
    "▁اپرای": 4708,
    "▁احکام": 4709,
    "▁معالج": 4710,
    "▁حسرت": 4711,
    "▁ماشه": 4712,
    "▁توریست": 4713,
    "▁مزرعه": 4714,
    "▁مرکل": 4715,
    "▁لرز": 4716,
    "▁تکنیک": 4717,
    "▁برشمرد": 4718,
    "▁نارس": 4719,
    "▁۱۹۷۰": 4720,
    "▁۱۹۸۰": 4721,
    "▁آنفیلد": 4722,
    "▁آلزایمر": 4723,
    "▁پرآ": 4724,
    "▁ببرند": 4725,
    "▁لیور": 4726,
    "طرف": 4727,
    "▁دندان": 4728,
    "▁هرمز": 4729,
    "▁قائم": 4730,
    "▁جزایر": 4731,
    "ائیل": 4732,
    "▁سیبری": 4733,
    "▁شاپو": 4734,
    "▁میهمان": 4735,
    "▁نکات": 4736,
    "▁خلوت": 4737,
    "▁تمرینات": 4738,
    "▁انداختند": 4739,
    "▁گرایش": 4740,
    "ذل": 4741,
    "انصراف": 4742,
    "▁مثل": 4743,
    "▁بانکها": 4744,
    "▁شناسند": 4745,
    "باب": 4746,
    "▁ساری": 4747,
    "▁برایم": 4748,
    "▁شون": 4749,
    "▁رایزن": 4750,
    "▁گذارند": 4751,
    "▁ذهنی": 4752,
    "▁گردش": 4753,
    "▁رضایی": 4754,
    "یلی": 4755,
    "▁بدنی": 4756,
    "▁اسکو": 4757,
    "رشد": 4758,
    "رویس": 4759,
    "▁هجدهم": 4760,
    "سلسل": 4761,
    "▁برف": 4762,
    "▁محا": 4763,
    "▁۵۸": 4764,
    "▁زم": 4765,
    "▁دلال": 4766,
    "▁فیلمبردار": 4767,
    "▁بناها": 4768,
    "▁۷۶": 4769,
    "▁لوو": 4770,
    "▁پیر": 4771,
    "▁بگیر": 4772,
    "ایل": 4773,
    "واقع": 4774,
    "▁نزدیکان": 4775,
    "▁بلو": 4776,
    "▁تحقیقی": 4777,
    "▁جاهای": 4778,
    "گیل": 4779,
    "۲۴": 4780,
    "▁موجودی": 4781,
    "لاق": 4782,
    "▁گنجی": 4783,
    "رشاد": 4784,
    "جیغ": 4785,
    "▁کارفرمای": 4786,
    "بهم": 4787,
    "▁وزرای": 4788,
    "اگ": 4789,
    "ندگان": 4790,
    "همه": 4791,
    "▁افتادن": 4792,
    "▁ادوارد": 4793,
    "▁آرزوی": 4794,
    "▁خر": 4795,
    "▁قراردادهای": 4796,
    "▁اصولگرای": 4797,
    "▁شنیدن": 4798,
    "▁وگوی": 4799,
    "▁بارداری": 4800,
    "▁نگر": 4801,
    "شد": 4802,
    "▁سرا": 4803,
    "▁بازنشستگ": 4804,
    "▁ویدئو": 4805,
    "▁بدین": 4806,
    "▁تونس": 4807,
    "▁اجبار": 4808,
    "▁نابود": 4809,
    "▁منطق": 4810,
    "▁په": 4811,
    "بازی": 4812,
    "▁سرگرمی": 4813,
    "▁نمادی": 4814,
    "▁گذراندن": 4815,
    "▁کلم": 4816,
    "▁روم": 4817,
    "▁۴۷": 4818,
    "▁معنا": 4819,
    "▁متیو": 4820,
    "تواند": 4821,
    "▁ذی": 4822,
    "▁نیو": 4823,
    "▁سامان": 4824,
    "▁کوس": 4825,
    "▁آس": 4826,
    "▁استیون": 4827,
    "▁ژو": 4828,
    "▁وث": 4829,
    "وله": 4830,
    "زیه": 4831,
    "غه": 4832,
    "▁میلی": 4833,
    "▁انگل": 4834,
    "لس": 4835,
    "اهید": 4836,
    "شوه": 4837,
    "▁گویا": 4838,
    "▁هرکس": 4839,
    "▁کپ": 4840,
    "▁مالکان": 4841,
    "ضان": 4842,
    "▁۴۱": 4843,
    "ازاد": 4844,
    "▁آلود": 4845,
    "جاد": 4846,
    "خمین": 4847,
    "▁بوی": 4848,
    "صره": 4849,
    "▁پریش": 4850,
    "پذیر": 4851,
    "▁کاف": 4852,
    "ورا": 4853,
    "▁جیل": 4854,
    "محمدجواد": 4855,
    "فدرر": 4856,
    "پرسپولیس": 4857,
    "انتشار": 4858,
    "اقتصاد": 4859,
    "نمایندگان": 4860,
    "همچنین": 4861,
    "دلال": 4862,
    "فلیک": 4863,
    "▁خبرها": 4864,
    "هکرها": 4865,
    "الکس": 4866,
    "▁آنتی": 4867,
    "روسا": 4868,
    "▁احمدشا": 4869,
    "▁دشمن": 4870,
    "روزنامه": 4871,
    "جانب": 4872,
    "حرفه": 4873,
    "▁سلام": 4874,
    "▁دستیار": 4875,
    "▁سانتریفیوژ": 4876,
    "▁پیچ": 4877,
    "▁منصو": 4878,
    "تخا": 4879,
    "▁دستاورد": 4880,
    "▁مشوق": 4881,
    "▁لاس": 4882,
    "▁خراب": 4883,
    "▁مخلو": 4884,
    "▁پائی": 4885,
    "فیلد": 4886,
    "▁تخفیف": 4887,
    "▁تزئین": 4888,
    "▁رستگار": 4889,
    "▁شیکاگو": 4890,
    "▁مستضعفان": 4891,
    "▁پیرامون": 4892,
    "▁کانسپت": 4893,
    "▁الاجل": 4894,
    "▁بوزمن": 4895,
    "▁مسموم": 4896,
    "▁نعمت": 4897,
    "▁الماس": 4898,
    "▁نوازنده": 4899,
    "▁ووهان": 4900,
    "▁پاکبان": 4901,
    "▁خرچنگ": 4902,
    "▁بسیج": 4903,
    "▁تعاون": 4904,
    "▁ارتقا": 4905,
    "▁یخچال": 4906,
    "▁واریز": 4907,
    "▁دردناک": 4908,
    "▁محض": 4909,
    "▁زودهنگام": 4910,
    "▁هواشناسی": 4911,
    "▁نوزاد": 4912,
    "▁ریورا": 4913,
    "▁شرکا": 4914,
    "▁کمبریج": 4915,
    "▁علایم": 4916,
    "▁کولمن": 4917,
    "▁خدایاری": 4918,
    "▁پردرآمد": 4919,
    "▁ارمن": 4920,
    "▁نصیب": 4921,
    "▁مراود": 4922,
    "▁اشعار": 4923,
    "▁توس": 4924,
    "▁ضدحمل": 4925,
    "▁متولی": 4926,
    "▁گواهی": 4927,
    "▁جناح": 4928,
    "تعداد": 4929,
    "▁سرت": 4930,
    "فینیتی": 4931,
    "▁زیدان": 4932,
    "▁اذیت": 4933,
    "▁غلط": 4934,
    "▁۱۴۰": 4935,
    "۹۳": 4936,
    "▁مبالغ": 4937,
    "▁زادگاه": 4938,
    "▁تشری": 4939,
    "▁فهمید": 4940,
    "▁نقص": 4941,
    "▁۱۳۰": 4942,
    "▁صحیح": 4943,
    "▁محکم": 4944,
    "▁نامگذاری": 4945,
    "▁فیزیکدان": 4946,
    "▁شوت": 4947,
    "▁پلاک": 4948,
    "▁دایر": 4949,
    "▁رولینگ": 4950,
    "▁معیارهای": 4951,
    "▁شمایل": 4952,
    "▁خست": 4953,
    "▁فرخ": 4954,
    "▁قبرس": 4955,
    "▁احساسی": 4956,
    "▁شستا": 4957,
    "▁گا": 4958,
    "▁رونالدینیو": 4959,
    "▁پستاندار": 4960,
    "▁مگ": 4961,
    "سرعت": 4962,
    "فنی": 4963,
    "▁دهید": 4964,
    "خان": 4965,
    "▁پیرلو": 4966,
    "▁مواقع": 4967,
    "▁عزیزان": 4968,
    "▁رجب": 4969,
    "▁انتخابی": 4970,
    "▁پناهندگ": 4971,
    "▁اپراتورها": 4972,
    "▁جنر": 4973,
    "▁معوقه": 4974,
    "▁مغول": 4975,
    "▁ماهشهر": 4976,
    "▁پاتر": 4977,
    "▁خلیل": 4978,
    "▁صریح": 4979,
    "▁باگ": 4980,
    "▁انداختن": 4981,
    "▁فضانوردان": 4982,
    "▁کرج": 4983,
    "▁اعظم": 4984,
    "▁خم": 4985,
    "نفتی": 4986,
    "▁رفتارهای": 4987,
    "▁مردگان": 4988,
    "▁ماست": 4989,
    "▁نیاورد": 4990,
    "▁درختان": 4991,
    "▁ایر": 4992,
    "▁گیل": 4993,
    "▁معاین": 4994,
    "▁اد": 4995,
    "▁آرش": 4996,
    "ویک": 4997,
    "▁رساندند": 4998,
    "▁درام": 4999,
    "یزر": 5000,
    "▁شوخی": 5001,
    "▁رویس": 5002,
    "▁دیدم": 5003,
    "اندن": 5004,
    "ویل": 5005,
    "▁روحی": 5006,
    "▁ایوان": 5007,
    "▁پسرش": 5008,
    "وکی": 5009,
    "اطی": 5010,
    "▁محسوس": 5011,
    "▁حفا": 5012,
    "▁پرتر": 5013,
    "▁وظایف": 5014,
    "▁خطی": 5015,
    "▁قطعات": 5016,
    "▁چال": 5017,
    "▁گوی": 5018,
    "▁دن": 5019,
    "▁اوار": 5020,
    "عت": 5021,
    "▁هیولای": 5022,
    "برد": 5023,
    "▁اچ": 5024,
    "▁بقای": 5025,
    "▁بور": 5026,
    "یضا": 5027,
    "▁ژاک": 5028,
    "▁اح": 5029,
    "نگیز": 5030,
    "▁آرزوهای": 5031,
    "▁کودتای": 5032,
    "▁پولی": 5033,
    "▁لوان": 5034,
    "باع": 5035,
    "▁آنهاست": 5036,
    "شتم": 5037,
    "▁صاف": 5038,
    "▁آثارش": 5039,
    "▁بیگ": 5040,
    "▁استرس": 5041,
    "تنوع": 5042,
    "▁شجاع": 5043,
    "▁کنیا": 5044,
    "▁استودیو": 5045,
    "▁وگوهای": 5046,
    "▁۸۳": 5047,
    "خورده": 5048,
    "نور": 5049,
    "رایش": 5050,
    "شماری": 5051,
    "▁عزیز": 5052,
    "▁امت": 5053,
    "▁تم": 5054,
    "▁باقر": 5055,
    "▁زخم": 5056,
    "▁پهلو": 5057,
    "▁میلاد": 5058,
    "▁پلی": 5059,
    "▁هستی": 5060,
    "▁فروشند": 5061,
    "ارو": 5062,
    "شو": 5063,
    "▁۶۵۰": 5064,
    "▁۸۹": 5065,
    "خته": 5066,
    "▁داوی": 5067,
    "▁ردیاب": 5068,
    "▁آندری": 5069,
    "▁ذ": 5070,
    "▁چشمان": 5071,
    "▁۱۸۰": 5072,
    "▁گرفتم": 5073,
    "▁سوگ": 5074,
    "۶۰": 5075,
    "▁استاندارد": 5076,
    "▁قبر": 5077,
    "عشی": 5078,
    "▁سرف": 5079,
    "سابقه": 5080,
    "مندان": 5081,
    "ملک": 5082,
    "▁شانزده": 5083,
    "شنا": 5084,
    "دوست": 5085,
    "شت": 5086,
    "▁سوری": 5087,
    "▁۵۱": 5088,
    "▁مضر": 5089,
    "عارض": 5090,
    "رافائل": 5091,
    "تصاویر": 5092,
    "دونالد": 5093,
    "آژانس": 5094,
    "عادت": 5095,
    "▁گال": 5096,
    "نال": 5097,
    "مدت": 5098,
    "بورس": 5099,
    "مول": 5100,
    "صرف": 5101,
    "دریچ": 5102,
    "لف": 5103,
    "▁مول": 5104,
    "هادی": 5105,
    "تار": 5106,
    "▁انوش": 5107,
    "▁همتای": 5108,
    "▁علاقمند": 5109,
    "غیب": 5110,
    "▁همر": 5111,
    "▁معلم": 5112,
    "▁ژن": 5113,
    "▁بوفالو": 5114,
    "رچند": 5115,
    "▁عضلا": 5116,
    "▁خاشق": 5117,
    "▁ندارم": 5118,
    "▁آلومینیوم": 5119,
    "▁اسراییل": 5120,
    "▁ایوانکوویچ": 5121,
    "▁دگرگون": 5122,
    "▁سرتاسر": 5123,
    "▁غرامت": 5124,
    "▁فزاینده": 5125,
    "▁پروتئین": 5126,
    "▁پومپئو": 5127,
    "▁بسازد": 5128,
    "▁رئوف": 5129,
    "▁ربیعی": 5130,
    "▁محترم": 5131,
    "▁مستاجر": 5132,
    "▁نامناسب": 5133,
    "▁اپیدمی": 5134,
    "▁تفکیک": 5135,
    "▁وگاس": 5136,
    "▁ویتنام": 5137,
    "▁تعزیری": 5138,
    "▁هوندا": 5139,
    "رطوب": 5140,
    "▁البرز": 5141,
    "▁عواقب": 5142,
    "▁گیگز": 5143,
    "▁رمزارز": 5144,
    "▁خیام": 5145,
    "▁قضاوت": 5146,
    "▁سرماخورد": 5147,
    "▁خاشقچی": 5148,
    "▁لگن": 5149,
    "▁مارسیال": 5150,
    "▁ندهد": 5151,
    "▁مکلف": 5152,
    "ازی": 5153,
    "▁بگذارند": 5154,
    "اطم": 5155,
    "▁وودز": 5156,
    "▁۱۳۹۶": 5157,
    "▁استفانو": 5158,
    "تناب": 5159,
    "▁بیافتد": 5160,
    "▁مارچ": 5161,
    "▁عصبانی": 5162,
    "▁دوستداران": 5163,
    "▁ژیمناست": 5164,
    "▁انستیتو": 5165,
    "▁جونیور": 5166,
    "▁ولد": 5167,
    "▁فروغ": 5168,
    "▁روانشناس": 5169,
    "▁عقاب": 5170,
    "▁تلفات": 5171,
    "▁ژنرا": 5172,
    "▁جزییات": 5173,
    "▁شناگر": 5174,
    "▁سازندگان": 5175,
    "▁۱۹۶": 5176,
    "▁معاد": 5177,
    "▁تهاجمی": 5178,
    "▁استونز": 5179,
    "▁سرشار": 5180,
    "▁نگفت": 5181,
    "▁مباد": 5182,
    "ئوری": 5183,
    "▁نژادپرستانه": 5184,
    "▁دیدیم": 5185,
    "▁معاش": 5186,
    "▁امریکا": 5187,
    "▁قفس": 5188,
    "ائم": 5189,
    "▁رامش": 5190,
    "▁پرستاران": 5191,
    "نشین": 5192,
    "▁شایست": 5193,
    "▁کارتو": 5194,
    "▁کتک": 5195,
    "▁رحمت": 5196,
    "▁نهفته": 5197,
    "▁باورن": 5198,
    "▁ناوگان": 5199,
    "▁گردید": 5200,
    "▁فیلیپین": 5201,
    "وژه": 5202,
    "▁گردانند": 5203,
    "▁لخت": 5204,
    "▁گردند": 5205,
    "▁برعکس": 5206,
    "▁پویا": 5207,
    "وپن": 5208,
    "▁جفت": 5209,
    "سخ": 5210,
    "▁یوو": 5211,
    "▁موهای": 5212,
    "▁کارگروه": 5213,
    "واشی": 5214,
    "آقازاده": 5215,
    "▁دنیل": 5216,
    "▁رایگان": 5217,
    "▁رانت": 5218,
    "احی": 5219,
    "▁۵۴": 5220,
    "رالله": 5221,
    "▁کینگ": 5222,
    "▁گزینش": 5223,
    "▁مض": 5224,
    "▁سپید": 5225,
    "▁هادی": 5226,
    "▁سکسک": 5227,
    "▁تهدیدهای": 5228,
    "۲۹": 5229,
    "▁افق": 5230,
    "▁گروگانگیر": 5231,
    "▁ماندند": 5232,
    "▁امتیازات": 5233,
    "▁تحریمها": 5234,
    "▁کالای": 5235,
    "حریم": 5236,
    "رود": 5237,
    "▁لوف": 5238,
    "▁ساسانی": 5239,
    "▁یگان": 5240,
    "خت": 5241,
    "▁جولی": 5242,
    "حلال": 5243,
    "▁تراز": 5244,
    "خوان": 5245,
    "▁ماس": 5246,
    "▁کلور": 5247,
    "زنی": 5248,
    "۴۶": 5249,
    "▁مرادی": 5250,
    "▁بخشید": 5251,
    "▁بازوی": 5252,
    "▁دادیم": 5253,
    "▁روزبه": 5254,
    "▁شغلی": 5255,
    "یکپا": 5256,
    "▁کد": 5257,
    "▁ات": 5258,
    "▁بینید": 5259,
    "▁درانی": 5260,
    "قه": 5261,
    "▁کلیسای": 5262,
    "سیو": 5263,
    "▁رش": 5264,
    "▁مدتها": 5265,
    "▁ولا": 5266,
    "▁یاب": 5267,
    "▁باختری": 5268,
    "▁فال": 5269,
    "لاله": 5270,
    "▁حاجی": 5271,
    "▁۶۳": 5272,
    "راق": 5273,
    "ابلو": 5274,
    "▁رنگین": 5275,
    "سوم": 5276,
    "▁۹۲": 5277,
    "امضاکنندگان": 5278,
    "▁وارن": 5279,
    "▁عالم": 5280,
    "▁ریوی": 5281,
    "جمه": 5282,
    "▁معیشت": 5283,
    "▁سرگرم": 5284,
    "کید": 5285,
    "▁طب": 5286,
    "▁حرا": 5287,
    "ائو": 5288,
    "▁شع": 5289,
    "▁کیا": 5290,
    "ضی": 5291,
    "▁برفی": 5292,
    "سول": 5293,
    "رمد": 5294,
    "▁رایان": 5295,
    "▁مهندسی": 5296,
    "خبر": 5297,
    "▁ولت": 5298,
    "ائل": 5299,
    "نیف": 5300,
    "▁زانوی": 5301,
    "▁دانشجوی": 5302,
    "▁۱۷۶": 5303,
    "▁کوش": 5304,
    "▁بازیار": 5305,
    "پانی": 5306,
    "▁شاپ": 5307,
    "▁سنج": 5308,
    "▁بلی": 5309,
    "▁مجرم": 5310,
    "برگزار": 5311,
    "▁پذیرفت": 5312,
    "نوردی": 5313,
    "اندر": 5314,
    "▁تصویربردار": 5315,
    "▁بله": 5316,
    "▁گودا": 5317,
    "▁سازه": 5318,
    "▁اینجا": 5319,
    "یامک": 5320,
    "▁سیا": 5321,
    "کارآمد": 5322,
    "▁وات": 5323,
    "▁پیری": 5324,
    "بزرگ": 5325,
    "یونایتد": 5326,
    "همیلتون": 5327,
    "راجر": 5328,
    "اطلاعات": 5329,
    "آغاز": 5330,
    "چشم": 5331,
    "واکنش": 5332,
    "▁خوار": 5333,
    "▁آشنای": 5334,
    "ویکتور": 5335,
    "انتخابات": 5336,
    "خط": 5337,
    "فعالان": 5338,
    "▁میرزا": 5339,
    "جمعیت": 5340,
    "کرونا": 5341,
    "▁۶۲": 5342,
    "هشدار": 5343,
    "لوب": 5344,
    "روس": 5345,
    "▁کاران": 5346,
    "دالله": 5347,
    "رهبر": 5348,
    "▁اسل": 5349,
    "فرنو": 5350,
    "سلط": 5351,
    "▁پناه": 5352,
    "▁ندانست": 5353,
    "▁نادری": 5354,
    "▁کوبید": 5355,
    "▁رخداد": 5356,
    "یانت": 5357,
    "▁اشکال": 5358,
    "▁۸۷": 5359,
    "▁خلاق": 5360,
    "▁بوئن": 5361,
    "▁آشپز": 5362,
    "▁آبراموویچ": 5363,
    "▁بوچانی": 5364,
    "▁جاپلقی": 5365,
    "▁لاجورد": 5366,
    "▁کارداشیان": 5367,
    "▁کامبوج": 5368,
    "▁کرگدن": 5369,
    "▁یونسکو": 5370,
    "▁بفروشند": 5371,
    "▁مظنون": 5372,
    "▁آویو": 5373,
    "▁بشردوستانه": 5374,
    "▁حاتمی": 5375,
    "▁قسط": 5376,
    "▁فطر": 5377,
    "▁مصیبت": 5378,
    "▁انباشت": 5379,
    "▁بفتا": 5380,
    "▁گریبان": 5381,
    "▁تکامل": 5382,
    "▁بذر": 5383,
    "▁تضاد": 5384,
    "▁کاشف": 5385,
    "▁فرسایش": 5386,
    "▁مونتاژ": 5387,
    "▁متوفی": 5388,
    "▁گاگا": 5389,
    "▁موعد": 5390,
    "▁پاراگوئه": 5391,
    "▁اشنویه": 5392,
    "▁روشنفکر": 5393,
    "▁سنگاپور": 5394,
    "▁جواهر": 5395,
    "▁قزاقستان": 5396,
    "▁فحش": 5397,
    "▁حرارت": 5398,
    "▁زیارت": 5399,
    "▁گردنبند": 5400,
    "▁توئیت": 5401,
    "▁پرشور": 5402,
    "▁۱۹۷۳": 5403,
    "▁بنجام": 5404,
    "▁یوسف": 5405,
    "▁شفا": 5406,
    "▁نپال": 5407,
    "ئرنیک": 5408,
    "تینو": 5409,
    "▁۱۹۶۶": 5410,
    "▁شیفت": 5411,
    "▁خردسال": 5412,
    "▁ترانزیت": 5413,
    "▁کوپا": 5414,
    "▁وادار": 5415,
    "▁۱۹۶۷": 5416,
    "▁باشم": 5417,
    "▁تبعید": 5418,
    "▁مسن": 5419,
    "▁کفتر": 5420,
    "▁کلینیک": 5421,
    "▁بتهوون": 5422,
    "▁متحدان": 5423,
    "▁قورباغه": 5424,
    "▁آوازخوان": 5425,
    "▁هشتصد": 5426,
    "▁ذات": 5427,
    "بپرس": 5428,
    "▁سولو": 5429,
    "▁کوپتر": 5430,
    "▁جمشید": 5431,
    "▁مایع": 5432,
    "▁خوشبخت": 5433,
    "▁فتاح": 5434,
    "▁ماهیچه": 5435,
    "گبا": 5436,
    "▁مطالبات": 5437,
    "▁۲۰۰۶": 5438,
    "▁زنگ": 5439,
    "▁درخشید": 5440,
    "▁نامجو": 5441,
    "▁قارچ": 5442,
    "▁جعفر": 5443,
    "▁حفر": 5444,
    "▁شعارهای": 5445,
    "▁گناه": 5446,
    "ابق": 5447,
    "▁تیتر": 5448,
    "▁معین": 5449,
    "▁ادارات": 5450,
    "▁صبا": 5451,
    "کت": 5452,
    "▁خوشحالم": 5453,
    "▁درشت": 5454,
    "▁شیع": 5455,
    "▁حرم": 5456,
    "▁سبد": 5457,
    "▁متروکه": 5458,
    "▁کثیر": 5459,
    "▁متخلفان": 5460,
    "▁مستندساز": 5461,
    "▁آدام": 5462,
    "ازما": 5463,
    "▁اقیانوسیه": 5464,
    "تشکر": 5465,
    "▁نخب": 5466,
    "▁وض": 5467,
    "▁کمپ": 5468,
    "شا": 5469,
    "▁پادمان": 5470,
    "▁ابو": 5471,
    "▁وحشت": 5472,
    "▁نشانگر": 5473,
    "▁محرک": 5474,
    "▁دیسک": 5475,
    "▁ممیز": 5476,
    "▁مانند": 5477,
    "▁سهامدار": 5478,
    "پتون": 5479,
    "▁ادل": 5480,
    "▁وکلای": 5481,
    "امین": 5482,
    "▁نداشتم": 5483,
    "▁باختند": 5484,
    "علت": 5485,
    "▁کوهن": 5486,
    "▁دایی": 5487,
    "▁گرجستانی": 5488,
    "▁چرخش": 5489,
    "پوچ": 5490,
    "وظ": 5491,
    "▁بشریت": 5492,
    "لای": 5493,
    "▁نگارش": 5494,
    "▁نوشتند": 5495,
    "▁بصر": 5496,
    "▁مسیری": 5497,
    "▁سومو": 5498,
    "▁لیست": 5499,
    "مسی": 5500,
    "▁ریو": 5501,
    "▁برهم": 5502,
    "▁رز": 5503,
    "▁کوما": 5504,
    "ادا": 5505,
    "جیب": 5506,
    "▁چارل": 5507,
    "ارتوم": 5508,
    "▁مولان": 5509,
    "رات": 5510,
    "▁اتو": 5511,
    "▁اراد": 5512,
    "▁پانزدهم": 5513,
    "▁مبا": 5514,
    "▁پوک": 5515,
    "بالغ": 5516,
    "جیک": 5517,
    "▁بروم": 5518,
    "ودی": 5519,
    "ملو": 5520,
    "▁رقبای": 5521,
    "▁اق": 5522,
    "تیو": 5523,
    "▁هول": 5524,
    "یاس": 5525,
    "▁کلر": 5526,
    "▁خدای": 5527,
    "گذار": 5528,
    "بریتی": 5529,
    "▁سیر": 5530,
    "الیاس": 5531,
    "ماتیک": 5532,
    "روسیا": 5533,
    "▁گدا": 5534,
    "▁دوش": 5535,
    "اسکو": 5536,
    "▁هشدارهای": 5537,
    "▁اکبری": 5538,
    "▁شادی": 5539,
    "آفرین": 5540,
    "▁۸۱": 5541,
    "▁دادم": 5542,
    "▁برپا": 5543,
    "▁پرید": 5544,
    "روح": 5545,
    "▁بازرگان": 5546,
    "▁گفتن": 5547,
    "▁رفتم": 5548,
    "▁ماریا": 5549,
    "سرین": 5550,
    "▁آف": 5551,
    "▁قوت": 5552,
    "▁گرمی": 5553,
    "گن": 5554,
    "▁توفیق": 5555,
    "▁الس": 5556,
    "▁نیکل": 5557,
    "▁لطف": 5558,
    "گوف": 5559,
    "▁دزد": 5560,
    "حل": 5561,
    "▁ژی": 5562,
    "وزن": 5563,
    "▁محو": 5564,
    "▁شاد": 5565,
    "▁۸۴": 5566,
    "▁سروده": 5567,
    "▁رکوردهای": 5568,
    "ماری": 5569,
    "▁رکوردها": 5570,
    "▁غل": 5571,
    "قرب": 5572,
    "▁نیافت": 5573,
    "▁کریم": 5574,
    "فون": 5575,
    "فع": 5576,
    "▁نما": 5577,
    "شک": 5578,
    "▁سرما": 5579,
    "▁هرد": 5580,
    "▁درز": 5581,
    "▁فورا": 5582,
    "▁حدادی": 5583,
    "▁بت": 5584,
    "▁کمتری": 5585,
    "▁اعت": 5586,
    "زمینی": 5587,
    "▁مال": 5588,
    "▁ضر": 5589,
    "صدایی": 5590,
    "ردن": 5591,
    "▁بون": 5592,
    "پول": 5593,
    "▁۳۲۰": 5594,
    "نش": 5595,
    "▁۱۸۵": 5596,
    "کسر": 5597,
    "▁منجم": 5598,
    "فظ": 5599,
    "فرگوس": 5600,
    "▁تیره": 5601,
    "سلیم": 5602,
    "▁شکستن": 5603,
    "▁بزرگان": 5604,
    "بانی": 5605,
    "ضرر": 5606,
    "انجمن": 5607,
    "دفتر": 5608,
    "مارادونا": 5609,
    "مسابقات": 5610,
    "تصمیم": 5611,
    "موسس": 5612,
    "کسل": 5613,
    "چلسی": 5614,
    "تصور": 5615,
    "داستان": 5616,
    "ترکیه": 5617,
    "نخست": 5618,
    "تلاش": 5619,
    "نشست": 5620,
    "پاش": 5621,
    "جامع": 5622,
    "▁شرمن": 5623,
    "عفون": 5624,
    "رایان": 5625,
    "ویش": 5626,
    "▁الع": 5627,
    "▁گوهر": 5628,
    "▁افتتاحی": 5629,
    "▁سینو": 5630,
    "رتر": 5631,
    "▁۱۱۰": 5632,
    "▁پیشگام": 5633,
    "▁کشمی": 5634,
    "▁کنی": 5635,
    "▁تندی": 5636,
    "لقو": 5637,
    "▁بهانه": 5638,
    "▁فقی": 5639,
    "▁تولیدکنند": 5640,
    "اتور": 5641,
    "▁جس": 5642,
    "موج": 5643,
    "ادین": 5644,
    "▁چسب": 5645,
    "▁ابداع": 5646,
    "▁تسهیل": 5647,
    "ویچ": 5648,
    "▁کانت": 5649,
    "▁موزیک": 5650,
    "▁اقتدار": 5651,
    "▁آغداشلو": 5652,
    "▁اعصاب": 5653,
    "▁الگوریتم": 5654,
    "▁تلسکوپ": 5655,
    "▁زاکربرگ": 5656,
    "▁مائوریت": 5657,
    "▁معتمد": 5658,
    "▁گلمکانی": 5659,
    "▁بلانشت": 5660,
    "▁مسوول": 5661,
    "▁ژس": 5662,
    "تصاعد": 5663,
    "▁طناب": 5664,
    "▁کاندیدا": 5665,
    "▁محتوی": 5666,
    "▁نجوا": 5667,
    "▁پرایس": 5668,
    "▁ابرنواختر": 5669,
    "▁یهودی": 5670,
    "▁زاکانی": 5671,
    "▁باکتری": 5672,
    "▁بخرد": 5673,
    "▁جاودان": 5674,
    "▁آنکارا": 5675,
    "▁آژیر": 5676,
    "▁آموزگار": 5677,
    "▁واگیر": 5678,
    "▁قبیل": 5679,
    "▁سلتیک": 5680,
    "▁قاتل": 5681,
    "▁بارچا": 5682,
    "▁رخشانه": 5683,
    "▁خزر": 5684,
    "▁۱۳۹۰": 5685,
    "▁شوهر": 5686,
    "▁مبارک": 5687,
    "▁علوی": 5688,
    "خانقا": 5689,
    "▁بدهکار": 5690,
    "▁هجر": 5691,
    "▁داوود": 5692,
    "▁مستعار": 5693,
    "▁مسترد": 5694,
    "▁اکسید": 5695,
    "▁دشت": 5696,
    "▁نارضای": 5697,
    "▁گردهم": 5698,
    "▁صید": 5699,
    "▁آث": 5700,
    "▁ابولا": 5701,
    "▁محف": 5702,
    "▁سولشر": 5703,
    "▁تأسیس": 5704,
    "▁ناپولی": 5705,
    "▁عسل": 5706,
    "ومبل": 5707,
    "▁افزاید": 5708,
    "طبی": 5709,
    "▁بدانند": 5710,
    "▁نامشخص": 5711,
    "▁بزن": 5712,
    "▁گرامی": 5713,
    "▁پابند": 5714,
    "▁اقامتگاه": 5715,
    "▁حبیب": 5716,
    "▁طبع": 5717,
    "▁بارز": 5718,
    "▁کلمات": 5719,
    "▁فروشندگان": 5720,
    "▁شیمی": 5721,
    "مزمن": 5722,
    "▁منکر": 5723,
    "▁ژور": 5724,
    "▁تعویض": 5725,
    "پائولو": 5726,
    "▁کادیس": 5727,
    "▁سانتو": 5728,
    "▁تبریک": 5729,
    "▁اشخاص": 5730,
    "▁کنزو": 5731,
    "▁تصدی": 5732,
    "▁بگویند": 5733,
    "▁تدری": 5734,
    "▁جرج": 5735,
    "▁مخصوصا": 5736,
    "▁مانور": 5737,
    "فلاتو": 5738,
    "▁سفت": 5739,
    "▁یزد": 5740,
    "▁جیپ": 5741,
    "▁اقتصاددان": 5742,
    "▁کشتند": 5743,
    "▁مبت": 5744,
    "▁گوییم": 5745,
    "▁درآمدزا": 5746,
    "▁مورل": 5747,
    "▁پوشان": 5748,
    "▁اندرکاران": 5749,
    "▁ویدیوهای": 5750,
    "▁خریده": 5751,
    "▁کولبر": 5752,
    "▁ندادن": 5753,
    "▁حضرت": 5754,
    "▁گیت": 5755,
    "▁گدار": 5756,
    "▁دیابت": 5757,
    "▁آرمان": 5758,
    "مانیا": 5759,
    "▁کلیپ": 5760,
    "▁قاعد": 5761,
    "▁سینماگران": 5762,
    "▁کریر": 5763,
    "▁یاوری": 5764,
    "شما": 5765,
    "▁دانشگر": 5766,
    "▁نامعلوم": 5767,
    "▁گویم": 5768,
    "▁فیروز": 5769,
    "اید": 5770,
    "بینند": 5771,
    "▁ارگان": 5772,
    "▁نهایتا": 5773,
    "▁طل": 5774,
    "۶۳": 5775,
    "▁پیامک": 5776,
    "طل": 5777,
    "▁علما": 5778,
    "▁کشتن": 5779,
    "▁پینگ": 5780,
    "▁فرزندش": 5781,
    "▁شعبان": 5782,
    "دین": 5783,
    "▁سالیانه": 5784,
    "کاران": 5785,
    "قبل": 5786,
    "▁گذاشتند": 5787,
    "▁گرفتیم": 5788,
    "▁خش": 5789,
    "▁خواندند": 5790,
    "▁کیس": 5791,
    "لندر": 5792,
    "▁اسپورت": 5793,
    "▁کامپیوترها": 5794,
    "▁نشدند": 5795,
    "▁بازجوی": 5796,
    "▁اشت": 5797,
    "▁نگرفت": 5798,
    "▁ریگ": 5799,
    "تاج": 5800,
    "▁قان": 5801,
    "▁جراحت": 5802,
    "▁آوا": 5803,
    "▁اصلاحی": 5804,
    "▁قطعا": 5805,
    "▁صمیمی": 5806,
    "▁بورگ": 5807,
    "۹۹": 5808,
    "▁یخی": 5809,
    "۱۷": 5810,
    "ندرت": 5811,
    "اپ": 5812,
    "▁دوج": 5813,
    "▁برگردانده": 5814,
    "ارسل": 5815,
    "سام": 5816,
    "▁پاد": 5817,
    "▁آموخت": 5818,
    "▁نیافته": 5819,
    "▁تابو": 5820,
    "سپ": 5821,
    "کمی": 5822,
    "نمای": 5823,
    "▁محب": 5824,
    "جن": 5825,
    "▁رامی": 5826,
    "▁کج": 5827,
    "▁هراس": 5828,
    "▁بیم": 5829,
    "▁لن": 5830,
    "تاب": 5831,
    "▁جور": 5832,
    "▁گرمای": 5833,
    "▁عمدی": 5834,
    "▁خاوری": 5835,
    "بویایی": 5836,
    "▁الن": 5837,
    "▁آرت": 5838,
    "▁نوین": 5839,
    "▁ماخ": 5840,
    "▁دژ": 5841,
    "▁همب": 5842,
    "▁فرحی": 5843,
    "▁هانس": 5844,
    "▁کلاین": 5845,
    "▁ریخته": 5846,
    "▁دول": 5847,
    "▁مهد": 5848,
    "▁درگذشته": 5849,
    "▁لید": 5850,
    "▁اصطلاحا": 5851,
    "▁جنگند": 5852,
    "راتی": 5853,
    "▁مدد": 5854,
    "▁پرستار": 5855,
    "شش": 5856,
    "لیون": 5857,
    "اکثریت": 5858,
    "حق": 5859,
    "▁نیت": 5860,
    "▁استادان": 5861,
    "▁عظیمی": 5862,
    "▁مسیح": 5863,
    "▁رس": 5864,
    "قو": 5865,
    "▁خوابی": 5866,
    "سران": 5867,
    "▁پذیری": 5868,
    "▁مزای": 5869,
    "گوئر": 5870,
    "خون": 5871,
    "▁پیگیر": 5872,
    "▁قاسمی": 5873,
    "آور": 5874,
    "▁فرح": 5875,
    "▁عل": 5876,
    "▁شست": 5877,
    "▁وگوها": 5878,
    "▁بازگو": 5879,
    "▁فرضی": 5880,
    "▁ون": 5881,
    "▁بخشهای": 5882,
    "بیه": 5883,
    "دنظر": 5884,
    "▁دانا": 5885,
    "رای": 5886,
    "بیست": 5887,
    "▁لک": 5888,
    "گارت": 5889,
    "ارت": 5890,
    "کانا": 5891,
    "کان": 5892,
    "ظه": 5893,
    "دید": 5894,
    "▁اخ": 5895,
    "▁میلیاردر": 5896,
    "▁کامپیوتری": 5897,
    "تور": 5898,
    "▁بازدیدکنند": 5899,
    "▁خواستم": 5900,
    "یکون": 5901,
    "▁مدرس": 5902,
    "ادیو": 5903,
    "▁جانش": 5904,
    "▁اب": 5905,
    "نگره": 5906,
    "▁بطر": 5907,
    "بخشی": 5908,
    "▁کروناست": 5909,
    "جک": 5910,
    "گروهی": 5911,
    "یافته": 5912,
    "ساله": 5913,
    "طرح": 5914,
    "▁هیل": 5915,
    "لیگ": 5916,
    "مجتب": 5917,
    "منازع": 5918,
    "خوشایند": 5919,
    "پزشک": 5920,
    "منتقدان": 5921,
    "تایسون": 5922,
    "سفارت": 5923,
    "آلمان": 5924,
    "حضور": 5925,
    "بریتانیا": 5926,
    "موسیقی": 5927,
    "اعلام": 5928,
    "کلوپ": 5929,
    "نقاشی": 5930,
    "تحقیقات": 5931,
    "کاهش": 5932,
    "چال": 5933,
    "▁استیو": 5934,
    "▁میلو": 5935,
    "اور": 5936,
    "▁نزدیکتر": 5937,
    "▁فرانسیس": 5938,
    "▁شهرک": 5939,
    "دیمیر": 5940,
    "یاق": 5941,
    "▁راکت": 5942,
    "قصد": 5943,
    "مرد": 5944,
    "▁نوا": 5945,
    "آمریکایی": 5946,
    "شیپ": 5947,
    "مقامات": 5948,
    "▁بزو": 5949,
    "▁اندرکار": 5950,
    "▁سیاستمدار": 5951,
    "نگا": 5952,
    "سئول": 5953,
    "▁فهم": 5954,
    "▁پیمانکار": 5955,
    "▁خویش": 5956,
    "▁انصاری": 5957,
    "▁اصالت": 5958,
    "▁سینماگر": 5959,
    "▁متغیر": 5960,
    "▁جزئی": 5961,
    "▁تعمیر": 5962,
    "▁مخاطب": 5963,
    "کینگ": 5964,
    "▁تخل": 5965,
    "▁گوسفند": 5966,
    "▁انیمیشن": 5967,
    "▁اوربیتر": 5968,
    "▁بلایندرز": 5969,
    "▁جغرافیای": 5970,
    "▁خنثی": 5971,
    "▁رفسنجان": 5972,
    "▁جاذبه": 5973,
    "▁اسپایدر": 5974,
    "▁سانتیمتر": 5975,
    "▁ناچیز": 5976,
    "▁مستثن": 5977,
    "▁مضاعف": 5978,
    "▁منظم": 5979,
    "▁اختراع": 5980,
    "▁دفاتر": 5981,
    "▁تجدد": 5982,
    "▁خودکفا": 5983,
    "▁مقتدر": 5984,
    "▁بلغارستان": 5985,
    "▁برگردیم": 5986,
    "▁آهسته": 5987,
    "▁کومله": 5988,
    "▁مینیاتور": 5989,
    "▁پیمود": 5990,
    "▁عنصر": 5991,
    "▁فرنود": 5992,
    "▁تورنتو": 5993,
    "▁تقلب": 5994,
    "▁کفایت": 5995,
    "گشاد": 5996,
    "▁لشگر": 5997,
    "▁ذیبخش": 5998,
    "▁یادگار": 5999,
    "▁وکارها": 6000,
    "▁اسعد": 6001,
    "▁کبد": 6002,
    "▁رغبت": 6003,
    "▁عروق": 6004,
    "▁بنتلی": 6005,
    "▁هلمند": 6006,
    "▁مخرب": 6007,
    "▁آرتتا": 6008,
    "▁قاعدتا": 6009,
    "▁تجدیدنظر": 6010,
    "▁جادوی": 6011,
    "▁قدردان": 6012,
    "▁بیاورند": 6013,
    "▁ندهند": 6014,
    "▁اینفانتی": 6015,
    "▁سیگار": 6016,
    "▁آلایند": 6017,
    "▁گسل": 6018,
    "ارومیه": 6019,
    "▁خانمان": 6020,
    "▁تربیت": 6021,
    "▁تنگنا": 6022,
    "▁ثا": 6023,
    "▁کلکسیون": 6024,
    "▁گهر": 6025,
    "▁موکل": 6026,
    "▁گیتار": 6027,
    "▁سردرگم": 6028,
    "▁سیگنال": 6029,
    "▁اخترشناس": 6030,
    "▁آغوش": 6031,
    "▁فریب": 6032,
    "▁مساحت": 6033,
    "▁نشوند": 6034,
    "▁۱۳۵۰": 6035,
    "▁منقل": 6036,
    "▁بکند": 6037,
    "▁حشر": 6038,
    "▁حاد": 6039,
    "▁بغلان": 6040,
    "▁پابرجاست": 6041,
    "▁دبیرستان": 6042,
    "▁تعلیم": 6043,
    "▁ربای": 6044,
    "▁ضوابط": 6045,
    "ضب": 6046,
    "▁کارولین": 6047,
    "▁آرایشگاه": 6048,
    "▁پردازند": 6049,
    "▁بالگرد": 6050,
    "▁القا": 6051,
    "▁شانگ": 6052,
    "▁اسمیت": 6053,
    "▁لیتر": 6054,
    "▁بخواهی": 6055,
    "▁حکیم": 6056,
    "▁بگوید": 6057,
    "زادگان": 6058,
    "نیروی": 6059,
    "▁گودال": 6060,
    "▁استقراض": 6061,
    "▁کدخدایی": 6062,
    "ستانگ": 6063,
    "بیح": 6064,
    "▁پارکور": 6065,
    "▁غیبت": 6066,
    "▁نشدنی": 6067,
    "▁کوشید": 6068,
    "▁ازسر": 6069,
    "▁هیچکس": 6070,
    "▁رسن": 6071,
    "▁شوق": 6072,
    "تراشه": 6073,
    "▁سادگی": 6074,
    "میلیون": 6075,
    "▁دوتار": 6076,
    "▁استقامت": 6077,
    "▁منک": 6078,
    "▁گاو": 6079,
    "▁یابند": 6080,
    "▁دینی": 6081,
    "▁رائو": 6082,
    "▁دستیاران": 6083,
    "▁گیلان": 6084,
    "▁خیز": 6085,
    "▁عمیقا": 6086,
    "▁بیانسه": 6087,
    "▁امری": 6088,
    "قدرت": 6089,
    "▁فابی": 6090,
    "▁هک": 6091,
    "▁کامیاب": 6092,
    "▁شکوه": 6093,
    "▁مرت": 6094,
    "▁کانادایی": 6095,
    "▁پیشگامان": 6096,
    "دخت": 6097,
    "▁ساید": 6098,
    "باد": 6099,
    "▁اشتباهات": 6100,
    "▁زلا": 6101,
    "درون": 6102,
    "▁سکو": 6103,
    "▁عطا": 6104,
    "▁کلدی": 6105,
    "واز": 6106,
    "▁گیم": 6107,
    "جوزپ": 6108,
    "▁دوید": 6109,
    "▁مهندسان": 6110,
    "▁نبو": 6111,
    "▁هولم": 6112,
    "▁آرم": 6113,
    "▁اختیارات": 6114,
    "▁کارتون": 6115,
    "▁پیداست": 6116,
    "▁پسند": 6117,
    "سیما": 6118,
    "فتن": 6119,
    "▁سیمون": 6120,
    "ستند": 6121,
    "اراک": 6122,
    "▁کیلی": 6123,
    "۷۵": 6124,
    "▁هوشیاری": 6125,
    "▁یوس": 6126,
    "▁نر": 6127,
    "▁عکاسان": 6128,
    "▁کاوه": 6129,
    "▁رج": 6130,
    "▁برگرداند": 6131,
    "▁اینستاگرامش": 6132,
    "حصول": 6133,
    "▁تبع": 6134,
    "▁هامون": 6135,
    "▁شکستگی": 6136,
    "▁کشیدند": 6137,
    "▁ضیا": 6138,
    "▁نیستیم": 6139,
    "▁گرما": 6140,
    "▁سرمای": 6141,
    "وپ": 6142,
    "اردو": 6143,
    "▁فتحی": 6144,
    "امید": 6145,
    "▁سردار": 6146,
    "▁نیکولا": 6147,
    "شدن": 6148,
    "اویر": 6149,
    "▁اروپاست": 6150,
    "▁مزایای": 6151,
    "ایدو": 6152,
    "▁ساختند": 6153,
    "▁صدد": 6154,
    "▁مصر": 6155,
    "دلیل": 6156,
    "▁پشتو": 6157,
    "جهان": 6158,
    "وحید": 6159,
    "▁بایر": 6160,
    "▁۷۹": 6161,
    "▁مینا": 6162,
    "▁معمای": 6163,
    "▁بگذاری": 6164,
    "▁آنا": 6165,
    "▁راستش": 6166,
    "۲۸": 6167,
    "▁درمی": 6168,
    "▁ناک": 6169,
    "▁منظره": 6170,
    "▁شیوا": 6171,
    "▁۴۵۰": 6172,
    "کام": 6173,
    "▁ارت": 6174,
    "ومی": 6175,
    "▁ساع": 6176,
    "▁نیکلا": 6177,
    "▁برگزارکنند": 6178,
    "▁کلاه": 6179,
    "▁برنا": 6180,
    "▁عفون": 6181,
    "▁پاش": 6182,
    "▁راد": 6183,
    "▁درآمده": 6184,
    "▁الی": 6185,
    "۸۹": 6186,
    "▁دیوانه": 6187,
    "▁مصل": 6188,
    "▁سیری": 6189,
    "▁بدان": 6190,
    "▁گوها": 6191,
    "الت": 6192,
    "▁معما": 6193,
    "▁دخ": 6194,
    "بال": 6195,
    "▁مردن": 6196,
    "گران": 6197,
    "▁عزادار": 6198,
    "▁استعمار": 6199,
    "▁خاور": 6200,
    "لاب": 6201,
    "▁۸۸": 6202,
    "▁پسران": 6203,
    "▁درها": 6204,
    "▁گردشگر": 6205,
    "صیل": 6206,
    "ریت": 6207,
    "ستیک": 6208,
    "کنیم": 6209,
    "▁رقبا": 6210,
    "▁کودتا": 6211,
    "▁اصولگرا": 6212,
    "▁ناآرام": 6213,
    "گور": 6214,
    "▁آرزو": 6215,
    "▁قربان": 6216,
    "▁شن": 6217,
    "۴۲": 6218,
    "▁صوت": 6219,
    "▁اجتماع": 6220,
    "پو": 6221,
    "▁نیل": 6222,
    "▁جوش": 6223,
    "▁جوی": 6224,
    "لین": 6225,
    "ریس": 6226,
    "▁جورجی": 6227,
    "▁عمد": 6228,
    "▁قطرک": 6229,
    "▁قوم": 6230,
    "▁ترکی": 6231,
    "▁هفده": 6232,
    "▁آلبر": 6233,
    "▁برآوردها": 6234,
    "ستردا": 6235,
    "سرجی": 6236,
    "جل": 6237,
    "▁خل": 6238,
    "پا": 6239,
    "ادت": 6240,
    "ورانه": 6241,
    "▁دوگان": 6242,
    "▁پهن": 6243,
    "▁مطلبی": 6244,
    "▁۲۰۲": 6245,
    "▁گرانتر": 6246,
    "▁قل": 6247,
    "▁ماتی": 6248,
    "▁باریک": 6249,
    "▁نمازی": 6250,
    "▁اینچ": 6251,
    "▁مغزش": 6252,
    "▁۱۷۳": 6253,
    "▁مسافری": 6254,
    "▁سفرها": 6255,
    "▁جیم": 6256,
    "وویچ": 6257,
    "▁پاب": 6258,
    "▁خطا": 6259,
    "صول": 6260,
    "ائب": 6261,
    "▁رنگی": 6262,
    "▁اسک": 6263,
    "وفون": 6264,
    "▁پراکن": 6265,
    "نیوز": 6266,
    "▁بیدار": 6267,
    "گرا": 6268,
    "مزد": 6269,
    "عطا": 6270,
    "قبض": 6271,
    "▁معاونان": 6272,
    "بفرستید": 6273,
    "نوم": 6274,
    "ریچارد": 6275,
    "شریف": 6276,
    "کاظم": 6277,
    "حداکثر": 6278,
    "غلام": 6279,
    "منظور": 6280,
    "نفوذ": 6281,
    "کانادا": 6282,
    "حادثه": 6283,
    "(": 6284,
    "اعضای": 6285,
    "شرایط": 6286,
    "مذاکرات": 6287,
    "مرغ": 6288,
    "عضو": 6289,
    "اتریش": 6290,
    "هنگام": 6291,
    "ویروس": 6292,
    "پرونده": 6293,
    "کاوه": 6294,
    "مطابق": 6295,
    "پادمان": 6296,
    "اداره": 6297,
    "کمتر": 6298,
    "مورد": 6299,
    "دادستان": 6300,
    "عادی": 6301,
    "بحث": 6302,
    "▁سور": 6303,
    "خطر": 6304,
    "تهران": 6305,
    "▁پناهند": 6306,
    "درگذشت": 6307,
    "دوغا": 6308,
    "سایت": 6309,
    "▁رومانی": 6310,
    "اکبر": 6311,
    "تحریم": 6312,
    "آیا": 6313,
    "برداری": 6314,
    "▁پروازهایش": 6315,
    "▁معلول": 6316,
    "▁کوهنورد": 6317,
    "▁سرگرفت": 6318,
    "▁لبنانی": 6319,
    "▁شاگرد": 6320,
    "۵۸": 6321,
    "نمایند": 6322,
    "▁مقاوم": 6323,
    "▁سوئ": 6324,
    "وتی": 6325,
    "حث": 6326,
    "▁تقریب": 6327,
    "زار": 6328,
    "▁وزار": 6329,
    "فضل": 6330,
    "رژی": 6331,
    "▁بلوچ": 6332,
    "▁احداث": 6333,
    "▁اردکانیان": 6334,
    "▁ارژن": 6335,
    "▁انتقام": 6336,
    "▁اوگوپوگو": 6337,
    "▁بیندازند": 6338,
    "▁رفراند": 6339,
    "▁رژه": 6340,
    "▁مشروب": 6341,
    "▁مقصود": 6342,
    "▁پاختاکور": 6343,
    "▁کاسموس": 6344,
    "▁کانگورو": 6345,
    "▁گریگوریان": 6346,
    "▁اقتباس": 6347,
    "▁تلویح": 6348,
    "▁طغیان": 6349,
    "▁پولیتزر": 6350,
    "▁کمونیست": 6351,
    "▁یادماندنی": 6352,
    "▁ناگزیر": 6353,
    "▁اولیانوف": 6354,
    "▁مرضیه": 6355,
    "▁فرناند": 6356,
    "▁تویوتا": 6357,
    "▁لشکر": 6358,
    "▁سرسخت": 6359,
    "▁چابک": 6360,
    "▁متصل": 6361,
    "▁رفیق": 6362,
    "▁اتصال": 6363,
    "▁متمایز": 6364,
    "▁برگردند": 6365,
    "▁تکواندو": 6366,
    "▁برنگشت": 6367,
    "▁اسرارآمیز": 6368,
    "▁تمیز": 6369,
    "▁یقین": 6370,
    "▁هیدرو": 6371,
    "کیو": 6372,
    "▁احوال": 6373,
    "▁پیانو": 6374,
    "▁هاپک": 6375,
    "کاراکاس": 6376,
    "جیمزباند": 6377,
    "▁شنوایی": 6378,
    "هالیفیلد": 6379,
    "▁ربود": 6380,
    "▁نوازندگان": 6381,
    "تفرق": 6382,
    "▁برسانند": 6383,
    "▁میدهد": 6384,
    "▁مرموز": 6385,
    "▁مختاری": 6386,
    "▁مکالمات": 6387,
    "▁داگ": 6388,
    "▁گرافیک": 6389,
    "▁عضلانی": 6390,
    "▁دنی": 6391,
    "▁واپس": 6392,
    "▁منفرد": 6393,
    "▁متکی": 6394,
    "▁الاکلنگ": 6395,
    "▁نابسامان": 6396,
    "▁۱۹۲۰": 6397,
    "▁نورالله": 6398,
    "▁ایسلند": 6399,
    "▁صراحت": 6400,
    "▁خرمشهر": 6401,
    "▁لورک": 6402,
    "▁شکننده": 6403,
    "▁بایستند": 6404,
    "▁کیلوولت": 6405,
    "▁سحرگاه": 6406,
    "▁نورمحمد": 6407,
    "▁سفیددره": 6408,
    "▁لبخندها": 6409,
    "▁سیدنی": 6410,
    "وژان": 6411,
    "▁گردیم": 6412,
    "▁فش": 6413,
    "▁رودکی": 6414,
    "▁خانود": 6415,
    "▁پردازش": 6416,
    "▁ابهامات": 6417,
    "▁اشکالات": 6418,
    "▁سانتا": 6419,
    "▁مأموریت": 6420,
    "▁تناقض": 6421,
    "▁گیلبرت": 6422,
    "▁فرندز": 6423,
    "▁عزت": 6424,
    "▁والتر": 6425,
    "▁رکوردشکن": 6426,
    "▁دادخواست": 6427,
    "▁سولار": 6428,
    "▁ونگر": 6429,
    "▁بخواهید": 6430,
    "▁دعا": 6431,
    "▁کوید": 6432,
    "پیچیده": 6433,
    "▁کامران": 6434,
    "هاب": 6435,
    "▁امپر": 6436,
    "▁شخصا": 6437,
    "▁ریسک": 6438,
    "▁آپو": 6439,
    "▁ساترا": 6440,
    "▁ترابی": 6441,
    "سارت": 6442,
    "▁داش": 6443,
    "▁دریانورد": 6444,
    "▁ملکشا": 6445,
    "▁بزرگسالان": 6446,
    "▁لیک": 6447,
    "▁پینک": 6448,
    "▁بخواهد": 6449,
    "رین": 6450,
    "▁آزمو": 6451,
    "▁سرگردان": 6452,
    "▁نایا": 6453,
    "افشاری": 6454,
    "▁دوندگان": 6455,
    "▁آز": 6456,
    "ولا": 6457,
    "▁بیورن": 6458,
    "▁مورف": 6459,
    "▁تحصیلات": 6460,
    "▁لوپ": 6461,
    "سنگ": 6462,
    "▁عطف": 6463,
    "▁ابد": 6464,
    "ماجرای": 6465,
    "شبن": 6466,
    "▁مصم": 6467,
    "▁بازنده": 6468,
    "مبا": 6469,
    "▁خران": 6470,
    "▁تراک": 6471,
    "▁آئ": 6472,
    "▁بازیافت": 6473,
    "کری": 6474,
    "رل": 6475,
    "لبان": 6476,
    "▁پوستر": 6477,
    "▁پذیرای": 6478,
    "▁مهمانان": 6479,
    "▁هالپ": 6480,
    "▁تجمعات": 6481,
    "لزم": 6482,
    "ودن": 6483,
    "▁فق": 6484,
    "▁برآورده": 6485,
    "▁بفرستید": 6486,
    "▁سکوها": 6487,
    "▁بدنشان": 6488,
    "دیس": 6489,
    "▁دز": 6490,
    "▁امیدهای": 6491,
    "▁کاشت": 6492,
    "لز": 6493,
    "▁فرشت": 6494,
    "▁نیوز": 6495,
    "▁صحرای": 6496,
    "سته": 6497,
    "وجیه": 6498,
    "▁پناهجوی": 6499,
    "▁کان": 6500,
    "شکاف": 6501,
    "میر": 6502,
    "زائ": 6503,
    "▁مادی": 6504,
    "▁بالاست": 6505,
    "▁لینک": 6506,
    "یاط": 6507,
    "عطوف": 6508,
    "زیان": 6509,
    "▁گذران": 6510,
    "یخته": 6511,
    "▁فرز": 6512,
    "▁ماز": 6513,
    "▁مخ": 6514,
    "▁سکان": 6515,
    "▁کاسی": 6516,
    "▁افزودن": 6517,
    "ندرسون": 6518,
    "▁متحدانش": 6519,
    "▁بازده": 6520,
    "▁نفی": 6521,
    "▁اجراهای": 6522,
    "▁راهنمای": 6523,
    "جاست": 6524,
    "▁مصرفی": 6525,
    "▁شیب": 6526,
    "▁دات": 6527,
    "پرس": 6528,
    "خیر": 6529,
    "▁ناقل": 6530,
    "اصل": 6531,
    "▁موسی": 6532,
    "زین": 6533,
    "▁همگان": 6534,
    "▁لاب": 6535,
    "▁مجرمان": 6536,
    "کسین": 6537,
    "▁خلا": 6538,
    "مد": 6539,
    "لث": 6540,
    "▁آسا": 6541,
    "▁لوک": 6542,
    "▁بازگرد": 6543,
    "▁نبی": 6544,
    "▁سفرش": 6545,
    "▁فضاپیمای": 6546,
    "▁گز": 6547,
    "دانه": 6548,
    "اشار": 6549,
    "▁درسی": 6550,
    "▁حول": 6551,
    "▁زودرس": 6552,
    "▁عدل": 6553,
    "▁محصولاتش": 6554,
    "▁برخاست": 6555,
    "اپیش": 6556,
    "▁پان": 6557,
    "▁بدنش": 6558,
    "▁کنش": 6559,
    "نوش": 6560,
    "لسون": 6561,
    "▁آبهای": 6562,
    "▁منه": 6563,
    "نچی": 6564,
    "▁آلت": 6565,
    "ردام": 6566,
    "▁جیمی": 6567,
    "▁داروین": 6568,
    "▁غیربو": 6569,
    "▁لیر": 6570,
    "▁سمی": 6571,
    "۶۱": 6572,
    "پارد": 6573,
    "▁۷۵۰": 6574,
    "▁لیپ": 6575,
    "▁هوادارانش": 6576,
    "▁بخشیده": 6577,
    "قای": 6578,
    "▁شنای": 6579,
    "کافی": 6580,
    "▁نوآوران": 6581,
    "۶۷": 6582,
    "بیل": 6583,
    "پولیس": 6584,
    "▁فشارهای": 6585,
    "▁تابستانی": 6586,
    "تورهای": 6587,
    "▁ران": 6588,
    "▁توفیقی": 6589,
    "▁لطفی": 6590,
    "▁سنگر": 6591,
    "دارا": 6592,
    "ساز": 6593,
    "▁درهم": 6594,
    "▁نشستن": 6595,
    "▁کریس": 6596,
    "▁دال": 6597,
    "▁مسا": 6598,
    "▁ساو": 6599,
    "اندا": 6600,
    "▁گذاریم": 6601,
    "▁بخشد": 6602,
    "▁کارند": 6603,
    "زاب": 6604,
    "▁سفارشی": 6605,
    "▁رودر": 6606,
    "چل": 6607,
    "ونته": 6608,
    "▁لیو": 6609,
    "▁گرین": 6610,
    "فین": 6611,
    "اهی": 6612,
    "▁انسانها": 6613,
    "موث": 6614,
    "ولکس": 6615,
    "نما": 6616,
    "بازد": 6617,
    "▁کارل": 6618,
    "▁برگرداندن": 6619,
    "▁اصلان": 6620,
    "▁حاج": 6621,
    "شر": 6622,
    "▁طر": 6623,
    "▁شنید": 6624,
    "▁اسلو": 6625,
    "▁سرش": 6626,
    "آباد": 6627,
    "▁موثری": 6628,
    "▁ول": 6629,
    "▁والا": 6630,
    "شکل": 6631,
    "انزا": 6632,
    "▁ادوار": 6633,
    "▁بلندپرواز": 6634,
    "▁خریدن": 6635,
    "رهای": 6636,
    "کمه": 6637,
    "چمن": 6638,
    "▁بیتل": 6639,
    "۴۹": 6640,
    "▁پرتو": 6641,
    "▁کارفرما": 6642,
    "▁امپراتور": 6643,
    "کست": 6644,
    "▁کلیسا": 6645,
    "گزار": 6646,
    "▁مهمتر": 6647,
    "اتل": 6648,
    "▁شکوفا": 6649,
    "داده": 6650,
    "▁کلک": 6651,
    "فاصل": 6652,
    "جیان": 6653,
    "▁شورش": 6654,
    "▁سرم": 6655,
    "▁بادی": 6656,
    "وایی": 6657,
    "▁پیت": 6658,
    "یتا": 6659,
    "▁کورو": 6660,
    "رسیدن": 6661,
    "▁فرستادن": 6662,
    "▁دیا": 6663,
    "توت": 6664,
    "▁دقتی": 6665,
    "▁الگو": 6666,
    "▁مرب": 6667,
    "▁موت": 6668,
    "▁باردار": 6669,
    "زو": 6670,
    "▁باختر": 6671,
    "▁پژ": 6672,
    "▁سناریو": 6673,
    "▁جنب": 6674,
    "▁بدنم": 6675,
    "▁بسر": 6676,
    "کول": 6677,
    "▁ارو": 6678,
    "▁گارس": 6679,
    "آر": 6680,
    "▁هلندی": 6681,
    "▁مشتاق": 6682,
    "▁لیز": 6683,
    "▁بهرامی": 6684,
    "▁هندو": 6685,
    "▁بیو": 6686,
    "بیز": 6687,
    "بورد": 6688,
    "افتاده": 6689,
    "ارزش": 6690,
    "آلود": 6691,
    "ادیوم": 6692,
    "نقل": 6693,
    "مشخص": 6694,
    "صریح": 6695,
    "فیروز": 6696,
    "منچستر": 6697,
    "جوکوویچ": 6698,
    "فرهاد": 6699,
    "ناظر": 6700,
    "اسپانیا": 6701,
    "هماهنگ": 6702,
    "تاتنهام": 6703,
    "اوپک": 6704,
    "هواداران": 6705,
    "تجرب": 6706,
    "رکورد": 6707,
    "تصویر": 6708,
    "میلیارد": 6709,
    "کارگران": 6710,
    "تحلیلگر": 6711,
    "بازداشت": 6712,
    "ابتدا": 6713,
    "سیزدهم": 6714,
    "تنیس": 6715,
    "اسناد": 6716,
    "الگو": 6717,
    "دقیق": 6718,
    "اعظم": 6719,
    "کتاب": 6720,
    "شناسی": 6721,
    "محمدرضا": 6722,
    "آبی": 6723,
    "ضا": 6724,
    "وکیل": 6725,
    "پیروز": 6726,
    "کشته": 6727,
    "وندی": 6728,
    "▁مایا": 6729,
    "▁سوز": 6730,
    "▁پوشیدن": 6731,
    "دختر": 6732,
    "ادی": 6733,
    "نوایی": 6734,
    "أی": 6735,
    "▁لات": 6736,
    "مسابقه": 6737,
    "گوت": 6738,
    "عظم": 6739,
    "دوزی": 6740,
    "▁خور": 6741,
    "▁سازوکار": 6742,
    "زیو": 6743,
    "اچو": 6744,
    "▁مارکو": 6745,
    "▁مخابر": 6746,
    "واره": 6747,
    "تازه": 6748,
    "▁بنویس": 6749,
    "▁آرسن": 6750,
    "▁فیلسوف": 6751,
    "▁نیفتاد": 6752,
    "▁ارواح": 6753,
    "▁اصغر": 6754,
    "▁انقطاع": 6755,
    "▁اورشلیم": 6756,
    "▁بخورد": 6757,
    "▁سرگذاشت": 6758,
    "▁عناوین": 6759,
    "▁محتاط": 6760,
    "▁تدفین": 6761,
    "▁تذکر": 6762,
    "▁متضاد": 6763,
    "▁باشکوه": 6764,
    "▁ضابط": 6765,
    "▁قتالی": 6766,
    "▁جهرمی": 6767,
    "▁انزوا": 6768,
    "▁بازنگشت": 6769,
    "▁فرستد": 6770,
    "▁رزیدن": 6771,
    "▁جاسک": 6772,
    "▁درآید": 6773,
    "▁آفرید": 6774,
    "▁کانتینر": 6775,
    "▁کواچ": 6776,
    "▁ناخودآگاه": 6777,
    "▁ماراکانا": 6778,
    "▁توقع": 6779,
    "▁سمفونی": 6780,
    "▁تدارک": 6781,
    "▁ترشح": 6782,
    "▁لامرد": 6783,
    "▁صلیب": 6784,
    "▁النصر": 6785,
    "▁فرهیخت": 6786,
    "▁خاکستر": 6787,
    "▁کوشنر": 6788,
    "▁قضا": 6789,
    "▁طلسم": 6790,
    "▁یونسی": 6791,
    "▁کوپر": 6792,
    "▁کرمانشاه": 6793,
    "▁رستم": 6794,
    "▁هریرود": 6795,
    "▁واجد": 6796,
    "▁نابرابر": 6797,
    "▁کاسپی": 6798,
    "▁مذک": 6799,
    "▁مجادل": 6800,
    "▁کرمانپور": 6801,
    "▁سازگار": 6802,
    "▁بدانید": 6803,
    "▁بکاهند": 6804,
    "▁لط": 6805,
    "▁ظالمانه": 6806,
    "خضر": 6807,
    "▁بیولوژیک": 6808,
    "▁اجداد": 6809,
    "نتسب": 6810,
    "▁۱۹۷۹": 6811,
    "▁قرآن": 6812,
    "▁بزاق": 6813,
    "انسان": 6814,
    "▁حواس": 6815,
    "▁نیابد": 6816,
    "▁رشید": 6817,
    "▁فرنگی": 6818,
    "▁قبرستان": 6819,
    "▁بگذارم": 6820,
    "▁روانچی": 6821,
    "▁تقلا": 6822,
    "▁بنشیند": 6823,
    "▁کولاک": 6824,
    "▁مراکش": 6825,
    "▁جملات": 6826,
    "▁عالیشاه": 6827,
    "▁۱۹۶۸": 6828,
    "▁پرجمعیت": 6829,
    "▁ویلسون": 6830,
    "▁تجربیات": 6831,
    "▁۱۳۶۰": 6832,
    "▁مردادماه": 6833,
    "▁ناشر": 6834,
    "▁۱۹۹۵": 6835,
    "▁گرگور": 6836,
    "▁ناشده": 6837,
    "▁سازوکارهای": 6838,
    "▁مارلی": 6839,
    "▁بازتاب": 6840,
    "▁۱۹۹۴": 6841,
    "▁مولف": 6842,
    "▁استبا": 6843,
    "▁زالی": 6844,
    "▁طو": 6845,
    "▁بهزاد": 6846,
    "▁نورستان": 6847,
    "▁برویم": 6848,
    "▁انتصاب": 6849,
    "▁لیبی": 6850,
    "▁راسخ": 6851,
    "▁ترقی": 6852,
    "▁خودمختار": 6853,
    "▁راشد": 6854,
    "▁دلتا": 6855,
    "▁خفا": 6856,
    "▁نخواست": 6857,
    "نولد": 6858,
    "▁سمع": 6859,
    "▁لاپورتا": 6860,
    "▁ماوریک": 6861,
    "▁بدهم": 6862,
    "▁تعرض": 6863,
    "▁فهیم": 6864,
    "مرز": 6865,
    "▁بلید": 6866,
    "▁حوال": 6867,
    "▁آندرس": 6868,
    "▁فلامینگوها": 6869,
    "▁شکنی": 6870,
    "▁مهیب": 6871,
    "▁فیروزجا": 6872,
    "▁طاق": 6873,
    "▁آنگل": 6874,
    "▁مطلق": 6875,
    "▁کمربندهای": 6876,
    "▁فلزات": 6877,
    "▁خوشبین": 6878,
    "▁دردسرهای": 6879,
    "▁ژنوم": 6880,
    "نقش": 6881,
    "▁آشو": 6882,
    "▁ثور": 6883,
    "▁ویرانگر": 6884,
    "▁آگوست": 6885,
    "▁بلک": 6886,
    "▁ابزارهای": 6887,
    "▁فراخواند": 6888,
    "▁برونته": 6889,
    "▁ایستادند": 6890,
    "▁جذابیت": 6891,
    "▁توبین": 6892,
    "▁سرخک": 6893,
    "▁ندادند": 6894,
    "▁پروست": 6895,
    "▁معلولان": 6896,
    "اثر": 6897,
    "▁چای": 6898,
    "▁مادام": 6899,
    "▁کروات": 6900,
    "▁گریخت": 6901,
    "گرنه": 6902,
    "لون": 6903,
    "▁فاضل": 6904,
    "▁زوم": 6905,
    "▁بزرگسال": 6906,
    "▁صرب": 6907,
    "زود": 6908,
    "▁فراور": 6909,
    "▁دیاب": 6910,
    "▁کجاست": 6911,
    "▁فروند": 6912,
    "▁لوح": 6913,
    "▁توسان": 6914,
    "▁کویت": 6915,
    "▁درمیان": 6916,
    "▁ورق": 6917,
    "▁مسبب": 6918,
    "خو": 6919,
    "▁ریختن": 6920,
    "▁پارکر": 6921,
    "روا": 6922,
    "▁بدهید": 6923,
    "▁رومانیا": 6924,
    "▁چاق": 6925,
    "▁پرکار": 6926,
    "▁توبی": 6927,
    "اقش": 6928,
    "گرفتن": 6929,
    "▁رخدادهای": 6930,
    "▁نیامد": 6931,
    "▁نویسد": 6932,
    "▁فیش": 6933,
    "▁نوردی": 6934,
    "هفتصد": 6935,
    "▁غرو": 6936,
    "▁نایاب": 6937,
    "▁جوانا": 6938,
    "▁شکم": 6939,
    "نچ": 6940,
    "▁هاروی": 6941,
    "▁قانونگذار": 6942,
    "▁مزد": 6943,
    "▁منازع": 6944,
    "▁مجتب": 6945,
    "کسیون": 6946,
    "▁مستندهای": 6947,
    "اتح": 6948,
    "▁سانچ": 6949,
    "▁نیستم": 6950,
    "نگرانی": 6951,
    "▁لین": 6952,
    "▁خصوصیات": 6953,
    "▁اینست": 6954,
    "▁شعرهای": 6955,
    "▁رسال": 6956,
    "خزن": 6957,
    "انشهر": 6958,
    "▁راهکار": 6959,
    "▁کارلو": 6960,
    "▁احتیا": 6961,
    "▁چید": 6962,
    "▁عز": 6963,
    "ناتان": 6964,
    "دایی": 6965,
    "▁حسابدار": 6966,
    "▁پیامبر": 6967,
    "▁اسکان": 6968,
    "چهل": 6969,
    "نوی": 6970,
    "وتو": 6971,
    "عادل": 6972,
    "▁دیدند": 6973,
    "رنج": 6974,
    "ینز": 6975,
    "▁حک": 6976,
    "۱۰": 6977,
    "▁اضافی": 6978,
    "یلد": 6979,
    "▁قوز": 6980,
    "▁پردازی": 6981,
    "▁درسال": 6982,
    "▁امیرم": 6983,
    "▁پهنه": 6984,
    "▁عثمانی": 6985,
    "سپاس": 6986,
    "ارمی": 6987,
    "فیه": 6988,
    "▁یوآن": 6989,
    "▁شدیم": 6990,
    "موتو": 6991,
    "▁سردست": 6992,
    "▁هارد": 6993,
    "▁بگ": 6994,
    "▁افع": 6995,
    "▁کوارت": 6996,
    "▁نبودند": 6997,
    "ایت": 6998,
    "کوس": 6999,
    "▁پاسخگوی": 7000,
    "▁ریاضی": 7001,
    "▁لوکه": 7002,
    "▁بازگشتند": 7003,
    "▁جراحان": 7004,
    "▁نازل": 7005,
    "▁نب": 7006,
    "▁داران": 7007,
    "▁بروید": 7008,
    "۹۴": 7009,
    "▁کارتر": 7010,
    "فرجام": 7011,
    "▁ائ": 7012,
    "▁نزدیکانش": 7013,
    "▁بستند": 7014,
    "▁شکن": 7015,
    "▁نواخت": 7016,
    "▁دیدگ": 7017,
    "رعه": 7018,
    "۱۱": 7019,
    "▁عر": 7020,
    "▁جع": 7021,
    "برده": 7022,
    "▁خوابیدن": 7023,
    "▁سندر": 7024,
    "▁سیرو": 7025,
    "▁دلو": 7026,
    "▁مجل": 7027,
    "▁صداها": 7028,
    "خه": 7029,
    "▁سهیم": 7030,
    "لمپ": 7031,
    "۱۲": 7032,
    "▁محوری": 7033,
    "▁منامه": 7034,
    "▁جودوکا": 7035,
    "▁ساد": 7036,
    "▁پرز": 7037,
    "صدا": 7038,
    "زیر": 7039,
    "▁سپرد": 7040,
    "▁دانستن": 7041,
    "▁هوم": 7042,
    "▁ملته": 7043,
    "برو": 7044,
    "لیت": 7045,
    "۳۶۰": 7046,
    "▁جید": 7047,
    "درهای": 7048,
    "▁استرا": 7049,
    "هیچ": 7050,
    "▁فک": 7051,
    "▁کیمی": 7052,
    "مک": 7053,
    "▁شناختن": 7054,
    "▁حر": 7055,
    "▁کلیو": 7056,
    "▁اک": 7057,
    "▁کورت": 7058,
    "▁تبر": 7059,
    "لینگ": 7060,
    "▁اشع": 7061,
    "امد": 7062,
    "▁فرهنگیان": 7063,
    "▁هیو": 7064,
    "فول": 7065,
    "▁اغ": 7066,
    "لائو": 7067,
    "گراد": 7068,
    "▁فضاپیما": 7069,
    "▁عکسها": 7070,
    "ملا": 7071,
    "▁شدایران": 7072,
    "باره": 7073,
    "پرسینگ": 7074,
    "فروش": 7075,
    "وادا": 7076,
    "یتز": 7077,
    "▁استانداری": 7078,
    "▁هرج": 7079,
    "نیچ": 7080,
    "گردانی": 7081,
    "▁شناورها": 7082,
    "▁غد": 7083,
    "تاد": 7084,
    "▁آرزوها": 7085,
    "فان": 7086,
    "▁ناصری": 7087,
    "▁رویز": 7088,
    "رگ": 7089,
    "ساعد": 7090,
    "تاکنون": 7091,
    "▁سرب": 7092,
    "جام": 7093,
    "▁حریر": 7094,
    "▁پنس": 7095,
    "▁بیند": 7096,
    "▁پاسخگو": 7097,
    "▁هیولا": 7098,
    "▁بقا": 7099,
    "▁مزایا": 7100,
    "▁مذهب": 7101,
    "▁نجفی": 7102,
    "▁زیبای": 7103,
    "▁تروریست": 7104,
    "▁غور": 7105,
    "▁ماریان": 7106,
    "▁۱۳۱": 7107,
    "▁سلیمان": 7108,
    "▁سک": 7109,
    "▁هواپیماها": 7110,
    "▁باخ": 7111,
    "جات": 7112,
    "اند": 7113,
    "▁مراد": 7114,
    "▁داو": 7115,
    "وثر": 7116,
    "دیدار": 7117,
    "▁لندر": 7118,
    "نفت": 7119,
    "▁تقی": 7120,
    "▁یاسم": 7121,
    "▁اط": 7122,
    "▁رپ": 7123,
    "▁قضائی": 7124,
    "تک": 7125,
    "▁ترانس": 7126,
    "خواهند": 7127,
    "ایش": 7128,
    "▁یوآ": 7129,
    "▁حقوقدان": 7130,
    "یغ": 7131,
    "پانز": 7132,
    "تال": 7133,
    "▁خاو": 7134,
    "▁نامند": 7135,
    "▁وزرا": 7136,
    "روژ": 7137,
    "▁درصدد": 7138,
    "وستا": 7139,
    "تهم": 7140,
    "▁بارش": 7141,
    "▁بینم": 7142,
    "لسک": 7143,
    "نژاد": 7144,
    "کوئین": 7145,
    "خودرو": 7146,
    "گردانده": 7147,
    "پوش": 7148,
    "میو": 7149,
    "تحرک": 7150,
    "تابعیت": 7151,
    "درآمد": 7152,
    "آرامکو": 7153,
    "خشکسالی": 7154,
    "ضرور": 7155,
    "آکادمی": 7156,
    "ابراهیم": 7157,
    "قاسم": 7158,
    "حاشیه": 7159,
    "جنجال": 7160,
    "استرالیا": 7161,
    "احتمال": 7162,
    "جشنواره": 7163,
    "نتایج": 7164,
    "گمرک": 7165,
    "▁کوچ": 7166,
    "پاسخ": 7167,
    "آزادی": 7168,
    "ترکیب": 7169,
    "ادعا": 7170,
    "حقوق": 7171,
    "لستر": 7172,
    "شعر": 7173,
    "جواد": 7174,
    "▁متخلف": 7175,
    "حساب": 7176,
    "مرور": 7177,
    "فیک": 7178,
    "سنگر": 7179,
    "گردون": 7180,
    "کریست": 7181,
    "مالک": 7182,
    "▁رکس": 7183,
    "بالا": 7184,
    "جف": 7185,
    "زندگی": 7186,
    "▁۱۶۰": 7187,
    "▁اپی": 7188,
    "احسا": 7189,
    "ولوژی": 7190,
    "سریع": 7191,
    "▁روا": 7192,
    "▁کیف": 7193,
    "مهم": 7194,
    "الیز": 7195,
    "اکتی": 7196,
    "▁صیاد": 7197,
    "غی": 7198,
    "▁تسلی": 7199,
    "ارل": 7200,
    "همکاری": 7201,
    "▁مافی": 7202,
    "▁سرزن": 7203,
    "▁اقام": 7204,
    "▁ادین": 7205,
    "روج": 7206,
    "▁مکاتب": 7207,
    "غوری": 7208,
    "لات": 7209,
    "▁قزاق": 7210,
    "▁چمپیون": 7211,
    "▁اختاپوس": 7212,
    "▁التحصیل": 7213,
    "▁انحراف": 7214,
    "▁بیضائی": 7215,
    "▁دانچیچ": 7216,
    "▁روزافزون": 7217,
    "▁سخاوتمند": 7218,
    "▁سزاوار": 7219,
    "▁غواص": 7220,
    "▁قیصر": 7221,
    "▁لغز": 7222,
    "▁لومامبا": 7223,
    "▁نپذیرفت": 7224,
    "▁هژمون": 7225,
    "▁پلتفرم": 7226,
    "▁ژئوفیزیک": 7227,
    "▁ژئوپلیتیک": 7228,
    "▁اوقاف": 7229,
    "▁بولونیا": 7230,
    "▁سارقان": 7231,
    "▁سیاهپوست": 7232,
    "▁لغت": 7233,
    "▁انسولین": 7234,
    "▁مصداق": 7235,
    "▁وسواس": 7236,
    "▁زوایا": 7237,
    "▁هامبورگ": 7238,
    "▁غلیظ": 7239,
    "▁موازات": 7240,
    "▁جوامع": 7241,
    "▁متوازن": 7242,
    "▁واعظ": 7243,
    "▁مقادیر": 7244,
    "▁اقوام": 7245,
    "▁نگیرد": 7246,
    "▁ببینم": 7247,
    "▁کارائیب": 7248,
    "▁ذوالنور": 7249,
    "▁سحابی": 7250,
    "▁زیراتمی": 7251,
    "▁غذاخور": 7252,
    "▁جلیل": 7253,
    "▁میچام": 7254,
    "▁بلندپایه": 7255,
    "▁اوزون": 7256,
    "▁تتلو": 7257,
    "▁فلاکت": 7258,
    "▁کابوس": 7259,
    "▁لاوروف": 7260,
    "▁ظلم": 7261,
    "▁سانتیگراد": 7262,
    "▁باچان": 7263,
    "▁ترفند": 7264,
    "▁حصبه": 7265,
    "▁ژائو": 7266,
    "▁عناب": 7267,
    "▁نیچر": 7268,
    "▁توازن": 7269,
    "رالزمان": 7270,
    "▁معاهد": 7271,
    "▁مالزی": 7272,
    "بالاحصار": 7273,
    "▁فرسود": 7274,
    "▁سیرجان": 7275,
    "▁ارباب": 7276,
    "▁اجزا": 7277,
    "▁ارمجانی": 7278,
    "▁سرور": 7279,
    "▁تظاهرکنندگان": 7280,
    "▁دشتکی": 7281,
    "▁لاتکس": 7282,
    "▁دروغگو": 7283,
    "▁حیثیت": 7284,
    "▁پاستور": 7285,
    "▁ایلام": 7286,
    "▁مغایر": 7287,
    "▁همفکر": 7288,
    "▁فیصل": 7289,
    "▁رفقا": 7290,
    "▁شروط": 7291,
    "▁یدک": 7292,
    "▁سفال": 7293,
    "▁نیرومند": 7294,
    "▁کبیری": 7295,
    "▁نابینا": 7296,
    "▁شکارچی": 7297,
    "▁دوبلور": 7298,
    "▁شارپ": 7299,
    "▁منفعت": 7300,
    "فراگ": 7301,
    "▁زیردریا": 7302,
    "▁چوپ": 7303,
    "▁هنگفت": 7304,
    "▁۲۰۵": 7305,
    "▁مشروعیت": 7306,
    "▁جرارد": 7307,
    "▁حوض": 7308,
    "▁مجرد": 7309,
    "▁نابویایی": 7310,
    "▁اتلان": 7311,
    "▁لوگو": 7312,
    "ذاب": 7313,
    "حریف": 7314,
    "▁نکشید": 7315,
    "▁ملوان": 7316,
    "▁نثر": 7317,
    "▁محفظه": 7318,
    "▁هندرسون": 7319,
    "▁سعیدپور": 7320,
    "نعیم": 7321,
    "▁تفکر": 7322,
    "▁سرپوش": 7323,
    "▁محاف": 7324,
    "▁بریجز": 7325,
    "▁اجساد": 7326,
    "▁ببریم": 7327,
    "▁وانگ": 7328,
    "تعدد": 7329,
    "▁خرس": 7330,
    "▁همسو": 7331,
    "▁اسکورسیزی": 7332,
    "▁ریاضیات": 7333,
    "▁تزار": 7334,
    "تالیا": 7335,
    "▁میلیچ": 7336,
    "▁صفاری": 7337,
    "▁پرشمار": 7338,
    "▁ارج": 7339,
    "گوگوش": 7340,
    "▁خطاهای": 7341,
    "▁آویز": 7342,
    "▁علام": 7343,
    "▁مختصر": 7344,
    "▁متغیرهای": 7345,
    "فرشی": 7346,
    "▁متقابل": 7347,
    "▁همدان": 7348,
    "▁بپذیر": 7349,
    "الیف": 7350,
    "▁فاطم": 7351,
    "▁موسیقیدان": 7352,
    "▁قمار": 7353,
    "▁شیاد": 7354,
    "▁تحرکات": 7355,
    "▁رباب": 7356,
    "▁غزل": 7357,
    "▁دلسوز": 7358,
    "▁فلسطینیان": 7359,
    "قندهار": 7360,
    "▁ویدئوهای": 7361,
    "نیتو": 7362,
    "▁انکار": 7363,
    "▁خویشتن": 7364,
    "فارم": 7365,
    "نرخ": 7366,
    "▁دفع": 7367,
    "اطبا": 7368,
    "▁پرستون": 7369,
    "▁اسکات": 7370,
    "▁رسند": 7371,
    "▁تاکسیران": 7372,
    "▁ظ": 7373,
    "▁وفا": 7374,
    "▁چرخید": 7375,
    "سود": 7376,
    "مادر": 7377,
    "دلایل": 7378,
    "▁سلیق": 7379,
    "▁بگیرم": 7380,
    "▁اسید": 7381,
    "▁امضاکنند": 7382,
    "▁تیموری": 7383,
    "▁کانل": 7384,
    "▁چتر": 7385,
    "فرد": 7386,
    "▁حسگرها": 7387,
    "▁قامت": 7388,
    "صنوف": 7389,
    "▁تحریر": 7390,
    "▁روبات": 7391,
    "▁یولیا": 7392,
    "حور": 7393,
    "▁گیران": 7394,
    "▁متال": 7395,
    "▁توسل": 7396,
    "▁اکثرا": 7397,
    "▁نصیر": 7398,
    "▁خلوتگر": 7399,
    "سپیر": 7400,
    "▁افزارهای": 7401,
    "▁سوییس": 7402,
    "نفر": 7403,
    "▁الکترودها": 7404,
    "▁لیبر": 7405,
    "▁نماید": 7406,
    "▁۴۲۰": 7407,
    "▁نزن": 7408,
    "شوند": 7409,
    "▁اثرگذار": 7410,
    "▁رازهای": 7411,
    "▁زینب": 7412,
    "▁علیزاده": 7413,
    "اران": 7414,
    "▁نیافتن": 7415,
    "▁نازک": 7416,
    "▁توانمند": 7417,
    "▁آپ": 7418,
    "▁کشورهاست": 7419,
    "▁گوستا": 7420,
    "▁دانل": 7421,
    "لاخ": 7422,
    "▁ربکا": 7423,
    "▁مناسبات": 7424,
    "▁ترسد": 7425,
    "▁افول": 7426,
    "▁بریج": 7427,
    "فرانسه": 7428,
    "▁عینک": 7429,
    "▁بکار": 7430,
    "▁دیرتر": 7431,
    "شقان": 7432,
    "▁کساد": 7433,
    "▁قهری": 7434,
    "۹۶": 7435,
    "▁استیل": 7436,
    "▁بدویا": 7437,
    "نشأ": 7438,
    "▁بازنش": 7439,
    "▁سیاستگذار": 7440,
    "▁اقسا": 7441,
    "محسن": 7442,
    "▁نکو": 7443,
    "تمایل": 7444,
    "▁گردون": 7445,
    "▁قصر": 7446,
    "▁نوپا": 7447,
    "▁نیمروز": 7448,
    "▁پاسدار": 7449,
    "اسکورت": 7450,
    "ویر": 7451,
    "▁قبض": 7452,
    "▁گراند": 7453,
    "▁همهمه": 7454,
    "آفرینی": 7455,
    "▁شالی": 7456,
    "خشنود": 7457,
    "▁بنده": 7458,
    "▁خوشایند": 7459,
    "▁بدهیم": 7460,
    "▁سوزاند": 7461,
    "وکین": 7462,
    "یلدا": 7463,
    "▁کرایس": 7464,
    "▁الیو": 7465,
    "مص": 7466,
    "▁سبی": 7467,
    "سانس": 7468,
    "▁کریستین": 7469,
    "▁مجا": 7470,
    "▁خوردند": 7471,
    "▁استوایی": 7472,
    "▁طبقات": 7473,
    "▁سناریوها": 7474,
    "▁سازهای": 7475,
    "جنگ": 7476,
    "▁گاردن": 7477,
    "▁۶۹": 7478,
    "▁نانو": 7479,
    "قهرمانی": 7480,
    "▁راوی": 7481,
    "▁تشکیلات": 7482,
    "▁ترسید": 7483,
    "▁کوچه": 7484,
    "▁تپند": 7485,
    "▁بخوان": 7486,
    "▁تایی": 7487,
    "▁لوس": 7488,
    "▁نظرش": 7489,
    "▁عار": 7490,
    "روند": 7491,
    "▁وول": 7492,
    "ورس": 7493,
    "▁بریم": 7494,
    "۱۹۶۵": 7495,
    "▁گوا": 7496,
    "جماع": 7497,
    "▁دیوارهای": 7498,
    "▁باک": 7499,
    "معدنچی": 7500,
    "▁اظهارنظرهای": 7501,
    "▁همخوان": 7502,
    "▁ننگ": 7503,
    "▁پترو": 7504,
    "▁اون": 7505,
    "نسک": 7506,
    "اتنگ": 7507,
    "▁شرعی": 7508,
    "فهمد": 7509,
    "▁مشخصات": 7510,
    "▁فورب": 7511,
    "▁سالمند": 7512,
    "▁بک": 7513,
    "▁کمیاب": 7514,
    "یوآ": 7515,
    "مور": 7516,
    "▁پارو": 7517,
    "▁مونت": 7518,
    "▁سوپ": 7519,
    "سوری": 7520,
    "▁نشاند": 7521,
    "▁زین": 7522,
    "نزو": 7523,
    "عل": 7524,
    "▁زنیم": 7525,
    "▁ریس": 7526,
    "دهم": 7527,
    "▁سیلی": 7528,
    "▁میلیاردرها": 7529,
    "اط": 7530,
    "▁لندرو": 7531,
    "▁علا": 7532,
    "کوم": 7533,
    "ریدار": 7534,
    "پار": 7535,
    "▁شکوف": 7536,
    "▁اشتها": 7537,
    "▁کریستی": 7538,
    "په": 7539,
    "▁رادیوی": 7540,
    "سوس": 7541,
    "▁تدا": 7542,
    "▁عط": 7543,
    "▁رویاهای": 7544,
    "▁روما": 7545,
    "▁نف": 7546,
    "▁پارت": 7547,
    "▁ایرانسل": 7548,
    "▁غوری": 7549,
    "▁اشتباهی": 7550,
    "▁همسران": 7551,
    "▁تیز": 7552,
    "ورود": 7553,
    "نقدر": 7554,
    "▁آندریا": 7555,
    "▁یابی": 7556,
    "▁گریه": 7557,
    "▁کیپ": 7558,
    "▁نیلی": 7559,
    "▁چی": 7560,
    "▁بلخی": 7561,
    "وئر": 7562,
    "▁سازان": 7563,
    "ندگی": 7564,
    "▁آلم": 7565,
    "کور": 7566,
    "زیرو": 7567,
    "▁آمونی": 7568,
    "▁بیکاران": 7569,
    "▁نفربر": 7570,
    "رمان": 7571,
    "▁دزدی": 7572,
    "▁شکستند": 7573,
    "▁صدایش": 7574,
    "ریض": 7575,
    "۶۲": 7576,
    "▁رید": 7577,
    "نشان": 7578,
    "▁پیل": 7579,
    "کیا": 7580,
    "▁کلت": 7581,
    "جویان": 7582,
    "لیا": 7583,
    "▁پلک": 7584,
    "اقت": 7585,
    "▁دوسال": 7586,
    "▁رایانه": 7587,
    "غفو": 7588,
    "زبان": 7589,
    "لار": 7590,
    "آنچ": 7591,
    "۲۱": 7592,
    "▁منفور": 7593,
    "▁فرودست": 7594,
    "ینکی": 7595,
    "واقعی": 7596,
    "ملی": 7597,
    "▁کالی": 7598,
    "▁شوی": 7599,
    "سیاس": 7600,
    "گزا": 7601,
    "وکس": 7602,
    "▁۱۷۴": 7603,
    "▁عا": 7604,
    "▁مهیا": 7605,
    "▁آذری": 7606,
    "▁بخ": 7607,
    "▁دبی": 7608,
    "▁قای": 7609,
    "▁خوشی": 7610,
    "▁کاپ": 7611,
    "ولین": 7612,
    "▁شجاعی": 7613,
    "یکا": 7614,
    "۹۷": 7615,
    "بندی": 7616,
    "▁کلن": 7617,
    "یوم": 7618,
    "▁شاهدان": 7619,
    "نمی": 7620,
    "وفق": 7621,
    "سمن": 7622,
    "اچ": 7623,
    "فرانس": 7624,
    "▁موتورها": 7625,
    "▁آرمی": 7626,
    "فری": 7627,
    "▁تونسی": 7628,
    "▁زنم": 7629,
    "▁ژا": 7630,
    "۲۷": 7631,
    "دولتی": 7632,
    "▁دلیلش": 7633,
    "▁اتکای": 7634,
    "▁هرجا": 7635,
    "▁نبردها": 7636,
    "▁اتم": 7637,
    "▁موری": 7638,
    "۲۲": 7639,
    "حاملگی": 7640,
    "▁پرش": 7641,
    "▁الف": 7642,
    "زاد": 7643,
    "راماتیک": 7644,
    "اتیو": 7645,
    "یدند": 7646,
    "کانس": 7647,
    "برگر": 7648,
    "▁یوت": 7649,
    "▁ایگ": 7650,
    "▁بایست": 7651,
    "قهرمان": 7652,
    "▁بروی": 7653,
    "اعت": 7654,
    "نویس": 7655,
    "باف": 7656,
    "▁پرداز": 7657,
    "▁چاو": 7658,
    "برآورد": 7659,
    "رعلی": 7660,
    "▁رانگل": 7661,
    "▁نامم": 7662,
    "▁فیلی": 7663,
    "▁صفا": 7664,
    "رانر": 7665,
    "▁عثمان": 7666,
    "▁ماریو": 7667,
    "▁العم": 7668,
    "▁ساسان": 7669,
    "الف": 7670,
    "▁امیدی": 7671,
    "▁دانشجو": 7672,
    "میخ": 7673,
    "ثه": 7674,
    "▁شرع": 7675,
    "▁خانوارها": 7676,
    "▁بعض": 7677,
    "▁تجسم": 7678,
    "ونا": 7679,
    "رویا": 7680,
    "ناوب": 7681,
    "حرف": 7682,
    "راد": 7683,
    "▁نمادها": 7684,
    "تامی": 7685,
    "سلطان": 7686,
    "گاتی": 7687,
    "▁آرن": 7688,
    "▁مساعد": 7689,
    "▁گفتم": 7690,
    "▁تجار": 7691,
    "▁۱۸۹": 7692,
    "▁۱۸۸": 7693,
    "▁۲۶۰": 7694,
    "زنان": 7695,
    "▁نوزده": 7696,
    "▁متما": 7697,
    "▁صحبتها": 7698,
    "راجع": 7699,
    "▁دویدن": 7700,
    "▁نیاورده": 7701,
    "▁امیلی": 7702,
    "▁عس": 7703,
    "تقبل": 7704,
    "زیست": 7705,
    "جیل": 7706,
    "▁مواج": 7707,
    "▁۱۳۲": 7708,
    "▁باکر": 7709,
    "حکم": 7710,
    "▁آریا": 7711,
    "ولت": 7712,
    "سارا": 7713,
    "▁نتوا": 7714,
    "عمل": 7715,
    "▁محر": 7716,
    "ینیو": 7717,
    "▁فشارها": 7718,
    "▁کارهایش": 7719,
    "صلاح": 7720,
    "▁۱۰۲": 7721,
    "اندی": 7722,
    "▁فاین": 7723,
    "فعال": 7724,
    "▁۳۸۰": 7725,
    "پرداخت": 7726,
    "مکزیکو": 7727,
    "▁۲۱۰": 7728,
    "ربکا": 7729,
    "اعتراض": 7730,
    "انتخاب": 7731,
    "دبیر": 7732,
    "بیانسه": 7733,
    "کیت": 7734,
    "تعجب": 7735,
    "اضطراب": 7736,
    "توماس": 7737,
    "تفاهم": 7738,
    "اسماعیل": 7739,
    "پالایشگاه": 7740,
    "مناسبت": 7741,
    "آذر": 7742,
    "خروج": 7743,
    "منتظر": 7744,
    "اتفاقات": 7745,
    "جوایز": 7746,
    "مطالع": 7747,
    "پروتکل": 7748,
    "رئال": 7749,
    "رویترز": 7750,
    "شروع": 7751,
    "لحظ": 7752,
    "قسمت": 7753,
    "اسرائیل": 7754,
    "سقوط": 7755,
    "خبرنگار": 7756,
    "رکود": 7757,
    "بارسلونا": 7758,
    "قرنطینه": 7759,
    "عملکرد": 7760,
    "آزمایش": 7761,
    "موضوع": 7762,
    "عربستان": 7763,
    "محدودیت": 7764,
    "تاریخ": 7765,
    "توافق": 7766,
    "جمهوری": 7767,
    "۲۰۲۰": 7768,
    "عکاس": 7769,
    "ماشین": 7770,
    "مجید": 7771,
    "ایتالیا": 7772,
    "خیز": 7773,
    "وزرای": 7774,
    "فرمانده": 7775,
    "▁کوتاهتر": 7776,
    "اتهامات": 7777,
    "سبد": 7778,
    "جسد": 7779,
    "گنجی": 7780,
    "فعالیت": 7781,
    "کنفرانس": 7782,
    "کشورهای": 7783,
    "انتقالات": 7784,
    "▁کرای": 7785,
    "واکسن": 7786,
    "لیگا": 7787,
    "کمل": 7788,
    "▁چون": 7789,
    "▁اسکا": 7790,
    "بیماری": 7791,
    "تیس": 7792,
    "لیتو": 7793,
    "کشتی": 7794,
    "نشری": 7795,
    "گارد": 7796,
    "▁سوزان": 7797,
    "بازیکنان": 7798,
    "حام": 7799,
    "مستند": 7800,
    "میلان": 7801,
    "عبدالله": 7802,
    "▁لح": 7803,
    "نمود": 7804,
    "▁عزا": 7805,
    "مردم": 7806,
    "حک": 7807,
    "شکست": 7808,
    "▁فلامینگو": 7809,
    "▁بولد": 7810,
    "▁گلوی": 7811,
    "رگامو": 7812,
    "صال": 7813,
    "ریکو": 7814,
    "▁مسخ": 7815,
    "▁پدربزرگ": 7816,
    "سورها": 7817,
    "▁هموطن": 7818,
    "ارا": 7819,
    "باستان": 7820,
    "▁اپ": 7821,
    "▁موس": 7822,
    "پدیده": 7823,
    "لوگ": 7824,
    "▁استرول": 7825,
    "سترازنکا": 7826,
    "رگبار": 7827,
    "▁گوگ": 7828,
    "▁مکالم": 7829,
    "انیس": 7830,
    "سوخت": 7831,
    "گوئه": 7832,
    "▁آکسفام": 7833,
    "▁ابتذال": 7834,
    "▁اوزبیک": 7835,
    "▁بوئین": 7836,
    "▁بیرمنگ": 7837,
    "▁تشعشع": 7838,
    "▁دموکراسی": 7839,
    "▁غیرمجاز": 7840,
    "▁منسجم": 7841,
    "▁ناپلئون": 7842,
    "▁نباشید": 7843,
    "▁هنجار": 7844,
    "▁هیدروژن": 7845,
    "▁پدافند": 7846,
    "▁ژرف": 7847,
    "▁آصف": 7848,
    "▁بپیوندد": 7849,
    "▁تمایز": 7850,
    "▁جگوار": 7851,
    "▁خجالت": 7852,
    "▁منحنی": 7853,
    "▁وبلاگ": 7854,
    "▁مغانلو": 7855,
    "▁۲۰۳۵": 7856,
    "▁آوینی": 7857,
    "▁بالیوود": 7858,
    "▁سولیوان": 7859,
    "▁مارگاریتا": 7860,
    "▁پرتوافشانی": 7861,
    "▁پغمان": 7862,
    "▁عنابستانی": 7863,
    "▁جوابگوی": 7864,
    "▁بیضایی": 7865,
    "▁تمهید": 7866,
    "▁تراشید": 7867,
    "▁ایرلاین": 7868,
    "▁افراط": 7869,
    "▁بنکدارپور": 7870,
    "▁ندارید": 7871,
    "▁نقیض": 7872,
    "▁تجسس": 7873,
    "▁ویولن": 7874,
    "▁بیانجامد": 7875,
    "▁فاسد": 7876,
    "▁فکاهی": 7877,
    "▁سانتیاگو": 7878,
    "▁بکشم": 7879,
    "▁پاندمی": 7880,
    "▁برنامک": 7881,
    "▁نیکزاد": 7882,
    "▁بانکوک": 7883,
    "▁بسپارد": 7884,
    "▁ماهرویان": 7885,
    "▁لطیف": 7886,
    "▁تنگاتنگ": 7887,
    "▁پرسنل": 7888,
    "▁لرزاند": 7889,
    "▁مخوف": 7890,
    "▁بکنید": 7891,
    "▁شمع": 7892,
    "▁دیزل": 7893,
    "▁بشود": 7894,
    "▁شرمسار": 7895,
    "▁فواید": 7896,
    "▁فونینی": 7897,
    "▁مزیت": 7898,
    "▁بلوغ": 7899,
    "▁بفرستد": 7900,
    "▁مفسر": 7901,
    "▁ازبک": 7902,
    "▁بفرستند": 7903,
    "▁روانپزشک": 7904,
    "▁هیوستون": 7905,
    "▁فرستند": 7906,
    "▁کریگ": 7907,
    "▁کبود": 7908,
    "▁برنگرداند": 7909,
    "▁گوریل": 7910,
    "▁سوراخ": 7911,
    "▁غمگین": 7912,
    "▁آسپر": 7913,
    "▁مرج": 7914,
    "▁شاهرود": 7915,
    "▁مادربزرگ": 7916,
    "▁چشید": 7917,
    "▁خاندان": 7918,
    "▁زشت": 7919,
    "▁الاجراست": 7920,
    "ورلد": 7921,
    "▁پترولی": 7922,
    "زامبی": 7923,
    "▁زراعت": 7924,
    "▁ناخشنود": 7925,
    "▁خرمش": 7926,
    "▁شادمان": 7927,
    "▁شنویم": 7928,
    "▁آلبانی": 7929,
    "▁نیابت": 7930,
    "▁مجزا": 7931,
    "یگز": 7932,
    "▁آپوف": 7933,
    "▁میشود": 7934,
    "▁امیدوارکننده": 7935,
    "▁آسود": 7936,
    "▁دامغان": 7937,
    "▁گرداند": 7938,
    "▁معصوم": 7939,
    "▁نگهداشت": 7940,
    "▁توفندها": 7941,
    "ناگلزم": 7942,
    "تمع": 7943,
    "▁رونالد": 7944,
    "▁شیرجه": 7945,
    "▁برایانت": 7946,
    "▁هنکس": 7947,
    "▁معلولیت": 7948,
    "▁مشروع": 7949,
    "▁سودجو": 7950,
    "▁بخواهند": 7951,
    "▁جهنم": 7952,
    "▁محی": 7953,
    "▁حماس": 7954,
    "▁فرشید": 7955,
    "▁ستود": 7956,
    "▁شایان": 7957,
    "▁جانباخت": 7958,
    "▁راجپوت": 7959,
    "▁لافرته": 7960,
    "▁محتمل": 7961,
    "▁هافکین": 7962,
    "▁آنتوان": 7963,
    "▁فدریک": 7964,
    "▁سرلشکر": 7965,
    "▁سازندگ": 7966,
    "▁هنک": 7967,
    "▁قرائت": 7968,
    "▁معنادار": 7969,
    "▁تعمیرات": 7970,
    "▁امپرا": 7971,
    "ستیو": 7972,
    "▁چفرین": 7973,
    "▁سوفی": 7974,
    "طالب": 7975,
    "▁راهکارهای": 7976,
    "▁غرور": 7977,
    "غذیه": 7978,
    "▁وارث": 7979,
    "▁زیباست": 7980,
    "متاز": 7981,
    "▁لنز": 7982,
    "اطع": 7983,
    "▁رجیس": 7984,
    "▁گلیزر": 7985,
    "اسب": 7986,
    "▁خائ": 7987,
    "▁قبایل": 7988,
    "▁لاهه": 7989,
    "▁پائیز": 7990,
    "▁چسباند": 7991,
    "ربط": 7992,
    "▁کلانتر": 7993,
    "▁کیار": 7994,
    "▁همسایگان": 7995,
    "▁واژگان": 7996,
    "مختار": 7997,
    "▁امداد": 7998,
    "وانیم": 7999,
    "▁چرن": 8000,
    "▁پربار": 8001,
    "▁شو": 8002,
    "▁پرفسور": 8003,
    "ساعت": 8004,
    "▁فاکتور": 8005,
    "▁۲۴۸": 8006,
    "▁صیادان": 8007,
    "▁لج": 8008,
    "▁۱۹۱۸": 8009,
    "▁تابع": 8010,
    "مدیران": 8011,
    "▁فالک": 8012,
    "▁وایت": 8013,
    "▁اخطارهای": 8014,
    "▁فوتسی": 8015,
    "▁دوک": 8016,
    "وبیل": 8017,
    "▁بدیع": 8018,
    "یلیچ": 8019,
    "▁مستع": 8020,
    "دخیل": 8021,
    "▁بکر": 8022,
    "▁شمرد": 8023,
    "▁بیدگ": 8024,
    "شابه": 8025,
    "یزلی": 8026,
    "▁گرون": 8027,
    "▁ترکمان": 8028,
    "▁رن": 8029,
    "▁سوت": 8030,
    "شواری": 8031,
    "▁گلوب": 8032,
    "پایان": 8033,
    "▁معلومات": 8034,
    "▁مرمر": 8035,
    "▁مطمئنا": 8036,
    "▁محص": 8037,
    "▁۲۱۶": 8038,
    "▁پاور": 8039,
    "▁مگو": 8040,
    "گرافی": 8041,
    "▁شجاعت": 8042,
    "▁کنسر": 8043,
    "▁چانگ": 8044,
    "▁متو": 8045,
    "وتاس": 8046,
    "▁موریس": 8047,
    "▁وفن": 8048,
    "▁هادرون": 8049,
    "▁خب": 8050,
    "▁همتایان": 8051,
    "▁تردیدهای": 8052,
    "▁شگرد": 8053,
    "▁محبوبش": 8054,
    "دوران": 8055,
    "▁یاسر": 8056,
    "▁سوسی": 8057,
    "▁گراز": 8058,
    "غما": 8059,
    "▁نرسیدن": 8060,
    "▁فلورا": 8061,
    "گرم": 8062,
    "ندگرن": 8063,
    "▁غر": 8064,
    "▁کشیم": 8065,
    "▁مکزیکو": 8066,
    "▁نگا": 8067,
    "▁افزودند": 8068,
    "مهربان": 8069,
    "▁یونه": 8070,
    "▁رویکردهای": 8071,
    "متن": 8072,
    "تعلل": 8073,
    "▁احرا": 8074,
    "یونان": 8075,
    "▁ساندر": 8076,
    "▁غذاهای": 8077,
    "▁پهنا": 8078,
    "رومن": 8079,
    "تناسب": 8080,
    "▁آری": 8081,
    "ماگال": 8082,
    "▁بفهم": 8083,
    "زره": 8084,
    "مشق": 8085,
    "▁مجال": 8086,
    "▁آورم": 8087,
    "▁مشتاقان": 8088,
    "▁هیپ": 8089,
    "▁رکسا": 8090,
    "▁فنر": 8091,
    "▁ابول": 8092,
    "▁چهارده": 8093,
    "▁تهدیدات": 8094,
    "عود": 8095,
    "▁معط": 8096,
    "▁پشتکار": 8097,
    "▁دایم": 8098,
    "وشیرو": 8099,
    "رسید": 8100,
    "▁آرین": 8101,
    "▁لیمو": 8102,
    "▁چکهای": 8103,
    "بندند": 8104,
    "ارث": 8105,
    "▁الری": 8106,
    "▁درخشند": 8107,
    "▁سلیم": 8108,
    "▁بیک": 8109,
    "▁دستمزدها": 8110,
    "▁پژوهشهای": 8111,
    "▁نیوت": 8112,
    "▁تشوی": 8113,
    "▁بیانداز": 8114,
    "▁نتوان": 8115,
    "▁مورخ": 8116,
    "▁کانتر": 8117,
    "▁ماهیان": 8118,
    "▁نیر": 8119,
    "▁مواجهند": 8120,
    "انریک": 8121,
    "▁قبای": 8122,
    "▁تعبی": 8123,
    "نزل": 8124,
    "▁رف": 8125,
    "فروشی": 8126,
    "▁وتو": 8127,
    "ریا": 8128,
    "پپ": 8129,
    "▁پیشنهادهای": 8130,
    "▁ساچ": 8131,
    "▁فاک": 8132,
    "▁رحیمی": 8133,
    "▁طاهری": 8134,
    "▁هایپر": 8135,
    "▁یورد": 8136,
    "روف": 8137,
    "دستان": 8138,
    "▁سالار": 8139,
    "۱۹۶۴": 8140,
    "▁دوبل": 8141,
    "درنا": 8142,
    "▁بلندهای": 8143,
    "▁گود": 8144,
    "ارگ": 8145,
    "▁میرود": 8146,
    "غلو": 8147,
    "▁فوتو": 8148,
    "▁کلینت": 8149,
    "▁کیان": 8150,
    "▁دلم": 8151,
    "▁بوهای": 8152,
    "▁تاثیرات": 8153,
    "پچو": 8154,
    "▁خودکار": 8155,
    "▁فیزیوتراپ": 8156,
    "▁مالت": 8157,
    "لیس": 8158,
    "فرانسی": 8159,
    "▁بش": 8160,
    "چر": 8161,
    "▁دیرین": 8162,
    "▁مشخصا": 8163,
    "۴۴": 8164,
    "فاق": 8165,
    "▁کیش": 8166,
    "▁قبرها": 8167,
    "▁ضم": 8168,
    "▁شناختند": 8169,
    "▁کمالی": 8170,
    "▁یانگ": 8171,
    "اشک": 8172,
    "▁حریری": 8173,
    "پالا": 8174,
    "▁هوک": 8175,
    "رحمان": 8176,
    "▁بریتانیاست": 8177,
    "▁یادش": 8178,
    "▁بیگان": 8179,
    "▁دریابا": 8180,
    "وشو": 8181,
    "▁وکا": 8182,
    "نتو": 8183,
    "▁عطار": 8184,
    "▁بگو": 8185,
    "انچین": 8186,
    "▁پش": 8187,
    "▁دکترای": 8188,
    "▁استانداردها": 8189,
    "▁رگی": 8190,
    "▁یادم": 8191,
    "▁بلیک": 8192,
    "▁دویچ": 8193,
    "▁بنین": 8194,
    "▁وس": 8195,
    "▁حم": 8196,
    "▁اوس": 8197,
    "ولتی": 8198,
    "تینگ": 8199,
    "▁شیرها": 8200,
    "▁حائ": 8201,
    "▁لویی": 8202,
    "▁دانستم": 8203,
    "شون": 8204,
    "وستون": 8205,
    "▁مینیا": 8206,
    "▁لع": 8207,
    "▁آمل": 8208,
    "▁بنت": 8209,
    "▁لیلا": 8210,
    "▁پخت": 8211,
    "خونی": 8212,
    "بیا": 8213,
    "▁افشاری": 8214,
    "▁وجوه": 8215,
    "ایان": 8216,
    "خر": 8217,
    "رمند": 8218,
    "▁اخت": 8219,
    "علم": 8220,
    "ینک": 8221,
    "عاب": 8222,
    "▁درو": 8223,
    "▁استرلی": 8224,
    "▁استوار": 8225,
    "▁پستان": 8226,
    "پرت": 8227,
    "▁حض": 8228,
    "▁فرزندانش": 8229,
    "▁کون": 8230,
    "▁بازیکنانش": 8231,
    "▁چش": 8232,
    "اض": 8233,
    "کات": 8234,
    "▁قا": 8235,
    "▁ژیل": 8236,
    "خوانده": 8237,
    "▁دارن": 8238,
    "▁ورز": 8239,
    "▁دیگ": 8240,
    "زمه": 8241,
    "▁حکمت": 8242,
    "▁کلیت": 8243,
    "فرود": 8244,
    "میرا": 8245,
    "▁غای": 8246,
    "▁رازی": 8247,
    "ایف": 8248,
    "▁سبزی": 8249,
    "▁رون": 8250,
    "▁شرکتها": 8251,
    "▁فیو": 8252,
    "ناپس": 8253,
    "▁عالمی": 8254,
    "▁لاین": 8255,
    "خانی": 8256,
    "لستون": 8257,
    "▁مارین": 8258,
    "▁لینگ": 8259,
    "خوانند": 8260,
    "▁هوگ": 8261,
    "ختی": 8262,
    "مایه": 8263,
    "▁چغ": 8264,
    "▁کوک": 8265,
    "▁بازن": 8266,
    "▁ریل": 8267,
    "نیو": 8268,
    "▁استودیوی": 8269,
    "▁نظ": 8270,
    "▁دارداین": 8271,
    "▁آش": 8272,
    "▁کولی": 8273,
    "▁سامانی": 8274,
    "کرده": 8275,
    "گرانی": 8276,
    "۹۵": 8277,
    "▁جون": 8278,
    "▁نبودن": 8279,
    "▁جوری": 8280,
    "▁رزو": 8281,
    "▁پولهای": 8282,
    "▁فره": 8283,
    "روث": 8284,
    "▁ماسی": 8285,
    "▁مخاط": 8286,
    "▁ناامیدی": 8287,
    "▁تحرکی": 8288,
    "یابان": 8289,
    "باسی": 8290,
    "پژوه": 8291,
    "▁۱۶۶": 8292,
    "▁منسو": 8293,
    "وتا": 8294,
    "ترا": 8295,
    "ریگو": 8296,
    "زیا": 8297,
    "تعارف": 8298,
    "ریوس": 8299,
    "گد": 8300,
    "▁۱۲۵": 8301,
    "گردها": 8302,
    "▁برخاستن": 8303,
    "▁الاه": 8304,
    "جران": 8305,
    "۹۸": 8306,
    "ستراز": 8307,
    "صله": 8308,
    "▁ناخ": 8309,
    "ثر": 8310,
    "▁ندا": 8311,
    "کستر": 8312,
    "▁۱۰۹": 8313,
    "▁اصولی": 8314,
    "▁ذهنش": 8315,
    "آلات": 8316,
    "▁نوک": 8317,
    "▁لوی": 8318,
    "▁آموختن": 8319,
    "▁کنارش": 8320,
    "ربین": 8321,
    "وط": 8322,
    "▁ارتد": 8323,
    "▁گرینو": 8324,
    "پرای": 8325,
    "وشن": 8326,
    "▁گفتار": 8327,
    "خال": 8328,
    "رف": 8329,
    "ماجرا": 8330,
    "▁بستگان": 8331,
    "دالر": 8332,
    "۶۶": 8333,
    "رزرو": 8334,
    "گستر": 8335,
    "رفتن": 8336,
    "▁اوب": 8337,
    "فشار": 8338,
    "کلیف": 8339,
    "▁الک": 8340,
    "نگاره": 8341,
    "روزهای": 8342,
    "غدی": 8343,
    "▁پناهجو": 8344,
    "▁هوشیار": 8345,
    "▁کیک": 8346,
    "▁گرجستان": 8347,
    "میزان": 8348,
    "▁شوخ": 8349,
    "▁ورا": 8350,
    "▁اظهارنظرها": 8351,
    "بیت": 8352,
    "▁نمک": 8353,
    "▁قدیم": 8354,
    "خوش": 8355,
    "نگوی": 8356,
    "روها": 8357,
    "خارج": 8358,
    "▁آغ": 8359,
    "ترک": 8360,
    "▁الکسا": 8361,
    "▁قنا": 8362,
    "▁رحیم": 8363,
    "چو": 8364,
    "ئون": 8365,
    "▁پیشگیر": 8366,
    "▁نگذاشت": 8367,
    "۹۶۰": 8368,
    "کنند": 8369,
    "▁هریس": 8370,
    "▁سکس": 8371,
    "▁چیزها": 8372,
    "سوی": 8373,
    "▁طاهر": 8374,
    "▁فروخت": 8375,
    "ذو": 8376,
    "▁پاشید": 8377,
    "ادل": 8378,
    "▁بفهمی": 8379,
    "وشکن": 8380,
    "یناتور": 8381,
    "هوش": 8382,
    "کریس": 8383,
    "اجرای": 8384,
    "گذران": 8385,
    "▁اوکا": 8386,
    "▁دکترا": 8387,
    "▁فول": 8388,
    "▁طاه": 8389,
    "▁۲۰۷": 8390,
    "بازیکن": 8391,
    "گوین": 8392,
    "▁گزی": 8393,
    "بنیا": 8394,
    "خصوص": 8395,
    "گمش": 8396,
    "نهادهای": 8397,
    "▁اپراتور": 8398,
    "مسلم": 8399,
    "پینو": 8400,
    "۶۸": 8401,
    "فرام": 8402,
    "صمد": 8403,
    "سیاستگذار": 8404,
    "تحقیق": 8405,
    "نقا": 8406,
    "فاضل": 8407,
    "نظار": 8408,
    "بیورن": 8409,
    "چاق": 8410,
    "اسحاق": 8411,
    "پیرلو": 8412,
    "صرب": 8413,
    "نشدنی": 8414,
    "ثروت": 8415,
    "اسپوت": 8416,
    "تخریب": 8417,
    "خاوران": 8418,
    "سوئیس": 8419,
    "برزیل": 8420,
    "تیراندازی": 8421,
    "نویسندگان": 8422,
    "سفیر": 8423,
    "صنعت": 8424,
    "حکومت": 8425,
    "مشاور": 8426,
    "کودک": 8427,
    "نزدیک": 8428,
    "سبک": 8429,
    "آثار": 8430,
    "عملیات": 8431,
    "شکایت": 8432,
    "افراد": 8433,
    "جنوب": 8434,
    "دنیل": 8435,
    "سبز": 8436,
    "کثیر": 8437,
    "همیشه": 8438,
    "سازنده": 8439,
    "حذف": 8440,
    "لیدز": 8441,
    "کاملا": 8442,
    "تابستان": 8443,
    "ربات": 8444,
    "داریوش": 8445,
    "درحالی": 8446,
    "سناتور": 8447,
    "پیر": 8448,
    "ذخا": 8449,
    "امارات": 8450,
    "متوقف": 8451,
    "اقدام": 8452,
    "خدم": 8453,
    "عزیز": 8454,
    "مکرون": 8455,
    "مایند": 8456,
    "مرح": 8457,
    "هموار": 8458,
    "▁جمل": 8459,
    "چای": 8460,
    "شمالی": 8461,
    "اعتراضات": 8462,
    "هجوم": 8463,
    "ناتی": 8464,
    "ناسا": 8465,
    "خودروهای": 8466,
    "۱۴۰۰": 8467,
    "نژادپرست": 8468,
    "▁لیم": 8469,
    "اسنو": 8470,
    "سپاهان": 8471,
    "▁یزدان": 8472,
    "مدیریت": 8473,
    "بدهی": 8474,
    "▁چشمم": 8475,
    "کانال": 8476,
    "بشر": 8477,
    "ئیت": 8478,
    "اغر": 8479,
    "▁تفنگ": 8480,
    "▁فراخوان": 8481,
    "▁کثی": 8482,
    "بوک": 8483,
    "ناتالی": 8484,
    "ناوگان": 8485,
    "رییس": 8486,
    "بازارهای": 8487,
    "▁داینا": 8488,
    "رانگ": 8489,
    "واگذار": 8490,
    "نوسان": 8491,
    "رحیم": 8492,
    "کشف": 8493,
    "▁همسایگ": 8494,
    "ژهای": 8495,
    "بنز": 8496,
    "▁هشدارها": 8497,
    "ئیل": 8498,
    "پوشان": 8499,
    "ورنتین": 8500,
    "▁آپار": 8501,
    "▁پابرجا": 8502,
    "رونا": 8503,
    "▁کاس": 8504,
    "▁نخ": 8505,
    "▁سفیدپوست": 8506,
    "▁جولیا": 8507,
    "دیوان": 8508,
    "فورا": 8509,
    "سانسور": 8510,
    "▁محدو": 8511,
    "▁واژگ": 8512,
    "▁سلب": 8513,
    "▁منظو": 8514,
    "پراتور": 8515,
    "واضع": 8516,
    "سالار": 8517,
    "پیمایی": 8518,
    "لگرام": 8519,
    "هرزاد": 8520,
    "قایق": 8521,
    "▁الاجرا": 8522,
    "زلزل": 8523,
    "▁عوا": 8524,
    "▁المپی": 8525,
    "لژی": 8526,
    "تروئ": 8527,
    "موکورمایکوزیس": 8528,
    "▁انقباض": 8529,
    "▁انهدام": 8530,
    "▁باثبات": 8531,
    "▁برگردانند": 8532,
    "▁بشناسد": 8533,
    "▁بشنوند": 8534,
    "▁بورکینافاسو": 8535,
    "▁تماشگر": 8536,
    "▁تمسخر": 8537,
    "▁دگراندیش": 8538,
    "▁عاقبت": 8539,
    "▁فانخیو": 8540,
    "▁فلسفی": 8541,
    "▁فیزیولوژی": 8542,
    "▁قزوین": 8543,
    "▁مرتضوی": 8544,
    "▁ناسازگار": 8545,
    "▁نباشند": 8546,
    "▁همقطاران": 8547,
    "▁ولاسکز": 8548,
    "▁کوکائین": 8549,
    "▁الارض": 8550,
    "▁ترائوره": 8551,
    "▁متذکر": 8552,
    "▁ناظمی": 8553,
    "▁پرینسخرا": 8554,
    "▁اکونومی": 8555,
    "▁بیندازد": 8556,
    "▁سوبرانا": 8557,
    "▁محتکر": 8558,
    "▁تشریفات": 8559,
    "▁میکروسکوپ": 8560,
    "▁ناپایدار": 8561,
    "▁کاریکاتور": 8562,
    "▁قیراط": 8563,
    "▁همجوار": 8564,
    "▁کذب": 8565,
    "▁شریعت": 8566,
    "▁نافذ": 8567,
    "▁هولدینگ": 8568,
    "▁بپرسید": 8569,
    "▁هزارتومان": 8570,
    "▁گانگستر": 8571,
    "▁مجارستان": 8572,
    "▁گدوت": 8573,
    "▁خودخواهانه": 8574,
    "▁نذری": 8575,
    "▁اگنس": 8576,
    "▁بازوبند": 8577,
    "▁ملموس": 8578,
    "▁گماشت": 8579,
    "▁بمیرد": 8580,
    "▁ضرغام": 8581,
    "▁عبادی": 8582,
    "▁قعر": 8583,
    "▁موثق": 8584,
    "▁کوواکس": 8585,
    "▁سانفرانسیسکو": 8586,
    "▁فرخزاد": 8587,
    "▁سوینتن": 8588,
    "▁نوترینو": 8589,
    "▁یوردانس": 8590,
    "▁معبد": 8591,
    "▁ناخدا": 8592,
    "▁وجدان": 8593,
    "▁۲۴۰": 8594,
    "▁الکسی": 8595,
    "▁هکتار": 8596,
    "▁اهرم": 8597,
    "▁اکرم": 8598,
    "▁سروصدا": 8599,
    "▁گوارش": 8600,
    "▁فراهانی": 8601,
    "▁نزاع": 8602,
    "▁باروک": 8603,
    "معجزه": 8604,
    "▁ژنشنگ": 8605,
    "ستراح": 8606,
    "▁ستمگر": 8607,
    "▁لئون": 8608,
    "▁نحس": 8609,
    "▁الشع": 8610,
    "▁تسخیر": 8611,
    "▁مبتکر": 8612,
    "▁سیلیکون": 8613,
    "▁سمنزا": 8614,
    "▁اوباش": 8615,
    "▁بازوهای": 8616,
    "▁هیلتون": 8617,
    "▁ربع": 8618,
    "▁همینگوی": 8619,
    "▁شنوند": 8620,
    "▁علیشاهی": 8621,
    "▁پوینت": 8622,
    "▁مرزبندی": 8623,
    "▁نوشتارها": 8624,
    "▁بردارم": 8625,
    "▁ریتم": 8626,
    "▁سیستماتیک": 8627,
    "▁عواطف": 8628,
    "▁صربستان": 8629,
    "▁ایرویز": 8630,
    "▁الخروج": 8631,
    "▁اسکلت": 8632,
    "▁چرم": 8633,
    "▁معذ": 8634,
    "▁مکوندی": 8635,
    "▁گمارد": 8636,
    "▁بسط": 8637,
    "▁بنرهای": 8638,
    "▁فرازمینی": 8639,
    "▁مقبول": 8640,
    "نکات": 8641,
    "ریحان": 8642,
    "▁دلنشین": 8643,
    "▁غیرمعمول": 8644,
    "▁نشناخت": 8645,
    "▁بزنید": 8646,
    "▁آقاخان": 8647,
    "▁بیایند": 8648,
    "▁ماورا": 8649,
    "▁محصور": 8650,
    "▁بپردازند": 8651,
    "وصف": 8652,
    "طغ": 8653,
    "▁نویدبخش": 8654,
    "▁قدیس": 8655,
    "▁ونوس": 8656,
    "▁سیندمی": 8657,
    "▁نافرجام": 8658,
    "▁زمام": 8659,
    "▁گیج": 8660,
    "▁موزیکال": 8661,
    "▁۱۳۸۰": 8662,
    "▁امیدورا": 8663,
    "▁ستیزانه": 8664,
    "سگ": 8665,
    "▁فاضلاب": 8666,
    "▁تخار": 8667,
    "▁کانتونا": 8668,
    "ضلع": 8669,
    "▁برچید": 8670,
    "اکولوژی": 8671,
    "▁پرمخاط": 8672,
    "▁خص": 8673,
    "▁مرندی": 8674,
    "▁همجنسگرا": 8675,
    "▁سموم": 8676,
    "▁پنداشت": 8677,
    "▁بزنیم": 8678,
    "▁آنچنان": 8679,
    "▁معابد": 8680,
    "▁کوئینز": 8681,
    "▁دلجو": 8682,
    "▁پالیس": 8683,
    "▁خوشبو": 8684,
    "▁فیض": 8685,
    "آنگولا": 8686,
    "▁۷۶۰": 8687,
    "▁تایوان": 8688,
    "غام": 8689,
    "▁افراز": 8690,
    "▁رادیک": 8691,
    "دخا": 8692,
    "▁پارکین": 8693,
    "▁زهیر": 8694,
    "▁لرزید": 8695,
    "▁مکاتبات": 8696,
    "▁هورن": 8697,
    "▁روباه": 8698,
    "▁۱۹۴۴": 8699,
    "▁اتمر": 8700,
    "ولوو": 8701,
    "▁گاف": 8702,
    "▁گنبد": 8703,
    "▁پورنو": 8704,
    "تقی": 8705,
    "▁همبازی": 8706,
    "▁سهمگین": 8707,
    "انجیر": 8708,
    "▁بکنند": 8709,
    "▁دارالا": 8710,
    "▁بوفالوران": 8711,
    "▁بامیه": 8712,
    "▁عابران": 8713,
    "▁دانید": 8714,
    "▁لمب": 8715,
    "▁۲۲۰": 8716,
    "▁بنشین": 8717,
    "▁دهشت": 8718,
    "▁چریک": 8719,
    "دوستان": 8720,
    "▁شهباز": 8721,
    "▁گوترش": 8722,
    "▁محک": 8723,
    "▁هنرپیشگ": 8724,
    "▁خورند": 8725,
    "حج": 8726,
    "سیاست": 8727,
    "▁لارن": 8728,
    "▁خفت": 8729,
    "▁میناری": 8730,
    "▁افزو": 8731,
    "▁ورزند": 8732,
    "▁دیلن": 8733,
    "▁آنجلی": 8734,
    "▁آموس": 8735,
    "▁بخوانند": 8736,
    "▁هولو": 8737,
    "پوآ": 8738,
    "▁نیافتاد": 8739,
    "▁بلاتکلیف": 8740,
    "▁فلسطینی": 8741,
    "ارزپاشی": 8742,
    "بنوی": 8743,
    "▁مجلل": 8744,
    "▁پرالتهاب": 8745,
    "سوار": 8746,
    "▁نیکو": 8747,
    "▁ویسل": 8748,
    "▁مفتو": 8749,
    "▁نرود": 8750,
    "▁ذوال": 8751,
    "▁آبراه": 8752,
    "▁شنیدم": 8753,
    "▁جبار": 8754,
    "▁دورانگو": 8755,
    "▁خیرخواه": 8756,
    "▁فونت": 8757,
    "▁دوقلوها": 8758,
    "▁انرو": 8759,
    "▁خرابکارانه": 8760,
    "▁جزای": 8761,
    "▁برسید": 8762,
    "سوال": 8763,
    "▁اغما": 8764,
    "نتس": 8765,
    "▁سفیدپوستان": 8766,
    "▁ایزد": 8767,
    "▁جویا": 8768,
    "▁ممد": 8769,
    "▁بحری": 8770,
    "▁جویانه": 8771,
    "▁جداسازی": 8772,
    "▁مبد": 8773,
    "دانف": 8774,
    "گشایش": 8775,
    "▁نمودار": 8776,
    "▁هالووین": 8777,
    "▁هموطنان": 8778,
    "▁لاپ": 8779,
    "فائ": 8780,
    "▁بشنوید": 8781,
    "▁قلو": 8782,
    "▁منکین": 8783,
    "▁۱۲۷": 8784,
    "فیو": 8785,
    "▁تراژ": 8786,
    "▁ناباور": 8787,
    "لومین": 8788,
    "▁نداشتیم": 8789,
    "▁دیوارنگار": 8790,
    "▁یوهان": 8791,
    "▁فراگرفت": 8792,
    "▁۱۷۵": 8793,
    "▁بلوم": 8794,
    "ستحکم": 8795,
    "▁کارکرد": 8796,
    "▁رباتیک": 8797,
    "▁ماجراجوی": 8798,
    "▁الط": 8799,
    "▁چهارصد": 8800,
    "▁بیکارشد": 8801,
    "▁بنفش": 8802,
    "▁دالان": 8803,
    "▁پیوندند": 8804,
    "▁عاج": 8805,
    "▁اژدها": 8806,
    "▁بوسی": 8807,
    "▁سودده": 8808,
    "▁پیمانکاران": 8809,
    "▁نظار": 8810,
    "▁نورال": 8811,
    "چنین": 8812,
    "اخور": 8813,
    "▁آتن": 8814,
    "حاب": 8815,
    "▁شنیدنش": 8816,
    "▁آوردیم": 8817,
    "سترون": 8818,
    "▁نط": 8819,
    "▁پولها": 8820,
    "▁رسیم": 8821,
    "▁صمد": 8822,
    "خاش": 8823,
    "کبیر": 8824,
    "▁معترضین": 8825,
    "▁یادمان": 8826,
    "کشید": 8827,
    "▁مشاهدات": 8828,
    "صیر": 8829,
    "▁موزی": 8830,
    "▁دزدید": 8831,
    "ریاست": 8832,
    "▁دستفروش": 8833,
    "▁وسائ": 8834,
    "▁گرافی": 8835,
    "▁افشاگر": 8836,
    "اندیش": 8837,
    "▁هیج": 8838,
    "حضرت": 8839,
    "▁درصورت": 8840,
    "لاستیک": 8841,
    "▁ایندی": 8842,
    "▁مجاور": 8843,
    "▁بلد": 8844,
    "▁پرشک": 8845,
    "▁درنظر": 8846,
    "▁حریفش": 8847,
    "عاده": 8848,
    "▁جده": 8849,
    "▁محرومند": 8850,
    "▁درازا": 8851,
    "▁والن": 8852,
    "▁مخالفند": 8853,
    "▁غفاری": 8854,
    "▁برنج": 8855,
    "▁تباه": 8856,
    "▁مشق": 8857,
    "▁کوئین": 8858,
    "▁ستیز": 8859,
    "▁بغ": 8860,
    "▁کربی": 8861,
    "▁ماجراهای": 8862,
    "▁فوب": 8863,
    "▁تاس": 8864,
    "نخ": 8865,
    "▁فون": 8866,
    "فشان": 8867,
    "شکنی": 8868,
    "سرگ": 8869,
    "همراه": 8870,
    "▁برگشتند": 8871,
    "▁بدق": 8872,
    "▁آبیار": 8873,
    "▁نگذاشته": 8874,
    "▁پاشیده": 8875,
    "▁قمر": 8876,
    "▁ابط": 8877,
    "پرستانه": 8878,
    "وچی": 8879,
    "سرع": 8880,
    "▁خسرو": 8881,
    "▁دوهزار": 8882,
    "▁هوادارن": 8883,
    "مانند": 8884,
    "چس": 8885,
    "▁فراوانش": 8886,
    "▁فرگوس": 8887,
    "▁چادر": 8888,
    "▁سپاس": 8889,
    "خسار": 8890,
    "وود": 8891,
    "▁شناسیم": 8892,
    "▁نجومی": 8893,
    "▁چشمک": 8894,
    "▁آغا": 8895,
    "تابلو": 8896,
    "خالی": 8897,
    "بخت": 8898,
    "تجمع": 8899,
    "▁بندهای": 8900,
    "خن": 8901,
    "ورال": 8902,
    "▁ترسم": 8903,
    "▁فلور": 8904,
    "▁کنگو": 8905,
    "بولت": 8906,
    "▁وود": 8907,
    "وض": 8908,
    "▁فریم": 8909,
    "کادی": 8910,
    "▁اجسا": 8911,
    "▁آمری": 8912,
    "رمو": 8913,
    "▁جیو": 8914,
    "▁زاها": 8915,
    "۷۷": 8916,
    "▁بریز": 8917,
    "الفبا": 8918,
    "هیج": 8919,
    "▁سرام": 8920,
    "تص": 8921,
    "▁گند": 8922,
    "انزی": 8923,
    "▁لائو": 8924,
    "▁افتادند": 8925,
    "روید": 8926,
    "▁فرمین": 8927,
    "مونت": 8928,
    "▁ویچ": 8929,
    "جیح": 8930,
    "زندگان": 8931,
    "▁سیلوا": 8932,
    "▁منش": 8933,
    "▁والد": 8934,
    "▁روبل": 8935,
    "▁ادینبور": 8936,
    "▁چرخاند": 8937,
    "گرمی": 8938,
    "کلت": 8939,
    "▁شغلهای": 8940,
    "سپورت": 8941,
    "نادر": 8942,
    "ساتبی": 8943,
    "رشا": 8944,
    "▁کانا": 8945,
    "▁فرزان": 8946,
    "۴۵": 8947,
    "حشم": 8948,
    "▁افکند": 8949,
    "▁گرانش": 8950,
    "▁نائ": 8951,
    "▁۲۰۶": 8952,
    "▁هواپیماساز": 8953,
    "▁برسیم": 8954,
    "▁فدا": 8955,
    "▁لوین": 8956,
    "▁تجسمی": 8957,
    "سپر": 8958,
    "▁پروس": 8959,
    "سیاسی": 8960,
    "نتر": 8961,
    "شمن": 8962,
    "▁سیمین": 8963,
    "▁بویی": 8964,
    "▁پولدار": 8965,
    "▁کورس": 8966,
    "بریز": 8967,
    "▁راهور": 8968,
    "▁رقیبان": 8969,
    "▁ویا": 8970,
    "▁فلی": 8971,
    "▁داس": 8972,
    "شاپی": 8973,
    "▁ضمی": 8974,
    "▁ارغ": 8975,
    "▁نگو": 8976,
    "▁زدم": 8977,
    "کابو": 8978,
    "▁لوب": 8979,
    "تقابل": 8980,
    "▁نشا": 8981,
    "▁رزمند": 8982,
    "▁آمو": 8983,
    "شرف": 8984,
    "اعش": 8985,
    "▁نوارها": 8986,
    "▁بشوی": 8987,
    "دنبال": 8988,
    "جروم": 8989,
    "چندان": 8990,
    "اعات": 8991,
    "▁بلندپروازی": 8992,
    "▁شورشی": 8993,
    "یکایی": 8994,
    "▁پرتوی": 8995,
    "▁داکا": 8996,
    "نسوخ": 8997,
    "گوید": 8998,
    "▁مث": 8999,
    "▁رک": 9000,
    "طبا": 9001,
    "چهارم": 9002,
    "▁بنیا": 9003,
    "▁پرداختند": 9004,
    "▁زهی": 9005,
    "▁کوئ": 9006,
    "▁بنام": 9007,
    "▁گنجا": 9008,
    "▁پلات": 9009,
    "ریتز": 9010,
    "▁زیباتر": 9011,
    "▁چندسال": 9012,
    "▁کشاورزان": 9013,
    "▁ترها": 9014,
    "▁آتا": 9015,
    "▁ورای": 9016,
    "▁استعماری": 9017,
    "▁ویلر": 9018,
    "▁۱۲۸": 9019,
    "▁غیرمت": 9020,
    "رخ": 9021,
    "سنده": 9022,
    "▁میشی": 9023,
    "▁فروشد": 9024,
    "▁انبارها": 9025,
    "▁پیکا": 9026,
    "فال": 9027,
    "▁بایستی": 9028,
    "ارتی": 9029,
    "▁آلیس": 9030,
    "▁موثرتر": 9031,
    "وجه": 9032,
    "کسان": 9033,
    "▁لوت": 9034,
    "▁پیس": 9035,
    "▁روستاها": 9036,
    "▁سوریا": 9037,
    "▁غز": 9038,
    "▁هلا": 9039,
    "▁چپگرا": 9040,
    "▁ناراحتی": 9041,
    "▁جفا": 9042,
    "سیستم": 9043,
    "اگون": 9044,
    "آمارها": 9045,
    "▁ایرانروزها": 9046,
    "لوح": 9047,
    "لنگر": 9048,
    "انستان": 9049,
    "الین": 9050,
    "▁پورت": 9051,
    "▁بوستا": 9052,
    "وگو": 9053,
    "▁دس": 9054,
    "ریکا": 9055,
    "▁الزاما": 9056,
    "۵۳": 9057,
    "ضراب": 9058,
    "مثبت": 9059,
    "▁فتو": 9060,
    "▁کردید": 9061,
    "▁معای": 9062,
    "کسوت": 9063,
    "▁تغییرهای": 9064,
    "▁وینس": 9065,
    "▁سراغش": 9066,
    "رزم": 9067,
    "▁ریلی": 9068,
    "اندرو": 9069,
    "▁بازدیدها": 9070,
    "▁فران": 9071,
    "▁دبیل": 9072,
    "▁لایک": 9073,
    "▁آق": 9074,
    "مالیا": 9075,
    "▁۱۳۸۶": 9076,
    "▁خرو": 9077,
    "وگند": 9078,
    "ایکون": 9079,
    "▁گرو": 9080,
    "ئوس": 9081,
    "رستان": 9082,
    "▁سنجی": 9083,
    "وردی": 9084,
    "اپور": 9085,
    "بود": 9086,
    "▁۱۵۲": 9087,
    "پال": 9088,
    "مگان": 9089,
    "سالگی": 9090,
    "خاطره": 9091,
    "▁بلن": 9092,
    "فمن": 9093,
    "درآمدهای": 9094,
    "صدق": 9095,
    "تروف": 9096,
    "▁مارسل": 9097,
    "لمن": 9098,
    "▁چنگ": 9099,
    "والد": 9100,
    "ارگردان": 9101,
    "▁۱۱۹": 9102,
    "ناتور": 9103,
    "اسکا": 9104,
    "▁کاو": 9105,
    "▁پاین": 9106,
    "▁محبو": 9107,
    "ارجه": 9108,
    "▁تمل": 9109,
    "زاق": 9110,
    "▁رویاها": 9111,
    "▁گلشی": 9112,
    "▁سریعتر": 9113,
    "▁فیزیوتراپی": 9114,
    "▁۴۸۰": 9115,
    "مالا": 9116,
    "▁وظایفش": 9117,
    "بوم": 9118,
    "۱۴۶": 9119,
    "▁مضا": 9120,
    "▁صمیم": 9121,
    "رزاده": 9122,
    "عرض": 9123,
    "۶۲۰": 9124,
    "رتون": 9125,
    "▁حف": 9126,
    "نتینو": 9127,
    "▁لنگ": 9128,
    "وخته": 9129,
    "▁کتابدار": 9130,
    "گسترد": 9131,
    "▁هید": 9132,
    "ناوند": 9133,
    "اسف": 9134,
    "فلورای": 9135,
    "فولا": 9136,
    "▁کارآمد": 9137,
    "ژیک": 9138,
    "▁هجده": 9139,
    "▁۱۱۴": 9140,
    "تراز": 9141,
    "راحتی": 9142,
    "بسیار": 9143,
    "آقا": 9144,
    "قانون": 9145,
    "▁تولی": 9146,
    "▁نجوم": 9147,
    "۳۰۰": 9148,
    "▁السی": 9149,
    "ونکو": 9150,
    "رنوش": 9151,
    "▁اعم": 9152,
    "▁وکلا": 9153,
    "مایش": 9154,
    "▁محتوا": 9155,
    "▁مطهر": 9156,
    "تورم": 9157,
    "▁تیرانداز": 9158,
    "▁سخنگو": 9159,
    "یونیست": 9160,
    "▁فعل": 9161,
    "▁۷۱": 9162,
    "▁پاها": 9163,
    "عیار": 9164,
    "▁دلخو": 9165,
    "▁بورد": 9166,
    "▁صحرا": 9167,
    "▁ادعاها": 9168,
    "▁عبد": 9169,
    "ثمی": 9170,
    "▁شغلها": 9171,
    "▁دیوارها": 9172,
    "صراف": 9173,
    "▁بیوا": 9174,
    "▁بوها": 9175,
    "قامت": 9176,
    "دورا": 9177,
    "▁کالو": 9178,
    "ارکان": 9179,
    "رفته": 9180,
    "▁آمر": 9181,
    "رخوری": 9182,
    "دروس": 9183,
    "خلال": 9184,
    "▁محاکم": 9185,
    "▁معوق": 9186,
    "چگون": 9187,
    "آمد": 9188,
    "۴۰۰": 9189,
    "بورک": 9190,
    "▁وزر": 9191,
    "▁شکو": 9192,
    "▁۱۲۶": 9193,
    "▁خوابید": 9194,
    "یامده": 9195,
    "▁متروک": 9196,
    "قاعد": 9197,
    "▁زل": 9198,
    "▁الکترود": 9199,
    "سپاه": 9200,
    "وام": 9201,
    "▁فاکس": 9202,
    "زارها": 9203,
    "▁سط": 9204,
    "محل": 9205,
    "بنفش": 9206,
    "تفاوت": 9207,
    "داخل": 9208,
    "کوب": 9209,
    "▁بخواب": 9210,
    "مسئول": 9211,
    "▁۳۵۰۰": 9212,
    "ژیل": 9213,
    "تولد": 9214,
    "تغییر": 9215,
    "انتقال": 9216,
    "حکام": 9217,
    "توییت": 9218,
    "راست": 9219,
    "مهندسان": 9220,
    "جعفر": 9221,
    "رامش": 9222,
    "رونالدینیو": 9223,
    "پناه": 9224,
    "مرتضی": 9225,
    "تیرماه": 9226,
    "هرمز": 9227,
    "بنکسی": 9228,
    "تحریر": 9229,
    "مالاریا": 9230,
    "اقبال": 9231,
    "قاضی": 9232,
    "عطرساز": 9233,
    "برابر": 9234,
    "آلن": 9235,
    "کاوشگر": 9236,
    "دادسرا": 9237,
    "جلسات": 9238,
    "ویلیام": 9239,
    "هیوندای": 9240,
    "منچستریونایتد": 9241,
    "تجهیزات": 9242,
    "لوئی": 9243,
    "اختلال": 9244,
    "آموز": 9245,
    "سرنوشت": 9246,
    "خودکشی": 9247,
    "تبعیض": 9248,
    "پادشاه": 9249,
    "گواردیولا": 9250,
    "مسعود": 9251,
    "خورشید": 9252,
    "فیسبوک": 9253,
    "آرسنال": 9254,
    "سرپرست": 9255,
    "اولسان": 9256,
    "حراج": 9257,
    "وبسایت": 9258,
    "مدیرعامل": 9259,
    "بلژیک": 9260,
    "عرص": 9261,
    "سرطان": 9262,
    "واشنگتن": 9263,
    "اطمینان": 9264,
    "عصر": 9265,
    "تزریق": 9266,
    "اظهارات": 9267,
    "بحرین": 9268,
    "برخورد": 9269,
    "فرصت": 9270,
    "صحبت": 9271,
    "ظریف": 9272,
    "سرمربی": 9273,
    "واحد": 9274,
    "دانشگاه": 9275,
    "حمایت": 9276,
    "رابطه": 9277,
    "نهاده": 9278,
    "صعود": 9279,
    "ایسنا": 9280,
    "شرط": 9281,
    "آتش": 9282,
    "هدایت": 9283,
    "ورزش": 9284,
    "پیدا": 9285,
    "جمله": 9286,
    "چاپ": 9287,
    "بودجه": 9288,
    "پارسال": 9289,
    "ورزشگاه": 9290,
    "بیانیه": 9291,
    "جلسه": 9292,
    "رونالدو": 9293,
    "وضعیت": 9294,
    "انتقادات": 9295,
    "شایست": 9296,
    "امضا": 9297,
    "تایید": 9298,
    "بازدید": 9299,
    "کجاست": 9300,
    "گمانه": 9301,
    "مدیرکل": 9302,
    "روحانی": 9303,
    "فیفا": 9304,
    "فینال": 9305,
    "سادگی": 9306,
    "علنی": 9307,
    "تغییرات": 9308,
    "مثل": 9309,
    "توییتر": 9310,
    "جنسی": 9311,
    "ضمن": 9312,
    "دندان": 9313,
    "جدال": 9314,
    "کالا": 9315,
    "▁ساق": 9316,
    "قرارداد": 9317,
    "رجب": 9318,
    "صفر": 9319,
    "چپ": 9320,
    "اصلاح": 9321,
    "فکر": 9322,
    "نادال": 9323,
    "چهارشنبه": 9324,
    "پیمان": 9325,
    "ریزش": 9326,
    "پشت": 9327,
    "معمول": 9328,
    "قدم": 9329,
    "الیستی": 9330,
    "درباره": 9331,
    "فراز": 9332,
    "امشب": 9333,
    "حکمت": 9334,
    "خرید": 9335,
    "قبلا": 9336,
    "اسکار": 9337,
    "مشکل": 9338,
    "ایمن": 9339,
    "شاهد": 9340,
    "▁فرانس": 9341,
    "▁۲۹۰": 9342,
    "حرکت": 9343,
    "بندهای": 9344,
    "گوپ": 9345,
    "▁الاح": 9346,
    "▁مختص": 9347,
    "کمک": 9348,
    "گذراند": 9349,
    "▁افزای": 9350,
    "کاوا": 9351,
    "دستور": 9352,
    "طالبان": 9353,
    "▁۳۳۰": 9354,
    "اتاق": 9355,
    "متیو": 9356,
    "رافی": 9357,
    "▁برجست": 9358,
    "▁عص": 9359,
    "پهن": 9360,
    "جنر": 9361,
    "▁قرائ": 9362,
    "طابق": 9363,
    "▁بغل": 9364,
    "مصرف": 9365,
    "استیل": 9366,
    "درخواست": 9367,
    "▁۲۵۰۰": 9368,
    "واقعیت": 9369,
    "▁شفی": 9370,
    "وقف": 9371,
    "▁آذ": 9372,
    "▁مطبوع": 9373,
    "▁ظالم": 9374,
    "یکصد": 9375,
    "▁آرنو": 9376,
    "تراتو": 9377,
    "پارتمان": 9378,
    "▁شمش": 9379,
    "اراگوئه": 9380,
    "▁کانتون": 9381,
    "▁لابراتوار": 9382,
    "لئوپولد": 9383,
    "▁ابرکامپیوترها": 9384,
    "▁ابوظبی": 9385,
    "▁الکترومغناطیس": 9386,
    "▁اکسیدکربن": 9387,
    "▁ایزوتوپ": 9388,
    "▁حوتاسفند": 9389,
    "▁دگرباش": 9390,
    "▁دیپلومات": 9391,
    "▁روئی": 9392,
    "▁زاناردی": 9393,
    "▁سریلانکا": 9394,
    "▁سولوویوف": 9395,
    "▁شقاقی": 9396,
    "▁طنزپرداز": 9397,
    "▁غوغای": 9398,
    "▁متعاقب": 9399,
    "▁مفاهیم": 9400,
    "▁واینالد": 9401,
    "▁وبیتکو": 9402,
    "▁ومعرف": 9403,
    "▁پلاکاردهایی": 9404,
    "▁پنتاگون": 9405,
    "▁ژئوپلتیک": 9406,
    "▁یوکوکورا": 9407,
    "▁تمساح": 9408,
    "▁مدودف": 9409,
    "▁مطیعی": 9410,
    "▁نیفتند": 9411,
    "▁الاسلام": 9412,
    "▁بیندازید": 9413,
    "▁خرگوش": 9414,
    "▁زحمات": 9415,
    "▁پوآرو": 9416,
    "▁استنشاق": 9417,
    "▁اوکلاه": 9418,
    "▁جادوگر": 9419,
    "▁خویشاوند": 9420,
    "▁معضل": 9421,
    "افروختن": 9422,
    "▁اسپانسر": 9423,
    "▁غیرعمد": 9424,
    "▁معشوق": 9425,
    "▁کاذب": 9426,
    "الشهدا": 9427,
    "▁هورمون": 9428,
    "▁واکاندا": 9429,
    "▁استروئید": 9430,
    "▁احمق": 9431,
    "▁سربگیرند": 9432,
    "▁ابطحی": 9433,
    "▁اساتید": 9434,
    "▁بمانید": 9435,
    "▁آتلانتا": 9436,
    "▁نکنم": 9437,
    "▁قاپید": 9438,
    "▁نگشته": 9439,
    "▁هلیکوپتر": 9440,
    "▁کمرشکن": 9441,
    "▁بروکلی": 9442,
    "کوبا": 9443,
    "▁ولگردها": 9444,
    "▁بنگال": 9445,
    "▁مشهود": 9446,
    "▁مقتض": 9447,
    "▁ندوشن": 9448,
    "▁وصیت": 9449,
    "▁ضامن": 9450,
    "▁عنف": 9451,
    "▁میگویند": 9452,
    "▁کلارک": 9453,
    "▁ارنست": 9454,
    "▁هورایزن": 9455,
    "▁جانبازان": 9456,
    "▁عقوبت": 9457,
    "▁مانیتور": 9458,
    "▁بوسد": 9459,
    "▁درنوردید": 9460,
    "▁گمپرت": 9461,
    "▁گردآمد": 9462,
    "▁ویسکانس": 9463,
    "▁گزاف": 9464,
    "▁رهنوش": 9465,
    "▁نگرائو": 9466,
    "آتلانت": 9467,
    "▁روایات": 9468,
    "▁نکونام": 9469,
    "▁گریبانگیر": 9470,
    "حسا": 9471,
    "▁اسنوبرد": 9472,
    "▁کوانت": 9473,
    "تیاگو": 9474,
    "▁مزاح": 9475,
    "▁متهیا": 9476,
    "▁ووندر": 9477,
    "▁غنای": 9478,
    "▁بیایید": 9479,
    "▁فورهند": 9480,
    "▁آسایش": 9481,
    "▁آجر": 9482,
    "▁شکوهمند": 9483,
    "▁تلاقی": 9484,
    "▁بازدارند": 9485,
    "▁مصادیق": 9486,
    "▁خیاط": 9487,
    "▁کالینز": 9488,
    "▁عریض": 9489,
    "▁سمنان": 9490,
    "▁گاندو": 9491,
    "▁موازن": 9492,
    "▁همدلی": 9493,
    "▁مهدیخانی": 9494,
    "تأسف": 9495,
    "▁بیاییم": 9496,
    "▁توکلی": 9497,
    "▁کلمبو": 9498,
    "دومین": 9499,
    "مویرگی": 9500,
    "▁رادارها": 9501,
    "وزش": 9502,
    "▁فرمایش": 9503,
    "▁فیروزکو": 9504,
    "▁پاکیزگی": 9505,
    "▁ضدویروس": 9506,
    "▁نومید": 9507,
    "▁ترمز": 9508,
    "▁آزاردید": 9509,
    "▁نیمرخ": 9510,
    "▁عمارت": 9511,
    "▁فروزان": 9512,
    "▁گرکان": 9513,
    "▁شئون": 9514,
    "▁کوونی": 9515,
    "▁انعکاس": 9516,
    "وتنبرگ": 9517,
    "▁ایروان": 9518,
    "▁سرمنشا": 9519,
    "▁منشور": 9520,
    "▁ببخشد": 9521,
    "▁بکاهد": 9522,
    "▁بگریزد": 9523,
    "▁الاصل": 9524,
    "لجستیک": 9525,
    "▁وولف": 9526,
    "اسرای": 9527,
    "▁هرچیز": 9528,
    "▁کاسکی": 9529,
    "▁آبتین": 9530,
    "کشور": 9531,
    "▁توتال": 9532,
    "▁پنهانکاری": 9533,
    "▁ورزید": 9534,
    "▁نطق": 9535,
    "▁کوئیک": 9536,
    "▁هتلداران": 9537,
    "▁فرازمند": 9538,
    "▁مشکاتیان": 9539,
    "▁صداقت": 9540,
    "▁۱۹۳۹": 9541,
    "اتهام": 9542,
    "▁نوازد": 9543,
    "▁سرآمد": 9544,
    "زبور": 9545,
    "▁ولیحی": 9546,
    "▁استمفورد": 9547,
    "▁نخرید": 9548,
    "▁شاکی": 9549,
    "▁جانورشناس": 9550,
    "رپیچ": 9551,
    "▁بندپی": 9552,
    "▁ناسیونالیس": 9553,
    "▁بگویید": 9554,
    "▁۱۹۱۲": 9555,
    "▁بساط": 9556,
    "▁پردیس": 9557,
    "▁اولترا": 9558,
    "▁معصومانه": 9559,
    "▁سرمست": 9560,
    "▁عوام": 9561,
    "▁بارکلی": 9562,
    "▁اوتیسم": 9563,
    "موارد": 9564,
    "▁کاکس": 9565,
    "▁دستگیرزاده": 9566,
    "▁نوگرا": 9567,
    "▁کالینگ": 9568,
    "▁۱۹۷۷": 9569,
    "▁جنون": 9570,
    "▁جوانب": 9571,
    "▁آغازکرده": 9572,
    "▁۱۳۲۳": 9573,
    "▁کولون": 9574,
    "▁معاند": 9575,
    "کلاسی": 9576,
    "▁تظاهر": 9577,
    "▁بلندگو": 9578,
    "▁رینت": 9579,
    "بلنک": 9580,
    "▁آنالیز": 9581,
    "▁حادتر": 9582,
    "▁۷۲۲": 9583,
    "▁دفعات": 9584,
    "▁ملایم": 9585,
    "▁سنجاب": 9586,
    "امدا": 9587,
    "▁برازند": 9588,
    "▁آلترن": 9589,
    "▁باغبان": 9590,
    "▁بازپرس": 9591,
    "▁میکند": 9592,
    "▁مرورگر": 9593,
    "▁آدا": 9594,
    "▁فتوا": 9595,
    "▁نزند": 9596,
    "▁روسکو": 9597,
    "▁بنویسد": 9598,
    "▁تسایت": 9599,
    "▁مگاصیص": 9600,
    "▁نامطلوب": 9601,
    "▁گاسکوئین": 9602,
    "▁لوکالکان": 9603,
    "شنود": 9604,
    "عقوب": 9605,
    "▁مالباخت": 9606,
    "▁مومن": 9607,
    "غیبت": 9608,
    "مفس": 9609,
    "▁گریختند": 9610,
    "▁جووان": 9611,
    "▁مامن": 9612,
    "▁نوشتاری": 9613,
    "رج": 9614,
    "پدر": 9615,
    "▁امدادگر": 9616,
    "▁بیولوژی": 9617,
    "▁سالوادور": 9618,
    "▁باارزش": 9619,
    "▁پوسترهای": 9620,
    "▁وصدا": 9621,
    "▁مخلوط": 9622,
    "▁قلمرو": 9623,
    "▁متخ": 9624,
    "قیق": 9625,
    "▁قراردادها": 9626,
    "▁هملت": 9627,
    "▁لودو": 9628,
    "▁مولد": 9629,
    "▁دمکرات": 9630,
    "▁اوصاف": 9631,
    "▁۲۶۶": 9632,
    "▁لاور": 9633,
    "▁لومب": 9634,
    "▁مستعد": 9635,
    "▁کوو": 9636,
    "قیاف": 9637,
    "لوژی": 9638,
    "▁پردازیم": 9639,
    "▁۲۳۹": 9640,
    "ساخته": 9641,
    "▁تازیان": 9642,
    "▁جنایات": 9643,
    "▁آلپ": 9644,
    "کانتر": 9645,
    "▁آپارت": 9646,
    "دوگا": 9647,
    "▁زید": 9648,
    "▁رافا": 9649,
    "رساز": 9650,
    "▁طع": 9651,
    "▁مشوقهای": 9652,
    "▁دایان": 9653,
    "سایر": 9654,
    "▁ایفل": 9655,
    "▁اینترف": 9656,
    "رها": 9657,
    "▁کبری": 9658,
    "پیوند": 9659,
    "خاطرات": 9660,
    "▁پهپادهای": 9661,
    "▁مقل": 9662,
    "▁کاوش": 9663,
    "▁ابزارک": 9664,
    "▁اوساکا": 9665,
    "▁خوانید": 9666,
    "▁باربارا": 9667,
    "▁بولدو": 9668,
    "زستان": 9669,
    "▁کاتال": 9670,
    "▁ایمیل": 9671,
    "▁نهادها": 9672,
    "▁دماغ": 9673,
    "زیاد": 9674,
    "▁بیگم": 9675,
    "حفاظ": 9676,
    "یوئیت": 9677,
    "▁اپوز": 9678,
    "▁پسندید": 9679,
    "زیچ": 9680,
    "خراش": 9681,
    "▁ریاکاری": 9682,
    "▁منصف": 9683,
    "▁گرانبهای": 9684,
    "ورسوی": 9685,
    "▁تاخت": 9686,
    "▁ریختند": 9687,
    "▁ناراحتند": 9688,
    "▁پراوی": 9689,
    "غات": 9690,
    "▁رهن": 9691,
    "▁خندد": 9692,
    "▁زبر": 9693,
    "▁پرماجرا": 9694,
    "▁شرو": 9695,
    "▁چول": 9696,
    "▁بوکا": 9697,
    "ارنوک": 9698,
    "ساری": 9699,
    "هفتم": 9700,
    "شهرهای": 9701,
    "▁صر": 9702,
    "▁نرسیدند": 9703,
    "▁کینگز": 9704,
    "▁گیگاب": 9705,
    "▁نفیس": 9706,
    "▁۱۵۵": 9707,
    "▁نزدند": 9708,
    "▁معا": 9709,
    "انزلی": 9710,
    "▁مسلم": 9711,
    "▁درایو": 9712,
    "شهرت": 9713,
    "▁فرما": 9714,
    "▁جدیدتر": 9715,
    "▁۱۲۲": 9716,
    "▁خوانیم": 9717,
    "▁فاصل": 9718,
    "فوت": 9719,
    "▁کوهنوردان": 9720,
    "▁کورین": 9721,
    "▁فرمانیه": 9722,
    "▁گوتر": 9723,
    "▁تقلی": 9724,
    "▁تانس": 9725,
    "▁مبل": 9726,
    "▁نخل": 9727,
    "▁دائما": 9728,
    "▁کتا": 9729,
    "▁پریا": 9730,
    "خواهر": 9731,
    "ادزه": 9732,
    "میسی": 9733,
    "▁ستد": 9734,
    "▁دمید": 9735,
    "▁هلن": 9736,
    "▁درگذشتمحمد": 9737,
    "ملامت": 9738,
    "▁زدیم": 9739,
    "کلاغ": 9740,
    "مداری": 9741,
    "▁نشو": 9742,
    "▁اندیشید": 9743,
    "▁محبت": 9744,
    "▁لوور": 9745,
    "▁صل": 9746,
    "▁استعفاها": 9747,
    "▁حوت": 9748,
    "▁گذراندم": 9749,
    "▁وایلر": 9750,
    "بریج": 9751,
    "▁کورن": 9752,
    "▁معلمان": 9753,
    "▁شهیر": 9754,
    "▁سرکو": 9755,
    "موت": 9756,
    "مغان": 9757,
    "▁برخوردارند": 9758,
    "▁متاب": 9759,
    "▁کلاسیکو": 9760,
    "▁پناهندگان": 9761,
    "سنا": 9762,
    "▁پریان": 9763,
    "ینگز": 9764,
    "▁برسان": 9765,
    "نوپ": 9766,
    "▁بکن": 9767,
    "▁جوانتر": 9768,
    "▁بکت": 9769,
    "▁نشرات": 9770,
    "تورباز": 9771,
    "▁ایستادن": 9772,
    "▁بدبین": 9773,
    "ماجد": 9774,
    "ردین": 9775,
    "▁مظ": 9776,
    "▁طلاق": 9777,
    "گیرند": 9778,
    "▁انریک": 9779,
    "سید": 9780,
    "▁جولیان": 9781,
    "▁خطاط": 9782,
    "▁بردیم": 9783,
    "مدان": 9784,
    "▁اجراست": 9785,
    "▁مشهورتر": 9786,
    "▁بلندق": 9787,
    "جوانمرد": 9788,
    "ریدلی": 9789,
    "▁قرادادش": 9790,
    "پارل": 9791,
    "▁آخ": 9792,
    "▁شارل": 9793,
    "▁آلبا": 9794,
    "▁روایتگر": 9795,
    "▁درشبا": 9796,
    "حافظه": 9797,
    "▁تعار": 9798,
    "ترونیک": 9799,
    "نگل": 9800,
    "▁نخوان": 9801,
    "▁اردبی": 9802,
    "▁دق": 9803,
    "▁سالخورد": 9804,
    "▁پذیرد": 9805,
    "لخت": 9806,
    "نقی": 9807,
    "▁نکردم": 9808,
    "سیمون": 9809,
    "اگرا": 9810,
    "▁مونش": 9811,
    "لگار": 9812,
    "دافع": 9813,
    "▁رفتیم": 9814,
    "علیر": 9815,
    "▁اض": 9816,
    "▁گیرم": 9817,
    "اویل": 9818,
    "▁پز": 9819,
    "▁فلین": 9820,
    "▁فاخر": 9821,
    "▁نگارم": 9822,
    "▁مخد": 9823,
    "۸۷": 9824,
    "▁مالدار": 9825,
    "▁بپیچ": 9826,
    "رگاه": 9827,
    "▁نایم": 9828,
    "ستاران": 9829,
    "درینو": 9830,
    "▁فضاپیماها": 9831,
    "▁تریست": 9832,
    "▁آزمود": 9833,
    "یابد": 9834,
    "▁انگیزد": 9835,
    "▁شیپ": 9836,
    "جس": 9837,
    "▁آوار": 9838,
    "قبره": 9839,
    "نهام": 9840,
    "اشق": 9841,
    "▁ساند": 9842,
    "▁هیپستر": 9843,
    "تژیک": 9844,
    "پولیتیک": 9845,
    "خصوصا": 9846,
    "▁کشا": 9847,
    "۳۷": 9848,
    "▁رادو": 9849,
    "▁دستورات": 9850,
    "عابد": 9851,
    "▁دیک": 9852,
    "▁مساعدت": 9853,
    "▁ریچ": 9854,
    "▁نواز": 9855,
    "وارت": 9856,
    "شاملو": 9857,
    "تاژ": 9858,
    "کاتان": 9859,
    "نگولی": 9860,
    "▁نشدم": 9861,
    "▁گرج": 9862,
    "▁روست": 9863,
    "▁اتفاقا": 9864,
    "▁مارکان": 9865,
    "▁دژها": 9866,
    "▁یورک": 9867,
    "کاس": 9868,
    "نورلند": 9869,
    "راث": 9870,
    "راکتور": 9871,
    "▁برادرز": 9872,
    "▁حاکمان": 9873,
    "▁دیپلم": 9874,
    "باخ": 9875,
    "▁مسیریاب": 9876,
    "▁گردان": 9877,
    "▁مزا": 9878,
    "مگ": 9879,
    "▁رامین": 9880,
    "▁طبل": 9881,
    "▁ث": 9882,
    "گما": 9883,
    "نیرو": 9884,
    "▁جوید": 9885,
    "فردو": 9886,
    "راژ": 9887,
    "آمدتر": 9888,
    "▁صب": 9889,
    "▁انف": 9890,
    "▁شهنا": 9891,
    "▁معر": 9892,
    "شمرد": 9893,
    "حذ": 9894,
    "▁متوس": 9895,
    "▁تض": 9896,
    "قوایی": 9897,
    "ساکو": 9898,
    "جاسوسی": 9899,
    "▁کارتن": 9900,
    "کمپ": 9901,
    "▁بیشمار": 9902,
    "جهش": 9903,
    "بورگ": 9904,
    "▁۱۵سال": 9905,
    "متعارف": 9906,
    "توالی": 9907,
    "نواز": 9908,
    "▁کشو": 9909,
    "▁واردکنند": 9910,
    "▁نوآ": 9911,
    "اشتن": 9912,
    "▁جنگیدن": 9913,
    "شستن": 9914,
    "▁ناگ": 9915,
    "▁فراپا": 9916,
    "ورهم": 9917,
    "میلیا": 9918,
    "تنبور": 9919,
    "▁کردآ": 9920,
    "ستره": 9921,
    "رفتار": 9922,
    "▁بالاگ": 9923,
    "▁سیریا": 9924,
    "▁راکل": 9925,
    "گار": 9926,
    "امور": 9927,
    "جزایر": 9928,
    "ناوال": 9929,
    "درومن": 9930,
    "عبدالو": 9931,
    "اغت": 9932,
    "▁تئاترها": 9933,
    "▁الجز": 9934,
    "▁حیا": 9935,
    "کولبر": 9936,
    "رنجر": 9937,
    "▁خف": 9938,
    "گرایان": 9939,
    "۸۰۰۰": 9940,
    "کنت": 9941,
    "انگلر": 9942,
    "مترو": 9943,
    "امیلی": 9944,
    "▁ویرا": 9945,
    "▁کاپل": 9946,
    "وتک": 9947,
    "▁اکوس": 9948,
    "اوران": 9949,
    "گدا": 9950,
    "▁خدایا": 9951,
    "▁اورگ": 9952,
    "▁ثق": 9953,
    "عمر": 9954,
    "کرون": 9955,
    "▁بگذار": 9956,
    "▁مثا": 9957,
    "نواختر": 9958,
    "توحید": 9959,
    "▁مسج": 9960,
    "▁همزی": 9961,
    "تعادل": 9962,
    "الیا": 9963,
    "▁غیربورسی": 9964,
    "▁حری": 9965,
    "رهایش": 9966,
    "▁نیکول": 9967,
    "چون": 9968,
    "الیات": 9969,
    "خامت": 9970,
    "چنان": 9971,
    "ایستند": 9972,
    "▁وینفر": 9973,
    "۲۶": 9974,
    "تراپ": 9975,
    "▁کوار": 9976,
    "اقلان": 9977,
    "یوشیت": 9978,
    "پنجاه": 9979,
    "الیزا": 9980,
    "▁فرزندانم": 9981,
    "حاف": 9982,
    "شناس": 9983,
    "استفان": 9984,
    "▁هیپستره": 9985,
    "بدین": 9986,
    "اشیا": 9987,
    "رکنا": 9988,
    "ورتینگ": 9989,
    "▁بپی": 9990,
    "▁هیب": 9991,
    "▁بلندتر": 9992,
    "▁فقیرتر": 9993,
    "میرز": 9994,
    "دینامیک": 9995,
    "شتابند": 9996,
    "▁درآو": 9997,
    "برگرفت": 9998,
    "ژ": 9999,
    "ئ": 10000
  }
}