{
  "src_word2id": {
    "<pad>": 0,
    "<s>": 1,
    "</s>": 2,
    "<unk>": 3,
    "ی": 4,
    "ه": 5,
    ".": 6,
    "▁": 7,
    "ت": 8,
    "ان": 9,
    "م": 10,
    "د": 11,
    "ل": 12,
    "ر": 13,
    "ش": 14,
    "▁است": 15,
    "ا": 16,
    "ن": 17,
    "▁می": 18,
    "ب": 19,
    "س": 20,
    "و": 21,
    "▁های": 22,
    "ز": 23,
    "▁ایران": 24,
    "ک": 25,
    "ق": 26,
    "ند": 27,
    "ع": 28,
    "▁م": 29,
    "ات": 30,
    "ور": 31,
    "ار": 32,
    "ف": 33,
    "▁ت": 34,
    "▁ا": 35,
    "▁ن": 36,
    "خ": 37,
    "▁سال": 38,
    "ح": 39,
    "▁شده": 40,
    "ج": 41,
    "،": 42,
    "ال": 43,
    "▁بر": 44,
    "▁یک": 45,
    "▁بود": 46,
    "ست": 47,
    "▁ها": 48,
    "▁ش": 49,
    "▁شد": 50,
    "ین": 51,
    "▁و": 52,
    "ام": 53,
    "▁ای": 54,
    "▁س": 55,
    "▁ف": 56,
    "▁خ": 57,
    "▁آ": 58,
    "▁ع": 59,
    "ص": 60,
    "پ": 61,
    "▁ج": 62,
    "▁ح": 63,
    "ون": 64,
    "▁ب": 65,
    "▁تصویر": 66,
    "▁کرد": 67,
    "▁دو": 68,
    "▁کرده": 69,
    "های": 70,
    "▁در": 71,
    "ای": 72,
    "ده": 73,
    "اد": 74,
    "ری": 75,
    "ط": 76,
    "▁ر": 77,
    "منبع": 78,
    "گ": 79,
    "▁خود": 80,
    "▁شود": 81,
    "▁کار": 82,
    "▁گفته": 83,
    "یت": 84,
    "▁کند": 85,
    "▁سر": 86,
    "اب": 87,
    "▁با": 88,
    "؛": 89,
    "▁روز": 90,
    "▁پیش": 91,
    "ید": 92,
    "▁ق": 93,
    "بر": 94,
    "اس": 95,
    "▁اند": 96,
    "▁بی": 97,
    "در": 98,
    "▁کرونا": 99,
    "▁فر": 100,
    "از": 101,
    "گر": 102,
    "▁پ": 103,
    "تر": 104,
    "▁ه": 105,
    "▁د": 106,
    "را": 107,
    "▁کشور": 108,
    "ود": 109,
    "چ": 110,
    "▁ماه": 111,
    "▁دست": 112,
    "ما": 113,
    "وی": 114,
    "ول": 115,
    "غ": 116,
    "مان": 117,
    "▁سو": 118,
    "نگ": 119,
    "ها": 120,
    "▁آمریکا": 121,
    "▁به": 122,
    "گاه": 123,
    "▁گزارش": 124,
    "ض": 125,
    "▁را": 126,
    "نا": 127,
    "▁گفت": 128,
    "▁یا": 129,
    "۰": 130,
    "▁داد": 131,
    "دا": 132,
    "▁تر": 133,
    "▁کنند": 134,
    "▁فوتبال": 135,
    "▁بازی": 136,
    "دی": 137,
    "▁پا": 138,
    "▁ص": 139,
    "▁گ": 140,
    "▁دیگر": 141,
    "▁دارد": 142,
    "▁نا": 143,
    "▁رو": 144,
    "▁دولت": 145,
    "وا": 146,
    "▁مو": 147,
    "▁دهد": 148,
    "▁هر": 149,
    "▁تیم": 150,
    "ذ": 151,
    "▁مر": 152,
    "اف": 153,
    "▁پر": 154,
    "▁چ": 155,
    "یم": 156,
    "▁اعلام": 157,
    "▁بین": 158,
    "▁نو": 159,
    "گی": 160,
    "▁بار": 161,
    "رو": 162,
    "▁شرکت": 163,
    "با": 164,
    "▁قرار": 165,
    "▁ز": 166,
    "ایی": 167,
    "▁پس": 168,
    "ژ": 169,
    "▁نام": 170,
    "ث": 171,
    "▁هزار": 172,
    "یر": 173,
    "یک": 174,
    "می": 175,
    "ظ": 176,
    "▁جهان": 177,
    "▁دی": 178,
    "خت": 179,
    "▁تو": 180,
    "▁داده": 181,
    "▁باز": 182,
    "▁مع": 183,
    "▁رئیس": 184,
    "▁سه": 185,
    "▁هم": 186,
    "ستان": 187,
    "▁گذشته": 188,
    "▁شهر": 189,
    "لا": 190,
    "▁خواهد": 191,
    "▁آن": 192,
    "▁کم": 193,
    "▁ط": 194,
    "▁مش": 195,
    "▁۲": 196,
    "دار": 197,
    "▁آقای": 198,
    "▁کا": 199,
    "▁ام": 200,
    "▁گوید": 201,
    "▁مس": 202,
    "▁سا": 203,
    "▁داشت": 204,
    "لی": 205,
    "اک": 206,
    "▁من": 207,
    "این": 208,
    "▁مت": 209,
    "آ": 210,
    "▁کل": 211,
    "▁رسید": 212,
    "سی": 213,
    "▁سی": 214,
    "رس": 215,
    "▁قهرمان": 216,
    "▁نفت": 217,
    "به": 218,
    "▁بعد": 219,
    "▁مح": 220,
    "او": 221,
    "▁روی": 222,
    "نی": 223,
    "▁درصد": 224,
    "▁چند": 225,
    "▁پی": 226,
    "▁جدید": 227,
    "▁درباره": 228,
    "▁ک": 229,
    "کل": 230,
    "▁از": 231,
    "▁تهران": 232,
    "▁باید": 233,
    "لو": 234,
    "مین": 235,
    "▁لیگ": 236,
    "انه": 237,
    "▁آنها": 238,
    "▁دلیل": 239,
    "▁میلیون": 240,
    "▁او": 241,
    "بی": 242,
    "وم": 243,
    "۸": 244,
    "▁افغانستان": 245,
    "وش": 246,
    "▁افزایش": 247,
    "▁نفر": 248,
    "▁حال": 249,
    "فا": 250,
    "فت": 251,
    "▁گر": 252,
    "۹": 253,
    "▁هفته": 254,
    "▁کن": 255,
    "۲": 256,
    "▁ارز": 257,
    "▁تا": 258,
    "▁دان": 259,
    "▁بازار": 260,
    "▁بن": 261,
    "▁'": 262,
    "گو": 263,
    "▁خبر": 264,
    "▁بد": 265,
    "▁اروپا": 266,
    "'": 267,
    "▁مج": 268,
    "کار": 269,
    "ساز": 270,
    "▁فیلم": 271,
    "▁نظر": 272,
    "▁بیشتر": 273,
    "▁۴": 274,
    "کر": 275,
    "▁علی": 276,
    "۱": 277,
    "۵": 278,
    "▁زمان": 279,
    ":": 280,
    "▁بریتانیا": 281,
    "▁بزرگ": 282,
    "کن": 283,
    "▁اخیر": 284,
    "▁قیمت": 285,
    "▁جمهوری": 286,
    "▁دلار": 287,
    "▁اول": 288,
    "▁۵": 289,
    "وز": 290,
    "▁بوده": 291,
    "▁ملی": 292,
    "▁اس": 293,
    "▁ویروس": 294,
    "کس": 295,
    "▁کو": 296,
    "▁بخش": 297,
    "▁۳": 298,
    "▁نیست": 299,
    "▁نمی": 300,
    "▁رفت": 301,
    "مند": 302,
    "▁ترین": 303,
    "▁هستند": 304,
    "▁گرفت": 305,
    "▁برگزار": 306,
    "ران": 307,
    "▁ورزش": 308,
    "له": 309,
    "▁کر": 310,
    "▁جا": 311,
    "▁دار": 312,
    "▁شب": 313,
    "▁امروز": 314,
    "▁چین": 315,
    "▁تولید": 316,
    "اق": 317,
    "▁عنوان": 318,
    "▁همه": 319,
    "▁اش": 320,
    "▁سازمان": 321,
    "▁تع": 322,
    "▁مورد": 323,
    "▁جهانی": 324,
    "۶": 325,
    "من": 326,
    "▁راه": 327,
    "▁گل": 328,
    "▁گو": 329,
    "▁ال": 330,
    "▁مد": 331,
    "▁۱۹": 332,
    "▁جو": 333,
    "فر": 334,
    "▁کس": 335,
    "▁گرفته": 336,
    "گان": 337,
    "▁کاهش": 338,
    "▁کردند": 339,
    "▁وزیر": 340,
    "▁قبل": 341,
    "▁بالا": 342,
    "▁وزارت": 343,
    "▁چهار": 344,
    "وان": 345,
    "۴": 346,
    "وس": 347,
    "▁شدن": 348,
    "سا": 349,
    "▁بیش": 350,
    "▁۹": 351,
    "۷": 352,
    "ترین": 353,
    "▁آغاز": 354,
    "▁مقابل": 355,
    "▁زن": 356,
    "▁یکی": 357,
    "▁نیز": 358,
    "▁غ": 359,
    "کی": 360,
    "▁باشگاه": 361,
    "۳": 362,
    "▁نشان": 363,
    "▁حدود": 364,
    "▁حضور": 365,
    "▁اساس": 366,
    "▁زمین": 367,
    "▁بانک": 368,
    "▁خودرو": 369,
    "▁پنج": 370,
    "که": 371,
    "▁بودند": 372,
    "▁برنامه": 373,
    "▁همچنین": 374,
    "کو": 375,
    "▁اج": 376,
    "▁آب": 377,
    "▁مجلس": 378,
    "▁ساخت": 379,
    "▁۶": 380,
    "▁باشد": 381,
    "▁گروه": 382,
    "▁پایان": 383,
    "▁داشته": 384,
    "▁صورت": 385,
    "▁تحریم": 386,
    "▁محمد": 387,
    "▁انجام": 388,
    "نامه": 389,
    "نج": 390,
    "▁ار": 391,
    "▁توافق": 392,
    "▁اولین": 393,
    "قط": 394,
    "پر": 395,
    "▁بل": 396,
    "▁نیم": 397,
    "▁رسان": 398,
    "▁هنر": 399,
    "▁اقتصادی": 400,
    "داد": 401,
    "زا": 402,
    "▁وارد": 403,
    "▁منتشر": 404,
    "▁۱۳": 405,
    "▁مل": 406,
    "داری": 407,
    "▁واکسن": 408,
    "▁مقام": 409,
    "▁تاریخ": 410,
    "▁میلیارد": 411,
    "▁شیوع": 412,
    "۰۰": 413,
    "▁استفاده": 414,
    "گیری": 415,
    "▁پو": 416,
    "نه": 417,
    "شان": 418,
    "▁شورا": 419,
    "▁بازیکن": 420,
    "▁فصل": 421,
    "آقای": 422,
    "▁تومان": 423,
    "▁جمله": 424,
    "▁آزاد": 425,
    "دن": 426,
    "▁وجود": 427,
    "دامه": 428,
    "روز": 429,
    "▁سن": 430,
    "▁حقوق": 431,
    "▁تمام": 432,
    "؟": 433,
    "▁دارند": 434,
    "▁غیر": 435,
    "▁مسابقه": 436,
    "شاه": 437,
    "▁۷": 438,
    "▁خوا": 439,
    "▁جمع": 440,
    "▁خواست": 441,
    "▁نزدیک": 442,
    "▁زندگی": 443,
    "▁شوند": 444,
    "▁مردم": 445,
    "▁مدیر": 446,
    "▁تغییر": 447,
    "▁بو": 448,
    "▁آمد": 449,
    "▁۲۰۱": 450,
    "▁خارج": 451,
    "▁ماشین": 452,
    "▁سابق": 453,
    "▁همین": 454,
    "▁المللی": 455,
    "▁توان": 456,
    "▁مسابقات": 457,
    "گیر": 458,
    "▁اع": 459,
    "▁جان": 460,
    "وار": 461,
    "▁زنان": 462,
    "▁مالی": 463,
    "▁گیری": 464,
    "▁زد": 465,
    "▁جام": 466,
    "▁فروش": 467,
    "▁اف": 468,
    "▁مرد": 469,
    "▁تنها": 470,
    "▁ده": 471,
    "رضا": 472,
    "▁فضا": 473,
    "گذار": 474,
    "▁انتخابات": 475,
    "▁یو": 476,
    "▁میان": 477,
    "▁وقت": 478,
    "▁طور": 479,
    "▁امنیت": 480,
    "▁جنوب": 481,
    "ثبت": 482,
    "صد": 483,
    "▁ض": 484,
    "▁امسال": 485,
    "▁تواند": 486,
    "▁زیاد": 487,
    "▁برتر": 488,
    "▁۱۰": 489,
    "▁برای": 490,
    "▁اقدام": 491,
    "▁اسلامی": 492,
    "▁شرایط": 493,
    "▁صد": 494,
    "▁مهم": 495,
    "▁حالی": 496,
    "▁اقتصاد": 497,
    "▁اعتراض": 498,
    "▁وضعیت": 499,
    "جو": 500,
    "▁شدند": 501,
    "▁سینما": 502,
    "▁ری": 503,
    "عث": 504,
    "▁آینده": 505,
    "▁هیچ": 506,
    "▁زا": 507,
    "▁دوران": 508,
    "▁بیماری": 509,
    "▁دنیا": 510,
    "▁بسیار": 511,
    "▁کشورهای": 512,
    "بار": 513,
    "▁شمار": 514,
    "▁تصمیم": 515,
    "اکنون": 516,
    "▁فعالیت": 517,
    "▁خانه": 518,
    "▁لا": 519,
    "▁تلاش": 520,
    "▁موج": 521,
    "▁خط": 522,
    "▁پول": 523,
    "▁مسئول": 524,
    "▁ان": 525,
    "▁تازه": 526,
    "▁منبع": 527,
    "▁خارجه": 528,
    "▁مدت": 529,
    "▁گویند": 530,
    "▁بسیاری": 531,
    "▁نرخ": 532,
    "▁برد": 533,
    "▁کردن": 534,
    "▁ولی": 535,
    "▁زیر": 536,
    "▁ریاست": 537,
    "نوز": 538,
    "▁کی": 539,
    "▁افراد": 540,
    "▁دور": 541,
    "▁سفر": 542,
    "▁زندان": 543,
    "▁مختلف": 544,
    "▁اجتماعی": 545,
    "▁اثر": 546,
    "▁احتمال": 547,
    "▁محل": 548,
    "▁آر": 549,
    "▁کمک": 550,
    "▁نخست": 551,
    "▁روحانی": 552,
    "▁طول": 553,
    "▁لو": 554,
    "▁خانواده": 555,
    "▁برخ": 556,
    "▁درگذشت": 557,
    "▁منطقه": 558,
    "▁همراه": 559,
    "▁گرد": 560,
    "▁ما": 561,
    "▁قانون": 562,
    "▁هوا": 563,
    "▁پیدا": 564,
    "▁مار": 565,
    "توسط": 566,
    "▁درآمد": 567,
    "▁اجرای": 568,
    "▁مجموع": 569,
    "▁آمار": 570,
    "▁بست": 571,
    "▁مرکز": 572,
    "▁ماند": 573,
    "▁طرح": 574,
    "▁شکست": 575,
    "▁فرا": 576,
    "▁قطع": 577,
    "▁آخر": 578,
    "▁اصلی": 579,
    "▁شروع": 580,
    "▁عمل": 581,
    "▁کامل": 582,
    "▁کنار": 583,
    "▁هسته": 584,
    "▁حالا": 585,
    "▁برجام": 586,
    "▁برابر": 587,
    "▁کش": 588,
    "▁موسیقی": 589,
    "▁مرکزی": 590,
    "ستاد": 591,
    "▁آلمان": 592,
    "▁۸": 593,
    "▁داخل": 594,
    "▁عکس": 595,
    "▁اینک": 596,
    "▁توجه": 597,
    "▁تحقیق": 598,
    "▁۲۰": 599,
    "▁جمهور": 600,
    "▁بورس": 601,
    "▁عراق": 602,
    "▁که": 603,
    "▁پرسپولیس": 604,
    "▁بررسی": 605,
    "زن": 606,
    "▁بعضی": 607,
    "▁دهه": 608,
    "▁دوره": 609,
    "▁انگلیس": 610,
    "▁فرهنگ": 611,
    "▁اشار": 612,
    "▁آمریکایی": 613,
    "▁تن": 614,
    "▁هفت": 615,
    "▁خرید": 616,
    "▁فدراسیون": 617,
    "▁میلادی": 618,
    "▁کمتر": 619,
    "▁بهداشت": 620,
    "▁نقش": 621,
    "▁اطلاعات": 622,
    "▁نگران": 623,
    "▁نظام": 624,
    "▁رهبر": 625,
    "▁رسمی": 626,
    "▁جنگ": 627,
    "سیون": 628,
    "▁نوشته": 629,
    "▁سرمایه": 630,
    "▁رقابت": 631,
    "▁دهند": 632,
    "▁واقع": 633,
    "▁حمله": 634,
    "▁یافت": 635,
    "▁موضوع": 636,
    "▁همکاری": 637,
    "▁ممکن": 638,
    "▁شناس": 639,
    "▁نتیج": 640,
    "▁نشده": 641,
    "▁نهاد": 642,
    "▁گذاشت": 643,
    "▁بهترین": 644,
    "▁یافته": 645,
    "ریق": 646,
    "▁واکنش": 647,
    "▁پزشک": 648,
    "▁ساعت": 649,
    "▁لی": 650,
    "▁طرف": 651,
    "▁خاطر": 652,
    "▁نمایش": 653,
    "▁اسک": 654,
    "▁این": 655,
    "▁رشد": 656,
    "▁پرداخت": 657,
    "▁دانشگاه": 658,
    "▁افت": 659,
    "▁حمایت": 660,
    "▁مراسم": 661,
    "▁جایزه": 662,
    "▁خطر": 663,
    "▁آزمایش": 664,
    "▁دنبال": 665,
    "▁استقلال": 666,
    "▁فرانسه": 667,
    "▁مادر": 668,
    "▁آژانس": 669,
    "▁نیاز": 670,
    "▁آورد": 671,
    "▁کشتی": 672,
    "▁هواپیما": 673,
    "▁جلو": 674,
    "▁حاضر": 675,
    "▁خواند": 676,
    "▁سهام": 677,
    "▁سیاست": 678,
    "▁پرونده": 679,
    "▁پرواز": 680,
    "▁سیاسی": 681,
    "▁آسیا": 682,
    "▁انداز": 683,
    "▁شنبه": 684,
    "▁الله": 685,
    "▁مرگ": 686,
    "▁خبرگزا": 687,
    "▁قو": 688,
    "ندگان": 689,
    "▁کنیم": 690,
    "▁ندارد": 691,
    "-": 692,
    "▁ترامپ": 693,
    "ِ": 694,
    "▁انتشار": 695,
    "▁متحد": 696,
    "▁تعداد": 697,
    "▁مست": 698,
    "▁۲۰۰": 699,
    "▁کتاب": 700,
    "▁ترکیه": 701,
    "▁رسد": 702,
    "▁روند": 703,
    "▁عرض": 704,
    "▁زبان": 705,
    "▁دیدار": 706,
    "▁هدف": 707,
    "▁نامزد": 708,
    "▁اسرائیل": 709,
    "▁دقیق": 710,
    "▁دریافت": 711,
    "▁نکرد": 712,
    "▁فعال": 713,
    "▁اتفاق": 714,
    "علی": 715,
    "▁انرژی": 716,
    "▁سپاه": 717,
    "▁رد": 718,
    "▁احمد": 719,
    "▁مذاکرات": 720,
    "▁دریا": 721,
    "▁محدودیت": 722,
    "▁هشدار": 723,
    "▁۲۰۲۰": 724,
    "▁ویژه": 725,
    "▁چشم": 726,
    "▁اتحاد": 727,
    "▁متهم": 728,
    "بدون": 729,
    "▁مربوط": 730,
    "▁مبارز": 731,
    "▁گذاری": 732,
    "▁چنین": 733,
    "▁نهایی": 734,
    "▁پیروز": 735,
    "▁عربستان": 736,
    "▁کالا": 737,
    "▁تاثیر": 738,
    "▁نسبت": 739,
    "▁۱۵": 740,
    "▁خواهند": 741,
    "▁تعطیل": 742,
    "▁مشخص": 743,
    "▁۳۰": 744,
    "▁چرا": 745,
    "▁نمایند": 746,
    "▁تلویزیون": 747,
    "▁تبدیل": 748,
    "▁عضو": 749,
    "▁ابتلا": 750,
    "▁ابتدا": 751,
    "▁موفق": 752,
    "▁حکم": 753,
    "▁چیز": 754,
    "▁افتاد": 755,
    "▁قرارداد": 756,
    "▁لیورپول": 757,
    "▁مبتلا": 758,
    "▁ایجاد": 759,
    "▁جریان": 760,
    "▁تایید": 761,
    "▁انسان": 762,
    ")": 763,
    "▁سرمربی": 764,
    "▁انتقاد": 765,
    "▁صادرات": 766,
    "▁میزان": 767,
    "▁صدا": 768,
    "▁غرب": 769,
    "▁نقل": 770,
    "▁مربی": 771,
    "▁دوبار": 772,
    "▁کابل": 773,
    "▁هشت": 774,
    "▁انتخاب": 775,
    "▁بازداشت": 776,
    "▁قابل": 777,
    "▁۲۵": 778,
    "▁فاصله": 779,
    "▁سخت": 780,
    "▁خیل": 781,
    "▁حرف": 782,
    "▁جلس": 783,
    "▁بیمارستان": 784,
    "▁آثار": 785,
    "▁روسیه": 786,
    "▁توانست": 787,
    "▁انتقال": 788,
    "کنندگان": 789,
    "▁مجاز": 790,
    "▁خصوص": 791,
    "▁نداشت": 792,
    "▁(": 793,
    "▁ستار": 794,
    "▁محمو": 795,
    "▁امتیاز": 796,
    "▁مخالف": 797,
    "▁بشر": 798,
    "▁شناخت": 799,
    "▁۱۲": 800,
    "▁اتهام": 801,
    "▁پلیس": 802,
    "▁معاون": 803,
    "▁لغو": 804,
    "▁محکوم": 805,
    "▁دختر": 806,
    "▁قدرت": 807,
    "▁نبود": 808,
    "▁بازگشت": 809,
    "▁شامل": 810,
    "▁تماشا": 811,
    "▁کشته": 812,
    "▁منابع": 813,
    "▁حکومت": 814,
    "▁ایتالیا": 815,
    "▁اتمی": 816,
    "▁لندن": 817,
    "▁کشید": 818,
    "▁رکورد": 819,
    "▁شخص": 820,
    "▁تحت": 821,
    "▁نژاد": 822,
    "▁مسافر": 823,
    "▁موارد": 824,
    "▁بیانی": 825,
    "▁ظریف": 826,
    "▁مطرح": 827,
    "▁اعضای": 828,
    "▁سطح": 829,
    "▁سخنگوی": 830,
    "▁نشست": 831,
    "▁قرنطینه": 832,
    "▁انقلاب": 833,
    "▁حرکت": 834,
    "▁عالی": 835,
    "▁ارتباط": 836,
    "▁نوشت": 837,
    "▁بودجه": 838,
    "▁برنده": 839,
    "▁خورد": 840,
    "▁همزمان": 841,
    "▁طلا": 842,
    "▁پاسخ": 843,
    "▁تنیس": 844,
    "▁عمومی": 845,
    "▁گسترده": 846,
    "▁داستان": 847,
    "▁پشت": 848,
    "▁حذف": 849,
    "▁آیا": 850,
    "▁فشار": 851,
    "▁مصاحبه": 852,
    "▁صنعت": 853,
    "▁کوچک": 854,
    "▁تورم": 855,
    "▁نقاش": 856,
    "▁سیستم": 857,
    "▁امکان": 858,
    "▁خانم": 859,
    "▁الکتریکی": 860,
    "▁متوقف": 861,
    "▁دفاع": 862,
    "▁حساب": 863,
    "أ": 864,
    "▁اظهار": 865,
    "▁شمال": 866,
    "▁انتظار": 867,
    "▁نیروهای": 868,
    "▁امضا": 869,
    "▁۲۰۱۹": 870,
    "ي": 871,
    "▁صندوق": 872,
    "▁کووید": 873,
    "▁باشند": 874,
    "▁طراح": 875,
    "▁مالک": 876,
    "▁فینال": 877,
    "▁ضرب": 878,
    "▁نمایندگان": 879,
    "▁چهر": 880,
    "▁المپیک": 881,
    "▁صادر": 882,
    "▁ممنوع": 883,
    "▁کیلومتر": 884,
    "▁بحران": 885,
    "▁معرف": 886,
    "▁جامعه": 887,
    "▁اطلاع": 888,
    "▁نشر": 889,
    "▁خبرنگار": 890,
    "▁۱۷": 891,
    "▁رقم": 892,
    "▁قرن": 893,
    "▁ورود": 894,
    "▁اسفند": 895,
    "▁چگون": 896,
    "▁منچستر": 897,
    "▁فروردین": 898,
    "▁۱۱": 899,
    "▁موسس": 900,
    "▁ارائه": 901,
    "▁دوشنبه": 902,
    "▁تشکیل": 903,
    "▁اختیار": 904,
    "▁کنترل": 905,
    "▁روبرو": 906,
    "▁بتوان": 907,
    "▁حسین": 908,
    "▁تهدید": 909,
    "▁تسل": 910,
    "▁سیاه": 911,
    "▁سراسر": 912,
    "▁همچن": 913,
    "▁معاملات": 914,
    "▁پروژه": 915,
    "▁اختلاف": 916,
    "▁دونالد": 917,
    "▁۱۴۰۰": 918,
    "▁غذا": 919,
    "▁پذیر": 920,
    "▁گیرد": 921,
    "▁محدود": 922,
    "▁کارشناس": 923,
    "▁مصوب": 924,
    "▁تجاری": 925,
    "▁۱۸": 926,
    "▁پژوهش": 927,
    "▁افزود": 928,
    "▁هنگام": 929,
    "▁کارگران": 930,
    "▁محیط": 931,
    "▁برخورد": 932,
    "▁رانند": 933,
    "▁امیدوار": 934,
    "▁۱۶": 935,
    "حفظ": 936,
    "▁تصوی": 937,
    "▁شکایت": 938,
    "▁آسیب": 939,
    "▁بارسلونا": 940,
    "▁عامل": 941,
    "▁بشک": 942,
    "▁مارادونا": 943,
    "▁تجرب": 944,
    "▁صفح": 945,
    "▁تقاضا": 946,
    "▁درخواست": 947,
    "▁صحبت": 948,
    "▁کارگردان": 949,
    "▁استرالیا": 950,
    "▁همسر": 951,
    "▁واحد": 952,
    "▁اعدام": 953,
    "▁۱۴": 954,
    "▁مرتبط": 955,
    "▁معمول": 956,
    "▁ماسک": 957,
    "▁متفاوت": 958,
    "▁تقریبا": 959,
    "▁قرمز": 960,
    "▁لازم": 961,
    "▁گذشت": 962,
    "▁اسپانیا": 963,
    "▁تاکید": 964,
    "▁مغز": 965,
    "▁پارسال": 966,
    "▁بگیرد": 967,
    "▁نگهبان": 968,
    "▁چهارشنبه": 969,
    "▁خورشید": 970,
    "▁قضایی": 971,
    "▁ولایت": 972,
    "▁قوانین": 973,
    "▁علاو": 974,
    "▁قطر": 975,
    "▁ونزوئلا": 976,
    "▁توسعه": 977,
    "▁دلایل": 978,
    "▁مشترک": 979,
    "▁ترتیب": 980,
    "▁طبق": 981,
    "▁کوتاه": 982,
    "▁پیشنهاد": 983,
    "▁روابط": 984,
    "▁فهرست": 985,
    "▁خروج": 986,
    "▁شهروندان": 987,
    "محمد": 988,
    "▁سقوط": 989,
    "▁نتایج": 990,
    "▁مصرف": 991,
    "▁انفجار": 992,
    "خراج": 993,
    "▁بیرون": 994,
    "▁ادبی": 995,
    "▁شجریان": 996,
    "▁عبدال": 997,
    "▁نظیر": 998,
    "(": 999,
    "ئ": 1000
  }
}