<unk>	0
<s>	0
</s>	0
ی	-3.17932
.	-3.43263
ه	-3.70732
▁است	-4.09984
▁می	-4.20142
▁	-4.39833
▁های	-4.61843
▁ایران	-4.67762
▁شده	-5.02872
،	-5.08003
▁سال	-5.15937
▁بود	-5.2075
▁یک	-5.21749
▁ها	-5.24465
▁شد	-5.2839
▁کرده	-5.41828
▁تصویر	-5.41851
▁ای	-5.43743
▁کرد	-5.49134
ان	-5.49254
منبع	-5.60755
▁شود	-5.65724
▁گفته	-5.71797
▁بر	-5.74119
▁کند	-5.74229
▁دو	-5.78157
▁خود	-5.78243
ش	-5.78845
؛	-5.80795
▁کرونا	-5.86723
▁اند	-5.88165
▁در	-6.01043
ت	-6.03918
▁آمریکا	-6.05525
▁کشور	-6.05724
▁ماه	-6.06159
ین	-6.06169
▁پیش	-6.0663
▁گزارش	-6.10107
▁روز	-6.11012
▁دیگر	-6.21847
▁فوتبال	-6.24255
▁دارد	-6.24401
▁بی	-6.24638
م	-6.27438
▁دهد	-6.27446
▁تیم	-6.30044
▁گفت	-6.30113
▁بازی	-6.31341
▁کار	-6.31608
▁اعلام	-6.34331
▁و	-6.35176
ن	-6.35506
▁ا	-6.36132
▁کنند	-6.36306
▁قرار	-6.37948
▁شرکت	-6.40742
▁هزار	-6.42518
▁دولت	-6.43937
▁داده	-6.44553
▁یا	-6.45944
▁با	-6.47308
▁رئیس	-6.48298
▁به	-6.49398
▁دست	-6.50379
▁گذشته	-6.50798
▁سه	-6.51147
▁جهان	-6.51175
▁خواهد	-6.51578
▁بین	-6.5278
▁پس	-6.54752
▁م	-6.54944
▁آقای	-6.55036
▁گوید	-6.56164
▁هر	-6.56702
▁بار	-6.60165
در	-6.60993
▁درصد	-6.66589
▁درباره	-6.66932
ند	-6.67762
▁تهران	-6.67849
▁دلیل	-6.6906
ب	-6.69141
▁میلیون	-6.69319
ا	-6.70283
▁آنها	-6.70329
▁افغانستان	-6.70931
▁لیگ	-6.71053
▁افزایش	-6.72177
▁نفر	-6.72601
▁چند	-6.7444
▁هفته	-6.74682
▁از	-6.75373
▁جدید	-6.75841
این	-6.76488
▁'	-6.76542
▁بعد	-6.77489
ات	-6.77569
▁داد	-6.77935
'	-6.78839
▁حال	-6.8019
▁بوده	-6.80233
▁ملی	-6.80506
های	-6.81221
▁نام	-6.81313
▁خبر	-6.8167
ر	-6.82438
:	-6.82859
ل	-6.83047
▁جمهوری	-6.83152
▁یکی	-6.83504
س	-6.84174
▁فیلم	-6.85001
▁نمی	-6.86297
▁ویروس	-6.86574
▁ترین	-6.86902
▁جهانی	-6.87066
▁همه	-6.87674
▁هستند	-6.88478
▁دلار	-6.89081
▁قیمت	-6.89302
▁برگزار	-6.89936
▁چین	-6.90058
▁باید	-6.90541
▁امروز	-6.90637
▁نظر	-6.90722
▁بازار	-6.90891
▁عنوان	-6.91354
▁مورد	-6.9148
▁سازمان	-6.91595
▁ف	-6.92703
▁سر	-6.92763
▁تولید	-6.92887
▁روی	-6.93337
▁کردند	-6.9421
▁گرفته	-6.9435
▁داشت	-6.94434
▁علی	-6.94854
د	-6.95067
▁نفت	-6.95393
▁شدن	-6.95838
▁بیشتر	-6.95875
▁بیش	-6.96434
▁کاهش	-6.96482
▁وزیر	-6.97335
▁نیست	-6.97487
▁سی	-6.99346
▁شب	-7.00709
▁بریتانیا	-7.0119
▁آغاز	-7.01894
▁وزارت	-7.02014
▁مقابل	-7.02238
▁را	-7.02314
▁اخیر	-7.03133
▁نیز	-7.03257
▁باشگاه	-7.04842
▁بودند	-7.04925
▁اروپا	-7.0494
▁حدود	-7.05763
▁بزرگ	-7.06406
▁ت	-7.07225
▁نشان	-7.07416
▁اش	-7.08061
▁برنامه	-7.0819
▁همچنین	-7.08439
▁داشته	-7.0954
▁راه	-7.09779
▁مجلس	-7.09836
▁زمان	-7.107
▁باشد	-7.11103
▁بانک	-7.11197
▁قبل	-7.11364
▁حضور	-7.11573
▁پایان	-7.11954
▁آن	-7.13331
▁تر	-7.13825
به	-7.14312
▁تحریم	-7.15113
▁انجام	-7.1568
▁اقتصادی	-7.15988
▁اولین	-7.16141
▁توافق	-7.1631
▁اول	-7.16453
▁اساس	-7.16703
▁صورت	-7.17243
که	-7.17742
▁منتشر	-7.20411
▁واکسن	-7.21845
▁شیوع	-7.22505
▁بخش	-7.2262
گی	-7.22666
▁باز	-7.22812
▁کم	-7.22952
▁میان	-7.23718
▁استفاده	-7.2379
▁گل	-7.24103
▁فصل	-7.25456
▁شهر	-7.25585
او	-7.25714
▁جمله	-7.26095
آقای	-7.26113
▁رسید	-7.26526
ری	-7.26551
▁وجود	-7.26968
دامه	-7.26985
▁دارند	-7.2746
له	-7.27994
؟	-7.28678
▁شورا	-7.28726
▁ایرانی	-7.29312
▁مسابقه	-7.2936
▁مردم	-7.29485
▁ب	-7.29606
▁خواست	-7.30304
ایی	-7.30615
▁زندگی	-7.30712
▁شوند	-7.30717
▁گروه	-7.30718
ز	-7.30976
▁میلیارد	-7.32399
▁ماشین	-7.33215
و	-7.33346
▁المللی	-7.34201
▁مسابقات	-7.34627
▁چهار	-7.34638
▁زنان	-7.35389
▁دی	-7.36011
▁پنج	-7.36971
▁گیری	-7.37044
▁توان	-7.37805
▁همین	-7.37859
▁تنها	-7.39584
▁مقام	-7.39988
▁حقوق	-7.40001
▁شدند	-7.40097
▁تومان	-7.41554
▁برتر	-7.41701
▁تواند	-7.42271
▁هایی	-7.42295
▁تمام	-7.42552
▁وقت	-7.42557
▁ارز	-7.42593
▁گرفت	-7.43468
▁امسال	-7.43494
▁زیاد	-7.43676
▁۲۰	-7.44294
▁حالی	-7.44345
▁شرایط	-7.45241
▁اسلامی	-7.45419
▁وضعیت	-7.46036
شان	-7.46774
▁محمد	-7.4694
▁غیر	-7.46989
▁آینده	-7.47262
عث	-7.47334
نه	-7.47602
بر	-7.48118
▁جام	-7.48238
▁کردن	-7.48288
بدون	-7.48407
▁کشورهای	-7.4843
▁بیماری	-7.48997
▁دوران	-7.49312
▁طور	-7.4943
▁خانه	-7.4998
▁هیچ	-7.50323
▁بسیاری	-7.50369
▁خارجه	-7.50412
▁فعالیت	-7.5058
▁تلاش	-7.50627
▁منبع	-7.50729
▁رسان	-7.50863
▁بسیار	-7.51164
▁وارد	-7.5153
▁پی	-7.51618
▁اقتصاد	-7.52063
▁ولی	-7.52527
ها	-7.52621
▁زمین	-7.52692
▁تازه	-7.52751
▁فروش	-7.53057
▁کر	-7.53078
▁گویند	-7.53094
▁نرخ	-7.534
▁تصمیم	-7.53565
▁مدت	-7.53638
▁نزدیک	-7.53807
▁انتخابات	-7.53907
▁ریاست	-7.53949
▁افراد	-7.54808
▁مهم	-7.55043
▁سوی	-7.55584
نوز	-7.556
▁کمک	-7.55751
▁مختلف	-7.55949
▁نه	-7.55965
انه	-7.5621
ار	-7.56264
▁اجتماعی	-7.56332
▁تغییر	-7.56545
▁ش	-7.57132
▁نخست	-7.57734
قط	-7.57814
▁روحانی	-7.58012
▁ساله	-7.58268
▁قهرمان	-7.58552
▁تاریخ	-7.58664
▁اثر	-7.58891
▁س	-7.5928
▁خانواده	-7.59537
▁همراه	-7.59806
▁منطقه	-7.60011
▁خودرو	-7.61072
▁برای	-7.61198
▁پول	-7.61513
یت	-7.62069
یک	-7.62146
▁مرکزی	-7.622
▁حالا	-7.62341
▁مجموع	-7.62683
▁طرح	-7.62896
▁جان	-7.62964
ترین	-7.63068
▁درگذشت	-7.6321
▁آخر	-7.63526
▁شروع	-7.64136
▁پیدا	-7.64396
▁برابر	-7.64756
▁برجام	-7.6476
▁اصلی	-7.64816
▁کنار	-7.64821
▁هسته	-7.64963
▁زن	-7.65177
▁دوم	-7.65181
▁دهه	-7.65497
▁مرکز	-7.6582
▁اینک	-7.66153
ک	-7.66805
▁برخ	-7.67039
▁بورس	-7.67042
▁حت	-7.67069
▁دوره	-7.67073
▁موسیقی	-7.67686
▁پرسپولیس	-7.68006
▁بررسی	-7.6801
▁آمریکایی	-7.68222
▁اشار	-7.68427
▁بعضی	-7.68505
ثبت	-7.6851
▁۱۹	-7.69207
ریق	-7.6963
▁جمهور	-7.69936
▁کمتر	-7.69939
گان	-7.6996
▁پر	-7.7001
نامه	-7.70057
▁قهرمانی	-7.70249
▁میلادی	-7.70717
▁فدراسیون	-7.70883
▁شکست	-7.70907
▁نقش	-7.70995
▁اطلاعات	-7.71031
▁سفر	-7.71705
▁زیر	-7.72046
▁ه	-7.72264
با	-7.72597
▁نوشته	-7.73206
▁۵	-7.73292
▁آمار	-7.73491
▁رسمی	-7.73509
▁عکس	-7.73578
▁رسیده	-7.73872
▁سرمایه	-7.74146
▁که	-7.74169
▁۴	-7.74428
▁۱۰	-7.74509
▁رقابت	-7.74829
▁یافته	-7.75213
▁توجه	-7.75481
▁ممکن	-7.75872
▁همکاری	-7.75994
▁حمله	-7.76115
▁نتیج	-7.76179
▁بهترین	-7.76441
▁دور	-7.76532
▁کل	-7.76807
▁واکنش	-7.769
▁نشده	-7.76965
▁آب	-7.77365
▁بالا	-7.77521
▁رشد	-7.78014
▁عراق	-7.78294
▁دانشگاه	-7.78334
▁دنیا	-7.785
▁حمایت	-7.78683
▁مراسم	-7.78744
ست	-7.78766
▁آزاد	-7.78883
▁جایزه	-7.79059
▁ساعت	-7.79529
▁دنبال	-7.79782
▁ط	-7.79808
▁استقلال	-7.79866
▁رفت	-7.79888
▁پرداخت	-7.79968
▁فرانسه	-7.80531
▁هم	-7.80981
▁آژانس	-7.81312
▁مالی	-7.81764
▁کشتی	-7.82383
▁او	-7.8286
▁۲	-7.83388
▁استان	-7.83666
▁ن	-7.83816
▁حاضر	-7.83897
▁بازیکن	-7.84302
ق	-7.84339
▁اعتراض	-7.84715
▁سابق	-7.85339
▁پرونده	-7.85463
▁شش	-7.8566
▁موضوع	-7.85741
▁سیاسی	-7.85875
▁الله	-7.85961
▁شنبه	-7.86223
توسط	-7.86507
▁کنیم	-7.86686
▁ورزش	-7.86788
اکنون	-7.8707
▁خبرگزا	-7.87147
▁روند	-7.87167
▁ندارد	-7.87413
▁رد	-7.87578
▁ترامپ	-7.87819
▁آی	-7.87958
▁این	-7.8813
ِ	-7.88211
▁انتشار	-7.8826
▁تعداد	-7.88383
▁مدیر	-7.88619
▁نیمه	-7.8937
▁ر	-7.89418
روز	-7.89679
▁رسد	-7.8983
▁ترکیه	-7.89952
▁عرض	-7.90249
▁موج	-7.90278
▁زبان	-7.90289
▁طی	-7.90444
▁هدف	-7.90732
▁کتاب	-7.9106
▁دریافت	-7.91082
▁جنوبی	-7.91113
▁آلمان	-7.91536
▁قهرمانان	-7.91626
▁انرژی	-7.9192
یم	-7.92047
▁مذاکرات	-7.92408
▁دهند	-7.92423
▁صد	-7.93172
گیری	-7.93664
▁ده	-7.93819
▁خام	-7.93984
▁۲۰۲۰	-7.94014
▁اجرای	-7.94544
▁متهم	-7.94858
▁آمده	-7.95154
▁آزمایش	-7.95219
▁اتحاد	-7.95353
▁ویژه	-7.95411
▁مربوط	-7.95707
▁مبارز	-7.95708
▁سهام	-7.95734
▁دیدار	-7.96106
▁چنین	-7.96164
▁شمار	-7.96391
▁اج	-7.96423
▁نهایی	-7.9668
▁اقدام	-7.967
▁۶	-7.97093
▁پیروز	-7.97126
▁خرید	-7.97392
از	-7.97416
▁عربستان	-7.97452
▁سیاست	-7.97919
▁خواهند	-7.97924
ور	-7.98104
▁سازی	-7.98212
گاه	-7.98589
▁هشدار	-7.98618
▁تبدیل	-7.98771
▁تلویزیون	-7.98778
▁هند	-7.98996
▁رو	-7.99152
▁عضو	-7.99253
▁مرد	-7.99549
▁بهداشت	-8.00063
▁هفت	-8.00204
▁۳	-8.00434
▁آسیا	-8.00507
▁تن	-8.00792
▁گذاری	-8.00834
▁جریان	-8.01027
▁تایید	-8.01034
▁ایجاد	-8.01043
▁لیورپول	-8.01152
کسب	-8.01325
▁خطر	-8.01448
▁محل	-8.01522
▁ساخت	-8.01788
▁همان	-8.01901
)	-8.01937
▁سرمربی	-8.01946
▁درآمد	-8.01986
▁مرگ	-8.02346
▁ام	-8.02391
▁امنیت	-8.02437
▁میزان	-8.02462
▁صادرات	-8.0248
▁یافت	-8.02926
▁دیده	-8.0336
▁خیل	-8.03374
▁نقل	-8.03384
▁دوبار	-8.03398
▁زده	-8.03537
▁رود	-8.0356
▁مشخص	-8.03581
▁خارجی	-8.0372
▁انسان	-8.03982
▁کابل	-8.04264
ازه	-8.04615
▁جلو	-8.04667
▁بازداشت	-8.04784
▁انگلیس	-8.04864
▁حد	-8.04947
▁قابل	-8.04951
▁زندان	-8.04984
▁حسن	-8.05059
▁انتخاب	-8.05121
▁خط	-8.05247
▁مدل	-8.0528
▁کمی	-8.05734
▁خارج	-8.05734
▁فاصله	-8.05918
▁بازیکنان	-8.0621
▁رهبر	-8.06478
▁سوم	-8.06568
▁زمینه	-8.07465
▁نا	-8.07497
▁بیمارستان	-8.07614
▁روسیه	-8.07898
▁نیاز	-8.0794
ال	-8.0839
▁نسبت	-8.08492
▁کننده	-8.08607
▁(	-8.08662
▁چرا	-8.0869
▁برد	-8.08913
▁طرف	-8.09088
▁خاطر	-8.09575
▁سخت	-8.09742
▁دقیق	-8.09988
▁بست	-8.10023
▁سو	-8.102
▁کس	-8.1056
▁طول	-8.10585
▁معاون	-8.107
▁پلیس	-8.10763
▁سن	-8.10938
▁لغو	-8.1108
▁قانون	-8.11477
▁دولتی	-8.11752
▁حکم	-8.11983
▁ترک	-8.11998
▁نمایش	-8.12561
▁کامل	-8.13011
▁محدودیت	-8.13013
▁ج	-8.13662
▁ارزش	-8.13779
▁کشته	-8.13966
▁آ	-8.13987
▁تاثیر	-8.14011
▁منابع	-8.14237
▁دادگاه	-8.14444
▁تعطیل	-8.14556
▁آثار	-8.14559
▁حکومت	-8.14672
▁شکل	-8.14843
▁اتمی	-8.14853
▁بازگشت	-8.15142
▁لندن	-8.15193
▁سپاه	-8.15327
▁امتیاز	-8.15599
▁سالگی	-8.15619
▁تحت	-8.15728
▁ابتلا	-8.15794
▁چ	-8.15908
▁شناخت	-8.15948
▁بیانی	-8.16261
▁ساخته	-8.16437
▁ظریف	-8.16796
▁جو	-8.16961
▁۳۰	-8.17002
▁قرارداد	-8.17032
▁نامزد	-8.17181
▁مطرح	-8.17321
▁سطح	-8.17331
▁اعضای	-8.17791
▁جنگ	-8.18025
▁اسرائیل	-8.18056
▁زمانی	-8.18079
▁سخنگوی	-8.18108
▁انقلاب	-8.18392
▁قرنطینه	-8.18416
▁حرکت	-8.18417
▁نگاه	-8.18554
▁نگرانی	-8.18848
▁نمایند	-8.1891
▁ارتباط	-8.18939
▁بودجه	-8.19034
▁شناس	-8.1936
▁بالای	-8.19888
▁برنده	-8.20193
▁رای	-8.20219
▁پزشکی	-8.20351
▁همزمان	-8.20369
▁تع	-8.20416
▁نشست	-8.2047
ج	-8.20498
▁تنیس	-8.20635
▁مرح	-8.20636
▁گاز	-8.20641
▁نامه	-8.20854
▁جلس	-8.2105
▁آیا	-8.213
▁۲۵	-8.2141
▁عالی	-8.21697
▁گسترده	-8.21709
▁تو	-8.21743
▁عمومی	-8.2177
▁داستان	-8.21785
اما	-8.21845
▁انتقال	-8.22158
▁فکر	-8.22342
▁روزهای	-8.22411
▁مصاحبه	-8.22843
▁هوای	-8.23146
▁امنیتی	-8.23366
▁خوب	-8.23398
▁بایدن	-8.23993
▁صنعت	-8.23998
▁سابقه	-8.24214
▁جاری	-8.25192
▁متحده	-8.25318
▁سینما	-8.25625
۸	-8.25867
▁۲۰۰	-8.25974
▁بخشی	-8.25983
▁فن	-8.26051
▁کسان	-8.26209
چه	-8.26517
▁۹	-8.26764
▁پخ	-8.26769
▁الکتریکی	-8.2691
▁برق	-8.27367
▁متوقف	-8.27475
▁داخل	-8.275
▁گرفتن	-8.27689
▁تک	-8.28075
▁نوع	-8.28103
▁اروپایی	-8.28646
▁پاسخ	-8.28692
▁چشم	-8.29084
▁فشار	-8.29122
▁اتهام	-8.29164
▁افت	-8.29243
▁سیستم	-8.29295
▁۲۰۱۹	-8.29342
▁نیروهای	-8.29382
▁انتظار	-8.29429
▁قطع	-8.2954
سیون	-8.29673
▁کووید	-8.29872
▁باشند	-8.29873
▁صندوق	-8.29935
▁امور	-8.29943
▁دادن	-8.30082
▁جای	-8.30102
▁دانست	-8.30169
مین	-8.30207
▁کشید	-8.3023
▁پیشین	-8.30239
-	-8.30437
▁طراح	-8.30477
▁قدرت	-8.30596
▁نظامی	-8.30673
▁کودکان	-8.3071
▁دستگاه	-8.3072
ستاد	-8.30803
▁حساب	-8.30813
▁نکرده	-8.31134
ف	-8.31304
▁دستور	-8.31322
▁فینال	-8.3173
▁ادار	-8.31756
▁جدی	-8.31765
▁نو	-8.31776
▁نمایندگان	-8.3185
▁فارسی	-8.32078
▁چهر	-8.32082
▁۱۲	-8.32159
▁داشتند	-8.32244
▁خانم	-8.32268
الات	-8.32269
▁المپیک	-8.32341
▁آنچ	-8.32557
▁بحران	-8.32979
▁بشر	-8.33122
▁نهاد	-8.33144
▁فرهنگ	-8.33221
▁مسئولان	-8.33408
▁توانست	-8.33452
▁محکوم	-8.33521
▁معرف	-8.33583
▁۱۵	-8.33609
▁نیم	-8.33713
▁تورم	-8.33891
▁وی	-8.34102
▁۱	-8.34267
▁جا	-8.3437
▁چهارم	-8.34758
▁عد	-8.34788
▁جامعه	-8.3498
▁انتقاد	-8.35198
▁رکورد	-8.35341
▁نفتی	-8.35424
▁۷	-8.35425
▁رقم	-8.35493
▁ورود	-8.35542
▁قرن	-8.3555
▁ال	-8.35624
▁شدید	-8.35936
▁اسفند	-8.36139
▁چگون	-8.36168
ده	-8.366
▁ح	-8.36752
▁ورزشگاه	-8.36865
▁آزادی	-8.37016
▁مربی	-8.37036
▁هز	-8.37093
▁بلند	-8.3739
▁فروردین	-8.37441
▁موسس	-8.37537
▁۱۳	-8.37712
▁شدت	-8.37813
▁ارائه	-8.38098
▁دوشنبه	-8.38258
▁ورزشی	-8.38392
▁کنترل	-8.38774
▁دار	-8.38827
▁اجرا	-8.3915
▁مانده	-8.39452
▁رفته	-8.39472
▁ملل	-8.39505
▁خودش	-8.39665
ویه	-8.39746
▁احتمال	-8.39773
۰۰	-8.39793
▁اتفاق	-8.39863
۵	-8.39984
ون	-8.40049
▁جنوب	-8.40055
▁سراسر	-8.40104
▁بتوان	-8.40479
▁همچن	-8.40541
▁تاریخی	-8.40657
▁نوشت	-8.40738
▁پروژه	-8.40775
▁غنی	-8.40777
▁معاملات	-8.40843
▁آبان	-8.40871
▁تحقیقات	-8.40967
▁گذاشته	-8.40996
▁بینی	-8.41143
▁۱۴۰۰	-8.41528
▁دونالد	-8.41581
▁ایتالیا	-8.42029
۲	-8.42077
▁پشت	-8.42106
▁مبتلا	-8.42128
▁گیرد	-8.42177
▁فضای	-8.42585
وی	-8.42652
▁شامل	-8.42768
▁تجاری	-8.42922
▁مصوب	-8.42924
▁تشکیل	-8.43401
▁روزنامه	-8.4343
▁تحقیق	-8.43431
▁داخلی	-8.43494
▁آمد	-8.43521
▁نخواه	-8.43844
ینه	-8.44009
▁شاهد	-8.44143
▁سیاه	-8.44355
▁بازیگر	-8.44392
▁محیط	-8.44931
▁ضرب	-8.4498
▁هنگام	-8.45001
▁فعال	-8.4512
▁گو	-8.45123
▁کارگران	-8.45305
وز	-8.45471
دی	-8.456
▁د	-8.45616
▁محلی	-8.45652
▁عمل	-8.45698
▁نبود	-8.45715
▁اختیار	-8.46236
▁مشکل	-8.46248
▁کنید	-8.46374
▁محدود	-8.46434
▁مشکلات	-8.46465
▁اف	-8.4667
▁۸	-8.46879
▁تصوی	-8.46929
▁نیروی	-8.46983
▁آسیب	-8.47071
▁شکایت	-8.47112
▁درمان	-8.47428
▁بودن	-8.477
▁طولانی	-8.47819
▁بشک	-8.47826
▁بارسلونا	-8.47847
▁فضایی	-8.4787
▁عامل	-8.47923
▁۵۰	-8.47957
ام	-8.48009
۴	-8.48076
▁هنر	-8.48113
▁مارادونا	-8.48613
▁جمعیت	-8.48752
▁قو	-8.48789
▁دسترس	-8.48789
▁ناشی	-8.4928
نگ	-8.49313
یعن	-8.49322
▁سوخت	-8.49327
▁تجرب	-8.49341
▁بالاتر	-8.49492
▁گون	-8.49504
▁۱۱	-8.49789
▁زد	-8.50133
▁ان	-8.50282
▁واردات	-8.50321
▁ابتدای	-8.5039
▁ممنوع	-8.50491
▁جمعه	-8.50508
▁شماری	-8.50589
▁امکان	-8.50635
▁شان	-8.50742
▁درخواست	-8.50787
▁سمت	-8.508
▁سایر	-8.50855
▁۲۲	-8.51095
سازی	-8.51124
▁پای	-8.51377
▁یاد	-8.51396
▁مسی	-8.51436
▁فرهنگی	-8.51479
▁باقی	-8.51513
▁دادند	-8.51576
▁دفاع	-8.51875
▁اولیه	-8.51891
▁شما	-8.51927
▁تهدید	-8.52023
می	-8.52057
▁کوچک	-8.52177
▁روبرو	-8.52216
▁مس	-8.52222
▁اعدام	-8.52281
پس	-8.52287
▁علت	-8.52376
▁اس	-8.52516
▁مرغ	-8.52606
▁موارد	-8.52738
▁هنری	-8.52997
▁مرتبط	-8.53021
▁آورد	-8.53052
▁ماسک	-8.53148
حفظ	-8.53785
▁لازم	-8.53791
▁متفاوت	-8.53792
▁تقریبا	-8.538
▁نظام	-8.54314
▁وین	-8.54362
▁احتمالا	-8.54447
اس	-8.54475
▁۱۶	-8.54483
▁تاکید	-8.5457
▁صفر	-8.54623
▁صحبت	-8.54776
▁ژان	-8.54823
براز	-8.54926
▁گذشت	-8.55031
▁احمد	-8.55296
▁بگیرد	-8.55354
▁پارسال	-8.55368
▁سریال	-8.55386
▁۶۰	-8.55542
▁نگهبان	-8.56134
▁ولایت	-8.56138
▁قوانین	-8.56142
▁قطر	-8.5615
▁چهارشنبه	-8.56188
▁خون	-8.56267
▁علاو	-8.56285
▁یکشنبه	-8.5647
▁مسیر	-8.56487
▁حذف	-8.56801
▁ترتیب	-8.56926
▁مشترک	-8.56927
▁ونزوئلا	-8.56932
▁توسعه	-8.56932
▁دلایل	-8.56992
تر	-8.57024
▁سرعت	-8.57068
▁کنم	-8.57068
▁رشت	-8.57155
▁قصد	-8.57166
▁شهرهای	-8.57493
▁حل	-8.5752
مان	-8.57632
▁غرب	-8.58467
▁فهرست	-8.58548
▁خروج	-8.5857
▁روابط	-8.58641
▁بندی	-8.58738
▁اقدامات	-8.58745
▁سنت	-8.58864
▁جز	-8.59081
وق	-8.59189
▁اخیرا	-8.59252
▁نژاد	-8.59279
▁قانونی	-8.59285
▁احیا	-8.59349
▁مواد	-8.59367
▁هوا	-8.59399
▁مسئول	-8.59485
▁شهروندان	-8.59573
▁کاملا	-8.59579
▁امضا	-8.59757
۶	-8.59772
یین	-8.59931
▁هایش	-8.6
▁سقوط	-8.60192
▁ترکیب	-8.60215
▁طبق	-8.60286
▁لو	-8.60331
▁شاید	-8.60367
▁متر	-8.60472
▁خوانده	-8.60571
▁کارخان	-8.60991
▁مصرف	-8.61038
▁تامین	-8.6105
▁نتایج	-8.61061
▁کوتاه	-8.61075
رفع	-8.61254
▁پرواز	-8.61697
▁موفق	-8.61773
▁آستان	-8.61836
▁انفجار	-8.61841
۷	-8.61869
▁۱۴	-8.62022
▁سیتی	-8.62195
▁بد	-8.62315
▁برده	-8.62343
▁اختلاف	-8.62581
▁مرز	-8.62704
▁رییس	-8.62705
▁نسل	-8.62707
▁بیرون	-8.6274
▁واحد	-8.62767
▁بدن	-8.62837
▁نقاشی	-8.62845
▁۴۰	-8.63197
▁فرد	-8.63304
▁پیشنهاد	-8.63373
▁نقطه	-8.63516
▁پایین	-8.63797
▁شمال	-8.63805
▁مشهور	-8.63809
▁قرمز	-8.63955
▁حرفه	-8.63963
▁ک	-8.64186
▁شجریان	-8.64368
▁نظیر	-8.64368
ید	-8.64413
▁کیلومتر	-8.64511
▁ماند	-8.64584
▁مارس	-8.64725
▁ستار	-8.64772
▁کارگردان	-8.64917
▁صادر	-8.6498
▁نویسنده	-8.65287
▁صفح	-8.65445
▁یورو	-8.65477
▁درگیر	-8.65485
▁رنگ	-8.65616
▁سلامت	-8.66122
▁جشنواره	-8.6615
▁میزبان	-8.6618
▁چلسی	-8.66194
▁آماده	-8.6624
اخر	-8.66275
▁۱۷	-8.66372
▁تا	-8.6647
▁اندازه	-8.66672
▁استرالیا	-8.66864
▁افتاد	-8.66879
▁اسکار	-8.67043
▁آوریل	-8.67056
▁گفتگو	-8.67125
▁جهش	-8.67168
▁سوار	-8.67205
حه	-8.67465
نمایی	-8.67471
▁بخوانید	-8.67862
▁آرژانتین	-8.67868
▁۲۰۲۱	-8.67883
▁همیشه	-8.67902
▁یونایتد	-8.67958
▁مالیات	-8.68048
▁شاخص	-8.68096
▁زاده	-8.68681
▁افغان	-8.68754
▁توصیف	-8.68774
▁فوت	-8.68787
▁آلود	-8.68835
▁مجازی	-8.6888
▁مردان	-8.68946
▁تاکنون	-8.69013
▁محمود	-8.69069
▁۱۸	-8.69091
▁رفتن	-8.69221
▁چپ	-8.69667
▁قلب	-8.69677
▁تجارت	-8.6968
▁فرصت	-8.69684
▁اطلاع	-8.69923
▁عباس	-8.69931
▁نگران	-8.69951
▁بزرگترین	-8.70013
▁لای	-8.70144
▁کو	-8.70221
▁بریتانیایی	-8.70599
▁عملیات	-8.70637
▁پاریس	-8.70802
▁جمع	-8.70862
▁طلا	-8.70966
سی	-8.71236
▁کمیت	-8.71491
▁معروف	-8.715
▁روشن	-8.71701
گر	-8.71715
▁پل	-8.71763
خانه	-8.72023
▁کنندگان	-8.7206
▁هواپیمایی	-8.7213
▁من	-8.72322
▁اوپک	-8.72487
▁نهادهای	-8.72623
▁برسد	-8.72643
▁اعتراضات	-8.72712
▁دومین	-8.72736
▁علمی	-8.72913
اساس	-8.73045
▁مذاکر	-8.73234
▁اعمال	-8.73357
▁هشت	-8.73413
▁سنگین	-8.7358
▁۵۰۰	-8.73632
▁مهد	-8.73704
▁روش	-8.73783
▁واقع	-8.7386
ع	-8.73939
▁ایمن	-8.73984
▁بارها	-8.74079
▁اضاف	-8.74286
▁مجدد	-8.74286
▁نظارت	-8.74291
▁هرات	-8.74366
▁مل	-8.74588
بی	-8.74677
▁پروازهای	-8.7472
▁تاج	-8.74753
▁تهی	-8.7485
▁دارایی	-8.74883
▁منج	-8.74948
▁چیزی	-8.75089
▁ندارند	-8.75238
▁مقایس	-8.7524
▁رعایت	-8.75245
▁جدول	-8.75257
▁آتش	-8.75258
▁اتاق	-8.7527
▁مشابه	-8.75292
▁سایت	-8.75496
▁زنده	-8.75731
▁کالا	-8.7611
▁پیام	-8.76153
▁منتقل	-8.762
▁مناطق	-8.76206
▁حادثه	-8.76292
▁خصوصی	-8.76297
▁چاپ	-8.76336
ایران	-8.76452
▁سریع	-8.76876
▁دکتر	-8.76917
▁روان	-8.77003
▁سنگ	-8.7709
▁۹۸	-8.77214
▁موفقیت	-8.77241
▁۹۰	-8.77418
▁خواننده	-8.77505
▁کشورها	-8.77744
▁ملت	-8.77838
▁تابستان	-8.77867
▁زیست	-8.77876
▁رسیدن	-8.78023
▁کاخ	-8.78221
▁سرطان	-8.78233
▁تاتنهام	-8.7827
▁بهبود	-8.78274
▁باخت	-8.78349
▁کدام	-8.78436
▁خواند	-8.78505
طور	-8.78817
▁بهتر	-8.78897
▁پژوهش	-8.78952
علی	-8.79183
▁امید	-8.79186
▁۲۰۱	-8.79292
▁مانع	-8.79306
▁توییتر	-8.79329
▁حق	-8.79341
▁عمده	-8.79392
ممنوعیت	-8.79481
▁مهر	-8.79667
▁هواداران	-8.79956
▁فعالان	-8.80025
▁کلی	-8.80178
▁توپ	-8.80179
▁عملکرد	-8.80202
▁حوزه	-8.80205
▁صدای	-8.80472
▁سوریه	-8.80505
▁پور	-8.80649
▁بیست	-8.8069
▁دوست	-8.80762
▁پ	-8.80844
▁مجوز	-8.81183
عودی	-8.81325
▁بنزین	-8.81353
▁احمدی	-8.81446
▁انگیز	-8.81676
▁برداشت	-8.81696
دو	-8.81985
▁سفید	-8.82189
▁اینترنت	-8.82193
▁رکود	-8.82218
وایل	-8.82402
▁بیشتری	-8.82477
▁آید	-8.82595
▁دهم	-8.8277
▁کشف	-8.83255
▁منچستر	-8.83271
▁گمرک	-8.83276
▁پیشتر	-8.83872
▁درست	-8.83975
▁گاه	-8.84276
▁رابط	-8.84312
▁سفیر	-8.84314
▁ریز	-8.8459
▁گذاشت	-8.84634
▁تی	-8.84932
▁ایالت	-8.85057
▁خصوص	-8.851
▁۲۴	-8.85108
▁صدا	-8.8513
▁دین	-8.85283
▁نقدینگی	-8.85297
▁تاجیکستان	-8.85298
▁فساد	-8.85318
▁بحرین	-8.85337
▁مادرید	-8.85339
▁بحث	-8.85404
▁تصاویر	-8.85452
▁گروهی	-8.85649
▁تغییرات	-8.85746
▁جنسی	-8.85899
لی	-8.85913
▁نشد	-8.85983
▁دختر	-8.86063
▁رانند	-8.8629
▁کن	-8.86327
▁برخورد	-8.86355
▁خوزستان	-8.86362
▁دچار	-8.86362
▁حزب	-8.86368
▁رفتار	-8.86449
عده	-8.86453
▁خودروساز	-8.86541
▁راست	-8.87142
▁کارگر	-8.87238
▁چیز	-8.87425
▁پایتخت	-8.87436
▁مواجه	-8.8744
▁بستر	-8.8744
▁گذار	-8.87459
▁مقررات	-8.87459
▁گردد	-8.87464
▁ارتش	-8.8747
▁مجله	-8.87493
▁فرمانده	-8.87512
▁اظهارات	-8.87527
▁مغز	-8.87726
▁۱۰۰	-8.87926
تبه	-8.87992
▁خبرنگار	-8.88161
اقل	-8.88202
▁مستند	-8.8839
▁افتاده	-8.88391
▁طبیعی	-8.88544
▁خالی	-8.88559
▁پوند	-8.88577
▁شرق	-8.88589
▁مک	-8.88689
چند	-8.89146
نیوم	-8.89255
▁دریا	-8.89267
▁انگلیسی	-8.8933
بیشتر	-8.89378
▁۲۸	-8.89385
▁جوان	-8.89522
▁محمو	-8.89528
▁نقاط	-8.89622
▁مشغول	-8.89624
ح	-8.89843
▁عبور	-8.89884
▁یو	-8.90158
▁بازارهای	-8.90201
▁سینمایی	-8.90231
▁هنرمند	-8.90326
▁حرف	-8.90402
▁پدر	-8.90429
▁قضایی	-8.9051
▁رساند	-8.90582
▁اسپانیا	-8.90667
▁ارشد	-8.90764
▁کاری	-8.90868
▁اورا	-8.90904
▁زدن	-8.90928
▁بن	-8.90953
▁گر	-8.91059
▁امیدوار	-8.91134
▁شاه	-8.9126
▁موجود	-8.91339
▁عهد	-8.9142
▁حریف	-8.91498
محمد	-8.91643
▁پوست	-8.91838
▁مجبور	-8.91857
▁فدرر	-8.92081
▁کنون	-8.92304
▁جایی	-8.92329
▁۲۳	-8.92395
▁مه	-8.92728
▁روزانه	-8.92914
کنندگان	-8.92965
▁خاک	-8.92996
▁قتل	-8.93016
▁هدایت	-8.93029
فورد	-8.93057
▁سخنران	-8.93065
▁موافقت	-8.93097
▁قدیمی	-8.93217
▁درواز	-8.93294
▁سکه	-8.93303
▁کارشناسان	-8.93429
▁صعود	-8.93436
▁مثبت	-8.93502
▁فارس	-8.93503
▁پیوست	-8.93806
▁بیکار	-8.93814
▁رخ	-8.93872
▁نور	-8.94067
▁بال	-8.94129
▁دوچرخه	-8.94142
▁زاغری	-8.94142
▁معتقد	-8.9415
▁-	-8.94216
▁نفتکش	-8.9424
▁قطعی	-8.94288
▁ما	-8.94576
▁پنجم	-8.94801
▁تقوی	-8.95124
▁توضیح	-8.95188
▁ظاهر	-8.95293
▁شعر	-8.95296
▁تشخیص	-8.95306
▁وابست	-8.95306
▁مرداد	-8.95353
▁رئال	-8.95357
۹	-8.95358
▁وزن	-8.95463
▁نمو	-8.95645
▁حسین	-8.95714
▁صحنه	-8.95901
▁آورده	-8.95943
▁ابتدا	-8.95947
▁ناز	-8.95957
▁کودک	-8.96068
▁نشری	-8.96144
▁بنز	-8.96375
▁تجمع	-8.96447
▁هوشمند	-8.96484
▁۱۳۹۹	-8.96486
▁عدالت	-8.96512
▁یابد	-8.96534
▁چه	-8.96566
▁دفتر	-8.96645
▁دارو	-8.96711
▁فنی	-8.96724
▁افزوده	-8.96747
▁درآمدها	-8.97063
▁سود	-8.97118
▁ظرف	-8.97672
▁انگلستان	-8.97673
▁دوربین	-8.97705
▁حب	-8.97721
▁ساختمان	-8.97724
▁فیفا	-8.97742
ره	-8.97822
▁مدیریت	-8.97936
▁مالک	-8.97979
▁پذیر	-8.97987
▁دنیای	-8.98104
شب	-8.98132
▁تسل	-8.98308
▁ماهه	-8.9847
▁اجرایی	-8.98803
▁پاسداران	-8.9891
▁دانند	-8.98941
▁دبیر	-8.98959
نی	-8.99065
▁آوری	-8.99069
یر	-8.99121
▁بنا	-8.99151
نا	-8.99214
▁زنی	-8.99332
▁مد	-8.99477
▁رضا	-8.99624
▁کشاورز	-8.99662
وم	-8.9967
▁مستقیم	-8.99984
صد	-8.99999
▁اقیانوس	-9
▁پیشرفت	-9.00065
خواهان	-9.00067
▁العاده	-9.00097
▁صبح	-9.0012
▁بهار	-9.00125
وس	-9.00282
اوری	-9.00284
▁دختران	-9.00636
▁ژاپن	-9.00867
▁فوریه	-9.01004
▁مت	-9.01171
بود	-9.01215
▁فراهم	-9.01339
غلب	-9.01378
▁بهمن	-9.01459
▁شخصیت	-9.01577
▁رمان	-9.01599
دار	-9.01722
▁چک	-9.01889
▁سعید	-9.01948
▁دل	-9.0247
▁وضع	-9.02547
▁استقبال	-9.02581
▁مدعی	-9.02584
▁مدافع	-9.02585
▁موزه	-9.02589
▁معتبر	-9.0259
▁موقعیت	-9.02608
▁خورد	-9.02744
▁جنگل	-9.02913
▁زندانی	-9.03043
▁تز	-9.03081
▁صدر	-9.0326
▁مقامات	-9.0327
▁میدان	-9.03438
▁آموزش	-9.03512
▁ژوئن	-9.03847
▁بیت	-9.03855
▁تماس	-9.03892
نین	-9.04147
▁کشورش	-9.04152
▁واقعی	-9.04181
شنبه	-9.04235
▁اع	-9.0426
▁مادر	-9.044
▁تخم	-9.04521
▁حمل	-9.04537
▁شخصی	-9.04867
▁دید	-9.04877
▁زود	-9.04925
▁۳۰۰	-9.05081
▁خانگی	-9.05185
▁طالبان	-9.052
▁جنجال	-9.05219
▁مخالفت	-9.05306
▁امام	-9.05364
▁مسافران	-9.05432
▁فعلی	-9.05508
▁پا	-9.06036
▁قبلا	-9.0604
▁محصولات	-9.06086
یست	-9.06308
▁مکان	-9.0641
▁اردیبهشت	-9.06453
▁روایت	-9.06457
▁فایل	-9.06459
▁چیست	-9.06462
▁معادل	-9.06474
▁کانال	-9.06479
▁محمدرضا	-9.06568
▁سفارت	-9.06569
▁کاربران	-9.06573
▁بیماران	-9.06841
۱	-9.06962
▁دانشمندان	-9.06966
ازگی	-9.07021
ستاره	-9.07055
▁اوت	-9.07225
▁سینمای	-9.07314
تان	-9.07323
▁فرزند	-9.07348
▁پاکستان	-9.07469
▁۲۱	-9.07626
▁کارهای	-9.07652
▁علاق	-9.07742
▁تحویل	-9.07743
▁سرشناس	-9.07751
▁بایرن	-9.07756
▁عرب	-9.07756
▁جشن	-9.07769
▁عجیب	-9.07772
▁تلفن	-9.07805
▁رویترز	-9.0782
▁گوش	-9.07866
▁اوج	-9.07918
▁صوتی	-9.08117
▁جدا	-9.08121
▁ترانه	-9.08315
▁همسر	-9.08343
▁بنابر	-9.08485
ریمه	-9.08533
▁بیمار	-9.08552
▁اصلاح	-9.08725
▁بدهی	-9.08998
▁توصی	-9.09048
▁واکسین	-9.09077
▁نشود	-9.09079
▁خرداد	-9.09089
▁قدم	-9.09094
▁دانش	-9.09107
▁هستیم	-9.09118
▁خواهیم	-9.09146
▁بهداشتی	-9.09293
▁مهار	-9.09476
اک	-9.09667
▁سرخ	-9.09921
▁آرام	-9.10206
▁سوئیس	-9.10309
▁ساز	-9.10431
▁فرانسوی	-9.10454
▁مدیرعامل	-9.10456
▁مبتلایان	-9.10462
▁نوری	-9.10474
▁قسمت	-9.10506
نقض	-9.10508
▁اوراق	-9.10512
▁خدمات	-9.10519
▁مجری	-9.10528
▁هی	-9.10533
▁جدیدی	-9.10767
▁استاد	-9.10779
▁علیرضا	-9.10853
▁منف	-9.11447
دود	-9.11484
▁گران	-9.11592
▁مبلغ	-9.11798
▁آلبوم	-9.11808
▁سیستان	-9.11836
▁مجید	-9.11865
▁ع	-9.11914
▁گیرند	-9.1194
ط	-9.12079
▁عق	-9.12082
▁برمی	-9.12702
▁نداشته	-9.12837
▁معامل	-9.13105
▁گرم	-9.13138
▁آلمانی	-9.13153
▁حفاظت	-9.13187
▁ارسال	-9.13192
▁کارکنان	-9.13197
▁جزئیات	-9.13212
▁خلق	-9.13219
الدین	-9.13256
▁پالایشگاه	-9.13275
▁عادی	-9.13325
یابی	-9.13501
▁متوسط	-9.13708
▁گستر	-9.13882
پ	-9.14052
▁اینستاگرام	-9.14262
▁۲۶	-9.14279
اسی	-9.14387
▁نهایت	-9.14477
▁برگشت	-9.14565
▁تورنمنت	-9.14595
▁سوپر	-9.14613
▁نوامبر	-9.14618
▁رونالدو	-9.14646
▁فرهاد	-9.14679
▁موقت	-9.14685
▁اسطوره	-9.14685
▁تقاضا	-9.14706
▁نویس	-9.1472
▁هاست	-9.14751
▁فوری	-9.15214
▁موتور	-9.15471
▁جراح	-9.15507
▁کنونی	-9.15532
سال	-9.15723
▁نداشت	-9.15899
▁لحظ	-9.15995
▁معرض	-9.16029
▁متعل	-9.16034
▁کنسرت	-9.16039
۳	-9.1605
▁۲۰۱۷	-9.16058
▁واشنگتن	-9.1607
▁تخریب	-9.16088
▁جوایز	-9.16107
▁ضد	-9.16125
▁اخراج	-9.16146
▁ضرور	-9.16225
▁ارزی	-9.16321
▁ایم	-9.16328
▁نشر	-9.16376
▁هست	-9.1639
▁موشک	-9.16539
▁گ	-9.16992
▁مهاجم	-9.17049
▁خورده	-9.17134
▁سند	-9.17162
▁احساس	-9.1746
▁لباس	-9.17497
▁۳۵	-9.1751
▁دریایی	-9.17513
▁اکت	-9.1752
▁عصر	-9.1752
▁هواپیما	-9.17521
▁نگه	-9.17534
▁مدیران	-9.17577
▁غذا	-9.17581
▁داریم	-9.1766
▁عین	-9.17673
▁برزیل	-9.177
▁چندان	-9.17788
▁خورشیدی	-9.17932
▁مشا	-9.17943
▁۷۰	-9.17969
▁تومانی	-9.18024
ای	-9.18205
▁فر	-9.18226
▁غذای	-9.18704
▁صرف	-9.18927
▁نحو	-9.18944
هرگز	-9.18948
▁نتوانست	-9.18967
▁مسلح	-9.18972
▁سوال	-9.19008
▁امارات	-9.19013
▁رافائل	-9.19143
دولت	-9.1919
لان	-9.19211
▁ناظر	-9.19219
▁دیوان	-9.19386
▁۸۰	-9.19462
سون	-9.1951
▁کافی	-9.19572
▁راهی	-9.19612
▁حس	-9.1979
▁لی	-9.1982
کش	-9.19895
▁معنای	-9.19924
▁ملک	-9.20105
▁دریای	-9.20228
▁اشتباه	-9.20317
▁بلوچستان	-9.20437
▁۱۳۹۸	-9.20439
▁محرم	-9.20444
▁پست	-9.20472
▁کردم	-9.20475
▁ایستگاه	-9.20484
▁آهنگ	-9.20487
▁تصور	-9.20507
داری	-9.20553
▁معمولا	-9.20554
▁نیرو	-9.20641
▁فوتبالیست	-9.20691
خانم	-9.20724
▁خودروهای	-9.20747
▁فردا	-9.20874
▁داند	-9.20945
▁داشتن	-9.20959
▁خر	-9.21072
▁نج	-9.21253
توجه	-9.21261
قیف	-9.21572
امبر	-9.21642
▁سعی	-9.21838
▁مطالع	-9.21923
▁ویمبلدون	-9.21951
▁نوبل	-9.2196
▁جیمز	-9.21978
▁بازگش	-9.21997
▁نیویورک	-9.22
▁گام	-9.22027
▁معترضان	-9.22086
▁تعهدات	-9.22093
▁آذر	-9.22101
مقام	-9.22111
▁قضائیه	-9.22125
▁برقرار	-9.22125
ئو	-9.22221
سازمان	-9.22244
ما	-9.22327
▁فرمو	-9.2234
▁مر	-9.22368
▁فضا	-9.22405
گرد	-9.22546
اب	-9.2279
▁آبی	-9.22815
▁زخمی	-9.22982
گری	-9.23261
▁توییت	-9.23296
▁مرزی	-9.23366
▁کالاهای	-9.23426
▁ژوئیه	-9.2349
▁صلح	-9.2349
▁قاچاق	-9.2352
▁تیر	-9.23632
▁غربی	-9.23684
رضا	-9.23751
▁دما	-9.23757
وزارت	-9.23794
▁خیابان	-9.2403
▁هموار	-9.24038
▁حسینی	-9.24376
▁ض	-9.24869
▁خوش	-9.24929
▁تقاضای	-9.2494
▁حاصل	-9.25053
▁مونیخ	-9.25054
▁بهادار	-9.25056
▁آمازون	-9.25063
▁نگهداری	-9.25064
▁پرتاب	-9.25091
▁نادال	-9.25105
▁حاشیه	-9.25123
▁انجمن	-9.25224
▁لیون	-9.25279
▁دیدن	-9.25369
فدراسیون	-9.25376
▁امیر	-9.25376
▁مخالفان	-9.2541
برای	-9.2549
▁نزدیکی	-9.25568
▁پژوهشگران	-9.2564
▁جمعی	-9.25666
▁خبرنگاران	-9.25702
یو	-9.25794
▁شاعر	-9.25967
▁۹۹	-9.26121
▁شهروند	-9.26332
▁محبوب	-9.26614
▁تعویق	-9.26639
▁اهمیت	-9.26651
▁مریخ	-9.26677
▁موسو	-9.26724
▁ادبیات	-9.26742
▁نویسندگان	-9.26763
▁یکدیگر	-9.26795
▁مالکی	-9.26807
▁تیراندازی	-9.26886
▁هواپیمای	-9.269
▁دشوار	-9.269
▁برود	-9.26944
▁آمیز	-9.27021
▁اندازی	-9.27024
▁مربیان	-9.27657
▁باره	-9.27893
▁گرفتند	-9.27961
▁عبدال	-9.28198
▁توقف	-9.28258
▁متعدد	-9.28263
▁پارک	-9.28265
▁مراجع	-9.28271
▁صلاحیت	-9.28277
▁عوامل	-9.28284
▁حکام	-9.2829
▁برجسته	-9.28376
▁سیما	-9.28504
▁چهل	-9.2852
▁ورزشکاران	-9.28611
خبرگزا	-9.28673
▁روزها	-9.28692
▁واقعیت	-9.28732
قدر	-9.28785
جا	-9.28794
رکت	-9.28907
▁اکبر	-9.29069
▁مناسب	-9.2953
▁آل	-9.29731
▁اختصاص	-9.29892
▁افتخار	-9.29892
▁آزار	-9.299
▁آسمان	-9.29937
▁ایسنا	-9.29944
▁دارای	-9.29989
▁سپت	-9.30009
من	-9.30025
▁سخنان	-9.30189
حسین	-9.30295
قانونی	-9.30467
▁پزشک	-9.30514
▁پدید	-9.30583
▁قاسم	-9.30655
▁ایستاد	-9.30743
▁۳۱	-9.30807
▁پرس	-9.30985
ینگ	-9.31099
▁تمامی	-9.31408
▁جذب	-9.31558
▁صنایع	-9.31558
▁ثابت	-9.31559
▁سراوان	-9.31563
▁آنلاین	-9.31592
▁چالش	-9.31601
▁پروتکل	-9.31612
▁مطابق	-9.31707
▁ماموران	-9.31709
▁ساکن	-9.3172
▁کلاس	-9.31722
▁پسر	-9.31767
▁سلیمانی	-9.31814
▁لس	-9.3187
▁ارزها	-9.32065
تا	-9.32074
▁داروی	-9.32269
▁بازرگانی	-9.32492
▁کی	-9.32551
▁حیات	-9.32611
▁خان	-9.32736
▁باور	-9.32875
▁حج	-9.33057
وئل	-9.33253
▁سلطنت	-9.33253
▁توکیو	-9.33259
▁حاکی	-9.33261
▁بوکس	-9.33272
▁ریال	-9.33281
▁رسما	-9.33295
▁همتی	-9.33299
▁خشک	-9.33333
▁خدم	-9.33386
وید	-9.33501
▁کارمندان	-9.33537
▁احتمالی	-9.33552
▁کردیم	-9.33609
▁زند	-9.33638
۱۶	-9.33737
اسیون	-9.33787
▁درجه	-9.33991
▁همچو	-9.33993
▁۲۹	-9.34247
▁دام	-9.34356
▁خورشید	-9.34489
▁رقیب	-9.3452
کار	-9.34702
▁محروم	-9.34773
▁مارک	-9.34929
▁مسئ	-9.34967
▁قالیباف	-9.34977
▁خشونت	-9.34977
▁اخبار	-9.34991
ظیم	-9.35003
▁بازگرداند	-9.35071
▁جایگاه	-9.35121
▁تاسیسات	-9.35122
▁وکیل	-9.35145
▁راجر	-9.35249
ود	-9.35253
▁بندر	-9.35313
شیدا	-9.35473
▁هنرمندان	-9.35631
▁استعفا	-9.35648
▁مواردی	-9.35724
▁مسافر	-9.35887
▁گفتند	-9.3592
▁شک	-9.36001
باید	-9.36046
▁اسرائیلی	-9.36141
▁ز	-9.36256
▁بلا	-9.36282
▁کارشناس	-9.36413
▁عکاسی	-9.36624
علوم	-9.36643
▁ارقام	-9.36732
▁اجلاس	-9.36732
▁فرودگاه	-9.36765
▁پلاس	-9.36776
ساوی	-9.36786
▁اهل	-9.36797
▁پنجاه	-9.36812
▁اسکن	-9.36833
▁گذارد	-9.36921
▁شهرت	-9.36979
▁مایک	-9.36993
▁بعدا	-9.37118
▁چرخ	-9.37307
▁ترس	-9.37671
▁ماجرا	-9.37827
▁جه	-9.37924
▁اید	-9.37959
▁الملل	-9.37966
▁زاد	-9.38281
▁بان	-9.38361
▁نامداری	-9.38375
▁بازرس	-9.38476
▁توزیع	-9.38517
▁طبیعت	-9.38517
▁جذاب	-9.3852
▁سبک	-9.38553
▁ماده	-9.38563
نس	-9.3859
▁یوونتوس	-9.38599
▁جوکوویچ	-9.38645
▁طرفداران	-9.38669
▁میلان	-9.38829
▁شیو	-9.39044
▁زندانیان	-9.39177
▁متحد	-9.39274
▁جودو	-9.39441
▁سهم	-9.39445
▁مخالف	-9.39556
داد	-9.3971
▁فردی	-9.39722
لو	-9.39768
بط	-9.39874
▁فرا	-9.40015
▁نگار	-9.40122
▁عمیق	-9.40243
▁برادر	-9.40301
▁اصفهان	-9.40336
▁دعوت	-9.40336
▁دیجیتال	-9.40336
▁جبران	-9.40337
▁تاخیر	-9.40338
▁شهریور	-9.40361
▁صراف	-9.40398
▁منتظر	-9.40418
▁سد	-9.40424
▁ضمن	-9.4043
▁ناسا	-9.40448
▁هیا	-9.40458
▁پاس	-9.40477
▁جواد	-9.40508
▁کلوپ	-9.40544
▁منتقدان	-9.40644
▁سای	-9.40655
لیک	-9.40759
▁قوی	-9.40773
▁کارها	-9.40854
کن	-9.41237
▁تست	-9.4126
▁خلی	-9.41284
▁اصل	-9.41335
▁اسب	-9.41336
▁گیر	-9.41454
انجام	-9.41488
▁آور	-9.41564
▁ادبی	-9.41573
▁وگو	-9.41632
هر	-9.41658
▁صف	-9.41915
▁تحصیل	-9.4207
▁نهم	-9.42114
▁مراکز	-9.42188
▁کاپیتان	-9.42188
▁متولد	-9.42195
▁آنجلس	-9.42199
▁تمدید	-9.42201
وع	-9.4223
▁گذرد	-9.42259
▁حراج	-9.4226
▁گلستان	-9.42265
▁پن	-9.42311
▁مشاور	-9.42326
▁اتریش	-9.42402
▁دستمزد	-9.4242
یکی	-9.4245
کس	-9.42453
▁خاص	-9.42588
▁عدد	-9.42734
لاک	-9.42918
▁بو	-9.43234
▁مسک	-9.43437
▁متن	-9.4346
▁۳۲	-9.43604
▁جاد	-9.4375
▁فرستاده	-9.43775
▁ورزشکار	-9.43803
▁فرار	-9.4384
▁موثر	-9.43853
▁رحمان	-9.43929
▁اساسی	-9.44021
▁ست	-9.44043
▁مسائل	-9.44077
▁مراقب	-9.44077
▁مشمول	-9.44081
▁مقصد	-9.44095
▁لوکس	-9.44136
▁سرپرست	-9.4416
▁نرم	-9.44194
▁جلوی	-9.4438
▁اتفاقات	-9.44486
▁پایه	-9.44835
▁گردشگری	-9.4512
▁ثانی	-9.45183
تیم	-9.45261
▁مجاز	-9.45649
▁۴۲	-9.45663
▁زا	-9.4585
▁تمرین	-9.45879
▁شرقی	-9.45921
دست	-9.45923
▁اتومبیل	-9.45997
▁سرنگون	-9.45998
▁هنرپیشه	-9.45998
▁خسارت	-9.45998
▁قبول	-9.45998
▁۱۳۹۷	-9.46002
ضاع	-9.46004
▁فراموش	-9.46035
▁فیزیک	-9.46035
▁واگذار	-9.46049
▁فیسبوک	-9.4606
▁جسد	-9.46145
▁تخت	-9.46219
▁تری	-9.46274
▁حذفی	-9.46416
▁قول	-9.4643
▁همسرش	-9.46447
▁شبی	-9.46476
ص	-9.46782
رنگ	-9.468
▁چشمگیر	-9.47027
▁سهمی	-9.4712
گون	-9.47152
▁نقاش	-9.47283
▁درک	-9.47367
...	-9.4757
▁برآورد	-9.47623
▁فرود	-9.4777
▁آهن	-9.47863
▁دوستان	-9.479
ول	-9.47924
▁نوروز	-9.47928
▁تئاتر	-9.47958
▁بقیه	-9.47959
▁زمستان	-9.47959
▁بخت	-9.47983
▁ناپذیر	-9.48006
▁خیریه	-9.48032
▁گزین	-9.48046
▁انداز	-9.48049
▁هماهنگ	-9.48098
▁بنیاد	-9.48219
▁شناسی	-9.48239
▁شاملو	-9.48259
۱۸	-9.48578
▁گری	-9.48613
▁محققان	-9.48631
▁مان	-9.48781
▁سامانه	-9.48908
سا	-9.49586
▁سپاهان	-9.49594
▁افزود	-9.49694
▁شمالی	-9.49738
چ	-9.49768
لا	-9.49787
فسور	-9.49908
▁هرچ	-9.49915
▁حامل	-9.49948
▁کالیفرنیا	-9.49958
▁تنفس	-9.49959
▁اسکاتلند	-9.49959
▁مشاهد	-9.49999
▁میراث	-9.50028
▁تحولات	-9.50087
شویی	-9.50165
▁آر	-9.50445
ازم	-9.50519
▁پدرش	-9.50546
ظ	-9.50553
▁قر	-9.50563
یا	-9.50771
▁باب	-9.5085
هفته	-9.50958
▁ذخ	-9.51631
▁رادیو	-9.51698
▁بند	-9.51709
▁آشنا	-9.51837
▁رویکرد	-9.51889
خراج	-9.51922
▁دستگیر	-9.51959
▁دیوار	-9.51965
▁جامع	-9.51981
▁شاغل	-9.51999
▁چنان	-9.52002
▁صدرنشین	-9.52002
▁موضع	-9.52004
▁اطمینان	-9.52014
▁تکرار	-9.52014
▁کانادا	-9.52021
▁عید	-9.52035
▁ازدواج	-9.52039
▁آرسنال	-9.52042
▁ساحل	-9.52045
▁۲۰۱۵	-9.5207
▁ساعات	-9.52087
▁نارنجی	-9.5213
▁پرو	-9.52179
▁اوپ	-9.52265
▁تماشاگران	-9.52423
رئیس	-9.5282
همزمان	-9.52827
▁نداده	-9.52872
بار	-9.52886
▁بعدی	-9.53132
جمع	-9.53163
▁دامن	-9.5317
▁ذهن	-9.53245
▁رهبری	-9.53258
۱۹	-9.53534
رسدس	-9.53627
▁ابلاغ	-9.54046
▁محافظ	-9.54069
▁نطنز	-9.54082
▁اطراف	-9.54082
▁فیوری	-9.54083
▁ناگهان	-9.54083
▁مشهد	-9.54084
▁پنهان	-9.54089
▁بماند	-9.54089
▁فعلا	-9.54094
▁نفس	-9.54114
▁مقدار	-9.54118
▁مار	-9.54132
▁پاپ	-9.54169
▁باغ	-9.54169
▁برخوردار	-9.54203
▁آماد	-9.54336
مه	-9.54454
▁۳۳	-9.54622
▁سوز	-9.54776
▁شبانه	-9.54883
ناصر	-9.54917
گزارش	-9.55077
▁کارت	-9.55121
عهد	-9.55138
▁محمدی	-9.55237
کا	-9.5527
▁صاحب	-9.55419
ساز	-9.55433
▁توانسته	-9.56035
▁مبن	-9.56041
▁عکاس	-9.56092
▁هشتم	-9.5612
دن	-9.56143
▁تعلیق	-9.56212
▁عمدتا	-9.56212
▁رونق	-9.56216
▁دسامبر	-9.56227
▁الهام	-9.56235
▁بگیرند	-9.56245
▁سوئد	-9.56265
▁مسعود	-9.56331
▁اسناد	-9.56396
▁قربانیان	-9.564
▁ذر	-9.56425
▁حداکثر	-9.56455
▁مشتریان	-9.56466
هم	-9.56471
▁پاک	-9.56477
▁۲۷	-9.56489
▁نیازمند	-9.56586
▁سا	-9.56746
۱۴	-9.56835
▁گرانی	-9.56844
▁نادر	-9.56858
▁جوانان	-9.57046
▁یخ	-9.5708
▁خواب	-9.57154
▁هفتم	-9.57181
▁کوه	-9.57492
رز	-9.57752
▁انداخت	-9.57782
▁کلیه	-9.57795
▁نوجوان	-9.57832
ورت	-9.57893
▁نیستند	-9.57912
▁وق	-9.58043
▁جی	-9.58127
▁اظهار	-9.58263
▁نداریم	-9.58384
▁ژافره	-9.58384
▁ساده	-9.58414
▁آکادمی	-9.58427
▁عرص	-9.58428
▁پادتن	-9.58429
▁بهر	-9.58451
▁تولد	-9.58455
▁ماموریت	-9.58456
▁یمن	-9.58469
▁قار	-9.58472
▁لبنان	-9.58502
▁فروخته	-9.58527
▁اسکی	-9.5853
▁مرور	-9.58534
▁سرکوب	-9.58565
▁کارزار	-9.58573
▁حملات	-9.58583
▁آفریقا	-9.58602
▁لستر	-9.58626
▁دادستان	-9.5867
▁امر	-9.58749
▁داور	-9.58761
▁استاندار	-9.58782
▁ایتالیایی	-9.58937
▁خواه	-9.59056
▁برداری	-9.59096
▁۴۵	-9.59109
▁یافتن	-9.59162
▁مج	-9.59334
▁انتخاباتی	-9.59469
▁خاتمی	-9.59611
▁مدار	-9.59619
▁اطلاعی	-9.59681
▁حقوقی	-9.59699
▁شغل	-9.59746
اپی	-9.59963
ماه	-9.60169
▁خاصی	-9.60171
▁فولک	-9.60243
▁تماشاگر	-9.60266
▁عمر	-9.60409
▁مو	-9.60411
▁میانه	-9.60433
▁تاسیس	-9.60492
▁محصول	-9.60517
▁اضطرار	-9.60606
▁اعتبار	-9.60606
▁ژرمن	-9.60607
▁جلب	-9.60607
▁تصادف	-9.60611
▁بدهد	-9.60612
▁ترجم	-9.60617
▁خمینی	-9.60634
▁نسخ	-9.60637
▁شواهد	-9.6065
▁دستورالعمل	-9.60651
▁بازنشستگان	-9.60673
▁حیوانات	-9.60675
▁محرومیت	-9.60684
▁هویت	-9.607
وثی	-9.60731
▁جانب	-9.60768
▁مسئولیت	-9.60773
▁آمدن	-9.60865
▁انداخته	-9.60896
▁پیچیده	-9.60977
حسن	-9.61114
▁کالاها	-9.61137
اد	-9.61193
▁شرکتهای	-9.61263
لند	-9.61514
رون	-9.61532
▁نامید	-9.61563
▁بردن	-9.61611
▁نبوده	-9.61647
▁رویا	-9.61682
▁دوز	-9.61721
▁تماشای	-9.61781
▁ریش	-9.61859
کته	-9.61917
▁ویژ	-9.61997
▁طلب	-9.62176
▁نکرد	-9.62327
▁درمانی	-9.62363
▁محسو	-9.62536
▁چا	-9.6271
▁اعتماد	-9.62879
▁مصنوعی	-9.62879
▁هیئت	-9.62879
واع	-9.62881
ذیب	-9.62882
▁تعرف	-9.62884
▁ایرنا	-9.62884
▁گشت	-9.62887
▁پادشاه	-9.62954
▁جواب	-9.62966
▁مادرش	-9.62975
▁نفوذ	-9.63042
▁مدرن	-9.63218
▁مطلب	-9.63232
▁شانس	-9.63307
زاده	-9.63322
▁داوطلبان	-9.63391
نظر	-9.63785
فت	-9.63825
جی	-9.63852
ابت	-9.63945
▁پاری	-9.64048
اسان	-9.64067
▁امیدواری	-9.645
▁حالت	-9.64623
▁بازدید	-9.64701
▁بیان	-9.64701
▁۳۴	-9.64715
۴۰۰	-9.64802
▁کیلومتری	-9.64813
مدال	-9.64869
▁نشین	-9.65139
▁سرای	-9.65174
▁قالب	-9.65204
▁خطرناک	-9.65205
▁واگن	-9.65206
▁متوالی	-9.65214
▁تبعیض	-9.65222
▁پکن	-9.65225
▁شفاف	-9.65229
▁خاطره	-9.65239
▁مجسمه	-9.65251
▁دانیم	-9.65253
▁زهرا	-9.65262
▁کیفیت	-9.65264
▁متخصص	-9.65281
▁افزار	-9.65283
سکی	-9.65297
▁خودکشی	-9.65301
▁خفاش	-9.65305
▁فرمان	-9.65309
▁مستقل	-9.65331
▁مدیرکل	-9.65353
▁کادر	-9.65371
▁مسافرت	-9.65523
▁ویدیوی	-9.65568
احض	-9.65657
▁منع	-9.66099
▁کلید	-9.66473
▁بازیگران	-9.66648
▁اور	-9.66655
▁سفرهای	-9.66673
پیش	-9.66837
گ	-9.66838
وقت	-9.66876
▁سخن	-9.67077
▁راحت	-9.6718
▁اندک	-9.67307
آن	-9.67472
▁مورینیو	-9.67585
▁برگزید	-9.67585
▁نصب	-9.67585
▁پرچم	-9.67585
▁کیلوگرم	-9.67586
▁تردد	-9.67587
▁اندونزی	-9.67587
▁تجدید	-9.67591
▁تشویق	-9.67592
▁رمز	-9.67639
▁تأ	-9.67671
▁قطعه	-9.67739
▁مجازات	-9.67746
▁دهیم	-9.67844
▁مدرسه	-9.68105
▁دان	-9.68123
احل	-9.68149
▁گوشت	-9.68163
▁جر	-9.6817
▁دقیقا	-9.68182
▁درحال	-9.68255
▁وام	-9.68418
کل	-9.68541
▁ماجرای	-9.68563
بانک	-9.68784
▁وایلد	-9.68872
▁ابر	-9.69083
حمل	-9.69128
▁معدن	-9.69652
▁انتظا	-9.69698
ایر	-9.69968
▁مسکو	-9.69979
▁زنند	-9.70007
▁مشاغل	-9.70024
▁گرنداسلم	-9.70024
▁عشق	-9.70025
▁دائم	-9.7003
▁سلول	-9.7003
▁اجاره	-9.70032
▁بگذارد	-9.70032
▁نیمکت	-9.70034
▁کجا	-9.70039
تصاب	-9.70047
▁قلع	-9.7005
▁مقدمات	-9.70071
▁خلاف	-9.70078
▁آسان	-9.7011
▁مرجان	-9.70159
▁ابراهیم	-9.70168
▁میر	-9.70178
▁فراز	-9.70216
▁عبدالله	-9.70278
▁هاشمی	-9.70301
▁سالن	-9.70314
▁نمایندگی	-9.70408
▁عملا	-9.70459
▁شاهین	-9.70547
وند	-9.70593
▁آنتونی	-9.70646
▁شیر	-9.70681
▁بابا	-9.70705
آ	-9.70718
گفته	-9.70824
▁نود	-9.71158
دکتر	-9.71258
بعضی	-9.71261
قیمت	-9.71264
بنابر	-9.71302
رو	-9.71357
▁بهای	-9.7154
▁طلای	-9.71735
ندگان	-9.72091
شورای	-9.72173
یده	-9.72394
▁کسر	-9.72484
▁آکسفورد	-9.72524
▁شصت	-9.72525
▁گشایش	-9.72525
▁خطوط	-9.72533
▁وسیع	-9.72544
▁شگفت	-9.72546
▁وانت	-9.72551
▁شویم	-9.72553
▁اهواز	-9.72571
▁تجهیزات	-9.72574
▁فرو	-9.72667
▁پوشش	-9.72687
▁محکومیت	-9.72786
▁اتفاقی	-9.72981
▁تب	-9.73131
▁جنسیت	-9.73135
خالت	-9.73201
▁خرد	-9.73268
▁زودتر	-9.73308
است	-9.73348
▁نیمی	-9.73455
بته	-9.73636
▁پیگیری	-9.7367
وخیم	-9.74031
▁ششم	-9.74165
شرکت	-9.74176
گین	-9.74207
وال	-9.74376
▁۱۵۰	-9.74529
را	-9.74578
▁درحالی	-9.74755
▁پژوهشگر	-9.74798
▁۱۹۸	-9.74861
▁خودروسازی	-9.74966
۰	-9.75009
یات	-9.75084
▁بسکتبال	-9.75089
▁چارچوب	-9.75089
▁سلاح	-9.7509
▁گروسی	-9.75092
▁مسجد	-9.75095
▁استانبول	-9.75096
▁گواردیولا	-9.75107
▁علائم	-9.75108
▁هتل	-9.75115
▁زاهد	-9.75122
▁آرایش	-9.75136
▁منافع	-9.7514
▁پرتغال	-9.75171
▁تفاوت	-9.75173
▁دانشجویان	-9.75206
▁یادآور	-9.75243
شدید	-9.75279
▁امضای	-9.75329
▁ایفا	-9.7537
▁برنت	-9.75394
▁فقر	-9.75399
▁شورو	-9.75403
▁اسماعیل	-9.7544
▁بیستم	-9.75465
▁اسپانیایی	-9.75491
▁تحول	-9.75499
▁آزمایشگاه	-9.75505
▁اسلام	-9.75745
▁جک	-9.7586
▁طلبان	-9.76003
▁معمول	-9.76095
▁دیپلما	-9.76161
▁اقلیم	-9.76247
▁کف	-9.76311
▁بردند	-9.76435
▁برون	-9.76509
فر	-9.76524
▁اجباری	-9.76635
ویز	-9.76697
▁نماد	-9.76741
رد	-9.76771
ابی	-9.76772
▁خوان	-9.76841
مون	-9.77131
▁سرد	-9.7729
▁سالها	-9.77535
▁نامش	-9.77703
▁شهرداری	-9.7772
▁غیرمستقیم	-9.7772
▁لذت	-9.7772
▁بخار	-9.77723
▁باشیم	-9.77724
▁دیپلماتیک	-9.7775
▁تالاب	-9.77773
▁شهرستان	-9.77776
▁حقیقت	-9.77781
آزادسازی	-9.77786
▁شهرسازی	-9.77978
▁مالیاتی	-9.77991
▁دهنده	-9.78009
▁واقعا	-9.78069
▁امکانات	-9.78152
رانی	-9.78171
▁مناسبت	-9.78262
▁پزشکان	-9.78389
▁ماندن	-9.78394
▁زدند	-9.78404
▁هوش	-9.78583
▁وحش	-9.78614
▁علم	-9.78861
▁خاتم	-9.78915
تمام	-9.78946
▁صادق	-9.7897
▁نشدن	-9.79027
▁پهلوی	-9.79065
▁ارد	-9.79237
خواهی	-9.79345
اگر	-9.79554
▁قدر	-9.79822
▁نمای	-9.79903
▁بودیم	-9.79911
▁تردید	-9.80263
▁خیر	-9.80325
▁پیک	-9.80332
▁اسدی	-9.80415
▁بلینکن	-9.80423
▁مشروط	-9.80423
▁معاف	-9.80425
▁کانون	-9.80431
▁نفع	-9.80432
▁تبریز	-9.80442
▁عمق	-9.80453
▁ناکام	-9.80456
▁ردیف	-9.80458
▁پاییز	-9.80488
▁عذر	-9.80511
▁سرنوشت	-9.80512
▁آواز	-9.80516
▁اولسان	-9.80518
▁شوک	-9.8052
▁نوسان	-9.80549
▁سازنده	-9.80559
▁کیو	-9.80615
▁اختلال	-9.80641
▁منظور	-9.80652
▁تایسون	-9.80724
▁جدایی	-9.80795
▁برج	-9.80885
غم	-9.80922
▁کیم	-9.80944
▁معن	-9.80997
۵۰	-9.81014
▁قضاییه	-9.81014
▁حلق	-9.81083
غول	-9.81294
▁اکثر	-9.8137
ض	-9.81388
رسان	-9.81544
▁سپر	-9.81566
رگن	-9.81618
حال	-9.81702
▁تماشا	-9.81758
▁برند	-9.81788
▁نابودی	-9.81807
▁هلند	-9.81848
▁درخشان	-9.8187
آزمایی	-9.81911
امروز	-9.82128
▁رویدادها	-9.82165
دان	-9.82216
التی	-9.82689
اجع	-9.82748
ماهی	-9.82775
▁رهبران	-9.82814
▁لب	-9.8284
ستون	-9.82863
▁۷۰۰	-9.82925
کو	-9.82937
▁موافق	-9.82964
کم	-9.82988
▁۶۰۰	-9.83148
▁موقع	-9.8316
▁آذربایجان	-9.83201
▁الحاق	-9.83201
▁تسلیحات	-9.83201
▁ثبات	-9.83201
▁نباشد	-9.83201
▁آشکار	-9.83204
▁اقامت	-9.83206
▁کلمبیا	-9.83221
▁هیجان	-9.83249
▁تپ	-9.8325
▁جانشین	-9.83267
▁لحا	-9.83279
▁مخاطبان	-9.83289
▁بلژیک	-9.83292
▁کاوشگر	-9.83293
▁اینتر	-9.83297
▁مثال	-9.83304
▁مدنی	-9.83304
▁معلوم	-9.83318
▁علنی	-9.8337
▁نامزدهای	-9.83378
▁تجا	-9.83417
پی	-9.83509
▁جسم	-9.83545
▁سوالات	-9.83561
▁آسیای	-9.83619
▁فروشگاه	-9.83621
وات	-9.83644
▁صدو	-9.84187
▁نت	-9.8441
قرار	-9.84458
قابل	-9.84461
▁رها	-9.84712
▁مقال	-9.84766
مجموع	-9.84794
ث	-9.84867
▁هجوم	-9.84875
سر	-9.85104
▁اسم	-9.85353
▁۶۵	-9.85419
▁قیمتها	-9.85633
▁تحلیل	-9.85838
سبب	-9.86023
▁عبارت	-9.86058
▁پیامدهای	-9.8606
▁بامیان	-9.86061
▁اماکن	-9.86064
▁آدم	-9.86066
▁اورتون	-9.86067
▁بزند	-9.86085
▁پرورش	-9.8611
سل	-9.86131
▁بنیان	-9.86144
▁سقف	-9.86152
▁نمایشگر	-9.86152
▁شرط	-9.86168
▁همکاران	-9.86211
▁امشب	-9.86272
اکان	-9.86279
▁خاوران	-9.86285
افسانه	-9.863
▁فرماندار	-9.86309
▁۴۸	-9.86334
دل	-9.86348
▁سپرده	-9.86435
▁شتاب	-9.86614
▁سرود	-9.86759
▁مذهبی	-9.86778
▁اص	-9.86832
▁فرستاد	-9.86905
غ	-9.86995
▁تقس	-9.87046
▁باند	-9.87254
▁سنا	-9.87336
▁گمان	-9.87388
▁نرسیده	-9.87406
▁درون	-9.87441
حدود	-9.87617
▁۰	-9.87814
▁دسته	-9.87977
فاصله	-9.88077
▁بودم	-9.88126
▁ماهوار	-9.8816
▁صالح	-9.88238
▁مرا	-9.8831
▁کام	-9.88376
▁اصلا	-9.88704
▁کارمند	-9.88756
▁بچ	-9.88793
▁تبلیغ	-9.88883
▁محاسب	-9.88884
▁۴۴	-9.88907
▁استراماچونی	-9.88999
▁رضوی	-9.88999
▁همیشگی	-9.88999
▁حکایت	-9.88999
▁جایگزین	-9.89
▁جستجو	-9.89001
▁قادر	-9.8902
▁۲۰۱۱	-9.89049
▁ماراتن	-9.89058
▁کریستیان	-9.89074
▁تکمیل	-9.89096
▁فایزر	-9.89096
▁خطاب	-9.89105
▁بلیت	-9.89147
▁طیف	-9.89219
▁فرزندان	-9.89222
▁نمایشگاه	-9.89252
▁خواهم	-9.89262
رویی	-9.89291
▁۹۷	-9.89291
▁ملایی	-9.89297
▁محافظت	-9.89337
▁نوروزی	-9.89345
تن	-9.89386
کر	-9.89464
▁جاسوس	-9.89604
▁تبع	-9.8962
▁تعطیلات	-9.89662
▁اتهامات	-9.89747
▁بازرسان	-9.8983
▁سان	-9.90193
▁دفاعی	-9.90321
▁راز	-9.9044
▁آنک	-9.90478
▁عزیزی	-9.90515
▁انت	-9.90547
▁بلخ	-9.90641
سعید	-9.9076
آی	-9.90778
بنا	-9.90847
تون	-9.90874
تو	-9.90908
وزیر	-9.90915
گانه	-9.90992
▁وال	-9.91
▁تائ	-9.91005
▁پرد	-9.91085
▁قد	-9.91323
اقات	-9.91443
رس	-9.91444
یره	-9.91474
▁درد	-9.91497
▁ابتلای	-9.91587
▁آمارها	-9.91593
▁تور	-9.91625
▁دانشمند	-9.91627
سه	-9.91651
▁عام	-9.91793
▁فیلیپ	-9.91811
▁مطل	-9.91895
▁حافظ	-9.91921
▁سالم	-9.91951
▁حوادث	-9.92029
▁فرآیند	-9.92029
▁هالیوود	-9.92029
▁پارلمان	-9.92029
▁تراکتور	-9.92033
▁سایپا	-9.92033
▁غافلگیر	-9.92062
▁قدرتمند	-9.92067
▁بیاید	-9.92083
▁جنبش	-9.92083
▁هیوندای	-9.9209
▁نژادپرست	-9.92103
▁بهشت	-9.92106
▁خطیب	-9.92128
▁تدریج	-9.92136
نوبت	-9.92148
بو	-9.92154
▁اپل	-9.92163
▁رانندگان	-9.92165
▁سانسور	-9.92168
▁تل	-9.9219
▁تس	-9.92217
▁خریدار	-9.92306
▁عادت	-9.92329
▁غلام	-9.92497
▁گوشی	-9.92542
▁۳۹	-9.92615
▁کمال	-9.92648
▁امان	-9.92698
▁زیرا	-9.93151
▁ژاپنی	-9.93186
▁۹۶	-9.93223
▁تبار	-9.93245
▁نبرد	-9.93266
▁راند	-9.93443
▁اقدامی	-9.93546
▁والی	-9.9358
چی	-9.93651
▁سبز	-9.93879
▁روس	-9.94053
خ	-9.9407
▁نظریه	-9.94132
▁ادعا	-9.9419
▁سیار	-9.94207
یشه	-9.94438
▁ژنتیکی	-9.94822
▁پو	-9.94939
▁هو	-9.94958
▁۳۸	-9.95013
▁مطالب	-9.95046
▁عروس	-9.95102
▁اعزام	-9.95154
▁معاصر	-9.95154
▁آفتاب	-9.95154
▁برانگیز	-9.95154
▁وسط	-9.95156
▁گورستان	-9.95158
▁یوفا	-9.95162
▁بدهند	-9.95166
▁عاص	-9.95167
▁هافبک	-9.95177
▁فریاد	-9.95178
▁دایک	-9.95179
▁دیگو	-9.95183
▁حیدر	-9.95183
▁ویلیامز	-9.952
▁عراقچی	-9.95201
▁عطر	-9.95215
▁راموس	-9.95217
▁۷۵	-9.95235
▁طبری	-9.95243
▁مزار	-9.95259
▁مسال	-9.95263
▁خاورمیانه	-9.9534
▁تمایل	-9.95377
▁یونان	-9.95381
▁بطور	-9.95386
▁داری	-9.95409
▁راستا	-9.95413
▁یازده	-9.95515
▁انگار	-9.95534
▁کریست	-9.95738
▁آگاه	-9.95976
▁خاطرات	-9.95999
وا	-9.96173
▁نان	-9.96424
▁بهایی	-9.96474
▁آفریقای	-9.96785
▁هنرها	-9.97083
رسمی	-9.97151
▁ارزان	-9.97196
▁قوا	-9.97246
▁دیر	-9.97279
▁تف	-9.97281
▁رسیدند	-9.97343
▁ایست	-9.97454
فق	-9.97492
▁ار	-9.97523
▁تبلیغات	-9.97546
لک	-9.97573
▁شنا	-9.97619
▁عفو	-9.97908
▁خ	-9.97967
▁فراوان	-9.98038
وف	-9.9811
▁روب	-9.98341
طئ	-9.9838
▁قاجار	-9.9838
▁تعریف	-9.9838
▁عوارض	-9.9838
▁احترام	-9.98381
▁اقلام	-9.98381
▁اولویت	-9.98382
▁منچسترسیتی	-9.98388
▁خوک	-9.98396
▁یادداشت	-9.984
▁کنفرانس	-9.98402
▁ویلموتس	-9.98404
▁طوفان	-9.98404
▁کانری	-9.98408
▁برانکو	-9.9841
▁فراتر	-9.98415
▁معارف	-9.98462
▁لمس	-9.98501
▁برقی	-9.9852
▁اذ	-9.98523
▁بدتر	-9.98533
▁۴۳	-9.98613
▁عادل	-9.98643
▁آم	-9.98652
▁شنیده	-9.98665
▁نداشتند	-9.98723
▁هستم	-9.9881
مار	-9.98875
▁محمدجواد	-9.99049
▁فرم	-9.99077
بورن	-9.99135
▁اسپ	-9.99143
▁پان	-9.99243
▁جزیر	-9.99296
▁مسئولین	-9.99333
▁آموزشی	-9.99334
▁سری	-9.99349
اق	-9.99552
یخ	-9.99805
▁حامی	-10
▁امن	-10.0009
باقر	-10.0039
▁جورج	-10.0059
▁عظیم	-10.0071
اول	-10.0072
▁ون	-10.0074
فاش	-10.0083
▁اوکراین	-10.0089
▁گروگان	-10.0103
۲۵	-10.0108
▁۳۷	-10.0114
طی	-10.0116
۲۰۱۲	-10.0121
جو	-10.0127
▁دلاری	-10.0142
اینها	-10.0146
▁مطمئن	-10.016
▁باد	-10.0164
▁الکترونیک	-10.0171
▁دبلیو	-10.0171
▁گوناگون	-10.0171
▁باشید	-10.0172
▁غزنی	-10.0172
ادورو	-10.0172
▁سلمان	-10.0173
▁هشتاد	-10.0174
▁پلاستیک	-10.0174
▁حساس	-10.0175
مند	-10.0176
▁تعهد	-10.0177
▁قلم	-10.0177
▁قایق	-10.0178
▁فرونشست	-10.0178
▁ارشاد	-10.0179
▁آتی	-10.0179
▁عروسک	-10.018
▁مدارک	-10.0181
داشت	-10.0184
▁برخلاف	-10.0184
▁کشد	-10.0185
▁مدارس	-10.0188
▁مهاجرت	-10.0188
▁منار	-10.0191
▁شوم	-10.0192
نادیده	-10.02
▁شکار	-10.0201
▁لوئی	-10.0209
▁منته	-10.0217
▁شکاف	-10.0218
▁خوردن	-10.0219
▁گذراند	-10.0231
▁فلیک	-10.0233
▁رحمانی	-10.024
▁قله	-10.0243
▁درهای	-10.0248
▁شعب	-10.0248
▁آرامش	-10.0249
▁۹۵	-10.0266
بین	-10.0282
▁وست	-10.0286
▁نماز	-10.0291
مهدی	-10.0291
یسم	-10.0293
▁بیمه	-10.0296
▁کریمی	-10.0302
▁رفتند	-10.0326
▁ذو	-10.0327
▁آندر	-10.0327
▁خودم	-10.0343
▁تنگ	-10.0345
▁طوری	-10.0363
▁تاپ	-10.0372
▁آیند	-10.0382
▁پارسی	-10.0405
باران	-10.0407
لف	-10.0407
▁پیشگیری	-10.0416
▁نیک	-10.0427
▁اهدا	-10.0443
امی	-10.0453
▁سلطان	-10.0461
▁طلایی	-10.047
▁مشتری	-10.0478
▁متشک	-10.0503
▁کلاسیک	-10.0504
▁شعار	-10.0512
هزار	-10.0514
▁داغ	-10.0516
▁آنفلوآنزا	-10.0516
▁تگزاس	-10.0516
▁خداحافظ	-10.0516
▁سامسونگ	-10.0516
▁مازندران	-10.0516
▁موبایل	-10.0516
▁کنسول	-10.0516
▁بغداد	-10.0516
▁مستمر	-10.0516
▁سرقت	-10.0516
▁زلزله	-10.0517
▁تظاهرات	-10.0518
▁وسایل	-10.0518
▁برگزیت	-10.0519
▁روغن	-10.0519
▁پرفروش	-10.0519
▁پتروش	-10.0519
▁۲۰۱۰	-10.052
▁انبار	-10.0521
▁شیراز	-10.0521
▁تاثیرگذار	-10.0523
▁قاضی	-10.0523
▁منشا	-10.0523
▁هفتاد	-10.0524
▁جانسون	-10.0529
▁بدر	-10.0533
▁مکرون	-10.0535
▁ویران	-10.0539
▁گرا	-10.0546
راحل	-10.0553
▁ضرر	-10.0565
▁امین	-10.057
▁رم	-10.0586
▁قدس	-10.0588
▁حمید	-10.0592
▁نگرفته	-10.0594
صاف	-10.0599
▁زیبایی	-10.06
▁پروان	-10.0605
▁مش	-10.0608
▁مور	-10.0621
وش	-10.0627
▁ضعیف	-10.0628
فرین	-10.0628
▁رغ	-10.0638
سو	-10.0655
کسی	-10.0662
▁استخوان	-10.0669
▁ویدئویی	-10.0679
▁حضورش	-10.0706
▁مع	-10.0706
اوش	-10.0719
افغانستان	-10.0749
پیشتر	-10.0749
▁خیابانی	-10.0759
▁گزارشگر	-10.0761
اولین	-10.0781
▁کال	-10.0785
▁افشار	-10.0791
پور	-10.0802
▁ویدیو	-10.0803
▁آگ	-10.0805
▁افکن	-10.0807
▁آباد	-10.0808
▁خوانندگ	-10.081
▁روح	-10.081
▁برکنار	-10.0816
▁عاشق	-10.0819
▁مغزی	-10.0823
▁محدودیتهای	-10.0827
خره	-10.0832
▁ق	-10.0842
▁محقق	-10.0842
▁نیوک	-10.0846
▁۱۳۵	-10.085
▁ابزار	-10.0851
▁شایع	-10.0851
▁تاجیک	-10.0856
بهار	-10.0856
▁ایرانیان	-10.0866
▁ببینید	-10.0873
▁تخصص	-10.0873
▁رستوران	-10.0873
▁شمخانی	-10.0873
▁موانع	-10.0873
▁دادگستری	-10.0873
▁قاطع	-10.0873
▁ازبکستان	-10.0873
▁صمت	-10.0874
▁شکنجه	-10.0874
▁سانتی	-10.0874
▁بخصوص	-10.0875
▁مطبوعات	-10.0875
▁زوج	-10.0875
▁فرگوسن	-10.0876
▁اشرف	-10.0878
▁سرزمین	-10.0879
▁عفونت	-10.0879
▁اسلم	-10.0879
▁مقاومت	-10.088
▁پیوند	-10.0881
▁کمرنگ	-10.0887
▁ریه	-10.0889
▁توماس	-10.089
▁وبسایت	-10.089
ائ	-10.0894
▁فیل	-10.0896
▁غار	-10.0898
▁کرمان	-10.0899
▁صرفا	-10.0904
▁سیام	-10.0909
▁ظاهرا	-10.0912
▁گرند	-10.0915
▁شهرها	-10.0918
▁برایش	-10.0922
▁اختلافات	-10.0923
▁پوشید	-10.0924
▁کارش	-10.0926
▁ساختار	-10.0926
▁تج	-10.0929
▁جرم	-10.0932
▁فرید	-10.0937
▁مساوی	-10.0938
▁بهتری	-10.0938
▁وظ	-10.0942
▁پرسید	-10.0942
▁پذیرفته	-10.0949
▁گذر	-10.095
ستان	-10.0953
▁جلسات	-10.0957
▁فان	-10.0965
۳۱	-10.097
▁استعداد	-10.0984
پنج	-10.0985
▁بزو	-10.0989
▁ادعای	-10.0996
▁عم	-10.1042
▁دراز	-10.1045
▁عزاداری	-10.105
نیم	-10.1064
کاری	-10.1067
هام	-10.1069
شهر	-10.1077
دا	-10.1077
وار	-10.1099
لیگ	-10.11
رج	-10.11
▁اشک	-10.111
افزایش	-10.1117
پلیس	-10.1118
ي	-10.1128
بسیاری	-10.1143
▁۴۹	-10.1143
▁گرد	-10.1169
▁اوست	-10.1175
▁عملی	-10.1177
▁۶۷	-10.119
▁میلیاردها	-10.119
▁منتقد	-10.1202
▁تابلو	-10.1204
▁مهندس	-10.1209
▁شیرین	-10.1213
▁گفتگوها	-10.1226
▁حیوان	-10.1232
▁سرباز	-10.1234
خیص	-10.1243
▁خادم	-10.1244
▁پروتئین	-10.1244
▁نکنید	-10.1244
▁ترجیح	-10.1244
▁معیشت	-10.1244
▁منحصر	-10.1244
▁بعید	-10.1244
▁برساند	-10.1244
▁روزگار	-10.1244
▁مترجم	-10.1244
▁خلاص	-10.1244
▁خوراک	-10.1244
▁دقایق	-10.1244
▁کیلو	-10.1246
▁ویل	-10.1246
▁مخابرات	-10.1246
▁اهداف	-10.1246
▁نقص	-10.1246
▁نیوزیلند	-10.1246
▁متناسب	-10.1248
▁نشت	-10.125
▁سینماها	-10.1253
شمار	-10.1254
▁صند	-10.1254
▁ولز	-10.1259
راضی	-10.126
▁پپ	-10.126
▁خشم	-10.1262
▁کنگره	-10.1263
▁پیمان	-10.1263
▁گردشگران	-10.1264
▁اضطراب	-10.1266
▁دانم	-10.1274
میم	-10.1278
▁اموا	-10.1281
▁پوری	-10.1289
▁محسن	-10.1295
▁پیوستن	-10.1296
▁دونده	-10.1297
▁کاربر	-10.13
▁گذاشتن	-10.1301
▁برندگان	-10.1301
▁زیان	-10.1303
▁تحلیلگر	-10.1307
▁موش	-10.1308
▁قدمت	-10.1312
▁اهدای	-10.1322
▁جیب	-10.1327
▁پرند	-10.1329
نر	-10.1331
▁انتقالات	-10.1344
نت	-10.1348
▁موضوعات	-10.1356
یرت	-10.1361
▁شناور	-10.1376
▁رویداد	-10.1405
تنش	-10.145
▁۵۵	-10.1454
▁صادقی	-10.1455
▁کرام	-10.1473
قب	-10.1476
وه	-10.1479
آمریکا	-10.1484
یفه	-10.149
سم	-10.1494
▁ناصر	-10.1496
سخنگوی	-10.1502
استفاده	-10.1502
▁کت	-10.1503
▁۱۳۷	-10.1512
▁توجهی	-10.1516
اش	-10.1544
رت	-10.1544
هالی	-10.155
▁کا	-10.1568
▁هل	-10.157
▁افشا	-10.1584
▁سم	-10.1592
▁شاخ	-10.1623
▁نقدی	-10.1625
▁خلو	-10.1625
▁فیلمساز	-10.1626
▁گردن	-10.1628
▁بنگلادش	-10.1628
▁غربالگری	-10.1628
▁مرخص	-10.1628
▁نتانیاهو	-10.1628
▁ولسوال	-10.1628
▁انقراض	-10.1628
▁نکند	-10.1628
▁فردوسی	-10.1629
▁بنیانگذار	-10.1629
▁تلخ	-10.1629
▁زرد	-10.1629
▁یمانی	-10.163
▁راهبرد	-10.1633
▁علامت	-10.1634
▁قبا	-10.1635
▁همسایه	-10.1636
▁ابهام	-10.1636
▁شریک	-10.1636
▁صادرکنندگان	-10.1638
▁فولاد	-10.1641
▁منچستریونایتد	-10.1642
▁آهنگساز	-10.1645
▁سناتور	-10.1647
▁صورتی	-10.1647
▁مخفی	-10.1648
▁یاری	-10.1649
▁ناجی	-10.165
▁صلاح	-10.165
▁ربط	-10.1654
خته	-10.1657
▁لحظات	-10.166
▁محور	-10.1673
▁راس	-10.1684
▁خواندن	-10.169
▁جنبه	-10.1692
▁آوردند	-10.1702
▁بروند	-10.171
▁دانستند	-10.1713
▁بران	-10.1721
▁۷۳	-10.1726
▁زک	-10.1732
▁جوانی	-10.1736
ریم	-10.1752
▁مون	-10.1753
نواک	-10.1775
▁۷۷	-10.1784
لینی	-10.1789
▁مند	-10.179
تغال	-10.1793
▁تاک	-10.1797
جان	-10.1819
▁مرس	-10.1821
رق	-10.1823
▁ری	-10.1826
▁شاهزاد	-10.183
جه	-10.1833
گروه	-10.184
▁خال	-10.184
▁باخته	-10.1849
▁کنگ	-10.1853
▁معمولی	-10.1867
▁اقلیمی	-10.1868
پوری	-10.1885
▁اگر	-10.1892
ضعیف	-10.19
▁گمانه	-10.1903
بری	-10.1907
▁پانزده	-10.1935
▁سران	-10.1959
▁لاش	-10.197
▁رقص	-10.1971
▁گیاه	-10.1986
▁جن	-10.1986
▁موشکی	-10.1986
▁سفارش	-10.2007
جونز	-10.2009
▁نای	-10.2012
▁فلز	-10.2016
▁متاسف	-10.202
▁تخلف	-10.2021
ذ	-10.2025
▁شطرنج	-10.2028
▁پرافتخار	-10.2028
▁کهکشان	-10.2028
▁فدرال	-10.2028
▁تایلند	-10.2028
▁سئوال	-10.2029
▁ثامن	-10.2029
▁کامیون	-10.2029
▁برانگیخت	-10.203
▁ارتفاع	-10.2031
▁کربن	-10.2031
▁مصدومیت	-10.2032
▁خاموش	-10.2033
▁بشار	-10.2035
▁تاب	-10.2036
▁جهاد	-10.2036
▁نادرست	-10.2036
▁دموکرات	-10.2036
▁دادسرا	-10.2037
▁ببرد	-10.2037
عوض	-10.2038
تقابل	-10.2039
▁مبادلات	-10.204
▁شدم	-10.2042
▁منوچ	-10.2042
▁نجف	-10.2044
▁ترسیم	-10.2045
▁آنقدر	-10.2049
حص	-10.205
▁لیدز	-10.2057
▁مطالعات	-10.2059
▁عموم	-10.206
▁کهن	-10.2063
▁هنگ	-10.2066
▁موجودات	-10.2071
▁پوشاند	-10.2072
▁محتوای	-10.2073
▁مگا	-10.2084
پل	-10.2101
یف	-10.2106
دوین	-10.2127
▁ثروتمند	-10.213
▁مادری	-10.2132
▁مبادل	-10.2135
▁۱۹۹	-10.2137
▁خودران	-10.2146
▁گور	-10.2148
▁زیستی	-10.2152
▁کش	-10.2156
▁سون	-10.2164
▁خبرهای	-10.2167
▁پستان	-10.2168
▁دهان	-10.2173
تکلیف	-10.2192
▁ص	-10.2196
▁هجومی	-10.2221
▁موسوی	-10.2283
عبدال	-10.2303
نو	-10.2308
خالص	-10.2313
عباس	-10.2317
طبق	-10.2319
احمد	-10.2321
▁قص	-10.233
برخ	-10.233
▁۵۶	-10.2331
ولی	-10.2337
فه	-10.2339
▁عبوری	-10.2351
▁داوطلب	-10.2354
▁شی	-10.2361
▁رحم	-10.2366
▁کشی	-10.2381
سیا	-10.2384
▁احت	-10.2412
▁شخص	-10.2437
▁فتح	-10.2438
▁نقد	-10.2441
▁مرزهای	-10.2441
▁اپرا	-10.2442
▁تدابیر	-10.2445
▁کانسپت	-10.2445
▁نساجی	-10.2445
▁والیبال	-10.2445
▁پارالمپیک	-10.2445
▁اکسیژن	-10.2445
▁پیاده	-10.2445
▁کریکت	-10.2445
▁دانمارک	-10.2445
▁واژه	-10.2446
▁انبوه	-10.2446
▁سراغ	-10.2446
▁بدانیم	-10.2446
▁آشوری	-10.2447
▁مقیم	-10.2448
▁بوندس	-10.2448
▁قطب	-10.2449
▁طنز	-10.2449
▁چراغ	-10.245
▁جمال	-10.245
▁صبر	-10.2452
▁لق	-10.246
▁سهامداران	-10.246
▁آموزان	-10.246
▁خند	-10.2461
▁گریز	-10.2462
▁تسلیت	-10.2466
▁اما	-10.247
▁محاکمه	-10.2472
▁کاظم	-10.2475
▁فقیر	-10.248
لوله	-10.2482
▁دستیابی	-10.2493
▁جدال	-10.2494
▁پراکند	-10.2497
▁فراگیر	-10.2505
▁تابلوی	-10.251
▁تروریستی	-10.2511
▁راک	-10.2522
▁اردو	-10.2523
▁۲۵۰	-10.2525
▁پرسش	-10.2525
▁استخر	-10.2531
▁داشتم	-10.2534
یچ	-10.2543
برایتون	-10.255
▁غ	-10.2551
▁اوکراینی	-10.2552
▁فراری	-10.2554
بیش	-10.2563
▁وسی	-10.2563
بخش	-10.2565
ارژ	-10.2566
▁دارم	-10.2568
▁تبلیغاتی	-10.2571
▁گیل	-10.2574
▁اسد	-10.2579
▁فرش	-10.259
▁وقفه	-10.2593
▁زانو	-10.2595
▁ویلا	-10.2615
▁بستن	-10.2618
وریس	-10.263
▁کشت	-10.2631
▁آزمایی	-10.2643
▁هاوس	-10.2647
▁دف	-10.2651
باتری	-10.2657
▁کاست	-10.2682
▁کاسته	-10.2689
▁جعل	-10.2692
▁تعل	-10.2693
▁رویای	-10.2701
ناوند	-10.2713
▁۵۷	-10.2739
۳۰	-10.274
لیورپول	-10.2753
استقلال	-10.2753
کدام	-10.2754
▁رصد	-10.2754
بعد	-10.2757
امسال	-10.276
پرو	-10.2762
خارجه	-10.2793
▁روسا	-10.2807
نام	-10.2822
آوری	-10.2826
▁روستای	-10.2846
▁۱۲۰	-10.285
▁سل	-10.2853
اع	-10.2863
▁بینند	-10.2871
▁کوچکی	-10.2871
▁بازنشست	-10.2872
راه	-10.2872
▁قض	-10.2874
التهاب	-10.2875
▁عصب	-10.2876
▁امتحان	-10.288
▁تحمیل	-10.288
▁اصرار	-10.288
▁مدیترانه	-10.288
▁اطلس	-10.288
▁ناامن	-10.288
▁بکشد	-10.288
▁تاکتیک	-10.288
صوفی	-10.288
▁غریب	-10.2881
▁مسلمان	-10.2881
▁۲۰۲۲	-10.2882
▁هامر	-10.2883
▁رمزارزها	-10.2884
▁قرص	-10.2885
▁ثروت	-10.2885
▁کارگزار	-10.2887
▁۲۰۰۳	-10.2888
▁مرگبار	-10.289
▁خرسند	-10.2892
▁شاگردان	-10.2892
▁افتتاح	-10.2895
▁کمپین	-10.2895
▁نسب	-10.2898
▁ایلنا	-10.29
▁کیهان	-10.2903
▁خرج	-10.2904
ناز	-10.2906
▁افکار	-10.2907
▁اصلاحات	-10.2918
وفر	-10.2919
▁وجه	-10.292
▁انتقادها	-10.2943
یحی	-10.2947
▁پیرو	-10.2947
▁بازماند	-10.2949
کی	-10.2955
واک	-10.2956
۹۴	-10.2957
▁پیکر	-10.2958
▁تقویم	-10.2961
▁بوش	-10.2964
▁شهردار	-10.2974
▁مبنای	-10.2974
▁آوردن	-10.298
▁اقلی	-10.2994
▁نسبتا	-10.2994
▁تاز	-10.3022
▁جین	-10.3034
▁باران	-10.3037
▁مای	-10.3041
▁اسپی	-10.3045
ژه	-10.3064
▁استعفای	-10.3069
وت	-10.3074
▁بومی	-10.3074
▁رسانی	-10.3077
▁سین	-10.3084
نز	-10.31
▁شریفی	-10.3107
شار	-10.311
▁۵۲	-10.3117
▁ارا	-10.3157
▁زیبا	-10.3165
خواست	-10.3167
▁یاران	-10.3183
▁ناراحت	-10.319
دانشمندان	-10.3207
عنوان	-10.3208
رقابت	-10.3209
ظهر	-10.3213
▁گفتگوی	-10.3218
▁۸۰۰	-10.3225
▁شهری	-10.3226
▁باستانی	-10.3228
شده	-10.3234
وان	-10.3251
▁بریت	-10.3254
▁اصطلاح	-10.327
▁مامور	-10.3289
▁یازدهم	-10.3291
یون	-10.3291
▁مستق	-10.3307
▁۴۶	-10.3317
▁درخت	-10.3319
▁مخصوص	-10.3325
▁استخدام	-10.3334
▁بلاروس	-10.3334
▁ثمر	-10.3334
▁خانوادگی	-10.3334
▁دژپسند	-10.3334
▁منتخب	-10.3334
▁موظف	-10.3334
▁نوبخت	-10.3334
▁هیأت	-10.3334
▁استراحت	-10.3334
▁صنف	-10.3334
▁محوطه	-10.3334
▁فلوید	-10.3334
▁مقصر	-10.3334
▁دروغ	-10.3334
▁بامداد	-10.3334
▁ناحیه	-10.3334
▁لهستان	-10.3334
▁دهقان	-10.3334
▁لاریجانی	-10.3334
▁همسان	-10.3335
▁اپلیکیشن	-10.3336
▁پشتیبان	-10.3336
▁ترانزیت	-10.3336
▁بازگردد	-10.3336
▁خلاقیت	-10.3337
▁سرو	-10.3337
▁مفهوم	-10.3338
▁بوشهر	-10.3338
▁ابعاد	-10.3338
▁کارلوس	-10.3338
▁استراتژیک	-10.3339
ژانس	-10.3339
▁ویلیام	-10.3343
▁بیروت	-10.3344
▁مارتین	-10.3344
▁رابرت	-10.3344
▁سید	-10.3345
▁فتاح	-10.335
▁محاسبات	-10.3352
▁کشند	-10.3355
▁تفاهم	-10.3356
▁جنایت	-10.3356
▁روبرت	-10.3359
▁انصاریان	-10.336
▁علاقمندان	-10.3361
▁نوید	-10.3362
▁برلین	-10.3362
▁سوئیسی	-10.3376
▁روستا	-10.3381
▁ژنتیک	-10.3383
▁وحید	-10.3386
▁نس	-10.3389
نوی	-10.339
▁سفی	-10.3394
▁اکرا	-10.3396
▁خریداران	-10.3398
جیره	-10.3401
▁اصول	-10.3404
▁لیس	-10.3405
▁کاشی	-10.3407
▁رساندن	-10.3414
▁خار	-10.3421
▁روسی	-10.3421
▁بدی	-10.3427
▁نی	-10.3427
▁گروگانگیر	-10.343
▁بوک	-10.3434
بویایی	-10.3436
▁۷۲	-10.3444
▁ماهها	-10.3445
▁سگ	-10.3448
▁فاز	-10.3472
▁مادران	-10.3488
▁ل	-10.3489
▁گنج	-10.3494
▁نورد	-10.3502
▁دوحه	-10.3505
مرکز	-10.351
ونگ	-10.3518
لحق	-10.3519
▁موکو	-10.3531
اسل	-10.3538
کاب	-10.3553
▁دم	-10.3553
لور	-10.3557
داوم	-10.3566
▁ساختن	-10.358
▁آرا	-10.3584
تور	-10.3593
▁شمسی	-10.3597
▁گانه	-10.3607
▁حا	-10.3613
▁جاست	-10.3617
▁ایام	-10.3628
▁انیس	-10.3631
حتی	-10.3641
▁اندیش	-10.3659
▁بدل	-10.3661
لر	-10.3671
شاخص	-10.3684
پرس	-10.3685
فیلم	-10.3686
▁مهل	-10.3691
▁آیین	-10.3694
آنها	-10.3696
گه	-10.3701
شدت	-10.3704
پر	-10.3712
▁سیل	-10.3739
▁مهاجر	-10.3744
▁داروهای	-10.3747
▁۹۰۰	-10.3747
▁۷۴	-10.376
▁نیا	-10.376
▁کاس	-10.3762
▁فضانورد	-10.3771
▁لا	-10.3782
▁زای	-10.3791
▁جالب	-10.3796
▁پیست	-10.38
▁رنج	-10.3809
▁انفرادی	-10.381
▁تأثیر	-10.381
▁وحدت	-10.381
▁نکنند	-10.381
▁بروکسل	-10.3811
▁سکونت	-10.3811
▁ارمنستان	-10.3811
▁ناچار	-10.3811
▁بختیار	-10.3812
▁قطار	-10.3812
▁مختل	-10.3812
▁قریب	-10.3812
▁بگویم	-10.3812
▁تقدی	-10.3812
▁مواضع	-10.3813
▁متعهد	-10.3813
▁ایمان	-10.3813
▁مهرماه	-10.3814
▁اکتشاف	-10.3814
▁۱۹۸۶	-10.3814
▁متقاضی	-10.3814
▁موازی	-10.3815
▁منزل	-10.3815
▁حجاب	-10.3815
▁رولز	-10.3816
▁تیرماه	-10.3816
فیلد	-10.3819
▁یکسان	-10.382
▁زنجان	-10.3821
▁طرز	-10.3822
▁کشاند	-10.3826
▁خانوارهای	-10.3826
▁رنو	-10.3829
تاسف	-10.383
▁بورل	-10.3834
تلاف	-10.3838
▁پوش	-10.3838
▁ژوز	-10.3838
عداد	-10.384
▁نمکی	-10.3843
مرث	-10.3844
▁آورند	-10.3844
▁فیلتر	-10.3845
▁بوی	-10.3846
▁نکردن	-10.3848
▁وب	-10.3858
▁وزارتخانه	-10.3859
▁توضیحات	-10.3859
▁کتی	-10.386
▁استودیو	-10.386
▁کیفر	-10.3864
▁سربازان	-10.3865
▁گلف	-10.387
▁استادیوم	-10.3872
▁عبدی	-10.3887
▁تروی	-10.3891
▁برکناری	-10.3892
▁یور	-10.3894
▁مح	-10.3896
▁عقید	-10.3914
▁مرزها	-10.3915
▁پروازها	-10.3922
غان	-10.3928
▁ذخا	-10.3929
ران	-10.3929
▁نامدار	-10.3931
شیر	-10.3934
دگی	-10.3934
▁تون	-10.3939
▁قش	-10.3939
▁رادیویی	-10.395
▁همانند	-10.395
▁نامزدها	-10.3953
دوف	-10.3954
▁ناب	-10.3977
▁زور	-10.3979
▁حریفان	-10.3994
ایع	-10.4008
چین	-10.4019
▁دستگیری	-10.4021
▁صالحی	-10.4022
▁نزد	-10.404
▁حیاتی	-10.4047
▁۳۶	-10.4055
غال	-10.4056
▁اوبر	-10.4056
▁کاد	-10.4075
خیم	-10.4077
▁صحن	-10.4081
▁اوب	-10.4084
▁شور	-10.4101
▁دوام	-10.4125
▁صعودی	-10.4139
▁شیری	-10.4155
▁سپ	-10.4157
بل	-10.416
▁برادرش	-10.417
بچه	-10.4175
خت	-10.4176
معاون	-10.4184
محمود	-10.4184
▁توانم	-10.4187
علیرضا	-10.4189
▁جلالی	-10.4194
ویژه	-10.4194
دادگاه	-10.4199
▁حاکم	-10.4201
سن	-10.4219
▁ات	-10.4227
▁معترض	-10.4243
روج	-10.4244
▁سکت	-10.4248
▁رسم	-10.4261
▁ماری	-10.4261
روی	-10.4262
▁ناو	-10.4279
▁اختلا	-10.4285
▁حداکثری	-10.4289
▁صح	-10.4291
▁اظهارنظر	-10.4293
▁خوشحال	-10.4293
▁اخطار	-10.4297
حقق	-10.4299
▁قم	-10.4303
▁روستایی	-10.4307
بون	-10.4309
▁تعقیب	-10.431
▁مایکروسافت	-10.431
▁تعدیل	-10.4311
▁غیاب	-10.4311
▁نشیب	-10.4311
▁تماشاچی	-10.4311
اج	-10.4312
زیگ	-10.4312
▁وصل	-10.4313
▁فجر	-10.4313
▁وا	-10.4314
▁دانشکد	-10.4314
▁آشفت	-10.4315
▁ارزشمند	-10.4315
▁غرق	-10.4316
▁الحسن	-10.4316
▁همرسان	-10.4318
▁دپ	-10.4319
▁بلومبرگ	-10.4321
▁اخلاق	-10.4321
▁پیمانکار	-10.4323
وطن	-10.4325
▁تخلفات	-10.4325
▁دیدگاه	-10.4326
▁مداوم	-10.4327
▁شایعات	-10.4327
▁مالاریا	-10.4327
▁منتف	-10.4328
▁زیستگاه	-10.4329
آبادی	-10.4329
▁همیلتون	-10.4334
انصراف	-10.4334
▁گوگل	-10.4335
▁لیگا	-10.4336
▁۱۹۷	-10.4336
▁تعجب	-10.4341
▁یکصد	-10.4341
▁کاربرد	-10.4342
▁اندازد	-10.4342
▁همینطور	-10.4344
▁پایدار	-10.4345
▁طرفدار	-10.4346
▁رانندگی	-10.4346
▁رویس	-10.4347
▁خشکسالی	-10.4347
▁دود	-10.4348
▁سرنشینان	-10.4348
وریا	-10.4352
▁خوا	-10.4354
▁درختان	-10.4357
ناف	-10.4358
▁ازای	-10.4359
نزا	-10.4362
▁معمار	-10.4363
▁نیش	-10.4365
▁سازد	-10.4367
▁فرانک	-10.4369
▁آبادان	-10.437
▁صفحات	-10.438
▁انتقادهای	-10.4386
▁قوس	-10.4388
▁شون	-10.4389
▁کوچکتر	-10.4389
▁افتد	-10.4393
▁بهرام	-10.4395
▁ضربات	-10.4396
▁ترور	-10.4401
▁کلام	-10.4406
▁هواپیماهای	-10.4408
عه	-10.4411
▁صاحبان	-10.4412
▁استرالیایی	-10.4413
▁مصطف	-10.4415
▁کشم	-10.4419
▁آمدند	-10.4428
▁چیزهای	-10.4431
▁واسط	-10.4435
▁قربانی	-10.444
▁قراردادش	-10.4463
فن	-10.4478
▁مری	-10.4479
▁شدیدتر	-10.4508
▁جف	-10.4508
▁خودروها	-10.4515
زی	-10.4522
۱۵	-10.4526
▁آبادی	-10.4532
کننده	-10.454
گل	-10.4542
▁جهانگیری	-10.4556
▁سرا	-10.4558
امیر	-10.4561
▁سامان	-10.4562
▁مسیحی	-10.4613
ایح	-10.4632
بانی	-10.464
لقی	-10.4648
▁اوین	-10.4662
▁۹۱	-10.4665
کوبی	-10.4674
▁دخترش	-10.4678
ساب	-10.468
▁علیر	-10.4684
منستان	-10.4698
▁راستی	-10.4699
واسط	-10.4709
▁نرسید	-10.471
آمیز	-10.471
▁بینیم	-10.4715
▁مغ	-10.4716
▁ران	-10.472
شاید	-10.4723
▁ایرلند	-10.4729
▁نوار	-10.4742
زمان	-10.4759
▁فین	-10.4771
▁آلن	-10.4779
ممکن	-10.4802
▁گوگ	-10.4803
▁استاین	-10.481
▁گار	-10.4821
▁زبا	-10.4822
پای	-10.4824
ارغ	-10.4824
▁شر	-10.4828
▁الزام	-10.4829
▁استون	-10.4829
▁مقرر	-10.4836
▁گرگ	-10.4837
▁تلگرام	-10.4837
▁لزوم	-10.4837
▁فروپاشی	-10.4837
▁گشود	-10.4837
▁تفریح	-10.4837
▁بیاورد	-10.4837
▁بیفتد	-10.4837
▁بکشند	-10.4837
▁لالیگا	-10.4837
▁خیانت	-10.4837
▁مکرر	-10.4837
▁ذکر	-10.4837
▁درآورد	-10.4837
▁بیلسا	-10.4838
▁بلوچ	-10.4838
▁اسپرت	-10.4838
▁اخلال	-10.4838
▁۱۳۹۶	-10.4838
▁همگ	-10.4838
▁بهبهان	-10.4839
▁سایبری	-10.4839
▁مبدا	-10.4839
▁کابین	-10.484
▁پورتو	-10.484
وداع	-10.484
▁پردازد	-10.484
▁ناپدید	-10.484
▁تخیل	-10.484
▁ویزا	-10.4841
نظرسنجی	-10.4843
▁حاکمیت	-10.4844
▁۲۰۳۰	-10.4844
تیکو	-10.4845
▁انگشت	-10.4848
▁حرم	-10.4849
▁ضایع	-10.4849
▁ابوال	-10.4849
▁صفرها	-10.485
▁کلود	-10.4851
▁دایناسور	-10.4851
▁نظم	-10.4855
▁غالب	-10.4859
▁گلو	-10.4862
▁شهریار	-10.4863
▁رضایت	-10.4864
▁روبروست	-10.4867
أ	-10.4871
▁۶۸	-10.4875
▁سام	-10.4876
▁کارگروه	-10.4876
▁مایل	-10.4877
▁مهاجران	-10.4884
▁دیپلمات	-10.4884
▁بقایای	-10.4885
یویا	-10.4893
تمرکز	-10.4893
▁سالمندان	-10.4894
▁ظه	-10.4905
▁بافت	-10.4905
▁کردستان	-10.4905
گیر	-10.4906
▁رنجر	-10.4909
▁ریچارد	-10.4911
▁نژادی	-10.4912
▁شنیدن	-10.4917
▁خواهر	-10.4941
▁دقت	-10.4945
▁حو	-10.495
▁گرفتار	-10.496
▁جلال	-10.4961
▁شناسند	-10.4965
▁اعضا	-10.497
▁تمرکز	-10.4976
▁۱۵۰۰	-10.4984
▁جنس	-10.4986
▁داروها	-10.4988
▁سیزدهم	-10.499
▁منطق	-10.4991
▁حکمتی	-10.4993
▁باستان	-10.5006
باز	-10.5006
▁ظهر	-10.5011
▁یافتند	-10.5012
▁پرهی	-10.5023
▁کشیدن	-10.504
▁ناآرامی	-10.5042
▁مهمان	-10.5046
▁۱۳۶	-10.5049
▁آفریقایی	-10.5051
یقه	-10.5072
▁خدا	-10.5073
▁جرد	-10.5083
▁مکانی	-10.511
اقد	-10.5112
▁انگل	-10.5117
▁کرو	-10.5123
▁رزم	-10.5126
▁دوازده	-10.5133
تب	-10.5161
شاه	-10.5161
▁برداشتن	-10.5165
کمیت	-10.5171
▁اکس	-10.5196
۱۳	-10.5196
▁میلیاردر	-10.5201
برگ	-10.5214
▁دربار	-10.5215
▁کمدی	-10.5226
نم	-10.5232
دیگر	-10.5232
صورت	-10.5239
▁بس	-10.5255
▁برگشته	-10.5259
▁۵۹	-10.5262
محققان	-10.5265
مراسم	-10.5266
زار	-10.5267
▁یکسال	-10.5276
انکن	-10.5278
غه	-10.5281
فا	-10.5283
▁آگاهی	-10.53
▁ادا	-10.5305
رداد	-10.5305
▁غر	-10.5305
▁فو	-10.5308
▁کول	-10.5311
چهار	-10.5318
▁بنیادی	-10.5324
▁شغلی	-10.5333
زن	-10.5349
▁فرج	-10.5361
▁بدخ	-10.5363
▁ربات	-10.5379
▁لبخند	-10.5391
▁الانبیا	-10.5392
▁دریابندری	-10.5392
▁کارداشیان	-10.5392
▁فلوریدا	-10.5392
▁چرنکوف	-10.5392
▁خسارات	-10.5392
خصیص	-10.5392
▁ابتکار	-10.5392
▁تغذیه	-10.5392
▁برگردد	-10.5392
▁قزاقستان	-10.5393
▁خرابکار	-10.5393
▁ببیند	-10.5393
▁مجاهد	-10.5393
▁مرجع	-10.5393
▁داغستان	-10.5393
▁شوهر	-10.5393
▁کلینیک	-10.5393
▁تعامل	-10.5394
▁ناامید	-10.5394
▁بگیرید	-10.5394
▁۱۳۹۵	-10.5394
▁آسمایی	-10.5394
▁سرویس	-10.5395
▁توریست	-10.5395
▁سردبیر	-10.5395
▁چوب	-10.5395
▁شوماخر	-10.5395
▁عنکبوت	-10.5397
▁مزرعه	-10.5397
▁استرازنکا	-10.5397
▁رتکلیف	-10.5398
▁رمزارز	-10.5398
▁معلول	-10.5398
▁بانکها	-10.5399
▁مخدر	-10.5399
▁رسول	-10.54
▁یادبود	-10.5402
▁تاکسی	-10.5402
▁دستاوردهای	-10.5403
▁دعوا	-10.5404
▁مصون	-10.5404
▁ستایش	-10.5404
▁پلاک	-10.5404
▁صدم	-10.5406
کینگ	-10.5406
▁ور	-10.5408
▁سکوت	-10.5413
▁۲۰۰۴	-10.5413
▁حداد	-10.5414
▁محبوبیت	-10.5414
▁شوید	-10.5414
▁۳۵۰	-10.5416
تراشه	-10.5417
▁بجا	-10.5418
▁پیرلو	-10.5419
▁قند	-10.5419
▁دشمنان	-10.542
▁۴۷	-10.5423
▁پیشرفته	-10.5427
▁الیز	-10.5432
صخره	-10.5436
▁گردند	-10.5436
▁کاردن	-10.5441
▁ندید	-10.5448
▁معاین	-10.545
▁دهک	-10.5461
▁نوزدهم	-10.5463
▁اشیا	-10.5464
▁صادرکنند	-10.5469
▁آفرین	-10.5491
▁مطهری	-10.5507
▁انتقادات	-10.5516
لوت	-10.5523
▁ریاض	-10.5529
▁ساک	-10.5532
▁مغاز	-10.5534
▁نمادهای	-10.5544
▁پیشرو	-10.5551
▁منصور	-10.5558
امت	-10.5559
▁بلوک	-10.5579
▁جم	-10.5579
زا	-10.5589
اف	-10.5596
▁گرایان	-10.561
▁گرمای	-10.5619
عکس	-10.5626
لت	-10.5634
▁بل	-10.5638
الله	-10.5659
▁گم	-10.5677
▁کارگردانان	-10.5677
▁شهیدی	-10.5688
▁نداد	-10.5689
▁پسرش	-10.5694
▁وار	-10.5696
▁همای	-10.573
عارف	-10.5735
▁بشری	-10.5735
▁مرغدار	-10.5748
▁الکس	-10.577
▁آمریکاست	-10.578
نصف	-10.5787
▁پلی	-10.5789
▁گلزنی	-10.5794
وکی	-10.5799
▁ریس	-10.58
▁شانه	-10.5801
▁شرمن	-10.5823
شنگ	-10.5831
مرگ	-10.5851
جانب	-10.5852
حمید	-10.5853
پژوهشگران	-10.5853
سیتی	-10.5854
▁۱۳۸	-10.5855
▁بازارها	-10.586
هدف	-10.5862
خمین	-10.589
موند	-10.5899
جانی	-10.5901
▁درس	-10.5908
▁عکسی	-10.5915
▁هوادار	-10.5919
گذاری	-10.5922
درصد	-10.5923
▁انوش	-10.5939
▁سرنشین	-10.5947
▁بم	-10.595
تقاد	-10.5951
▁افکاری	-10.5955
لاتین	-10.596
▁بیل	-10.5962
▁دردسر	-10.5968
▁مأمور	-10.5974
▁سحر	-10.5975
▁قطبی	-10.5979
▁شا	-10.598
▁بفروشد	-10.5981
▁پهپاد	-10.5981
▁پرطرفدار	-10.5981
▁ندارم	-10.5981
▁سیگار	-10.5981
▁تعزیری	-10.5981
▁مشکوک	-10.5981
▁تتلو	-10.5981
▁زیارت	-10.5981
▁خزر	-10.5981
▁سوگوار	-10.5981
▁آموزگار	-10.5981
▁مظاهری	-10.5981
▁خیال	-10.5981
▁مطلوب	-10.5981
▁بپردازد	-10.5981
▁آوازخوان	-10.5982
▁خوشنام	-10.5982
ارتاک	-10.5982
▁معدود	-10.5983
▁پراید	-10.5983
▁۱۹۹۰	-10.5983
▁تندرو	-10.5983
▁ببینند	-10.5983
▁بگوییم	-10.5984
▁مقدم	-10.5984
▁سرتیپ	-10.5984
▁مقطع	-10.5985
▁اعتیاد	-10.5985
▁لم	-10.5987
▁استراتژی	-10.5987
▁بزنند	-10.5988
▁کشتار	-10.5988
▁تحقیقی	-10.5989
▁شیلی	-10.5989
▁زنگنه	-10.599
▁لحن	-10.599
▁حساسیت	-10.5992
▁تنوع	-10.5992
▁محکم	-10.5992
▁توخل	-10.5993
▁صحیح	-10.5993
فاد	-10.5994
▁الکل	-10.5994
▁شیمی	-10.5994
گاهی	-10.5997
ختم	-10.5998
شته	-10.6
▁نکات	-10.6001
▁ستارگان	-10.6005
▁سعد	-10.6007
▁تعادل	-10.6008
۴۰	-10.6009
▁آرامکو	-10.6011
▁سیاستمداران	-10.6012
▁دهید	-10.6013
▁شیع	-10.6015
▁گرسنگ	-10.6018
▁دارید	-10.602
▁کرای	-10.6021
▁خواهی	-10.6023
▁احساسات	-10.6029
▁خرند	-10.6033
▁شام	-10.604
▁تایم	-10.605
▁نداشتن	-10.6052
▁ویکتور	-10.6057
▁دهندگان	-10.6058
▁روزمر	-10.606
▁گزارشگران	-10.6067
▁بلی	-10.6077
▁هکرها	-10.6079
▁نیما	-10.6087
▁قرض	-10.6098
انس	-10.6101
▁پار	-10.6106
زانه	-10.612
▁پاهای	-10.6126
احی	-10.6127
وستهم	-10.6136
واد	-10.6141
برید	-10.6145
▁فضلی	-10.6157
▁داشتیم	-10.6158
▁گزارشها	-10.6169
اپ	-10.6169
▁تاریک	-10.6176
▁مرگش	-10.6179
▁زخم	-10.6182
▁ماریا	-10.6191
▁ادب	-10.6192
▁حاجی	-10.6197
اری	-10.6201
▁گلزن	-10.6234
▁تصمیمات	-10.6235
▁عالمی	-10.6295
▁سرگرمی	-10.6296
گن	-10.6301
▁غم	-10.6308
▁کنیا	-10.6311
▁وحشی	-10.6335
رینگ	-10.6342
▁بارداری	-10.6353
▁تورمی	-10.6359
لین	-10.6362
ریک	-10.6366
▁پارس	-10.6366
۲۰	-10.637
مت	-10.6372
▁ژو	-10.6376
▁مقا	-10.6387
▁تار	-10.6389
بیشترین	-10.6404
وزی	-10.6427
لاند	-10.6431
▁۱۹۳	-10.6444
▁خودروی	-10.6449
▁مالکان	-10.645
۷۰	-10.6455
▁شل	-10.6457
تحول	-10.6463
▁ثروتمندتر	-10.6465
▁بناها	-10.6469
▁کین	-10.6474
مصطف	-10.6476
محمدجواد	-10.6478
▁تیک	-10.6478
فدرر	-10.6479
باشگاه	-10.648
تولید	-10.648
اتحاد	-10.648
دهنده	-10.6486
▁بمب	-10.6488
چرا	-10.6488
▁سیزده	-10.6489
▁آقا	-10.649
پینگ	-10.6491
تنها	-10.6493
▁کنو	-10.6499
▁تلف	-10.6499
▁استیون	-10.6501
▁برف	-10.6505
حالا	-10.6508
▁درخش	-10.6514
آخری	-10.6521
▁مرم	-10.6531
▁۵۸	-10.6532
▁برزیلی	-10.6535
مایک	-10.655
روزنامه	-10.6552
▁کلا	-10.6557
نده	-10.6558
▁۱۹۰	-10.656
▁۷۸	-10.6567
▁تعهداتش	-10.6568
▁خوانی	-10.6572
سئول	-10.6573
خواهید	-10.6585
▁کما	-10.6586
▁معل	-10.6588
صف	-10.6592
▁ارگ	-10.6603
▁نوازند	-10.6604
▁اعتراف	-10.6606
▁تحقیر	-10.6606
▁قائدی	-10.6606
▁مکتوب	-10.6606
▁اشتراک	-10.6606
▁تضمین	-10.6606
▁ببینیم	-10.6606
▁جاشوا	-10.6606
▁کالبد	-10.6606
▁شباهت	-10.6606
▁پیراهن	-10.6606
▁بفتا	-10.6606
▁شاهکار	-10.6606
▁مفید	-10.6606
▁ورشکست	-10.6606
▁فلج	-10.6606
▁ارکستر	-10.6606
▁تبادل	-10.6606
▁رفاه	-10.6606
▁نزول	-10.6606
▁منفجر	-10.6606
▁ماندگار	-10.6606
▁متاثر	-10.6606
▁تروریسم	-10.6606
▁زیرساخت	-10.6606
▁مصلحت	-10.6607
▁کولمن	-10.6607
▁مداخل	-10.6607
▁توفان	-10.6607
▁مسایل	-10.6607
▁مسافت	-10.6608
▁اتکا	-10.6608
▁فسیل	-10.6608
▁متنوع	-10.6608
▁طارمی	-10.6609
▁ویرجی	-10.6609
▁بگیریم	-10.6609
▁۱۹۹۸	-10.661
▁ناتوان	-10.661
▁توجیه	-10.661
سیویر	-10.661
▁لامبورگینی	-10.661
▁کریسمس	-10.661
▁سالیوان	-10.661
▁پایبند	-10.6611
▁برآمد	-10.6611
▁مرتب	-10.6612
▁فرایند	-10.6612
▁اعطا	-10.6613
▁تعبیر	-10.6615
وکسین	-10.6616
▁تسهیلات	-10.6618
▁عقرب	-10.6619
▁بوکسور	-10.6619
▁مرتضی	-10.6619
ناد	-10.6619
اداره	-10.6622
▁قاب	-10.6623
▁فیس	-10.6624
▁گرای	-10.6625
▁حباب	-10.6627
▁بنکسی	-10.663
▁ودیعه	-10.6631
▁قاعد	-10.6636
▁دهلی	-10.6636
▁داریوش	-10.6636
▁خرس	-10.664
▁گرایش	-10.6641
▁گرمایش	-10.6642
▁لیور	-10.6643
▁ایراد	-10.6643
▁فلسفه	-10.6648
▁برنز	-10.6655
گیل	-10.6657
▁عطرساز	-10.6658
▁کوهن	-10.6665
▁ریل	-10.6668
▁روال	-10.6672
▁مستقیما	-10.6672
▁گیاهان	-10.6673
▁اتل	-10.6674
▁بزرگتر	-10.6679
▁جانور	-10.668
▁گذارند	-10.6684
ادات	-10.6687
شد	-10.6701
▁پاتر	-10.671
▁جبه	-10.6714
وهان	-10.6715
رشد	-10.6715
▁تند	-10.6715
▁نماند	-10.6718
پارد	-10.672
هدیه	-10.6725
۹۱	-10.6726
ایدو	-10.673
▁نرفت	-10.6735
▁نیازها	-10.6743
▁قطعات	-10.6746
▁سلطانی	-10.6748
▁پناهندگ	-10.6749
نیا	-10.6761
فلات	-10.6764
▁اح	-10.6765
▁نوجوانان	-10.6771
هاب	-10.6779
▁وزرا	-10.6781
▁یکبار	-10.6783
▁ذی	-10.6785
▁ناشنا	-10.6786
▁مهاجمان	-10.6795
▁کلاهبردار	-10.6805
▁پرتر	-10.6808
▁تحرک	-10.6819
▁بدین	-10.6825
▁صاف	-10.6845
سفر	-10.6846
خاطر	-10.6851
عشی	-10.6877
▁شاعران	-10.6886
گفت	-10.6891
▁فال	-10.6899
▁محدودیتها	-10.6919
وپن	-10.6923
بهم	-10.6932
▁۶۲	-10.6974
▁کامپیوتری	-10.6977
▁قومی	-10.6987
▁شاپ	-10.6998
▁پرت	-10.7016
▁بها	-10.7016
▁کمربند	-10.702
▁ردیاب	-10.7036
▁معیار	-10.7037
▁ملا	-10.7043
▁مال	-10.7044
▁شناسان	-10.7062
▁بدنی	-10.7064
▁انتها	-10.7074
▁سیر	-10.7097
▁ایا	-10.7099
▁حدی	-10.71
▁ایر	-10.7104
▁کاغذ	-10.7117
مندان	-10.7122
▁نوآور	-10.7122
پذیر	-10.7133
وجود	-10.7134
▁یوو	-10.7135
جلیل	-10.7139
▁دنی	-10.714
▁پیری	-10.7142
قرض	-10.7142
ناظر	-10.7145
بازار	-10.7147
▁نظرهای	-10.7155
▁گره	-10.7158
فعالان	-10.7159
▁۵۳	-10.7179
▁خطای	-10.7185
▁تثب	-10.7195
▁دوج	-10.72
کت	-10.7203
▁فروشند	-10.721
اژ	-10.7215
فرج	-10.7216
هز	-10.7234
شماری	-10.7248
مارک	-10.7255
▁دستاورد	-10.726
▁مصدوم	-10.7266
لوغ	-10.7266
سلیم	-10.727
▁لرز	-10.7271
▁مشکات	-10.7271
▁اسرار	-10.7272
▁رمضان	-10.7272
▁مغناطیس	-10.7272
▁ترسناک	-10.7272
▁میکروب	-10.7272
▁غفوری	-10.7272
رطوب	-10.7272
▁امیرشاهی	-10.7272
▁تکامل	-10.7272
▁یونسکو	-10.7272
▁خفیف	-10.7272
▁تلفیق	-10.7272
سپاری	-10.7273
▁مثلث	-10.7273
▁فروزش	-10.7273
▁تالار	-10.7273
▁گلمکانی	-10.7273
▁اعصاب	-10.7273
▁میرزا	-10.7273
▁جابجا	-10.7273
▁زغال	-10.7274
▁گلایه	-10.7274
▁کوهستان	-10.7274
▁آشام	-10.7274
▁بردارد	-10.7276
▁هشتگ	-10.7277
▁حواس	-10.7277
▁تلسکوپ	-10.7277
▁غیرنظامی	-10.7277
▁مدرک	-10.7278
▁غلط	-10.7279
▁سنبل	-10.7279
▁هرمز	-10.728
▁جناح	-10.728
▁درج	-10.7281
▁زهر	-10.7282
▁تبعید	-10.7283
▁بازنشستگی	-10.7284
▁لاری	-10.7285
▁تکنولوژی	-10.7286
▁شمایل	-10.7287
▁گودال	-10.7288
▁پررنگ	-10.7289
▁ابلاغی	-10.7289
▁جمشید	-10.7304
اشا	-10.7306
▁پناهجویان	-10.7306
▁فرق	-10.7309
▁عج	-10.7316
▁تحصیلات	-10.7316
▁کمپ	-10.7319
▁لخت	-10.7323
▁قبال	-10.7324
▁تان	-10.7327
▁سانتریفیوژهای	-10.7329
▁ماهشهر	-10.7331
بدترین	-10.7339
۶۳	-10.7341
▁آرزوها	-10.7342
▁مردگان	-10.7344
▁نزدیکان	-10.7344
ژان	-10.7356
تکب	-10.7357
▁شعبان	-10.7364
▁رول	-10.7365
▁هلی	-10.7371
فصل	-10.7375
▁الگوی	-10.738
▁وای	-10.7389
▁سوری	-10.7392
▁جزای	-10.7395
پوتن	-10.74
▁هجدهم	-10.7418
▁عمران	-10.7419
▁صدد	-10.7429
▁مزایای	-10.7431
▁کاوه	-10.7432
ارد	-10.7442
▁کور	-10.7443
پتون	-10.7451
▁نوشتن	-10.7456
▁مسیرهای	-10.7458
▁نق	-10.7463
▁دیدارهای	-10.7465
▁شانزدهم	-10.7466
مال	-10.7466
▁کاوا	-10.747
▁شناسد	-10.7476
▁طب	-10.7489
لاق	-10.7511
▁تش	-10.7515
کید	-10.7515
لندر	-10.7516
بالغ	-10.7516
▁افسر	-10.7517
▁ببر	-10.7525
عی	-10.7526
▁استثنا	-10.7531
▁ویدئو	-10.7532
▁خالق	-10.7554
▁شادی	-10.7565
اطی	-10.7566
ویل	-10.7566
▁کودتای	-10.7568
▁اجبار	-10.7573
▁مقر	-10.7578
▁برگ	-10.759
رسون	-10.7603
▁انجامید	-10.7617
▁فا	-10.7629
۲۳	-10.763
خبر	-10.7646
▁دا	-10.7651
راتی	-10.7654
▁۱۹۴	-10.7658
▁کالای	-10.7659
بینی	-10.7685
▁جیل	-10.7686
▁نهاده	-10.7701
▁رکوردهای	-10.7709
▁اعتراضی	-10.7714
▁یار	-10.7724
تیک	-10.7743
▁کوب	-10.7743
رالله	-10.7744
▁۱۹۶	-10.7749
قص	-10.7764
▁وقف	-10.7776
انا	-10.7783
ورا	-10.78
▁گرفتم	-10.7803
▁آنتی	-10.7807
ساسی	-10.7807
مدیر	-10.7808
گرا	-10.7808
▁منصوری	-10.7813
▁لوکا	-10.7816
▁اله	-10.7824
▁ماز	-10.7825
▁کروناست	-10.7842
اخیرا	-10.786
منابع	-10.786
علاو	-10.786
دونالد	-10.786
آژانس	-10.7861
▁پال	-10.7864
مانده	-10.7865
شیوع	-10.7865
تلاش	-10.7867
مجلس	-10.7869
▁تحریمها	-10.7876
مسئولان	-10.788
خان	-10.788
صالح	-10.7887
▁معنا	-10.7891
▁اد	-10.7906
▁ثان	-10.7921
▁ریخت	-10.7927
نشین	-10.7929
سرعت	-10.7933
سیم	-10.7933
▁نوزاد	-10.7945
▁منصو	-10.7955
ظن	-10.7963
▁پناه	-10.7968
▁ندانست	-10.797
▁تعمیر	-10.7974
▁بوئ	-10.7984
▁همجنس	-10.7986
▁آبراموویچ	-10.7987
▁آغداشلو	-10.7987
▁المستقبل	-10.7987
▁باورنکردنی	-10.7987
▁حرکات	-10.7987
▁دگرگون	-10.7987
▁رولزرویس	-10.7987
▁زریاب	-10.7987
▁ناقض	-10.7987
▁واضح	-10.7987
▁محترم	-10.7987
▁پلامر	-10.7987
▁ویتنام	-10.7987
▁وروورت	-10.7987
▁نیسان	-10.7987
ضعف	-10.7987
▁قائل	-10.7987
▁تأیید	-10.7987
▁روشنفکر	-10.7987
▁جلد	-10.7987
▁ندهد	-10.7987
▁پوتین	-10.7987
▁یخچال	-10.7987
▁سنگاپور	-10.7987
▁تایتان	-10.7987
▁محض	-10.7987
▁پنگوئن	-10.7987
▁شرکا	-10.7988
▁چرب	-10.7988
▁معالج	-10.7988
▁بندرعباس	-10.7988
▁تکنیک	-10.7988
▁سارس	-10.7989
▁احکام	-10.7989
▁احتیاط	-10.7989
▁راپینو	-10.7989
▁بوئنو	-10.7989
▁ساویز	-10.7989
▁گواهی	-10.799
▁شفا	-10.7992
▁بمانند	-10.7992
▁مرکل	-10.7992
ائیل	-10.7992
▁اثبات	-10.7992
▁آغوش	-10.7992
▁۱۹۴۰	-10.7993
▁اپرای	-10.7993
▁بدانند	-10.7993
▁گردانند	-10.7994
▁خستگی	-10.7994
▁دورت	-10.7994
▁نارس	-10.7995
▁هشتصد	-10.7997
▁عزم	-10.7998
▁۱۳۰	-10.7999
▁نامگذاری	-10.8001
▁انحصار	-10.8001
▁شاپو	-10.8002
▁نژادپرستانه	-10.8003
▁پائی	-10.8004
▁شوت	-10.8005
▁قبرس	-10.8008
▁جزییات	-10.8012
▁هالپ	-10.8016
▁مایع	-10.8016
▁ادعاهای	-10.8016
▁سیبری	-10.8017
▁آرمان	-10.802
▁لاپورتا	-10.8021
▁حضرت	-10.8022
▁اریک	-10.8024
▁تئو	-10.8031
۶۰	-10.8032
▁پستاندار	-10.8035
هنورد	-10.8038
▁احسا	-10.8038
▁جنر	-10.8039
▁پیتر	-10.804
▁انداختن	-10.8041
ژیم	-10.8044
▁چهاردهم	-10.8045
▁آوی	-10.8045
▁کانادایی	-10.805
▁رایزن	-10.8061
▁جوز	-10.8065
▁گارد	-10.8065
▁دارا	-10.8067
▁شوخی	-10.807
▁تابعیت	-10.8072
کیو	-10.8072
▁برجا	-10.8072
▁دنیاست	-10.8076
▁۸۲	-10.8077
رهای	-10.808
▁باختند	-10.8085
عان	-10.8085
▁گلوب	-10.8088
▁والدین	-10.809
سلسل	-10.8096
▁برایم	-10.81
▁خواندند	-10.8103
▁فیلمبردار	-10.8106
▁لیست	-10.8112
▁پاد	-10.8117
نک	-10.8124
کرد	-10.8126
▁اعما	-10.8144
▁رخت	-10.8159
▁موزی	-10.8159
وخامت	-10.8162
▁خم	-10.8164
▁کلان	-10.8169
▁آثارش	-10.817
پا	-10.818
▁تام	-10.8186
▁تابو	-10.8186
یژن	-10.8189
ریت	-10.819
▁نویی	-10.8209
سلر	-10.8215
ناشناس	-10.8215
جل	-10.8215
▁کاریر	-10.8225
▁استرس	-10.8232
▁۶۱	-10.8239
▁بارور	-10.824
▁مصاد	-10.8243
▁۱۳۴	-10.8249
▁اسکو	-10.826
بن	-10.8275
خورده	-10.8276
▁کامپیوتر	-10.8279
رات	-10.8288
▁گردشگر	-10.8294
▁بانو	-10.8301
▁رز	-10.8327
▁فرض	-10.8328
▁رش	-10.8331
ریس	-10.8332
شوه	-10.8333
▁شمس	-10.8333
آمار	-10.8335
بست	-10.8374
▁فردین	-10.8379
کره	-10.8379
سام	-10.8388
▁په	-10.8398
▁ماس	-10.8408
افت	-10.8446
▁اکبری	-10.8474
اذب	-10.8479
▁نخ	-10.8488
▁پژو	-10.8488
▁یکم	-10.8489
▁شع	-10.8497
▁ذهنی	-10.8504
▁تاریکی	-10.8514
فون	-10.8525
▁چشمان	-10.8525
اندن	-10.8527
▁لوو	-10.8527
سکن	-10.8556
شنا	-10.8557
▁۴۱	-10.8581
گذشت	-10.8584
▁بله	-10.8587
▁داوی	-10.8591
▁سطو	-10.8594
ابلو	-10.8602
▁گذراندن	-10.8606
مپ	-10.8608
کسر	-10.8608
سابقه	-10.8608
وب	-10.8617
رشاد	-10.8619
▁میز	-10.862
آفرین	-10.8627
آنتونی	-10.8628
▁آس	-10.8633
زده	-10.8634
▁پریش	-10.8642
یسی	-10.8657
قدس	-10.8663
یع	-10.8664
هکرها	-10.8678
▁۷۶	-10.8683
▁واحدها	-10.8685
▁پیر	-10.8695
▁گازها	-10.87
▁همتای	-10.8708
▁عرف	-10.8715
▁مست	-10.8726
▁سوئ	-10.8735
▁سانتریفیوژ	-10.8737
▁رخداد	-10.8744
▁مخلو	-10.8749
▁عضلا	-10.8754
مکعب	-10.8755
▁آتالانتا	-10.8756
▁اتیوپی	-10.8756
▁خنثی	-10.8756
▁ربیعی	-10.8756
▁وحشتناک	-10.8756
▁پوچتینو	-10.8756
▁کامبوج	-10.8756
▁اپیدمی	-10.8756
▁نامناسب	-10.8756
▁تفسیر	-10.8756
▁ترافیک	-10.8756
▁مسموم	-10.8756
▁امتداد	-10.8756
▁مونتاژ	-10.8756
▁آسوشیتد	-10.8756
▁نعمت	-10.8756
▁متغیر	-10.8756
▁بازنگری	-10.8756
▁تورنتو	-10.8756
▁نیجر	-10.8756
▁بوزمن	-10.8756
▁هواشناسی	-10.8756
▁زودهنگام	-10.8757
▁ونیز	-10.8757
▁ریورا	-10.8757
▁آرشیو	-10.8758
▁مولوی	-10.8758
▁حسرت	-10.8758
▁دبیرستان	-10.8759
▁دماوند	-10.8759
▁ضدحمل	-10.8759
▁پیشکسوت	-10.8761
▁امواج	-10.8762
▁فخر	-10.8762
▁صراحت	-10.8762
▁ماشه	-10.8762
دترا	-10.8763
▁جمج	-10.8763
▁فروغ	-10.8763
▁پالاس	-10.8765
▁گرامی	-10.8766
▁قفس	-10.8767
▁کولبر	-10.8767
▁مخفیانه	-10.8769
کری	-10.8769
▁ببرند	-10.8771
▁پرآ	-10.8771
▁آلزایمر	-10.8772
▁خوشبخت	-10.8772
▁ایرباس	-10.8772
▁خد	-10.8772
▁خست	-10.8774
▁جیپ	-10.8777
▁معاش	-10.8777
▁مواقع	-10.8779
▁تدری	-10.878
جیمزباند	-10.8782
▁غیبت	-10.8782
بپرس	-10.8783
طرف	-10.8786
▁گناه	-10.8787
نفتی	-10.8792
▁درآمدزا	-10.8798
▁عرفان	-10.8799
▁برعکس	-10.88
▁بالگرد	-10.8801
▁تمرینات	-10.8805
تری	-10.8806
▁بلو	-10.8807
نوردی	-10.8816
▁احمدشا	-10.8817
▁نکردند	-10.8818
▁گردش	-10.8818
▁تندی	-10.8818
▁فیلیپین	-10.8819
ازما	-10.8821
▁خلیل	-10.8822
▁فضانوردان	-10.8826
▁اپراتورها	-10.8829
▁عمو	-10.8832
زاب	-10.8832
▁مهمتری	-10.8833
▁جست	-10.8834
▁سیمون	-10.8838
▁بصر	-10.8842
▁سرمای	-10.8847
▁کیست	-10.8847
▁مهندسی	-10.8867
▁درز	-10.8869
▁رضایی	-10.8874
ویش	-10.8876
۲۴	-10.8888
گا	-10.8893
▁تهدیدهای	-10.8894
▁افتادن	-10.891
▁عقل	-10.892
▁جاهای	-10.8923
▁۹۳	-10.8929
▁پاکستانی	-10.893
▁روم	-10.8935
▁ریو	-10.8939
▁اچ	-10.8961
▁تشری	-10.8977
▁خطرات	-10.8983
داران	-10.8991
▁جنگند	-10.8992
مانع	-10.8994
▁کنی	-10.9003
▁رج	-10.9005
لوب	-10.9007
▁هفدهم	-10.9008
▁کلم	-10.9026
مور	-10.9039
▁ماهیگیر	-10.9042
▁آنهاست	-10.9042
▁پرسی	-10.9058
▁دن	-10.9069
▁مدتها	-10.9073
▁کوس	-10.9078
▁۱۹۵	-10.908
▁بازخوان	-10.9086
حریم	-10.9091
▁نروژ	-10.9119
▁بازرگان	-10.912
▁دوازدهم	-10.9137
ساله	-10.9137
▁خودس	-10.914
زیه	-10.9141
▁خوانند	-10.9144
▁همکار	-10.9144
ویک	-10.9149
▁قرمزها	-10.9149
باب	-10.9149
▁تونس	-10.9149
▁جنی	-10.9155
▁سرگرم	-10.9155
▁عالم	-10.9156
▁شهید	-10.916
گرفته	-10.9168
▁بوس	-10.917
▁پهلو	-10.917
▁۸۸	-10.9171
▁۶۴	-10.9171
▁عزیز	-10.9178
▁نابود	-10.9186
▁دوستانش	-10.9191
▁بازوی	-10.9192
▁رایان	-10.9196
▁ثا	-10.9197
▁درخشانی	-10.9198
بازی	-10.9204
۹۳	-10.9214
▁بون	-10.9215
▁۸۶	-10.9227
▁شریف	-10.9246
ادا	-10.9248
▁باردار	-10.9251
خواه	-10.9266
▁سیف	-10.9276
▁پولی	-10.9282
▁بت	-10.9282
راب	-10.9283
دخت	-10.9289
▁کاران	-10.9292
▁نیکلا	-10.9325
▁لن	-10.9347
▁شانزده	-10.9353
▁جرا	-10.9365
▁بور	-10.9367
▁نیافت	-10.9369
▁راکت	-10.9382
▁۱۷۶	-10.9384
▁استاندارد	-10.939
▁بودا	-10.9401
▁عط	-10.9406
انتخابات	-10.9437
▁ول	-10.9443
▁فرخ	-10.9445
غلام	-10.9461
کارشناسان	-10.9462
تصاویر	-10.9462
انتظار	-10.9463
(	-10.9463
خانواده	-10.9463
راجر	-10.9463
همچنین	-10.9463
داستان	-10.9464
اقتصاد	-10.9465
نمایندگان	-10.9465
مدت	-10.9483
▁متحدان	-10.9495
آمریکایی	-10.9502
۲۹	-10.9504
▁دوگان	-10.9523
▁خشن	-10.9527
▁کیا	-10.9531
یمی	-10.9538
▁دشمن	-10.9548
▁علاقمند	-10.955
برد	-10.9556
حق	-10.9556
شما	-10.9558
▁زو	-10.9558
۲۸	-10.9572
▁ژنو	-10.9575
موث	-10.9579
▁مکزیک	-10.958
جیب	-10.9581
▁بوفالو	-10.9581
▁فریب	-10.9585
▁اشکال	-10.9586
▁تخل	-10.9587
▁خاشق	-10.9589
▁مائوریتس	-10.9589
▁ایوانکوویچ	-10.9589
▁بخرد	-10.9589
▁تزئین	-10.9589
▁تصاحب	-10.9589
▁دانچیچ	-10.9589
▁رستگار	-10.9589
▁سرتاسر	-10.9589
▁شیکاگو	-10.9589
▁صداوسیما	-10.9589
▁ضوابط	-10.9589
▁فزاینده	-10.9589
▁لاجورد	-10.9589
▁مستضعفان	-10.9589
▁مظنون	-10.9589
خاذ	-10.9589
گراندپری	-10.9589
▁سانتیمتر	-10.9589
▁کالدرون	-10.9589
▁دردناک	-10.9589
▁بشردوستانه	-10.9589
▁انباشت	-10.9589
▁متمایز	-10.9589
▁هوندا	-10.9589
▁زائر	-10.9589
▁عواقب	-10.9589
▁مسوول	-10.9589
▁طناب	-10.9589
بالاحصار	-10.9589
▁حرارت	-10.9589
▁قائم	-10.959
▁گیگز	-10.959
▁سرماخورد	-10.959
▁فرسایش	-10.959
▁کرمانشاه	-10.959
▁بنتلی	-10.959
▁پیشتاز	-10.959
▁شکارچی	-10.959
▁پردرآمد	-10.9591
▁مکتب	-10.9592
▁موکل	-10.9592
▁برسند	-10.9592
▁دشت	-10.9592
▁گابریل	-10.9592
▁وودز	-10.9592
▁علایم	-10.9592
▁محفظه	-10.9593
▁اشعار	-10.9594
▁وفادار	-10.9595
▁دورانگو	-10.9595
▁ژیمناست	-10.9596
▁انستیتو	-10.9596
▁کپی	-10.9596
▁عسل	-10.9596
▁رسن	-10.9596
▁ولد	-10.96
دنی	-10.9601
جد	-10.9601
▁شستا	-10.9601
برنامه	-10.9604
ابق	-10.9606
▁ندادن	-10.9607
▁تیموری	-10.9609
حرفه	-10.9611
▁تیتر	-10.9611
▁زنگ	-10.9613
▁هیچکس	-10.9616
▁اقبال	-10.9618
▁۸۵	-10.9619
▁دندان	-10.9619
▁گردون	-10.962
▁رامش	-10.9621
▁مادی	-10.9624
▁۸۹	-10.9631
▁عزیزان	-10.9634
▁سفارشی	-10.9635
▁میهمان	-10.9635
▁گویا	-10.9637
▁موهای	-10.9637
▁نوزادان	-10.964
▁پناهجوی	-10.9645
▁متروکه	-10.9645
▁مغول	-10.9647
▁نویسد	-10.9649
▁پارکر	-10.9651
▁سارا	-10.9653
▁انداختند	-10.9653
▁پیچ	-10.9653
▁کتک	-10.9655
وازه	-10.9657
▁بورگ	-10.9657
الکس	-10.966
▁اقیانوسیه	-10.9664
▁رایج	-10.9665
▁نمایشنامه	-10.967
▁اعظم	-10.9673
▁مثل	-10.9681
▁فیروز	-10.9682
▁نگر	-10.9685
▁رفتارهای	-10.9689
▁نیو	-10.969
▁مانند	-10.9691
▁آشنای	-10.9691
▁معوقه	-10.9692
بورد	-10.9693
▁حام	-10.9696
▁اسپورت	-10.9701
▁ماست	-10.9703
▁سیم	-10.9703
یتا	-10.9712
ارت	-10.9712
▁بشریت	-10.9713
▁وکلای	-10.9717
▁آرش	-10.9725
▁دلال	-10.9727
کست	-10.9728
▁یگان	-10.973
ومپ	-10.9738
بیل	-10.9745
▁ادوارد	-10.9745
▁برگردانده	-10.975
واشی	-10.9758
▁یادمان	-10.9765
▁شار	-10.9771
ولا	-10.9778
ارمی	-10.9779
ریا	-10.9784
بند	-10.9785
▁بگیر	-10.9789
▁پذیرای	-10.979
▁وث	-10.9796
مسی	-10.9798
ازاد	-10.9801
▁ایکس	-10.981
▁آرزوی	-10.9811
▁گویی	-10.9813
▁آندری	-10.9815
▁رومانی	-10.9816
▁شه	-10.9819
▁روزبه	-10.9824
▁محا	-10.9824
▁گفتگوهای	-10.9829
▁زم	-10.9849
▁درانی	-10.9851
▁بقای	-10.9856
▁وگوی	-10.9857
خط	-10.9859
▁لوکه	-10.9865
▁خالص	-10.9866
▁روحی	-10.987
جایی	-10.9879
ظه	-10.9889
▁اشت	-10.9893
تل	-10.9893
▁بیگ	-10.9896
▁ریخته	-10.9899
▁معیارها	-10.9902
▁قراردادهای	-10.9904
▁فول	-10.9918
▁جنای	-10.9928
نگیز	-10.993
▁مگ	-10.9932
▁باقر	-10.9937
▁سرش	-10.9953
▁مسیح	-10.9981
▁دادم	-10.999
سرین	-10.9994
▁نیت	-10.9994
تشکر	-11.0004
▁فق	-11.0005
وط	-11.001
▁شجاع	-11.0014
▁شرم	-11.0014
دالله	-11.0018
▁توفیق	-11.0043
وح	-11.0046
گو	-11.0065
وپ	-11.0068
بریتی	-11.0082
▁شکستن	-11.0084
۹۹	-11.0086
▁نگفت	-11.0088
▁جوش	-11.0113
▁گوی	-11.0115
▁لال	-11.0117
یگر	-11.0122
▁خالقی	-11.0131
زادگان	-11.0134
شت	-11.0139
▁باریک	-11.0156
▁میل	-11.0157
▁کان	-11.0158
▁وظایف	-11.016
ستیک	-11.0161
▁حرا	-11.0171
▁میکل	-11.0173
▁بازیار	-11.0176
▁تصویربردار	-11.0184
▁دادخواه	-11.0194
جن	-11.0196
▁ژ	-11.0199
▁خطی	-11.0202
ير	-11.0206
▁همر	-11.0214
▁برفی	-11.0214
▁هروی	-11.0215
▁بارز	-11.0217
زه	-11.0217
▁سرب	-11.0217
▁سختگیر	-11.0221
▁هرکس	-11.0225
▁رف	-11.0231
▁وجو	-11.0249
▁کانت	-11.0253
▁فقی	-11.0256
وین	-11.0286
▁ژن	-11.0301
▁۱۹۶۰	-11.032
شتم	-11.0322
▁مجرم	-11.0323
▁رامی	-11.0337
▁ولت	-11.0338
دوست	-11.0354
▁گال	-11.0355
▁بک	-11.0363
ریچارد	-11.0369
اسماعیل	-11.037
رافائل	-11.0371
دفتر	-11.0371
اعضای	-11.0372
مذاکرات	-11.0372
مسابقات	-11.0372
پرسپولیس	-11.0372
روابط	-11.0372
موسس	-11.0372
کارگران	-11.0373
بومی	-11.0384
▁فای	-11.0385
نیروی	-11.0396
▁۱۶۰	-11.0417
▁پهن	-11.0423
▁۱۸۰	-11.0427
کرونا	-11.0429
صدایی	-11.0432
شیپ	-11.0436
▁سازه	-11.0446
▁سیاستمدار	-11.0456
▁آزمو	-11.0456
هادی	-11.046
▁خبرها	-11.0465
▁افتتاحی	-11.0467
غیب	-11.0472
▁دستیار	-11.0475
▁معاد	-11.0476
▁میلو	-11.0482
اتل	-11.0483
▁سلام	-11.0484
▁مشوق	-11.0489
▁خانوار	-11.0489
▁یخی	-11.0493
▁پالایش	-11.0494
▁آشپز	-11.0498
▁الگوریتم	-11.0498
▁اوربیتر	-11.0498
▁تخفیف	-11.0498
▁رفسنجان	-11.0498
▁زاناردی	-11.0498
▁لابراتوار	-11.0498
▁معاهد	-11.0498
▁ملاحظ	-11.0498
▁نوشیدن	-11.0498
▁پدافند	-11.0498
▁پیرامون	-11.0498
▁ژئوپلیتیک	-11.0498
▁مصداق	-11.0498
▁کرگدن	-11.0498
▁تفکیک	-11.0498
▁الاجل	-11.0498
▁وگاس	-11.0498
▁بالیوود	-11.0498
▁جاپلقی	-11.0498
▁قسط	-11.0498
▁کادرفنی	-11.0498
▁محتوی	-11.0498
▁فطر	-11.0498
▁مرضیه	-11.0498
▁اتصال	-11.0498
▁آمبول	-11.0498
▁برنگشت	-11.0499
▁سلتیک	-11.0499
▁واریز	-11.0499
▁آرتتا	-11.0499
▁عروق	-11.0499
▁محرک	-11.0499
▁ارتقا	-11.0499
ئرنیک	-11.0499
▁فشرد	-11.0499
▁کلانتری	-11.0499
▁طعم	-11.05
▁اعتنا	-11.05
▁یوگا	-11.05
▁خدایاری	-11.05
▁منظم	-11.05
▁یادگار	-11.0501
▁علوی	-11.0501
▁مکمل	-11.0501
نور	-11.0501
▁تربیت	-11.0501
▁کاندیدا	-11.0502
تناب	-11.0502
▁تصدی	-11.0503
▁متکی	-11.0503
جوبی	-11.0505
▁نوازندگان	-11.0505
▁بتهوون	-11.0505
▁تویوتا	-11.0505
▁کفتر	-11.0505
▁جونیور	-11.0505
▁کوبید	-11.0506
▁کیلوولت	-11.0506
▁۱۹۷۰	-11.0507
▁استقراض	-11.0508
▁شناگر	-11.051
▁شیفت	-11.0512
▁منکر	-11.0512
▁کلمات	-11.0513
جاد	-11.0514
▁زیدان	-11.0517
▁مبالغ	-11.0519
▁دایر	-11.0519
▁پرستاران	-11.052
▁قارچ	-11.0521
▁تهاجمی	-11.0522
▁معتمدی	-11.0522
▁حاد	-11.0523
▁نهفته	-11.0524
▁مخصوصا	-11.0524
▁بولت	-11.0525
▁گوییم	-11.0527
▁حتما	-11.0527
▁۲۰۰۶	-11.053
▁لاس	-11.053
▁رونالدینیو	-11.053
▁خراب	-11.0534
▁شعارهای	-11.0536
▁ویدیوهای	-11.0536
▁درشت	-11.0537
▁اقتصاددان	-11.0539
▁گردنبند	-11.0544
▁انگیزترین	-11.0546
▁هادی	-11.0546
▁اين	-11.0548
ژ	-11.055
▁جولیان	-11.055
▁صریح	-11.0556
▁باگ	-11.0556
▁افسران	-11.0557
▁پیشگامان	-11.0559
▁معین	-11.0564
▁آدام	-11.0565
تیو	-11.057
قات	-11.0573
▁اشتباهات	-11.0574
▁پیامک	-11.0575
ين	-11.0575
▁تورین	-11.0577
▁مشت	-11.058
▁گویم	-11.0581
ونتی	-11.0582
▁ابو	-11.0583
▁مستندساز	-11.0583
علت	-11.0591
▁سالیانه	-11.0597
▁کرج	-11.0599
سوس	-11.0603
▁مسافری	-11.0607
▁افق	-11.0608
عارض	-11.0611
پک	-11.0613
▁سپید	-11.0615
پره	-11.0619
▁نداشتم	-11.0628
▁ناک	-11.0631
▁قان	-11.0636
▁ویدئوی	-11.0643
▁گذاشتند	-11.0643
▁محسوس	-11.065
▁دیدم	-11.0651
▁نشدند	-11.0651
▁گزینش	-11.0653
▁اختیارات	-11.0658
▁گرفتیم	-11.0671
▁۵۴	-11.0671
زاک	-11.0672
امین	-11.0681
▁نگارش	-11.0683
نسوخ	-11.0685
▁عکاسان	-11.069
▁آموخت	-11.0691
▁مض	-11.0701
دلیل	-11.0703
ینز	-11.0711
▁امتیازات	-11.0716
▁دایی	-11.0727
▁اراد	-11.0727
▁کینگ	-11.0746
▁پانزدهم	-11.075
▁برهم	-11.0751
دوغا	-11.0752
▁کوش	-11.0774
بورس	-11.0775
ایل	-11.0777
▁عل	-11.0777
▁زانوی	-11.0778
▁امپراتوری	-11.0782
فرانسی	-11.0782
▁اصولگرای	-11.0791
وفون	-11.0794
کام	-11.0801
▁مندان	-11.0804
▁ولا	-11.0818
▁دویچ	-11.082
▁نخب	-11.0821
▁بدنش	-11.0822
▁کارفرمای	-11.0826
▁بادی	-11.0848
▁بینید	-11.0854
▁باختری	-11.0855
▁جوج	-11.0856
رچند	-11.086
▁هراس	-11.0864
▁دانشجویی	-11.0872
▁ارت	-11.0879
▁گریه	-11.0883
زنی	-11.0889
واقع	-11.089
▁رنگین	-11.0901
نوش	-11.0904
▁سوگ	-11.092
▁عمدی	-11.0925
▁درمی	-11.0926
ضب	-11.098
▁پرید	-11.099
لای	-11.0993
▁عت	-11.0995
▁عمد	-11.0999
▁نیکل	-11.1
همه	-11.1002
ریان	-11.1003
تال	-11.1003
▁پروازهایش	-11.1005
لقو	-11.1013
جک	-11.1028
▁میلی	-11.1034
▁دیوی	-11.1036
▁هلندی	-11.1038
گارت	-11.1042
نکور	-11.1044
▁هرد	-11.105
▁کودتا	-11.1063
▁فرهنگیان	-11.1085
گران	-11.1113
▁گودا	-11.1113
اکثریت	-11.1115
▁محب	-11.1136
▁سرما	-11.1148
▁رکوردها	-11.1156
▁تیره	-11.1158
یلی	-11.1164
▁بهانه	-11.1166
رسیدن	-11.117
▁طاق	-11.1179
▁ریوی	-11.1179
تورهای	-11.1187
بیه	-11.1203
▁کمیاب	-11.1204
ودی	-11.1204
▁بخشهای	-11.1207
رسی	-11.122
وزرای	-11.1223
زمینی	-11.1237
▁اینجا	-11.1263
▁راهنمای	-11.1266
▁کشمی	-11.1268
▁موت	-11.127
وله	-11.1274
صول	-11.128
▁نظرات	-11.1281
▁قبر	-11.1283
نج	-11.1287
▁منظر	-11.1304
طبی	-11.1349
بریتانیا	-11.135
فرگوس	-11.1354
يم	-11.1355
خودرو	-11.1357
طرح	-11.1358
▁ضر	-11.1359
بفرستید	-11.1362
تانک	-11.1368
گوف	-11.1368
تاتنهام	-11.1371
گفتگو	-11.1372
مارادونا	-11.1372
حضور	-11.1372
عفون	-11.1372
انتشار	-11.1372
واکنش	-11.1372
ویکتور	-11.1374
کاهش	-11.1376
تحقیقات	-11.1376
دلال	-11.1378
▁مضر	-11.1382
تهران	-11.1385
فلیک	-11.1387
مع	-11.1398
▁کیف	-11.1403
▁خارا	-11.1414
آیا	-11.1421
▁سرگرفت	-11.1432
رهبر	-11.1437
▁فرانسیس	-11.1443
رایش	-11.1445
▁لبنانی	-11.1453
مرز	-11.1455
▁داوری	-11.1461
گراد	-11.1462
▁۸۳	-11.1466
▁حفا	-11.1467
▁بدوی	-11.1472
لینگ	-11.1474
▁حقیق	-11.1476
دین	-11.1477
▁۱۷۰	-11.1485
▁یزد	-11.1485
▁تسهیل	-11.1486
▁جزئی	-11.1487
مل	-11.1488
ضاح	-11.1495
▁مصر	-11.1496
▁تضاد	-11.1498
▁کدخدایی	-11.1498
▁اسراییل	-11.1498
▁پولیتزر	-11.1498
▁تلویح	-11.1498
▁مناقش	-11.1498
▁بسازد	-11.1498
▁فرستد	-11.1498
▁یوسف	-11.1498
▁جهرمی	-11.1498
▁اقتدار	-11.1498
▁حاتمی	-11.1498
▁بذر	-11.1498
▁ابرنواختر	-11.1498
▁یهودی	-11.1498
▁زاکانی	-11.1498
▁متوفی	-11.1498
▁ترشح	-11.1498
▁لامرد	-11.1498
▁خیام	-11.1498
▁پاکبان	-11.1498
▁تعاون	-11.1499
▁بگویند	-11.1499
گشاد	-11.1499
▁خاشقچی	-11.1499
▁مسترز	-11.1499
▁بدهکار	-11.1499
▁خوست	-11.1499
▁تمدن	-11.1499
▁رخشانه	-11.15
▁پابند	-11.15
۴۶	-11.15
▁آلایند	-11.15
ژورنال	-11.15
▁مستعار	-11.15
▁دوستداران	-11.15
▁۱۹۷۳	-11.15
خانقا	-11.1501
▁بنجام	-11.1501
▁۱۳۹۰	-11.1501
▁بگذارند	-11.1501
▁رشید	-11.1502
▁استفانو	-11.1502
▁پیکولی	-11.1502
▁زی	-11.1502
▁کلارک	-11.1502
▁اکسید	-11.1503
▁گردهم	-11.1503
افشاری	-11.1503
▁نصیب	-11.1504
▁بزن	-11.1505
جهان	-11.1505
▁هجر	-11.1506
لانتی	-11.1506
▁مارچ	-11.1506
▁نابسامان	-11.1506
▁عقاب	-11.1506
رگس	-11.1507
▁عصبانی	-11.1507
▁ذات	-11.1507
▁بهزاد	-11.1508
▁روانشناس	-11.1508
▁مبارک	-11.1508
▁ماتی	-11.1508
▁اردوگاه	-11.1509
▁مأموریت	-11.1509
▁پردازند	-11.151
▁شکننده	-11.151
▁۱۴۰	-11.1511
▁شانگ	-11.1513
▁صبا	-11.1513
▁فلسطینیان	-11.1514
▁هستید	-11.1515
▁فتحی	-11.1515
▁ترانس	-11.1516
▁آرایشگاه	-11.1516
▁سولو	-11.1517
▁تلفات	-11.1518
▁تعویض	-11.152
▁سلف	-11.152
▁کنزو	-11.1521
▁داش	-11.1524
▁شکوف	-11.1524
قدرت	-11.1531
▁کثیر	-11.1532
▁درخشید	-11.1536
▁اندرکاران	-11.1537
▁خلوت	-11.1538
▁مطالبات	-11.1538
▁شایست	-11.1538
▁کشتند	-11.154
گرنه	-11.1544
مانیا	-11.1546
▁رابین	-11.1547
▁دبی	-11.1547
▁دیابت	-11.1547
لماس	-11.1548
▁گردید	-11.1548
ائم	-11.155
▁پادمان	-11.1551
▁گاو	-11.1559
▁یاوری	-11.1561
▁اسحاق	-11.1562
▁نیمروز	-11.1563
وارد	-11.1569
▁فراور	-11.1569
▁تلک	-11.157
▁همخوان	-11.1572
▁رائو	-11.1572
یانت	-11.1573
▁دانشگر	-11.1577
راق	-11.158
▁مسترد	-11.1583
▁غل	-11.1594
قبل	-11.1597
▁نشانگر	-11.16
▁آرای	-11.1611
فروش	-11.1615
▁ساترا	-11.1617
ملو	-11.1629
▁مباد	-11.1632
▁کشتن	-11.1637
ارث	-11.1644
▁پیداست	-11.1645
▁کیس	-11.1674
▁جراحت	-11.1682
لیون	-11.1682
▁گرینو	-11.1687
▁بازجوی	-11.1691
▁لوی	-11.1697
حل	-11.1697
▁قطعا	-11.1698
▁لوف	-11.1701
جامع	-11.1709
بخشی	-11.1709
▁جعفری	-11.1715
▁نوشتند	-11.1721
▁اصلاحی	-11.1722
▁ماندند	-11.1722
▁فهم	-11.1732
▁کویت	-11.1734
▁پسند	-11.1739
▁صمیمی	-11.1752
▁نامم	-11.1754
جیک	-11.1754
▁بخشید	-11.1759
ویچ	-11.1765
▁توس	-11.1768
▁بانان	-11.177
▁فضاپیمای	-11.1771
▁مینیاتور	-11.1772
▁گرانتر	-11.1779
طل	-11.178
▁تم	-11.1793
تاکس	-11.1797
▁بروم	-11.18
▁نیستیم	-11.1804
▁پینگ	-11.1815
▁محصولاتش	-11.1832
سخ	-11.1835
▁کلیسای	-11.1851
▁ژی	-11.1855
▁متحدانش	-11.1866
▁دادیم	-11.1871
رتر	-11.1875
▁پرتو	-11.1882
▁خوار	-11.1883
▁نیاورد	-11.1891
کسل	-11.1891
▁آوا	-11.1892
۶۱	-11.19
▁مول	-11.1912
اسکو	-11.1926
▁موجودی	-11.193
▁طل	-11.1936
▁اخ	-11.1936
▁کلاه	-11.194
▁وارن	-11.1941
▁بازگو	-11.196
▁مدد	-11.1965
▁چار	-11.197
▁نر	-11.1989
▁وگوهای	-11.1989
یامک	-11.199
دربند	-11.1998
▁۱۳۳	-11.2005
کمی	-11.2008
▁خوابی	-11.2019
▁پردازی	-11.2024
▁متیو	-11.2032
پزشک	-11.2032
۴۹	-11.2039
درفتار	-11.2045
▁راد	-11.2055
▁کیت	-11.2058
نچی	-11.2072
▁رفتم	-11.2072
خواهد	-11.2079
▁خریده	-11.2093
▁دخ	-11.2095
هرانا	-11.2104
▁اون	-11.2105
اطم	-11.2108
▁هک	-11.2114
ونی	-11.2115
گزار	-11.213
ودم	-11.2133
آور	-11.2166
▁استثنای	-11.2171
نش	-11.2172
▁ناآرام	-11.2177
▁تیل	-11.218
۱۷	-11.218
▁نیل	-11.2191
گور	-11.2194
▁وگوها	-11.2202
▁سیری	-11.2202
روح	-11.2207
▁نمود	-11.2209
پن	-11.2211
فره	-11.2248
▁شهرک	-11.2261
خور	-11.2263
ترن	-11.228
صیل	-11.2287
جاست	-11.2289
▁پسران	-11.2315
▁لک	-11.2318
یکا	-11.2323
▁گرما	-11.2326
▁درو	-11.2348
▁نتوا	-11.2348
رومن	-11.2351
▁مدرس	-11.2367
▁کریم	-11.2373
▁پژ	-11.2397
سوم	-11.24
ترا	-11.2402
▁ریگ	-11.2404
▁پناهند	-11.2407
▁بطر	-11.241
▁درصدد	-11.2411
پوش	-11.2421
رده	-11.2421
▁نوا	-11.2433
▁ساع	-11.2437
▁رنگی	-11.2439
▁هرجا	-11.2452
▁مبا	-11.2458
▁نگرفت	-11.2458
▁کریس	-11.2458
فضل	-11.2474
▁پراکن	-11.2475
تابعیت	-11.2478
فیروز	-11.2481
یونایتد	-11.2481
تایسون	-11.2482
انجمن	-11.2482
سفارت	-11.2482
آلمان	-11.2483
صندوق	-11.2483
کلوپ	-11.2483
نقاشی	-11.2483
اطلاعات	-11.2483
تصمیم	-11.2483
موسیقی	-11.2483
آغاز	-11.2483
تجرب	-11.2483
چلسی	-11.2485
کاوه	-11.2488
ترکیه	-11.2489
کمتر	-11.2491
▁متخلف	-11.2491
بررسی	-11.2491
نشست	-11.2496
چال	-11.2497
یاق	-11.2498
پیروز	-11.2503
▁جولی	-11.251
▁دانشجوی	-11.2516
موج	-11.2516
پاش	-11.2519
سایت	-11.2519
▁سروده	-11.2534
▁سیرو	-11.2535
▁حیا	-11.2537
▁۱۸۵	-11.2539
میلیون	-11.2543
جاع	-11.2544
▁ناصری	-11.2545
▁احساسی	-11.255
▁۱۱۰	-11.2556
▁اندرکار	-11.2566
وحید	-11.2568
زمن	-11.258
▁بیدار	-11.2581
▁اط	-11.2591
مرد	-11.2592
▁الس	-11.2594
▁خلاق	-11.2608
▁بلایندرز	-11.2609
▁آلومینیوم	-11.2609
▁اقوام	-11.2609
▁غیرمجاز	-11.2609
▁لومامبا	-11.2609
▁محتاط	-11.2609
▁پاختاکور	-11.2609
▁کوپتر	-11.2609
تصاعد	-11.2609
▁مضاعف	-11.2609
▁فورمن	-11.2609
▁کمونیست	-11.2609
▁تجدد	-11.2609
▁نپال	-11.2609
▁برسانند	-11.2609
▁مقتدر	-11.2609
▁اسپایدر	-11.2609
▁برشمرد	-11.2609
▁آهسته	-11.2609
▁فرنود	-11.2609
▁مصم	-11.2609
▁کانتینر	-11.261
▁جواهر	-11.261
▁لشگر	-11.261
▁فحش	-11.261
▁پاراگوئه	-11.261
▁باثبات	-11.261
▁نیچر	-11.261
▁ذیبخش	-11.261
▁واگیر	-11.261
▁النصر	-11.261
▁کفایت	-11.261
▁قبیل	-11.261
▁ندهند	-11.261
▁لگن	-11.261
▁هلمند	-11.2611
▁قاتل	-11.2611
▁آنکارا	-11.2611
▁جرارد	-11.2611
▁شیرجه	-11.2612
▁فورب	-11.2612
▁بیولوژیک	-11.2612
▁موعد	-11.2612
▁مراود	-11.2613
▁بیافتد	-11.2614
▁قرائت	-11.2614
▁تنگنا	-11.2614
▁گسل	-11.2614
▁خردسال	-11.2614
▁نارضای	-11.2615
▁رولینگ	-11.2615
▁مخ	-11.2615
▁ابولا	-11.2616
▁۱۹۸۰	-11.2616
▁منفرد	-11.2616
▁باشم	-11.2617
▁ايران	-11.2617
▁بغلان	-11.2617
▁سردرگم	-11.2618
ومبل	-11.2619
▁دلتا	-11.2619
▁تبریک	-11.2619
▁وات	-11.262
▁گدار	-11.262
▁سانتو	-11.2621
▁انصاری	-11.2621
▁۱۳۵۰	-11.2622
▁پوشان	-11.2622
▁بخواهد	-11.2622
▁نادری	-11.2623
نرخ	-11.2624
▁ابد	-11.2626
▁فیروزجا	-11.2627
ادیو	-11.2627
▁اقامتگاه	-11.2628
▁وزار	-11.2629
▁سیدنی	-11.2631
▁ماهیچه	-11.2632
گبا	-11.2632
نولد	-11.2632
▁ژنرا	-11.2633
▁فستیوال	-11.2633
▁برخاست	-11.2633
▁اخترشناس	-11.2634
▁۲۰۰۱	-11.2634
▁زادگاهش	-11.2634
▁آموز	-11.2634
▁پاسگاه	-11.2634
▁جغرافیای	-11.2639
▁متولی	-11.2639
▁خلوتگر	-11.2641
▁پروست	-11.2643
▁سرشار	-11.2644
▁سهراب	-11.2645
▁کانل	-11.2645
▁۱۸۸	-11.2646
▁رکوردشکن	-11.2646
شیبا	-11.2647
▁لیتر	-11.2647
▁مورل	-11.2648
کان	-11.265
▁نامجو	-11.265
▁خیز	-11.265
▁هولم	-11.265
▁سولار	-11.2651
▁ابزارهای	-11.2651
▁مورف	-11.2653
▁حکیم	-11.2653
▁خوشحالم	-11.2655
دور	-11.2657
▁سرگردان	-11.2661
▁ناقل	-11.2661
▁ازسر	-11.2661
▁استقامت	-11.2662
▁نب	-11.2668
▁آپ	-11.2671
▁سبد	-11.2682
▁جفت	-11.2682
نقل	-11.2686
▁یونه	-11.269
▁عمیقا	-11.2692
▁رانت	-11.2696
▁کلدی	-11.2697
▁کیمن	-11.2699
▁ساید	-11.2706
▁لوک	-11.2715
▁نهایتا	-11.2717
▁خدای	-11.2718
▁وحشت	-11.2718
▁کارتون	-11.2721
▁اثرگذار	-11.2726
▁سرور	-11.2727
▁وض	-11.273
چر	-11.2736
▁متخلفان	-11.2739
▁تولی	-11.274
اید	-11.2742
▁فرشت	-11.2749
باد	-11.2749
▁احتیا	-11.2752
زیان	-11.2759
▁اتم	-11.2762
▁دوندگان	-11.277
لفظ	-11.2773
▁اصطلاحا	-11.2773
زلی	-11.2776
لث	-11.2779
▁ساسانی	-11.2799
ارل	-11.2802
▁دیدند	-11.2809
▁فابی	-11.2811
▁امیرم	-11.2811
▁لندرو	-11.2815
▁فورا	-11.2816
رل	-11.2817
▁پوک	-11.2817
▁فوریت	-11.2817
▁چرخش	-11.2825
▁دول	-11.2829
▁پالا	-11.283
شکاف	-11.2834
▁تراز	-11.2836
▁پارچ	-11.2838
ولت	-11.2843
▁چاق	-11.2846
▁ارج	-11.2849
▁ماخ	-11.2851
▁هیولای	-11.2854
جیغ	-11.2858
▁هامون	-11.2862
▁صدایش	-11.2863
▁نایاب	-11.2872
▁اوار	-11.2873
▁دات	-11.2876
▁برگزارکنند	-11.2877
جویان	-11.2877
▁شکستگی	-11.2883
▁پرز	-11.2885
▁پولها	-11.2886
▁پذیرفت	-11.289
▁کشیدند	-11.2891
▁پویا	-11.2895
▁حول	-11.2905
▁منظره	-11.291
زیر	-11.2928
شدن	-11.2935
▁مینا	-11.2941
▁بارتو	-11.2946
▁دال	-11.2951
▁نیکولا	-11.2951
▁بنیا	-11.2981
▁غرو	-11.2983
ستند	-11.2985
▁نمادی	-11.2991
▁لنو	-11.2993
▁سازان	-11.2996
▁کج	-11.2999
▁شکن	-11.3007
نیوز	-11.3007
▁آبهای	-11.3013
ارسل	-11.3032
▁۶۳	-11.3036
▁دوش	-11.3041
▁هانس	-11.3047
وندی	-11.3058
سپی	-11.306
▁محو	-11.3063
لم	-11.3063
فرجام	-11.3065
▁کاف	-11.307
مول	-11.307
▁خریدن	-11.3075
یتز	-11.308
▁سریعتر	-11.3084
رک	-11.3087
۱۱	-11.309
▁نوین	-11.3091
دم	-11.3092
▁درآمده	-11.3097
▁مردن	-11.3103
تین	-11.311
مد	-11.3112
▁سوت	-11.3115
لس	-11.3134
▁بیم	-11.3138
▁سنگر	-11.3138
▁بزرگان	-11.3154
▁گز	-11.3159
▁اینچ	-11.3171
▁آرم	-11.3184
▁کورو	-11.3186
امید	-11.3188
▁فهمید	-11.3194
▁درام	-11.3207
▁چال	-11.3221
▁خل	-11.323
▁کارل	-11.323
پژوه	-11.3242
▁عزادار	-11.3259
نیف	-11.3277
▁شدیم	-11.3282
خوانی	-11.3287
▁مق	-11.33
اکبر	-11.3301
▁جنگی	-11.3303
▁هیل	-11.3307
▁فرضی	-11.3308
▁ملته	-11.3333
▁گنجی	-11.3333
شکل	-11.3337
▁قاسمی	-11.3338
▁بیگان	-11.3339
خون	-11.3342
ادین	-11.3346
اردو	-11.3356
▁خاور	-11.3361
▁۱۷۳	-11.3361
▁دوید	-11.3361
▁استعمار	-11.3374
▁سنج	-11.3376
▁موم	-11.3385
شریف	-11.3386
▁قوم	-11.339
▁عکسها	-11.3393
▁فرح	-11.341
▁نمازی	-11.3411
تز	-11.3413
▁کارفرما	-11.3418
▁دانشجو	-11.3418
وظ	-11.3422
▁بقا	-11.3424
▁رجب	-11.3424
▁قربان	-11.3428
▁اجتماع	-11.3438
▁نزدیکتر	-11.3448
ملا	-11.3452
ستگی	-11.3461
وویچ	-11.3481
▁اسک	-11.3509
میشل	-11.3528
▁شست	-11.3534
▁نما	-11.3539
▁شن	-11.3552
▁عا	-11.3554
خن	-11.3573
▁بارش	-11.3579
فان	-11.3579
عمل	-11.3601
اندا	-11.361
▁گا	-11.3621
دیمیر	-11.3633
نفر	-11.3644
کنیم	-11.365
▁۵۱	-11.3652
وتیو	-11.3659
دایی	-11.3659
پورت	-11.3679
▁جوی	-11.3681
رفتن	-11.3687
یافته	-11.3687
▁لیم	-11.369
▁جیم	-11.37
▁داران	-11.3705
۴۲	-11.3709
ارزش	-11.3714
▁۸۷	-11.3714
دیس	-11.3714
▁امی	-11.3716
▁مطلبی	-11.3717
ظاهر	-11.3722
منازع	-11.3722
بیگ	-11.3724
ویروس	-11.3732
کانادا	-11.3732
عادت	-11.3732
اسپانیا	-11.3733
حادثه	-11.3733
جراح	-11.3734
هنگام	-11.3734
مشخص	-11.3734
عادی	-11.3734
اتریش	-11.3735
لستر	-11.3735
نخست	-11.3735
دادستان	-11.3735
▁مشتاق	-11.3738
▁بفهم	-11.3738
▁فرز	-11.3742
بحث	-11.3745
جام	-11.3746
نتیج	-11.3749
▁مغزش	-11.3753
وکیل	-11.3757
▁کوبا	-11.3762
▁درگذشته	-11.3766
جمعیت	-11.3768
▁یوآ	-11.3773
هار	-11.3774
▁پیشگام	-11.3776
رین	-11.3783
هشدار	-11.3797
▁قل	-11.38
افتاده	-11.3808
تاج	-11.381
▁جانش	-11.3812
▁خب	-11.383
ارک	-11.3832
ژهای	-11.3836
▁مقاوم	-11.3838
▁منجم	-11.3841
▁اصالت	-11.3844
▁ابداع	-11.3845
حث	-11.3846
▁مخاطب	-11.3851
▁بنده	-11.3851
▁فلور	-11.3852
▁رپ	-11.3855
▁تح	-11.3856
دغدغه	-11.3859
▁آکسفام	-11.3859
▁اردکانیان	-11.3859
▁بفروشند	-11.3859
▁تأسیس	-11.3859
▁تذکر	-11.3859
▁دموکراسی	-11.3859
▁سولشر	-11.3859
▁ماسویدال	-11.3859
▁مشروب	-11.3859
▁مصیبت	-11.3859
▁کانگورو	-11.3859
▁گریگوریان	-11.3859
▁تدفین	-11.3859
▁مستثن	-11.3859
▁بیاورند	-11.3859
▁جامائیکا	-11.3859
▁باکتری	-11.3859
▁دفاتر	-11.3859
▁جانباخت	-11.3859
▁اجساد	-11.3859
▁راهپیمایی	-11.3859
▁ناگزیر	-11.3859
▁هامبورگ	-11.3859
▁برگردیم	-11.3859
▁گاگا	-11.386
▁صیاد	-11.386
▁رفیق	-11.386
▁اکرم	-11.386
▁کلروک	-11.386
▁برگردند	-11.386
▁ژنشنگ	-11.386
▁عنصر	-11.386
▁توقع	-11.386
▁پرشور	-11.386
▁آسپر	-11.386
▁واجد	-11.386
▁کبد	-11.386
نتسب	-11.386
▁طغیان	-11.386
▁آپارتمان	-11.3861
▁تبلت	-11.3861
▁بنشیند	-11.3861
▁مساحت	-11.3861
▁الاجراست	-11.3861
▁بدانید	-11.3862
▁داوود	-11.3862
▁حوض	-11.3862
مادر	-11.3862
زیمبا	-11.3862
کاراکاس	-11.3862
▁کمبریج	-11.3862
▁ساوت	-11.3863
▁محاف	-11.3863
▁۱۹۷۹	-11.3863
▁ناشر	-11.3863
▁فرنگی	-11.3863
▁نجوا	-11.3864
▁برایانت	-11.3864
▁گیتار	-11.3864
▁پرجمعیت	-11.3864
▁مختاری	-11.3864
▁مصل	-11.3865
▁معلم	-11.3865
▁مهیا	-11.3865
▁گرافیک	-11.3866
▁وادار	-11.3866
▁ناچیز	-11.3866
▁بازتاب	-11.3866
▁محف	-11.3866
▁کاشف	-11.3866
▁نیابد	-11.3868
▁آث	-11.3868
▁نامشخص	-11.3868
▁سازوکارهای	-11.3869
▁شرع	-11.3869
▁۷۵۲	-11.3869
ترانه	-11.3869
▁الاکلنگ	-11.3869
▁اسنپ	-11.3869
▁نورالله	-11.387
▁افزاید	-11.3871
یفتن	-11.3871
▁ربای	-11.3872
▁عار	-11.3872
▁خانود	-11.3872
▁امیدوارکننده	-11.3873
▁رژه	-11.3873
▁لبخندها	-11.3873
▁برویم	-11.3874
▁سفیددره	-11.3874
▁مبت	-11.3874
▁بپذیر	-11.3874
▁معلولیت	-11.3874
▁۷۵۰	-11.3875
▁نورمحمد	-11.3876
▁گردیم	-11.3877
▁منقل	-11.3877
▁عزت	-11.3878
دانف	-11.388
▁انکار	-11.388
▁۱۹۹۴	-11.3881
▁دراین	-11.3881
▁پابرجاست	-11.3882
▁تنیده	-11.3882
زمه	-11.3883
▁پینک	-11.3885
▁موسیقیدان	-11.3885
▁بخواهید	-11.3885
▁۴۵۰	-11.3886
▁خوشبین	-11.3887
▁فرندز	-11.3887
▁خرمشهر	-11.3887
▁ماوریک	-11.3887
▁کیانوش	-11.3887
▁آویز	-11.3888
▁فهیم	-11.3889
▁بخواهی	-11.3889
رحیم	-11.3889
▁القا	-11.3892
ستانگ	-11.3895
▁لیز	-11.3895
▁افول	-11.3896
ندرت	-11.3897
▁جرج	-11.3898
▁پارکور	-11.3899
▁نبو	-11.3899
▁بازنده	-11.3899
▁چارل	-11.39
▁توئیتر	-11.3901
▁سادگی	-11.3904
لباخت	-11.3907
▁کلیپ	-11.3907
▁امریکا	-11.3909
▁بستگ	-11.391
▁داگ	-11.391
یخته	-11.391
جوان	-11.3911
▁نایا	-11.3912
▁ملکشا	-11.3912
▁نکو	-11.3913
▁زینب	-11.3915
▁موریس	-11.3917
يد	-11.3919
▁علیزاده	-11.3919
لبرز	-11.3919
▁فراخواند	-11.392
مهربان	-11.3921
▁منک	-11.3921
▁تناقض	-11.3923
▁کامپیوترها	-11.393
▁مسبب	-11.3931
▁کاشت	-11.3932
▁بازیافت	-11.3933
▁ساری	-11.3935
▁ناوگان	-11.3935
▁دفع	-11.394
▁هاپک	-11.394
قای	-11.3945
سنگ	-11.3945
▁ننگ	-11.395
بیست	-11.395
▁اندازند	-11.3951
▁شوق	-11.3953
شقان	-11.3955
▁۱۳۹	-11.3955
▁کامیاب	-11.3956
▁خالد	-11.396
جوزپ	-11.3961
▁مجت	-11.3962
▁کارتو	-11.3964
نجی	-11.3967
▁عاشقانه	-11.3969
▁ارگان	-11.3976
مو	-11.3982
لیدی	-11.3988
باع	-11.3991
▁عاج	-11.3996
▁تجمعات	-11.3997
وجیه	-11.4003
▁درسی	-11.4008
فرید	-11.401
لسون	-11.4011
▁چادر	-11.4019
▁بدنشان	-11.402
▁خش	-11.4022
▁نتوان	-11.4031
نگا	-11.4033
▁نیوز	-11.4042
يت	-11.4043
تناسب	-11.4048
▁سهامدار	-11.405
▁اسل	-11.4054
جیل	-11.4056
▁گرمی	-11.4066
▁کاسی	-11.4072
▁خلا	-11.4073
فرد	-11.4074
▁هوشیاری	-11.4077
▁استیل	-11.4078
خزن	-11.4081
▁آئ	-11.4083
▁جون	-11.4087
ادیوم	-11.409
▁جور	-11.4091
▁شیوا	-11.4097
▁تحریر	-11.4102
▁لیر	-11.4105
▁اجراهای	-11.4108
▁مولان	-11.4109
▁مکس	-11.4111
▁ادارات	-11.4112
حصول	-11.4112
▁دنیل	-11.4119
▁ایرلندی	-11.4132
ایب	-11.4134
خوان	-11.4136
▁تحری	-11.4137
▁کد	-11.4139
▁ایوان	-11.4139
▁همگان	-11.4147
خوف	-11.415
۱۹۶۵	-11.4159
▁موسی	-11.4167
▁ارژن	-11.4179
▁ضیا	-11.4179
▁اسکان	-11.419
ایت	-11.4193
▁تص	-11.4195
▁پاسخگوی	-11.4203
▁دس	-11.4204
▁اروپاست	-11.4205
▁دیسک	-11.4206
ملک	-11.4215
▁مرت	-11.4218
▁بریتانیاست	-11.4219
لپ	-11.4222
▁سازندگی	-11.4237
▁ناراحتی	-11.4241
خیر	-11.4241
▁اشتها	-11.4244
▁لطفی	-11.4266
پزشکی	-11.4268
▁گرجستانی	-11.4271
▁عظیمی	-11.4273
▁جراحان	-11.4275
▁نیافته	-11.4281
▁معمای	-11.4282
هرابی	-11.4301
▁هوادارانش	-11.4302
▁داروین	-11.4304
▁کلر	-11.4311
▁قف	-11.4312
▁رسو	-11.4321
▁۱۳۲	-11.4329
▁تقی	-11.4347
▁خران	-11.4347
▁تابستانی	-11.4351
چل	-11.4352
▁شنای	-11.4369
▁یابی	-11.4371
▁تبر	-11.4379
فیک	-11.438
کافی	-11.4384
▁نازل	-11.4389
▁چای	-11.4406
نمی	-11.4412
▁اصلان	-11.4413
▁سکان	-11.4414
رخ	-11.4428
▁رسی	-11.4428
▁منه	-11.4432
▁دانا	-11.4436
▁پلک	-11.444
رف	-11.4454
گوئر	-11.4456
ایا	-11.4456
صید	-11.4462
الت	-11.4473
تازه	-11.448
▁هشدارهای	-11.448
وود	-11.4482
شایر	-11.4503
۸۵	-11.4519
▁گذاریم	-11.452
۲۱	-11.453
پو	-11.4535
▁دادرس	-11.457
▁استرا	-11.4571
شو	-11.4577
گذار	-11.4582
▁سپه	-11.4593
▁کیلی	-11.4602
▁بگذاری	-11.4611
راست	-11.4628
وایی	-11.4629
▁شدایران	-11.4638
۲۲	-11.4638
وگو	-11.4648
الوح	-11.4672
نیچ	-11.4687
▁پذیری	-11.4691
▁قی	-11.4696
مز	-11.4701
ماری	-11.4722
یکون	-11.4723
▁معما	-11.4726
▁استیو	-11.4727
▁تایی	-11.4733
▁شاد	-11.4735
جرد	-11.4747
آباد	-11.4755
واره	-11.4765
▁درها	-11.4771
▁حاج	-11.4779
▁بدان	-11.478
زود	-11.4789
لون	-11.4793
تعداد	-11.4798
▁حریر	-11.4819
▁هفده	-11.4821
▁جنگید	-11.4824
▁والا	-11.4826
▁پیگیر	-11.4828
ولان	-11.4829
فته	-11.4831
▁اصولگرا	-11.4847
▁امپراتور	-11.4848
▁ساعته	-11.4854
▁کلیسا	-11.4858
▁۹۲	-11.486
▁میلاد	-11.487
▁صوت	-11.487
فرانس	-11.4871
▁لطف	-11.4872
▁غور	-11.4876
▁آنا	-11.4882
اراک	-11.489
ستا	-11.489
▁مسا	-11.4895
کین	-11.4898
راد	-11.4902
▁۶۹	-11.4904
حرف	-11.4905
▁رومانیا	-11.491
▁ریاضی	-11.4913
الی	-11.492
خر	-11.4928
▁دکترا	-11.4933
▁تق	-11.4934
امع	-11.4935
▁دژ	-11.494
▁کلک	-11.4944
▁ریختن	-11.4951
کور	-11.4963
دانه	-11.4975
خیل	-11.4978
▁برگرداند	-11.4993
▁دقتی	-11.4996
▁۸۱	-11.4996
رفت	-11.4997
عت	-11.5004
پانز	-11.5005
▁سکو	-11.5022
▁باختر	-11.5025
▁فضل	-11.5034
نیک	-11.5036
تواند	-11.5039
خه	-11.5039
سکانس	-11.504
رود	-11.5043
▁۲۶۰	-11.5047
وارتر	-11.5059
▁پیچید	-11.5066
▁بهرامی	-11.5068
▁آف	-11.5084
▁تحر	-11.5099
▁سونا	-11.5103
▁۲۰۲	-11.5106
▁۲۵۰۰	-11.5108
▁بوم	-11.511
▁شکنی	-11.5111
▁بخشد	-11.5113
برگزار	-11.5118
▁سفرها	-11.5128
▁برآوردها	-11.5132
صره	-11.5138
کول	-11.5143
مجتب	-11.5148
کارآمد	-11.5148
شروع	-11.5148
سیلوا	-11.5149
▁گوها	-11.5149
رونا	-11.5153
الگو	-11.5154
سانس	-11.5156
پرداخت	-11.5156
▁افزودن	-11.5158
کجاست	-11.5158
ماخ	-11.5159
ضرر	-11.516
منظور	-11.516
برآورد	-11.5161
آذر	-11.5161
سرطان	-11.5161
نتایج	-11.5161
آلود	-11.5161
رکورد	-11.5161
عضو	-11.5162
جایزه	-11.5162
تصویر	-11.5162
اعلام	-11.5162
سیزدهم	-11.5163
بازداشت	-11.5163
تحلیلگر	-11.5163
تنیس	-11.5164
خوشایند	-11.5164
بزرگترین	-11.5165
اسناد	-11.5166
عکاس	-11.5167
اعظم	-11.5168
مطابق	-11.5171
نمایند	-11.5175
▁تشی	-11.5178
کشته	-11.5183
میدان	-11.5186
درگذشت	-11.519
شکنی	-11.5193
مزد	-11.5209
تحریم	-11.5213
▁بینم	-11.5214
▁خطا	-11.5216
شوند	-11.5221
قصد	-11.5222
▁بسر	-11.5223
پاتی	-11.5229
▁خفا	-11.5234
بالا	-11.5236
▁آرت	-11.524
▁کوهنورد	-11.5243
▁۲۹۰	-11.5247
▁شاگرد	-11.5249
▁لات	-11.525
▁سازندگ	-11.5252
ردام	-11.5254
▁خویش	-11.5258
افزون	-11.5265
نوم	-11.5271
▁تقریب	-11.5276
نقش	-11.5278
مقامات	-11.5283
پولو	-11.5285
▁زادگاه	-11.5287
▁قزاق	-11.5288
▁جگوار	-11.5288
▁احداث	-11.5288
▁انقطاع	-11.5288
▁انیمیشن	-11.5288
▁سزاوار	-11.5288
▁قورباغه	-11.5288
▁محتمل	-11.5288
▁منظوم	-11.5288
▁ضابط	-11.5288
▁فیلسوف	-11.5288
▁بیندازند	-11.5288
▁سیاهپوست	-11.5288
▁سیگنال	-11.5288
▁هنجار	-11.5288
▁چمپیون	-11.5288
▁قتالی	-11.5288
▁انزوا	-11.5288
▁بلغارستان	-11.5288
▁بیانداز	-11.5288
▁غلیظ	-11.5288
▁لشکر	-11.5288
▁وسواس	-11.5288
▁ندارید	-11.5288
▁بازنگشت	-11.5288
▁بریجز	-11.5288
▁مخرب	-11.5288
▁اختراع	-11.5288
▁سرسخت	-11.5288
▁فرناند	-11.5288
▁رغبت	-11.5288
▁پرایس	-11.5288
▁سیستماتیک	-11.5288
▁پیمود	-11.5288
▁اولیانوف	-11.5288
▁فاسد	-11.5288
▁مادام	-11.5288
▁بخورد	-11.5288
▁جاودان	-11.5288
توازن	-11.5288
▁دروغگو	-11.5288
▁صلیب	-11.5288
▁متصل	-11.5289
▁سانتیگراد	-11.5289
▁سمفونی	-11.5289
▁هریرود	-11.5289
▁اسرارآمیز	-11.5289
▁بسیج	-11.5289
▁طلسم	-11.5289
▁فرسود	-11.5289
▁مجلات	-11.5289
▁یقین	-11.5289
بینند	-11.5289
▁پدربزرگ	-11.5289
▁مذک	-11.5289
▁مالزی	-11.5289
▁هیدرو	-11.5289
▁سازگار	-11.5289
▁مجادل	-11.5289
▁نابرابر	-11.529
▁اینفانتی	-11.529
تفرق	-11.5291
▁قدردان	-11.5292
▁آفرید	-11.5292
▁میدهد	-11.5292
▁۱۹۶۶	-11.5292
▁فیصل	-11.5293
▁بزاق	-11.5293
▁دعا	-11.5293
▁خاندان	-11.5294
▁مراکش	-11.5294
▁نورستان	-11.5294
▁بگذارم	-11.5294
▁کاسپی	-11.5294
▁۱۹۶۷	-11.5296
▁داود	-11.5296
▁پستی	-11.5297
▁۱۹۶۸	-11.5297
▁طبع	-11.5297
▁مردادماه	-11.5298
▁ببریم	-11.5298
▁اجزا	-11.5299
▁۱۹۲۰	-11.53
▁۱۹۹۵	-11.5301
▁جع	-11.5301
▁زحمت	-11.5302
▁مانور	-11.5303
▁نخواست	-11.5303
▁ترقی	-11.5304
▁ثور	-11.5305
▁واژگ	-11.5305
▁انتصاب	-11.5306
▁معنادار	-11.5306
▁قید	-11.5308
▁دیرتر	-11.5308
▁رودکی	-11.5309
▁مطلق	-11.531
▁بکند	-11.531
کاران	-11.531
▁همسایگان	-11.5312
▁بورات	-11.5312
▁غرور	-11.5312
▁لیبی	-11.5313
▁فلامینگوها	-11.5313
شیا	-11.5316
▁زلا	-11.5318
▁پردازش	-11.5318
▁برونته	-11.5319
▁یابند	-11.532
▁آنگل	-11.5321
▁توبین	-11.5322
▁بیورن	-11.5322
▁لط	-11.5322
▁اشخاص	-11.5322
▁نویسندگ	-11.5323
▁ژنوم	-11.5326
▁عطف	-11.5329
حام	-11.5329
▁سینماگران	-11.533
▁دیاب	-11.5333
▁فلزات	-11.5334
ارا	-11.5334
▁شخصا	-11.5335
▁بزرگسالان	-11.5337
شش	-11.5337
▁کوشید	-11.5338
▁توبی	-11.5338
ولین	-11.5341
▁لیل	-11.5341
فین	-11.5341
▁سرخک	-11.5345
▁دیدیم	-11.5345
▁کوید	-11.5346
▁توتال	-11.5346
▁دریانورد	-11.5348
ذل	-11.5351
▁توسان	-11.5353
▁معلومات	-11.5355
▁اکثرا	-11.5361
دلایل	-11.5362
عطا	-11.5362
پائولو	-11.5364
ودور	-11.5365
▁صرب	-11.5367
▁لوح	-11.5367
▁خانمان	-11.5367
کوس	-11.5368
▁هریس	-11.5371
▁دماغ	-11.5372
نگرانی	-11.5373
▁ترسد	-11.5376
▁فاضل	-11.5378
▁رحمت	-11.538
اثر	-11.5381
▁پاسدار	-11.5383
▁قبض	-11.5383
▁یاسر	-11.5385
رزرو	-11.539
▁نامعلوم	-11.5391
▁قانونگذار	-11.5405
▁بدهید	-11.5405
▁سناریوها	-11.5405
▁مهمانان	-11.5421
▁رخدادهای	-11.5422
قبره	-11.5425
اطبا	-11.5428
▁سانچ	-11.5432
▁پوستر	-11.5434
▁نگذاشته	-11.5434
▁ژاک	-11.5437
فرانسه	-11.5439
▁طاهر	-11.5448
▁تشوی	-11.5455
▁لاب	-11.5456
▁کجاست	-11.5457
ونز	-11.5462
کسیون	-11.5465
▁رقبای	-11.5469
پار	-11.5469
▁سوییس	-11.547
الیاس	-11.5471
▁شعرهای	-11.5476
▁سیلا	-11.5477
▁امیدهای	-11.5482
قیاس	-11.5483
▁کارلو	-11.5485
▁جادوی	-11.5488
▁بفرستید	-11.549
▁بالاست	-11.5492
▁پود	-11.5493
برداری	-11.5497
▁نانو	-11.5499
عیار	-11.5504
▁نخوان	-11.5505
▁رساندند	-11.551
▁رسال	-11.5511
▁سازهای	-11.5527
ادی	-11.5528
▁گیم	-11.553
سارت	-11.5532
▁ترسید	-11.5534
فرنو	-11.5539
▁پیامبر	-11.5542
ائل	-11.5544
اچو	-11.5545
▁زین	-11.5545
▁دزدی	-11.5548
▁خور	-11.5551
▁چید	-11.5554
▁فک	-11.5558
▁پیشنهادهای	-11.5559
▁تشکیلات	-11.5562
▁یوسی	-11.5563
۸۹	-11.5578
▁مجرمان	-11.558
▁نبودند	-11.5591
▁بوهای	-11.5594
▁جود	-11.5595
اشار	-11.5597
▁گوف	-11.5599
▁بروید	-11.561
▁سیا	-11.561
▁عثمانی	-11.5615
▁ممیز	-11.562
▁سینو	-11.562
▁استعفاها	-11.5621
راماتیک	-11.5653
▁امری	-11.5658
▁تولیدکنند	-11.5658
▁فرزندانش	-11.5664
▁نفی	-11.5676
▁مسن	-11.5688
▁هارد	-11.5691
▁حکمت	-11.5695
▁آرن	-11.5696
▁صحرای	-11.5696
۲۷	-11.5706
▁نف	-11.5706
▁مشخصات	-11.5717
▁عفون	-11.5727
شون	-11.5728
▁هرج	-11.5743
▁پهنه	-11.5743
عادل	-11.5744
▁یانگ	-11.5757
▁لیک	-11.5764
▁الن	-11.5767
آمارها	-11.5768
▁برنا	-11.5771
▁انس	-11.5772
▁ورای	-11.5779
▁درهم	-11.5785
▁پاش	-11.5786
▁زنیم	-11.5787
ژی	-11.5795
برده	-11.581
▁همسران	-11.5812
▁آما	-11.5818
▁رودر	-11.582
بریز	-11.5835
وادا	-11.5836
▁رجبی	-11.5843
▁نوآوران	-11.5854
▁کشاورزان	-11.586
▁جیمی	-11.5862
▁شناختن	-11.5868
زیرو	-11.5869
فور	-11.5875
اگ	-11.5888
بول	-11.5902
▁مقد	-11.5904
▁رانگل	-11.5914
آنچ	-11.5926
اپیش	-11.5931
▁فشارهای	-11.5952
▁بگو	-11.5959
▁بریم	-11.5982
حلال	-11.5985
تار	-11.6001
▁ذ	-11.6015
▁مسیری	-11.6018
بور	-11.6018
اقت	-11.6024
گد	-11.6024
۹۰	-11.6025
▁منامه	-11.604
▁اتری	-11.6041
▁کلن	-11.6041
رنج	-11.605
وتی	-11.6051
نوایی	-11.6058
▁سهیم	-11.6068
▁توفیقی	-11.6069
صدا	-11.6071
▁موری	-11.6073
صله	-11.6074
نتو	-11.6082
۵۸	-11.6095
وتو	-11.6103
بورگ	-11.6119
▁ارو	-11.612
تاد	-11.6123
▁پرداز	-11.6125
▁ادین	-11.6132
خالف	-11.6134
۸۰	-11.6136
▁الع	-11.6142
▁نزده	-11.6144
▁آلت	-11.6163
سمعی	-11.6164
▁دیف	-11.6189
رای	-11.6206
▁رن	-11.6213
بوه	-11.6219
▁شمارش	-11.6233
▁بگ	-11.625
▁چش	-11.6261
ایش	-11.6275
▁فضاپیما	-11.6281
▁کلیو	-11.6282
▁توافقات	-11.6307
اندی	-11.632
▁لویی	-11.6347
یدند	-11.635
▁میهن	-11.6359
▁شناورها	-11.636
ماجرا	-11.6364
قهرمان	-11.6369
▁آرزو	-11.637
رول	-11.6406
▁۸۴	-11.6407
وتر	-11.642
▁گرجستان	-11.642
نسون	-11.6427
غلو	-11.6434
لیتو	-11.6467
▁غد	-11.6477
جیان	-11.6482
نتینو	-11.6489
ریزی	-11.649
▁ائ	-11.6491
▁صدایی	-11.6491
اکس	-11.6493
▁صحرا	-11.6509
▁پاسخگو	-11.6511
▁مذهب	-11.6528
مين	-11.6531
زدی	-11.6535
▁رویت	-11.6541
چشم	-11.6543
▁کون	-11.6546
▁دیوانه	-11.6548
سلط	-11.6554
ارکان	-11.6566
ایشگاه	-11.6569
▁شورش	-11.6587
▁مراد	-11.6591
أی	-11.6604
ژیل	-11.6605
توت	-11.6606
▁گفتم	-11.6609
▁منسو	-11.6623
▁سنجی	-11.6633
خواند	-11.6637
فع	-11.6646
ورانه	-11.6657
مسترد	-11.6673
زبان	-11.6683
۸۱	-11.6694
سالار	-11.6719
▁۷۱	-11.6724
▁مصو	-11.6728
▁جنب	-11.6729
کسان	-11.675
▁کلور	-11.6759
▁علا	-11.6761
▁بازدیدکنند	-11.6766
اسب	-11.6784
صرف	-11.6792
صلاح	-11.6792
▁تراک	-11.68
▁کارهایش	-11.6807
▁اپراتور	-11.6808
▁پوشیدن	-11.6814
دقیق	-11.6821
نفوذ	-11.6822
آموز	-11.6824
خشکسالی	-11.6825
کاظم	-11.6826
لیدز	-11.6826
حداکثر	-11.6827
ادعا	-11.6827
جوکوویچ	-11.6827
جسد	-11.6828
جنجال	-11.6828
هماهنگ	-11.6828
منچستر	-11.6828
هواداران	-11.6828
استرالیا	-11.6828
گمرک	-11.6828
بارسلونا	-11.6828
تابستان	-11.6828
دانشگاه	-11.6828
جنوب	-11.6828
شرایط	-11.6828
شعر	-11.6828
عزیز	-11.6829
مرغ	-11.6829
ماشین	-11.683
ایتالیا	-11.683
▁ماریان	-11.683
رح	-11.6831
ابتدا	-11.6832
جواد	-11.6832
کاخ	-11.6832
لزم	-11.6835
سریع	-11.6838
کشتی	-11.6842
سنگر	-11.6844
محمدرضا	-11.6845
مدیریت	-11.6845
آبی	-11.6845
مورد	-11.6852
جر	-11.6855
زیو	-11.6856
۱۴۰۰	-11.6857
▁۳۲۰	-11.6858
نمود	-11.6859
مالک	-11.6864
روا	-11.6865
▁دوک	-11.6867
کریست	-11.6869
انیس	-11.6871
مالا	-11.6873
دوج	-11.6876
ولوژی	-11.6895
▁۶۶	-11.6899
▁توئیت	-11.69
سوخت	-11.6903
دوزی	-11.6904
همکاری	-11.6908
▁خسر	-11.6908
▁پسرم	-11.691
کاسی	-11.6912
دوستان	-11.6912
اشک	-11.6918
داشتن	-11.6924
▁سرزن	-11.6924
دوران	-11.6925
شانت	-11.6925
عظم	-11.693
بنیا	-11.693
▁انتقا	-11.6932
▁اقام	-11.6933
▁رس	-11.6934
▁تفنگ	-11.6936
نیتو	-11.6941
▁مکاتب	-11.6941
▁سازوکار	-11.6942
مشاهی	-11.6943
▁جس	-11.6946
▁مخابر	-11.6946
غوری	-11.6947
▁آز	-11.695
▁پشتو	-11.6952
▁حشر	-11.6952
▁شمش	-11.6952
دختر	-11.6952
راندوم	-11.6954
لئوپولد	-11.6955
▁اختاپوس	-11.6955
▁التحصیل	-11.6955
▁حناچی	-11.6955
▁حیثیت	-11.6955
▁زاکربرگ	-11.6955
▁سرگذاشت	-11.6955
▁عناوین	-11.6955
▁غواص	-11.6955
▁متضاد	-11.6955
▁مصائب	-11.6955
▁مقصود	-11.6955
▁ناسازگار	-11.6955
▁هژمون	-11.6955
▁پلتفرم	-11.6955
▁ژئوفیزیک	-11.6955
▁سارقان	-11.6955
▁موریکونه	-11.6955
▁ناپایدار	-11.6955
▁اقتباس	-11.6955
▁بیرمنگ	-11.6955
فيلم	-11.6955
▁موازات	-11.6955
▁مقادیر	-11.6955
▁قضاوت	-11.6955
▁تقلب	-11.6955
▁انسولین	-11.6955
▁نزاع	-11.6955
▁ایرلاین	-11.6955
▁ماراکانا	-11.6955
▁چابک	-11.6955
▁تدارک	-11.6955
▁ضمیر	-11.6955
▁زوایا	-11.6955
▁زیراتمی	-11.6955
▁لاوروف	-11.6955
▁فرهیخت	-11.6955
▁میچام	-11.6955
▁ناخودآگاه	-11.6955
▁کومله	-11.6955
▁پوینت	-11.6955
▁عناب	-11.6955
▁نیفتاد	-11.6955
▁دیزل	-11.6955
▁گریبان	-11.6955
▁باچان	-11.6955
▁رستم	-11.6955
رگ	-11.6955
▁تمیز	-11.6955
▁موازن	-11.6955
▁ایسلند	-11.6955
▁مبتکر	-11.6955
▁کوشنر	-11.6955
▁اهرم	-11.6955
▁خاکستر	-11.6956
▁لاتکس	-11.6956
▁شلوار	-11.6956
▁ازبک	-11.6956
▁بفرستند	-11.6956
▁تقلا	-11.6956
▁ارباب	-11.6956
▁هتلداران	-11.6956
▁کواچ	-11.6956
▁هارو	-11.6956
▁فرستند	-11.6956
▁وکارها	-11.6956
▁کریگ	-11.6956
▁نوشتارها	-11.6957
▁ایلام	-11.6957
دائی	-11.6957
کفای	-11.6957
▁جاسک	-11.6957
▁مارسیال	-11.6957
▁مشروعیت	-11.6958
▁زشت	-11.6958
داعش	-11.6958
▁دوبلور	-11.6958
▁خشمگین	-11.6958
یگز	-11.6958
لگار	-11.6958
▁کبیری	-11.6958
▁بپردازند	-11.6958
▁شروط	-11.6958
▁شنویم	-11.6959
▁قبرستان	-11.6959
▁پیانو	-11.6959
▁لوگو	-11.6959
▁صفوف	-11.6959
▁عضلانی	-11.696
▁نافرجام	-11.696
▁امداد	-11.696
▁سموم	-11.6961
▁رینت	-11.6961
▁تومور	-11.6961
▁سعیدپور	-11.6961
▁سهمگین	-11.6961
▁احوال	-11.6962
▁ونوس	-11.6963
▁بزنیم	-11.6963
▁نابینا	-11.6963
▁عالیشاه	-11.6964
▁تصرف	-11.6965
▁دمکرات	-11.6965
ولوو	-11.6965
▁نشوند	-11.6965
▁۱۳۶۰	-11.6965
▁هیپی	-11.6965
آلبرت	-11.6966
▁برگرداندن	-11.6966
یوئیت	-11.6966
▁چشید	-11.6967
▁مولف	-11.6967
▁بایستند	-11.6968
▁نابویایی	-11.6968
▁سینماگر	-11.6968
▁فرسا	-11.6969
▁عبدالسلام	-11.6969
▁آنتوان	-11.6969
▁رباب	-11.6969
▁گرگور	-11.6969
لسک	-11.697
▁نایتلی	-11.697
▁خطاهای	-11.6971
▁ورزند	-11.6971
▁میلیچ	-11.6971
▁فاطم	-11.6972
▁زودرس	-11.6972
▁صفاری	-11.6973
فرشی	-11.6973
▁متوازن	-11.6973
▁مقیاس	-11.6973
▁ریاضیات	-11.6974
▁شیاد	-11.6975
▁کولاک	-11.6976
▁قهر	-11.6977
▁زالی	-11.6977
▁قمار	-11.6977
وبیل	-11.6979
▁نزن	-11.6979
تیپ	-11.698
▁خودمختار	-11.6982
تمایل	-11.6983
▁علام	-11.6984
▁تعمیرات	-11.6985
عدی	-11.6985
▁تعلیم	-11.6985
▁بدویا	-11.6987
▁تحرکات	-11.6989
▁مهیب	-11.699
▁آگوست	-11.6991
▁رسند	-11.6992
▁اجداد	-11.6992
▁فونت	-11.6993
▁اسکات	-11.6994
▁اشکالات	-11.6994
▁بگیرم	-11.6996
یلد	-11.6997
▁اغ	-11.6998
حور	-11.6998
▁پرستون	-11.6999
گوین	-11.7003
▁دادخواست	-11.7004
▁شاهکارهای	-11.7004
صنوف	-11.7005
▁روستاهای	-11.7005
▁وفا	-11.7006
▁ناسیونالیس	-11.7007
▁گوهر	-11.7009
حاملگی	-11.701
بیح	-11.701
▁زوم	-11.7014
▁ربود	-11.7017
▁کامران	-11.7019
▁کیار	-11.7019
▁بلک	-11.702
دهم	-11.7022
▁لندر	-11.7025
▁نصر	-11.7026
▁کرونازده	-11.7026
▁بزرگسال	-11.7029
▁متقابل	-11.7034
نویس	-11.704
▁رازهای	-11.704
▁نیامد	-11.704
▁آو	-11.7041
▁اسمیت	-11.7044
▁کشورهاست	-11.7044
▁ایرانایران	-11.7045
▁گراز	-11.7057
▁ورق	-11.7057
▁آشو	-11.7058
▁گیت	-11.706
یونان	-11.7064
▁سمی	-11.7066
تاجر	-11.7067
▁نازک	-11.7068
▁دیوارهای	-11.707
▁عینک	-11.7071
▁شرت	-11.7071
▁عز	-11.7073
▁چتر	-11.7074
اسکورت	-11.7074
▁یاسم	-11.7076
▁مارکو	-11.7076
▁رویکردهای	-11.7077
▁حوال	-11.7078
▁چهارده	-11.7078
▁درمیان	-11.7079
▁فروند	-11.7079
▁اتلان	-11.7088
فینیتی	-11.7089
محسن	-11.7092
▁مناسبات	-11.7092
▁لیبر	-11.7095
▁خوابیدن	-11.7098
▁افع	-11.7099
سپیر	-11.71
لاخ	-11.7101
۱۰	-11.7103
علم	-11.7105
▁براه	-11.7113
▁غذاهای	-11.7114
▁فیش	-11.7115
بع	-11.7119
▁مشتاقان	-11.7123
گوگوش	-11.7124
▁مزد	-11.713
وشیرو	-11.7133
▁وول	-11.7133
▁کورت	-11.7136
▁منازع	-11.7146
▁روبات	-11.7149
غر	-11.7153
رسید	-11.7153
۳۹	-11.7155
الیف	-11.7156
▁تزار	-11.7161
▁یادم	-11.7167
▁مستندهای	-11.7177
پچو	-11.718
▁علما	-11.7185
نزو	-11.7188
▁آرین	-11.7189
▁سانتا	-11.7195
▁مزای	-11.7204
▁استوایی	-11.7205
▁خسرو	-11.7209
▁مجا	-11.7214
نزل	-11.7215
▁کلینت	-11.7217
▁اظهارنظرهای	-11.7218
▁یوآن	-11.7226
تاب	-11.7233
▁بدهیم	-11.7235
▁وتو	-11.7236
معدنچی	-11.7238
رن	-11.7245
▁تیز	-11.7259
▁سکس	-11.7264
دخیل	-11.7266
تراپ	-11.7267
▁کوچه	-11.7273
▁گذران	-11.7273
▁گول	-11.728
نگو	-11.7291
▁کوچ	-11.7295
راجع	-11.7296
▁حجت	-11.7297
خوش	-11.7297
ریدار	-11.7301
قهرمانی	-11.731
ماجرای	-11.7311
▁خودکار	-11.7311
سمن	-11.7315
▁سردست	-11.7324
▁وود	-11.7326
▁جلیل	-11.7327
رمند	-11.7331
ینکی	-11.7336
انح	-11.7336
یوآ	-11.7342
زر	-11.735
▁باربی	-11.7351
▁عطار	-11.7354
اتنگ	-11.737
▁کیان	-11.7373
رعلی	-11.7377
بعه	-11.7379
▁صداها	-11.7384
▁سوپ	-11.7386
▁اینستاگرامش	-11.7392
▁شالی	-11.7404
▁بدنم	-11.7409
روند	-11.7416
یانگ	-11.7422
دوش	-11.7426
جف	-11.743
رم	-11.7442
▁مرادی	-11.7452
▁رویاهای	-11.7458
▁برپا	-11.7463
▁بنام	-11.747
▁دلش	-11.747
زاد	-11.7476
▁راب	-11.7485
▁پخت	-11.7497
ادت	-11.7538
کرده	-11.7539
▁دانستن	-11.7543
▁اوکا	-11.7562
نشان	-11.7568
فمن	-11.758
اور	-11.758
۳۷	-11.7582
▁۱۰۹	-11.7583
شمال	-11.7591
▁بخشیده	-11.7592
داده	-11.76
پول	-11.7603
▁قوت	-11.7611
▁منفور	-11.7613
واقعی	-11.7618
▁خاوری	-11.7636
▁هوم	-11.7636
▁زیباتر	-11.7643
▁آرس	-11.7646
▁کمربندها	-11.7651
▁بازو	-11.7675
▁غوری	-11.7682
▁نشاند	-11.7687
یابان	-11.7688
▁لیو	-11.77
▁کلاین	-11.7707
▁اسلو	-11.7712
▁افزا	-11.7719
▁خوشی	-11.7725
▁نیلی	-11.7731
▁پرستار	-11.7734
سته	-11.7745
برگر	-11.7746
میلیا	-11.7752
▁موتورها	-11.7755
نسک	-11.7756
۹۷	-11.7759
▁موس	-11.7767
روژ	-11.7773
▁۱۷۴	-11.7781
ثر	-11.78
۴۴	-11.7805
▁نیستم	-11.7816
۹۵	-11.7817
مایه	-11.7827
▁رایانه	-11.783
کستر	-11.7831
ائب	-11.7839
سارا	-11.7851
ترک	-11.7853
▁بلخی	-11.7855
▁سفرش	-11.7859
قو	-11.7868
آر	-11.7881
▁هرسال	-11.7883
يا	-11.7886
▁دیپلم	-11.7892
▁قا	-11.7893
▁شجاعی	-11.7901
▁حسابدار	-11.7902
▁واز	-11.7907
▁۴۲۰	-11.7908
۳۶۰	-11.7909
▁مث	-11.7934
▁احتمالات	-11.7939
▁سور	-11.795
وفق	-11.7952
▁ورز	-11.7954
▁شوی	-11.7956
▁آسا	-11.7966
اچ	-11.7976
بس	-11.7977
▁بوتا	-11.7978
په	-11.7986
خو	-11.8005
▁گفتن	-11.8015
▁لین	-11.8031
تک	-11.804
زم	-11.8046
پولی	-11.8052
▁همب	-11.8053
تاکنون	-11.8063
▁الکسا	-11.8073
▁قای	-11.8077
کلیف	-11.8091
▁آلک	-11.8094
فروشی	-11.8096
خانی	-11.8097
▁آش	-11.8106
▁افسرد	-11.811
▁اق	-11.8115
▁نبردها	-11.8148
دال	-11.8151
مهم	-11.8159
▁آرمی	-11.8166
لیس	-11.8168
▁دارداین	-11.8179
▁چنگ	-11.8189
▁زنم	-11.8189
متن	-11.8196
▁بایر	-11.8205
▁کردید	-11.8214
▁کنش	-11.8215
باف	-11.8224
نازنی	-11.8228
▁هوشی	-11.823
کادی	-11.8241
▁انسانها	-11.8247
ئوس	-11.825
پالا	-11.8257
▁تشک	-11.8258
وزن	-11.8266
▁کوری	-11.8314
▁تولیدش	-11.8315
▁رون	-11.8326
▁اپی	-11.8331
▁نشدنی	-11.834
پدیده	-11.8344
▁خوشنو	-11.8346
میزان	-11.837
▁ذهنش	-11.839
▁بایست	-11.8394
▁نات	-11.8394
▁حم	-11.8401
▁مینیاتوری	-11.8402
▁باخ	-11.8415
▁زیبای	-11.8431
تامی	-11.8431
▁لنگ	-11.8432
▁صحبتها	-11.8436
ري	-11.8454
ثه	-11.8467
▁بیند	-11.8469
▁سپرد	-11.8482
بازد	-11.8487
▁بلندپرواز	-11.8487
عاب	-11.8492
لات	-11.8492
▁عثمان	-11.8503
▁هیولا	-11.8513
فشار	-11.8518
▁فعل	-11.8519
▁مطهر	-11.8522
▁نوک	-11.8524
گشای	-11.8526
▁مزایا	-11.8537
▁دزد	-11.8538
سلطان	-11.8553
▁سیلی	-11.8554
▁جعفر	-11.856
کانس	-11.8564
▁قدیم	-11.8566
▁نمادها	-11.8572
نگاره	-11.8572
▁ادوار	-11.8574
▁نیاب	-11.8576
▁استادان	-11.8576
نفت	-11.8581
تقبل	-11.8581
▁کنارش	-11.8586
فاصل	-11.8588
▁۷۹	-11.8594
دیدار	-11.861
▁محدودی	-11.8614
هیج	-11.863
کلاس	-11.8639
▁مساعد	-11.8649
زره	-11.8668
شناسی	-11.8668
واح	-11.8674
رانه	-11.868
▁اشع	-11.8693
▁اسکا	-11.8695
▁اورگ	-11.8696
▁فرستادن	-11.8701
▁قضائی	-11.8706
▁معوق	-11.8709
▁مواج	-11.871
▁جد	-11.8713
▁بروی	-11.8714
▁رادیوی	-11.8715
۶۷	-11.8732
▁ماهر	-11.8734
▁جمل	-11.8747
▁محی	-11.8757
▁صفا	-11.8767
▁فشارها	-11.8768
ونته	-11.8784
فعال	-11.8784
چار	-11.8784
رودی	-11.8797
▁چاو	-11.8798
سک	-11.8803
نژاد	-11.8805
خصوص	-11.8805
الیز	-11.8807
عات	-11.8809
کلی	-11.8809
سپاس	-11.8811
حکم	-11.8814
والی	-11.8814
ربکا	-11.8815
انتخاب	-11.8816
دبیر	-11.8818
فاضل	-11.8819
دون	-11.882
بزرگ	-11.8821
اسحاق	-11.8822
قبض	-11.8823
صریح	-11.8825
تعجب	-11.8825
اضطراب	-11.8826
علنی	-11.8827
مناسبت	-11.8827
ابراهیم	-11.8827
منتقدان	-11.8827
قاسم	-11.8828
مطالع	-11.8828
پالایشگاه	-11.8828
رویترز	-11.8828
قسمت	-11.8828
سبز	-11.8828
لحظ	-11.8828
حذف	-11.8828
احتمال	-11.8828
جشنواره	-11.8828
صنعت	-11.8828
عملکرد	-11.8828
موضوع	-11.8828
شکایت	-11.8828
محدودیت	-11.8828
حمایت	-11.8828
جوایز	-11.8829
توافق	-11.8829
آزادی	-11.8829
کشورهای	-11.8829
جمهوری	-11.8829
پاسخ	-11.8829
سیستم	-11.8829
۲۰۲۰	-11.8829
تاریخ	-11.8829
فرهاد	-11.8829
فرمانده	-11.883
بازدید	-11.883
وضعیت	-11.8831
درحالی	-11.8832
سبد	-11.8833
فیفا	-11.8833
اتهامات	-11.8834
هموار	-11.8836
انتقالات	-11.8836
هجوم	-11.8838
مسئول	-11.884
اوپک	-11.8846
▁الف	-11.8846
گزا	-11.8846
اقدام	-11.8847
دنیل	-11.8855
▁۲۱۰	-11.8857
خطر	-11.8858
▁شهنا	-11.8861
ناتالی	-11.8863
▁فراخوان	-11.8865
مستند	-11.8867
عبدالله	-11.8868
بازارهای	-11.8869
باط	-11.8869
پیچ	-11.8872
شاپی	-11.8875
میلان	-11.8876
ادبی	-11.888
▁لح	-11.8884
مسابقه	-11.8886
▁اصولی	-11.8888
دریایی	-11.8889
▁آندریا	-11.8894
زندگی	-11.8903
مونت	-11.8904
درنا	-11.8914
کردن	-11.8915
▁کوما	-11.8931
▁لیپ	-11.8937
سترازنکا	-11.8937
ئیت	-11.8937
رگبار	-11.8942
▁مکالم	-11.8942
▁لغ	-11.8944
نازل	-11.8944
ساعت	-11.8947
صال	-11.8947
▁رونالد	-11.8949
رگامو	-11.895
▁عطا	-11.8951
▁کنسر	-11.8952
گوئه	-11.8954
تروئ	-11.8955
یونیسف	-11.8955
▁ابتذال	-11.8955
▁اتوبوس	-11.8955
▁اسکورسیزی	-11.8955
▁انحراف	-11.8955
▁اوزبیک	-11.8955
▁برافراشت	-11.8955
▁بنکدارپور	-11.8955
▁تشعشع	-11.8955
▁تکواندو	-11.8955
▁رادیواکتیو	-11.8955
▁سولیوان	-11.8955
▁مجارستان	-11.8955
▁مفاهیم	-11.8955
▁میزورام	-11.8955
▁ناپلئون	-11.8955
▁نباشند	-11.8955
▁چسباند	-11.8955
▁کوکائین	-11.8955
▁گنبد	-11.8955
▁باشکوه	-11.8955
▁بولونیا	-11.8955
▁بیندازد	-11.8955
▁تمایز	-11.8955
▁سخاوتمند	-11.8955
▁نپذیرفت	-11.8955
▁نکشید	-11.8955
▁کارائیب	-11.8955
▁کاریکاتور	-11.8955
▁کوواکس	-11.8955
▁بلانشت	-11.8955
▁عنابستانی	-11.8955
▁قعر	-11.8955
▁هیدروژن	-11.8955
▁۲۰۳۵	-11.8955
▁حروف	-11.8955
▁میکروسکوپ	-11.8955
▁هورمون	-11.8955
▁وبلاگ	-11.8955
الشهدا	-11.8955
خجالت	-11.8955
▁مارگاریتا	-11.8955
▁پرتوافشانی	-11.8955
▁وسعت	-11.8955
▁عبدالرحم	-11.8955
▁ملموس	-11.8955
▁پغمان	-11.8955
▁فرمانروای	-11.8955
▁بپرسید	-11.8955
▁واعظ	-11.8955
▁چندرایان	-11.8955
▁بیضایی	-11.8955
▁غزنوی	-11.8955
▁کابوس	-11.8955
▁ویولن	-11.8955
▁تراشید	-11.8955
▁ذوالنور	-11.8955
▁مشهود	-11.8955
▁دلسوز	-11.8955
▁فکاهی	-11.8955
▁گوترش	-11.8955
▁چسبی	-11.8955
▁بیانجامد	-11.8955
▁تجسس	-11.8955
▁فلاکت	-11.8955
▁مجلل	-11.8955
▁الجز	-11.8955
▁بشود	-11.8955
▁بکشم	-11.8955
▁سرامیک	-11.8955
▁لرزاند	-11.8955
▁ماهرویان	-11.8955
▁تنگاتنگ	-11.8955
▁گلیزر	-11.8955
▁حصبه	-11.8955
▁نکونام	-11.8955
ماگال	-11.8955
▁اصغر	-11.8955
▁صربستان	-11.8955
▁سرلشکر	-11.8955
▁آپوف	-11.8955
▁جادوگر	-11.8956
▁آستین	-11.8956
▁فونینی	-11.8956
▁مادربزرگ	-11.8956
▁لاستیک	-11.8956
▁دشتکی	-11.8956
▁تظاهرکنندگان	-11.8956
▁سیرجان	-11.8956
▁منفعت	-11.8956
▁هیوستون	-11.8957
▁غمگین	-11.8957
▁بلندپایه	-11.8957
▁شنوند	-11.8957
دخای	-11.8957
▁پترولی	-11.8957
▁همفکر	-11.8957
▁گوریل	-11.8957
ورلد	-11.8957
▁بازگرد	-11.8958
▁لطیفی	-11.8958
▁تخار	-11.8958
▁بمیرد	-11.8958
▁مغایر	-11.8958
▁ظالمانه	-11.8958
▁هنگفت	-11.8959
▁دلنشین	-11.8959
▁بیایند	-11.8959
▁بهائی	-11.8959
سوار	-11.8959
▁بکاهند	-11.8959
▁بارچا	-11.896
▁چرن	-11.896
▁هادرون	-11.896
▁لرد	-11.896
▁تمجید	-11.896
▁مجزا	-11.896
▁امپر	-11.896
▁آسود	-11.896
▁شاکی	-11.8961
▁چرم	-11.8961
▁قرآن	-11.8962
▁عزا	-11.8962
ریحان	-11.8962
▁بگوید	-11.8962
▁توفندها	-11.8963
▁آوینی	-11.8963
▁شکوه	-11.8963
▁کوپر	-11.8963
▁گاف	-11.8964
دنبال	-11.8964
▁۷۶۰	-11.8964
میخ	-11.8965
▁لارن	-11.8965
▁هنکس	-11.8966
▁هندرسون	-11.8966
ناگلزم	-11.8966
▁مکالمات	-11.8967
▁زید	-11.8967
▁گیج	-11.8967
▁ستود	-11.8968
▁امپرا	-11.8968
▁شایان	-11.8968
▁روانچی	-11.8968
▁شمع	-11.8968
ذاب	-11.8968
▁وانگ	-11.8969
▁حشرات	-11.897
▁عوا	-11.8971
متاز	-11.8972
▁حض	-11.8972
▁راجپوت	-11.8972
▁قیصر	-11.8972
▁لافرته	-11.8972
▁هافکین	-11.8972
▁آتلانت	-11.8972
▁ناشده	-11.8972
▁خلبان	-11.8972
نشأ	-11.8973
▁مستعد	-11.8973
انطب	-11.8973
اطع	-11.8973
▁تابع	-11.8973
▁سرپوش	-11.8974
▁جهنم	-11.8975
▁بارکلی	-11.8976
▁حماس	-11.8977
▁دانید	-11.8977
▁زیباست	-11.8977
رانگ	-11.8977
▁مولد	-11.8978
▁راسخ	-11.8978
▁قلمرو	-11.898
جماع	-11.898
▁آبراه	-11.898
▁لنز	-11.8981
▁کاردوس	-11.8983
▁لاهه	-11.8984
عطوف	-11.8984
▁بدیع	-11.8984
مختار	-11.8984
▁نصی	-11.8985
▁تراژ	-11.8985
▁کاترین	-11.8988
▁جویا	-11.899
▁سفیدپوستان	-11.899
▁اژدها	-11.899
▁درخشد	-11.8991
▁اتومات	-11.8993
▁همدان	-11.8994
امد	-11.8994
▁ویدئوهای	-11.8997
▁خویشتن	-11.9
▁بشنوید	-11.9002
▁گیلبرت	-11.9002
▁الزاما	-11.9004
▁زادروز	-11.9005
▁فاکس	-11.9006
▁سلیق	-11.9007
▁رسیم	-11.9007
▁پرفسور	-11.901
▁اخطارهای	-11.9013
▁کاپل	-11.9014
▁تعرض	-11.9015
▁هنک	-11.9017
▁گپ	-11.9017
▁گاردن	-11.9018
▁شجاعت	-11.9018
▁پاور	-11.9019
▁ژرف	-11.902
▁ژر	-11.9021
▁بلوم	-11.9021
▁خورند	-11.9022
رساز	-11.9022
▁مختصر	-11.9023
اسیرو	-11.9024
▁یوهان	-11.9025
یلیچ	-11.9025
▁شوش	-11.9026
▁آتن	-11.9026
فذ	-11.9027
قطع	-11.903
▁درخشند	-11.9031
▁ویرانگر	-11.9032
گروهی	-11.9033
▁ندادند	-11.9034
▁قامت	-11.9035
▁توسل	-11.9036
سترون	-11.9041
تالیا	-11.9041
▁برنج	-11.9045
▁اسید	-11.9047
▁چغا	-11.9048
▁سکوها	-11.905
▁ترکمان	-11.905
▁یزدان	-11.9051
▁کروات	-11.9052
▁مرج	-11.9054
غما	-11.9055
▁حسگرها	-11.906
▁کاتل	-11.9061
یناتور	-11.9061
▁کورین	-11.9062
▁متال	-11.9063
▁افشاگر	-11.9063
▁فوب	-11.9064
▁لوپ	-11.9064
▁توانمند	-11.9065
۹۶	-11.9066
▁متاسفم	-11.9067
▁پرتلا	-11.9068
▁بکار	-11.9068
▁کساد	-11.9069
▁ساندر	-11.9072
▁دولتها	-11.9072
لژی	-11.9073
ایف	-11.9079
▁افزارهای	-11.9082
مشق	-11.9082
▁گوستا	-11.9086
▁تردیدهای	-11.9086
▁مطمئنا	-11.9091
بندند	-11.9094
▁نگا	-11.9096
▁ربکا	-11.9097
وشن	-11.9099
▁کریر	-11.9105
▁مجاور	-11.9112
▁چرخید	-11.9112
تضی	-11.9113
آقازاده	-11.9117
▁بلاتکلیفی	-11.9118
▁نوپا	-11.9124
ادل	-11.9129
▁راهکارهای	-11.9129
▁اکل	-11.9135
▁نگو	-11.9136
▁لینک	-11.914
خشنود	-11.9149
▁ایستادند	-11.9149
موت	-11.9153
▁جانباز	-11.9154
حریف	-11.9156
▁خوشایند	-11.916
ستراز	-11.9161
▁آغازکرد	-11.9169
وما	-11.9171
▁کارآمد	-11.9172
▁اقسا	-11.9172
▁بکت	-11.9173
۶۸	-11.9175
▁دوهزار	-11.9177
عود	-11.9178
▁گنجان	-11.9178
▁روبین	-11.9178
▁گیران	-11.9181
▁خطاط	-11.9185
▁جهانبخ	-11.9196
▁نظ	-11.9199
▁لوور	-11.92
▁پشتکار	-11.9201
▁کنگو	-11.9201
▁نع	-11.9204
▁آورم	-11.9204
▁گوا	-11.9206
▁ایگ	-11.9209
▁دیو	-11.9215
▁حک	-11.9216
▁میرود	-11.9218
▁بوت	-11.9222
▁جوانا	-11.9224
یلیون	-11.9225
▁نجومی	-11.9225
۳۳	-11.9226
▁سخ	-11.9229
▁دوبل	-11.9235
اتح	-11.9236
▁تاجیکان	-11.9237
نالد	-11.924
▁بندهای	-11.9241
▁فعالیتش	-11.9242
▁مواجهند	-11.9245
▁چکهای	-11.925
▁مجتب	-11.9251
▁بستگان	-11.9255
نجره	-11.926
▁طر	-11.9264
تعدد	-11.9269
▁خصوصیات	-11.9277
▁نظرش	-11.9284
▁کریستین	-11.9285
چهل	-11.9285
قوی	-11.9298
▁تعبی	-11.9301
ملی	-11.9312
▁پي	-11.9315
▁قوز	-11.9317
مگان	-11.9323
وستون	-11.9324
دستان	-11.9326
▁قمر	-11.9327
▁لئو	-11.9328
▁لمب	-11.933
▁تهدیدات	-11.9331
▁تجسمی	-11.9335
▁راوی	-11.9344
گردانی	-11.9346
سوری	-11.935
▁پیل	-11.9369
▁افکند	-11.9396
۱۹۶۴	-11.9398
▁نایت	-11.94
▁پش	-11.9406
▁همپ	-11.9408
▁العم	-11.9409
▁خاو	-11.9417
صیر	-11.9428
سیما	-11.9434
▁آسم	-11.9435
▁دلم	-11.944
▁سیمین	-11.9441
▁ساچ	-11.9444
▁شیرینی	-11.9446
▁بلندپروازی	-11.9446
▁دلجو	-11.9448
وستان	-11.9452
▁بلندهای	-11.9453
يان	-11.9462
▁تپند	-11.9462
تینگ	-11.9468
▁سالمند	-11.9476
▁اندرو	-11.9485
▁دیرین	-11.9486
▁ازد	-11.9489
▁کاو	-11.949
▁کیش	-11.949
▁هایپر	-11.9493
هرزاد	-11.9495
بهترین	-11.9495
▁۱۳۱	-11.9501
▁تاثیرات	-11.9511
اهید	-11.9511
انچین	-11.9516
▁لوس	-11.9518
رها	-11.9527
▁یادش	-11.9533
▁کوبی	-11.9538
▁رکس	-11.9547
▁رقیبان	-11.9556
▁بازگشتند	-11.9563
اردی	-11.9568
فات	-11.9572
شدیدترین	-11.9578
▁بنت	-11.958
▁هوک	-11.958
شیتز	-11.9582
پولیس	-11.9584
▁ترکمن	-11.9585
▁مشخصا	-11.9591
▁یولیا	-11.9592
▁نبودن	-11.9601
▁کلیت	-11.9605
اعت	-11.9627
▁بنین	-11.9628
▁وکا	-11.9632
▁ثق	-11.9638
ناتان	-11.9643
خونی	-11.9654
▁سکوی	-11.9659
موتو	-11.9666
▁غیرمت	-11.9667
▁بستند	-11.9671
▁حریری	-11.9673
▁نشستن	-11.9684
▁فار	-11.9689
وکس	-11.9695
▁لاین	-11.9695
▁ساختند	-11.9706
▁استوار	-11.9731
میرا	-11.9733
تفکر	-11.9761
▁برآورده	-11.9773
▁جورجی	-11.9785
▁فرحی	-11.9788
ارگ	-11.9791
▁هاروی	-11.9794
سنج	-11.9795
سید	-11.9804
وانیم	-11.9841
▁رادو	-11.9845
نترل	-11.9848
ساعد	-11.9853
▁حالش	-11.9858
ندر	-11.9862
▁شو	-11.9883
ماگو	-11.9886
▁نزدیکانش	-11.9888
چنین	-11.9891
▁دلو	-11.9898
▁بیکاران	-11.991
نتن	-11.9917
▁سوزاند	-11.9935
▁عر	-11.9937
▁امضاکنند	-11.9941
جران	-11.9942
▁شکستند	-11.9951
▁بایستی	-11.9958
▁گرون	-11.9959
▁افشاری	-11.9976
▁لیلا	-11.9978
گرفتن	-11.9983
آلات	-12.0017
زاق	-12.0017
ائوس	-12.0018
پایه	-12.0032
باسی	-12.0032
▁سبزی	-12.0035
الف	-12.0043
پروم	-12.0048
▁مزا	-12.0049
▁رید	-12.0055
باند	-12.0059
▁ایندی	-12.006
ناپس	-12.0063
▁ندی	-12.0075
▁کیپ	-12.0087
▁اورک	-12.0089
▁شغلها	-12.0098
▁بدو	-12.0111
بندی	-12.0116
▁تدا	-12.0133
▁رویز	-12.0136
ندنی	-12.0138
▁جوری	-12.0144
▁سالروز	-12.0151
▁شیب	-12.0159
▁مارین	-12.0165
۵۳	-12.0174
یکپا	-12.0175
▁دوسال	-12.0185
▁پرداختن	-12.0193
اسکا	-12.0195
▁جودوکا	-12.0197
روژان	-12.0208
▁عدل	-12.0216
اپور	-12.0234
منان	-12.0235
وئر	-12.0259
▁نروژی	-12.0267
جور	-12.0269
▁تونسی	-12.0277
روث	-12.0295
گردانده	-12.0303
▁گرو	-12.0303
▁چیپ	-12.0309
زنان	-12.0358
تروف	-12.0372
▁سیت	-12.0383
▁روبا	-12.0396
▁باج	-12.0397
تمامی	-12.0428
▁السی	-12.0429
ربین	-12.0429
▁اوس	-12.0432
خاطره	-12.0442
تعلل	-12.0455
گسترد	-12.0456
کیا	-12.0463
▁۱۲۵	-12.0497
▁میخ	-12.0509
▁نش	-12.0513
▁مخاط	-12.0535
▁مصا	-12.0536
▁شاهدان	-12.0537
▁کورس	-12.0541
▁کاپ	-12.0551
▁کارند	-12.0572
وپول	-12.0572
▁دریابا	-12.0579
▁ناگ	-12.0587
▁الری	-12.0595
اتیو	-12.0606
▁اخت	-12.0625
▁تحرکی	-12.0646
▁گفتار	-12.0647
▁نیوت	-12.0653
▁بلیک	-12.0668
▁بیک	-12.0679
▁ادینبور	-12.0717
▁نیاورده	-12.0718
تول	-12.0722
درهای	-12.0729
استین	-12.0738
سیل	-12.0744
▁نیرومند	-12.0744
▁دلخو	-12.0746
انسون	-12.0761
فاق	-12.0777
رمان	-12.0791
پرای	-12.0802
▁فلم	-12.0846
▁نرسیدن	-12.0854
ارشی	-12.0864
ارپنت	-12.0865
▁چسبن	-12.0866
▁هجده	-12.0878
▁کیک	-12.0885
جاسوسی	-12.0904
▁دویدن	-12.0911
ایان	-12.0927
▁آموختن	-12.0927
غدی	-12.0946
▁نائ	-12.0961
حضرت	-12.0972
▁عبد	-12.0979
▁بوین	-12.0982
بندها	-12.0983
▁تجسم	-12.0991
▁دوور	-12.0998
▁متو	-12.1009
▁هوشیار	-12.1017
ارجه	-12.1028
▁سوکا	-12.1032
▁بعض	-12.1034
▁سخنگو	-12.1036
ختی	-12.1043
ذا	-12.1049
گستر	-12.1054
رژ	-12.1056
▁سلیمان	-12.1076
▁ساسان	-12.1081
▁تروریست	-12.1094
▁آلم	-12.1114
▁انع	-12.1119
▁نوزده	-12.1124
بورک	-12.1128
▁دستمزدها	-12.1135
▁۱۲۶	-12.1142
▁۱۱۹	-12.117
▁امیل	-12.1171
▁نواخت	-12.1173
اویر	-12.1175
▁کوتاهتر	-12.1175
▁الاه	-12.1175
کمه	-12.118
▁فاین	-12.1181
لار	-12.1189
▁نگذاشت	-12.1189
▁کاش	-12.119
دارا	-12.1193
▁ورا	-12.1211
▁پیشگیر	-12.1212
▁پاشید	-12.122
رویا	-12.1224
گمش	-12.1232
خارج	-12.1236
لع	-12.1237
▁سناریو	-12.1241
اجرای	-12.1245
روسیا	-12.1246
ریوس	-12.1249
▁طاه	-12.125
▁الگو	-12.1275
لیان	-12.1276
نتس	-12.1278
خبرنگار	-12.1279
سپاه	-12.1281
نهادهای	-12.1304
صمد	-12.1313
اعتراض	-12.1315
تحقیق	-12.1316
گوش	-12.1317
صرب	-12.1319
تناقض	-12.1321
پادمان	-12.1322
بالگرد	-12.1324
اندرو	-12.1324
لاپورتا	-12.1324
جمشید	-12.1324
تحرک	-12.1325
آرامکو	-12.1325
تفاهم	-12.1326
همیلتون	-12.1326
روبرت	-12.1326
پیرلو	-12.1326
برابر	-12.1326
سناتور	-12.1327
توماس	-12.1327
مهندس	-12.1327
وبسایت	-12.1327
کنگره	-12.1327
خاوران	-12.1327
مسعود	-12.1327
سرپرست	-12.1328
اتفاقات	-12.1328
منتظر	-12.1328
یوونتوس	-12.1328
برزیل	-12.1328
تیراندازی	-12.1328
حاشیه	-12.1328
تخریب	-12.1328
چاق	-12.1328
رئال	-12.1328
فضای	-12.1328
اسرائیل	-12.1328
خروج	-12.1328
مشاور	-12.1328
صادرات	-12.1329
فولک	-12.1329
نویسندگان	-12.1329
صعود	-12.1329
آزمایش	-12.1329
تصور	-12.1329
ترکیب	-12.1329
قرنطینه	-12.1329
افراد	-12.1329
▁فون	-12.1329
خواننده	-12.133
جیمز	-12.133
میلیارد	-12.133
ایلنا	-12.133
مدیرکل	-12.133
خدم	-12.133
رکود	-12.1331
نوسان	-12.1331
چاپ	-12.1332
کاملا	-12.1333
پرونده	-12.1333
درآمد	-12.1335
پیر	-12.1335
حقوق	-12.1335
داریوش	-12.1335
احسا	-12.1336
سازنده	-12.1336
ذخا	-12.1336
فعالیت	-12.1337
قرارداد	-12.1338
ناسا	-12.1338
راکت	-12.1338
مکرون	-12.1338
ضمن	-12.1338
کیهان	-12.1339
پشت	-12.134
امارات	-12.1341
کتاب	-12.1342
سینما	-12.135
حکمت	-12.1354
مرور	-12.1355
باخ	-12.1355
▁مبنا	-12.1356
بدهی	-12.1356
نژادپرست	-12.1356
بیماری	-12.1358
نشری	-12.1361
مصرف	-12.1362
طالبان	-12.1362
سیمون	-12.1362
پهن	-12.1364
▁مختص	-12.1368
قبلا	-12.1372
▁۳۸۰	-12.1373
ناوگان	-12.1377
جلس	-12.1379
کشف	-12.1381
سورها	-12.1383
امشب	-12.1384
دستور	-12.1385
واقعیت	-12.1386
موارد	-12.1387
▁بهم	-12.1389
▁هیو	-12.1391
اسنو	-12.1392
رییس	-12.1397
یامده	-12.14
حک	-12.1402
ورود	-12.1403
تقی	-12.1403
اسکار	-12.1405
▁هشدارها	-12.1405
▁پابرجا	-12.1407
▁فلامینگو	-12.1408
وقف	-12.141
▁همسایگ	-12.1411
قول	-12.1413
مردم	-12.1414
▁ساق	-12.1415
سانسور	-12.1423
قایق	-12.1425
لوگ	-12.1426
هفتم	-12.1427
تعدادی	-12.1428
هلن	-12.1429
▁زحم	-12.1429
يش	-12.143
لیگا	-12.143
▁آپار	-12.143
▁سفیدپوست	-12.1432
پینو	-12.1433
▁هموطن	-12.1433
▁مستع	-12.1434
جنگ	-12.1435
▁داستا	-12.1439
زیستی	-12.1439
واضع	-12.144
▁ترفند	-12.144
مردان	-12.1442
▁تظاهر	-12.1442
▁مطبوع	-12.1443
▁جولیا	-12.1443
شکست	-12.1444
ئیل	-12.1444
سیاست	-12.1445
عاش	-12.1445
▁گرافی	-12.145
زلزل	-12.1451
▁کوئ	-12.1452
طابق	-12.1452
▁وسای	-12.1453
موکورمایکوزیس	-12.1455
▁اورشلیم	-12.1455
▁اوگوپوگو	-12.1455
▁ترائوره	-12.1455
▁تمسخر	-12.1455
▁خاستگاه	-12.1455
▁سوراخ	-12.1455
▁غیاث	-12.1455
▁فانخیو	-12.1455
▁فیزیولوژی	-12.1455
▁متعاقب	-12.1455
▁متقلب	-12.1455
▁منسجم	-12.1455
▁ننگرهار	-12.1455
▁ولاسکز	-12.1455
▁پرسورینس	-12.1455
▁پورنوگرافی	-12.1455
▁گوسفند	-12.1455
▁الارض	-12.1455
▁انهدام	-12.1455
▁اکونومی	-12.1455
▁بشنوند	-12.1455
▁سينما	-12.1455
▁فیزیوتراپ	-12.1455
▁قزوین	-12.1455
▁منحنی	-12.1455
▁گلاسگو	-12.1455
▁اوقاف	-12.1455
▁عنایت	-12.1455
▁قیراط	-12.1455
▁محتکر	-12.1455
▁ناظمی	-12.1455
▁کاسموس	-12.1455
▁خویشاوند	-12.1455
معجزه	-12.1455
▁فورهند	-12.1455
▁هزارتومان	-12.1455
▁همجوار	-12.1455
▁شیطان	-12.1455
▁شرمسار	-12.1455
▁برسانیم	-12.1455
▁نگیرد	-12.1455
▁صحافی	-12.1455
▁گدوت	-12.1455
▁نقیض	-12.1455
▁بگریز	-12.1455
▁ضرغام	-12.1455
▁ببینم	-12.1455
▁عبادی	-12.1455
▁کربلا	-12.1455
▁بازکنند	-12.1455
▁تشابه	-12.1455
▁نوترینو	-12.1455
▁مقاطع	-12.1455
▁تمهید	-12.1455
▁بکنند	-12.1455
▁طومار	-12.1455
▁نرساند	-12.1455
▁گمپرت	-12.1455
▁درآید	-12.1455
▁فرخزاد	-12.1455
▁وجدان	-12.1455
▁بیفتند	-12.1455
▁نحس	-12.1455
▁بازدارند	-12.1455
▁ارنست	-12.1455
▁بانکوک	-12.1455
▁برلیناله	-12.1455
▁حصار	-12.1455
ستراح	-12.1455
▁تایوان	-12.1455
▁پاندمی	-12.1455
▁پرسنل	-12.1455
▁فراهانی	-12.1455
▁سیلیکون	-12.1455
▁جماعت	-12.1455
▁همینگوی	-12.1456
▁میکردند	-12.1456
▁فواید	-12.1456
▁تسخیر	-12.1456
▁نخاع	-12.1456
▁آژیر	-12.1456
▁برنگرداند	-12.1456
▁دلهره	-12.1456
▁الاجرا	-12.1456
▁مزیت	-12.1456
▁کالینز	-12.1456
▁کاتال	-12.1456
▁بفرستد	-12.1456
رقیق	-12.1456
حشمت	-12.1456
▁خمیس	-12.1456
مسلم	-12.1457
▁الاصل	-12.1457
▁علیشاهی	-12.1457
▁ریتم	-12.1457
▁اسکلت	-12.1457
▁سمنزا	-12.1457
ندگرن	-12.1457
▁غذاخور	-12.1458
▁ستیزانه	-12.1458
▁ایرویز	-12.1458
▁هیلتون	-12.1458
▁فروزان	-12.1458
▁آنچنان	-12.1459
▁فرازمینی	-12.1459
▁خائ	-12.1459
▁یدک	-12.1459
▁زراعت	-12.1459
▁نشناخت	-12.1459
▁شئون	-12.1459
▁ناخشنود	-12.1459
▁مکوندی	-12.1459
▁فیض	-12.1459
▁سرمنشا	-12.1459
▁افراط	-12.146
▁سیندمی	-12.146
یچک	-12.146
▁بیاییم	-12.146
▁دامغان	-12.1461
▁بخواهند	-12.1461
▁مذا	-12.1461
آنگولا	-12.1461
▁تقلی	-12.1461
هالیفیلد	-12.1461
▁نثر	-12.1461
▁انعکاس	-12.1461
▁الفبا	-12.1461
▁ویسکانس	-12.1461
▁آغا	-12.1462
▁ربع	-12.1462
▁صداقت	-12.1462
▁مترمکعب	-12.1462
نعیم	-12.1462
▁خص	-12.1462
▁کوئینز	-12.1462
▁مشکاتیان	-12.1462
▁نویدبخش	-12.1463
▁کوپا	-12.1463
▁فاضلاب	-12.1464
▁بسپارد	-12.1464
▁کالینگ	-12.1465
▁همجنسگرا	-12.1465
▁لرزید	-12.1465
ساتبی	-12.1466
▁نیفت	-12.1466
▁مرندی	-12.1466
▁۶۱۲	-12.1466
▁معابد	-12.1466
▁نرود	-12.1467
▁ونچ	-12.1467
▁رحیمی	-12.1467
▁برازند	-12.1468
▁بخوانند	-12.1468
▁واپس	-12.1469
▁کلکسیون	-12.1469
▁الگوهای	-12.1469
▁معصوم	-12.1469
▁آغ	-12.147
▁ملوان	-12.147
سرع	-12.147
▁چون	-12.147
▁شمرد	-12.147
▁چریک	-12.1471
▁غزل	-12.1471
▁ویلسون	-12.1471
▁صنا	-12.1472
▁جملات	-12.1472
ریکو	-12.1472
▁شهباز	-12.1472
▁مرموز	-12.1473
ارنوک	-12.1473
▁محک	-12.1474
▁سوفی	-12.1474
▁ونگر	-12.1474
▁سنجاب	-12.1475
▁مولایی	-12.1475
▁بادام	-12.1476
▁۵۵۶	-12.1476
▁بازنش	-12.1476
انجیر	-12.1476
▁تنبل	-12.1476
▁پرشک	-12.1477
▁بازوهای	-12.1478
▁۲۴۰	-12.1478
▁هنرپیشگ	-12.1479
▁بامیه	-12.1479
▁هولو	-12.148
▁فرشید	-12.148
خضر	-12.148
▁قبایل	-12.1481
▁پالیس	-12.1481
شاهزاد	-12.1482
▁بوفالوران	-12.1482
ارزپاشی	-12.1482
▁سحرگاه	-12.1483
▁بیولوژی	-12.1483
▁۶۳۰	-12.1483
▁خونبار	-12.1486
▁آرسن	-12.1486
▁مفتو	-12.1487
▁انرو	-12.1488
▁لج	-12.1488
▁پوسترهای	-12.1489
▁ذوال	-12.149
▁خرابکارانه	-12.149
▁پرمخاط	-12.1491
غذی	-12.1492
▁مبد	-12.1492
▁اوصاف	-12.1492
▁ایفل	-12.1492
مرح	-12.1494
ورال	-12.1494
ولاتش	-12.1495
▁جنایات	-12.1496
شاملو	-12.1498
▁۲۳۹	-12.1499
▁پرگا	-12.1499
▁ویسل	-12.1499
▁هموطنان	-12.1501
▁روزافزون	-12.1502
▁جویانه	-12.1503
▁زیربنا	-12.1504
لومین	-12.1505
▁والتر	-12.1506
▁نیکو	-12.1506
▁رافا	-12.1507
سایر	-12.1507
فال	-12.1507
مدیران	-12.151
▁بدهم	-12.1513
▁ابول	-12.1513
▁شاخک	-12.1513
کبیر	-12.1514
▁منکین	-12.1515
▁وارث	-12.1515
ریعت	-12.1521
▁سندگرن	-12.1523
▁سواد	-12.1525
▁آمری	-12.1527
▁فالک	-12.1528
تاگون	-12.1529
▁فض	-12.1531
▁مگو	-12.1532
▁فوتسی	-12.1532
▁خوابگاه	-12.1533
▁مطیعی	-12.1533
فلورای	-12.1534
▁۲۴۸	-12.1535
مداری	-12.1536
شهرت	-12.1541
▁دیوارنگار	-12.1541
▁دردسرهای	-12.1544
شواری	-12.1557
▁بیکارشد	-12.1557
▁بنفش	-12.1559
▁کارولین	-12.1562
▁معلمان	-12.1565
▁مگنو	-12.1565
▁دالان	-12.1569
▁۱۵۵	-12.157
▁شرو	-12.1572
▁۱۲۲	-12.1575
▁ایدز	-12.1578
▁کتابخوان	-12.1578
▁کوئین	-12.1578
▁نامند	-12.1579
ربط	-12.1579
پرت	-12.1581
▁مرمر	-12.1581
وردی	-12.1582
پایان	-12.1583
يران	-12.1584
▁میانجی	-12.1586
▁ریتر	-12.1587
کولی	-12.1588
▁راهکار	-12.1592
انسان	-12.1593
▁محبت	-12.1593
▁ماجراجوی	-12.1595
▁دستیاران	-12.1596
▁آندریاس	-12.1597
▁درصورت	-12.1598
▁صمد	-12.1601
▁معترضین	-12.1603
▁دیدگ	-12.1605
نادر	-12.1606
▁درمانگاه	-12.1607
▁برسیم	-12.1609
▁لع	-12.1611
▁بدق	-12.1612
▁ازآن	-12.1614
گاتی	-12.1616
▁طلاق	-12.1619
▁فلسطینی	-12.1626
طغ	-12.1627
▁چهارصد	-12.1627
▁دزدید	-12.1629
دلب	-12.1632
▁گذراندم	-12.1633
▁کشیم	-12.1635
▁کلاسیکو	-12.1638
▁شنیدنش	-12.1638
قاد	-12.1641
▁کشمیر	-12.1641
▁اوتار	-12.1652
▁وایت	-12.1655
▁برچید	-12.1658
▁دانل	-12.1662
یابد	-12.1665
▁غفاری	-12.1671
اردونا	-12.1671
▁آبیار	-12.1673
▁۲۰۷	-12.168
▁ماجراهای	-12.168
▁مخالفند	-12.1681
▁شنید	-12.1687
▁بریز	-12.1688
▁ترسند	-12.1688
▁دز	-12.1688
برمی	-12.1689
▁والن	-12.169
ماجد	-12.1692
▁محرومند	-12.1692
▁متب	-12.1693
▁کارول	-12.1704
▁آریا	-12.1706
رضی	-12.1706
▁پذیرد	-12.171
▁بخوان	-12.171
ریاست	-12.1711
▁گود	-12.1713
▁عس	-12.1724
▁سیلوا	-12.173
▁فتو	-12.1733
▁آمل	-12.1733
عاده	-12.1743
▁پاشیده	-12.1745
▁آورید	-12.1748
▁فراوانش	-12.1762
هرام	-12.1764
فشان	-12.1764
▁شال	-12.1767
▁ابط	-12.1769
▁برگشتند	-12.1769
▁سپاس	-12.1774
طم	-12.1781
رمو	-12.1795
وارت	-12.181
عد	-12.1819
▁مورخ	-12.182
▁سوزان	-12.182
سود	-12.1821
▁جوانب	-12.1822
▁آنف	-12.1829
مانند	-12.1834
▁فرگوس	-12.1836
وادور	-12.184
▁جهاندار	-12.1851
▁پژوهشهای	-12.1866
دیده	-12.187
▁ترسم	-12.1872
▁خوردند	-12.1876
▁احرا	-12.1885
چشمه	-12.1888
▁السلط	-12.1898
▁نیستید	-12.1902
▁درسا	-12.1909
انستان	-12.1911
▁طبقات	-12.1916
▁چپگرای	-12.1923
▁والد	-12.1931
▁پرور	-12.1931
▁فرمین	-12.1934
وستا	-12.1938
▁روست	-12.1945
▁زاها	-12.1959
ارو	-12.1959
▁ناخ	-12.1961
پرستانه	-12.1962
▁بمان	-12.1967
▁افتادند	-12.1968
▁فرودست	-12.1972
▁آسایش	-12.1982
روزهای	-12.2001
▁بایس	-12.2002
مغان	-12.2003
▁پارو	-12.2008
▁تاس	-12.2018
▁جده	-12.2023
خاش	-12.2027
▁ویچ	-12.2032
▁نشدم	-12.2037
▁فریم	-12.204
▁حاکمان	-12.2052
رام	-12.207
▁راهور	-12.2075
▁درسال	-12.2076
فسر	-12.2077
شمن	-12.2085
▁کانا	-12.2087
▁ني	-12.2092
▁اینج	-12.2102
▁سلیم	-12.2106
▁کشا	-12.2118
▁قبرها	-12.2124
عم	-12.2132
دوره	-12.2139
▁فرزان	-12.2148
وثر	-12.2153
▁نقاشان	-12.2157
▁پولدار	-12.2158
بیت	-12.2165
وچی	-12.2168
▁گزی	-12.2217
▁مونت	-12.2225
شرف	-12.225
▁ارغ	-12.2251
نداشته	-12.2256
▁شورشی	-12.2262
▁استانداردها	-12.2268
نشینان	-12.2274
▁شناختند	-12.228
▁شیرها	-12.2286
ورهم	-12.2292
▁نوارها	-12.2298
جویی	-12.2306
واز	-12.2308
▁قنا	-12.2311
مینا	-12.2316
بساط	-12.2328
هشتم	-12.2335
▁معای	-12.2363
▁وجوه	-12.2377
پات	-12.2381
▁حقوقدان	-12.2382
▁غای	-12.2388
رنوش	-12.2398
▁لارو	-12.2414
▁جرو	-12.2419
ریکا	-12.2438
اکبری	-12.2455
▁خطرهای	-12.2478
▁انگیزش	-12.2483
▁ث	-12.2484
▁ترها	-12.2485
گردها	-12.2485
▁لوب	-12.2486
ضراب	-12.2489
سکار	-12.2489
▁جووان	-12.2493
▁نبی	-12.2524
▁وظایفش	-12.2537
انزی	-12.2551
▁آلیس	-12.256
▁استعماری	-12.2575
▁ایرانسل	-12.2593
▁فروشد	-12.2607
▁آمو	-12.2623
شناخت	-12.2643
▁گرداند	-12.2647
▁پلات	-12.2699
▁ریچ	-12.271
شستن	-12.2733
الیات	-12.2739
آم	-12.2743
بریج	-12.2754
▁لایک	-12.2772
▁برجست	-12.2793
۴۳	-12.2827
انیو	-12.2846
▁استانهای	-12.2878
▁۱۳۸۶	-12.2898
▁نها	-12.2937
▁پترو	-12.2947
▁بدنساز	-12.2957
▁۱۸۴	-12.2962
یکایی	-12.2969
▁چت	-12.2973
گارد	-12.2975
▁رزمند	-12.2987
▁ورش	-12.3014
کریک	-12.3036
▁نفربر	-12.3048
▁لاپ	-12.3075
کانا	-12.3103
سرگ	-12.3115
چفرین	-12.3122
ابو	-12.3142
والد	-12.3153
▁اینست	-12.3176
الیس	-12.3181
اصل	-12.3191
▁آق	-12.3231
▁گذرا	-12.324
▁خف	-12.3247
تعادل	-12.3247
نخ	-12.326
▁تغییرهای	-12.3275
لنگر	-12.3285
▁فران	-12.3323
▁ماهیان	-12.3381
انزلی	-12.3389
▁پرستاره	-12.3397
کسوت	-12.3417
وگند	-12.3466
وجه	-12.3493
▁رکن	-12.3494
▁مارسل	-12.3522
▁رک	-12.3542
▁جیو	-12.3574
۳۲	-12.3638
▁شراب	-12.3664
ارگردان	-12.37
▁پارسا	-12.3711
▁سوک	-12.3712
رنجر	-12.372
سالگی	-12.3757
▁گلشی	-12.377
ونما	-12.3842
فکر	-12.3856
وانا	-12.3892
▁صمیم	-12.3894
▁رزو	-12.3895
بدیل	-12.3934
▁سمن	-12.3935
▁غو	-12.3966
نورد	-12.3985
فورا	-12.4024
▁بسا	-12.4024
خواهند	-12.4027
▁نرفتن	-12.4032
زستان	-12.4046
وض	-12.4067
راحتی	-12.4084
▁رویاها	-12.4091
ارتوم	-12.4103
عرض	-12.4105
رزمی	-12.4142
دروس	-12.4158
▁استروئید	-12.4178
▁دشوارتر	-12.419
زکی	-12.4203
▁قراداد	-12.423
▁ارتد	-12.4236
قانون	-12.4241
▁مارکان	-12.4242
▁تویی	-12.4247
سنا	-12.4282
قاب	-12.4313
▁چپگرا	-12.4318
▁رقبا	-12.4338
▁۱۵۱	-12.435
▁وکلا	-12.4351
▁پناهجو	-12.4354
▁شوخ	-12.4355
▁نجوم	-12.4358
▁محتوا	-12.4361
نگران	-12.4364
▁تیرانداز	-12.4366
چو	-12.4374
ضیا	-12.4376
داگ	-12.4377
▁اظهارنظرها	-12.438
▁نیافتن	-12.4384
صل	-12.4395
ساخت	-12.4408
روها	-12.4417
▁پاها	-12.442
چگون	-12.4423
▁هاشم	-12.4448
▁بوها	-12.4476
محل	-12.4482
▁جهانگیر	-12.4486
تعارض	-12.4491
صراف	-12.4493
پرش	-12.4507
حافظه	-12.452
▁فقرا	-12.4526
زبور	-12.4532
▁هواپیماها	-12.4534
▁فلسف	-12.4535
▁متما	-12.4538
▁نیروها	-12.4539
▁محاکم	-12.454
منصف	-12.4544
الیزا	-12.4563
▁گرسن	-12.4573
طالب	-12.4577
اوران	-12.4578
اگرا	-12.4579
▁فروخت	-12.4582
▁تجار	-12.4586
▁چیزها	-12.4596
▁جادو	-12.4598
نزدیک	-12.4609
عامل	-12.461
▁هچ	-12.4615
آمد	-12.4618
نصر	-12.4631
▁اسطور	-12.4636
کریس	-12.4637
پرداز	-12.4642
کوئین	-12.4645
بنفش	-12.4645
زارها	-12.4645
تفاوت	-12.4646
تورم	-12.4647
معمول	-12.4649
تغییر	-12.4649
حجت	-12.4651
توییت	-12.4652
مجید	-12.4652
▁حسگر	-12.4654
نظار	-12.4655
کلیسای	-12.4656
نشدنی	-12.4656
رونالدینیو	-12.4657
▁پریا	-12.4657
وکلای	-12.4657
اقبال	-12.4657
پائی	-12.4657
جزییات	-12.4658
آشنای	-12.4658
قاعد	-12.4658
انتقادات	-12.4659
منتف	-12.466
فتاح	-12.466
مالاریا	-12.466
فولاد	-12.466
ویلیام	-12.466
لوئی	-12.466
ثروت	-12.466
منچستریونایتد	-12.466
فایزر	-12.4661
تکمیل	-12.4661
اختلال	-12.4661
بلژیک	-12.4661
سرنوشت	-12.4661
منوچ	-12.4661
نهاده	-12.4661
متخصص	-12.4661
خودکشی	-12.4661
پادشاه	-12.4661
کاوشگر	-12.4661
خورشید	-12.4661
فیسبوک	-12.4661
حراج	-12.4661
تاسیسات	-12.4661
پروتکل	-12.4661
اولسان	-12.4662
نیویورک	-12.4662
تحریر	-12.4662
واشنگتن	-12.4662
رونالدو	-12.4662
عصر	-12.4662
بنکسی	-12.4662
شرط	-12.4662
اظهارات	-12.4662
ضرور	-12.4662
بحرین	-12.4662
برخورد	-12.4662
خشک	-12.4662
فرصت	-12.4662
اختلاف	-12.4662
سفیر	-12.4662
سقوط	-12.4662
صحبت	-12.4662
اعدام	-12.4662
تهدید	-12.4662
ورزشگاه	-12.4662
مصاحبه	-12.4662
آثار	-12.4662
سطح	-12.4662
ظریف	-12.4662
کودک	-12.4662
خیابان	-12.4663
ساعات	-12.4663
سولار	-12.4663
توتال	-12.4664
جمله	-12.4664
تولد	-12.4664
برخلاف	-12.4664
هدایت	-12.4665
خودروساز	-12.4665
سریال	-12.4665
▁خو	-12.4665
جدید	-12.4665
خیز	-12.4665
پیدا	-12.4666
پنجاه	-12.4666
تماس	-12.4666
حسا	-12.4666
عملیات	-12.4666
شایست	-12.4666
قدم	-12.4666
بحران	-12.4667
مثال	-12.4668
ژوز	-12.4669
روحانی	-12.4669
درباره	-12.467
پیوند	-12.4671
فینال	-12.4672
سقف	-12.4673
حکیم	-12.4673
▁هید	-12.4674
جنسی	-12.4675
روسیه	-12.4675
نمای	-12.4675
تغییرات	-12.4675
معمولا	-12.4676
کالا	-12.4679
گنجی	-12.4679
اعتراضات	-12.4681
همیشه	-12.4682
واحد	-12.4682
جنگل	-12.4684
دندان	-12.4684
▁مسیرها	-12.4686
رخوری	-12.4686
چپ	-12.4687
نادال	-12.4687
▁سلب	-12.4689
طول	-12.4689
ماتیک	-12.4689
حساب	-12.469
▁بلندق	-12.469
دیوان	-12.4691
بازیکنان	-12.4692
کانال	-12.4693
چای	-12.4694
درمانی	-12.4696
پرواز	-12.4698
▁پتر	-12.4701
تابلوی	-12.4703
رامش	-12.4708
کریستین	-12.4709
حرکت	-12.4711
خودروهای	-12.4713
پانزده	-12.4714
ایمن	-12.4714
اين	-12.4715
ایرا	-12.4717
▁۳۳۰	-12.472
▁۱۰۲	-12.472
باستان	-12.4721
▁بیوا	-12.4721
عذر	-12.4722
▁۴۸۰	-12.4724
ویژ	-12.4725
فرام	-12.4725
▁بحر	-12.4727
دورا	-12.4728
سپاهان	-12.473
خبرنگاران	-12.473
▁بلید	-12.4734
مفس	-12.4735
ساکن	-12.4735
▁آشتی	-12.4737
کمک	-12.4741
متیو	-12.4746
▁کثی	-12.4747
▁نویسند	-12.475
▁نشا	-12.4751
ویتز	-12.4751
▁آرنو	-12.4753
جنر	-12.4753
▁متروک	-12.4756
▁حوز	-12.4757
گات	-12.4758
▁بخواب	-12.4759
سیاسی	-12.4761
▁آذ	-12.4762
نکا	-12.4763
دلار	-12.4763
کنار	-12.4764
حبو	-12.4765
▁ناخوش	-12.4769
پراتور	-12.4769
▁بنویس	-12.477
▁الکترود	-12.4773
غیبت	-12.4773
استیل	-12.4775
بیانی	-12.4776
▁جوزا	-12.478
سماع	-12.478
▁ظالم	-12.4781
نکات	-12.4781
ستاگرام	-12.4784
▁المپی	-12.4784
▁کانتون	-12.4785
دومین	-12.4785
اراگوئه	-12.4786
▁نباشیم	-12.4788
▁ابوظبی	-12.4788
▁الکترومغناطیس	-12.4788
▁اکسیدکربن	-12.4788
▁ایزوتوپ	-12.4788
▁برنگردد	-12.4788
▁برگردانند	-12.4788
▁بشناسد	-12.4788
▁بوچانی	-12.4788
▁بیندازید	-12.4788
▁تمساح	-12.4788
▁دگرباش	-12.4788
▁سریلانکا	-12.4788
▁سوسیالیست	-12.4788
▁سولوویوف	-12.4788
▁شقاقی	-12.4788
▁عاقبت	-12.4788
▁مرتضوی	-12.4788
▁نباشید	-12.4788
▁هخامنشی	-12.4788
▁پوآرو	-12.4788
▁ژئوپلتیک	-12.4788
▁کداخدایی	-12.4788
▁متذکر	-12.4788
▁وبیتکو	-12.4788
▁بپیوندد	-12.4788
▁بکشاند	-12.4788
▁غیرعمد	-12.4788
▁نگرائو	-12.4788
▁کذب	-12.4788
▁مقننه	-12.4788
▁نذری	-12.4788
▁چهارچوب	-12.4788
▁معضل	-12.4788
▁هولدینگ	-12.4788
▁العالم	-12.4788
▁ظلم	-12.4788
▁نطق	-12.4788
▁بکنید	-12.4788
▁بااستعداد	-12.4788
▁شگرف	-12.4788
▁معشوق	-12.4788
▁واکاندا	-12.4788
▁ببخشد	-12.4788
▁ابطحی	-12.4788
▁الشع	-12.4788
▁پورتلند	-12.4788
▁ابلهان	-12.4788
▁مدودف	-12.4788
▁جوابگوی	-12.4788
▁تماشگر	-12.4788
▁وزرش	-12.4788
▁نکنم	-12.4788
▁سربگیرند	-12.4788
▁اساتید	-12.4788
▁عابران	-12.4788
▁موثق	-12.4788
▁ولگردها	-12.4788
ناملموس	-12.4788
▁بنگال	-12.4788
▁بیاموز	-12.4788
▁سانفرانسیسکو	-12.4788
▁ندوشن	-12.4788
▁سانتیاگو	-12.4788
▁نوازد	-12.4788
▁مقبول	-12.4788
▁پولانسکی	-12.4788
▁معبد	-12.4788
▁طنزپرداز	-12.4788
▁جوانبخت	-12.4788
▁عبرت	-12.4788
▁هکتار	-12.4788
حرمسرا	-12.4788
▁منشور	-12.4788
▁اپوز	-12.4789
▁درنوردید	-12.4789
▁ارمنی	-12.4789
▁حیفا	-12.4789
▁ریاکار	-12.4789
▁بیابند	-12.4789
▁سروصدا	-12.4789
▁شکوهمند	-12.4789
▁مصادیق	-12.4789
▁خیاط	-12.4789
گرمی	-12.4789
▁یکپارچ	-12.4789
▁گزاف	-12.4789
▁متهیا	-12.4789
تژیک	-12.4789
▁اسنوبرد	-12.4789
▁ستمگر	-12.4789
▁۵۳ساله	-12.4789
▁ایرانشناس	-12.4789
مویرگی	-12.479
کلت	-12.479
▁پوسید	-12.479
▁عمارت	-12.479
▁سرمست	-12.479
▁فرمایش	-12.4791
▁تلاقی	-12.4791
▁لگو	-12.4791
▁اتوبان	-12.4791
▁گاندو	-12.4791
▁سردادند	-12.4791
▁فیروزکو	-12.4791
▁همدلی	-12.4791
▁بردارم	-12.4791
▁رادارها	-12.4791
▁بمانید	-12.4791
▁کلسترو	-12.4791
▁گرانبهای	-12.4791
▁الاغ	-12.4792
▁عصا	-12.4792
▁نخرید	-12.4792
▁نومید	-12.4792
▁مرزبندی	-12.4792
▁محصور	-12.4792
تکاپو	-12.4792
▁الخروج	-12.4792
▁ووندر	-12.4792
▁۱۹۱۲	-12.4793
▁پاکیزگی	-12.4793
▁رادیکا	-12.4793
▁گریخت	-12.4793
▁شادمان	-12.4794
▁وولف	-12.4794
▁بکاهد	-12.4795
▁غیرمعمول	-12.4795
▁گرکان	-12.4795
▁تربت	-12.4795
▁آلفرد	-12.4795
وتنبرگ	-12.4795
اسرای	-12.4795
زامبی	-12.4795
بلنک	-12.4796
▁نیمرخ	-12.4796
▁جانورشناس	-12.4796
▁توکلی	-12.4796
▁قدیس	-12.4796
▁معاند	-12.4796
▁سفال	-12.4797
▁فرازمند	-12.4797
▁واداشته	-12.4797
▁بازگردیم	-12.4797
▁بزنید	-12.4798
▁پنهانکاری	-12.4798
▁آجر	-12.4798
▁افتضاح	-12.4799
▁سیاستگذار	-12.4799
▁ورزید	-12.4799
▁زمام	-12.4799
▁پاسداشت	-12.4799
▁ولیحی	-12.4799
▁۱۳۸۰	-12.48
▁کوئیک	-12.48
▁پرنفوذ	-12.48
پپ	-12.48
▁بلندگو	-12.48
▁استمفورد	-12.4801
▁میشود	-12.4801
▁نپرداخت	-12.4801
▁بندپی	-12.4801
▁دلیری	-12.4802
▁لغز	-12.4802
▁بصیر	-12.4802
▁شادگان	-12.4803
▁دهشت	-12.4803
▁گریختند	-12.4803
▁خوشبو	-12.4803
▁دستگیرزاده	-12.4803
▁الکترودهای	-12.4803
▁کاکس	-12.4804
▁هول	-12.4804
▁اوتیسم	-12.4804
▁آنالیز	-12.4805
▁ادیان	-12.4807
رعب	-12.4807
حاب	-12.4808
▁آزاردید	-12.4808
▁ترفندهای	-12.4809
▁بایستد	-12.481
▁پردیس	-12.4811
شهرهای	-12.4812
▁یونیو	-12.4812
▁۱۹۳۹	-12.4812
▁فدریک	-12.4812
▁گچ	-12.4813
▁نگذشت	-12.4814
▁جنون	-12.4814
▁افراز	-12.4815
▁ترمز	-12.4816
▁نوگرا	-12.4816
▁خودخواهانه	-12.4817
نگار	-12.4817
▁مکاتبات	-12.4818
▁فغان	-12.4818
▁شنیدم	-12.4818
امدا	-12.482
▁ملایم	-12.482
▁آموس	-12.4821
غام	-12.4821
▁مگاصیص	-12.4822
▁گاسکوئین	-12.4822
▁نامطلوب	-12.4822
▁لوکالکان	-12.4822
▁هالووین	-12.4822
▁میکند	-12.4822
▁تعصب	-12.4822
▁دوقلوها	-12.4822
▁کاونت	-12.4822
▁نوشتاری	-12.4823
اتاق	-12.4823
▁فتوا	-12.4823
رگوت	-12.4825
▁هملت	-12.4825
▁بروکلی	-12.4825
▁تسایت	-12.4826
▁مشروع	-12.4827
▁میناری	-12.4827
▁ژائو	-12.4827
▁مکزیکو	-12.4827
▁اغما	-12.4827
▁مامن	-12.4829
▁یونس	-12.4829
▁پراوی	-12.483
▁فاصل	-12.4831
روژن	-12.4832
▁باگز	-12.4833
▁بخو	-12.4834
بنز	-12.4834
▁متفکر	-12.4836
▁پرالتهاب	-12.4836
▁نبات	-12.4837
▁لاور	-12.4838
▁وصدا	-12.4839
▁بلوغ	-12.4839
▁قراردادها	-12.484
▁باغبان	-12.484
▁دایان	-12.484
گیرند	-12.4841
گمانه	-12.4843
▁تازیان	-12.4843
▁کولون	-12.4844
▁کوکو	-12.4844
کشن	-12.4845
کوف	-12.4848
دوگا	-12.4848
▁۲۶۶	-12.485
▁رجیس	-12.485
▁آپارت	-12.485
▁مشوقهای	-12.4851
اتهام	-12.4851
▁خفت	-12.4852
▁فراگرفت	-12.4852
▁وسائ	-12.4853
▁گابریلا	-12.4854
▁امدادگر	-12.4855
عابد	-12.4856
گردانیم	-12.4858
لطیف	-12.4859
▁نمودار	-12.4859
▁کراش	-12.486
▁جداسازی	-12.4861
یکصد	-12.4862
زیچ	-12.4866
لوژی	-12.4868
شرکتهای	-12.487
▁اکستر	-12.487
▁برسید	-12.4874
▁ایمیل	-12.4875
قامت	-12.4877
▁فلین	-12.4877
زمایش	-12.4877
▁لودو	-12.4878
▁اکولوژی	-12.488
▁هرچیز	-12.488
▁باربارا	-12.488
▁کاوش	-12.4884
▁چول	-12.4884
▁رباتیک	-12.4885
زخ	-12.4888
▁بولد	-12.4889
▁ابزارک	-12.489
▁جزیرو	-12.4891
وارس	-12.4892
▁تحص	-12.4892
▁پرماجرا	-12.4892
▁خندد	-12.4892
▁پسندید	-12.4893
▁صر	-12.4894
▁بغ	-12.4895
▁آنجل	-12.4895
▁ملامت	-12.4895
دافع	-12.4896
▁ستد	-12.4896
▁طالب	-12.49
▁بیدگ	-12.4901
ستاران	-12.4901
▁کارکرد	-12.4902
▁زرتشتی	-12.4903
▁میزند	-12.4903
▁لومب	-12.4905
▁۱۷۵	-12.4909
▁جالبند	-12.491
▁پرکار	-12.4912
▁احم	-12.4912
خواباند	-12.4913
▁گیگاب	-12.4913
▁نفیس	-12.4915
▁درایو	-12.4917
▁ناراحتند	-12.4917
امور	-12.4917
خاطرات	-12.4921
▁درانتخابات	-12.4925
▁نظار	-12.4927
نیاز	-12.4928
اکمل	-12.4928
صفر	-12.4929
▁نقدهای	-12.4929
▁بوکا	-12.493
لوح	-12.4932
هاوس	-12.4932
▁نداشتیم	-12.4933
▁سرکو	-12.4934
▁ندادم	-12.4938
▁پائیز	-12.4939
۶۲۰	-12.494
▁نورال	-12.4941
▁الط	-12.4942
▁کوک	-12.4947
توالی	-12.4948
▁کوهنوردان	-12.4949
▁شهیر	-12.495
حیط	-12.4951
▁پیوندند	-12.4952
▁شایعند	-12.4953
▁قلو	-12.4953
رتون	-12.4955
▁نماید	-12.4958
فائ	-12.4971
▁بگویی	-12.4971
▁حدف	-12.4973
▁فرآور	-12.4974
ساخته	-12.4974
فوت	-12.4976
▁مکید	-12.4981
بدن	-12.4982
ینگز	-12.499
▁۲۰۵	-12.4991
▁درگذشتمحمد	-12.4993
▁فرمانیه	-12.4995
کلاغ	-12.4996
وبل	-12.4996
▁بقدر	-12.4996
وپان	-12.5003
▁اکو	-12.5011
نوپ	-12.5019
▁حوت	-12.5023
تورباز	-12.5026
▁شراف	-12.5028
▁همتایان	-12.5034
▁دفاعیات	-12.5043
▁میانسال	-12.5051
▁مرزبان	-12.5051
▁دق	-12.5052
▁هوادارن	-12.5057
▁آوردیم	-12.5063
▁سپین	-12.5064
▁عاشقان	-12.5065
▁مرک	-12.5072
▁شارل	-12.5075
▁جوانتر	-12.5077
▁کلوز	-12.5078
▁ایوب	-12.5078
▁محص	-12.5079
▁مالدار	-12.508
▁تاخت	-12.5084
▁پنس	-12.509
▁اض	-12.509
جهش	-12.5092
▁اجراست	-12.51
▁آدا	-12.5102
▁تعار	-12.5111
▁بدود	-12.5112
ترونیک	-12.5116
▁مشق	-12.5118
▁برچی	-12.512
سوال	-12.5127
میسی	-12.5131
▁صل	-12.5138
مقا	-12.5156
پسون	-12.5158
قوایی	-12.5158
▁شگرد	-12.5163
▁گیرا	-12.5165
▁بالدار	-12.5165
▁فوتو	-12.5171
▁نشرات	-12.5173
▁مدس	-12.5176
تلر	-12.5177
▁چاند	-12.5177
کیت	-12.5183
▁هیج	-12.5183
▁پودر	-12.5194
▁درازا	-12.5198
تجمع	-12.5203
▁همهمه	-12.5209
▁هلن	-12.5211
▁اولیان	-12.5214
کوش	-12.5224
غای	-12.5224
بوک	-12.5227
ولز	-12.5228
▁بردیم	-12.5228
درینو	-12.5229
خسار	-12.5231
▁انگیزد	-12.5232
▁شانز	-12.5233
▁موید	-12.5246
▁اتو	-12.5251
سادگی	-12.5264
ئون	-12.5265
اوج	-12.5276
▁نگارم	-12.5277
▁متروی	-12.528
▁خرم	-12.5282
▁مسیریاب	-12.5307
▁فضاپیماها	-12.5308
▁ایستادن	-12.5319
ردین	-12.5321
▁هندو	-12.5326
تعارف	-12.5328
▁فاخر	-12.5328
▁سالخورد	-12.5337
۳۰۰	-12.5339
▁موثرتر	-12.5364
▁رفتیم	-12.5374
▁قرادادش	-12.5378
▁برگشتن	-12.5387
زاس	-12.5389
▁لبن	-12.5393
▁آزادگان	-12.5407
۷۱۰	-12.5418
▁چشمک	-12.5419
▁مساعدت	-12.5421
▁پیوستند	-12.5444
▁برآن	-12.5447
آما	-12.5454
▁زیرپا	-12.5454
▁اندروی	-12.5458
ناوب	-12.5458
▁اندازیم	-12.5466
▁بلن	-12.548
پارل	-12.5483
▁صاحبش	-12.5492
▁دژها	-12.5517
▁لیند	-12.5525
▁بازده	-12.5526
▁مخا	-12.5532
▁روپر	-12.5557
▁پرست	-12.5569
▁قصر	-12.5588
▁دیکش	-12.5599
گرفت	-12.5606
لخت	-12.5611
▁بفهمی	-12.5616
سکان	-12.5625
بیا	-12.5625
▁گرج	-12.5638
▁دخترم	-12.5654
کوتا	-12.5661
▁آوریم	-12.567
چسبند	-12.5671
▁آمونی	-12.5691
▁پروس	-12.5727
کمپ	-12.5738
▁کشو	-12.5767
▁روئی	-12.5773
▁بوستا	-12.5794
▁آزمود	-12.581
▁هیپستر	-12.5828
▁راهیاب	-12.5854
▁نیرومندتر	-12.5883
▁ایرانروزها	-12.5912
▁متوس	-12.5923
دیف	-12.5941
▁متاب	-12.5964
▁نیایش	-12.5983
عبدالو	-12.6039
▁درعی	-12.6042
خرج	-12.6042
▁برادرز	-12.6048
▁آلتر	-12.6063
▁استرلی	-12.608
همراه	-12.6106
▁۱۵سال	-12.6109
ستره	-12.613
نگولی	-12.6171
▁نوآ	-12.6185
▁واردکنند	-12.6219
انتری	-12.623
نورلند	-12.631
▁سمع	-12.6311
زندگان	-12.6317
صادف	-12.6356
▁داکا	-12.6373
▁افرا	-12.6398
▁بازدیدها	-12.6402
نواختر	-12.6412
▁محبو	-12.6438
نگل	-12.6446
العمل	-12.6456
▁فرما	-12.6459
مگ	-12.6528
▁مالت	-12.653
ورسوی	-12.6535
۳۹۰	-12.6554
▁بالاگ	-12.6566
▁حائ	-12.6584
▁چرخاند	-12.6628
▁دیگ	-12.6635
▁مساو	-12.6639
متعارف	-12.6698
پابل	-12.6718
▁مثا	-12.674
▁یوور	-12.6742
شمول	-12.6777
▁بگذار	-12.6818
رفتار	-12.6874
▁پولاد	-12.6898
▁جوید	-12.7001
عمر	-12.7072
مترو	-12.7165
ورانگو	-12.7182
▁ویرا	-12.72
ونیا	-12.7227
▁فهمیدن	-12.7245
اتریو	-12.7246
گوید	-12.7285
چون	-12.7288
▁پذیرفتن	-12.7308
▁مقدا	-12.7317
▁اطلا	-12.7318
ایکون	-12.7416
کرون	-12.7429
▁ژا	-12.7591
راث	-12.7612
شگران	-12.7624
پیشین	-12.7648
سیام	-12.773
متد	-12.7784
وئیس	-12.793
ریتانی	-12.7995
▁نشو	-12.8083
حقوقدانان	-12.8101
بارون	-12.8131
▁نیکول	-12.8141
▁مستن	-12.8211
▁نواختن	-12.8217
▁مي	-12.8279
۱۲	-12.8284
▁هیپستره	-12.8289
▁مضا	-12.8341
خامت	-12.8383
ملیتی	-12.8386
▁نمودن	-12.841
▁خدایا	-12.8423
شتابند	-12.8537
▁رکسا	-12.8585
▁یورک	-12.8657
دونا	-12.8701
استفن	-12.871
▁صب	-12.8742
تمن	-12.8763
سپارد	-12.8802
دینامیک	-12.8826
۱۰۰	-12.8835
عدد	-12.8866
لئون	-12.8871
ریتا	-12.8914
ائر	-12.8978
نواز	-12.9003
تابو	-12.9016
▁درآو	-12.9038
ورتینگ	-12.9065
انتانا	-12.907
ساط	-12.9111
مایند	-12.9128
▁نگرفتن	-12.9153
▁نیاوردن	-12.9183
دالر	-12.9195
استودیوی	-12.9196
▁آخ	-12.9239
بسیار	-12.9244
آقا	-12.9245
غور	-12.9292
▁غفار	-12.9313
▁فلسطین	-12.9314
▁راهکارها	-12.9343
▁بلاتکلیف	-12.9344
▁نمک	-12.9366
▁الکتریک	-12.9372
دئو	-12.9376
▁انرژ	-12.9381
▁مخف	-12.9382
گرایان	-12.9389
آگاهی	-12.9389
▁مسخ	-12.9389
▁آتا	-12.9389
▁افسا	-12.9393
غفو	-12.9396
▁رخدادها	-12.9398
▁سانتریفیوژها	-12.9416
تنبور	-12.9421
سکوت	-12.9421
گمان	-12.9438
▁موسیق	-12.9439
صاب	-12.947
▁پائول	-12.9473
▁بقایا	-12.9482
ئ	-14.5735
