{
  "src_word2id": {
    "<pad>": 0,
    "<s>": 1,
    "</s>": 2,
    "<unk>": 3,
    "ی": 4,
    ".": 5,
    "ه": 6,
    "▁است": 7,
    "▁می": 8,
    "▁": 9,
    "▁های": 10,
    "▁ایران": 11,
    "▁شده": 12,
    "،": 13,
    "▁سال": 14,
    "▁بود": 15,
    "▁یک": 16,
    "▁ها": 17,
    "▁شد": 18,
    "▁کرده": 19,
    "▁تصویر": 20,
    "▁ای": 21,
    "▁کرد": 22,
    "ان": 23,
    "منبع": 24,
    "▁شود": 25,
    "▁گفته": 26,
    "▁بر": 27,
    "▁کند": 28,
    "▁دو": 29,
    "▁خود": 30,
    "ش": 31,
    "؛": 32,
    "▁کرونا": 33,
    "▁اند": 34,
    "▁در": 35,
    "ت": 36,
    "▁آمریکا": 37,
    "▁کشور": 38,
    "▁ماه": 39,
    "ین": 40,
    "▁پیش": 41,
    "▁گزارش": 42,
    "▁روز": 43,
    "▁دیگر": 44,
    "▁فوتبال": 45,
    "▁دارد": 46,
    "▁بی": 47,
    "م": 48,
    "▁دهد": 49,
    "▁تیم": 50,
    "▁گفت": 51,
    "▁بازی": 52,
    "▁کار": 53,
    "▁اعلام": 54,
    "▁و": 55,
    "ن": 56,
    "▁ا": 57,
    "▁کنند": 58,
    "▁قرار": 59,
    "▁شرکت": 60,
    "▁هزار": 61,
    "▁دولت": 62,
    "▁داده": 63,
    "▁یا": 64,
    "▁با": 65,
    "▁رئیس": 66,
    "▁به": 67,
    "▁دست": 68,
    "▁گذشته": 69,
    "▁سه": 70,
    "▁جهان": 71,
    "▁خواهد": 72,
    "▁بین": 73,
    "▁پس": 74,
    "▁م": 75,
    "▁آقای": 76,
    "▁گوید": 77,
    "▁هر": 78,
    "▁بار": 79,
    "در": 80,
    "▁درصد": 81,
    "▁درباره": 82,
    "ند": 83,
    "▁تهران": 84,
    "▁دلیل": 85,
    "ب": 86,
    "▁میلیون": 87,
    "ا": 88,
    "▁آنها": 89,
    "▁افغانستان": 90,
    "▁لیگ": 91,
    "▁افزایش": 92,
    "▁نفر": 93,
    "▁چند": 94,
    "▁هفته": 95,
    "▁از": 96,
    "▁جدید": 97,
    "این": 98,
    "▁'": 99,
    "▁بعد": 100,
    "ات": 101,
    "▁داد": 102,
    "'": 103,
    "▁حال": 104,
    "▁بوده": 105,
    "▁ملی": 106,
    "های": 107,
    "▁نام": 108,
    "▁خبر": 109,
    "ر": 110,
    ":": 111,
    "ل": 112,
    "▁جمهوری": 113,
    "▁یکی": 114,
    "س": 115,
    "▁فیلم": 116,
    "▁نمی": 117,
    "▁ویروس": 118,
    "▁ترین": 119,
    "▁جهانی": 120,
    "▁همه": 121,
    "▁هستند": 122,
    "▁دلار": 123,
    "▁قیمت": 124,
    "▁برگزار": 125,
    "▁چین": 126,
    "▁باید": 127,
    "▁امروز": 128,
    "▁نظر": 129,
    "▁بازار": 130,
    "▁عنوان": 131,
    "▁مورد": 132,
    "▁سازمان": 133,
    "▁ف": 134,
    "▁سر": 135,
    "▁تولید": 136,
    "▁روی": 137,
    "▁کردند": 138,
    "▁گرفته": 139,
    "▁داشت": 140,
    "▁علی": 141,
    "د": 142,
    "▁نفت": 143,
    "▁شدن": 144,
    "▁بیشتر": 145,
    "▁بیش": 146,
    "▁کاهش": 147,
    "▁وزیر": 148,
    "▁نیست": 149,
    "▁سی": 150,
    "▁شب": 151,
    "▁بریتانیا": 152,
    "▁آغاز": 153,
    "▁وزارت": 154,
    "▁مقابل": 155,
    "▁را": 156,
    "▁اخیر": 157,
    "▁نیز": 158,
    "▁باشگاه": 159,
    "▁بودند": 160,
    "▁اروپا": 161,
    "▁حدود": 162,
    "▁بزرگ": 163,
    "▁ت": 164,
    "▁نشان": 165,
    "▁اش": 166,
    "▁برنامه": 167,
    "▁همچنین": 168,
    "▁داشته": 169,
    "▁راه": 170,
    "▁مجلس": 171,
    "▁زمان": 172,
    "▁باشد": 173,
    "▁بانک": 174,
    "▁قبل": 175,
    "▁حضور": 176,
    "▁پایان": 177,
    "▁آن": 178,
    "▁تر": 179,
    "به": 180,
    "▁تحریم": 181,
    "▁انجام": 182,
    "▁اقتصادی": 183,
    "▁اولین": 184,
    "▁توافق": 185,
    "▁اول": 186,
    "▁اساس": 187,
    "▁صورت": 188,
    "که": 189,
    "▁منتشر": 190,
    "▁واکسن": 191,
    "▁شیوع": 192,
    "▁بخش": 193,
    "گی": 194,
    "▁باز": 195,
    "▁کم": 196,
    "▁میان": 197,
    "▁استفاده": 198,
    "▁گل": 199,
    "▁فصل": 200,
    "▁شهر": 201,
    "او": 202,
    "▁جمله": 203,
    "آقای": 204,
    "▁رسید": 205,
    "ری": 206,
    "▁وجود": 207,
    "دامه": 208,
    "▁دارند": 209,
    "له": 210,
    "؟": 211,
    "▁شورا": 212,
    "▁ایرانی": 213,
    "▁مسابقه": 214,
    "▁مردم": 215,
    "▁ب": 216,
    "▁خواست": 217,
    "ایی": 218,
    "▁زندگی": 219,
    "▁شوند": 220,
    "▁گروه": 221,
    "ز": 222,
    "▁میلیارد": 223,
    "▁ماشین": 224,
    "و": 225,
    "▁المللی": 226,
    "▁مسابقات": 227,
    "▁چهار": 228,
    "▁زنان": 229,
    "▁دی": 230,
    "▁پنج": 231,
    "▁گیری": 232,
    "▁توان": 233,
    "▁همین": 234,
    "▁تنها": 235,
    "▁مقام": 236,
    "▁حقوق": 237,
    "▁شدند": 238,
    "▁تومان": 239,
    "▁برتر": 240,
    "▁تواند": 241,
    "▁هایی": 242,
    "▁تمام": 243,
    "▁وقت": 244,
    "▁ارز": 245,
    "▁گرفت": 246,
    "▁امسال": 247,
    "▁زیاد": 248,
    "▁۲۰": 249,
    "▁حالی": 250,
    "▁شرایط": 251,
    "▁اسلامی": 252,
    "▁وضعیت": 253,
    "شان": 254,
    "▁محمد": 255,
    "▁غیر": 256,
    "▁آینده": 257,
    "عث": 258,
    "نه": 259,
    "بر": 260,
    "▁جام": 261,
    "▁کردن": 262,
    "بدون": 263,
    "▁کشورهای": 264,
    "▁بیماری": 265,
    "▁دوران": 266,
    "▁طور": 267,
    "▁خانه": 268,
    "▁هیچ": 269,
    "▁بسیاری": 270,
    "▁خارجه": 271,
    "▁فعالیت": 272,
    "▁تلاش": 273,
    "▁منبع": 274,
    "▁رسان": 275,
    "▁بسیار": 276,
    "▁وارد": 277,
    "▁پی": 278,
    "▁اقتصاد": 279,
    "▁ولی": 280,
    "ها": 281,
    "▁زمین": 282,
    "▁تازه": 283,
    "▁فروش": 284,
    "▁کر": 285,
    "▁گویند": 286,
    "▁نرخ": 287,
    "▁تصمیم": 288,
    "▁مدت": 289,
    "▁نزدیک": 290,
    "▁انتخابات": 291,
    "▁ریاست": 292,
    "▁افراد": 293,
    "▁مهم": 294,
    "▁سوی": 295,
    "نوز": 296,
    "▁کمک": 297,
    "▁مختلف": 298,
    "▁نه": 299,
    "انه": 300,
    "ار": 301,
    "▁اجتماعی": 302,
    "▁تغییر": 303,
    "▁ش": 304,
    "▁نخست": 305,
    "قط": 306,
    "▁روحانی": 307,
    "▁ساله": 308,
    "▁قهرمان": 309,
    "▁تاریخ": 310,
    "▁اثر": 311,
    "▁س": 312,
    "▁خانواده": 313,
    "▁همراه": 314,
    "▁منطقه": 315,
    "▁خودرو": 316,
    "▁برای": 317,
    "▁پول": 318,
    "یت": 319,
    "یک": 320,
    "▁مرکزی": 321,
    "▁حالا": 322,
    "▁مجموع": 323,
    "▁طرح": 324,
    "▁جان": 325,
    "ترین": 326,
    "▁درگذشت": 327,
    "▁آخر": 328,
    "▁شروع": 329,
    "▁پیدا": 330,
    "▁برابر": 331,
    "▁برجام": 332,
    "▁اصلی": 333,
    "▁کنار": 334,
    "▁هسته": 335,
    "▁زن": 336,
    "▁دوم": 337,
    "▁دهه": 338,
    "▁مرکز": 339,
    "▁اینک": 340,
    "ک": 341,
    "▁برخ": 342,
    "▁بورس": 343,
    "▁حت": 344,
    "▁دوره": 345,
    "▁موسیقی": 346,
    "▁پرسپولیس": 347,
    "▁بررسی": 348,
    "▁آمریکایی": 349,
    "▁اشار": 350,
    "▁بعضی": 351,
    "ثبت": 352,
    "▁۱۹": 353,
    "ریق": 354,
    "▁جمهور": 355,
    "▁کمتر": 356,
    "گان": 357,
    "▁پر": 358,
    "نامه": 359,
    "▁قهرمانی": 360,
    "▁میلادی": 361,
    "▁فدراسیون": 362,
    "▁شکست": 363,
    "▁نقش": 364,
    "▁اطلاعات": 365,
    "▁سفر": 366,
    "▁زیر": 367,
    "▁ه": 368,
    "با": 369,
    "▁نوشته": 370,
    "▁۵": 371,
    "▁آمار": 372,
    "▁رسمی": 373,
    "▁عکس": 374,
    "▁رسیده": 375,
    "▁سرمایه": 376,
    "▁که": 377,
    "▁۴": 378,
    "▁۱۰": 379,
    "▁رقابت": 380,
    "▁یافته": 381,
    "▁توجه": 382,
    "▁ممکن": 383,
    "▁همکاری": 384,
    "▁حمله": 385,
    "▁نتیج": 386,
    "▁بهترین": 387,
    "▁دور": 388,
    "▁کل": 389,
    "▁واکنش": 390,
    "▁نشده": 391,
    "▁آب": 392,
    "▁بالا": 393,
    "▁رشد": 394,
    "▁عراق": 395,
    "▁دانشگاه": 396,
    "▁دنیا": 397,
    "▁حمایت": 398,
    "▁مراسم": 399,
    "ست": 400,
    "▁آزاد": 401,
    "▁جایزه": 402,
    "▁ساعت": 403,
    "▁دنبال": 404,
    "▁ط": 405,
    "▁استقلال": 406,
    "▁رفت": 407,
    "▁پرداخت": 408,
    "▁فرانسه": 409,
    "▁هم": 410,
    "▁آژانس": 411,
    "▁مالی": 412,
    "▁کشتی": 413,
    "▁او": 414,
    "▁۲": 415,
    "▁استان": 416,
    "▁ن": 417,
    "▁حاضر": 418,
    "▁بازیکن": 419,
    "ق": 420,
    "▁اعتراض": 421,
    "▁سابق": 422,
    "▁پرونده": 423,
    "▁شش": 424,
    "▁موضوع": 425,
    "▁سیاسی": 426,
    "▁الله": 427,
    "▁شنبه": 428,
    "توسط": 429,
    "▁کنیم": 430,
    "▁ورزش": 431,
    "اکنون": 432,
    "▁خبرگزا": 433,
    "▁روند": 434,
    "▁ندارد": 435,
    "▁رد": 436,
    "▁ترامپ": 437,
    "▁آی": 438,
    "▁این": 439,
    "ِ": 440,
    "▁انتشار": 441,
    "▁تعداد": 442,
    "▁مدیر": 443,
    "▁نیمه": 444,
    "▁ر": 445,
    "روز": 446,
    "▁رسد": 447,
    "▁ترکیه": 448,
    "▁عرض": 449,
    "▁موج": 450,
    "▁زبان": 451,
    "▁طی": 452,
    "▁هدف": 453,
    "▁کتاب": 454,
    "▁دریافت": 455,
    "▁جنوبی": 456,
    "▁آلمان": 457,
    "▁قهرمانان": 458,
    "▁انرژی": 459,
    "یم": 460,
    "▁مذاکرات": 461,
    "▁دهند": 462,
    "▁صد": 463,
    "گیری": 464,
    "▁ده": 465,
    "▁خام": 466,
    "▁۲۰۲۰": 467,
    "▁اجرای": 468,
    "▁متهم": 469,
    "▁آمده": 470,
    "▁آزمایش": 471,
    "▁اتحاد": 472,
    "▁ویژه": 473,
    "▁مربوط": 474,
    "▁مبارز": 475,
    "▁سهام": 476,
    "▁دیدار": 477,
    "▁چنین": 478,
    "▁شمار": 479,
    "▁اج": 480,
    "▁نهایی": 481,
    "▁اقدام": 482,
    "▁۶": 483,
    "▁پیروز": 484,
    "▁خرید": 485,
    "از": 486,
    "▁عربستان": 487,
    "▁سیاست": 488,
    "▁خواهند": 489,
    "ور": 490,
    "▁سازی": 491,
    "گاه": 492,
    "▁هشدار": 493,
    "▁تبدیل": 494,
    "▁تلویزیون": 495,
    "▁هند": 496,
    "▁رو": 497,
    "▁عضو": 498,
    "▁مرد": 499,
    "▁بهداشت": 500,
    "▁هفت": 501,
    "▁۳": 502,
    "▁آسیا": 503,
    "▁تن": 504,
    "▁گذاری": 505,
    "▁جریان": 506,
    "▁تایید": 507,
    "▁ایجاد": 508,
    "▁لیورپول": 509,
    "کسب": 510,
    "▁خطر": 511,
    "▁محل": 512,
    "▁ساخت": 513,
    "▁همان": 514,
    ")": 515,
    "▁سرمربی": 516,
    "▁درآمد": 517,
    "▁مرگ": 518,
    "▁ام": 519,
    "▁امنیت": 520,
    "▁میزان": 521,
    "▁صادرات": 522,
    "▁یافت": 523,
    "▁دیده": 524,
    "▁خیل": 525,
    "▁نقل": 526,
    "▁دوبار": 527,
    "▁زده": 528,
    "▁رود": 529,
    "▁مشخص": 530,
    "▁خارجی": 531,
    "▁انسان": 532,
    "▁کابل": 533,
    "ازه": 534,
    "▁جلو": 535,
    "▁بازداشت": 536,
    "▁انگلیس": 537,
    "▁حد": 538,
    "▁قابل": 539,
    "▁زندان": 540,
    "▁حسن": 541,
    "▁انتخاب": 542,
    "▁خط": 543,
    "▁مدل": 544,
    "▁کمی": 545,
    "▁خارج": 546,
    "▁فاصله": 547,
    "▁بازیکنان": 548,
    "▁رهبر": 549,
    "▁سوم": 550,
    "▁زمینه": 551,
    "▁نا": 552,
    "▁بیمارستان": 553,
    "▁روسیه": 554,
    "▁نیاز": 555,
    "ال": 556,
    "▁نسبت": 557,
    "▁کننده": 558,
    "▁(": 559,
    "▁چرا": 560,
    "▁برد": 561,
    "▁طرف": 562,
    "▁خاطر": 563,
    "▁سخت": 564,
    "▁دقیق": 565,
    "▁بست": 566,
    "▁سو": 567,
    "▁کس": 568,
    "▁طول": 569,
    "▁معاون": 570,
    "▁پلیس": 571,
    "▁سن": 572,
    "▁لغو": 573,
    "▁قانون": 574,
    "▁دولتی": 575,
    "▁حکم": 576,
    "▁ترک": 577,
    "▁نمایش": 578,
    "▁کامل": 579,
    "▁محدودیت": 580,
    "▁ج": 581,
    "▁ارزش": 582,
    "▁کشته": 583,
    "▁آ": 584,
    "▁تاثیر": 585,
    "▁منابع": 586,
    "▁دادگاه": 587,
    "▁تعطیل": 588,
    "▁آثار": 589,
    "▁حکومت": 590,
    "▁شکل": 591,
    "▁اتمی": 592,
    "▁بازگشت": 593,
    "▁لندن": 594,
    "▁سپاه": 595,
    "▁امتیاز": 596,
    "▁سالگی": 597,
    "▁تحت": 598,
    "▁ابتلا": 599,
    "▁چ": 600,
    "▁شناخت": 601,
    "▁بیانی": 602,
    "▁ساخته": 603,
    "▁ظریف": 604,
    "▁جو": 605,
    "▁۳۰": 606,
    "▁قرارداد": 607,
    "▁نامزد": 608,
    "▁مطرح": 609,
    "▁سطح": 610,
    "▁اعضای": 611,
    "▁جنگ": 612,
    "▁اسرائیل": 613,
    "▁زمانی": 614,
    "▁سخنگوی": 615,
    "▁انقلاب": 616,
    "▁قرنطینه": 617,
    "▁حرکت": 618,
    "▁نگاه": 619,
    "▁نگرانی": 620,
    "▁نمایند": 621,
    "▁ارتباط": 622,
    "▁بودجه": 623,
    "▁شناس": 624,
    "▁بالای": 625,
    "▁برنده": 626,
    "▁رای": 627,
    "▁پزشکی": 628,
    "▁همزمان": 629,
    "▁تع": 630,
    "▁نشست": 631,
    "ج": 632,
    "▁تنیس": 633,
    "▁مرح": 634,
    "▁گاز": 635,
    "▁نامه": 636,
    "▁جلس": 637,
    "▁آیا": 638,
    "▁۲۵": 639,
    "▁عالی": 640,
    "▁گسترده": 641,
    "▁تو": 642,
    "▁عمومی": 643,
    "▁داستان": 644,
    "اما": 645,
    "▁انتقال": 646,
    "▁فکر": 647,
    "▁روزهای": 648,
    "▁مصاحبه": 649,
    "▁هوای": 650,
    "▁امنیتی": 651,
    "▁خوب": 652,
    "▁بایدن": 653,
    "▁صنعت": 654,
    "▁سابقه": 655,
    "▁جاری": 656,
    "▁متحده": 657,
    "▁سینما": 658,
    "۸": 659,
    "▁۲۰۰": 660,
    "▁بخشی": 661,
    "▁فن": 662,
    "▁کسان": 663,
    "چه": 664,
    "▁۹": 665,
    "▁پخ": 666,
    "▁الکتریکی": 667,
    "▁برق": 668,
    "▁متوقف": 669,
    "▁داخل": 670,
    "▁گرفتن": 671,
    "▁تک": 672,
    "▁نوع": 673,
    "▁اروپایی": 674,
    "▁پاسخ": 675,
    "▁چشم": 676,
    "▁فشار": 677,
    "▁اتهام": 678,
    "▁افت": 679,
    "▁سیستم": 680,
    "▁۲۰۱۹": 681,
    "▁نیروهای": 682,
    "▁انتظار": 683,
    "▁قطع": 684,
    "سیون": 685,
    "▁کووید": 686,
    "▁باشند": 687,
    "▁صندوق": 688,
    "▁امور": 689,
    "▁دادن": 690,
    "▁جای": 691,
    "▁دانست": 692,
    "مین": 693,
    "▁کشید": 694,
    "▁پیشین": 695,
    "-": 696,
    "▁طراح": 697,
    "▁قدرت": 698,
    "▁نظامی": 699,
    "▁کودکان": 700,
    "▁دستگاه": 701,
    "ستاد": 702,
    "▁حساب": 703,
    "▁نکرده": 704,
    "ف": 705,
    "▁دستور": 706,
    "▁فینال": 707,
    "▁ادار": 708,
    "▁جدی": 709,
    "▁نو": 710,
    "▁نمایندگان": 711,
    "▁فارسی": 712,
    "▁چهر": 713,
    "▁۱۲": 714,
    "▁داشتند": 715,
    "▁خانم": 716,
    "الات": 717,
    "▁المپیک": 718,
    "▁آنچ": 719,
    "▁بحران": 720,
    "▁بشر": 721,
    "▁نهاد": 722,
    "▁فرهنگ": 723,
    "▁مسئولان": 724,
    "▁توانست": 725,
    "▁محکوم": 726,
    "▁معرف": 727,
    "▁۱۵": 728,
    "▁نیم": 729,
    "▁تورم": 730,
    "▁وی": 731,
    "▁۱": 732,
    "▁جا": 733,
    "▁چهارم": 734,
    "▁عد": 735,
    "▁جامعه": 736,
    "▁انتقاد": 737,
    "▁رکورد": 738,
    "▁نفتی": 739,
    "▁۷": 740,
    "▁رقم": 741,
    "▁ورود": 742,
    "▁قرن": 743,
    "▁ال": 744,
    "▁شدید": 745,
    "▁اسفند": 746,
    "▁چگون": 747,
    "ده": 748,
    "▁ح": 749,
    "▁ورزشگاه": 750,
    "▁آزادی": 751,
    "▁مربی": 752,
    "▁هز": 753,
    "▁بلند": 754,
    "▁فروردین": 755,
    "▁موسس": 756,
    "▁۱۳": 757,
    "▁شدت": 758,
    "▁ارائه": 759,
    "▁دوشنبه": 760,
    "▁ورزشی": 761,
    "▁کنترل": 762,
    "▁دار": 763,
    "▁اجرا": 764,
    "▁مانده": 765,
    "▁رفته": 766,
    "▁ملل": 767,
    "▁خودش": 768,
    "ویه": 769,
    "▁احتمال": 770,
    "۰۰": 771,
    "▁اتفاق": 772,
    "۵": 773,
    "ون": 774,
    "▁جنوب": 775,
    "▁سراسر": 776,
    "▁بتوان": 777,
    "▁همچن": 778,
    "▁تاریخی": 779,
    "▁نوشت": 780,
    "▁پروژه": 781,
    "▁غنی": 782,
    "▁معاملات": 783,
    "▁آبان": 784,
    "▁تحقیقات": 785,
    "▁گذاشته": 786,
    "▁بینی": 787,
    "▁۱۴۰۰": 788,
    "▁دونالد": 789,
    "▁ایتالیا": 790,
    "۲": 791,
    "▁پشت": 792,
    "▁مبتلا": 793,
    "▁گیرد": 794,
    "▁فضای": 795,
    "وی": 796,
    "▁شامل": 797,
    "▁تجاری": 798,
    "▁مصوب": 799,
    "▁تشکیل": 800,
    "▁روزنامه": 801,
    "▁تحقیق": 802,
    "▁داخلی": 803,
    "▁آمد": 804,
    "▁نخواه": 805,
    "ینه": 806,
    "▁شاهد": 807,
    "▁سیاه": 808,
    "▁بازیگر": 809,
    "▁محیط": 810,
    "▁ضرب": 811,
    "▁هنگام": 812,
    "▁فعال": 813,
    "▁گو": 814,
    "▁کارگران": 815,
    "وز": 816,
    "دی": 817,
    "▁د": 818,
    "▁محلی": 819,
    "▁عمل": 820,
    "▁نبود": 821,
    "▁اختیار": 822,
    "▁مشکل": 823,
    "▁کنید": 824,
    "▁محدود": 825,
    "▁مشکلات": 826,
    "▁اف": 827,
    "▁۸": 828,
    "▁تصوی": 829,
    "▁نیروی": 830,
    "▁آسیب": 831,
    "▁شکایت": 832,
    "▁درمان": 833,
    "▁بودن": 834,
    "▁طولانی": 835,
    "▁بشک": 836,
    "▁بارسلونا": 837,
    "▁فضایی": 838,
    "▁عامل": 839,
    "▁۵۰": 840,
    "ام": 841,
    "۴": 842,
    "▁هنر": 843,
    "▁مارادونا": 844,
    "▁جمعیت": 845,
    "▁قو": 846,
    "▁دسترس": 847,
    "▁ناشی": 848,
    "نگ": 849,
    "یعن": 850,
    "▁سوخت": 851,
    "▁تجرب": 852,
    "▁بالاتر": 853,
    "▁گون": 854,
    "▁۱۱": 855,
    "▁زد": 856,
    "▁ان": 857,
    "▁واردات": 858,
    "▁ابتدای": 859,
    "▁ممنوع": 860,
    "▁جمعه": 861,
    "▁شماری": 862,
    "▁امکان": 863,
    "▁شان": 864,
    "▁درخواست": 865,
    "▁سمت": 866,
    "▁سایر": 867,
    "▁۲۲": 868,
    "سازی": 869,
    "▁پای": 870,
    "▁یاد": 871,
    "▁مسی": 872,
    "▁فرهنگی": 873,
    "▁باقی": 874,
    "▁دادند": 875,
    "▁دفاع": 876,
    "▁اولیه": 877,
    "▁شما": 878,
    "▁تهدید": 879,
    "می": 880,
    "▁کوچک": 881,
    "▁روبرو": 882,
    "▁مس": 883,
    "▁اعدام": 884,
    "پس": 885,
    "▁علت": 886,
    "▁اس": 887,
    "▁مرغ": 888,
    "▁موارد": 889,
    "▁هنری": 890,
    "▁مرتبط": 891,
    "▁آورد": 892,
    "▁ماسک": 893,
    "حفظ": 894,
    "▁لازم": 895,
    "▁متفاوت": 896,
    "▁تقریبا": 897,
    "▁نظام": 898,
    "▁وین": 899,
    "▁احتمالا": 900,
    "اس": 901,
    "▁۱۶": 902,
    "▁تاکید": 903,
    "▁صفر": 904,
    "▁صحبت": 905,
    "▁ژان": 906,
    "براز": 907,
    "▁گذشت": 908,
    "▁احمد": 909,
    "▁بگیرد": 910,
    "▁پارسال": 911,
    "▁سریال": 912,
    "▁۶۰": 913,
    "▁نگهبان": 914,
    "▁ولایت": 915,
    "▁قوانین": 916,
    "▁قطر": 917,
    "▁چهارشنبه": 918,
    "▁خون": 919,
    "▁علاو": 920,
    "▁یکشنبه": 921,
    "▁مسیر": 922,
    "▁حذف": 923,
    "▁ترتیب": 924,
    "▁مشترک": 925,
    "▁ونزوئلا": 926,
    "▁توسعه": 927,
    "▁دلایل": 928,
    "تر": 929,
    "▁سرعت": 930,
    "▁کنم": 931,
    "▁رشت": 932,
    "▁قصد": 933,
    "▁شهرهای": 934,
    "▁حل": 935,
    "مان": 936,
    "▁غرب": 937,
    "▁فهرست": 938,
    "▁خروج": 939,
    "▁روابط": 940,
    "▁بندی": 941,
    "▁اقدامات": 942,
    "▁سنت": 943,
    "▁جز": 944,
    "وق": 945,
    "▁اخیرا": 946,
    "▁نژاد": 947,
    "▁قانونی": 948,
    "▁احیا": 949,
    "▁مواد": 950,
    "▁هوا": 951,
    "▁مسئول": 952,
    "▁شهروندان": 953,
    "▁کاملا": 954,
    "▁امضا": 955,
    "۶": 956,
    "یین": 957,
    "▁هایش": 958,
    "▁سقوط": 959,
    "▁ترکیب": 960,
    "▁طبق": 961,
    "▁لو": 962,
    "▁شاید": 963,
    "▁متر": 964,
    "▁خوانده": 965,
    "▁کارخان": 966,
    "▁مصرف": 967,
    "▁تامین": 968,
    "▁نتایج": 969,
    "▁کوتاه": 970,
    "رفع": 971,
    "▁پرواز": 972,
    "▁موفق": 973,
    "▁آستان": 974,
    "▁انفجار": 975,
    "۷": 976,
    "▁۱۴": 977,
    "▁سیتی": 978,
    "▁بد": 979,
    "▁برده": 980,
    "▁اختلاف": 981,
    "▁مرز": 982,
    "▁رییس": 983,
    "▁نسل": 984,
    "▁بیرون": 985,
    "▁واحد": 986,
    "▁بدن": 987,
    "▁نقاشی": 988,
    "▁۴۰": 989,
    "▁فرد": 990,
    "▁پیشنهاد": 991,
    "▁نقطه": 992,
    "▁پایین": 993,
    "▁شمال": 994,
    "▁مشهور": 995,
    "▁قرمز": 996,
    "▁حرفه": 997,
    "▁ک": 998,
    "▁شجریان": 999,
    "▁نظیر": 1000,
    "ید": 1001,
    "▁کیلومتر": 1002,
    "▁ماند": 1003,
    "▁مارس": 1004,
    "▁ستار": 1005,
    "▁کارگردان": 1006,
    "▁صادر": 1007,
    "▁نویسنده": 1008,
    "▁صفح": 1009,
    "▁یورو": 1010,
    "▁درگیر": 1011,
    "▁رنگ": 1012,
    "▁سلامت": 1013,
    "▁جشنواره": 1014,
    "▁میزبان": 1015,
    "▁چلسی": 1016,
    "▁آماده": 1017,
    "اخر": 1018,
    "▁۱۷": 1019,
    "▁تا": 1020,
    "▁اندازه": 1021,
    "▁استرالیا": 1022,
    "▁افتاد": 1023,
    "▁اسکار": 1024,
    "▁آوریل": 1025,
    "▁گفتگو": 1026,
    "▁جهش": 1027,
    "▁سوار": 1028,
    "حه": 1029,
    "نمایی": 1030,
    "▁بخوانید": 1031,
    "▁آرژانتین": 1032,
    "▁۲۰۲۱": 1033,
    "▁همیشه": 1034,
    "▁یونایتد": 1035,
    "▁مالیات": 1036,
    "▁شاخص": 1037,
    "▁زاده": 1038,
    "▁افغان": 1039,
    "▁توصیف": 1040,
    "▁فوت": 1041,
    "▁آلود": 1042,
    "▁مجازی": 1043,
    "▁مردان": 1044,
    "▁تاکنون": 1045,
    "▁محمود": 1046,
    "▁۱۸": 1047,
    "▁رفتن": 1048,
    "▁چپ": 1049,
    "▁قلب": 1050,
    "▁تجارت": 1051,
    "▁فرصت": 1052,
    "▁اطلاع": 1053,
    "▁عباس": 1054,
    "▁نگران": 1055,
    "▁بزرگترین": 1056,
    "▁لای": 1057,
    "▁کو": 1058,
    "▁بریتانیایی": 1059,
    "▁عملیات": 1060,
    "▁پاریس": 1061,
    "▁جمع": 1062,
    "▁طلا": 1063,
    "سی": 1064,
    "▁کمیت": 1065,
    "▁معروف": 1066,
    "▁روشن": 1067,
    "گر": 1068,
    "▁پل": 1069,
    "خانه": 1070,
    "▁کنندگان": 1071,
    "▁هواپیمایی": 1072,
    "▁من": 1073,
    "▁اوپک": 1074,
    "▁نهادهای": 1075,
    "▁برسد": 1076,
    "▁اعتراضات": 1077,
    "▁دومین": 1078,
    "▁علمی": 1079,
    "اساس": 1080,
    "▁مذاکر": 1081,
    "▁اعمال": 1082,
    "▁هشت": 1083,
    "▁سنگین": 1084,
    "▁۵۰۰": 1085,
    "▁مهد": 1086,
    "▁روش": 1087,
    "▁واقع": 1088,
    "ع": 1089,
    "▁ایمن": 1090,
    "▁بارها": 1091,
    "▁اضاف": 1092,
    "▁مجدد": 1093,
    "▁نظارت": 1094,
    "▁هرات": 1095,
    "▁مل": 1096,
    "بی": 1097,
    "▁پروازهای": 1098,
    "▁تاج": 1099,
    "▁تهی": 1100,
    "▁دارایی": 1101,
    "▁منج": 1102,
    "▁چیزی": 1103,
    "▁ندارند": 1104,
    "▁مقایس": 1105,
    "▁رعایت": 1106,
    "▁جدول": 1107,
    "▁آتش": 1108,
    "▁اتاق": 1109,
    "▁مشابه": 1110,
    "▁سایت": 1111,
    "▁زنده": 1112,
    "▁کالا": 1113,
    "▁پیام": 1114,
    "▁منتقل": 1115,
    "▁مناطق": 1116,
    "▁حادثه": 1117,
    "▁خصوصی": 1118,
    "▁چاپ": 1119,
    "ایران": 1120,
    "▁سریع": 1121,
    "▁دکتر": 1122,
    "▁روان": 1123,
    "▁سنگ": 1124,
    "▁۹۸": 1125,
    "▁موفقیت": 1126,
    "▁۹۰": 1127,
    "▁خواننده": 1128,
    "▁کشورها": 1129,
    "▁ملت": 1130,
    "▁تابستان": 1131,
    "▁زیست": 1132,
    "▁رسیدن": 1133,
    "▁کاخ": 1134,
    "▁سرطان": 1135,
    "▁تاتنهام": 1136,
    "▁بهبود": 1137,
    "▁باخت": 1138,
    "▁کدام": 1139,
    "▁خواند": 1140,
    "طور": 1141,
    "▁بهتر": 1142,
    "▁پژوهش": 1143,
    "علی": 1144,
    "▁امید": 1145,
    "▁۲۰۱": 1146,
    "▁مانع": 1147,
    "▁توییتر": 1148,
    "▁حق": 1149,
    "▁عمده": 1150,
    "ممنوعیت": 1151,
    "▁مهر": 1152,
    "▁هواداران": 1153,
    "▁فعالان": 1154,
    "▁کلی": 1155,
    "▁توپ": 1156,
    "▁عملکرد": 1157,
    "▁حوزه": 1158,
    "▁صدای": 1159,
    "▁سوریه": 1160,
    "▁پور": 1161,
    "▁بیست": 1162,
    "▁دوست": 1163,
    "▁پ": 1164,
    "▁مجوز": 1165,
    "عودی": 1166,
    "▁بنزین": 1167,
    "▁احمدی": 1168,
    "▁انگیز": 1169,
    "▁برداشت": 1170,
    "دو": 1171,
    "▁سفید": 1172,
    "▁اینترنت": 1173,
    "▁رکود": 1174,
    "وایل": 1175,
    "▁بیشتری": 1176,
    "▁آید": 1177,
    "▁دهم": 1178,
    "▁کشف": 1179,
    "▁منچستر": 1180,
    "▁گمرک": 1181,
    "▁پیشتر": 1182,
    "▁درست": 1183,
    "▁گاه": 1184,
    "▁رابط": 1185,
    "▁سفیر": 1186,
    "▁ریز": 1187,
    "▁گذاشت": 1188,
    "▁تی": 1189,
    "▁ایالت": 1190,
    "▁خصوص": 1191,
    "▁۲۴": 1192,
    "▁صدا": 1193,
    "▁دین": 1194,
    "▁نقدینگی": 1195,
    "▁تاجیکستان": 1196,
    "▁فساد": 1197,
    "▁بحرین": 1198,
    "▁مادرید": 1199,
    "▁بحث": 1200,
    "▁تصاویر": 1201,
    "▁گروهی": 1202,
    "▁تغییرات": 1203,
    "▁جنسی": 1204,
    "لی": 1205,
    "▁نشد": 1206,
    "▁دختر": 1207,
    "▁رانند": 1208,
    "▁کن": 1209,
    "▁برخورد": 1210,
    "▁خوزستان": 1211,
    "▁دچار": 1212,
    "▁حزب": 1213,
    "▁رفتار": 1214,
    "عده": 1215,
    "▁خودروساز": 1216,
    "▁راست": 1217,
    "▁کارگر": 1218,
    "▁چیز": 1219,
    "▁پایتخت": 1220,
    "▁مواجه": 1221,
    "▁بستر": 1222,
    "▁گذار": 1223,
    "▁مقررات": 1224,
    "▁گردد": 1225,
    "▁ارتش": 1226,
    "▁مجله": 1227,
    "▁فرمانده": 1228,
    "▁اظهارات": 1229,
    "▁مغز": 1230,
    "▁۱۰۰": 1231,
    "تبه": 1232,
    "▁خبرنگار": 1233,
    "اقل": 1234,
    "▁مستند": 1235,
    "▁افتاده": 1236,
    "▁طبیعی": 1237,
    "▁خالی": 1238,
    "▁پوند": 1239,
    "▁شرق": 1240,
    "▁مک": 1241,
    "چند": 1242,
    "نیوم": 1243,
    "▁دریا": 1244,
    "▁انگلیسی": 1245,
    "بیشتر": 1246,
    "▁۲۸": 1247,
    "▁جوان": 1248,
    "▁محمو": 1249,
    "▁نقاط": 1250,
    "▁مشغول": 1251,
    "ح": 1252,
    "▁عبور": 1253,
    "▁یو": 1254,
    "▁بازارهای": 1255,
    "▁سینمایی": 1256,
    "▁هنرمند": 1257,
    "▁حرف": 1258,
    "▁پدر": 1259,
    "▁قضایی": 1260,
    "▁رساند": 1261,
    "▁اسپانیا": 1262,
    "▁ارشد": 1263,
    "▁کاری": 1264,
    "▁اورا": 1265,
    "▁زدن": 1266,
    "▁بن": 1267,
    "▁گر": 1268,
    "▁امیدوار": 1269,
    "▁شاه": 1270,
    "▁موجود": 1271,
    "▁عهد": 1272,
    "▁حریف": 1273,
    "محمد": 1274,
    "▁پوست": 1275,
    "▁مجبور": 1276,
    "▁فدرر": 1277,
    "▁کنون": 1278,
    "▁جایی": 1279,
    "▁۲۳": 1280,
    "▁مه": 1281,
    "▁روزانه": 1282,
    "کنندگان": 1283,
    "▁خاک": 1284,
    "▁قتل": 1285,
    "▁هدایت": 1286,
    "فورد": 1287,
    "▁سخنران": 1288,
    "▁موافقت": 1289,
    "▁قدیمی": 1290,
    "▁درواز": 1291,
    "▁سکه": 1292,
    "▁کارشناسان": 1293,
    "▁صعود": 1294,
    "▁مثبت": 1295,
    "▁فارس": 1296,
    "▁پیوست": 1297,
    "▁بیکار": 1298,
    "▁رخ": 1299,
    "▁نور": 1300,
    "▁بال": 1301,
    "▁دوچرخه": 1302,
    "▁زاغری": 1303,
    "▁معتقد": 1304,
    "▁-": 1305,
    "▁نفتکش": 1306,
    "▁قطعی": 1307,
    "▁ما": 1308,
    "▁پنجم": 1309,
    "▁تقوی": 1310,
    "▁توضیح": 1311,
    "▁ظاهر": 1312,
    "▁شعر": 1313,
    "▁تشخیص": 1314,
    "▁وابست": 1315,
    "▁مرداد": 1316,
    "▁رئال": 1317,
    "۹": 1318,
    "▁وزن": 1319,
    "▁نمو": 1320,
    "▁حسین": 1321,
    "▁صحنه": 1322,
    "▁آورده": 1323,
    "▁ابتدا": 1324,
    "▁ناز": 1325,
    "▁کودک": 1326,
    "▁نشری": 1327,
    "▁بنز": 1328,
    "▁تجمع": 1329,
    "▁هوشمند": 1330,
    "▁۱۳۹۹": 1331,
    "▁عدالت": 1332,
    "▁یابد": 1333,
    "▁چه": 1334,
    "▁دفتر": 1335,
    "▁دارو": 1336,
    "▁فنی": 1337,
    "▁افزوده": 1338,
    "▁درآمدها": 1339,
    "▁سود": 1340,
    "▁ظرف": 1341,
    "▁انگلستان": 1342,
    "▁دوربین": 1343,
    "▁حب": 1344,
    "▁ساختمان": 1345,
    "▁فیفا": 1346,
    "ره": 1347,
    "▁مدیریت": 1348,
    "▁مالک": 1349,
    "▁پذیر": 1350,
    "▁دنیای": 1351,
    "شب": 1352,
    "▁تسل": 1353,
    "▁ماهه": 1354,
    "▁اجرایی": 1355,
    "▁پاسداران": 1356,
    "▁دانند": 1357,
    "▁دبیر": 1358,
    "نی": 1359,
    "▁آوری": 1360,
    "یر": 1361,
    "▁بنا": 1362,
    "نا": 1363,
    "▁زنی": 1364,
    "▁مد": 1365,
    "▁رضا": 1366,
    "▁کشاورز": 1367,
    "وم": 1368,
    "▁مستقیم": 1369,
    "صد": 1370,
    "▁اقیانوس": 1371,
    "▁پیشرفت": 1372,
    "خواهان": 1373,
    "▁العاده": 1374,
    "▁صبح": 1375,
    "▁بهار": 1376,
    "وس": 1377,
    "اوری": 1378,
    "▁دختران": 1379,
    "▁ژاپن": 1380,
    "▁فوریه": 1381,
    "▁مت": 1382,
    "بود": 1383,
    "▁فراهم": 1384,
    "غلب": 1385,
    "▁بهمن": 1386,
    "▁شخصیت": 1387,
    "▁رمان": 1388,
    "دار": 1389,
    "▁چک": 1390,
    "▁سعید": 1391,
    "▁دل": 1392,
    "▁وضع": 1393,
    "▁استقبال": 1394,
    "▁مدعی": 1395,
    "▁مدافع": 1396,
    "▁موزه": 1397,
    "▁معتبر": 1398,
    "▁موقعیت": 1399,
    "▁خورد": 1400,
    "▁جنگل": 1401,
    "▁زندانی": 1402,
    "▁تز": 1403,
    "▁صدر": 1404,
    "▁مقامات": 1405,
    "▁میدان": 1406,
    "▁آموزش": 1407,
    "▁ژوئن": 1408,
    "▁بیت": 1409,
    "▁تماس": 1410,
    "نین": 1411,
    "▁کشورش": 1412,
    "▁واقعی": 1413,
    "شنبه": 1414,
    "▁اع": 1415,
    "▁مادر": 1416,
    "▁تخم": 1417,
    "▁حمل": 1418,
    "▁شخصی": 1419,
    "▁دید": 1420,
    "▁زود": 1421,
    "▁۳۰۰": 1422,
    "▁خانگی": 1423,
    "▁طالبان": 1424,
    "▁جنجال": 1425,
    "▁مخالفت": 1426,
    "▁امام": 1427,
    "▁مسافران": 1428,
    "▁فعلی": 1429,
    "▁پا": 1430,
    "▁قبلا": 1431,
    "▁محصولات": 1432,
    "یست": 1433,
    "▁مکان": 1434,
    "▁اردیبهشت": 1435,
    "▁روایت": 1436,
    "▁فایل": 1437,
    "▁چیست": 1438,
    "▁معادل": 1439,
    "▁کانال": 1440,
    "▁محمدرضا": 1441,
    "▁سفارت": 1442,
    "▁کاربران": 1443,
    "▁بیماران": 1444,
    "۱": 1445,
    "▁دانشمندان": 1446,
    "ازگی": 1447,
    "ستاره": 1448,
    "▁اوت": 1449,
    "▁سینمای": 1450,
    "تان": 1451,
    "▁فرزند": 1452,
    "▁پاکستان": 1453,
    "▁۲۱": 1454,
    "▁کارهای": 1455,
    "▁علاق": 1456,
    "▁تحویل": 1457,
    "▁سرشناس": 1458,
    "▁بایرن": 1459,
    "▁عرب": 1460,
    "▁جشن": 1461,
    "▁عجیب": 1462,
    "▁تلفن": 1463,
    "▁رویترز": 1464,
    "▁گوش": 1465,
    "▁اوج": 1466,
    "▁صوتی": 1467,
    "▁جدا": 1468,
    "▁ترانه": 1469,
    "▁همسر": 1470,
    "▁بنابر": 1471,
    "ریمه": 1472,
    "▁بیمار": 1473,
    "▁اصلاح": 1474,
    "▁بدهی": 1475,
    "▁توصی": 1476,
    "▁واکسین": 1477,
    "▁نشود": 1478,
    "▁خرداد": 1479,
    "▁قدم": 1480,
    "▁دانش": 1481,
    "▁هستیم": 1482,
    "▁خواهیم": 1483,
    "▁بهداشتی": 1484,
    "▁مهار": 1485,
    "اک": 1486,
    "▁سرخ": 1487,
    "▁آرام": 1488,
    "▁سوئیس": 1489,
    "▁ساز": 1490,
    "▁فرانسوی": 1491,
    "▁مدیرعامل": 1492,
    "▁مبتلایان": 1493,
    "▁نوری": 1494,
    "▁قسمت": 1495,
    "نقض": 1496,
    "▁اوراق": 1497,
    "▁خدمات": 1498,
    "▁مجری": 1499,
    "▁هی": 1500,
    "▁جدیدی": 1501,
    "▁استاد": 1502,
    "▁علیرضا": 1503,
    "▁منف": 1504,
    "دود": 1505,
    "▁گران": 1506,
    "▁مبلغ": 1507,
    "▁آلبوم": 1508,
    "▁سیستان": 1509,
    "▁مجید": 1510,
    "▁ع": 1511,
    "▁گیرند": 1512,
    "ط": 1513,
    "▁عق": 1514,
    "▁برمی": 1515,
    "▁نداشته": 1516,
    "▁معامل": 1517,
    "▁گرم": 1518,
    "▁آلمانی": 1519,
    "▁حفاظت": 1520,
    "▁ارسال": 1521,
    "▁کارکنان": 1522,
    "▁جزئیات": 1523,
    "▁خلق": 1524,
    "الدین": 1525,
    "▁پالایشگاه": 1526,
    "▁عادی": 1527,
    "یابی": 1528,
    "▁متوسط": 1529,
    "▁گستر": 1530,
    "پ": 1531,
    "▁اینستاگرام": 1532,
    "▁۲۶": 1533,
    "اسی": 1534,
    "▁نهایت": 1535,
    "▁برگشت": 1536,
    "▁تورنمنت": 1537,
    "▁سوپر": 1538,
    "▁نوامبر": 1539,
    "▁رونالدو": 1540,
    "▁فرهاد": 1541,
    "▁موقت": 1542,
    "▁اسطوره": 1543,
    "▁تقاضا": 1544,
    "▁نویس": 1545,
    "▁هاست": 1546,
    "▁فوری": 1547,
    "▁موتور": 1548,
    "▁جراح": 1549,
    "▁کنونی": 1550,
    "سال": 1551,
    "▁نداشت": 1552,
    "▁لحظ": 1553,
    "▁معرض": 1554,
    "▁متعل": 1555,
    "▁کنسرت": 1556,
    "۳": 1557,
    "▁۲۰۱۷": 1558,
    "▁واشنگتن": 1559,
    "▁تخریب": 1560,
    "▁جوایز": 1561,
    "▁ضد": 1562,
    "▁اخراج": 1563,
    "▁ضرور": 1564,
    "▁ارزی": 1565,
    "▁ایم": 1566,
    "▁نشر": 1567,
    "▁هست": 1568,
    "▁موشک": 1569,
    "▁گ": 1570,
    "▁مهاجم": 1571,
    "▁خورده": 1572,
    "▁سند": 1573,
    "▁احساس": 1574,
    "▁لباس": 1575,
    "▁۳۵": 1576,
    "▁دریایی": 1577,
    "▁اکت": 1578,
    "▁عصر": 1579,
    "▁هواپیما": 1580,
    "▁نگه": 1581,
    "▁مدیران": 1582,
    "▁غذا": 1583,
    "▁داریم": 1584,
    "▁عین": 1585,
    "▁برزیل": 1586,
    "▁چندان": 1587,
    "▁خورشیدی": 1588,
    "▁مشا": 1589,
    "▁۷۰": 1590,
    "▁تومانی": 1591,
    "ای": 1592,
    "▁فر": 1593,
    "▁غذای": 1594,
    "▁صرف": 1595,
    "▁نحو": 1596,
    "هرگز": 1597,
    "▁نتوانست": 1598,
    "▁مسلح": 1599,
    "▁سوال": 1600,
    "▁امارات": 1601,
    "▁رافائل": 1602,
    "دولت": 1603,
    "لان": 1604,
    "▁ناظر": 1605,
    "▁دیوان": 1606,
    "▁۸۰": 1607,
    "سون": 1608,
    "▁کافی": 1609,
    "▁راهی": 1610,
    "▁حس": 1611,
    "▁لی": 1612,
    "کش": 1613,
    "▁معنای": 1614,
    "▁ملک": 1615,
    "▁دریای": 1616,
    "▁اشتباه": 1617,
    "▁بلوچستان": 1618,
    "▁۱۳۹۸": 1619,
    "▁محرم": 1620,
    "▁پست": 1621,
    "▁کردم": 1622,
    "▁ایستگاه": 1623,
    "▁آهنگ": 1624,
    "▁تصور": 1625,
    "داری": 1626,
    "▁معمولا": 1627,
    "▁نیرو": 1628,
    "▁فوتبالیست": 1629,
    "خانم": 1630,
    "▁خودروهای": 1631,
    "▁فردا": 1632,
    "▁داند": 1633,
    "▁داشتن": 1634,
    "▁خر": 1635,
    "▁نج": 1636,
    "توجه": 1637,
    "قیف": 1638,
    "امبر": 1639,
    "▁سعی": 1640,
    "▁مطالع": 1641,
    "▁ویمبلدون": 1642,
    "▁نوبل": 1643,
    "▁جیمز": 1644,
    "▁بازگش": 1645,
    "▁نیویورک": 1646,
    "▁گام": 1647,
    "▁معترضان": 1648,
    "▁تعهدات": 1649,
    "▁آذر": 1650,
    "مقام": 1651,
    "▁قضائیه": 1652,
    "▁برقرار": 1653,
    "ئو": 1654,
    "سازمان": 1655,
    "ما": 1656,
    "▁فرمو": 1657,
    "▁مر": 1658,
    "▁فضا": 1659,
    "گرد": 1660,
    "اب": 1661,
    "▁آبی": 1662,
    "▁زخمی": 1663,
    "گری": 1664,
    "▁توییت": 1665,
    "▁مرزی": 1666,
    "▁کالاهای": 1667,
    "▁ژوئیه": 1668,
    "▁صلح": 1669,
    "▁قاچاق": 1670,
    "▁تیر": 1671,
    "▁غربی": 1672,
    "رضا": 1673,
    "▁دما": 1674,
    "وزارت": 1675,
    "▁خیابان": 1676,
    "▁هموار": 1677,
    "▁حسینی": 1678,
    "▁ض": 1679,
    "▁خوش": 1680,
    "▁تقاضای": 1681,
    "▁حاصل": 1682,
    "▁مونیخ": 1683,
    "▁بهادار": 1684,
    "▁آمازون": 1685,
    "▁نگهداری": 1686,
    "▁پرتاب": 1687,
    "▁نادال": 1688,
    "▁حاشیه": 1689,
    "▁انجمن": 1690,
    "▁لیون": 1691,
    "▁دیدن": 1692,
    "فدراسیون": 1693,
    "▁امیر": 1694,
    "▁مخالفان": 1695,
    "برای": 1696,
    "▁نزدیکی": 1697,
    "▁پژوهشگران": 1698,
    "▁جمعی": 1699,
    "▁خبرنگاران": 1700,
    "یو": 1701,
    "▁شاعر": 1702,
    "▁۹۹": 1703,
    "▁شهروند": 1704,
    "▁محبوب": 1705,
    "▁تعویق": 1706,
    "▁اهمیت": 1707,
    "▁مریخ": 1708,
    "▁موسو": 1709,
    "▁ادبیات": 1710,
    "▁نویسندگان": 1711,
    "▁یکدیگر": 1712,
    "▁مالکی": 1713,
    "▁تیراندازی": 1714,
    "▁هواپیمای": 1715,
    "▁دشوار": 1716,
    "▁برود": 1717,
    "▁آمیز": 1718,
    "▁اندازی": 1719,
    "▁مربیان": 1720,
    "▁باره": 1721,
    "▁گرفتند": 1722,
    "▁عبدال": 1723,
    "▁توقف": 1724,
    "▁متعدد": 1725,
    "▁پارک": 1726,
    "▁مراجع": 1727,
    "▁صلاحیت": 1728,
    "▁عوامل": 1729,
    "▁حکام": 1730,
    "▁برجسته": 1731,
    "▁سیما": 1732,
    "▁چهل": 1733,
    "▁ورزشکاران": 1734,
    "خبرگزا": 1735,
    "▁روزها": 1736,
    "▁واقعیت": 1737,
    "قدر": 1738,
    "جا": 1739,
    "رکت": 1740,
    "▁اکبر": 1741,
    "▁مناسب": 1742,
    "▁آل": 1743,
    "▁اختصاص": 1744,
    "▁افتخار": 1745,
    "▁آزار": 1746,
    "▁آسمان": 1747,
    "▁ایسنا": 1748,
    "▁دارای": 1749,
    "▁سپت": 1750,
    "من": 1751,
    "▁سخنان": 1752,
    "حسین": 1753,
    "قانونی": 1754,
    "▁پزشک": 1755,
    "▁پدید": 1756,
    "▁قاسم": 1757,
    "▁ایستاد": 1758,
    "▁۳۱": 1759,
    "▁پرس": 1760,
    "ینگ": 1761,
    "▁تمامی": 1762,
    "▁جذب": 1763,
    "▁صنایع": 1764,
    "▁ثابت": 1765,
    "▁سراوان": 1766,
    "▁آنلاین": 1767,
    "▁چالش": 1768,
    "▁پروتکل": 1769,
    "▁مطابق": 1770,
    "▁ماموران": 1771,
    "▁ساکن": 1772,
    "▁کلاس": 1773,
    "▁پسر": 1774,
    "▁سلیمانی": 1775,
    "▁لس": 1776,
    "▁ارزها": 1777,
    "تا": 1778,
    "▁داروی": 1779,
    "▁بازرگانی": 1780,
    "▁کی": 1781,
    "▁حیات": 1782,
    "▁خان": 1783,
    "▁باور": 1784,
    "▁حج": 1785,
    "وئل": 1786,
    "▁سلطنت": 1787,
    "▁توکیو": 1788,
    "▁حاکی": 1789,
    "▁بوکس": 1790,
    "▁ریال": 1791,
    "▁رسما": 1792,
    "▁همتی": 1793,
    "▁خشک": 1794,
    "▁خدم": 1795,
    "وید": 1796,
    "▁کارمندان": 1797,
    "▁احتمالی": 1798,
    "▁کردیم": 1799,
    "▁زند": 1800,
    "۱۶": 1801,
    "اسیون": 1802,
    "▁درجه": 1803,
    "▁همچو": 1804,
    "▁۲۹": 1805,
    "▁دام": 1806,
    "▁خورشید": 1807,
    "▁رقیب": 1808,
    "کار": 1809,
    "▁محروم": 1810,
    "▁مارک": 1811,
    "▁مسئ": 1812,
    "▁قالیباف": 1813,
    "▁خشونت": 1814,
    "▁اخبار": 1815,
    "ظیم": 1816,
    "▁بازگرداند": 1817,
    "▁جایگاه": 1818,
    "▁تاسیسات": 1819,
    "▁وکیل": 1820,
    "▁راجر": 1821,
    "ود": 1822,
    "▁بندر": 1823,
    "شیدا": 1824,
    "▁هنرمندان": 1825,
    "▁استعفا": 1826,
    "▁مواردی": 1827,
    "▁مسافر": 1828,
    "▁گفتند": 1829,
    "▁شک": 1830,
    "باید": 1831,
    "▁اسرائیلی": 1832,
    "▁ز": 1833,
    "▁بلا": 1834,
    "▁کارشناس": 1835,
    "▁عکاسی": 1836,
    "علوم": 1837,
    "▁ارقام": 1838,
    "▁اجلاس": 1839,
    "▁فرودگاه": 1840,
    "▁پلاس": 1841,
    "ساوی": 1842,
    "▁اهل": 1843,
    "▁پنجاه": 1844,
    "▁اسکن": 1845,
    "▁گذارد": 1846,
    "▁شهرت": 1847,
    "▁مایک": 1848,
    "▁بعدا": 1849,
    "▁چرخ": 1850,
    "▁ترس": 1851,
    "▁ماجرا": 1852,
    "▁جه": 1853,
    "▁اید": 1854,
    "▁الملل": 1855,
    "▁زاد": 1856,
    "▁بان": 1857,
    "▁نامداری": 1858,
    "▁بازرس": 1859,
    "▁توزیع": 1860,
    "▁طبیعت": 1861,
    "▁جذاب": 1862,
    "▁سبک": 1863,
    "▁ماده": 1864,
    "نس": 1865,
    "▁یوونتوس": 1866,
    "▁جوکوویچ": 1867,
    "▁طرفداران": 1868,
    "▁میلان": 1869,
    "▁شیو": 1870,
    "▁زندانیان": 1871,
    "▁متحد": 1872,
    "▁جودو": 1873,
    "▁سهم": 1874,
    "▁مخالف": 1875,
    "داد": 1876,
    "▁فردی": 1877,
    "لو": 1878,
    "بط": 1879,
    "▁فرا": 1880,
    "▁نگار": 1881,
    "▁عمیق": 1882,
    "▁برادر": 1883,
    "▁اصفهان": 1884,
    "▁دعوت": 1885,
    "▁دیجیتال": 1886,
    "▁جبران": 1887,
    "▁تاخیر": 1888,
    "▁شهریور": 1889,
    "▁صراف": 1890,
    "▁منتظر": 1891,
    "▁سد": 1892,
    "▁ضمن": 1893,
    "▁ناسا": 1894,
    "▁هیا": 1895,
    "▁پاس": 1896,
    "▁جواد": 1897,
    "▁کلوپ": 1898,
    "▁منتقدان": 1899,
    "▁سای": 1900,
    "لیک": 1901,
    "▁قوی": 1902,
    "▁کارها": 1903,
    "کن": 1904,
    "▁تست": 1905,
    "▁خلی": 1906,
    "▁اصل": 1907,
    "▁اسب": 1908,
    "▁گیر": 1909,
    "انجام": 1910,
    "▁آور": 1911,
    "▁ادبی": 1912,
    "▁وگو": 1913,
    "هر": 1914,
    "▁صف": 1915,
    "▁تحصیل": 1916,
    "▁نهم": 1917,
    "▁مراکز": 1918,
    "▁کاپیتان": 1919,
    "▁متولد": 1920,
    "▁آنجلس": 1921,
    "▁تمدید": 1922,
    "وع": 1923,
    "▁گذرد": 1924,
    "▁حراج": 1925,
    "▁گلستان": 1926,
    "▁پن": 1927,
    "▁مشاور": 1928,
    "▁اتریش": 1929,
    "▁دستمزد": 1930,
    "یکی": 1931,
    "کس": 1932,
    "▁خاص": 1933,
    "▁عدد": 1934,
    "لاک": 1935,
    "▁بو": 1936,
    "▁مسک": 1937,
    "▁متن": 1938,
    "▁۳۲": 1939,
    "▁جاد": 1940,
    "▁فرستاده": 1941,
    "▁ورزشکار": 1942,
    "▁فرار": 1943,
    "▁موثر": 1944,
    "▁رحمان": 1945,
    "▁اساسی": 1946,
    "▁ست": 1947,
    "▁مسائل": 1948,
    "▁مراقب": 1949,
    "▁مشمول": 1950,
    "▁مقصد": 1951,
    "▁لوکس": 1952,
    "▁سرپرست": 1953,
    "▁نرم": 1954,
    "▁جلوی": 1955,
    "▁اتفاقات": 1956,
    "▁پایه": 1957,
    "▁گردشگری": 1958,
    "▁ثانی": 1959,
    "تیم": 1960,
    "▁مجاز": 1961,
    "▁۴۲": 1962,
    "▁زا": 1963,
    "▁تمرین": 1964,
    "▁شرقی": 1965,
    "دست": 1966,
    "▁اتومبیل": 1967,
    "▁سرنگون": 1968,
    "▁هنرپیشه": 1969,
    "▁خسارت": 1970,
    "▁قبول": 1971,
    "▁۱۳۹۷": 1972,
    "ضاع": 1973,
    "▁فراموش": 1974,
    "▁فیزیک": 1975,
    "▁واگذار": 1976,
    "▁فیسبوک": 1977,
    "▁جسد": 1978,
    "▁تخت": 1979,
    "▁تری": 1980,
    "▁حذفی": 1981,
    "▁قول": 1982,
    "▁همسرش": 1983,
    "▁شبی": 1984,
    "ص": 1985,
    "رنگ": 1986,
    "▁چشمگیر": 1987,
    "▁سهمی": 1988,
    "گون": 1989,
    "▁نقاش": 1990,
    "▁درک": 1991,
    "...": 1992,
    "▁برآورد": 1993,
    "▁فرود": 1994,
    "▁آهن": 1995,
    "▁دوستان": 1996,
    "ول": 1997,
    "▁نوروز": 1998,
    "▁تئاتر": 1999,
    "▁بقیه": 2000,
    "▁زمستان": 2001,
    "▁بخت": 2002,
    "▁ناپذیر": 2003,
    "▁خیریه": 2004,
    "▁گزین": 2005,
    "▁انداز": 2006,
    "▁هماهنگ": 2007,
    "▁بنیاد": 2008,
    "▁شناسی": 2009,
    "▁شاملو": 2010,
    "۱۸": 2011,
    "▁گری": 2012,
    "▁محققان": 2013,
    "▁مان": 2014,
    "▁سامانه": 2015,
    "سا": 2016,
    "▁سپاهان": 2017,
    "▁افزود": 2018,
    "▁شمالی": 2019,
    "چ": 2020,
    "لا": 2021,
    "فسور": 2022,
    "▁هرچ": 2023,
    "▁حامل": 2024,
    "▁کالیفرنیا": 2025,
    "▁تنفس": 2026,
    "▁اسکاتلند": 2027,
    "▁مشاهد": 2028,
    "▁میراث": 2029,
    "▁تحولات": 2030,
    "شویی": 2031,
    "▁آر": 2032,
    "ازم": 2033,
    "▁پدرش": 2034,
    "ظ": 2035,
    "▁قر": 2036,
    "یا": 2037,
    "▁باب": 2038,
    "هفته": 2039,
    "▁ذخ": 2040,
    "▁رادیو": 2041,
    "▁بند": 2042,
    "▁آشنا": 2043,
    "▁رویکرد": 2044,
    "خراج": 2045,
    "▁دستگیر": 2046,
    "▁دیوار": 2047,
    "▁جامع": 2048,
    "▁شاغل": 2049,
    "▁چنان": 2050,
    "▁صدرنشین": 2051,
    "▁موضع": 2052,
    "▁اطمینان": 2053,
    "▁تکرار": 2054,
    "▁کانادا": 2055,
    "▁عید": 2056,
    "▁ازدواج": 2057,
    "▁آرسنال": 2058,
    "▁ساحل": 2059,
    "▁۲۰۱۵": 2060,
    "▁ساعات": 2061,
    "▁نارنجی": 2062,
    "▁پرو": 2063,
    "▁اوپ": 2064,
    "▁تماشاگران": 2065,
    "رئیس": 2066,
    "همزمان": 2067,
    "▁نداده": 2068,
    "بار": 2069,
    "▁بعدی": 2070,
    "جمع": 2071,
    "▁دامن": 2072,
    "▁ذهن": 2073,
    "▁رهبری": 2074,
    "۱۹": 2075,
    "رسدس": 2076,
    "▁ابلاغ": 2077,
    "▁محافظ": 2078,
    "▁نطنز": 2079,
    "▁اطراف": 2080,
    "▁فیوری": 2081,
    "▁ناگهان": 2082,
    "▁مشهد": 2083,
    "▁پنهان": 2084,
    "▁بماند": 2085,
    "▁فعلا": 2086,
    "▁نفس": 2087,
    "▁مقدار": 2088,
    "▁مار": 2089,
    "▁پاپ": 2090,
    "▁باغ": 2091,
    "▁برخوردار": 2092,
    "▁آماد": 2093,
    "مه": 2094,
    "▁۳۳": 2095,
    "▁سوز": 2096,
    "▁شبانه": 2097,
    "ناصر": 2098,
    "گزارش": 2099,
    "▁کارت": 2100,
    "عهد": 2101,
    "▁محمدی": 2102,
    "کا": 2103,
    "▁صاحب": 2104,
    "ساز": 2105,
    "▁توانسته": 2106,
    "▁مبن": 2107,
    "▁عکاس": 2108,
    "▁هشتم": 2109,
    "دن": 2110,
    "▁تعلیق": 2111,
    "▁عمدتا": 2112,
    "▁رونق": 2113,
    "▁دسامبر": 2114,
    "▁الهام": 2115,
    "▁بگیرند": 2116,
    "▁سوئد": 2117,
    "▁مسعود": 2118,
    "▁اسناد": 2119,
    "▁قربانیان": 2120,
    "▁ذر": 2121,
    "▁حداکثر": 2122,
    "▁مشتریان": 2123,
    "هم": 2124,
    "▁پاک": 2125,
    "▁۲۷": 2126,
    "▁نیازمند": 2127,
    "▁سا": 2128,
    "۱۴": 2129,
    "▁گرانی": 2130,
    "▁نادر": 2131,
    "▁جوانان": 2132,
    "▁یخ": 2133,
    "▁خواب": 2134,
    "▁هفتم": 2135,
    "▁کوه": 2136,
    "رز": 2137,
    "▁انداخت": 2138,
    "▁کلیه": 2139,
    "▁نوجوان": 2140,
    "ورت": 2141,
    "▁نیستند": 2142,
    "▁وق": 2143,
    "▁جی": 2144,
    "▁اظهار": 2145,
    "▁نداریم": 2146,
    "▁ژافره": 2147,
    "▁ساده": 2148,
    "▁آکادمی": 2149,
    "▁عرص": 2150,
    "▁پادتن": 2151,
    "▁بهر": 2152,
    "▁تولد": 2153,
    "▁ماموریت": 2154,
    "▁یمن": 2155,
    "▁قار": 2156,
    "▁لبنان": 2157,
    "▁فروخته": 2158,
    "▁اسکی": 2159,
    "▁مرور": 2160,
    "▁سرکوب": 2161,
    "▁کارزار": 2162,
    "▁حملات": 2163,
    "▁آفریقا": 2164,
    "▁لستر": 2165,
    "▁دادستان": 2166,
    "▁امر": 2167,
    "▁داور": 2168,
    "▁استاندار": 2169,
    "▁ایتالیایی": 2170,
    "▁خواه": 2171,
    "▁برداری": 2172,
    "▁۴۵": 2173,
    "▁یافتن": 2174,
    "▁مج": 2175,
    "▁انتخاباتی": 2176,
    "▁خاتمی": 2177,
    "▁مدار": 2178,
    "▁اطلاعی": 2179,
    "▁حقوقی": 2180,
    "▁شغل": 2181,
    "اپی": 2182,
    "ماه": 2183,
    "▁خاصی": 2184,
    "▁فولک": 2185,
    "▁تماشاگر": 2186,
    "▁عمر": 2187,
    "▁مو": 2188,
    "▁میانه": 2189,
    "▁تاسیس": 2190,
    "▁محصول": 2191,
    "▁اضطرار": 2192,
    "▁اعتبار": 2193,
    "▁ژرمن": 2194,
    "▁جلب": 2195,
    "▁تصادف": 2196,
    "▁بدهد": 2197,
    "▁ترجم": 2198,
    "▁خمینی": 2199,
    "▁نسخ": 2200,
    "▁شواهد": 2201,
    "▁دستورالعمل": 2202,
    "▁بازنشستگان": 2203,
    "▁حیوانات": 2204,
    "▁محرومیت": 2205,
    "▁هویت": 2206,
    "وثی": 2207,
    "▁جانب": 2208,
    "▁مسئولیت": 2209,
    "▁آمدن": 2210,
    "▁انداخته": 2211,
    "▁پیچیده": 2212,
    "حسن": 2213,
    "▁کالاها": 2214,
    "اد": 2215,
    "▁شرکتهای": 2216,
    "لند": 2217,
    "رون": 2218,
    "▁نامید": 2219,
    "▁بردن": 2220,
    "▁نبوده": 2221,
    "▁رویا": 2222,
    "▁دوز": 2223,
    "▁تماشای": 2224,
    "▁ریش": 2225,
    "کته": 2226,
    "▁ویژ": 2227,
    "▁طلب": 2228,
    "▁نکرد": 2229,
    "▁درمانی": 2230,
    "▁محسو": 2231,
    "▁چا": 2232,
    "▁اعتماد": 2233,
    "▁مصنوعی": 2234,
    "▁هیئت": 2235,
    "واع": 2236,
    "ذیب": 2237,
    "▁تعرف": 2238,
    "▁ایرنا": 2239,
    "▁گشت": 2240,
    "▁پادشاه": 2241,
    "▁جواب": 2242,
    "▁مادرش": 2243,
    "▁نفوذ": 2244,
    "▁مدرن": 2245,
    "▁مطلب": 2246,
    "▁شانس": 2247,
    "زاده": 2248,
    "▁داوطلبان": 2249,
    "نظر": 2250,
    "فت": 2251,
    "جی": 2252,
    "ابت": 2253,
    "▁پاری": 2254,
    "اسان": 2255,
    "▁امیدواری": 2256,
    "▁حالت": 2257,
    "▁بازدید": 2258,
    "▁بیان": 2259,
    "▁۳۴": 2260,
    "۴۰۰": 2261,
    "▁کیلومتری": 2262,
    "مدال": 2263,
    "▁نشین": 2264,
    "▁سرای": 2265,
    "▁قالب": 2266,
    "▁خطرناک": 2267,
    "▁واگن": 2268,
    "▁متوالی": 2269,
    "▁تبعیض": 2270,
    "▁پکن": 2271,
    "▁شفاف": 2272,
    "▁خاطره": 2273,
    "▁مجسمه": 2274,
    "▁دانیم": 2275,
    "▁زهرا": 2276,
    "▁کیفیت": 2277,
    "▁متخصص": 2278,
    "▁افزار": 2279,
    "سکی": 2280,
    "▁خودکشی": 2281,
    "▁خفاش": 2282,
    "▁فرمان": 2283,
    "▁مستقل": 2284,
    "▁مدیرکل": 2285,
    "▁کادر": 2286,
    "▁مسافرت": 2287,
    "▁ویدیوی": 2288,
    "احض": 2289,
    "▁منع": 2290,
    "▁کلید": 2291,
    "▁بازیگران": 2292,
    "▁اور": 2293,
    "▁سفرهای": 2294,
    "پیش": 2295,
    "گ": 2296,
    "وقت": 2297,
    "▁سخن": 2298,
    "▁راحت": 2299,
    "▁اندک": 2300,
    "آن": 2301,
    "▁مورینیو": 2302,
    "▁برگزید": 2303,
    "▁نصب": 2304,
    "▁پرچم": 2305,
    "▁کیلوگرم": 2306,
    "▁تردد": 2307,
    "▁اندونزی": 2308,
    "▁تجدید": 2309,
    "▁تشویق": 2310,
    "▁رمز": 2311,
    "▁تأ": 2312,
    "▁قطعه": 2313,
    "▁مجازات": 2314,
    "▁دهیم": 2315,
    "▁مدرسه": 2316,
    "▁دان": 2317,
    "احل": 2318,
    "▁گوشت": 2319,
    "▁جر": 2320,
    "▁دقیقا": 2321,
    "▁درحال": 2322,
    "▁وام": 2323,
    "کل": 2324,
    "▁ماجرای": 2325,
    "بانک": 2326,
    "▁وایلد": 2327,
    "▁ابر": 2328,
    "حمل": 2329,
    "▁معدن": 2330,
    "▁انتظا": 2331,
    "ایر": 2332,
    "▁مسکو": 2333,
    "▁زنند": 2334,
    "▁مشاغل": 2335,
    "▁گرنداسلم": 2336,
    "▁عشق": 2337,
    "▁دائم": 2338,
    "▁سلول": 2339,
    "▁اجاره": 2340,
    "▁بگذارد": 2341,
    "▁نیمکت": 2342,
    "▁کجا": 2343,
    "تصاب": 2344,
    "▁قلع": 2345,
    "▁مقدمات": 2346,
    "▁خلاف": 2347,
    "▁آسان": 2348,
    "▁مرجان": 2349,
    "▁ابراهیم": 2350,
    "▁میر": 2351,
    "▁فراز": 2352,
    "▁عبدالله": 2353,
    "▁هاشمی": 2354,
    "▁سالن": 2355,
    "▁نمایندگی": 2356,
    "▁عملا": 2357,
    "▁شاهین": 2358,
    "وند": 2359,
    "▁آنتونی": 2360,
    "▁شیر": 2361,
    "▁بابا": 2362,
    "آ": 2363,
    "گفته": 2364,
    "▁نود": 2365,
    "دکتر": 2366,
    "بعضی": 2367,
    "قیمت": 2368,
    "بنابر": 2369,
    "رو": 2370,
    "▁بهای": 2371,
    "▁طلای": 2372,
    "ندگان": 2373,
    "شورای": 2374,
    "یده": 2375,
    "▁کسر": 2376,
    "▁آکسفورد": 2377,
    "▁شصت": 2378,
    "▁گشایش": 2379,
    "▁خطوط": 2380,
    "▁وسیع": 2381,
    "▁شگفت": 2382,
    "▁وانت": 2383,
    "▁شویم": 2384,
    "▁اهواز": 2385,
    "▁تجهیزات": 2386,
    "▁فرو": 2387,
    "▁پوشش": 2388,
    "▁محکومیت": 2389,
    "▁اتفاقی": 2390,
    "▁تب": 2391,
    "▁جنسیت": 2392,
    "خالت": 2393,
    "▁خرد": 2394,
    "▁زودتر": 2395,
    "است": 2396,
    "▁نیمی": 2397,
    "بته": 2398,
    "▁پیگیری": 2399,
    "وخیم": 2400,
    "▁ششم": 2401,
    "شرکت": 2402,
    "گین": 2403,
    "وال": 2404,
    "▁۱۵۰": 2405,
    "را": 2406,
    "▁درحالی": 2407,
    "▁پژوهشگر": 2408,
    "▁۱۹۸": 2409,
    "▁خودروسازی": 2410,
    "۰": 2411,
    "یات": 2412,
    "▁بسکتبال": 2413,
    "▁چارچوب": 2414,
    "▁سلاح": 2415,
    "▁گروسی": 2416,
    "▁مسجد": 2417,
    "▁استانبول": 2418,
    "▁گواردیولا": 2419,
    "▁علائم": 2420,
    "▁هتل": 2421,
    "▁زاهد": 2422,
    "▁آرایش": 2423,
    "▁منافع": 2424,
    "▁پرتغال": 2425,
    "▁تفاوت": 2426,
    "▁دانشجویان": 2427,
    "▁یادآور": 2428,
    "شدید": 2429,
    "▁امضای": 2430,
    "▁ایفا": 2431,
    "▁برنت": 2432,
    "▁فقر": 2433,
    "▁شورو": 2434,
    "▁اسماعیل": 2435,
    "▁بیستم": 2436,
    "▁اسپانیایی": 2437,
    "▁تحول": 2438,
    "▁آزمایشگاه": 2439,
    "▁اسلام": 2440,
    "▁جک": 2441,
    "▁طلبان": 2442,
    "▁معمول": 2443,
    "▁دیپلما": 2444,
    "▁اقلیم": 2445,
    "▁کف": 2446,
    "▁بردند": 2447,
    "▁برون": 2448,
    "فر": 2449,
    "▁اجباری": 2450,
    "ویز": 2451,
    "▁نماد": 2452,
    "رد": 2453,
    "ابی": 2454,
    "▁خوان": 2455,
    "مون": 2456,
    "▁سرد": 2457,
    "▁سالها": 2458,
    "▁نامش": 2459,
    "▁شهرداری": 2460,
    "▁غیرمستقیم": 2461,
    "▁لذت": 2462,
    "▁بخار": 2463,
    "▁باشیم": 2464,
    "▁دیپلماتیک": 2465,
    "▁تالاب": 2466,
    "▁شهرستان": 2467,
    "▁حقیقت": 2468,
    "آزادسازی": 2469,
    "▁شهرسازی": 2470,
    "▁مالیاتی": 2471,
    "▁دهنده": 2472,
    "▁واقعا": 2473,
    "▁امکانات": 2474,
    "رانی": 2475,
    "▁مناسبت": 2476,
    "▁پزشکان": 2477,
    "▁ماندن": 2478,
    "▁زدند": 2479,
    "▁هوش": 2480,
    "▁وحش": 2481,
    "▁علم": 2482,
    "▁خاتم": 2483,
    "تمام": 2484,
    "▁صادق": 2485,
    "▁نشدن": 2486,
    "▁پهلوی": 2487,
    "▁ارد": 2488,
    "خواهی": 2489,
    "اگر": 2490,
    "▁قدر": 2491,
    "▁نمای": 2492,
    "▁بودیم": 2493,
    "▁تردید": 2494,
    "▁خیر": 2495,
    "▁پیک": 2496,
    "▁اسدی": 2497,
    "▁بلینکن": 2498,
    "▁مشروط": 2499,
    "▁معاف": 2500,
    "▁کانون": 2501,
    "▁نفع": 2502,
    "▁تبریز": 2503,
    "▁عمق": 2504,
    "▁ناکام": 2505,
    "▁ردیف": 2506,
    "▁پاییز": 2507,
    "▁عذر": 2508,
    "▁سرنوشت": 2509,
    "▁آواز": 2510,
    "▁اولسان": 2511,
    "▁شوک": 2512,
    "▁نوسان": 2513,
    "▁سازنده": 2514,
    "▁کیو": 2515,
    "▁اختلال": 2516,
    "▁منظور": 2517,
    "▁تایسون": 2518,
    "▁جدایی": 2519,
    "▁برج": 2520,
    "غم": 2521,
    "▁کیم": 2522,
    "▁معن": 2523,
    "۵۰": 2524,
    "▁قضاییه": 2525,
    "▁حلق": 2526,
    "غول": 2527,
    "▁اکثر": 2528,
    "ض": 2529,
    "رسان": 2530,
    "▁سپر": 2531,
    "رگن": 2532,
    "حال": 2533,
    "▁تماشا": 2534,
    "▁برند": 2535,
    "▁نابودی": 2536,
    "▁هلند": 2537,
    "▁درخشان": 2538,
    "آزمایی": 2539,
    "امروز": 2540,
    "▁رویدادها": 2541,
    "دان": 2542,
    "التی": 2543,
    "اجع": 2544,
    "ماهی": 2545,
    "▁رهبران": 2546,
    "▁لب": 2547,
    "ستون": 2548,
    "▁۷۰۰": 2549,
    "کو": 2550,
    "▁موافق": 2551,
    "کم": 2552,
    "▁۶۰۰": 2553,
    "▁موقع": 2554,
    "▁آذربایجان": 2555,
    "▁الحاق": 2556,
    "▁تسلیحات": 2557,
    "▁ثبات": 2558,
    "▁نباشد": 2559,
    "▁آشکار": 2560,
    "▁اقامت": 2561,
    "▁کلمبیا": 2562,
    "▁هیجان": 2563,
    "▁تپ": 2564,
    "▁جانشین": 2565,
    "▁لحا": 2566,
    "▁مخاطبان": 2567,
    "▁بلژیک": 2568,
    "▁کاوشگر": 2569,
    "▁اینتر": 2570,
    "▁مثال": 2571,
    "▁مدنی": 2572,
    "▁معلوم": 2573,
    "▁علنی": 2574,
    "▁نامزدهای": 2575,
    "▁تجا": 2576,
    "پی": 2577,
    "▁جسم": 2578,
    "▁سوالات": 2579,
    "▁آسیای": 2580,
    "▁فروشگاه": 2581,
    "وات": 2582,
    "▁صدو": 2583,
    "▁نت": 2584,
    "قرار": 2585,
    "قابل": 2586,
    "▁رها": 2587,
    "▁مقال": 2588,
    "مجموع": 2589,
    "ث": 2590,
    "▁هجوم": 2591,
    "سر": 2592,
    "▁اسم": 2593,
    "▁۶۵": 2594,
    "▁قیمتها": 2595,
    "▁تحلیل": 2596,
    "سبب": 2597,
    "▁عبارت": 2598,
    "▁پیامدهای": 2599,
    "▁بامیان": 2600,
    "▁اماکن": 2601,
    "▁آدم": 2602,
    "▁اورتون": 2603,
    "▁بزند": 2604,
    "▁پرورش": 2605,
    "سل": 2606,
    "▁بنیان": 2607,
    "▁سقف": 2608,
    "▁نمایشگر": 2609,
    "▁شرط": 2610,
    "▁همکاران": 2611,
    "▁امشب": 2612,
    "اکان": 2613,
    "▁خاوران": 2614,
    "افسانه": 2615,
    "▁فرماندار": 2616,
    "▁۴۸": 2617,
    "دل": 2618,
    "▁سپرده": 2619,
    "▁شتاب": 2620,
    "▁سرود": 2621,
    "▁مذهبی": 2622,
    "▁اص": 2623,
    "▁فرستاد": 2624,
    "غ": 2625,
    "▁تقس": 2626,
    "▁باند": 2627,
    "▁سنا": 2628,
    "▁گمان": 2629,
    "▁نرسیده": 2630,
    "▁درون": 2631,
    "حدود": 2632,
    "▁۰": 2633,
    "▁دسته": 2634,
    "فاصله": 2635,
    "▁بودم": 2636,
    "▁ماهوار": 2637,
    "▁صالح": 2638,
    "▁مرا": 2639,
    "▁کام": 2640,
    "▁اصلا": 2641,
    "▁کارمند": 2642,
    "▁بچ": 2643,
    "▁تبلیغ": 2644,
    "▁محاسب": 2645,
    "▁۴۴": 2646,
    "▁استراماچونی": 2647,
    "▁رضوی": 2648,
    "▁همیشگی": 2649,
    "▁حکایت": 2650,
    "▁جایگزین": 2651,
    "▁جستجو": 2652,
    "▁قادر": 2653,
    "▁۲۰۱۱": 2654,
    "▁ماراتن": 2655,
    "▁کریستیان": 2656,
    "▁تکمیل": 2657,
    "▁فایزر": 2658,
    "▁خطاب": 2659,
    "▁بلیت": 2660,
    "▁طیف": 2661,
    "▁فرزندان": 2662,
    "▁نمایشگاه": 2663,
    "▁خواهم": 2664,
    "رویی": 2665,
    "▁۹۷": 2666,
    "▁ملایی": 2667,
    "▁محافظت": 2668,
    "▁نوروزی": 2669,
    "تن": 2670,
    "کر": 2671,
    "▁جاسوس": 2672,
    "▁تبع": 2673,
    "▁تعطیلات": 2674,
    "▁اتهامات": 2675,
    "▁بازرسان": 2676,
    "▁سان": 2677,
    "▁دفاعی": 2678,
    "▁راز": 2679,
    "▁آنک": 2680,
    "▁عزیزی": 2681,
    "▁انت": 2682,
    "▁بلخ": 2683,
    "سعید": 2684,
    "آی": 2685,
    "بنا": 2686,
    "تون": 2687,
    "تو": 2688,
    "وزیر": 2689,
    "گانه": 2690,
    "▁وال": 2691,
    "▁تائ": 2692,
    "▁پرد": 2693,
    "▁قد": 2694,
    "اقات": 2695,
    "رس": 2696,
    "یره": 2697,
    "▁درد": 2698,
    "▁ابتلای": 2699,
    "▁آمارها": 2700,
    "▁تور": 2701,
    "▁دانشمند": 2702,
    "سه": 2703,
    "▁عام": 2704,
    "▁فیلیپ": 2705,
    "▁مطل": 2706,
    "▁حافظ": 2707,
    "▁سالم": 2708,
    "▁حوادث": 2709,
    "▁فرآیند": 2710,
    "▁هالیوود": 2711,
    "▁پارلمان": 2712,
    "▁تراکتور": 2713,
    "▁سایپا": 2714,
    "▁غافلگیر": 2715,
    "▁قدرتمند": 2716,
    "▁بیاید": 2717,
    "▁جنبش": 2718,
    "▁هیوندای": 2719,
    "▁نژادپرست": 2720,
    "▁بهشت": 2721,
    "▁خطیب": 2722,
    "▁تدریج": 2723,
    "نوبت": 2724,
    "بو": 2725,
    "▁اپل": 2726,
    "▁رانندگان": 2727,
    "▁سانسور": 2728,
    "▁تل": 2729,
    "▁تس": 2730,
    "▁خریدار": 2731,
    "▁عادت": 2732,
    "▁غلام": 2733,
    "▁گوشی": 2734,
    "▁۳۹": 2735,
    "▁کمال": 2736,
    "▁امان": 2737,
    "▁زیرا": 2738,
    "▁ژاپنی": 2739,
    "▁۹۶": 2740,
    "▁تبار": 2741,
    "▁نبرد": 2742,
    "▁راند": 2743,
    "▁اقدامی": 2744,
    "▁والی": 2745,
    "چی": 2746,
    "▁سبز": 2747,
    "▁روس": 2748,
    "خ": 2749,
    "▁نظریه": 2750,
    "▁ادعا": 2751,
    "▁سیار": 2752,
    "یشه": 2753,
    "▁ژنتیکی": 2754,
    "▁پو": 2755,
    "▁هو": 2756,
    "▁۳۸": 2757,
    "▁مطالب": 2758,
    "▁عروس": 2759,
    "▁اعزام": 2760,
    "▁معاصر": 2761,
    "▁آفتاب": 2762,
    "▁برانگیز": 2763,
    "▁وسط": 2764,
    "▁گورستان": 2765,
    "▁یوفا": 2766,
    "▁بدهند": 2767,
    "▁عاص": 2768,
    "▁هافبک": 2769,
    "▁فریاد": 2770,
    "▁دایک": 2771,
    "▁دیگو": 2772,
    "▁حیدر": 2773,
    "▁ویلیامز": 2774,
    "▁عراقچی": 2775,
    "▁عطر": 2776,
    "▁راموس": 2777,
    "▁۷۵": 2778,
    "▁طبری": 2779,
    "▁مزار": 2780,
    "▁مسال": 2781,
    "▁خاورمیانه": 2782,
    "▁تمایل": 2783,
    "▁یونان": 2784,
    "▁بطور": 2785,
    "▁داری": 2786,
    "▁راستا": 2787,
    "▁یازده": 2788,
    "▁انگار": 2789,
    "▁کریست": 2790,
    "▁آگاه": 2791,
    "▁خاطرات": 2792,
    "وا": 2793,
    "▁نان": 2794,
    "▁بهایی": 2795,
    "▁آفریقای": 2796,
    "▁هنرها": 2797,
    "رسمی": 2798,
    "▁ارزان": 2799,
    "▁قوا": 2800,
    "▁دیر": 2801,
    "▁تف": 2802,
    "▁رسیدند": 2803,
    "▁ایست": 2804,
    "فق": 2805,
    "▁ار": 2806,
    "▁تبلیغات": 2807,
    "لک": 2808,
    "▁شنا": 2809,
    "▁عفو": 2810,
    "▁خ": 2811,
    "▁فراوان": 2812,
    "وف": 2813,
    "▁روب": 2814,
    "طئ": 2815,
    "▁قاجار": 2816,
    "▁تعریف": 2817,
    "▁عوارض": 2818,
    "▁احترام": 2819,
    "▁اقلام": 2820,
    "▁اولویت": 2821,
    "▁منچسترسیتی": 2822,
    "▁خوک": 2823,
    "▁یادداشت": 2824,
    "▁کنفرانس": 2825,
    "▁ویلموتس": 2826,
    "▁طوفان": 2827,
    "▁کانری": 2828,
    "▁برانکو": 2829,
    "▁فراتر": 2830,
    "▁معارف": 2831,
    "▁لمس": 2832,
    "▁برقی": 2833,
    "▁اذ": 2834,
    "▁بدتر": 2835,
    "▁۴۳": 2836,
    "▁عادل": 2837,
    "▁آم": 2838,
    "▁شنیده": 2839,
    "▁نداشتند": 2840,
    "▁هستم": 2841,
    "مار": 2842,
    "▁محمدجواد": 2843,
    "▁فرم": 2844,
    "بورن": 2845,
    "▁اسپ": 2846,
    "▁پان": 2847,
    "▁جزیر": 2848,
    "▁مسئولین": 2849,
    "▁آموزشی": 2850,
    "▁سری": 2851,
    "اق": 2852,
    "یخ": 2853,
    "▁حامی": 2854,
    "▁امن": 2855,
    "باقر": 2856,
    "▁جورج": 2857,
    "▁عظیم": 2858,
    "اول": 2859,
    "▁ون": 2860,
    "فاش": 2861,
    "▁اوکراین": 2862,
    "▁گروگان": 2863,
    "۲۵": 2864,
    "▁۳۷": 2865,
    "طی": 2866,
    "۲۰۱۲": 2867,
    "جو": 2868,
    "▁دلاری": 2869,
    "اینها": 2870,
    "▁مطمئن": 2871,
    "▁باد": 2872,
    "▁الکترونیک": 2873,
    "▁دبلیو": 2874,
    "▁گوناگون": 2875,
    "▁باشید": 2876,
    "▁غزنی": 2877,
    "ادورو": 2878,
    "▁سلمان": 2879,
    "▁هشتاد": 2880,
    "▁پلاستیک": 2881,
    "▁حساس": 2882,
    "مند": 2883,
    "▁تعهد": 2884,
    "▁قلم": 2885,
    "▁قایق": 2886,
    "▁فرونشست": 2887,
    "▁ارشاد": 2888,
    "▁آتی": 2889,
    "▁عروسک": 2890,
    "▁مدارک": 2891,
    "داشت": 2892,
    "▁برخلاف": 2893,
    "▁کشد": 2894,
    "▁مدارس": 2895,
    "▁مهاجرت": 2896,
    "▁منار": 2897,
    "▁شوم": 2898,
    "نادیده": 2899,
    "▁شکار": 2900,
    "▁لوئی": 2901,
    "▁منته": 2902,
    "▁شکاف": 2903,
    "▁خوردن": 2904,
    "▁گذراند": 2905,
    "▁فلیک": 2906,
    "▁رحمانی": 2907,
    "▁قله": 2908,
    "▁درهای": 2909,
    "▁شعب": 2910,
    "▁آرامش": 2911,
    "▁۹۵": 2912,
    "بین": 2913,
    "▁وست": 2914,
    "▁نماز": 2915,
    "مهدی": 2916,
    "یسم": 2917,
    "▁بیمه": 2918,
    "▁کریمی": 2919,
    "▁رفتند": 2920,
    "▁ذو": 2921,
    "▁آندر": 2922,
    "▁خودم": 2923,
    "▁تنگ": 2924,
    "▁طوری": 2925,
    "▁تاپ": 2926,
    "▁آیند": 2927,
    "▁پارسی": 2928,
    "باران": 2929,
    "لف": 2930,
    "▁پیشگیری": 2931,
    "▁نیک": 2932,
    "▁اهدا": 2933,
    "امی": 2934,
    "▁سلطان": 2935,
    "▁طلایی": 2936,
    "▁مشتری": 2937,
    "▁متشک": 2938,
    "▁کلاسیک": 2939,
    "▁شعار": 2940,
    "هزار": 2941,
    "▁داغ": 2942,
    "▁آنفلوآنزا": 2943,
    "▁تگزاس": 2944,
    "▁خداحافظ": 2945,
    "▁سامسونگ": 2946,
    "▁مازندران": 2947,
    "▁موبایل": 2948,
    "▁کنسول": 2949,
    "▁بغداد": 2950,
    "▁مستمر": 2951,
    "▁سرقت": 2952,
    "▁زلزله": 2953,
    "▁تظاهرات": 2954,
    "▁وسایل": 2955,
    "▁برگزیت": 2956,
    "▁روغن": 2957,
    "▁پرفروش": 2958,
    "▁پتروش": 2959,
    "▁۲۰۱۰": 2960,
    "▁انبار": 2961,
    "▁شیراز": 2962,
    "▁تاثیرگذار": 2963,
    "▁قاضی": 2964,
    "▁منشا": 2965,
    "▁هفتاد": 2966,
    "▁جانسون": 2967,
    "▁بدر": 2968,
    "▁مکرون": 2969,
    "▁ویران": 2970,
    "▁گرا": 2971,
    "راحل": 2972,
    "▁ضرر": 2973,
    "▁امین": 2974,
    "▁رم": 2975,
    "▁قدس": 2976,
    "▁حمید": 2977,
    "▁نگرفته": 2978,
    "صاف": 2979,
    "▁زیبایی": 2980,
    "▁پروان": 2981,
    "▁مش": 2982,
    "▁مور": 2983,
    "وش": 2984,
    "▁ضعیف": 2985,
    "فرین": 2986,
    "▁رغ": 2987,
    "سو": 2988,
    "کسی": 2989,
    "▁استخوان": 2990,
    "▁ویدئویی": 2991,
    "▁حضورش": 2992,
    "▁مع": 2993,
    "اوش": 2994,
    "افغانستان": 2995,
    "پیشتر": 2996,
    "▁خیابانی": 2997,
    "▁گزارشگر": 2998,
    "اولین": 2999,
    "▁کال": 3000,
    "▁افشار": 3001,
    "پور": 3002,
    "▁ویدیو": 3003,
    "▁آگ": 3004,
    "▁افکن": 3005,
    "▁آباد": 3006,
    "▁خوانندگ": 3007,
    "▁روح": 3008,
    "▁برکنار": 3009,
    "▁عاشق": 3010,
    "▁مغزی": 3011,
    "▁محدودیتهای": 3012,
    "خره": 3013,
    "▁ق": 3014,
    "▁محقق": 3015,
    "▁نیوک": 3016,
    "▁۱۳۵": 3017,
    "▁ابزار": 3018,
    "▁شایع": 3019,
    "▁تاجیک": 3020,
    "بهار": 3021,
    "▁ایرانیان": 3022,
    "▁ببینید": 3023,
    "▁تخصص": 3024,
    "▁رستوران": 3025,
    "▁شمخانی": 3026,
    "▁موانع": 3027,
    "▁دادگستری": 3028,
    "▁قاطع": 3029,
    "▁ازبکستان": 3030,
    "▁صمت": 3031,
    "▁شکنجه": 3032,
    "▁سانتی": 3033,
    "▁بخصوص": 3034,
    "▁مطبوعات": 3035,
    "▁زوج": 3036,
    "▁فرگوسن": 3037,
    "▁اشرف": 3038,
    "▁سرزمین": 3039,
    "▁عفونت": 3040,
    "▁اسلم": 3041,
    "▁مقاومت": 3042,
    "▁پیوند": 3043,
    "▁کمرنگ": 3044,
    "▁ریه": 3045,
    "▁توماس": 3046,
    "▁وبسایت": 3047,
    "ائ": 3048,
    "▁فیل": 3049,
    "▁غار": 3050,
    "▁کرمان": 3051,
    "▁صرفا": 3052,
    "▁سیام": 3053,
    "▁ظاهرا": 3054,
    "▁گرند": 3055,
    "▁شهرها": 3056,
    "▁برایش": 3057,
    "▁اختلافات": 3058,
    "▁پوشید": 3059,
    "▁کارش": 3060,
    "▁ساختار": 3061,
    "▁تج": 3062,
    "▁جرم": 3063,
    "▁فرید": 3064,
    "▁مساوی": 3065,
    "▁بهتری": 3066,
    "▁وظ": 3067,
    "▁پرسید": 3068,
    "▁پذیرفته": 3069,
    "▁گذر": 3070,
    "ستان": 3071,
    "▁جلسات": 3072,
    "▁فان": 3073,
    "۳۱": 3074,
    "▁استعداد": 3075,
    "پنج": 3076,
    "▁بزو": 3077,
    "▁ادعای": 3078,
    "▁عم": 3079,
    "▁دراز": 3080,
    "▁عزاداری": 3081,
    "نیم": 3082,
    "کاری": 3083,
    "هام": 3084,
    "شهر": 3085,
    "دا": 3086,
    "وار": 3087,
    "لیگ": 3088,
    "رج": 3089,
    "▁اشک": 3090,
    "افزایش": 3091,
    "پلیس": 3092,
    "ي": 3093,
    "بسیاری": 3094,
    "▁۴۹": 3095,
    "▁گرد": 3096,
    "▁اوست": 3097,
    "▁عملی": 3098,
    "▁۶۷": 3099,
    "▁میلیاردها": 3100,
    "▁منتقد": 3101,
    "▁تابلو": 3102,
    "▁مهندس": 3103,
    "▁شیرین": 3104,
    "▁گفتگوها": 3105,
    "▁حیوان": 3106,
    "▁سرباز": 3107,
    "خیص": 3108,
    "▁خادم": 3109,
    "▁پروتئین": 3110,
    "▁نکنید": 3111,
    "▁ترجیح": 3112,
    "▁معیشت": 3113,
    "▁منحصر": 3114,
    "▁بعید": 3115,
    "▁برساند": 3116,
    "▁روزگار": 3117,
    "▁مترجم": 3118,
    "▁خلاص": 3119,
    "▁خوراک": 3120,
    "▁دقایق": 3121,
    "▁کیلو": 3122,
    "▁ویل": 3123,
    "▁مخابرات": 3124,
    "▁اهداف": 3125,
    "▁نقص": 3126,
    "▁نیوزیلند": 3127,
    "▁متناسب": 3128,
    "▁نشت": 3129,
    "▁سینماها": 3130,
    "شمار": 3131,
    "▁صند": 3132,
    "▁ولز": 3133,
    "راضی": 3134,
    "▁پپ": 3135,
    "▁خشم": 3136,
    "▁کنگره": 3137,
    "▁پیمان": 3138,
    "▁گردشگران": 3139,
    "▁اضطراب": 3140,
    "▁دانم": 3141,
    "میم": 3142,
    "▁اموا": 3143,
    "▁پوری": 3144,
    "▁محسن": 3145,
    "▁پیوستن": 3146,
    "▁دونده": 3147,
    "▁کاربر": 3148,
    "▁گذاشتن": 3149,
    "▁برندگان": 3150,
    "▁زیان": 3151,
    "▁تحلیلگر": 3152,
    "▁موش": 3153,
    "▁قدمت": 3154,
    "▁اهدای": 3155,
    "▁جیب": 3156,
    "▁پرند": 3157,
    "نر": 3158,
    "▁انتقالات": 3159,
    "نت": 3160,
    "▁موضوعات": 3161,
    "یرت": 3162,
    "▁شناور": 3163,
    "▁رویداد": 3164,
    "تنش": 3165,
    "▁۵۵": 3166,
    "▁صادقی": 3167,
    "▁کرام": 3168,
    "قب": 3169,
    "وه": 3170,
    "آمریکا": 3171,
    "یفه": 3172,
    "سم": 3173,
    "▁ناصر": 3174,
    "سخنگوی": 3175,
    "استفاده": 3176,
    "▁کت": 3177,
    "▁۱۳۷": 3178,
    "▁توجهی": 3179,
    "اش": 3180,
    "رت": 3181,
    "هالی": 3182,
    "▁کا": 3183,
    "▁هل": 3184,
    "▁افشا": 3185,
    "▁سم": 3186,
    "▁شاخ": 3187,
    "▁نقدی": 3188,
    "▁خلو": 3189,
    "▁فیلمساز": 3190,
    "▁گردن": 3191,
    "▁بنگلادش": 3192,
    "▁غربالگری": 3193,
    "▁مرخص": 3194,
    "▁نتانیاهو": 3195,
    "▁ولسوال": 3196,
    "▁انقراض": 3197,
    "▁نکند": 3198,
    "▁فردوسی": 3199,
    "▁بنیانگذار": 3200,
    "▁تلخ": 3201,
    "▁زرد": 3202,
    "▁یمانی": 3203,
    "▁راهبرد": 3204,
    "▁علامت": 3205,
    "▁قبا": 3206,
    "▁همسایه": 3207,
    "▁ابهام": 3208,
    "▁شریک": 3209,
    "▁صادرکنندگان": 3210,
    "▁فولاد": 3211,
    "▁منچستریونایتد": 3212,
    "▁آهنگساز": 3213,
    "▁سناتور": 3214,
    "▁صورتی": 3215,
    "▁مخفی": 3216,
    "▁یاری": 3217,
    "▁ناجی": 3218,
    "▁صلاح": 3219,
    "▁ربط": 3220,
    "خته": 3221,
    "▁لحظات": 3222,
    "▁محور": 3223,
    "▁راس": 3224,
    "▁خواندن": 3225,
    "▁جنبه": 3226,
    "▁آوردند": 3227,
    "▁بروند": 3228,
    "▁دانستند": 3229,
    "▁بران": 3230,
    "▁۷۳": 3231,
    "▁زک": 3232,
    "▁جوانی": 3233,
    "ریم": 3234,
    "▁مون": 3235,
    "نواک": 3236,
    "▁۷۷": 3237,
    "لینی": 3238,
    "▁مند": 3239,
    "تغال": 3240,
    "▁تاک": 3241,
    "جان": 3242,
    "▁مرس": 3243,
    "رق": 3244,
    "▁ری": 3245,
    "▁شاهزاد": 3246,
    "جه": 3247,
    "گروه": 3248,
    "▁خال": 3249,
    "▁باخته": 3250,
    "▁کنگ": 3251,
    "▁معمولی": 3252,
    "▁اقلیمی": 3253,
    "پوری": 3254,
    "▁اگر": 3255,
    "ضعیف": 3256,
    "▁گمانه": 3257,
    "بری": 3258,
    "▁پانزده": 3259,
    "▁سران": 3260,
    "▁لاش": 3261,
    "▁رقص": 3262,
    "▁گیاه": 3263,
    "▁جن": 3264,
    "▁موشکی": 3265,
    "▁سفارش": 3266,
    "جونز": 3267,
    "▁نای": 3268,
    "▁فلز": 3269,
    "▁متاسف": 3270,
    "▁تخلف": 3271,
    "ذ": 3272,
    "▁شطرنج": 3273,
    "▁پرافتخار": 3274,
    "▁کهکشان": 3275,
    "▁فدرال": 3276,
    "▁تایلند": 3277,
    "▁سئوال": 3278,
    "▁ثامن": 3279,
    "▁کامیون": 3280,
    "▁برانگیخت": 3281,
    "▁ارتفاع": 3282,
    "▁کربن": 3283,
    "▁مصدومیت": 3284,
    "▁خاموش": 3285,
    "▁بشار": 3286,
    "▁تاب": 3287,
    "▁جهاد": 3288,
    "▁نادرست": 3289,
    "▁دموکرات": 3290,
    "▁دادسرا": 3291,
    "▁ببرد": 3292,
    "عوض": 3293,
    "تقابل": 3294,
    "▁مبادلات": 3295,
    "▁شدم": 3296,
    "▁منوچ": 3297,
    "▁نجف": 3298,
    "▁ترسیم": 3299,
    "▁آنقدر": 3300,
    "حص": 3301,
    "▁لیدز": 3302,
    "▁مطالعات": 3303,
    "▁عموم": 3304,
    "▁کهن": 3305,
    "▁هنگ": 3306,
    "▁موجودات": 3307,
    "▁پوشاند": 3308,
    "▁محتوای": 3309,
    "▁مگا": 3310,
    "پل": 3311,
    "یف": 3312,
    "دوین": 3313,
    "▁ثروتمند": 3314,
    "▁مادری": 3315,
    "▁مبادل": 3316,
    "▁۱۹۹": 3317,
    "▁خودران": 3318,
    "▁گور": 3319,
    "▁زیستی": 3320,
    "▁کش": 3321,
    "▁سون": 3322,
    "▁خبرهای": 3323,
    "▁پستان": 3324,
    "▁دهان": 3325,
    "تکلیف": 3326,
    "▁ص": 3327,
    "▁هجومی": 3328,
    "▁موسوی": 3329,
    "عبدال": 3330,
    "نو": 3331,
    "خالص": 3332,
    "عباس": 3333,
    "طبق": 3334,
    "احمد": 3335,
    "▁قص": 3336,
    "برخ": 3337,
    "▁۵۶": 3338,
    "ولی": 3339,
    "فه": 3340,
    "▁عبوری": 3341,
    "▁داوطلب": 3342,
    "▁شی": 3343,
    "▁رحم": 3344,
    "▁کشی": 3345,
    "سیا": 3346,
    "▁احت": 3347,
    "▁شخص": 3348,
    "▁فتح": 3349,
    "▁نقد": 3350,
    "▁مرزهای": 3351,
    "▁اپرا": 3352,
    "▁تدابیر": 3353,
    "▁کانسپت": 3354,
    "▁نساجی": 3355,
    "▁والیبال": 3356,
    "▁پارالمپیک": 3357,
    "▁اکسیژن": 3358,
    "▁پیاده": 3359,
    "▁کریکت": 3360,
    "▁دانمارک": 3361,
    "▁واژه": 3362,
    "▁انبوه": 3363,
    "▁سراغ": 3364,
    "▁بدانیم": 3365,
    "▁آشوری": 3366,
    "▁مقیم": 3367,
    "▁بوندس": 3368,
    "▁قطب": 3369,
    "▁طنز": 3370,
    "▁چراغ": 3371,
    "▁جمال": 3372,
    "▁صبر": 3373,
    "▁لق": 3374,
    "▁سهامداران": 3375,
    "▁آموزان": 3376,
    "▁خند": 3377,
    "▁گریز": 3378,
    "▁تسلیت": 3379,
    "▁اما": 3380,
    "▁محاکمه": 3381,
    "▁کاظم": 3382,
    "▁فقیر": 3383,
    "لوله": 3384,
    "▁دستیابی": 3385,
    "▁جدال": 3386,
    "▁پراکند": 3387,
    "▁فراگیر": 3388,
    "▁تابلوی": 3389,
    "▁تروریستی": 3390,
    "▁راک": 3391,
    "▁اردو": 3392,
    "▁۲۵۰": 3393,
    "▁پرسش": 3394,
    "▁استخر": 3395,
    "▁داشتم": 3396,
    "یچ": 3397,
    "برایتون": 3398,
    "▁غ": 3399,
    "▁اوکراینی": 3400,
    "▁فراری": 3401,
    "بیش": 3402,
    "▁وسی": 3403,
    "بخش": 3404,
    "ارژ": 3405,
    "▁دارم": 3406,
    "▁تبلیغاتی": 3407,
    "▁گیل": 3408,
    "▁اسد": 3409,
    "▁فرش": 3410,
    "▁وقفه": 3411,
    "▁زانو": 3412,
    "▁ویلا": 3413,
    "▁بستن": 3414,
    "وریس": 3415,
    "▁کشت": 3416,
    "▁آزمایی": 3417,
    "▁هاوس": 3418,
    "▁دف": 3419,
    "باتری": 3420,
    "▁کاست": 3421,
    "▁کاسته": 3422,
    "▁جعل": 3423,
    "▁تعل": 3424,
    "▁رویای": 3425,
    "ناوند": 3426,
    "▁۵۷": 3427,
    "۳۰": 3428,
    "لیورپول": 3429,
    "استقلال": 3430,
    "کدام": 3431,
    "▁رصد": 3432,
    "بعد": 3433,
    "امسال": 3434,
    "پرو": 3435,
    "خارجه": 3436,
    "▁روسا": 3437,
    "نام": 3438,
    "آوری": 3439,
    "▁روستای": 3440,
    "▁۱۲۰": 3441,
    "▁سل": 3442,
    "اع": 3443,
    "▁بینند": 3444,
    "▁کوچکی": 3445,
    "▁بازنشست": 3446,
    "راه": 3447,
    "▁قض": 3448,
    "التهاب": 3449,
    "▁عصب": 3450,
    "▁امتحان": 3451,
    "▁تحمیل": 3452,
    "▁اصرار": 3453,
    "▁مدیترانه": 3454,
    "▁اطلس": 3455,
    "▁ناامن": 3456,
    "▁بکشد": 3457,
    "▁تاکتیک": 3458,
    "صوفی": 3459,
    "▁غریب": 3460,
    "▁مسلمان": 3461,
    "▁۲۰۲۲": 3462,
    "▁هامر": 3463,
    "▁رمزارزها": 3464,
    "▁قرص": 3465,
    "▁ثروت": 3466,
    "▁کارگزار": 3467,
    "▁۲۰۰۳": 3468,
    "▁مرگبار": 3469,
    "▁خرسند": 3470,
    "▁شاگردان": 3471,
    "▁افتتاح": 3472,
    "▁کمپین": 3473,
    "▁نسب": 3474,
    "▁ایلنا": 3475,
    "▁کیهان": 3476,
    "▁خرج": 3477,
    "ناز": 3478,
    "▁افکار": 3479,
    "▁اصلاحات": 3480,
    "وفر": 3481,
    "▁وجه": 3482,
    "▁انتقادها": 3483,
    "یحی": 3484,
    "▁پیرو": 3485,
    "▁بازماند": 3486,
    "کی": 3487,
    "واک": 3488,
    "۹۴": 3489,
    "▁پیکر": 3490,
    "▁تقویم": 3491,
    "▁بوش": 3492,
    "▁شهردار": 3493,
    "▁مبنای": 3494,
    "▁آوردن": 3495,
    "▁اقلی": 3496,
    "▁نسبتا": 3497,
    "▁تاز": 3498,
    "▁جین": 3499,
    "▁باران": 3500,
    "▁مای": 3501,
    "▁اسپی": 3502,
    "ژه": 3503,
    "▁استعفای": 3504,
    "وت": 3505,
    "▁بومی": 3506,
    "▁رسانی": 3507,
    "▁سین": 3508,
    "نز": 3509,
    "▁شریفی": 3510,
    "شار": 3511,
    "▁۵۲": 3512,
    "▁ارا": 3513,
    "▁زیبا": 3514,
    "خواست": 3515,
    "▁یاران": 3516,
    "▁ناراحت": 3517,
    "دانشمندان": 3518,
    "عنوان": 3519,
    "رقابت": 3520,
    "ظهر": 3521,
    "▁گفتگوی": 3522,
    "▁۸۰۰": 3523,
    "▁شهری": 3524,
    "▁باستانی": 3525,
    "شده": 3526,
    "وان": 3527,
    "▁بریت": 3528,
    "▁اصطلاح": 3529,
    "▁مامور": 3530,
    "▁یازدهم": 3531,
    "یون": 3532,
    "▁مستق": 3533,
    "▁۴۶": 3534,
    "▁درخت": 3535,
    "▁مخصوص": 3536,
    "▁استخدام": 3537,
    "▁بلاروس": 3538,
    "▁ثمر": 3539,
    "▁خانوادگی": 3540,
    "▁دژپسند": 3541,
    "▁منتخب": 3542,
    "▁موظف": 3543,
    "▁نوبخت": 3544,
    "▁هیأت": 3545,
    "▁استراحت": 3546,
    "▁صنف": 3547,
    "▁محوطه": 3548,
    "▁فلوید": 3549,
    "▁مقصر": 3550,
    "▁دروغ": 3551,
    "▁بامداد": 3552,
    "▁ناحیه": 3553,
    "▁لهستان": 3554,
    "▁دهقان": 3555,
    "▁لاریجانی": 3556,
    "▁همسان": 3557,
    "▁اپلیکیشن": 3558,
    "▁پشتیبان": 3559,
    "▁ترانزیت": 3560,
    "▁بازگردد": 3561,
    "▁خلاقیت": 3562,
    "▁سرو": 3563,
    "▁مفهوم": 3564,
    "▁بوشهر": 3565,
    "▁ابعاد": 3566,
    "▁کارلوس": 3567,
    "▁استراتژیک": 3568,
    "ژانس": 3569,
    "▁ویلیام": 3570,
    "▁بیروت": 3571,
    "▁مارتین": 3572,
    "▁رابرت": 3573,
    "▁سید": 3574,
    "▁فتاح": 3575,
    "▁محاسبات": 3576,
    "▁کشند": 3577,
    "▁تفاهم": 3578,
    "▁جنایت": 3579,
    "▁روبرت": 3580,
    "▁انصاریان": 3581,
    "▁علاقمندان": 3582,
    "▁نوید": 3583,
    "▁برلین": 3584,
    "▁سوئیسی": 3585,
    "▁روستا": 3586,
    "▁ژنتیک": 3587,
    "▁وحید": 3588,
    "▁نس": 3589,
    "نوی": 3590,
    "▁سفی": 3591,
    "▁اکرا": 3592,
    "▁خریداران": 3593,
    "جیره": 3594,
    "▁اصول": 3595,
    "▁لیس": 3596,
    "▁کاشی": 3597,
    "▁رساندن": 3598,
    "▁خار": 3599,
    "▁روسی": 3600,
    "▁بدی": 3601,
    "▁نی": 3602,
    "▁گروگانگیر": 3603,
    "▁بوک": 3604,
    "بویایی": 3605,
    "▁۷۲": 3606,
    "▁ماهها": 3607,
    "▁سگ": 3608,
    "▁فاز": 3609,
    "▁مادران": 3610,
    "▁ل": 3611,
    "▁گنج": 3612,
    "▁نورد": 3613,
    "▁دوحه": 3614,
    "مرکز": 3615,
    "ونگ": 3616,
    "لحق": 3617,
    "▁موکو": 3618,
    "اسل": 3619,
    "کاب": 3620,
    "▁دم": 3621,
    "لور": 3622,
    "داوم": 3623,
    "▁ساختن": 3624,
    "▁آرا": 3625,
    "تور": 3626,
    "▁شمسی": 3627,
    "▁گانه": 3628,
    "▁حا": 3629,
    "▁جاست": 3630,
    "▁ایام": 3631,
    "▁انیس": 3632,
    "حتی": 3633,
    "▁اندیش": 3634,
    "▁بدل": 3635,
    "لر": 3636,
    "شاخص": 3637,
    "پرس": 3638,
    "فیلم": 3639,
    "▁مهل": 3640,
    "▁آیین": 3641,
    "آنها": 3642,
    "گه": 3643,
    "شدت": 3644,
    "پر": 3645,
    "▁سیل": 3646,
    "▁مهاجر": 3647,
    "▁داروهای": 3648,
    "▁۹۰۰": 3649,
    "▁۷۴": 3650,
    "▁نیا": 3651,
    "▁کاس": 3652,
    "▁فضانورد": 3653,
    "▁لا": 3654,
    "▁زای": 3655,
    "▁جالب": 3656,
    "▁پیست": 3657,
    "▁رنج": 3658,
    "▁انفرادی": 3659,
    "▁تأثیر": 3660,
    "▁وحدت": 3661,
    "▁نکنند": 3662,
    "▁بروکسل": 3663,
    "▁سکونت": 3664,
    "▁ارمنستان": 3665,
    "▁ناچار": 3666,
    "▁بختیار": 3667,
    "▁قطار": 3668,
    "▁مختل": 3669,
    "▁قریب": 3670,
    "▁بگویم": 3671,
    "▁تقدی": 3672,
    "▁مواضع": 3673,
    "▁متعهد": 3674,
    "▁ایمان": 3675,
    "▁مهرماه": 3676,
    "▁اکتشاف": 3677,
    "▁۱۹۸۶": 3678,
    "▁متقاضی": 3679,
    "▁موازی": 3680,
    "▁منزل": 3681,
    "▁حجاب": 3682,
    "▁رولز": 3683,
    "▁تیرماه": 3684,
    "فیلد": 3685,
    "▁یکسان": 3686,
    "▁زنجان": 3687,
    "▁طرز": 3688,
    "▁کشاند": 3689,
    "▁خانوارهای": 3690,
    "▁رنو": 3691,
    "تاسف": 3692,
    "▁بورل": 3693,
    "تلاف": 3694,
    "▁پوش": 3695,
    "▁ژوز": 3696,
    "عداد": 3697,
    "▁نمکی": 3698,
    "مرث": 3699,
    "▁آورند": 3700,
    "▁فیلتر": 3701,
    "▁بوی": 3702,
    "▁نکردن": 3703,
    "▁وب": 3704,
    "▁وزارتخانه": 3705,
    "▁توضیحات": 3706,
    "▁کتی": 3707,
    "▁استودیو": 3708,
    "▁کیفر": 3709,
    "▁سربازان": 3710,
    "▁گلف": 3711,
    "▁استادیوم": 3712,
    "▁عبدی": 3713,
    "▁تروی": 3714,
    "▁برکناری": 3715,
    "▁یور": 3716,
    "▁مح": 3717,
    "▁عقید": 3718,
    "▁مرزها": 3719,
    "▁پروازها": 3720,
    "غان": 3721,
    "▁ذخا": 3722,
    "ران": 3723,
    "▁نامدار": 3724,
    "شیر": 3725,
    "دگی": 3726,
    "▁تون": 3727,
    "▁قش": 3728,
    "▁رادیویی": 3729,
    "▁همانند": 3730,
    "▁نامزدها": 3731,
    "دوف": 3732,
    "▁ناب": 3733,
    "▁زور": 3734,
    "▁حریفان": 3735,
    "ایع": 3736,
    "چین": 3737,
    "▁دستگیری": 3738,
    "▁صالحی": 3739,
    "▁نزد": 3740,
    "▁حیاتی": 3741,
    "▁۳۶": 3742,
    "غال": 3743,
    "▁اوبر": 3744,
    "▁کاد": 3745,
    "خیم": 3746,
    "▁صحن": 3747,
    "▁اوب": 3748,
    "▁شور": 3749,
    "▁دوام": 3750,
    "▁صعودی": 3751,
    "▁شیری": 3752,
    "▁سپ": 3753,
    "بل": 3754,
    "▁برادرش": 3755,
    "بچه": 3756,
    "خت": 3757,
    "معاون": 3758,
    "محمود": 3759,
    "▁توانم": 3760,
    "علیرضا": 3761,
    "▁جلالی": 3762,
    "ویژه": 3763,
    "دادگاه": 3764,
    "▁حاکم": 3765,
    "سن": 3766,
    "▁ات": 3767,
    "▁معترض": 3768,
    "روج": 3769,
    "▁سکت": 3770,
    "▁رسم": 3771,
    "▁ماری": 3772,
    "روی": 3773,
    "▁ناو": 3774,
    "▁اختلا": 3775,
    "▁حداکثری": 3776,
    "▁صح": 3777,
    "▁اظهارنظر": 3778,
    "▁خوشحال": 3779,
    "▁اخطار": 3780,
    "حقق": 3781,
    "▁قم": 3782,
    "▁روستایی": 3783,
    "بون": 3784,
    "▁تعقیب": 3785,
    "▁مایکروسافت": 3786,
    "▁تعدیل": 3787,
    "▁غیاب": 3788,
    "▁نشیب": 3789,
    "▁تماشاچی": 3790,
    "اج": 3791,
    "زیگ": 3792,
    "▁وصل": 3793,
    "▁فجر": 3794,
    "▁وا": 3795,
    "▁دانشکد": 3796,
    "▁آشفت": 3797,
    "▁ارزشمند": 3798,
    "▁غرق": 3799,
    "▁الحسن": 3800,
    "▁همرسان": 3801,
    "▁دپ": 3802,
    "▁بلومبرگ": 3803,
    "▁اخلاق": 3804,
    "▁پیمانکار": 3805,
    "وطن": 3806,
    "▁تخلفات": 3807,
    "▁دیدگاه": 3808,
    "▁مداوم": 3809,
    "▁شایعات": 3810,
    "▁مالاریا": 3811,
    "▁منتف": 3812,
    "▁زیستگاه": 3813,
    "آبادی": 3814,
    "▁همیلتون": 3815,
    "انصراف": 3816,
    "▁گوگل": 3817,
    "▁لیگا": 3818,
    "▁۱۹۷": 3819,
    "▁تعجب": 3820,
    "▁یکصد": 3821,
    "▁کاربرد": 3822,
    "▁اندازد": 3823,
    "▁همینطور": 3824,
    "▁پایدار": 3825,
    "▁طرفدار": 3826,
    "▁رانندگی": 3827,
    "▁رویس": 3828,
    "▁خشکسالی": 3829,
    "▁دود": 3830,
    "▁سرنشینان": 3831,
    "وریا": 3832,
    "▁خوا": 3833,
    "▁درختان": 3834,
    "ناف": 3835,
    "▁ازای": 3836,
    "نزا": 3837,
    "▁معمار": 3838,
    "▁نیش": 3839,
    "▁سازد": 3840,
    "▁فرانک": 3841,
    "▁آبادان": 3842,
    "▁صفحات": 3843,
    "▁انتقادهای": 3844,
    "▁قوس": 3845,
    "▁شون": 3846,
    "▁کوچکتر": 3847,
    "▁افتد": 3848,
    "▁بهرام": 3849,
    "▁ضربات": 3850,
    "▁ترور": 3851,
    "▁کلام": 3852,
    "▁هواپیماهای": 3853,
    "عه": 3854,
    "▁صاحبان": 3855,
    "▁استرالیایی": 3856,
    "▁مصطف": 3857,
    "▁کشم": 3858,
    "▁آمدند": 3859,
    "▁چیزهای": 3860,
    "▁واسط": 3861,
    "▁قربانی": 3862,
    "▁قراردادش": 3863,
    "فن": 3864,
    "▁مری": 3865,
    "▁شدیدتر": 3866,
    "▁جف": 3867,
    "▁خودروها": 3868,
    "زی": 3869,
    "۱۵": 3870,
    "▁آبادی": 3871,
    "کننده": 3872,
    "گل": 3873,
    "▁جهانگیری": 3874,
    "▁سرا": 3875,
    "امیر": 3876,
    "▁سامان": 3877,
    "▁مسیحی": 3878,
    "ایح": 3879,
    "بانی": 3880,
    "لقی": 3881,
    "▁اوین": 3882,
    "▁۹۱": 3883,
    "کوبی": 3884,
    "▁دخترش": 3885,
    "ساب": 3886,
    "▁علیر": 3887,
    "منستان": 3888,
    "▁راستی": 3889,
    "واسط": 3890,
    "▁نرسید": 3891,
    "آمیز": 3892,
    "▁بینیم": 3893,
    "▁مغ": 3894,
    "▁ران": 3895,
    "شاید": 3896,
    "▁ایرلند": 3897,
    "▁نوار": 3898,
    "زمان": 3899,
    "▁فین": 3900,
    "▁آلن": 3901,
    "ممکن": 3902,
    "▁گوگ": 3903,
    "▁استاین": 3904,
    "▁گار": 3905,
    "▁زبا": 3906,
    "پای": 3907,
    "ارغ": 3908,
    "▁شر": 3909,
    "▁الزام": 3910,
    "▁استون": 3911,
    "▁مقرر": 3912,
    "▁گرگ": 3913,
    "▁تلگرام": 3914,
    "▁لزوم": 3915,
    "▁فروپاشی": 3916,
    "▁گشود": 3917,
    "▁تفریح": 3918,
    "▁بیاورد": 3919,
    "▁بیفتد": 3920,
    "▁بکشند": 3921,
    "▁لالیگا": 3922,
    "▁خیانت": 3923,
    "▁مکرر": 3924,
    "▁ذکر": 3925,
    "▁درآورد": 3926,
    "▁بیلسا": 3927,
    "▁بلوچ": 3928,
    "▁اسپرت": 3929,
    "▁اخلال": 3930,
    "▁۱۳۹۶": 3931,
    "▁همگ": 3932,
    "▁بهبهان": 3933,
    "▁سایبری": 3934,
    "▁مبدا": 3935,
    "▁کابین": 3936,
    "▁پورتو": 3937,
    "وداع": 3938,
    "▁پردازد": 3939,
    "▁ناپدید": 3940,
    "▁تخیل": 3941,
    "▁ویزا": 3942,
    "نظرسنجی": 3943,
    "▁حاکمیت": 3944,
    "▁۲۰۳۰": 3945,
    "تیکو": 3946,
    "▁انگشت": 3947,
    "▁حرم": 3948,
    "▁ضایع": 3949,
    "▁ابوال": 3950,
    "▁صفرها": 3951,
    "▁کلود": 3952,
    "▁دایناسور": 3953,
    "▁نظم": 3954,
    "▁غالب": 3955,
    "▁گلو": 3956,
    "▁شهریار": 3957,
    "▁رضایت": 3958,
    "▁روبروست": 3959,
    "أ": 3960,
    "▁۶۸": 3961,
    "▁سام": 3962,
    "▁کارگروه": 3963,
    "▁مایل": 3964,
    "▁مهاجران": 3965,
    "▁دیپلمات": 3966,
    "▁بقایای": 3967,
    "یویا": 3968,
    "تمرکز": 3969,
    "▁سالمندان": 3970,
    "▁ظه": 3971,
    "▁بافت": 3972,
    "▁کردستان": 3973,
    "گیر": 3974,
    "▁رنجر": 3975,
    "▁ریچارد": 3976,
    "▁نژادی": 3977,
    "▁شنیدن": 3978,
    "▁خواهر": 3979,
    "▁دقت": 3980,
    "▁حو": 3981,
    "▁گرفتار": 3982,
    "▁جلال": 3983,
    "▁شناسند": 3984,
    "▁اعضا": 3985,
    "▁تمرکز": 3986,
    "▁۱۵۰۰": 3987,
    "▁جنس": 3988,
    "▁داروها": 3989,
    "▁سیزدهم": 3990,
    "▁منطق": 3991,
    "▁حکمتی": 3992,
    "▁باستان": 3993,
    "باز": 3994,
    "▁ظهر": 3995,
    "▁یافتند": 3996,
    "▁پرهی": 3997,
    "▁کشیدن": 3998,
    "▁ناآرامی": 3999,
    "▁مهمان": 4000,
    "▁۱۳۶": 4001,
    "▁آفریقایی": 4002,
    "یقه": 4003,
    "▁خدا": 4004,
    "▁جرد": 4005,
    "▁مکانی": 4006,
    "اقد": 4007,
    "▁انگل": 4008,
    "▁کرو": 4009,
    "▁رزم": 4010,
    "▁دوازده": 4011,
    "تب": 4012,
    "شاه": 4013,
    "▁برداشتن": 4014,
    "کمیت": 4015,
    "▁اکس": 4016,
    "۱۳": 4017,
    "▁میلیاردر": 4018,
    "برگ": 4019,
    "▁دربار": 4020,
    "▁کمدی": 4021,
    "نم": 4022,
    "دیگر": 4023,
    "صورت": 4024,
    "▁بس": 4025,
    "▁برگشته": 4026,
    "▁۵۹": 4027,
    "محققان": 4028,
    "مراسم": 4029,
    "زار": 4030,
    "▁یکسال": 4031,
    "انکن": 4032,
    "غه": 4033,
    "فا": 4034,
    "▁آگاهی": 4035,
    "▁ادا": 4036,
    "رداد": 4037,
    "▁غر": 4038,
    "▁فو": 4039,
    "▁کول": 4040,
    "چهار": 4041,
    "▁بنیادی": 4042,
    "▁شغلی": 4043,
    "زن": 4044,
    "▁فرج": 4045,
    "▁بدخ": 4046,
    "▁ربات": 4047,
    "▁لبخند": 4048,
    "▁الانبیا": 4049,
    "▁دریابندری": 4050,
    "▁کارداشیان": 4051,
    "▁فلوریدا": 4052,
    "▁چرنکوف": 4053,
    "▁خسارات": 4054,
    "خصیص": 4055,
    "▁ابتکار": 4056,
    "▁تغذیه": 4057,
    "▁برگردد": 4058,
    "▁قزاقستان": 4059,
    "▁خرابکار": 4060,
    "▁ببیند": 4061,
    "▁مجاهد": 4062,
    "▁مرجع": 4063,
    "▁داغستان": 4064,
    "▁شوهر": 4065,
    "▁کلینیک": 4066,
    "▁تعامل": 4067,
    "▁ناامید": 4068,
    "▁بگیرید": 4069,
    "▁۱۳۹۵": 4070,
    "▁آسمایی": 4071,
    "▁سرویس": 4072,
    "▁توریست": 4073,
    "▁سردبیر": 4074,
    "▁چوب": 4075,
    "▁شوماخر": 4076,
    "▁عنکبوت": 4077,
    "▁مزرعه": 4078,
    "▁استرازنکا": 4079,
    "▁رتکلیف": 4080,
    "▁رمزارز": 4081,
    "▁معلول": 4082,
    "▁بانکها": 4083,
    "▁مخدر": 4084,
    "▁رسول": 4085,
    "▁یادبود": 4086,
    "▁تاکسی": 4087,
    "▁دستاوردهای": 4088,
    "▁دعوا": 4089,
    "▁مصون": 4090,
    "▁ستایش": 4091,
    "▁پلاک": 4092,
    "▁صدم": 4093,
    "کینگ": 4094,
    "▁ور": 4095,
    "▁سکوت": 4096,
    "▁۲۰۰۴": 4097,
    "▁حداد": 4098,
    "▁محبوبیت": 4099,
    "▁شوید": 4100,
    "▁۳۵۰": 4101,
    "تراشه": 4102,
    "▁بجا": 4103,
    "▁پیرلو": 4104,
    "▁قند": 4105,
    "▁دشمنان": 4106,
    "▁۴۷": 4107,
    "▁پیشرفته": 4108,
    "▁الیز": 4109,
    "صخره": 4110,
    "▁گردند": 4111,
    "▁کاردن": 4112,
    "▁ندید": 4113,
    "▁معاین": 4114,
    "▁دهک": 4115,
    "▁نوزدهم": 4116,
    "▁اشیا": 4117,
    "▁صادرکنند": 4118,
    "▁آفرین": 4119,
    "▁مطهری": 4120,
    "▁انتقادات": 4121,
    "لوت": 4122,
    "▁ریاض": 4123,
    "▁ساک": 4124,
    "▁مغاز": 4125,
    "▁نمادهای": 4126,
    "▁پیشرو": 4127,
    "▁منصور": 4128,
    "امت": 4129,
    "▁بلوک": 4130,
    "▁جم": 4131,
    "زا": 4132,
    "اف": 4133,
    "▁گرایان": 4134,
    "▁گرمای": 4135,
    "عکس": 4136,
    "لت": 4137,
    "▁بل": 4138,
    "الله": 4139,
    "▁گم": 4140,
    "▁کارگردانان": 4141,
    "▁شهیدی": 4142,
    "▁نداد": 4143,
    "▁پسرش": 4144,
    "▁وار": 4145,
    "▁همای": 4146,
    "عارف": 4147,
    "▁بشری": 4148,
    "▁مرغدار": 4149,
    "▁الکس": 4150,
    "▁آمریکاست": 4151,
    "نصف": 4152,
    "▁پلی": 4153,
    "▁گلزنی": 4154,
    "وکی": 4155,
    "▁ریس": 4156,
    "▁شانه": 4157,
    "▁شرمن": 4158,
    "شنگ": 4159,
    "مرگ": 4160,
    "جانب": 4161,
    "حمید": 4162,
    "پژوهشگران": 4163,
    "سیتی": 4164,
    "▁۱۳۸": 4165,
    "▁بازارها": 4166,
    "هدف": 4167,
    "خمین": 4168,
    "موند": 4169,
    "جانی": 4170,
    "▁درس": 4171,
    "▁عکسی": 4172,
    "▁هوادار": 4173,
    "گذاری": 4174,
    "درصد": 4175,
    "▁انوش": 4176,
    "▁سرنشین": 4177,
    "▁بم": 4178,
    "تقاد": 4179,
    "▁افکاری": 4180,
    "لاتین": 4181,
    "▁بیل": 4182,
    "▁دردسر": 4183,
    "▁مأمور": 4184,
    "▁سحر": 4185,
    "▁قطبی": 4186,
    "▁شا": 4187,
    "▁بفروشد": 4188,
    "▁پهپاد": 4189,
    "▁پرطرفدار": 4190,
    "▁ندارم": 4191,
    "▁سیگار": 4192,
    "▁تعزیری": 4193,
    "▁مشکوک": 4194,
    "▁تتلو": 4195,
    "▁زیارت": 4196,
    "▁خزر": 4197,
    "▁سوگوار": 4198,
    "▁آموزگار": 4199,
    "▁مظاهری": 4200,
    "▁خیال": 4201,
    "▁مطلوب": 4202,
    "▁بپردازد": 4203,
    "▁آوازخوان": 4204,
    "▁خوشنام": 4205,
    "ارتاک": 4206,
    "▁معدود": 4207,
    "▁پراید": 4208,
    "▁۱۹۹۰": 4209,
    "▁تندرو": 4210,
    "▁ببینند": 4211,
    "▁بگوییم": 4212,
    "▁مقدم": 4213,
    "▁سرتیپ": 4214,
    "▁مقطع": 4215,
    "▁اعتیاد": 4216,
    "▁لم": 4217,
    "▁استراتژی": 4218,
    "▁بزنند": 4219,
    "▁کشتار": 4220,
    "▁تحقیقی": 4221,
    "▁شیلی": 4222,
    "▁زنگنه": 4223,
    "▁لحن": 4224,
    "▁حساسیت": 4225,
    "▁تنوع": 4226,
    "▁محکم": 4227,
    "▁توخل": 4228,
    "▁صحیح": 4229,
    "فاد": 4230,
    "▁الکل": 4231,
    "▁شیمی": 4232,
    "گاهی": 4233,
    "ختم": 4234,
    "شته": 4235,
    "▁نکات": 4236,
    "▁ستارگان": 4237,
    "▁سعد": 4238,
    "▁تعادل": 4239,
    "۴۰": 4240,
    "▁آرامکو": 4241,
    "▁سیاستمداران": 4242,
    "▁دهید": 4243,
    "▁شیع": 4244,
    "▁گرسنگ": 4245,
    "▁دارید": 4246,
    "▁کرای": 4247,
    "▁خواهی": 4248,
    "▁احساسات": 4249,
    "▁خرند": 4250,
    "▁شام": 4251,
    "▁تایم": 4252,
    "▁نداشتن": 4253,
    "▁ویکتور": 4254,
    "▁دهندگان": 4255,
    "▁روزمر": 4256,
    "▁گزارشگران": 4257,
    "▁بلی": 4258,
    "▁هکرها": 4259,
    "▁نیما": 4260,
    "▁قرض": 4261,
    "انس": 4262,
    "▁پار": 4263,
    "زانه": 4264,
    "▁پاهای": 4265,
    "احی": 4266,
    "وستهم": 4267,
    "واد": 4268,
    "برید": 4269,
    "▁فضلی": 4270,
    "▁داشتیم": 4271,
    "▁گزارشها": 4272,
    "اپ": 4273,
    "▁تاریک": 4274,
    "▁مرگش": 4275,
    "▁زخم": 4276,
    "▁ماریا": 4277,
    "▁ادب": 4278,
    "▁حاجی": 4279,
    "اری": 4280,
    "▁گلزن": 4281,
    "▁تصمیمات": 4282,
    "▁عالمی": 4283,
    "▁سرگرمی": 4284,
    "گن": 4285,
    "▁غم": 4286,
    "▁کنیا": 4287,
    "▁وحشی": 4288,
    "رینگ": 4289,
    "▁بارداری": 4290,
    "▁تورمی": 4291,
    "لین": 4292,
    "ریک": 4293,
    "▁پارس": 4294,
    "۲۰": 4295,
    "مت": 4296,
    "▁ژو": 4297,
    "▁مقا": 4298,
    "▁تار": 4299,
    "بیشترین": 4300,
    "وزی": 4301,
    "لاند": 4302,
    "▁۱۹۳": 4303,
    "▁خودروی": 4304,
    "▁مالکان": 4305,
    "۷۰": 4306,
    "▁شل": 4307,
    "تحول": 4308,
    "▁ثروتمندتر": 4309,
    "▁بناها": 4310,
    "▁کین": 4311,
    "مصطف": 4312,
    "محمدجواد": 4313,
    "▁تیک": 4314,
    "فدرر": 4315,
    "باشگاه": 4316,
    "تولید": 4317,
    "اتحاد": 4318,
    "دهنده": 4319,
    "▁بمب": 4320,
    "چرا": 4321,
    "▁سیزده": 4322,
    "▁آقا": 4323,
    "پینگ": 4324,
    "تنها": 4325,
    "▁کنو": 4326,
    "▁تلف": 4327,
    "▁استیون": 4328,
    "▁برف": 4329,
    "حالا": 4330,
    "▁درخش": 4331,
    "آخری": 4332,
    "▁مرم": 4333,
    "▁۵۸": 4334,
    "▁برزیلی": 4335,
    "مایک": 4336,
    "روزنامه": 4337,
    "▁کلا": 4338,
    "نده": 4339,
    "▁۱۹۰": 4340,
    "▁۷۸": 4341,
    "▁تعهداتش": 4342,
    "▁خوانی": 4343,
    "سئول": 4344,
    "خواهید": 4345,
    "▁کما": 4346,
    "▁معل": 4347,
    "صف": 4348,
    "▁ارگ": 4349,
    "▁نوازند": 4350,
    "▁اعتراف": 4351,
    "▁تحقیر": 4352,
    "▁قائدی": 4353,
    "▁مکتوب": 4354,
    "▁اشتراک": 4355,
    "▁تضمین": 4356,
    "▁ببینیم": 4357,
    "▁جاشوا": 4358,
    "▁کالبد": 4359,
    "▁شباهت": 4360,
    "▁پیراهن": 4361,
    "▁بفتا": 4362,
    "▁شاهکار": 4363,
    "▁مفید": 4364,
    "▁ورشکست": 4365,
    "▁فلج": 4366,
    "▁ارکستر": 4367,
    "▁تبادل": 4368,
    "▁رفاه": 4369,
    "▁نزول": 4370,
    "▁منفجر": 4371,
    "▁ماندگار": 4372,
    "▁متاثر": 4373,
    "▁تروریسم": 4374,
    "▁زیرساخت": 4375,
    "▁مصلحت": 4376,
    "▁کولمن": 4377,
    "▁مداخل": 4378,
    "▁توفان": 4379,
    "▁مسایل": 4380,
    "▁مسافت": 4381,
    "▁اتکا": 4382,
    "▁فسیل": 4383,
    "▁متنوع": 4384,
    "▁طارمی": 4385,
    "▁ویرجی": 4386,
    "▁بگیریم": 4387,
    "▁۱۹۹۸": 4388,
    "▁ناتوان": 4389,
    "▁توجیه": 4390,
    "سیویر": 4391,
    "▁لامبورگینی": 4392,
    "▁کریسمس": 4393,
    "▁سالیوان": 4394,
    "▁پایبند": 4395,
    "▁برآمد": 4396,
    "▁مرتب": 4397,
    "▁فرایند": 4398,
    "▁اعطا": 4399,
    "▁تعبیر": 4400,
    "وکسین": 4401,
    "▁تسهیلات": 4402,
    "▁عقرب": 4403,
    "▁بوکسور": 4404,
    "▁مرتضی": 4405,
    "ناد": 4406,
    "اداره": 4407,
    "▁قاب": 4408,
    "▁فیس": 4409,
    "▁گرای": 4410,
    "▁حباب": 4411,
    "▁بنکسی": 4412,
    "▁ودیعه": 4413,
    "▁قاعد": 4414,
    "▁دهلی": 4415,
    "▁داریوش": 4416,
    "▁خرس": 4417,
    "▁گرایش": 4418,
    "▁گرمایش": 4419,
    "▁لیور": 4420,
    "▁ایراد": 4421,
    "▁فلسفه": 4422,
    "▁برنز": 4423,
    "گیل": 4424,
    "▁عطرساز": 4425,
    "▁کوهن": 4426,
    "▁ریل": 4427,
    "▁روال": 4428,
    "▁مستقیما": 4429,
    "▁گیاهان": 4430,
    "▁اتل": 4431,
    "▁بزرگتر": 4432,
    "▁جانور": 4433,
    "▁گذارند": 4434,
    "ادات": 4435,
    "شد": 4436,
    "▁پاتر": 4437,
    "▁جبه": 4438,
    "وهان": 4439,
    "رشد": 4440,
    "▁تند": 4441,
    "▁نماند": 4442,
    "پارد": 4443,
    "هدیه": 4444,
    "۹۱": 4445,
    "ایدو": 4446,
    "▁نرفت": 4447,
    "▁نیازها": 4448,
    "▁قطعات": 4449,
    "▁سلطانی": 4450,
    "▁پناهندگ": 4451,
    "نیا": 4452,
    "فلات": 4453,
    "▁اح": 4454,
    "▁نوجوانان": 4455,
    "هاب": 4456,
    "▁وزرا": 4457,
    "▁یکبار": 4458,
    "▁ذی": 4459,
    "▁ناشنا": 4460,
    "▁مهاجمان": 4461,
    "▁کلاهبردار": 4462,
    "▁پرتر": 4463,
    "▁تحرک": 4464,
    "▁بدین": 4465,
    "▁صاف": 4466,
    "سفر": 4467,
    "خاطر": 4468,
    "عشی": 4469,
    "▁شاعران": 4470,
    "گفت": 4471,
    "▁فال": 4472,
    "▁محدودیتها": 4473,
    "وپن": 4474,
    "بهم": 4475,
    "▁۶۲": 4476,
    "▁کامپیوتری": 4477,
    "▁قومی": 4478,
    "▁شاپ": 4479,
    "▁پرت": 4480,
    "▁بها": 4481,
    "▁کمربند": 4482,
    "▁ردیاب": 4483,
    "▁معیار": 4484,
    "▁ملا": 4485,
    "▁مال": 4486,
    "▁شناسان": 4487,
    "▁بدنی": 4488,
    "▁انتها": 4489,
    "▁سیر": 4490,
    "▁ایا": 4491,
    "▁حدی": 4492,
    "▁ایر": 4493,
    "▁کاغذ": 4494,
    "مندان": 4495,
    "▁نوآور": 4496,
    "پذیر": 4497,
    "وجود": 4498,
    "▁یوو": 4499,
    "جلیل": 4500,
    "▁دنی": 4501,
    "▁پیری": 4502,
    "قرض": 4503,
    "ناظر": 4504,
    "بازار": 4505,
    "▁نظرهای": 4506,
    "▁گره": 4507,
    "فعالان": 4508,
    "▁۵۳": 4509,
    "▁خطای": 4510,
    "▁تثب": 4511,
    "▁دوج": 4512,
    "کت": 4513,
    "▁فروشند": 4514,
    "اژ": 4515,
    "فرج": 4516,
    "هز": 4517,
    "شماری": 4518,
    "مارک": 4519,
    "▁دستاورد": 4520,
    "▁مصدوم": 4521,
    "لوغ": 4522,
    "سلیم": 4523,
    "▁لرز": 4524,
    "▁مشکات": 4525,
    "▁اسرار": 4526,
    "▁رمضان": 4527,
    "▁مغناطیس": 4528,
    "▁ترسناک": 4529,
    "▁میکروب": 4530,
    "▁غفوری": 4531,
    "رطوب": 4532,
    "▁امیرشاهی": 4533,
    "▁تکامل": 4534,
    "▁یونسکو": 4535,
    "▁خفیف": 4536,
    "▁تلفیق": 4537,
    "سپاری": 4538,
    "▁مثلث": 4539,
    "▁فروزش": 4540,
    "▁تالار": 4541,
    "▁گلمکانی": 4542,
    "▁اعصاب": 4543,
    "▁میرزا": 4544,
    "▁جابجا": 4545,
    "▁زغال": 4546,
    "▁گلایه": 4547,
    "▁کوهستان": 4548,
    "▁آشام": 4549,
    "▁بردارد": 4550,
    "▁هشتگ": 4551,
    "▁حواس": 4552,
    "▁تلسکوپ": 4553,
    "▁غیرنظامی": 4554,
    "▁مدرک": 4555,
    "▁غلط": 4556,
    "▁سنبل": 4557,
    "▁هرمز": 4558,
    "▁جناح": 4559,
    "▁درج": 4560,
    "▁زهر": 4561,
    "▁تبعید": 4562,
    "▁بازنشستگی": 4563,
    "▁لاری": 4564,
    "▁تکنولوژی": 4565,
    "▁شمایل": 4566,
    "▁گودال": 4567,
    "▁پررنگ": 4568,
    "▁ابلاغی": 4569,
    "▁جمشید": 4570,
    "اشا": 4571,
    "▁پناهجویان": 4572,
    "▁فرق": 4573,
    "▁عج": 4574,
    "▁تحصیلات": 4575,
    "▁کمپ": 4576,
    "▁لخت": 4577,
    "▁قبال": 4578,
    "▁تان": 4579,
    "▁سانتریفیوژهای": 4580,
    "▁ماهشهر": 4581,
    "بدترین": 4582,
    "۶۳": 4583,
    "▁آرزوها": 4584,
    "▁مردگان": 4585,
    "▁نزدیکان": 4586,
    "ژان": 4587,
    "تکب": 4588,
    "▁شعبان": 4589,
    "▁رول": 4590,
    "▁هلی": 4591,
    "فصل": 4592,
    "▁الگوی": 4593,
    "▁وای": 4594,
    "▁سوری": 4595,
    "▁جزای": 4596,
    "پوتن": 4597,
    "▁هجدهم": 4598,
    "▁عمران": 4599,
    "▁صدد": 4600,
    "▁مزایای": 4601,
    "▁کاوه": 4602,
    "ارد": 4603,
    "▁کور": 4604,
    "پتون": 4605,
    "▁نوشتن": 4606,
    "▁مسیرهای": 4607,
    "▁نق": 4608,
    "▁دیدارهای": 4609,
    "▁شانزدهم": 4610,
    "مال": 4611,
    "▁کاوا": 4612,
    "▁شناسد": 4613,
    "▁طب": 4614,
    "لاق": 4615,
    "▁تش": 4616,
    "کید": 4617,
    "لندر": 4618,
    "بالغ": 4619,
    "▁افسر": 4620,
    "▁ببر": 4621,
    "عی": 4622,
    "▁استثنا": 4623,
    "▁ویدئو": 4624,
    "▁خالق": 4625,
    "▁شادی": 4626,
    "اطی": 4627,
    "ویل": 4628,
    "▁کودتای": 4629,
    "▁اجبار": 4630,
    "▁مقر": 4631,
    "▁برگ": 4632,
    "رسون": 4633,
    "▁انجامید": 4634,
    "▁فا": 4635,
    "۲۳": 4636,
    "خبر": 4637,
    "▁دا": 4638,
    "راتی": 4639,
    "▁۱۹۴": 4640,
    "▁کالای": 4641,
    "بینی": 4642,
    "▁جیل": 4643,
    "▁نهاده": 4644,
    "▁رکوردهای": 4645,
    "▁اعتراضی": 4646,
    "▁یار": 4647,
    "تیک": 4648,
    "▁کوب": 4649,
    "رالله": 4650,
    "▁۱۹۶": 4651,
    "قص": 4652,
    "▁وقف": 4653,
    "انا": 4654,
    "ورا": 4655,
    "▁گرفتم": 4656,
    "▁آنتی": 4657,
    "ساسی": 4658,
    "مدیر": 4659,
    "گرا": 4660,
    "▁منصوری": 4661,
    "▁لوکا": 4662,
    "▁اله": 4663,
    "▁ماز": 4664,
    "▁کروناست": 4665,
    "اخیرا": 4666,
    "منابع": 4667,
    "علاو": 4668,
    "دونالد": 4669,
    "آژانس": 4670,
    "▁پال": 4671,
    "مانده": 4672,
    "شیوع": 4673,
    "تلاش": 4674,
    "مجلس": 4675,
    "▁تحریمها": 4676,
    "مسئولان": 4677,
    "خان": 4678,
    "صالح": 4679,
    "▁معنا": 4680,
    "▁اد": 4681,
    "▁ثان": 4682,
    "▁ریخت": 4683,
    "نشین": 4684,
    "سرعت": 4685,
    "سیم": 4686,
    "▁نوزاد": 4687,
    "▁منصو": 4688,
    "ظن": 4689,
    "▁پناه": 4690,
    "▁ندانست": 4691,
    "▁تعمیر": 4692,
    "▁بوئ": 4693,
    "▁همجنس": 4694,
    "▁آبراموویچ": 4695,
    "▁آغداشلو": 4696,
    "▁المستقبل": 4697,
    "▁باورنکردنی": 4698,
    "▁حرکات": 4699,
    "▁دگرگون": 4700,
    "▁رولزرویس": 4701,
    "▁زریاب": 4702,
    "▁ناقض": 4703,
    "▁واضح": 4704,
    "▁محترم": 4705,
    "▁پلامر": 4706,
    "▁ویتنام": 4707,
    "▁وروورت": 4708,
    "▁نیسان": 4709,
    "ضعف": 4710,
    "▁قائل": 4711,
    "▁تأیید": 4712,
    "▁روشنفکر": 4713,
    "▁جلد": 4714,
    "▁ندهد": 4715,
    "▁پوتین": 4716,
    "▁یخچال": 4717,
    "▁سنگاپور": 4718,
    "▁تایتان": 4719,
    "▁محض": 4720,
    "▁پنگوئن": 4721,
    "▁شرکا": 4722,
    "▁چرب": 4723,
    "▁معالج": 4724,
    "▁بندرعباس": 4725,
    "▁تکنیک": 4726,
    "▁سارس": 4727,
    "▁احکام": 4728,
    "▁احتیاط": 4729,
    "▁راپینو": 4730,
    "▁بوئنو": 4731,
    "▁ساویز": 4732,
    "▁گواهی": 4733,
    "▁شفا": 4734,
    "▁بمانند": 4735,
    "▁مرکل": 4736,
    "ائیل": 4737,
    "▁اثبات": 4738,
    "▁آغوش": 4739,
    "▁۱۹۴۰": 4740,
    "▁اپرای": 4741,
    "▁بدانند": 4742,
    "▁گردانند": 4743,
    "▁خستگی": 4744,
    "▁دورت": 4745,
    "▁نارس": 4746,
    "▁هشتصد": 4747,
    "▁عزم": 4748,
    "▁۱۳۰": 4749,
    "▁نامگذاری": 4750,
    "▁انحصار": 4751,
    "▁شاپو": 4752,
    "▁نژادپرستانه": 4753,
    "▁پائی": 4754,
    "▁شوت": 4755,
    "▁قبرس": 4756,
    "▁جزییات": 4757,
    "▁هالپ": 4758,
    "▁مایع": 4759,
    "▁ادعاهای": 4760,
    "▁سیبری": 4761,
    "▁آرمان": 4762,
    "▁لاپورتا": 4763,
    "▁حضرت": 4764,
    "▁اریک": 4765,
    "▁تئو": 4766,
    "۶۰": 4767,
    "▁پستاندار": 4768,
    "هنورد": 4769,
    "▁احسا": 4770,
    "▁جنر": 4771,
    "▁پیتر": 4772,
    "▁انداختن": 4773,
    "ژیم": 4774,
    "▁چهاردهم": 4775,
    "▁آوی": 4776,
    "▁کانادایی": 4777,
    "▁رایزن": 4778,
    "▁جوز": 4779,
    "▁گارد": 4780,
    "▁دارا": 4781,
    "▁شوخی": 4782,
    "▁تابعیت": 4783,
    "کیو": 4784,
    "▁برجا": 4785,
    "▁دنیاست": 4786,
    "▁۸۲": 4787,
    "رهای": 4788,
    "▁باختند": 4789,
    "عان": 4790,
    "▁گلوب": 4791,
    "▁والدین": 4792,
    "سلسل": 4793,
    "▁برایم": 4794,
    "▁خواندند": 4795,
    "▁فیلمبردار": 4796,
    "▁لیست": 4797,
    "▁پاد": 4798,
    "نک": 4799,
    "کرد": 4800,
    "▁اعما": 4801,
    "▁رخت": 4802,
    "▁موزی": 4803,
    "وخامت": 4804,
    "▁خم": 4805,
    "▁کلان": 4806,
    "▁آثارش": 4807,
    "پا": 4808,
    "▁تام": 4809,
    "▁تابو": 4810,
    "یژن": 4811,
    "ریت": 4812,
    "▁نویی": 4813,
    "سلر": 4814,
    "ناشناس": 4815,
    "جل": 4816,
    "▁کاریر": 4817,
    "▁استرس": 4818,
    "▁۶۱": 4819,
    "▁بارور": 4820,
    "▁مصاد": 4821,
    "▁۱۳۴": 4822,
    "▁اسکو": 4823,
    "بن": 4824,
    "خورده": 4825,
    "▁کامپیوتر": 4826,
    "رات": 4827,
    "▁گردشگر": 4828,
    "▁بانو": 4829,
    "▁رز": 4830,
    "▁فرض": 4831,
    "▁رش": 4832,
    "ریس": 4833,
    "شوه": 4834,
    "▁شمس": 4835,
    "آمار": 4836,
    "بست": 4837,
    "▁فردین": 4838,
    "کره": 4839,
    "سام": 4840,
    "▁په": 4841,
    "▁ماس": 4842,
    "افت": 4843,
    "▁اکبری": 4844,
    "اذب": 4845,
    "▁نخ": 4846,
    "▁پژو": 4847,
    "▁یکم": 4848,
    "▁شع": 4849,
    "▁ذهنی": 4850,
    "▁تاریکی": 4851,
    "فون": 4852,
    "▁چشمان": 4853,
    "اندن": 4854,
    "▁لوو": 4855,
    "سکن": 4856,
    "شنا": 4857,
    "▁۴۱": 4858,
    "گذشت": 4859,
    "▁بله": 4860,
    "▁داوی": 4861,
    "▁سطو": 4862,
    "ابلو": 4863,
    "▁گذراندن": 4864,
    "مپ": 4865,
    "کسر": 4866,
    "سابقه": 4867,
    "وب": 4868,
    "رشاد": 4869,
    "▁میز": 4870,
    "آفرین": 4871,
    "آنتونی": 4872,
    "▁آس": 4873,
    "زده": 4874,
    "▁پریش": 4875,
    "یسی": 4876,
    "قدس": 4877,
    "یع": 4878,
    "هکرها": 4879,
    "▁۷۶": 4880,
    "▁واحدها": 4881,
    "▁پیر": 4882,
    "▁گازها": 4883,
    "▁همتای": 4884,
    "▁عرف": 4885,
    "▁مست": 4886,
    "▁سوئ": 4887,
    "▁سانتریفیوژ": 4888,
    "▁رخداد": 4889,
    "▁مخلو": 4890,
    "▁عضلا": 4891,
    "مکعب": 4892,
    "▁آتالانتا": 4893,
    "▁اتیوپی": 4894,
    "▁خنثی": 4895,
    "▁ربیعی": 4896,
    "▁وحشتناک": 4897,
    "▁پوچتینو": 4898,
    "▁کامبوج": 4899,
    "▁اپیدمی": 4900,
    "▁نامناسب": 4901,
    "▁تفسیر": 4902,
    "▁ترافیک": 4903,
    "▁مسموم": 4904,
    "▁امتداد": 4905,
    "▁مونتاژ": 4906,
    "▁آسوشیتد": 4907,
    "▁نعمت": 4908,
    "▁متغیر": 4909,
    "▁بازنگری": 4910,
    "▁تورنتو": 4911,
    "▁نیجر": 4912,
    "▁بوزمن": 4913,
    "▁هواشناسی": 4914,
    "▁زودهنگام": 4915,
    "▁ونیز": 4916,
    "▁ریورا": 4917,
    "▁آرشیو": 4918,
    "▁مولوی": 4919,
    "▁حسرت": 4920,
    "▁دبیرستان": 4921,
    "▁دماوند": 4922,
    "▁ضدحمل": 4923,
    "▁پیشکسوت": 4924,
    "▁امواج": 4925,
    "▁فخر": 4926,
    "▁صراحت": 4927,
    "▁ماشه": 4928,
    "دترا": 4929,
    "▁جمج": 4930,
    "▁فروغ": 4931,
    "▁پالاس": 4932,
    "▁گرامی": 4933,
    "▁قفس": 4934,
    "▁کولبر": 4935,
    "▁مخفیانه": 4936,
    "کری": 4937,
    "▁ببرند": 4938,
    "▁پرآ": 4939,
    "▁آلزایمر": 4940,
    "▁خوشبخت": 4941,
    "▁ایرباس": 4942,
    "▁خد": 4943,
    "▁خست": 4944,
    "▁جیپ": 4945,
    "▁معاش": 4946,
    "▁مواقع": 4947,
    "▁تدری": 4948,
    "جیمزباند": 4949,
    "▁غیبت": 4950,
    "بپرس": 4951,
    "طرف": 4952,
    "▁گناه": 4953,
    "نفتی": 4954,
    "▁درآمدزا": 4955,
    "▁عرفان": 4956,
    "▁برعکس": 4957,
    "▁بالگرد": 4958,
    "▁تمرینات": 4959,
    "تری": 4960,
    "▁بلو": 4961,
    "نوردی": 4962,
    "▁احمدشا": 4963,
    "▁نکردند": 4964,
    "▁گردش": 4965,
    "▁تندی": 4966,
    "▁فیلیپین": 4967,
    "ازما": 4968,
    "▁خلیل": 4969,
    "▁فضانوردان": 4970,
    "▁اپراتورها": 4971,
    "▁عمو": 4972,
    "زاب": 4973,
    "▁مهمتری": 4974,
    "▁جست": 4975,
    "▁سیمون": 4976,
    "▁بصر": 4977,
    "▁سرمای": 4978,
    "▁کیست": 4979,
    "▁مهندسی": 4980,
    "▁درز": 4981,
    "▁رضایی": 4982,
    "ویش": 4983,
    "۲۴": 4984,
    "گا": 4985,
    "▁تهدیدهای": 4986,
    "▁افتادن": 4987,
    "▁عقل": 4988,
    "▁جاهای": 4989,
    "▁۹۳": 4990,
    "▁پاکستانی": 4991,
    "▁روم": 4992,
    "▁ریو": 4993,
    "▁اچ": 4994,
    "▁تشری": 4995,
    "▁خطرات": 4996,
    "داران": 4997,
    "▁جنگند": 4998,
    "مانع": 4999,
    "▁کنی": 5000,
    "▁رج": 5001,
    "لوب": 5002,
    "▁هفدهم": 5003,
    "▁کلم": 5004,
    "مور": 5005,
    "▁ماهیگیر": 5006,
    "▁آنهاست": 5007,
    "▁پرسی": 5008,
    "▁دن": 5009,
    "▁مدتها": 5010,
    "▁کوس": 5011,
    "▁۱۹۵": 5012,
    "▁بازخوان": 5013,
    "حریم": 5014,
    "▁نروژ": 5015,
    "▁بازرگان": 5016,
    "▁دوازدهم": 5017,
    "ساله": 5018,
    "▁خودس": 5019,
    "زیه": 5020,
    "▁خوانند": 5021,
    "▁همکار": 5022,
    "ویک": 5023,
    "▁قرمزها": 5024,
    "باب": 5025,
    "▁تونس": 5026,
    "▁جنی": 5027,
    "▁سرگرم": 5028,
    "▁عالم": 5029,
    "▁شهید": 5030,
    "گرفته": 5031,
    "▁بوس": 5032,
    "▁پهلو": 5033,
    "▁۸۸": 5034,
    "▁۶۴": 5035,
    "▁عزیز": 5036,
    "▁نابود": 5037,
    "▁دوستانش": 5038,
    "▁بازوی": 5039,
    "▁رایان": 5040,
    "▁ثا": 5041,
    "▁درخشانی": 5042,
    "بازی": 5043,
    "۹۳": 5044,
    "▁بون": 5045,
    "▁۸۶": 5046,
    "▁شریف": 5047,
    "ادا": 5048,
    "▁باردار": 5049,
    "خواه": 5050,
    "▁سیف": 5051,
    "▁پولی": 5052,
    "▁بت": 5053,
    "راب": 5054,
    "دخت": 5055,
    "▁کاران": 5056,
    "▁نیکلا": 5057,
    "▁لن": 5058,
    "▁شانزده": 5059,
    "▁جرا": 5060,
    "▁بور": 5061,
    "▁نیافت": 5062,
    "▁راکت": 5063,
    "▁۱۷۶": 5064,
    "▁استاندارد": 5065,
    "▁بودا": 5066,
    "▁عط": 5067,
    "انتخابات": 5068,
    "▁ول": 5069,
    "▁فرخ": 5070,
    "غلام": 5071,
    "کارشناسان": 5072,
    "تصاویر": 5073,
    "انتظار": 5074,
    "(": 5075,
    "خانواده": 5076,
    "راجر": 5077,
    "همچنین": 5078,
    "داستان": 5079,
    "اقتصاد": 5080,
    "نمایندگان": 5081,
    "مدت": 5082,
    "▁متحدان": 5083,
    "آمریکایی": 5084,
    "۲۹": 5085,
    "▁دوگان": 5086,
    "▁خشن": 5087,
    "▁کیا": 5088,
    "یمی": 5089,
    "▁دشمن": 5090,
    "▁علاقمند": 5091,
    "برد": 5092,
    "حق": 5093,
    "شما": 5094,
    "▁زو": 5095,
    "۲۸": 5096,
    "▁ژنو": 5097,
    "موث": 5098,
    "▁مکزیک": 5099,
    "جیب": 5100,
    "▁بوفالو": 5101,
    "▁فریب": 5102,
    "▁اشکال": 5103,
    "▁تخل": 5104,
    "▁خاشق": 5105,
    "▁مائوریتس": 5106,
    "▁ایوانکوویچ": 5107,
    "▁بخرد": 5108,
    "▁تزئین": 5109,
    "▁تصاحب": 5110,
    "▁دانچیچ": 5111,
    "▁رستگار": 5112,
    "▁سرتاسر": 5113,
    "▁شیکاگو": 5114,
    "▁صداوسیما": 5115,
    "▁ضوابط": 5116,
    "▁فزاینده": 5117,
    "▁لاجورد": 5118,
    "▁مستضعفان": 5119,
    "▁مظنون": 5120,
    "خاذ": 5121,
    "گراندپری": 5122,
    "▁سانتیمتر": 5123,
    "▁کالدرون": 5124,
    "▁دردناک": 5125,
    "▁بشردوستانه": 5126,
    "▁انباشت": 5127,
    "▁متمایز": 5128,
    "▁هوندا": 5129,
    "▁زائر": 5130,
    "▁عواقب": 5131,
    "▁مسوول": 5132,
    "▁طناب": 5133,
    "بالاحصار": 5134,
    "▁حرارت": 5135,
    "▁قائم": 5136,
    "▁گیگز": 5137,
    "▁سرماخورد": 5138,
    "▁فرسایش": 5139,
    "▁کرمانشاه": 5140,
    "▁بنتلی": 5141,
    "▁پیشتاز": 5142,
    "▁شکارچی": 5143,
    "▁پردرآمد": 5144,
    "▁مکتب": 5145,
    "▁موکل": 5146,
    "▁برسند": 5147,
    "▁دشت": 5148,
    "▁گابریل": 5149,
    "▁وودز": 5150,
    "▁علایم": 5151,
    "▁محفظه": 5152,
    "▁اشعار": 5153,
    "▁وفادار": 5154,
    "▁دورانگو": 5155,
    "▁ژیمناست": 5156,
    "▁انستیتو": 5157,
    "▁کپی": 5158,
    "▁عسل": 5159,
    "▁رسن": 5160,
    "▁ولد": 5161,
    "دنی": 5162,
    "جد": 5163,
    "▁شستا": 5164,
    "برنامه": 5165,
    "ابق": 5166,
    "▁ندادن": 5167,
    "▁تیموری": 5168,
    "حرفه": 5169,
    "▁تیتر": 5170,
    "▁زنگ": 5171,
    "▁هیچکس": 5172,
    "▁اقبال": 5173,
    "▁۸۵": 5174,
    "▁دندان": 5175,
    "▁گردون": 5176,
    "▁رامش": 5177,
    "▁مادی": 5178,
    "▁۸۹": 5179,
    "▁عزیزان": 5180,
    "▁سفارشی": 5181,
    "▁میهمان": 5182,
    "▁گویا": 5183,
    "▁موهای": 5184,
    "▁نوزادان": 5185,
    "▁پناهجوی": 5186,
    "▁متروکه": 5187,
    "▁مغول": 5188,
    "▁نویسد": 5189,
    "▁پارکر": 5190,
    "▁سارا": 5191,
    "▁انداختند": 5192,
    "▁پیچ": 5193,
    "▁کتک": 5194,
    "وازه": 5195,
    "▁بورگ": 5196,
    "الکس": 5197,
    "▁اقیانوسیه": 5198,
    "▁رایج": 5199,
    "▁نمایشنامه": 5200,
    "▁اعظم": 5201,
    "▁مثل": 5202,
    "▁فیروز": 5203,
    "▁نگر": 5204,
    "▁رفتارهای": 5205,
    "▁نیو": 5206,
    "▁مانند": 5207,
    "▁آشنای": 5208,
    "▁معوقه": 5209,
    "بورد": 5210,
    "▁حام": 5211,
    "▁اسپورت": 5212,
    "▁ماست": 5213,
    "▁سیم": 5214,
    "یتا": 5215,
    "ارت": 5216,
    "▁بشریت": 5217,
    "▁وکلای": 5218,
    "▁آرش": 5219,
    "▁دلال": 5220,
    "کست": 5221,
    "▁یگان": 5222,
    "ومپ": 5223,
    "بیل": 5224,
    "▁ادوارد": 5225,
    "▁برگردانده": 5226,
    "واشی": 5227,
    "▁یادمان": 5228,
    "▁شار": 5229,
    "ولا": 5230,
    "ارمی": 5231,
    "ریا": 5232,
    "بند": 5233,
    "▁بگیر": 5234,
    "▁پذیرای": 5235,
    "▁وث": 5236,
    "مسی": 5237,
    "ازاد": 5238,
    "▁ایکس": 5239,
    "▁آرزوی": 5240,
    "▁گویی": 5241,
    "▁آندری": 5242,
    "▁رومانی": 5243,
    "▁شه": 5244,
    "▁روزبه": 5245,
    "▁محا": 5246,
    "▁گفتگوهای": 5247,
    "▁زم": 5248,
    "▁درانی": 5249,
    "▁بقای": 5250,
    "▁وگوی": 5251,
    "خط": 5252,
    "▁لوکه": 5253,
    "▁خالص": 5254,
    "▁روحی": 5255,
    "جایی": 5256,
    "ظه": 5257,
    "▁اشت": 5258,
    "تل": 5259,
    "▁بیگ": 5260,
    "▁ریخته": 5261,
    "▁معیارها": 5262,
    "▁قراردادهای": 5263,
    "▁فول": 5264,
    "▁جنای": 5265,
    "نگیز": 5266,
    "▁مگ": 5267,
    "▁باقر": 5268,
    "▁سرش": 5269,
    "▁مسیح": 5270,
    "▁دادم": 5271,
    "سرین": 5272,
    "▁نیت": 5273,
    "تشکر": 5274,
    "▁فق": 5275,
    "وط": 5276,
    "▁شجاع": 5277,
    "▁شرم": 5278,
    "دالله": 5279,
    "▁توفیق": 5280,
    "وح": 5281,
    "گو": 5282,
    "وپ": 5283,
    "بریتی": 5284,
    "▁شکستن": 5285,
    "۹۹": 5286,
    "▁نگفت": 5287,
    "▁جوش": 5288,
    "▁گوی": 5289,
    "▁لال": 5290,
    "یگر": 5291,
    "▁خالقی": 5292,
    "زادگان": 5293,
    "شت": 5294,
    "▁باریک": 5295,
    "▁میل": 5296,
    "▁کان": 5297,
    "▁وظایف": 5298,
    "ستیک": 5299,
    "▁حرا": 5300,
    "▁میکل": 5301,
    "▁بازیار": 5302,
    "▁تصویربردار": 5303,
    "▁دادخواه": 5304,
    "جن": 5305,
    "▁ژ": 5306,
    "▁خطی": 5307,
    "ير": 5308,
    "▁همر": 5309,
    "▁برفی": 5310,
    "▁هروی": 5311,
    "▁بارز": 5312,
    "زه": 5313,
    "▁سرب": 5314,
    "▁سختگیر": 5315,
    "▁هرکس": 5316,
    "▁رف": 5317,
    "▁وجو": 5318,
    "▁کانت": 5319,
    "▁فقی": 5320,
    "وین": 5321,
    "▁ژن": 5322,
    "▁۱۹۶۰": 5323,
    "شتم": 5324,
    "▁مجرم": 5325,
    "▁رامی": 5326,
    "▁ولت": 5327,
    "دوست": 5328,
    "▁گال": 5329,
    "▁بک": 5330,
    "ریچارد": 5331,
    "اسماعیل": 5332,
    "رافائل": 5333,
    "دفتر": 5334,
    "اعضای": 5335,
    "مذاکرات": 5336,
    "مسابقات": 5337,
    "پرسپولیس": 5338,
    "روابط": 5339,
    "موسس": 5340,
    "کارگران": 5341,
    "بومی": 5342,
    "▁فای": 5343,
    "نیروی": 5344,
    "▁۱۶۰": 5345,
    "▁پهن": 5346,
    "▁۱۸۰": 5347,
    "کرونا": 5348,
    "صدایی": 5349,
    "شیپ": 5350,
    "▁سازه": 5351,
    "▁سیاستمدار": 5352,
    "▁آزمو": 5353,
    "هادی": 5354,
    "▁خبرها": 5355,
    "▁افتتاحی": 5356,
    "غیب": 5357,
    "▁دستیار": 5358,
    "▁معاد": 5359,
    "▁میلو": 5360,
    "اتل": 5361,
    "▁سلام": 5362,
    "▁مشوق": 5363,
    "▁خانوار": 5364,
    "▁یخی": 5365,
    "▁پالایش": 5366,
    "▁آشپز": 5367,
    "▁الگوریتم": 5368,
    "▁اوربیتر": 5369,
    "▁تخفیف": 5370,
    "▁رفسنجان": 5371,
    "▁زاناردی": 5372,
    "▁لابراتوار": 5373,
    "▁معاهد": 5374,
    "▁ملاحظ": 5375,
    "▁نوشیدن": 5376,
    "▁پدافند": 5377,
    "▁پیرامون": 5378,
    "▁ژئوپلیتیک": 5379,
    "▁مصداق": 5380,
    "▁کرگدن": 5381,
    "▁تفکیک": 5382,
    "▁الاجل": 5383,
    "▁وگاس": 5384,
    "▁بالیوود": 5385,
    "▁جاپلقی": 5386,
    "▁قسط": 5387,
    "▁کادرفنی": 5388,
    "▁محتوی": 5389,
    "▁فطر": 5390,
    "▁مرضیه": 5391,
    "▁اتصال": 5392,
    "▁آمبول": 5393,
    "▁برنگشت": 5394,
    "▁سلتیک": 5395,
    "▁واریز": 5396,
    "▁آرتتا": 5397,
    "▁عروق": 5398,
    "▁محرک": 5399,
    "▁ارتقا": 5400,
    "ئرنیک": 5401,
    "▁فشرد": 5402,
    "▁کلانتری": 5403,
    "▁طعم": 5404,
    "▁اعتنا": 5405,
    "▁یوگا": 5406,
    "▁خدایاری": 5407,
    "▁منظم": 5408,
    "▁یادگار": 5409,
    "▁علوی": 5410,
    "▁مکمل": 5411,
    "نور": 5412,
    "▁تربیت": 5413,
    "▁کاندیدا": 5414,
    "تناب": 5415,
    "▁تصدی": 5416,
    "▁متکی": 5417,
    "جوبی": 5418,
    "▁نوازندگان": 5419,
    "▁بتهوون": 5420,
    "▁تویوتا": 5421,
    "▁کفتر": 5422,
    "▁جونیور": 5423,
    "▁کوبید": 5424,
    "▁کیلوولت": 5425,
    "▁۱۹۷۰": 5426,
    "▁استقراض": 5427,
    "▁شناگر": 5428,
    "▁شیفت": 5429,
    "▁منکر": 5430,
    "▁کلمات": 5431,
    "جاد": 5432,
    "▁زیدان": 5433,
    "▁مبالغ": 5434,
    "▁دایر": 5435,
    "▁پرستاران": 5436,
    "▁قارچ": 5437,
    "▁تهاجمی": 5438,
    "▁معتمدی": 5439,
    "▁حاد": 5440,
    "▁نهفته": 5441,
    "▁مخصوصا": 5442,
    "▁بولت": 5443,
    "▁گوییم": 5444,
    "▁حتما": 5445,
    "▁۲۰۰۶": 5446,
    "▁لاس": 5447,
    "▁رونالدینیو": 5448,
    "▁خراب": 5449,
    "▁شعارهای": 5450,
    "▁ویدیوهای": 5451,
    "▁درشت": 5452,
    "▁اقتصاددان": 5453,
    "▁گردنبند": 5454,
    "▁انگیزترین": 5455,
    "▁هادی": 5456,
    "▁اين": 5457,
    "ژ": 5458,
    "▁جولیان": 5459,
    "▁صریح": 5460,
    "▁باگ": 5461,
    "▁افسران": 5462,
    "▁پیشگامان": 5463,
    "▁معین": 5464,
    "▁آدام": 5465,
    "تیو": 5466,
    "قات": 5467,
    "▁اشتباهات": 5468,
    "▁پیامک": 5469,
    "ين": 5470,
    "▁تورین": 5471,
    "▁مشت": 5472,
    "▁گویم": 5473,
    "ونتی": 5474,
    "▁ابو": 5475,
    "▁مستندساز": 5476,
    "علت": 5477,
    "▁سالیانه": 5478,
    "▁کرج": 5479,
    "سوس": 5480,
    "▁مسافری": 5481,
    "▁افق": 5482,
    "عارض": 5483,
    "پک": 5484,
    "▁سپید": 5485,
    "پره": 5486,
    "▁نداشتم": 5487,
    "▁ناک": 5488,
    "▁قان": 5489,
    "▁ویدئوی": 5490,
    "▁گذاشتند": 5491,
    "▁محسوس": 5492,
    "▁دیدم": 5493,
    "▁نشدند": 5494,
    "▁گزینش": 5495,
    "▁اختیارات": 5496,
    "▁گرفتیم": 5497,
    "▁۵۴": 5498,
    "زاک": 5499,
    "امین": 5500,
    "▁نگارش": 5501,
    "نسوخ": 5502,
    "▁عکاسان": 5503,
    "▁آموخت": 5504,
    "▁مض": 5505,
    "دلیل": 5506,
    "ینز": 5507,
    "▁امتیازات": 5508,
    "▁دایی": 5509,
    "▁اراد": 5510,
    "▁کینگ": 5511,
    "▁پانزدهم": 5512,
    "▁برهم": 5513,
    "دوغا": 5514,
    "▁کوش": 5515,
    "بورس": 5516,
    "ایل": 5517,
    "▁عل": 5518,
    "▁زانوی": 5519,
    "▁امپراتوری": 5520,
    "فرانسی": 5521,
    "▁اصولگرای": 5522,
    "وفون": 5523,
    "کام": 5524,
    "▁مندان": 5525,
    "▁ولا": 5526,
    "▁دویچ": 5527,
    "▁نخب": 5528,
    "▁بدنش": 5529,
    "▁کارفرمای": 5530,
    "▁بادی": 5531,
    "▁بینید": 5532,
    "▁باختری": 5533,
    "▁جوج": 5534,
    "رچند": 5535,
    "▁هراس": 5536,
    "▁دانشجویی": 5537,
    "▁ارت": 5538,
    "▁گریه": 5539,
    "زنی": 5540,
    "واقع": 5541,
    "▁رنگین": 5542,
    "نوش": 5543,
    "▁سوگ": 5544,
    "▁عمدی": 5545,
    "▁درمی": 5546,
    "ضب": 5547,
    "▁پرید": 5548,
    "لای": 5549,
    "▁عت": 5550,
    "▁عمد": 5551,
    "▁نیکل": 5552,
    "همه": 5553,
    "ریان": 5554,
    "تال": 5555,
    "▁پروازهایش": 5556,
    "لقو": 5557,
    "جک": 5558,
    "▁میلی": 5559,
    "▁دیوی": 5560,
    "▁هلندی": 5561,
    "گارت": 5562,
    "نکور": 5563,
    "▁هرد": 5564,
    "▁کودتا": 5565,
    "▁فرهنگیان": 5566,
    "گران": 5567,
    "▁گودا": 5568,
    "اکثریت": 5569,
    "▁محب": 5570,
    "▁سرما": 5571,
    "▁رکوردها": 5572,
    "▁تیره": 5573,
    "یلی": 5574,
    "▁بهانه": 5575,
    "رسیدن": 5576,
    "▁طاق": 5577,
    "▁ریوی": 5578,
    "تورهای": 5579,
    "بیه": 5580,
    "▁کمیاب": 5581,
    "ودی": 5582,
    "▁بخشهای": 5583,
    "رسی": 5584,
    "وزرای": 5585,
    "زمینی": 5586,
    "▁اینجا": 5587,
    "▁راهنمای": 5588,
    "▁کشمی": 5589,
    "▁موت": 5590,
    "وله": 5591,
    "صول": 5592,
    "▁نظرات": 5593,
    "▁قبر": 5594,
    "نج": 5595,
    "▁منظر": 5596,
    "طبی": 5597,
    "بریتانیا": 5598,
    "فرگوس": 5599,
    "يم": 5600,
    "خودرو": 5601,
    "طرح": 5602,
    "▁ضر": 5603,
    "بفرستید": 5604,
    "تانک": 5605,
    "گوف": 5606,
    "تاتنهام": 5607,
    "گفتگو": 5608,
    "مارادونا": 5609,
    "حضور": 5610,
    "عفون": 5611,
    "انتشار": 5612,
    "واکنش": 5613,
    "ویکتور": 5614,
    "کاهش": 5615,
    "تحقیقات": 5616,
    "دلال": 5617,
    "▁مضر": 5618,
    "تهران": 5619,
    "فلیک": 5620,
    "مع": 5621,
    "▁کیف": 5622,
    "▁خارا": 5623,
    "آیا": 5624,
    "▁سرگرفت": 5625,
    "رهبر": 5626,
    "▁فرانسیس": 5627,
    "رایش": 5628,
    "▁لبنانی": 5629,
    "مرز": 5630,
    "▁داوری": 5631,
    "گراد": 5632,
    "▁۸۳": 5633,
    "▁حفا": 5634,
    "▁بدوی": 5635,
    "لینگ": 5636,
    "▁حقیق": 5637,
    "دین": 5638,
    "▁۱۷۰": 5639,
    "▁یزد": 5640,
    "▁تسهیل": 5641,
    "▁جزئی": 5642,
    "مل": 5643,
    "ضاح": 5644,
    "▁مصر": 5645,
    "▁تضاد": 5646,
    "▁کدخدایی": 5647,
    "▁اسراییل": 5648,
    "▁پولیتزر": 5649,
    "▁تلویح": 5650,
    "▁مناقش": 5651,
    "▁بسازد": 5652,
    "▁فرستد": 5653,
    "▁یوسف": 5654,
    "▁جهرمی": 5655,
    "▁اقتدار": 5656,
    "▁حاتمی": 5657,
    "▁بذر": 5658,
    "▁ابرنواختر": 5659,
    "▁یهودی": 5660,
    "▁زاکانی": 5661,
    "▁متوفی": 5662,
    "▁ترشح": 5663,
    "▁لامرد": 5664,
    "▁خیام": 5665,
    "▁پاکبان": 5666,
    "▁تعاون": 5667,
    "▁بگویند": 5668,
    "گشاد": 5669,
    "▁خاشقچی": 5670,
    "▁مسترز": 5671,
    "▁بدهکار": 5672,
    "▁خوست": 5673,
    "▁تمدن": 5674,
    "▁رخشانه": 5675,
    "▁پابند": 5676,
    "۴۶": 5677,
    "▁آلایند": 5678,
    "ژورنال": 5679,
    "▁مستعار": 5680,
    "▁دوستداران": 5681,
    "▁۱۹۷۳": 5682,
    "خانقا": 5683,
    "▁بنجام": 5684,
    "▁۱۳۹۰": 5685,
    "▁بگذارند": 5686,
    "▁رشید": 5687,
    "▁استفانو": 5688,
    "▁پیکولی": 5689,
    "▁زی": 5690,
    "▁کلارک": 5691,
    "▁اکسید": 5692,
    "▁گردهم": 5693,
    "افشاری": 5694,
    "▁نصیب": 5695,
    "▁بزن": 5696,
    "جهان": 5697,
    "▁هجر": 5698,
    "لانتی": 5699,
    "▁مارچ": 5700,
    "▁نابسامان": 5701,
    "▁عقاب": 5702,
    "رگس": 5703,
    "▁عصبانی": 5704,
    "▁ذات": 5705,
    "▁بهزاد": 5706,
    "▁روانشناس": 5707,
    "▁مبارک": 5708,
    "▁ماتی": 5709,
    "▁اردوگاه": 5710,
    "▁مأموریت": 5711,
    "▁پردازند": 5712,
    "▁شکننده": 5713,
    "▁۱۴۰": 5714,
    "▁شانگ": 5715,
    "▁صبا": 5716,
    "▁فلسطینیان": 5717,
    "▁هستید": 5718,
    "▁فتحی": 5719,
    "▁ترانس": 5720,
    "▁آرایشگاه": 5721,
    "▁سولو": 5722,
    "▁تلفات": 5723,
    "▁تعویض": 5724,
    "▁سلف": 5725,
    "▁کنزو": 5726,
    "▁داش": 5727,
    "▁شکوف": 5728,
    "قدرت": 5729,
    "▁کثیر": 5730,
    "▁درخشید": 5731,
    "▁اندرکاران": 5732,
    "▁خلوت": 5733,
    "▁مطالبات": 5734,
    "▁شایست": 5735,
    "▁کشتند": 5736,
    "گرنه": 5737,
    "مانیا": 5738,
    "▁رابین": 5739,
    "▁دبی": 5740,
    "▁دیابت": 5741,
    "لماس": 5742,
    "▁گردید": 5743,
    "ائم": 5744,
    "▁پادمان": 5745,
    "▁گاو": 5746,
    "▁یاوری": 5747,
    "▁اسحاق": 5748,
    "▁نیمروز": 5749,
    "وارد": 5750,
    "▁فراور": 5751,
    "▁تلک": 5752,
    "▁همخوان": 5753,
    "▁رائو": 5754,
    "یانت": 5755,
    "▁دانشگر": 5756,
    "راق": 5757,
    "▁مسترد": 5758,
    "▁غل": 5759,
    "قبل": 5760,
    "▁نشانگر": 5761,
    "▁آرای": 5762,
    "فروش": 5763,
    "▁ساترا": 5764,
    "ملو": 5765,
    "▁مباد": 5766,
    "▁کشتن": 5767,
    "ارث": 5768,
    "▁پیداست": 5769,
    "▁کیس": 5770,
    "▁جراحت": 5771,
    "لیون": 5772,
    "▁گرینو": 5773,
    "▁بازجوی": 5774,
    "▁لوی": 5775,
    "حل": 5776,
    "▁قطعا": 5777,
    "▁لوف": 5778,
    "جامع": 5779,
    "بخشی": 5780,
    "▁جعفری": 5781,
    "▁نوشتند": 5782,
    "▁اصلاحی": 5783,
    "▁ماندند": 5784,
    "▁فهم": 5785,
    "▁کویت": 5786,
    "▁پسند": 5787,
    "▁صمیمی": 5788,
    "▁نامم": 5789,
    "جیک": 5790,
    "▁بخشید": 5791,
    "ویچ": 5792,
    "▁توس": 5793,
    "▁بانان": 5794,
    "▁فضاپیمای": 5795,
    "▁مینیاتور": 5796,
    "▁گرانتر": 5797,
    "طل": 5798,
    "▁تم": 5799,
    "تاکس": 5800,
    "▁بروم": 5801,
    "▁نیستیم": 5802,
    "▁پینگ": 5803,
    "▁محصولاتش": 5804,
    "سخ": 5805,
    "▁کلیسای": 5806,
    "▁ژی": 5807,
    "▁متحدانش": 5808,
    "▁دادیم": 5809,
    "رتر": 5810,
    "▁پرتو": 5811,
    "▁خوار": 5812,
    "▁نیاورد": 5813,
    "کسل": 5814,
    "▁آوا": 5815,
    "۶۱": 5816,
    "▁مول": 5817,
    "اسکو": 5818,
    "▁موجودی": 5819,
    "▁طل": 5820,
    "▁اخ": 5821,
    "▁کلاه": 5822,
    "▁وارن": 5823,
    "▁بازگو": 5824,
    "▁مدد": 5825,
    "▁چار": 5826,
    "▁نر": 5827,
    "▁وگوهای": 5828,
    "یامک": 5829,
    "دربند": 5830,
    "▁۱۳۳": 5831,
    "کمی": 5832,
    "▁خوابی": 5833,
    "▁پردازی": 5834,
    "▁متیو": 5835,
    "پزشک": 5836,
    "۴۹": 5837,
    "درفتار": 5838,
    "▁راد": 5839,
    "▁کیت": 5840,
    "نچی": 5841,
    "▁رفتم": 5842,
    "خواهد": 5843,
    "▁خریده": 5844,
    "▁دخ": 5845,
    "هرانا": 5846,
    "▁اون": 5847,
    "اطم": 5848,
    "▁هک": 5849,
    "ونی": 5850,
    "گزار": 5851,
    "ودم": 5852,
    "آور": 5853,
    "▁استثنای": 5854,
    "نش": 5855,
    "▁ناآرام": 5856,
    "▁تیل": 5857,
    "۱۷": 5858,
    "▁نیل": 5859,
    "گور": 5860,
    "▁وگوها": 5861,
    "▁سیری": 5862,
    "روح": 5863,
    "▁نمود": 5864,
    "پن": 5865,
    "فره": 5866,
    "▁شهرک": 5867,
    "خور": 5868,
    "ترن": 5869,
    "صیل": 5870,
    "جاست": 5871,
    "▁پسران": 5872,
    "▁لک": 5873,
    "یکا": 5874,
    "▁گرما": 5875,
    "▁درو": 5876,
    "▁نتوا": 5877,
    "رومن": 5878,
    "▁مدرس": 5879,
    "▁کریم": 5880,
    "▁پژ": 5881,
    "سوم": 5882,
    "ترا": 5883,
    "▁ریگ": 5884,
    "▁پناهند": 5885,
    "▁بطر": 5886,
    "▁درصدد": 5887,
    "پوش": 5888,
    "رده": 5889,
    "▁نوا": 5890,
    "▁ساع": 5891,
    "▁رنگی": 5892,
    "▁هرجا": 5893,
    "▁مبا": 5894,
    "▁نگرفت": 5895,
    "▁کریس": 5896,
    "فضل": 5897,
    "▁پراکن": 5898,
    "تابعیت": 5899,
    "فیروز": 5900,
    "یونایتد": 5901,
    "تایسون": 5902,
    "انجمن": 5903,
    "سفارت": 5904,
    "آلمان": 5905,
    "صندوق": 5906,
    "کلوپ": 5907,
    "نقاشی": 5908,
    "اطلاعات": 5909,
    "تصمیم": 5910,
    "موسیقی": 5911,
    "آغاز": 5912,
    "تجرب": 5913,
    "چلسی": 5914,
    "کاوه": 5915,
    "ترکیه": 5916,
    "کمتر": 5917,
    "▁متخلف": 5918,
    "بررسی": 5919,
    "نشست": 5920,
    "چال": 5921,
    "یاق": 5922,
    "پیروز": 5923,
    "▁جولی": 5924,
    "▁دانشجوی": 5925,
    "موج": 5926,
    "پاش": 5927,
    "سایت": 5928,
    "▁سروده": 5929,
    "▁سیرو": 5930,
    "▁حیا": 5931,
    "▁۱۸۵": 5932,
    "میلیون": 5933,
    "جاع": 5934,
    "▁ناصری": 5935,
    "▁احساسی": 5936,
    "▁۱۱۰": 5937,
    "▁اندرکار": 5938,
    "وحید": 5939,
    "زمن": 5940,
    "▁بیدار": 5941,
    "▁اط": 5942,
    "مرد": 5943,
    "▁الس": 5944,
    "▁خلاق": 5945,
    "▁بلایندرز": 5946,
    "▁آلومینیوم": 5947,
    "▁اقوام": 5948,
    "▁غیرمجاز": 5949,
    "▁لومامبا": 5950,
    "▁محتاط": 5951,
    "▁پاختاکور": 5952,
    "▁کوپتر": 5953,
    "تصاعد": 5954,
    "▁مضاعف": 5955,
    "▁فورمن": 5956,
    "▁کمونیست": 5957,
    "▁تجدد": 5958,
    "▁نپال": 5959,
    "▁برسانند": 5960,
    "▁مقتدر": 5961,
    "▁اسپایدر": 5962,
    "▁برشمرد": 5963,
    "▁آهسته": 5964,
    "▁فرنود": 5965,
    "▁مصم": 5966,
    "▁کانتینر": 5967,
    "▁جواهر": 5968,
    "▁لشگر": 5969,
    "▁فحش": 5970,
    "▁پاراگوئه": 5971,
    "▁باثبات": 5972,
    "▁نیچر": 5973,
    "▁ذیبخش": 5974,
    "▁واگیر": 5975,
    "▁النصر": 5976,
    "▁کفایت": 5977,
    "▁قبیل": 5978,
    "▁ندهند": 5979,
    "▁لگن": 5980,
    "▁هلمند": 5981,
    "▁قاتل": 5982,
    "▁آنکارا": 5983,
    "▁جرارد": 5984,
    "▁شیرجه": 5985,
    "▁فورب": 5986,
    "▁بیولوژیک": 5987,
    "▁موعد": 5988,
    "▁مراود": 5989,
    "▁بیافتد": 5990,
    "▁قرائت": 5991,
    "▁تنگنا": 5992,
    "▁گسل": 5993,
    "▁خردسال": 5994,
    "▁نارضای": 5995,
    "▁رولینگ": 5996,
    "▁مخ": 5997,
    "▁ابولا": 5998,
    "▁۱۹۸۰": 5999,
    "▁منفرد": 6000,
    "▁باشم": 6001,
    "▁ايران": 6002,
    "▁بغلان": 6003,
    "▁سردرگم": 6004,
    "ومبل": 6005,
    "▁دلتا": 6006,
    "▁تبریک": 6007,
    "▁وات": 6008,
    "▁گدار": 6009,
    "▁سانتو": 6010,
    "▁انصاری": 6011,
    "▁۱۳۵۰": 6012,
    "▁پوشان": 6013,
    "▁بخواهد": 6014,
    "▁نادری": 6015,
    "نرخ": 6016,
    "▁ابد": 6017,
    "▁فیروزجا": 6018,
    "ادیو": 6019,
    "▁اقامتگاه": 6020,
    "▁وزار": 6021,
    "▁سیدنی": 6022,
    "▁ماهیچه": 6023,
    "گبا": 6024,
    "نولد": 6025,
    "▁ژنرا": 6026,
    "▁فستیوال": 6027,
    "▁برخاست": 6028,
    "▁اخترشناس": 6029,
    "▁۲۰۰۱": 6030,
    "▁زادگاهش": 6031,
    "▁آموز": 6032,
    "▁پاسگاه": 6033,
    "▁جغرافیای": 6034,
    "▁متولی": 6035,
    "▁خلوتگر": 6036,
    "▁پروست": 6037,
    "▁سرشار": 6038,
    "▁سهراب": 6039,
    "▁کانل": 6040,
    "▁۱۸۸": 6041,
    "▁رکوردشکن": 6042,
    "شیبا": 6043,
    "▁لیتر": 6044,
    "▁مورل": 6045,
    "کان": 6046,
    "▁نامجو": 6047,
    "▁خیز": 6048,
    "▁هولم": 6049,
    "▁سولار": 6050,
    "▁ابزارهای": 6051,
    "▁مورف": 6052,
    "▁حکیم": 6053,
    "▁خوشحالم": 6054,
    "دور": 6055,
    "▁سرگردان": 6056,
    "▁ناقل": 6057,
    "▁ازسر": 6058,
    "▁استقامت": 6059,
    "▁نب": 6060,
    "▁آپ": 6061,
    "▁سبد": 6062,
    "▁جفت": 6063,
    "نقل": 6064,
    "▁یونه": 6065,
    "▁عمیقا": 6066,
    "▁رانت": 6067,
    "▁کلدی": 6068,
    "▁کیمن": 6069,
    "▁ساید": 6070,
    "▁لوک": 6071,
    "▁نهایتا": 6072,
    "▁خدای": 6073,
    "▁وحشت": 6074,
    "▁کارتون": 6075,
    "▁اثرگذار": 6076,
    "▁سرور": 6077,
    "▁وض": 6078,
    "چر": 6079,
    "▁متخلفان": 6080,
    "▁تولی": 6081,
    "اید": 6082,
    "▁فرشت": 6083,
    "باد": 6084,
    "▁احتیا": 6085,
    "زیان": 6086,
    "▁اتم": 6087,
    "▁دوندگان": 6088,
    "لفظ": 6089,
    "▁اصطلاحا": 6090,
    "زلی": 6091,
    "لث": 6092,
    "▁ساسانی": 6093,
    "ارل": 6094,
    "▁دیدند": 6095,
    "▁فابی": 6096,
    "▁امیرم": 6097,
    "▁لندرو": 6098,
    "▁فورا": 6099,
    "رل": 6100,
    "▁پوک": 6101,
    "▁فوریت": 6102,
    "▁چرخش": 6103,
    "▁دول": 6104,
    "▁پالا": 6105,
    "شکاف": 6106,
    "▁تراز": 6107,
    "▁پارچ": 6108,
    "ولت": 6109,
    "▁چاق": 6110,
    "▁ارج": 6111,
    "▁ماخ": 6112,
    "▁هیولای": 6113,
    "جیغ": 6114,
    "▁هامون": 6115,
    "▁صدایش": 6116,
    "▁نایاب": 6117,
    "▁اوار": 6118,
    "▁دات": 6119,
    "▁برگزارکنند": 6120,
    "جویان": 6121,
    "▁شکستگی": 6122,
    "▁پرز": 6123,
    "▁پولها": 6124,
    "▁پذیرفت": 6125,
    "▁کشیدند": 6126,
    "▁پویا": 6127,
    "▁حول": 6128,
    "▁منظره": 6129,
    "زیر": 6130,
    "شدن": 6131,
    "▁مینا": 6132,
    "▁بارتو": 6133,
    "▁دال": 6134,
    "▁نیکولا": 6135,
    "▁بنیا": 6136,
    "▁غرو": 6137,
    "ستند": 6138,
    "▁نمادی": 6139,
    "▁لنو": 6140,
    "▁سازان": 6141,
    "▁کج": 6142,
    "▁شکن": 6143,
    "نیوز": 6144,
    "▁آبهای": 6145,
    "ارسل": 6146,
    "▁۶۳": 6147,
    "▁دوش": 6148,
    "▁هانس": 6149,
    "وندی": 6150,
    "سپی": 6151,
    "▁محو": 6152,
    "لم": 6153,
    "فرجام": 6154,
    "▁کاف": 6155,
    "مول": 6156,
    "▁خریدن": 6157,
    "یتز": 6158,
    "▁سریعتر": 6159,
    "رک": 6160,
    "۱۱": 6161,
    "▁نوین": 6162,
    "دم": 6163,
    "▁درآمده": 6164,
    "▁مردن": 6165,
    "تین": 6166,
    "مد": 6167,
    "▁سوت": 6168,
    "لس": 6169,
    "▁بیم": 6170,
    "▁سنگر": 6171,
    "▁بزرگان": 6172,
    "▁گز": 6173,
    "▁اینچ": 6174,
    "▁آرم": 6175,
    "▁کورو": 6176,
    "امید": 6177,
    "▁فهمید": 6178,
    "▁درام": 6179,
    "▁چال": 6180,
    "▁خل": 6181,
    "▁کارل": 6182,
    "پژوه": 6183,
    "▁عزادار": 6184,
    "نیف": 6185,
    "▁شدیم": 6186,
    "خوانی": 6187,
    "▁مق": 6188,
    "اکبر": 6189,
    "▁جنگی": 6190,
    "▁هیل": 6191,
    "▁فرضی": 6192,
    "▁ملته": 6193,
    "▁گنجی": 6194,
    "شکل": 6195,
    "▁قاسمی": 6196,
    "▁بیگان": 6197,
    "خون": 6198,
    "ادین": 6199,
    "اردو": 6200,
    "▁خاور": 6201,
    "▁۱۷۳": 6202,
    "▁دوید": 6203,
    "▁استعمار": 6204,
    "▁سنج": 6205,
    "▁موم": 6206,
    "شریف": 6207,
    "▁قوم": 6208,
    "▁عکسها": 6209,
    "▁فرح": 6210,
    "▁نمازی": 6211,
    "تز": 6212,
    "▁کارفرما": 6213,
    "▁دانشجو": 6214,
    "وظ": 6215,
    "▁بقا": 6216,
    "▁رجب": 6217,
    "▁قربان": 6218,
    "▁اجتماع": 6219,
    "▁نزدیکتر": 6220,
    "ملا": 6221,
    "ستگی": 6222,
    "وویچ": 6223,
    "▁اسک": 6224,
    "میشل": 6225,
    "▁شست": 6226,
    "▁نما": 6227,
    "▁شن": 6228,
    "▁عا": 6229,
    "خن": 6230,
    "▁بارش": 6231,
    "فان": 6232,
    "عمل": 6233,
    "اندا": 6234,
    "▁گا": 6235,
    "دیمیر": 6236,
    "نفر": 6237,
    "کنیم": 6238,
    "▁۵۱": 6239,
    "وتیو": 6240,
    "دایی": 6241,
    "پورت": 6242,
    "▁جوی": 6243,
    "رفتن": 6244,
    "یافته": 6245,
    "▁لیم": 6246,
    "▁جیم": 6247,
    "▁داران": 6248,
    "۴۲": 6249,
    "ارزش": 6250,
    "▁۸۷": 6251,
    "دیس": 6252,
    "▁امی": 6253,
    "▁مطلبی": 6254,
    "ظاهر": 6255,
    "منازع": 6256,
    "بیگ": 6257,
    "ویروس": 6258,
    "کانادا": 6259,
    "عادت": 6260,
    "اسپانیا": 6261,
    "حادثه": 6262,
    "جراح": 6263,
    "هنگام": 6264,
    "مشخص": 6265,
    "عادی": 6266,
    "اتریش": 6267,
    "لستر": 6268,
    "نخست": 6269,
    "دادستان": 6270,
    "▁مشتاق": 6271,
    "▁بفهم": 6272,
    "▁فرز": 6273,
    "بحث": 6274,
    "جام": 6275,
    "نتیج": 6276,
    "▁مغزش": 6277,
    "وکیل": 6278,
    "▁کوبا": 6279,
    "▁درگذشته": 6280,
    "جمعیت": 6281,
    "▁یوآ": 6282,
    "هار": 6283,
    "▁پیشگام": 6284,
    "رین": 6285,
    "هشدار": 6286,
    "▁قل": 6287,
    "افتاده": 6288,
    "تاج": 6289,
    "▁جانش": 6290,
    "▁خب": 6291,
    "ارک": 6292,
    "ژهای": 6293,
    "▁مقاوم": 6294,
    "▁منجم": 6295,
    "▁اصالت": 6296,
    "▁ابداع": 6297,
    "حث": 6298,
    "▁مخاطب": 6299,
    "▁بنده": 6300,
    "▁فلور": 6301,
    "▁رپ": 6302,
    "▁تح": 6303,
    "دغدغه": 6304,
    "▁آکسفام": 6305,
    "▁اردکانیان": 6306,
    "▁بفروشند": 6307,
    "▁تأسیس": 6308,
    "▁تذکر": 6309,
    "▁دموکراسی": 6310,
    "▁سولشر": 6311,
    "▁ماسویدال": 6312,
    "▁مشروب": 6313,
    "▁مصیبت": 6314,
    "▁کانگورو": 6315,
    "▁گریگوریان": 6316,
    "▁تدفین": 6317,
    "▁مستثن": 6318,
    "▁بیاورند": 6319,
    "▁جامائیکا": 6320,
    "▁باکتری": 6321,
    "▁دفاتر": 6322,
    "▁جانباخت": 6323,
    "▁اجساد": 6324,
    "▁راهپیمایی": 6325,
    "▁ناگزیر": 6326,
    "▁هامبورگ": 6327,
    "▁برگردیم": 6328,
    "▁گاگا": 6329,
    "▁صیاد": 6330,
    "▁رفیق": 6331,
    "▁اکرم": 6332,
    "▁کلروک": 6333,
    "▁برگردند": 6334,
    "▁ژنشنگ": 6335,
    "▁عنصر": 6336,
    "▁توقع": 6337,
    "▁پرشور": 6338,
    "▁آسپر": 6339,
    "▁واجد": 6340,
    "▁کبد": 6341,
    "نتسب": 6342,
    "▁طغیان": 6343,
    "▁آپارتمان": 6344,
    "▁تبلت": 6345,
    "▁بنشیند": 6346,
    "▁مساحت": 6347,
    "▁الاجراست": 6348,
    "▁بدانید": 6349,
    "▁داوود": 6350,
    "▁حوض": 6351,
    "مادر": 6352,
    "زیمبا": 6353,
    "کاراکاس": 6354,
    "▁کمبریج": 6355,
    "▁ساوت": 6356,
    "▁محاف": 6357,
    "▁۱۹۷۹": 6358,
    "▁ناشر": 6359,
    "▁فرنگی": 6360,
    "▁نجوا": 6361,
    "▁برایانت": 6362,
    "▁گیتار": 6363,
    "▁پرجمعیت": 6364,
    "▁مختاری": 6365,
    "▁مصل": 6366,
    "▁معلم": 6367,
    "▁مهیا": 6368,
    "▁گرافیک": 6369,
    "▁وادار": 6370,
    "▁ناچیز": 6371,
    "▁بازتاب": 6372,
    "▁محف": 6373,
    "▁کاشف": 6374,
    "▁نیابد": 6375,
    "▁آث": 6376,
    "▁نامشخص": 6377,
    "▁سازوکارهای": 6378,
    "▁شرع": 6379,
    "▁۷۵۲": 6380,
    "ترانه": 6381,
    "▁الاکلنگ": 6382,
    "▁اسنپ": 6383,
    "▁نورالله": 6384,
    "▁افزاید": 6385,
    "یفتن": 6386,
    "▁ربای": 6387,
    "▁عار": 6388,
    "▁خانود": 6389,
    "▁امیدوارکننده": 6390,
    "▁رژه": 6391,
    "▁لبخندها": 6392,
    "▁برویم": 6393,
    "▁سفیددره": 6394,
    "▁مبت": 6395,
    "▁بپذیر": 6396,
    "▁معلولیت": 6397,
    "▁۷۵۰": 6398,
    "▁نورمحمد": 6399,
    "▁گردیم": 6400,
    "▁منقل": 6401,
    "▁عزت": 6402,
    "دانف": 6403,
    "▁انکار": 6404,
    "▁۱۹۹۴": 6405,
    "▁دراین": 6406,
    "▁پابرجاست": 6407,
    "▁تنیده": 6408,
    "زمه": 6409,
    "▁پینک": 6410,
    "▁موسیقیدان": 6411,
    "▁بخواهید": 6412,
    "▁۴۵۰": 6413,
    "▁خوشبین": 6414,
    "▁فرندز": 6415,
    "▁خرمشهر": 6416,
    "▁ماوریک": 6417,
    "▁کیانوش": 6418,
    "▁آویز": 6419,
    "▁فهیم": 6420,
    "▁بخواهی": 6421,
    "رحیم": 6422,
    "▁القا": 6423,
    "ستانگ": 6424,
    "▁لیز": 6425,
    "▁افول": 6426,
    "ندرت": 6427,
    "▁جرج": 6428,
    "▁پارکور": 6429,
    "▁نبو": 6430,
    "▁بازنده": 6431,
    "▁چارل": 6432,
    "▁توئیتر": 6433,
    "▁سادگی": 6434,
    "لباخت": 6435,
    "▁کلیپ": 6436,
    "▁امریکا": 6437,
    "▁بستگ": 6438,
    "▁داگ": 6439,
    "یخته": 6440,
    "جوان": 6441,
    "▁نایا": 6442,
    "▁ملکشا": 6443,
    "▁نکو": 6444,
    "▁زینب": 6445,
    "▁موریس": 6446,
    "يد": 6447,
    "▁علیزاده": 6448,
    "لبرز": 6449,
    "▁فراخواند": 6450,
    "مهربان": 6451,
    "▁منک": 6452,
    "▁تناقض": 6453,
    "▁کامپیوترها": 6454,
    "▁مسبب": 6455,
    "▁کاشت": 6456,
    "▁بازیافت": 6457,
    "▁ساری": 6458,
    "▁ناوگان": 6459,
    "▁دفع": 6460,
    "▁هاپک": 6461,
    "قای": 6462,
    "سنگ": 6463,
    "▁ننگ": 6464,
    "بیست": 6465,
    "▁اندازند": 6466,
    "▁شوق": 6467,
    "شقان": 6468,
    "▁۱۳۹": 6469,
    "▁کامیاب": 6470,
    "▁خالد": 6471,
    "جوزپ": 6472,
    "▁مجت": 6473,
    "▁کارتو": 6474,
    "نجی": 6475,
    "▁عاشقانه": 6476,
    "▁ارگان": 6477,
    "مو": 6478,
    "لیدی": 6479,
    "باع": 6480,
    "▁عاج": 6481,
    "▁تجمعات": 6482,
    "وجیه": 6483,
    "▁درسی": 6484,
    "فرید": 6485,
    "لسون": 6486,
    "▁چادر": 6487,
    "▁بدنشان": 6488,
    "▁خش": 6489,
    "▁نتوان": 6490,
    "نگا": 6491,
    "▁نیوز": 6492,
    "يت": 6493,
    "تناسب": 6494,
    "▁سهامدار": 6495,
    "▁اسل": 6496,
    "جیل": 6497,
    "▁گرمی": 6498,
    "▁کاسی": 6499,
    "▁خلا": 6500,
    "فرد": 6501,
    "▁هوشیاری": 6502,
    "▁استیل": 6503,
    "خزن": 6504,
    "▁آئ": 6505,
    "▁جون": 6506,
    "ادیوم": 6507,
    "▁جور": 6508,
    "▁شیوا": 6509,
    "▁تحریر": 6510,
    "▁لیر": 6511,
    "▁اجراهای": 6512,
    "▁مولان": 6513,
    "▁مکس": 6514,
    "▁ادارات": 6515,
    "حصول": 6516,
    "▁دنیل": 6517,
    "▁ایرلندی": 6518,
    "ایب": 6519,
    "خوان": 6520,
    "▁تحری": 6521,
    "▁کد": 6522,
    "▁ایوان": 6523,
    "▁همگان": 6524,
    "خوف": 6525,
    "۱۹۶۵": 6526,
    "▁موسی": 6527,
    "▁ارژن": 6528,
    "▁ضیا": 6529,
    "▁اسکان": 6530,
    "ایت": 6531,
    "▁تص": 6532,
    "▁پاسخگوی": 6533,
    "▁دس": 6534,
    "▁اروپاست": 6535,
    "▁دیسک": 6536,
    "ملک": 6537,
    "▁مرت": 6538,
    "▁بریتانیاست": 6539,
    "لپ": 6540,
    "▁سازندگی": 6541,
    "▁ناراحتی": 6542,
    "خیر": 6543,
    "▁اشتها": 6544,
    "▁لطفی": 6545,
    "پزشکی": 6546,
    "▁گرجستانی": 6547,
    "▁عظیمی": 6548,
    "▁جراحان": 6549,
    "▁نیافته": 6550,
    "▁معمای": 6551,
    "هرابی": 6552,
    "▁هوادارانش": 6553,
    "▁داروین": 6554,
    "▁کلر": 6555,
    "▁قف": 6556,
    "▁رسو": 6557,
    "▁۱۳۲": 6558,
    "▁تقی": 6559,
    "▁خران": 6560,
    "▁تابستانی": 6561,
    "چل": 6562,
    "▁شنای": 6563,
    "▁یابی": 6564,
    "▁تبر": 6565,
    "فیک": 6566,
    "کافی": 6567,
    "▁نازل": 6568,
    "▁چای": 6569,
    "نمی": 6570,
    "▁اصلان": 6571,
    "▁سکان": 6572,
    "رخ": 6573,
    "▁رسی": 6574,
    "▁منه": 6575,
    "▁دانا": 6576,
    "▁پلک": 6577,
    "رف": 6578,
    "گوئر": 6579,
    "ایا": 6580,
    "صید": 6581,
    "الت": 6582,
    "تازه": 6583,
    "▁هشدارهای": 6584,
    "وود": 6585,
    "شایر": 6586,
    "۸۵": 6587,
    "▁گذاریم": 6588,
    "۲۱": 6589,
    "پو": 6590,
    "▁دادرس": 6591,
    "▁استرا": 6592,
    "شو": 6593,
    "گذار": 6594,
    "▁سپه": 6595,
    "▁کیلی": 6596,
    "▁بگذاری": 6597,
    "راست": 6598,
    "وایی": 6599,
    "▁شدایران": 6600,
    "۲۲": 6601,
    "وگو": 6602,
    "الوح": 6603,
    "نیچ": 6604,
    "▁پذیری": 6605,
    "▁قی": 6606,
    "مز": 6607,
    "ماری": 6608,
    "یکون": 6609,
    "▁معما": 6610,
    "▁استیو": 6611,
    "▁تایی": 6612,
    "▁شاد": 6613,
    "جرد": 6614,
    "آباد": 6615,
    "واره": 6616,
    "▁درها": 6617,
    "▁حاج": 6618,
    "▁بدان": 6619,
    "زود": 6620,
    "لون": 6621,
    "تعداد": 6622,
    "▁حریر": 6623,
    "▁هفده": 6624,
    "▁جنگید": 6625,
    "▁والا": 6626,
    "▁پیگیر": 6627,
    "ولان": 6628,
    "فته": 6629,
    "▁اصولگرا": 6630,
    "▁امپراتور": 6631,
    "▁ساعته": 6632,
    "▁کلیسا": 6633,
    "▁۹۲": 6634,
    "▁میلاد": 6635,
    "▁صوت": 6636,
    "فرانس": 6637,
    "▁لطف": 6638,
    "▁غور": 6639,
    "▁آنا": 6640,
    "اراک": 6641,
    "ستا": 6642,
    "▁مسا": 6643,
    "کین": 6644,
    "راد": 6645,
    "▁۶۹": 6646,
    "حرف": 6647,
    "▁رومانیا": 6648,
    "▁ریاضی": 6649,
    "الی": 6650,
    "خر": 6651,
    "▁دکترا": 6652,
    "▁تق": 6653,
    "امع": 6654,
    "▁دژ": 6655,
    "▁کلک": 6656,
    "▁ریختن": 6657,
    "کور": 6658,
    "دانه": 6659,
    "خیل": 6660,
    "▁برگرداند": 6661,
    "▁دقتی": 6662,
    "▁۸۱": 6663,
    "رفت": 6664,
    "عت": 6665,
    "پانز": 6666,
    "▁سکو": 6667,
    "▁باختر": 6668,
    "▁فضل": 6669,
    "نیک": 6670,
    "تواند": 6671,
    "خه": 6672,
    "سکانس": 6673,
    "رود": 6674,
    "▁۲۶۰": 6675,
    "وارتر": 6676,
    "▁پیچید": 6677,
    "▁بهرامی": 6678,
    "▁آف": 6679,
    "▁تحر": 6680,
    "▁سونا": 6681,
    "▁۲۰۲": 6682,
    "▁۲۵۰۰": 6683,
    "▁بوم": 6684,
    "▁شکنی": 6685,
    "▁بخشد": 6686,
    "برگزار": 6687,
    "▁سفرها": 6688,
    "▁برآوردها": 6689,
    "صره": 6690,
    "کول": 6691,
    "مجتب": 6692,
    "کارآمد": 6693,
    "شروع": 6694,
    "سیلوا": 6695,
    "▁گوها": 6696,
    "رونا": 6697,
    "الگو": 6698,
    "سانس": 6699,
    "پرداخت": 6700,
    "▁افزودن": 6701,
    "کجاست": 6702,
    "ماخ": 6703,
    "ضرر": 6704,
    "منظور": 6705,
    "برآورد": 6706,
    "آذر": 6707,
    "سرطان": 6708,
    "نتایج": 6709,
    "آلود": 6710,
    "رکورد": 6711,
    "عضو": 6712,
    "جایزه": 6713,
    "تصویر": 6714,
    "اعلام": 6715,
    "سیزدهم": 6716,
    "بازداشت": 6717,
    "تحلیلگر": 6718,
    "تنیس": 6719,
    "خوشایند": 6720,
    "بزرگترین": 6721,
    "اسناد": 6722,
    "عکاس": 6723,
    "اعظم": 6724,
    "مطابق": 6725,
    "نمایند": 6726,
    "▁تشی": 6727,
    "کشته": 6728,
    "میدان": 6729,
    "درگذشت": 6730,
    "شکنی": 6731,
    "مزد": 6732,
    "تحریم": 6733,
    "▁بینم": 6734,
    "▁خطا": 6735,
    "شوند": 6736,
    "قصد": 6737,
    "▁بسر": 6738,
    "پاتی": 6739,
    "▁خفا": 6740,
    "بالا": 6741,
    "▁آرت": 6742,
    "▁کوهنورد": 6743,
    "▁۲۹۰": 6744,
    "▁شاگرد": 6745,
    "▁لات": 6746,
    "▁سازندگ": 6747,
    "ردام": 6748,
    "▁خویش": 6749,
    "افزون": 6750,
    "نوم": 6751,
    "▁تقریب": 6752,
    "نقش": 6753,
    "مقامات": 6754,
    "پولو": 6755,
    "▁زادگاه": 6756,
    "▁قزاق": 6757,
    "▁جگوار": 6758,
    "▁احداث": 6759,
    "▁انقطاع": 6760,
    "▁انیمیشن": 6761,
    "▁سزاوار": 6762,
    "▁قورباغه": 6763,
    "▁محتمل": 6764,
    "▁منظوم": 6765,
    "▁ضابط": 6766,
    "▁فیلسوف": 6767,
    "▁بیندازند": 6768,
    "▁سیاهپوست": 6769,
    "▁سیگنال": 6770,
    "▁هنجار": 6771,
    "▁چمپیون": 6772,
    "▁قتالی": 6773,
    "▁انزوا": 6774,
    "▁بلغارستان": 6775,
    "▁بیانداز": 6776,
    "▁غلیظ": 6777,
    "▁لشکر": 6778,
    "▁وسواس": 6779,
    "▁ندارید": 6780,
    "▁بازنگشت": 6781,
    "▁بریجز": 6782,
    "▁مخرب": 6783,
    "▁اختراع": 6784,
    "▁سرسخت": 6785,
    "▁فرناند": 6786,
    "▁رغبت": 6787,
    "▁پرایس": 6788,
    "▁سیستماتیک": 6789,
    "▁پیمود": 6790,
    "▁اولیانوف": 6791,
    "▁فاسد": 6792,
    "▁مادام": 6793,
    "▁بخورد": 6794,
    "▁جاودان": 6795,
    "توازن": 6796,
    "▁دروغگو": 6797,
    "▁صلیب": 6798,
    "▁متصل": 6799,
    "▁سانتیگراد": 6800,
    "▁سمفونی": 6801,
    "▁هریرود": 6802,
    "▁اسرارآمیز": 6803,
    "▁بسیج": 6804,
    "▁طلسم": 6805,
    "▁فرسود": 6806,
    "▁مجلات": 6807,
    "▁یقین": 6808,
    "بینند": 6809,
    "▁پدربزرگ": 6810,
    "▁مذک": 6811,
    "▁مالزی": 6812,
    "▁هیدرو": 6813,
    "▁سازگار": 6814,
    "▁مجادل": 6815,
    "▁نابرابر": 6816,
    "▁اینفانتی": 6817,
    "تفرق": 6818,
    "▁قدردان": 6819,
    "▁آفرید": 6820,
    "▁میدهد": 6821,
    "▁۱۹۶۶": 6822,
    "▁فیصل": 6823,
    "▁بزاق": 6824,
    "▁دعا": 6825,
    "▁خاندان": 6826,
    "▁مراکش": 6827,
    "▁نورستان": 6828,
    "▁بگذارم": 6829,
    "▁کاسپی": 6830,
    "▁۱۹۶۷": 6831,
    "▁داود": 6832,
    "▁پستی": 6833,
    "▁۱۹۶۸": 6834,
    "▁طبع": 6835,
    "▁مردادماه": 6836,
    "▁ببریم": 6837,
    "▁اجزا": 6838,
    "▁۱۹۲۰": 6839,
    "▁۱۹۹۵": 6840,
    "▁جع": 6841,
    "▁زحمت": 6842,
    "▁مانور": 6843,
    "▁نخواست": 6844,
    "▁ترقی": 6845,
    "▁ثور": 6846,
    "▁واژگ": 6847,
    "▁انتصاب": 6848,
    "▁معنادار": 6849,
    "▁قید": 6850,
    "▁دیرتر": 6851,
    "▁رودکی": 6852,
    "▁مطلق": 6853,
    "▁بکند": 6854,
    "کاران": 6855,
    "▁همسایگان": 6856,
    "▁بورات": 6857,
    "▁غرور": 6858,
    "▁لیبی": 6859,
    "▁فلامینگوها": 6860,
    "شیا": 6861,
    "▁زلا": 6862,
    "▁پردازش": 6863,
    "▁برونته": 6864,
    "▁یابند": 6865,
    "▁آنگل": 6866,
    "▁توبین": 6867,
    "▁بیورن": 6868,
    "▁لط": 6869,
    "▁اشخاص": 6870,
    "▁نویسندگ": 6871,
    "▁ژنوم": 6872,
    "▁عطف": 6873,
    "حام": 6874,
    "▁سینماگران": 6875,
    "▁دیاب": 6876,
    "▁فلزات": 6877,
    "ارا": 6878,
    "▁شخصا": 6879,
    "▁بزرگسالان": 6880,
    "شش": 6881,
    "▁کوشید": 6882,
    "▁توبی": 6883,
    "ولین": 6884,
    "▁لیل": 6885,
    "فین": 6886,
    "▁سرخک": 6887,
    "▁دیدیم": 6888,
    "▁کوید": 6889,
    "▁توتال": 6890,
    "▁دریانورد": 6891,
    "ذل": 6892,
    "▁توسان": 6893,
    "▁معلومات": 6894,
    "▁اکثرا": 6895,
    "دلایل": 6896,
    "عطا": 6897,
    "پائولو": 6898,
    "ودور": 6899,
    "▁صرب": 6900,
    "▁لوح": 6901,
    "▁خانمان": 6902,
    "کوس": 6903,
    "▁هریس": 6904,
    "▁دماغ": 6905,
    "نگرانی": 6906,
    "▁ترسد": 6907,
    "▁فاضل": 6908,
    "▁رحمت": 6909,
    "اثر": 6910,
    "▁پاسدار": 6911,
    "▁قبض": 6912,
    "▁یاسر": 6913,
    "رزرو": 6914,
    "▁نامعلوم": 6915,
    "▁قانونگذار": 6916,
    "▁بدهید": 6917,
    "▁سناریوها": 6918,
    "▁مهمانان": 6919,
    "▁رخدادهای": 6920,
    "قبره": 6921,
    "اطبا": 6922,
    "▁سانچ": 6923,
    "▁پوستر": 6924,
    "▁نگذاشته": 6925,
    "▁ژاک": 6926,
    "فرانسه": 6927,
    "▁طاهر": 6928,
    "▁تشوی": 6929,
    "▁لاب": 6930,
    "▁کجاست": 6931,
    "ونز": 6932,
    "کسیون": 6933,
    "▁رقبای": 6934,
    "پار": 6935,
    "▁سوییس": 6936,
    "الیاس": 6937,
    "▁شعرهای": 6938,
    "▁سیلا": 6939,
    "▁امیدهای": 6940,
    "قیاس": 6941,
    "▁کارلو": 6942,
    "▁جادوی": 6943,
    "▁بفرستید": 6944,
    "▁بالاست": 6945,
    "▁پود": 6946,
    "برداری": 6947,
    "▁نانو": 6948,
    "عیار": 6949,
    "▁نخوان": 6950,
    "▁رساندند": 6951,
    "▁رسال": 6952,
    "▁سازهای": 6953,
    "ادی": 6954,
    "▁گیم": 6955,
    "سارت": 6956,
    "▁ترسید": 6957,
    "فرنو": 6958,
    "▁پیامبر": 6959,
    "ائل": 6960,
    "اچو": 6961,
    "▁زین": 6962,
    "▁دزدی": 6963,
    "▁خور": 6964,
    "▁چید": 6965,
    "▁فک": 6966,
    "▁پیشنهادهای": 6967,
    "▁تشکیلات": 6968,
    "▁یوسی": 6969,
    "۸۹": 6970,
    "▁مجرمان": 6971,
    "▁نبودند": 6972,
    "▁بوهای": 6973,
    "▁جود": 6974,
    "اشار": 6975,
    "▁گوف": 6976,
    "▁بروید": 6977,
    "▁سیا": 6978,
    "▁عثمانی": 6979,
    "▁ممیز": 6980,
    "▁سینو": 6981,
    "▁استعفاها": 6982,
    "راماتیک": 6983,
    "▁امری": 6984,
    "▁تولیدکنند": 6985,
    "▁فرزندانش": 6986,
    "▁نفی": 6987,
    "▁مسن": 6988,
    "▁هارد": 6989,
    "▁حکمت": 6990,
    "▁آرن": 6991,
    "▁صحرای": 6992,
    "۲۷": 6993,
    "▁نف": 6994,
    "▁مشخصات": 6995,
    "▁عفون": 6996,
    "شون": 6997,
    "▁هرج": 6998,
    "▁پهنه": 6999,
    "عادل": 7000,
    "▁یانگ": 7001,
    "▁لیک": 7002,
    "▁الن": 7003,
    "آمارها": 7004,
    "▁برنا": 7005,
    "▁انس": 7006,
    "▁ورای": 7007,
    "▁درهم": 7008,
    "▁پاش": 7009,
    "▁زنیم": 7010,
    "ژی": 7011,
    "برده": 7012,
    "▁همسران": 7013,
    "▁آما": 7014,
    "▁رودر": 7015,
    "بریز": 7016,
    "وادا": 7017,
    "▁رجبی": 7018,
    "▁نوآوران": 7019,
    "▁کشاورزان": 7020,
    "▁جیمی": 7021,
    "▁شناختن": 7022,
    "زیرو": 7023,
    "فور": 7024,
    "اگ": 7025,
    "بول": 7026,
    "▁مقد": 7027,
    "▁رانگل": 7028,
    "آنچ": 7029,
    "اپیش": 7030,
    "▁فشارهای": 7031,
    "▁بگو": 7032,
    "▁بریم": 7033,
    "حلال": 7034,
    "تار": 7035,
    "▁ذ": 7036,
    "▁مسیری": 7037,
    "بور": 7038,
    "اقت": 7039,
    "گد": 7040,
    "۹۰": 7041,
    "▁منامه": 7042,
    "▁اتری": 7043,
    "▁کلن": 7044,
    "رنج": 7045,
    "وتی": 7046,
    "نوایی": 7047,
    "▁سهیم": 7048,
    "▁توفیقی": 7049,
    "صدا": 7050,
    "▁موری": 7051,
    "صله": 7052,
    "نتو": 7053,
    "۵۸": 7054,
    "وتو": 7055,
    "بورگ": 7056,
    "▁ارو": 7057,
    "تاد": 7058,
    "▁پرداز": 7059,
    "▁ادین": 7060,
    "خالف": 7061,
    "۸۰": 7062,
    "▁الع": 7063,
    "▁نزده": 7064,
    "▁آلت": 7065,
    "سمعی": 7066,
    "▁دیف": 7067,
    "رای": 7068,
    "▁رن": 7069,
    "بوه": 7070,
    "▁شمارش": 7071,
    "▁بگ": 7072,
    "▁چش": 7073,
    "ایش": 7074,
    "▁فضاپیما": 7075,
    "▁کلیو": 7076,
    "▁توافقات": 7077,
    "اندی": 7078,
    "▁لویی": 7079,
    "یدند": 7080,
    "▁میهن": 7081,
    "▁شناورها": 7082,
    "ماجرا": 7083,
    "قهرمان": 7084,
    "▁آرزو": 7085,
    "رول": 7086,
    "▁۸۴": 7087,
    "وتر": 7088,
    "▁گرجستان": 7089,
    "نسون": 7090,
    "غلو": 7091,
    "لیتو": 7092,
    "▁غد": 7093,
    "جیان": 7094,
    "نتینو": 7095,
    "ریزی": 7096,
    "▁ائ": 7097,
    "▁صدایی": 7098,
    "اکس": 7099,
    "▁صحرا": 7100,
    "▁پاسخگو": 7101,
    "▁مذهب": 7102,
    "مين": 7103,
    "زدی": 7104,
    "▁رویت": 7105,
    "چشم": 7106,
    "▁کون": 7107,
    "▁دیوانه": 7108,
    "سلط": 7109,
    "ارکان": 7110,
    "ایشگاه": 7111,
    "▁شورش": 7112,
    "▁مراد": 7113,
    "أی": 7114,
    "ژیل": 7115,
    "توت": 7116,
    "▁گفتم": 7117,
    "▁منسو": 7118,
    "▁سنجی": 7119,
    "خواند": 7120,
    "فع": 7121,
    "ورانه": 7122,
    "مسترد": 7123,
    "زبان": 7124,
    "۸۱": 7125,
    "سالار": 7126,
    "▁۷۱": 7127,
    "▁مصو": 7128,
    "▁جنب": 7129,
    "کسان": 7130,
    "▁کلور": 7131,
    "▁علا": 7132,
    "▁بازدیدکنند": 7133,
    "اسب": 7134,
    "صرف": 7135,
    "صلاح": 7136,
    "▁تراک": 7137,
    "▁کارهایش": 7138,
    "▁اپراتور": 7139,
    "▁پوشیدن": 7140,
    "دقیق": 7141,
    "نفوذ": 7142,
    "آموز": 7143,
    "خشکسالی": 7144,
    "کاظم": 7145,
    "لیدز": 7146,
    "حداکثر": 7147,
    "ادعا": 7148,
    "جوکوویچ": 7149,
    "جسد": 7150,
    "جنجال": 7151,
    "هماهنگ": 7152,
    "منچستر": 7153,
    "هواداران": 7154,
    "استرالیا": 7155,
    "گمرک": 7156,
    "بارسلونا": 7157,
    "تابستان": 7158,
    "دانشگاه": 7159,
    "جنوب": 7160,
    "شرایط": 7161,
    "شعر": 7162,
    "عزیز": 7163,
    "مرغ": 7164,
    "ماشین": 7165,
    "ایتالیا": 7166,
    "▁ماریان": 7167,
    "رح": 7168,
    "ابتدا": 7169,
    "جواد": 7170,
    "کاخ": 7171,
    "لزم": 7172,
    "سریع": 7173,
    "کشتی": 7174,
    "سنگر": 7175,
    "محمدرضا": 7176,
    "مدیریت": 7177,
    "آبی": 7178,
    "مورد": 7179,
    "جر": 7180,
    "زیو": 7181,
    "۱۴۰۰": 7182,
    "▁۳۲۰": 7183,
    "نمود": 7184,
    "مالک": 7185,
    "روا": 7186,
    "▁دوک": 7187,
    "کریست": 7188,
    "انیس": 7189,
    "مالا": 7190,
    "دوج": 7191,
    "ولوژی": 7192,
    "▁۶۶": 7193,
    "▁توئیت": 7194,
    "سوخت": 7195,
    "دوزی": 7196,
    "همکاری": 7197,
    "▁خسر": 7198,
    "▁پسرم": 7199,
    "کاسی": 7200,
    "دوستان": 7201,
    "اشک": 7202,
    "داشتن": 7203,
    "▁سرزن": 7204,
    "دوران": 7205,
    "شانت": 7206,
    "عظم": 7207,
    "بنیا": 7208,
    "▁انتقا": 7209,
    "▁اقام": 7210,
    "▁رس": 7211,
    "▁تفنگ": 7212,
    "نیتو": 7213,
    "▁مکاتب": 7214,
    "▁سازوکار": 7215,
    "مشاهی": 7216,
    "▁جس": 7217,
    "▁مخابر": 7218,
    "غوری": 7219,
    "▁آز": 7220,
    "▁پشتو": 7221,
    "▁حشر": 7222,
    "▁شمش": 7223,
    "دختر": 7224,
    "راندوم": 7225,
    "لئوپولد": 7226,
    "▁اختاپوس": 7227,
    "▁التحصیل": 7228,
    "▁حناچی": 7229,
    "▁حیثیت": 7230,
    "▁زاکربرگ": 7231,
    "▁سرگذاشت": 7232,
    "▁عناوین": 7233,
    "▁غواص": 7234,
    "▁متضاد": 7235,
    "▁مصائب": 7236,
    "▁مقصود": 7237,
    "▁ناسازگار": 7238,
    "▁هژمون": 7239,
    "▁پلتفرم": 7240,
    "▁ژئوفیزیک": 7241,
    "▁سارقان": 7242,
    "▁موریکونه": 7243,
    "▁ناپایدار": 7244,
    "▁اقتباس": 7245,
    "▁بیرمنگ": 7246,
    "فيلم": 7247,
    "▁موازات": 7248,
    "▁مقادیر": 7249,
    "▁قضاوت": 7250,
    "▁تقلب": 7251,
    "▁انسولین": 7252,
    "▁نزاع": 7253,
    "▁ایرلاین": 7254,
    "▁ماراکانا": 7255,
    "▁چابک": 7256,
    "▁تدارک": 7257,
    "▁ضمیر": 7258,
    "▁زوایا": 7259,
    "▁زیراتمی": 7260,
    "▁لاوروف": 7261,
    "▁فرهیخت": 7262,
    "▁میچام": 7263,
    "▁ناخودآگاه": 7264,
    "▁کومله": 7265,
    "▁پوینت": 7266,
    "▁عناب": 7267,
    "▁نیفتاد": 7268,
    "▁دیزل": 7269,
    "▁گریبان": 7270,
    "▁باچان": 7271,
    "▁رستم": 7272,
    "رگ": 7273,
    "▁تمیز": 7274,
    "▁موازن": 7275,
    "▁ایسلند": 7276,
    "▁مبتکر": 7277,
    "▁کوشنر": 7278,
    "▁اهرم": 7279,
    "▁خاکستر": 7280,
    "▁لاتکس": 7281,
    "▁شلوار": 7282,
    "▁ازبک": 7283,
    "▁بفرستند": 7284,
    "▁تقلا": 7285,
    "▁ارباب": 7286,
    "▁هتلداران": 7287,
    "▁کواچ": 7288,
    "▁هارو": 7289,
    "▁فرستند": 7290,
    "▁وکارها": 7291,
    "▁کریگ": 7292,
    "▁نوشتارها": 7293,
    "▁ایلام": 7294,
    "دائی": 7295,
    "کفای": 7296,
    "▁جاسک": 7297,
    "▁مارسیال": 7298,
    "▁مشروعیت": 7299,
    "▁زشت": 7300,
    "داعش": 7301,
    "▁دوبلور": 7302,
    "▁خشمگین": 7303,
    "یگز": 7304,
    "لگار": 7305,
    "▁کبیری": 7306,
    "▁بپردازند": 7307,
    "▁شروط": 7308,
    "▁شنویم": 7309,
    "▁قبرستان": 7310,
    "▁پیانو": 7311,
    "▁لوگو": 7312,
    "▁صفوف": 7313,
    "▁عضلانی": 7314,
    "▁نافرجام": 7315,
    "▁امداد": 7316,
    "▁سموم": 7317,
    "▁رینت": 7318,
    "▁تومور": 7319,
    "▁سعیدپور": 7320,
    "▁سهمگین": 7321,
    "▁احوال": 7322,
    "▁ونوس": 7323,
    "▁بزنیم": 7324,
    "▁نابینا": 7325,
    "▁عالیشاه": 7326,
    "▁تصرف": 7327,
    "▁دمکرات": 7328,
    "ولوو": 7329,
    "▁نشوند": 7330,
    "▁۱۳۶۰": 7331,
    "▁هیپی": 7332,
    "آلبرت": 7333,
    "▁برگرداندن": 7334,
    "یوئیت": 7335,
    "▁چشید": 7336,
    "▁مولف": 7337,
    "▁بایستند": 7338,
    "▁نابویایی": 7339,
    "▁سینماگر": 7340,
    "▁فرسا": 7341,
    "▁عبدالسلام": 7342,
    "▁آنتوان": 7343,
    "▁رباب": 7344,
    "▁گرگور": 7345,
    "لسک": 7346,
    "▁نایتلی": 7347,
    "▁خطاهای": 7348,
    "▁ورزند": 7349,
    "▁میلیچ": 7350,
    "▁فاطم": 7351,
    "▁زودرس": 7352,
    "▁صفاری": 7353,
    "فرشی": 7354,
    "▁متوازن": 7355,
    "▁مقیاس": 7356,
    "▁ریاضیات": 7357,
    "▁شیاد": 7358,
    "▁کولاک": 7359,
    "▁قهر": 7360,
    "▁زالی": 7361,
    "▁قمار": 7362,
    "وبیل": 7363,
    "▁نزن": 7364,
    "تیپ": 7365,
    "▁خودمختار": 7366,
    "تمایل": 7367,
    "▁علام": 7368,
    "▁تعمیرات": 7369,
    "عدی": 7370,
    "▁تعلیم": 7371,
    "▁بدویا": 7372,
    "▁تحرکات": 7373,
    "▁مهیب": 7374,
    "▁آگوست": 7375,
    "▁رسند": 7376,
    "▁اجداد": 7377,
    "▁فونت": 7378,
    "▁اسکات": 7379,
    "▁اشکالات": 7380,
    "▁بگیرم": 7381,
    "یلد": 7382,
    "▁اغ": 7383,
    "حور": 7384,
    "▁پرستون": 7385,
    "گوین": 7386,
    "▁دادخواست": 7387,
    "▁شاهکارهای": 7388,
    "صنوف": 7389,
    "▁روستاهای": 7390,
    "▁وفا": 7391,
    "▁ناسیونالیس": 7392,
    "▁گوهر": 7393,
    "حاملگی": 7394,
    "بیح": 7395,
    "▁زوم": 7396,
    "▁ربود": 7397,
    "▁کامران": 7398,
    "▁کیار": 7399,
    "▁بلک": 7400,
    "دهم": 7401,
    "▁لندر": 7402,
    "▁نصر": 7403,
    "▁کرونازده": 7404,
    "▁بزرگسال": 7405,
    "▁متقابل": 7406,
    "نویس": 7407,
    "▁رازهای": 7408,
    "▁نیامد": 7409,
    "▁آو": 7410,
    "▁اسمیت": 7411,
    "▁کشورهاست": 7412,
    "▁ایرانایران": 7413,
    "▁گراز": 7414,
    "▁ورق": 7415,
    "▁آشو": 7416,
    "▁گیت": 7417,
    "یونان": 7418,
    "▁سمی": 7419,
    "تاجر": 7420,
    "▁نازک": 7421,
    "▁دیوارهای": 7422,
    "▁عینک": 7423,
    "▁شرت": 7424,
    "▁عز": 7425,
    "▁چتر": 7426,
    "اسکورت": 7427,
    "▁یاسم": 7428,
    "▁مارکو": 7429,
    "▁رویکردهای": 7430,
    "▁حوال": 7431,
    "▁چهارده": 7432,
    "▁درمیان": 7433,
    "▁فروند": 7434,
    "▁اتلان": 7435,
    "فینیتی": 7436,
    "محسن": 7437,
    "▁مناسبات": 7438,
    "▁لیبر": 7439,
    "▁خوابیدن": 7440,
    "▁افع": 7441,
    "سپیر": 7442,
    "لاخ": 7443,
    "۱۰": 7444,
    "علم": 7445,
    "▁براه": 7446,
    "▁غذاهای": 7447,
    "▁فیش": 7448,
    "بع": 7449,
    "▁مشتاقان": 7450,
    "گوگوش": 7451,
    "▁مزد": 7452,
    "وشیرو": 7453,
    "▁وول": 7454,
    "▁کورت": 7455,
    "▁منازع": 7456,
    "▁روبات": 7457,
    "غر": 7458,
    "رسید": 7459,
    "۳۹": 7460,
    "الیف": 7461,
    "▁تزار": 7462,
    "▁یادم": 7463,
    "▁مستندهای": 7464,
    "پچو": 7465,
    "▁علما": 7466,
    "نزو": 7467,
    "▁آرین": 7468,
    "▁سانتا": 7469,
    "▁مزای": 7470,
    "▁استوایی": 7471,
    "▁خسرو": 7472,
    "▁مجا": 7473,
    "نزل": 7474,
    "▁کلینت": 7475,
    "▁اظهارنظرهای": 7476,
    "▁یوآن": 7477,
    "تاب": 7478,
    "▁بدهیم": 7479,
    "▁وتو": 7480,
    "معدنچی": 7481,
    "رن": 7482,
    "▁تیز": 7483,
    "▁سکس": 7484,
    "دخیل": 7485,
    "تراپ": 7486,
    "▁کوچه": 7487,
    "▁گذران": 7488,
    "▁گول": 7489,
    "نگو": 7490,
    "▁کوچ": 7491,
    "راجع": 7492,
    "▁حجت": 7493,
    "خوش": 7494,
    "ریدار": 7495,
    "قهرمانی": 7496,
    "ماجرای": 7497,
    "▁خودکار": 7498,
    "سمن": 7499,
    "▁سردست": 7500,
    "▁وود": 7501,
    "▁جلیل": 7502,
    "رمند": 7503,
    "ینکی": 7504,
    "انح": 7505,
    "یوآ": 7506,
    "زر": 7507,
    "▁باربی": 7508,
    "▁عطار": 7509,
    "اتنگ": 7510,
    "▁کیان": 7511,
    "رعلی": 7512,
    "بعه": 7513,
    "▁صداها": 7514,
    "▁سوپ": 7515,
    "▁اینستاگرامش": 7516,
    "▁شالی": 7517,
    "▁بدنم": 7518,
    "روند": 7519,
    "یانگ": 7520,
    "دوش": 7521,
    "جف": 7522,
    "رم": 7523,
    "▁مرادی": 7524,
    "▁رویاهای": 7525,
    "▁برپا": 7526,
    "▁بنام": 7527,
    "▁دلش": 7528,
    "زاد": 7529,
    "▁راب": 7530,
    "▁پخت": 7531,
    "ادت": 7532,
    "کرده": 7533,
    "▁دانستن": 7534,
    "▁اوکا": 7535,
    "نشان": 7536,
    "فمن": 7537,
    "اور": 7538,
    "۳۷": 7539,
    "▁۱۰۹": 7540,
    "شمال": 7541,
    "▁بخشیده": 7542,
    "داده": 7543,
    "پول": 7544,
    "▁قوت": 7545,
    "▁منفور": 7546,
    "واقعی": 7547,
    "▁خاوری": 7548,
    "▁هوم": 7549,
    "▁زیباتر": 7550,
    "▁آرس": 7551,
    "▁کمربندها": 7552,
    "▁بازو": 7553,
    "▁غوری": 7554,
    "▁نشاند": 7555,
    "یابان": 7556,
    "▁لیو": 7557,
    "▁کلاین": 7558,
    "▁اسلو": 7559,
    "▁افزا": 7560,
    "▁خوشی": 7561,
    "▁نیلی": 7562,
    "▁پرستار": 7563,
    "سته": 7564,
    "برگر": 7565,
    "میلیا": 7566,
    "▁موتورها": 7567,
    "نسک": 7568,
    "۹۷": 7569,
    "▁موس": 7570,
    "روژ": 7571,
    "▁۱۷۴": 7572,
    "ثر": 7573,
    "۴۴": 7574,
    "▁نیستم": 7575,
    "۹۵": 7576,
    "مایه": 7577,
    "▁رایانه": 7578,
    "کستر": 7579,
    "ائب": 7580,
    "سارا": 7581,
    "ترک": 7582,
    "▁بلخی": 7583,
    "▁سفرش": 7584,
    "قو": 7585,
    "آر": 7586,
    "▁هرسال": 7587,
    "يا": 7588,
    "▁دیپلم": 7589,
    "▁قا": 7590,
    "▁شجاعی": 7591,
    "▁حسابدار": 7592,
    "▁واز": 7593,
    "▁۴۲۰": 7594,
    "۳۶۰": 7595,
    "▁مث": 7596,
    "▁احتمالات": 7597,
    "▁سور": 7598,
    "وفق": 7599,
    "▁ورز": 7600,
    "▁شوی": 7601,
    "▁آسا": 7602,
    "اچ": 7603,
    "بس": 7604,
    "▁بوتا": 7605,
    "په": 7606,
    "خو": 7607,
    "▁گفتن": 7608,
    "▁لین": 7609,
    "تک": 7610,
    "زم": 7611,
    "پولی": 7612,
    "▁همب": 7613,
    "تاکنون": 7614,
    "▁الکسا": 7615,
    "▁قای": 7616,
    "کلیف": 7617,
    "▁آلک": 7618,
    "فروشی": 7619,
    "خانی": 7620,
    "▁آش": 7621,
    "▁افسرد": 7622,
    "▁اق": 7623,
    "▁نبردها": 7624,
    "دال": 7625,
    "مهم": 7626,
    "▁آرمی": 7627,
    "لیس": 7628,
    "▁دارداین": 7629,
    "▁چنگ": 7630,
    "▁زنم": 7631,
    "متن": 7632,
    "▁بایر": 7633,
    "▁کردید": 7634,
    "▁کنش": 7635,
    "باف": 7636,
    "نازنی": 7637,
    "▁هوشی": 7638,
    "کادی": 7639,
    "▁انسانها": 7640,
    "ئوس": 7641,
    "پالا": 7642,
    "▁تشک": 7643,
    "وزن": 7644,
    "▁کوری": 7645,
    "▁تولیدش": 7646,
    "▁رون": 7647,
    "▁اپی": 7648,
    "▁نشدنی": 7649,
    "پدیده": 7650,
    "▁خوشنو": 7651,
    "میزان": 7652,
    "▁ذهنش": 7653,
    "▁بایست": 7654,
    "▁نات": 7655,
    "▁حم": 7656,
    "▁مینیاتوری": 7657,
    "▁باخ": 7658,
    "▁زیبای": 7659,
    "تامی": 7660,
    "▁لنگ": 7661,
    "▁صحبتها": 7662,
    "ري": 7663,
    "ثه": 7664,
    "▁بیند": 7665,
    "▁سپرد": 7666,
    "بازد": 7667,
    "▁بلندپرواز": 7668,
    "عاب": 7669,
    "لات": 7670,
    "▁عثمان": 7671,
    "▁هیولا": 7672,
    "فشار": 7673,
    "▁فعل": 7674,
    "▁مطهر": 7675,
    "▁نوک": 7676,
    "گشای": 7677,
    "▁مزایا": 7678,
    "▁دزد": 7679,
    "سلطان": 7680,
    "▁سیلی": 7681,
    "▁جعفر": 7682,
    "کانس": 7683,
    "▁قدیم": 7684,
    "▁نمادها": 7685,
    "نگاره": 7686,
    "▁ادوار": 7687,
    "▁نیاب": 7688,
    "▁استادان": 7689,
    "نفت": 7690,
    "تقبل": 7691,
    "▁کنارش": 7692,
    "فاصل": 7693,
    "▁۷۹": 7694,
    "دیدار": 7695,
    "▁محدودی": 7696,
    "هیج": 7697,
    "کلاس": 7698,
    "▁مساعد": 7699,
    "زره": 7700,
    "شناسی": 7701,
    "واح": 7702,
    "رانه": 7703,
    "▁اشع": 7704,
    "▁اسکا": 7705,
    "▁اورگ": 7706,
    "▁فرستادن": 7707,
    "▁قضائی": 7708,
    "▁معوق": 7709,
    "▁مواج": 7710,
    "▁جد": 7711,
    "▁بروی": 7712,
    "▁رادیوی": 7713,
    "۶۷": 7714,
    "▁ماهر": 7715,
    "▁جمل": 7716,
    "▁محی": 7717,
    "▁صفا": 7718,
    "▁فشارها": 7719,
    "ونته": 7720,
    "فعال": 7721,
    "چار": 7722,
    "رودی": 7723,
    "▁چاو": 7724,
    "سک": 7725,
    "نژاد": 7726,
    "خصوص": 7727,
    "الیز": 7728,
    "عات": 7729,
    "کلی": 7730,
    "سپاس": 7731,
    "حکم": 7732,
    "والی": 7733,
    "ربکا": 7734,
    "انتخاب": 7735,
    "دبیر": 7736,
    "فاضل": 7737,
    "دون": 7738,
    "بزرگ": 7739,
    "اسحاق": 7740,
    "قبض": 7741,
    "صریح": 7742,
    "تعجب": 7743,
    "اضطراب": 7744,
    "علنی": 7745,
    "مناسبت": 7746,
    "ابراهیم": 7747,
    "منتقدان": 7748,
    "قاسم": 7749,
    "مطالع": 7750,
    "پالایشگاه": 7751,
    "رویترز": 7752,
    "قسمت": 7753,
    "سبز": 7754,
    "لحظ": 7755,
    "حذف": 7756,
    "احتمال": 7757,
    "جشنواره": 7758,
    "صنعت": 7759,
    "عملکرد": 7760,
    "موضوع": 7761,
    "شکایت": 7762,
    "محدودیت": 7763,
    "حمایت": 7764,
    "جوایز": 7765,
    "توافق": 7766,
    "آزادی": 7767,
    "کشورهای": 7768,
    "جمهوری": 7769,
    "پاسخ": 7770,
    "سیستم": 7771,
    "۲۰۲۰": 7772,
    "تاریخ": 7773,
    "فرهاد": 7774,
    "فرمانده": 7775,
    "بازدید": 7776,
    "وضعیت": 7777,
    "درحالی": 7778,
    "سبد": 7779,
    "فیفا": 7780,
    "اتهامات": 7781,
    "هموار": 7782,
    "انتقالات": 7783,
    "هجوم": 7784,
    "مسئول": 7785,
    "اوپک": 7786,
    "▁الف": 7787,
    "گزا": 7788,
    "اقدام": 7789,
    "دنیل": 7790,
    "▁۲۱۰": 7791,
    "خطر": 7792,
    "▁شهنا": 7793,
    "ناتالی": 7794,
    "▁فراخوان": 7795,
    "مستند": 7796,
    "عبدالله": 7797,
    "بازارهای": 7798,
    "باط": 7799,
    "پیچ": 7800,
    "شاپی": 7801,
    "میلان": 7802,
    "ادبی": 7803,
    "▁لح": 7804,
    "مسابقه": 7805,
    "▁اصولی": 7806,
    "دریایی": 7807,
    "▁آندریا": 7808,
    "زندگی": 7809,
    "مونت": 7810,
    "درنا": 7811,
    "کردن": 7812,
    "▁کوما": 7813,
    "▁لیپ": 7814,
    "سترازنکا": 7815,
    "ئیت": 7816,
    "رگبار": 7817,
    "▁مکالم": 7818,
    "▁لغ": 7819,
    "نازل": 7820,
    "ساعت": 7821,
    "صال": 7822,
    "▁رونالد": 7823,
    "رگامو": 7824,
    "▁عطا": 7825,
    "▁کنسر": 7826,
    "گوئه": 7827,
    "تروئ": 7828,
    "یونیسف": 7829,
    "▁ابتذال": 7830,
    "▁اتوبوس": 7831,
    "▁اسکورسیزی": 7832,
    "▁انحراف": 7833,
    "▁اوزبیک": 7834,
    "▁برافراشت": 7835,
    "▁بنکدارپور": 7836,
    "▁تشعشع": 7837,
    "▁تکواندو": 7838,
    "▁رادیواکتیو": 7839,
    "▁سولیوان": 7840,
    "▁مجارستان": 7841,
    "▁مفاهیم": 7842,
    "▁میزورام": 7843,
    "▁ناپلئون": 7844,
    "▁نباشند": 7845,
    "▁چسباند": 7846,
    "▁کوکائین": 7847,
    "▁گنبد": 7848,
    "▁باشکوه": 7849,
    "▁بولونیا": 7850,
    "▁بیندازد": 7851,
    "▁تمایز": 7852,
    "▁سخاوتمند": 7853,
    "▁نپذیرفت": 7854,
    "▁نکشید": 7855,
    "▁کارائیب": 7856,
    "▁کاریکاتور": 7857,
    "▁کوواکس": 7858,
    "▁بلانشت": 7859,
    "▁عنابستانی": 7860,
    "▁قعر": 7861,
    "▁هیدروژن": 7862,
    "▁۲۰۳۵": 7863,
    "▁حروف": 7864,
    "▁میکروسکوپ": 7865,
    "▁هورمون": 7866,
    "▁وبلاگ": 7867,
    "الشهدا": 7868,
    "خجالت": 7869,
    "▁مارگاریتا": 7870,
    "▁پرتوافشانی": 7871,
    "▁وسعت": 7872,
    "▁عبدالرحم": 7873,
    "▁ملموس": 7874,
    "▁پغمان": 7875,
    "▁فرمانروای": 7876,
    "▁بپرسید": 7877,
    "▁واعظ": 7878,
    "▁چندرایان": 7879,
    "▁بیضایی": 7880,
    "▁غزنوی": 7881,
    "▁کابوس": 7882,
    "▁ویولن": 7883,
    "▁تراشید": 7884,
    "▁ذوالنور": 7885,
    "▁مشهود": 7886,
    "▁دلسوز": 7887,
    "▁فکاهی": 7888,
    "▁گوترش": 7889,
    "▁چسبی": 7890,
    "▁بیانجامد": 7891,
    "▁تجسس": 7892,
    "▁فلاکت": 7893,
    "▁مجلل": 7894,
    "▁الجز": 7895,
    "▁بشود": 7896,
    "▁بکشم": 7897,
    "▁سرامیک": 7898,
    "▁لرزاند": 7899,
    "▁ماهرویان": 7900,
    "▁تنگاتنگ": 7901,
    "▁گلیزر": 7902,
    "▁حصبه": 7903,
    "▁نکونام": 7904,
    "ماگال": 7905,
    "▁اصغر": 7906,
    "▁صربستان": 7907,
    "▁سرلشکر": 7908,
    "▁آپوف": 7909,
    "▁جادوگر": 7910,
    "▁آستین": 7911,
    "▁فونینی": 7912,
    "▁مادربزرگ": 7913,
    "▁لاستیک": 7914,
    "▁دشتکی": 7915,
    "▁تظاهرکنندگان": 7916,
    "▁سیرجان": 7917,
    "▁منفعت": 7918,
    "▁هیوستون": 7919,
    "▁غمگین": 7920,
    "▁بلندپایه": 7921,
    "▁شنوند": 7922,
    "دخای": 7923,
    "▁پترولی": 7924,
    "▁همفکر": 7925,
    "▁گوریل": 7926,
    "ورلد": 7927,
    "▁بازگرد": 7928,
    "▁لطیفی": 7929,
    "▁تخار": 7930,
    "▁بمیرد": 7931,
    "▁مغایر": 7932,
    "▁ظالمانه": 7933,
    "▁هنگفت": 7934,
    "▁دلنشین": 7935,
    "▁بیایند": 7936,
    "▁بهائی": 7937,
    "سوار": 7938,
    "▁بکاهند": 7939,
    "▁بارچا": 7940,
    "▁چرن": 7941,
    "▁هادرون": 7942,
    "▁لرد": 7943,
    "▁تمجید": 7944,
    "▁مجزا": 7945,
    "▁امپر": 7946,
    "▁آسود": 7947,
    "▁شاکی": 7948,
    "▁چرم": 7949,
    "▁قرآن": 7950,
    "▁عزا": 7951,
    "ریحان": 7952,
    "▁بگوید": 7953,
    "▁توفندها": 7954,
    "▁آوینی": 7955,
    "▁شکوه": 7956,
    "▁کوپر": 7957,
    "▁گاف": 7958,
    "دنبال": 7959,
    "▁۷۶۰": 7960,
    "میخ": 7961,
    "▁لارن": 7962,
    "▁هنکس": 7963,
    "▁هندرسون": 7964,
    "ناگلزم": 7965,
    "▁مکالمات": 7966,
    "▁زید": 7967,
    "▁گیج": 7968,
    "▁ستود": 7969,
    "▁امپرا": 7970,
    "▁شایان": 7971,
    "▁روانچی": 7972,
    "▁شمع": 7973,
    "ذاب": 7974,
    "▁وانگ": 7975,
    "▁حشرات": 7976,
    "▁عوا": 7977,
    "متاز": 7978,
    "▁حض": 7979,
    "▁راجپوت": 7980,
    "▁قیصر": 7981,
    "▁لافرته": 7982,
    "▁هافکین": 7983,
    "▁آتلانت": 7984,
    "▁ناشده": 7985,
    "▁خلبان": 7986,
    "نشأ": 7987,
    "▁مستعد": 7988,
    "انطب": 7989,
    "اطع": 7990,
    "▁تابع": 7991,
    "▁سرپوش": 7992,
    "▁جهنم": 7993,
    "▁بارکلی": 7994,
    "▁حماس": 7995,
    "▁دانید": 7996,
    "▁زیباست": 7997,
    "رانگ": 7998,
    "▁مولد": 7999,
    "▁راسخ": 8000,
    "▁قلمرو": 8001,
    "جماع": 8002,
    "▁آبراه": 8003,
    "▁لنز": 8004,
    "▁کاردوس": 8005,
    "▁لاهه": 8006,
    "عطوف": 8007,
    "▁بدیع": 8008,
    "مختار": 8009,
    "▁نصی": 8010,
    "▁تراژ": 8011,
    "▁کاترین": 8012,
    "▁جویا": 8013,
    "▁سفیدپوستان": 8014,
    "▁اژدها": 8015,
    "▁درخشد": 8016,
    "▁اتومات": 8017,
    "▁همدان": 8018,
    "امد": 8019,
    "▁ویدئوهای": 8020,
    "▁خویشتن": 8021,
    "▁بشنوید": 8022,
    "▁گیلبرت": 8023,
    "▁الزاما": 8024,
    "▁زادروز": 8025,
    "▁فاکس": 8026,
    "▁سلیق": 8027,
    "▁رسیم": 8028,
    "▁پرفسور": 8029,
    "▁اخطارهای": 8030,
    "▁کاپل": 8031,
    "▁تعرض": 8032,
    "▁هنک": 8033,
    "▁گپ": 8034,
    "▁گاردن": 8035,
    "▁شجاعت": 8036,
    "▁پاور": 8037,
    "▁ژرف": 8038,
    "▁ژر": 8039,
    "▁بلوم": 8040,
    "▁خورند": 8041,
    "رساز": 8042,
    "▁مختصر": 8043,
    "اسیرو": 8044,
    "▁یوهان": 8045,
    "یلیچ": 8046,
    "▁شوش": 8047,
    "▁آتن": 8048,
    "فذ": 8049,
    "قطع": 8050,
    "▁درخشند": 8051,
    "▁ویرانگر": 8052,
    "گروهی": 8053,
    "▁ندادند": 8054,
    "▁قامت": 8055,
    "▁توسل": 8056,
    "سترون": 8057,
    "تالیا": 8058,
    "▁برنج": 8059,
    "▁اسید": 8060,
    "▁چغا": 8061,
    "▁سکوها": 8062,
    "▁ترکمان": 8063,
    "▁یزدان": 8064,
    "▁کروات": 8065,
    "▁مرج": 8066,
    "غما": 8067,
    "▁حسگرها": 8068,
    "▁کاتل": 8069,
    "یناتور": 8070,
    "▁کورین": 8071,
    "▁متال": 8072,
    "▁افشاگر": 8073,
    "▁فوب": 8074,
    "▁لوپ": 8075,
    "▁توانمند": 8076,
    "۹۶": 8077,
    "▁متاسفم": 8078,
    "▁پرتلا": 8079,
    "▁بکار": 8080,
    "▁کساد": 8081,
    "▁ساندر": 8082,
    "▁دولتها": 8083,
    "لژی": 8084,
    "ایف": 8085,
    "▁افزارهای": 8086,
    "مشق": 8087,
    "▁گوستا": 8088,
    "▁تردیدهای": 8089,
    "▁مطمئنا": 8090,
    "بندند": 8091,
    "▁نگا": 8092,
    "▁ربکا": 8093,
    "وشن": 8094,
    "▁کریر": 8095,
    "▁مجاور": 8096,
    "▁چرخید": 8097,
    "تضی": 8098,
    "آقازاده": 8099,
    "▁بلاتکلیفی": 8100,
    "▁نوپا": 8101,
    "ادل": 8102,
    "▁راهکارهای": 8103,
    "▁اکل": 8104,
    "▁نگو": 8105,
    "▁لینک": 8106,
    "خشنود": 8107,
    "▁ایستادند": 8108,
    "موت": 8109,
    "▁جانباز": 8110,
    "حریف": 8111,
    "▁خوشایند": 8112,
    "ستراز": 8113,
    "▁آغازکرد": 8114,
    "وما": 8115,
    "▁کارآمد": 8116,
    "▁اقسا": 8117,
    "▁بکت": 8118,
    "۶۸": 8119,
    "▁دوهزار": 8120,
    "عود": 8121,
    "▁گنجان": 8122,
    "▁روبین": 8123,
    "▁گیران": 8124,
    "▁خطاط": 8125,
    "▁جهانبخ": 8126,
    "▁نظ": 8127,
    "▁لوور": 8128,
    "▁پشتکار": 8129,
    "▁کنگو": 8130,
    "▁نع": 8131,
    "▁آورم": 8132,
    "▁گوا": 8133,
    "▁ایگ": 8134,
    "▁دیو": 8135,
    "▁حک": 8136,
    "▁میرود": 8137,
    "▁بوت": 8138,
    "▁جوانا": 8139,
    "یلیون": 8140,
    "▁نجومی": 8141,
    "۳۳": 8142,
    "▁سخ": 8143,
    "▁دوبل": 8144,
    "اتح": 8145,
    "▁تاجیکان": 8146,
    "نالد": 8147,
    "▁بندهای": 8148,
    "▁فعالیتش": 8149,
    "▁مواجهند": 8150,
    "▁چکهای": 8151,
    "▁مجتب": 8152,
    "▁بستگان": 8153,
    "نجره": 8154,
    "▁طر": 8155,
    "تعدد": 8156,
    "▁خصوصیات": 8157,
    "▁نظرش": 8158,
    "▁کریستین": 8159,
    "چهل": 8160,
    "قوی": 8161,
    "▁تعبی": 8162,
    "ملی": 8163,
    "▁پي": 8164,
    "▁قوز": 8165,
    "مگان": 8166,
    "وستون": 8167,
    "دستان": 8168,
    "▁قمر": 8169,
    "▁لئو": 8170,
    "▁لمب": 8171,
    "▁تهدیدات": 8172,
    "▁تجسمی": 8173,
    "▁راوی": 8174,
    "گردانی": 8175,
    "سوری": 8176,
    "▁پیل": 8177,
    "▁افکند": 8178,
    "۱۹۶۴": 8179,
    "▁نایت": 8180,
    "▁پش": 8181,
    "▁همپ": 8182,
    "▁العم": 8183,
    "▁خاو": 8184,
    "صیر": 8185,
    "سیما": 8186,
    "▁آسم": 8187,
    "▁دلم": 8188,
    "▁سیمین": 8189,
    "▁ساچ": 8190,
    "▁شیرینی": 8191,
    "▁بلندپروازی": 8192,
    "▁دلجو": 8193,
    "وستان": 8194,
    "▁بلندهای": 8195,
    "يان": 8196,
    "▁تپند": 8197,
    "تینگ": 8198,
    "▁سالمند": 8199,
    "▁اندرو": 8200,
    "▁دیرین": 8201,
    "▁ازد": 8202,
    "▁کاو": 8203,
    "▁کیش": 8204,
    "▁هایپر": 8205,
    "هرزاد": 8206,
    "بهترین": 8207,
    "▁۱۳۱": 8208,
    "▁تاثیرات": 8209,
    "اهید": 8210,
    "انچین": 8211,
    "▁لوس": 8212,
    "رها": 8213,
    "▁یادش": 8214,
    "▁کوبی": 8215,
    "▁رکس": 8216,
    "▁رقیبان": 8217,
    "▁بازگشتند": 8218,
    "اردی": 8219,
    "فات": 8220,
    "شدیدترین": 8221,
    "▁بنت": 8222,
    "▁هوک": 8223,
    "شیتز": 8224,
    "پولیس": 8225,
    "▁ترکمن": 8226,
    "▁مشخصا": 8227,
    "▁یولیا": 8228,
    "▁نبودن": 8229,
    "▁کلیت": 8230,
    "اعت": 8231,
    "▁بنین": 8232,
    "▁وکا": 8233,
    "▁ثق": 8234,
    "ناتان": 8235,
    "خونی": 8236,
    "▁سکوی": 8237,
    "موتو": 8238,
    "▁غیرمت": 8239,
    "▁بستند": 8240,
    "▁حریری": 8241,
    "▁نشستن": 8242,
    "▁فار": 8243,
    "وکس": 8244,
    "▁لاین": 8245,
    "▁ساختند": 8246,
    "▁استوار": 8247,
    "میرا": 8248,
    "تفکر": 8249,
    "▁برآورده": 8250,
    "▁جورجی": 8251,
    "▁فرحی": 8252,
    "ارگ": 8253,
    "▁هاروی": 8254,
    "سنج": 8255,
    "سید": 8256,
    "وانیم": 8257,
    "▁رادو": 8258,
    "نترل": 8259,
    "ساعد": 8260,
    "▁حالش": 8261,
    "ندر": 8262,
    "▁شو": 8263,
    "ماگو": 8264,
    "▁نزدیکانش": 8265,
    "چنین": 8266,
    "▁دلو": 8267,
    "▁بیکاران": 8268,
    "نتن": 8269,
    "▁سوزاند": 8270,
    "▁عر": 8271,
    "▁امضاکنند": 8272,
    "جران": 8273,
    "▁شکستند": 8274,
    "▁بایستی": 8275,
    "▁گرون": 8276,
    "▁افشاری": 8277,
    "▁لیلا": 8278,
    "گرفتن": 8279,
    "آلات": 8280,
    "زاق": 8281,
    "ائوس": 8282,
    "پایه": 8283,
    "باسی": 8284,
    "▁سبزی": 8285,
    "الف": 8286,
    "پروم": 8287,
    "▁مزا": 8288,
    "▁رید": 8289,
    "باند": 8290,
    "▁ایندی": 8291,
    "ناپس": 8292,
    "▁ندی": 8293,
    "▁کیپ": 8294,
    "▁اورک": 8295,
    "▁شغلها": 8296,
    "▁بدو": 8297,
    "بندی": 8298,
    "▁تدا": 8299,
    "▁رویز": 8300,
    "ندنی": 8301,
    "▁جوری": 8302,
    "▁سالروز": 8303,
    "▁شیب": 8304,
    "▁مارین": 8305,
    "۵۳": 8306,
    "یکپا": 8307,
    "▁دوسال": 8308,
    "▁پرداختن": 8309,
    "اسکا": 8310,
    "▁جودوکا": 8311,
    "روژان": 8312,
    "▁عدل": 8313,
    "اپور": 8314,
    "منان": 8315,
    "وئر": 8316,
    "▁نروژی": 8317,
    "جور": 8318,
    "▁تونسی": 8319,
    "روث": 8320,
    "گردانده": 8321,
    "▁گرو": 8322,
    "▁چیپ": 8323,
    "زنان": 8324,
    "تروف": 8325,
    "▁سیت": 8326,
    "▁روبا": 8327,
    "▁باج": 8328,
    "تمامی": 8329,
    "▁السی": 8330,
    "ربین": 8331,
    "▁اوس": 8332,
    "خاطره": 8333,
    "تعلل": 8334,
    "گسترد": 8335,
    "کیا": 8336,
    "▁۱۲۵": 8337,
    "▁میخ": 8338,
    "▁نش": 8339,
    "▁مخاط": 8340,
    "▁مصا": 8341,
    "▁شاهدان": 8342,
    "▁کورس": 8343,
    "▁کاپ": 8344,
    "▁کارند": 8345,
    "وپول": 8346,
    "▁دریابا": 8347,
    "▁ناگ": 8348,
    "▁الری": 8349,
    "اتیو": 8350,
    "▁اخت": 8351,
    "▁تحرکی": 8352,
    "▁گفتار": 8353,
    "▁نیوت": 8354,
    "▁بلیک": 8355,
    "▁بیک": 8356,
    "▁ادینبور": 8357,
    "▁نیاورده": 8358,
    "تول": 8359,
    "درهای": 8360,
    "استین": 8361,
    "سیل": 8362,
    "▁نیرومند": 8363,
    "▁دلخو": 8364,
    "انسون": 8365,
    "فاق": 8366,
    "رمان": 8367,
    "پرای": 8368,
    "▁فلم": 8369,
    "▁نرسیدن": 8370,
    "ارشی": 8371,
    "ارپنت": 8372,
    "▁چسبن": 8373,
    "▁هجده": 8374,
    "▁کیک": 8375,
    "جاسوسی": 8376,
    "▁دویدن": 8377,
    "ایان": 8378,
    "▁آموختن": 8379,
    "غدی": 8380,
    "▁نائ": 8381,
    "حضرت": 8382,
    "▁عبد": 8383,
    "▁بوین": 8384,
    "بندها": 8385,
    "▁تجسم": 8386,
    "▁دوور": 8387,
    "▁متو": 8388,
    "▁هوشیار": 8389,
    "ارجه": 8390,
    "▁سوکا": 8391,
    "▁بعض": 8392,
    "▁سخنگو": 8393,
    "ختی": 8394,
    "ذا": 8395,
    "گستر": 8396,
    "رژ": 8397,
    "▁سلیمان": 8398,
    "▁ساسان": 8399,
    "▁تروریست": 8400,
    "▁آلم": 8401,
    "▁انع": 8402,
    "▁نوزده": 8403,
    "بورک": 8404,
    "▁دستمزدها": 8405,
    "▁۱۲۶": 8406,
    "▁۱۱۹": 8407,
    "▁امیل": 8408,
    "▁نواخت": 8409,
    "اویر": 8410,
    "▁کوتاهتر": 8411,
    "▁الاه": 8412,
    "کمه": 8413,
    "▁فاین": 8414,
    "لار": 8415,
    "▁نگذاشت": 8416,
    "▁کاش": 8417,
    "دارا": 8418,
    "▁ورا": 8419,
    "▁پیشگیر": 8420,
    "▁پاشید": 8421,
    "رویا": 8422,
    "گمش": 8423,
    "خارج": 8424,
    "لع": 8425,
    "▁سناریو": 8426,
    "اجرای": 8427,
    "روسیا": 8428,
    "ریوس": 8429,
    "▁طاه": 8430,
    "▁الگو": 8431,
    "لیان": 8432,
    "نتس": 8433,
    "خبرنگار": 8434,
    "سپاه": 8435,
    "نهادهای": 8436,
    "صمد": 8437,
    "اعتراض": 8438,
    "تحقیق": 8439,
    "گوش": 8440,
    "صرب": 8441,
    "تناقض": 8442,
    "پادمان": 8443,
    "بالگرد": 8444,
    "اندرو": 8445,
    "لاپورتا": 8446,
    "جمشید": 8447,
    "تحرک": 8448,
    "آرامکو": 8449,
    "تفاهم": 8450,
    "همیلتون": 8451,
    "روبرت": 8452,
    "پیرلو": 8453,
    "برابر": 8454,
    "سناتور": 8455,
    "توماس": 8456,
    "مهندس": 8457,
    "وبسایت": 8458,
    "کنگره": 8459,
    "خاوران": 8460,
    "مسعود": 8461,
    "سرپرست": 8462,
    "اتفاقات": 8463,
    "منتظر": 8464,
    "یوونتوس": 8465,
    "برزیل": 8466,
    "تیراندازی": 8467,
    "حاشیه": 8468,
    "تخریب": 8469,
    "چاق": 8470,
    "رئال": 8471,
    "فضای": 8472,
    "اسرائیل": 8473,
    "خروج": 8474,
    "مشاور": 8475,
    "صادرات": 8476,
    "فولک": 8477,
    "نویسندگان": 8478,
    "صعود": 8479,
    "آزمایش": 8480,
    "تصور": 8481,
    "ترکیب": 8482,
    "قرنطینه": 8483,
    "افراد": 8484,
    "▁فون": 8485,
    "خواننده": 8486,
    "جیمز": 8487,
    "میلیارد": 8488,
    "ایلنا": 8489,
    "مدیرکل": 8490,
    "خدم": 8491,
    "رکود": 8492,
    "نوسان": 8493,
    "چاپ": 8494,
    "کاملا": 8495,
    "پرونده": 8496,
    "درآمد": 8497,
    "پیر": 8498,
    "حقوق": 8499,
    "داریوش": 8500,
    "احسا": 8501,
    "سازنده": 8502,
    "ذخا": 8503,
    "فعالیت": 8504,
    "قرارداد": 8505,
    "ناسا": 8506,
    "راکت": 8507,
    "مکرون": 8508,
    "ضمن": 8509,
    "کیهان": 8510,
    "پشت": 8511,
    "امارات": 8512,
    "کتاب": 8513,
    "سینما": 8514,
    "حکمت": 8515,
    "مرور": 8516,
    "باخ": 8517,
    "▁مبنا": 8518,
    "بدهی": 8519,
    "نژادپرست": 8520,
    "بیماری": 8521,
    "نشری": 8522,
    "مصرف": 8523,
    "طالبان": 8524,
    "سیمون": 8525,
    "پهن": 8526,
    "▁مختص": 8527,
    "قبلا": 8528,
    "▁۳۸۰": 8529,
    "ناوگان": 8530,
    "جلس": 8531,
    "کشف": 8532,
    "سورها": 8533,
    "امشب": 8534,
    "دستور": 8535,
    "واقعیت": 8536,
    "موارد": 8537,
    "▁بهم": 8538,
    "▁هیو": 8539,
    "اسنو": 8540,
    "رییس": 8541,
    "یامده": 8542,
    "حک": 8543,
    "ورود": 8544,
    "تقی": 8545,
    "اسکار": 8546,
    "▁هشدارها": 8547,
    "▁پابرجا": 8548,
    "▁فلامینگو": 8549,
    "وقف": 8550,
    "▁همسایگ": 8551,
    "قول": 8552,
    "مردم": 8553,
    "▁ساق": 8554,
    "سانسور": 8555,
    "قایق": 8556,
    "لوگ": 8557,
    "هفتم": 8558,
    "تعدادی": 8559,
    "هلن": 8560,
    "▁زحم": 8561,
    "يش": 8562,
    "لیگا": 8563,
    "▁آپار": 8564,
    "▁سفیدپوست": 8565,
    "پینو": 8566,
    "▁هموطن": 8567,
    "▁مستع": 8568,
    "جنگ": 8569,
    "▁داستا": 8570,
    "زیستی": 8571,
    "واضع": 8572,
    "▁ترفند": 8573,
    "مردان": 8574,
    "▁تظاهر": 8575,
    "▁مطبوع": 8576,
    "▁جولیا": 8577,
    "شکست": 8578,
    "ئیل": 8579,
    "سیاست": 8580,
    "عاش": 8581,
    "▁گرافی": 8582,
    "زلزل": 8583,
    "▁کوئ": 8584,
    "طابق": 8585,
    "▁وسای": 8586,
    "موکورمایکوزیس": 8587,
    "▁اورشلیم": 8588,
    "▁اوگوپوگو": 8589,
    "▁ترائوره": 8590,
    "▁تمسخر": 8591,
    "▁خاستگاه": 8592,
    "▁سوراخ": 8593,
    "▁غیاث": 8594,
    "▁فانخیو": 8595,
    "▁فیزیولوژی": 8596,
    "▁متعاقب": 8597,
    "▁متقلب": 8598,
    "▁منسجم": 8599,
    "▁ننگرهار": 8600,
    "▁ولاسکز": 8601,
    "▁پرسورینس": 8602,
    "▁پورنوگرافی": 8603,
    "▁گوسفند": 8604,
    "▁الارض": 8605,
    "▁انهدام": 8606,
    "▁اکونومی": 8607,
    "▁بشنوند": 8608,
    "▁سينما": 8609,
    "▁فیزیوتراپ": 8610,
    "▁قزوین": 8611,
    "▁منحنی": 8612,
    "▁گلاسگو": 8613,
    "▁اوقاف": 8614,
    "▁عنایت": 8615,
    "▁قیراط": 8616,
    "▁محتکر": 8617,
    "▁ناظمی": 8618,
    "▁کاسموس": 8619,
    "▁خویشاوند": 8620,
    "معجزه": 8621,
    "▁فورهند": 8622,
    "▁هزارتومان": 8623,
    "▁همجوار": 8624,
    "▁شیطان": 8625,
    "▁شرمسار": 8626,
    "▁برسانیم": 8627,
    "▁نگیرد": 8628,
    "▁صحافی": 8629,
    "▁گدوت": 8630,
    "▁نقیض": 8631,
    "▁بگریز": 8632,
    "▁ضرغام": 8633,
    "▁ببینم": 8634,
    "▁عبادی": 8635,
    "▁کربلا": 8636,
    "▁بازکنند": 8637,
    "▁تشابه": 8638,
    "▁نوترینو": 8639,
    "▁مقاطع": 8640,
    "▁تمهید": 8641,
    "▁بکنند": 8642,
    "▁طومار": 8643,
    "▁نرساند": 8644,
    "▁گمپرت": 8645,
    "▁درآید": 8646,
    "▁فرخزاد": 8647,
    "▁وجدان": 8648,
    "▁بیفتند": 8649,
    "▁نحس": 8650,
    "▁بازدارند": 8651,
    "▁ارنست": 8652,
    "▁بانکوک": 8653,
    "▁برلیناله": 8654,
    "▁حصار": 8655,
    "ستراح": 8656,
    "▁تایوان": 8657,
    "▁پاندمی": 8658,
    "▁پرسنل": 8659,
    "▁فراهانی": 8660,
    "▁سیلیکون": 8661,
    "▁جماعت": 8662,
    "▁همینگوی": 8663,
    "▁میکردند": 8664,
    "▁فواید": 8665,
    "▁تسخیر": 8666,
    "▁نخاع": 8667,
    "▁آژیر": 8668,
    "▁برنگرداند": 8669,
    "▁دلهره": 8670,
    "▁الاجرا": 8671,
    "▁مزیت": 8672,
    "▁کالینز": 8673,
    "▁کاتال": 8674,
    "▁بفرستد": 8675,
    "رقیق": 8676,
    "حشمت": 8677,
    "▁خمیس": 8678,
    "مسلم": 8679,
    "▁الاصل": 8680,
    "▁علیشاهی": 8681,
    "▁ریتم": 8682,
    "▁اسکلت": 8683,
    "▁سمنزا": 8684,
    "ندگرن": 8685,
    "▁غذاخور": 8686,
    "▁ستیزانه": 8687,
    "▁ایرویز": 8688,
    "▁هیلتون": 8689,
    "▁فروزان": 8690,
    "▁آنچنان": 8691,
    "▁فرازمینی": 8692,
    "▁خائ": 8693,
    "▁یدک": 8694,
    "▁زراعت": 8695,
    "▁نشناخت": 8696,
    "▁شئون": 8697,
    "▁ناخشنود": 8698,
    "▁مکوندی": 8699,
    "▁فیض": 8700,
    "▁سرمنشا": 8701,
    "▁افراط": 8702,
    "▁سیندمی": 8703,
    "یچک": 8704,
    "▁بیاییم": 8705,
    "▁دامغان": 8706,
    "▁بخواهند": 8707,
    "▁مذا": 8708,
    "آنگولا": 8709,
    "▁تقلی": 8710,
    "هالیفیلد": 8711,
    "▁نثر": 8712,
    "▁انعکاس": 8713,
    "▁الفبا": 8714,
    "▁ویسکانس": 8715,
    "▁آغا": 8716,
    "▁ربع": 8717,
    "▁صداقت": 8718,
    "▁مترمکعب": 8719,
    "نعیم": 8720,
    "▁خص": 8721,
    "▁کوئینز": 8722,
    "▁مشکاتیان": 8723,
    "▁نویدبخش": 8724,
    "▁کوپا": 8725,
    "▁فاضلاب": 8726,
    "▁بسپارد": 8727,
    "▁کالینگ": 8728,
    "▁همجنسگرا": 8729,
    "▁لرزید": 8730,
    "ساتبی": 8731,
    "▁نیفت": 8732,
    "▁مرندی": 8733,
    "▁۶۱۲": 8734,
    "▁معابد": 8735,
    "▁نرود": 8736,
    "▁ونچ": 8737,
    "▁رحیمی": 8738,
    "▁برازند": 8739,
    "▁بخوانند": 8740,
    "▁واپس": 8741,
    "▁کلکسیون": 8742,
    "▁الگوهای": 8743,
    "▁معصوم": 8744,
    "▁آغ": 8745,
    "▁ملوان": 8746,
    "سرع": 8747,
    "▁چون": 8748,
    "▁شمرد": 8749,
    "▁چریک": 8750,
    "▁غزل": 8751,
    "▁ویلسون": 8752,
    "▁صنا": 8753,
    "▁جملات": 8754,
    "ریکو": 8755,
    "▁شهباز": 8756,
    "▁مرموز": 8757,
    "ارنوک": 8758,
    "▁محک": 8759,
    "▁سوفی": 8760,
    "▁ونگر": 8761,
    "▁سنجاب": 8762,
    "▁مولایی": 8763,
    "▁بادام": 8764,
    "▁۵۵۶": 8765,
    "▁بازنش": 8766,
    "انجیر": 8767,
    "▁تنبل": 8768,
    "▁پرشک": 8769,
    "▁بازوهای": 8770,
    "▁۲۴۰": 8771,
    "▁هنرپیشگ": 8772,
    "▁بامیه": 8773,
    "▁هولو": 8774,
    "▁فرشید": 8775,
    "خضر": 8776,
    "▁قبایل": 8777,
    "▁پالیس": 8778,
    "شاهزاد": 8779,
    "▁بوفالوران": 8780,
    "ارزپاشی": 8781,
    "▁سحرگاه": 8782,
    "▁بیولوژی": 8783,
    "▁۶۳۰": 8784,
    "▁خونبار": 8785,
    "▁آرسن": 8786,
    "▁مفتو": 8787,
    "▁انرو": 8788,
    "▁لج": 8789,
    "▁پوسترهای": 8790,
    "▁ذوال": 8791,
    "▁خرابکارانه": 8792,
    "▁پرمخاط": 8793,
    "غذی": 8794,
    "▁مبد": 8795,
    "▁اوصاف": 8796,
    "▁ایفل": 8797,
    "مرح": 8798,
    "ورال": 8799,
    "ولاتش": 8800,
    "▁جنایات": 8801,
    "شاملو": 8802,
    "▁۲۳۹": 8803,
    "▁پرگا": 8804,
    "▁ویسل": 8805,
    "▁هموطنان": 8806,
    "▁روزافزون": 8807,
    "▁جویانه": 8808,
    "▁زیربنا": 8809,
    "لومین": 8810,
    "▁والتر": 8811,
    "▁نیکو": 8812,
    "▁رافا": 8813,
    "سایر": 8814,
    "فال": 8815,
    "مدیران": 8816,
    "▁بدهم": 8817,
    "▁ابول": 8818,
    "▁شاخک": 8819,
    "کبیر": 8820,
    "▁منکین": 8821,
    "▁وارث": 8822,
    "ریعت": 8823,
    "▁سندگرن": 8824,
    "▁سواد": 8825,
    "▁آمری": 8826,
    "▁فالک": 8827,
    "تاگون": 8828,
    "▁فض": 8829,
    "▁مگو": 8830,
    "▁فوتسی": 8831,
    "▁خوابگاه": 8832,
    "▁مطیعی": 8833,
    "فلورای": 8834,
    "▁۲۴۸": 8835,
    "مداری": 8836,
    "شهرت": 8837,
    "▁دیوارنگار": 8838,
    "▁دردسرهای": 8839,
    "شواری": 8840,
    "▁بیکارشد": 8841,
    "▁بنفش": 8842,
    "▁کارولین": 8843,
    "▁معلمان": 8844,
    "▁مگنو": 8845,
    "▁دالان": 8846,
    "▁۱۵۵": 8847,
    "▁شرو": 8848,
    "▁۱۲۲": 8849,
    "▁ایدز": 8850,
    "▁کتابخوان": 8851,
    "▁کوئین": 8852,
    "▁نامند": 8853,
    "ربط": 8854,
    "پرت": 8855,
    "▁مرمر": 8856,
    "وردی": 8857,
    "پایان": 8858,
    "يران": 8859,
    "▁میانجی": 8860,
    "▁ریتر": 8861,
    "کولی": 8862,
    "▁راهکار": 8863,
    "انسان": 8864,
    "▁محبت": 8865,
    "▁ماجراجوی": 8866,
    "▁دستیاران": 8867,
    "▁آندریاس": 8868,
    "▁درصورت": 8869,
    "▁صمد": 8870,
    "▁معترضین": 8871,
    "▁دیدگ": 8872,
    "نادر": 8873,
    "▁درمانگاه": 8874,
    "▁برسیم": 8875,
    "▁لع": 8876,
    "▁بدق": 8877,
    "▁ازآن": 8878,
    "گاتی": 8879,
    "▁طلاق": 8880,
    "▁فلسطینی": 8881,
    "طغ": 8882,
    "▁چهارصد": 8883,
    "▁دزدید": 8884,
    "دلب": 8885,
    "▁گذراندم": 8886,
    "▁کشیم": 8887,
    "▁کلاسیکو": 8888,
    "▁شنیدنش": 8889,
    "قاد": 8890,
    "▁کشمیر": 8891,
    "▁اوتار": 8892,
    "▁وایت": 8893,
    "▁برچید": 8894,
    "▁دانل": 8895,
    "یابد": 8896,
    "▁غفاری": 8897,
    "اردونا": 8898,
    "▁آبیار": 8899,
    "▁۲۰۷": 8900,
    "▁ماجراهای": 8901,
    "▁مخالفند": 8902,
    "▁شنید": 8903,
    "▁بریز": 8904,
    "▁ترسند": 8905,
    "▁دز": 8906,
    "برمی": 8907,
    "▁والن": 8908,
    "ماجد": 8909,
    "▁محرومند": 8910,
    "▁متب": 8911,
    "▁کارول": 8912,
    "▁آریا": 8913,
    "رضی": 8914,
    "▁پذیرد": 8915,
    "▁بخوان": 8916,
    "ریاست": 8917,
    "▁گود": 8918,
    "▁عس": 8919,
    "▁سیلوا": 8920,
    "▁فتو": 8921,
    "▁آمل": 8922,
    "عاده": 8923,
    "▁پاشیده": 8924,
    "▁آورید": 8925,
    "▁فراوانش": 8926,
    "هرام": 8927,
    "فشان": 8928,
    "▁شال": 8929,
    "▁ابط": 8930,
    "▁برگشتند": 8931,
    "▁سپاس": 8932,
    "طم": 8933,
    "رمو": 8934,
    "وارت": 8935,
    "عد": 8936,
    "▁مورخ": 8937,
    "▁سوزان": 8938,
    "سود": 8939,
    "▁جوانب": 8940,
    "▁آنف": 8941,
    "مانند": 8942,
    "▁فرگوس": 8943,
    "وادور": 8944,
    "▁جهاندار": 8945,
    "▁پژوهشهای": 8946,
    "دیده": 8947,
    "▁ترسم": 8948,
    "▁خوردند": 8949,
    "▁احرا": 8950,
    "چشمه": 8951,
    "▁السلط": 8952,
    "▁نیستید": 8953,
    "▁درسا": 8954,
    "انستان": 8955,
    "▁طبقات": 8956,
    "▁چپگرای": 8957,
    "▁والد": 8958,
    "▁پرور": 8959,
    "▁فرمین": 8960,
    "وستا": 8961,
    "▁روست": 8962,
    "▁زاها": 8963,
    "ارو": 8964,
    "▁ناخ": 8965,
    "پرستانه": 8966,
    "▁بمان": 8967,
    "▁افتادند": 8968,
    "▁فرودست": 8969,
    "▁آسایش": 8970,
    "روزهای": 8971,
    "▁بایس": 8972,
    "مغان": 8973,
    "▁پارو": 8974,
    "▁تاس": 8975,
    "▁جده": 8976,
    "خاش": 8977,
    "▁ویچ": 8978,
    "▁نشدم": 8979,
    "▁فریم": 8980,
    "▁حاکمان": 8981,
    "رام": 8982,
    "▁راهور": 8983,
    "▁درسال": 8984,
    "فسر": 8985,
    "شمن": 8986,
    "▁کانا": 8987,
    "▁ني": 8988,
    "▁اینج": 8989,
    "▁سلیم": 8990,
    "▁کشا": 8991,
    "▁قبرها": 8992,
    "عم": 8993,
    "دوره": 8994,
    "▁فرزان": 8995,
    "وثر": 8996,
    "▁نقاشان": 8997,
    "▁پولدار": 8998,
    "بیت": 8999,
    "وچی": 9000,
    "▁گزی": 9001,
    "▁مونت": 9002,
    "شرف": 9003,
    "▁ارغ": 9004,
    "نداشته": 9005,
    "▁شورشی": 9006,
    "▁استانداردها": 9007,
    "نشینان": 9008,
    "▁شناختند": 9009,
    "▁شیرها": 9010,
    "ورهم": 9011,
    "▁نوارها": 9012,
    "جویی": 9013,
    "واز": 9014,
    "▁قنا": 9015,
    "مینا": 9016,
    "بساط": 9017,
    "هشتم": 9018,
    "▁معای": 9019,
    "▁وجوه": 9020,
    "پات": 9021,
    "▁حقوقدان": 9022,
    "▁غای": 9023,
    "رنوش": 9024,
    "▁لارو": 9025,
    "▁جرو": 9026,
    "ریکا": 9027,
    "اکبری": 9028,
    "▁خطرهای": 9029,
    "▁انگیزش": 9030,
    "▁ث": 9031,
    "▁ترها": 9032,
    "گردها": 9033,
    "▁لوب": 9034,
    "ضراب": 9035,
    "سکار": 9036,
    "▁جووان": 9037,
    "▁نبی": 9038,
    "▁وظایفش": 9039,
    "انزی": 9040,
    "▁آلیس": 9041,
    "▁استعماری": 9042,
    "▁ایرانسل": 9043,
    "▁فروشد": 9044,
    "▁آمو": 9045,
    "شناخت": 9046,
    "▁گرداند": 9047,
    "▁پلات": 9048,
    "▁ریچ": 9049,
    "شستن": 9050,
    "الیات": 9051,
    "آم": 9052,
    "بریج": 9053,
    "▁لایک": 9054,
    "▁برجست": 9055,
    "۴۳": 9056,
    "انیو": 9057,
    "▁استانهای": 9058,
    "▁۱۳۸۶": 9059,
    "▁نها": 9060,
    "▁پترو": 9061,
    "▁بدنساز": 9062,
    "▁۱۸۴": 9063,
    "یکایی": 9064,
    "▁چت": 9065,
    "گارد": 9066,
    "▁رزمند": 9067,
    "▁ورش": 9068,
    "کریک": 9069,
    "▁نفربر": 9070,
    "▁لاپ": 9071,
    "کانا": 9072,
    "سرگ": 9073,
    "چفرین": 9074,
    "ابو": 9075,
    "والد": 9076,
    "▁اینست": 9077,
    "الیس": 9078,
    "اصل": 9079,
    "▁آق": 9080,
    "▁گذرا": 9081,
    "▁خف": 9082,
    "تعادل": 9083,
    "نخ": 9084,
    "▁تغییرهای": 9085,
    "لنگر": 9086,
    "▁فران": 9087,
    "▁ماهیان": 9088,
    "انزلی": 9089,
    "▁پرستاره": 9090,
    "کسوت": 9091,
    "وگند": 9092,
    "وجه": 9093,
    "▁رکن": 9094,
    "▁مارسل": 9095,
    "▁رک": 9096,
    "▁جیو": 9097,
    "۳۲": 9098,
    "▁شراب": 9099,
    "ارگردان": 9100,
    "▁پارسا": 9101,
    "▁سوک": 9102,
    "رنجر": 9103,
    "سالگی": 9104,
    "▁گلشی": 9105,
    "ونما": 9106,
    "فکر": 9107,
    "وانا": 9108,
    "▁صمیم": 9109,
    "▁رزو": 9110,
    "بدیل": 9111,
    "▁سمن": 9112,
    "▁غو": 9113,
    "نورد": 9114,
    "فورا": 9115,
    "▁بسا": 9116,
    "خواهند": 9117,
    "▁نرفتن": 9118,
    "زستان": 9119,
    "وض": 9120,
    "راحتی": 9121,
    "▁رویاها": 9122,
    "ارتوم": 9123,
    "عرض": 9124,
    "رزمی": 9125,
    "دروس": 9126,
    "▁استروئید": 9127,
    "▁دشوارتر": 9128,
    "زکی": 9129,
    "▁قراداد": 9130,
    "▁ارتد": 9131,
    "قانون": 9132,
    "▁مارکان": 9133,
    "▁تویی": 9134,
    "سنا": 9135,
    "قاب": 9136,
    "▁چپگرا": 9137,
    "▁رقبا": 9138,
    "▁۱۵۱": 9139,
    "▁وکلا": 9140,
    "▁پناهجو": 9141,
    "▁شوخ": 9142,
    "▁نجوم": 9143,
    "▁محتوا": 9144,
    "نگران": 9145,
    "▁تیرانداز": 9146,
    "چو": 9147,
    "ضیا": 9148,
    "داگ": 9149,
    "▁اظهارنظرها": 9150,
    "▁نیافتن": 9151,
    "صل": 9152,
    "ساخت": 9153,
    "روها": 9154,
    "▁پاها": 9155,
    "چگون": 9156,
    "▁هاشم": 9157,
    "▁بوها": 9158,
    "محل": 9159,
    "▁جهانگیر": 9160,
    "تعارض": 9161,
    "صراف": 9162,
    "پرش": 9163,
    "حافظه": 9164,
    "▁فقرا": 9165,
    "زبور": 9166,
    "▁هواپیماها": 9167,
    "▁فلسف": 9168,
    "▁متما": 9169,
    "▁نیروها": 9170,
    "▁محاکم": 9171,
    "منصف": 9172,
    "الیزا": 9173,
    "▁گرسن": 9174,
    "طالب": 9175,
    "اوران": 9176,
    "اگرا": 9177,
    "▁فروخت": 9178,
    "▁تجار": 9179,
    "▁چیزها": 9180,
    "▁جادو": 9181,
    "نزدیک": 9182,
    "عامل": 9183,
    "▁هچ": 9184,
    "آمد": 9185,
    "نصر": 9186,
    "▁اسطور": 9187,
    "کریس": 9188,
    "پرداز": 9189,
    "کوئین": 9190,
    "بنفش": 9191,
    "زارها": 9192,
    "تفاوت": 9193,
    "تورم": 9194,
    "معمول": 9195,
    "تغییر": 9196,
    "حجت": 9197,
    "توییت": 9198,
    "مجید": 9199,
    "▁حسگر": 9200,
    "نظار": 9201,
    "کلیسای": 9202,
    "نشدنی": 9203,
    "رونالدینیو": 9204,
    "▁پریا": 9205,
    "وکلای": 9206,
    "اقبال": 9207,
    "پائی": 9208,
    "جزییات": 9209,
    "آشنای": 9210,
    "قاعد": 9211,
    "انتقادات": 9212,
    "منتف": 9213,
    "فتاح": 9214,
    "مالاریا": 9215,
    "فولاد": 9216,
    "ویلیام": 9217,
    "لوئی": 9218,
    "ثروت": 9219,
    "منچستریونایتد": 9220,
    "فایزر": 9221,
    "تکمیل": 9222,
    "اختلال": 9223,
    "بلژیک": 9224,
    "سرنوشت": 9225,
    "منوچ": 9226,
    "نهاده": 9227,
    "متخصص": 9228,
    "خودکشی": 9229,
    "پادشاه": 9230,
    "کاوشگر": 9231,
    "خورشید": 9232,
    "فیسبوک": 9233,
    "حراج": 9234,
    "تاسیسات": 9235,
    "پروتکل": 9236,
    "اولسان": 9237,
    "نیویورک": 9238,
    "تحریر": 9239,
    "واشنگتن": 9240,
    "رونالدو": 9241,
    "عصر": 9242,
    "بنکسی": 9243,
    "شرط": 9244,
    "اظهارات": 9245,
    "ضرور": 9246,
    "بحرین": 9247,
    "برخورد": 9248,
    "خشک": 9249,
    "فرصت": 9250,
    "اختلاف": 9251,
    "سفیر": 9252,
    "سقوط": 9253,
    "صحبت": 9254,
    "اعدام": 9255,
    "تهدید": 9256,
    "ورزشگاه": 9257,
    "مصاحبه": 9258,
    "آثار": 9259,
    "سطح": 9260,
    "ظریف": 9261,
    "کودک": 9262,
    "خیابان": 9263,
    "ساعات": 9264,
    "سولار": 9265,
    "توتال": 9266,
    "جمله": 9267,
    "تولد": 9268,
    "برخلاف": 9269,
    "هدایت": 9270,
    "خودروساز": 9271,
    "سریال": 9272,
    "▁خو": 9273,
    "جدید": 9274,
    "خیز": 9275,
    "پیدا": 9276,
    "پنجاه": 9277,
    "تماس": 9278,
    "حسا": 9279,
    "عملیات": 9280,
    "شایست": 9281,
    "قدم": 9282,
    "بحران": 9283,
    "مثال": 9284,
    "ژوز": 9285,
    "روحانی": 9286,
    "درباره": 9287,
    "پیوند": 9288,
    "فینال": 9289,
    "سقف": 9290,
    "حکیم": 9291,
    "▁هید": 9292,
    "جنسی": 9293,
    "روسیه": 9294,
    "نمای": 9295,
    "تغییرات": 9296,
    "معمولا": 9297,
    "کالا": 9298,
    "گنجی": 9299,
    "اعتراضات": 9300,
    "همیشه": 9301,
    "واحد": 9302,
    "جنگل": 9303,
    "دندان": 9304,
    "▁مسیرها": 9305,
    "رخوری": 9306,
    "چپ": 9307,
    "نادال": 9308,
    "▁سلب": 9309,
    "طول": 9310,
    "ماتیک": 9311,
    "حساب": 9312,
    "▁بلندق": 9313,
    "دیوان": 9314,
    "بازیکنان": 9315,
    "کانال": 9316,
    "چای": 9317,
    "درمانی": 9318,
    "پرواز": 9319,
    "▁پتر": 9320,
    "تابلوی": 9321,
    "رامش": 9322,
    "کریستین": 9323,
    "حرکت": 9324,
    "خودروهای": 9325,
    "پانزده": 9326,
    "ایمن": 9327,
    "اين": 9328,
    "ایرا": 9329,
    "▁۳۳۰": 9330,
    "▁۱۰۲": 9331,
    "باستان": 9332,
    "▁بیوا": 9333,
    "عذر": 9334,
    "▁۴۸۰": 9335,
    "ویژ": 9336,
    "فرام": 9337,
    "▁بحر": 9338,
    "دورا": 9339,
    "سپاهان": 9340,
    "خبرنگاران": 9341,
    "▁بلید": 9342,
    "مفس": 9343,
    "ساکن": 9344,
    "▁آشتی": 9345,
    "کمک": 9346,
    "متیو": 9347,
    "▁کثی": 9348,
    "▁نویسند": 9349,
    "▁نشا": 9350,
    "ویتز": 9351,
    "▁آرنو": 9352,
    "جنر": 9353,
    "▁متروک": 9354,
    "▁حوز": 9355,
    "گات": 9356,
    "▁بخواب": 9357,
    "سیاسی": 9358,
    "▁آذ": 9359,
    "نکا": 9360,
    "دلار": 9361,
    "کنار": 9362,
    "حبو": 9363,
    "▁ناخوش": 9364,
    "پراتور": 9365,
    "▁بنویس": 9366,
    "▁الکترود": 9367,
    "غیبت": 9368,
    "استیل": 9369,
    "بیانی": 9370,
    "▁جوزا": 9371,
    "سماع": 9372,
    "▁ظالم": 9373,
    "نکات": 9374,
    "ستاگرام": 9375,
    "▁المپی": 9376,
    "▁کانتون": 9377,
    "دومین": 9378,
    "اراگوئه": 9379,
    "▁نباشیم": 9380,
    "▁ابوظبی": 9381,
    "▁الکترومغناطیس": 9382,
    "▁اکسیدکربن": 9383,
    "▁ایزوتوپ": 9384,
    "▁برنگردد": 9385,
    "▁برگردانند": 9386,
    "▁بشناسد": 9387,
    "▁بوچانی": 9388,
    "▁بیندازید": 9389,
    "▁تمساح": 9390,
    "▁دگرباش": 9391,
    "▁سریلانکا": 9392,
    "▁سوسیالیست": 9393,
    "▁سولوویوف": 9394,
    "▁شقاقی": 9395,
    "▁عاقبت": 9396,
    "▁مرتضوی": 9397,
    "▁نباشید": 9398,
    "▁هخامنشی": 9399,
    "▁پوآرو": 9400,
    "▁ژئوپلتیک": 9401,
    "▁کداخدایی": 9402,
    "▁متذکر": 9403,
    "▁وبیتکو": 9404,
    "▁بپیوندد": 9405,
    "▁بکشاند": 9406,
    "▁غیرعمد": 9407,
    "▁نگرائو": 9408,
    "▁کذب": 9409,
    "▁مقننه": 9410,
    "▁نذری": 9411,
    "▁چهارچوب": 9412,
    "▁معضل": 9413,
    "▁هولدینگ": 9414,
    "▁العالم": 9415,
    "▁ظلم": 9416,
    "▁نطق": 9417,
    "▁بکنید": 9418,
    "▁بااستعداد": 9419,
    "▁شگرف": 9420,
    "▁معشوق": 9421,
    "▁واکاندا": 9422,
    "▁ببخشد": 9423,
    "▁ابطحی": 9424,
    "▁الشع": 9425,
    "▁پورتلند": 9426,
    "▁ابلهان": 9427,
    "▁مدودف": 9428,
    "▁جوابگوی": 9429,
    "▁تماشگر": 9430,
    "▁وزرش": 9431,
    "▁نکنم": 9432,
    "▁سربگیرند": 9433,
    "▁اساتید": 9434,
    "▁عابران": 9435,
    "▁موثق": 9436,
    "▁ولگردها": 9437,
    "ناملموس": 9438,
    "▁بنگال": 9439,
    "▁بیاموز": 9440,
    "▁سانفرانسیسکو": 9441,
    "▁ندوشن": 9442,
    "▁سانتیاگو": 9443,
    "▁نوازد": 9444,
    "▁مقبول": 9445,
    "▁پولانسکی": 9446,
    "▁معبد": 9447,
    "▁طنزپرداز": 9448,
    "▁جوانبخت": 9449,
    "▁عبرت": 9450,
    "▁هکتار": 9451,
    "حرمسرا": 9452,
    "▁منشور": 9453,
    "▁اپوز": 9454,
    "▁درنوردید": 9455,
    "▁ارمنی": 9456,
    "▁حیفا": 9457,
    "▁ریاکار": 9458,
    "▁بیابند": 9459,
    "▁سروصدا": 9460,
    "▁شکوهمند": 9461,
    "▁مصادیق": 9462,
    "▁خیاط": 9463,
    "گرمی": 9464,
    "▁یکپارچ": 9465,
    "▁گزاف": 9466,
    "▁متهیا": 9467,
    "تژیک": 9468,
    "▁اسنوبرد": 9469,
    "▁ستمگر": 9470,
    "▁۵۳ساله": 9471,
    "▁ایرانشناس": 9472,
    "مویرگی": 9473,
    "کلت": 9474,
    "▁پوسید": 9475,
    "▁عمارت": 9476,
    "▁سرمست": 9477,
    "▁فرمایش": 9478,
    "▁تلاقی": 9479,
    "▁لگو": 9480,
    "▁اتوبان": 9481,
    "▁گاندو": 9482,
    "▁سردادند": 9483,
    "▁فیروزکو": 9484,
    "▁همدلی": 9485,
    "▁بردارم": 9486,
    "▁رادارها": 9487,
    "▁بمانید": 9488,
    "▁کلسترو": 9489,
    "▁گرانبهای": 9490,
    "▁الاغ": 9491,
    "▁عصا": 9492,
    "▁نخرید": 9493,
    "▁نومید": 9494,
    "▁مرزبندی": 9495,
    "▁محصور": 9496,
    "تکاپو": 9497,
    "▁الخروج": 9498,
    "▁ووندر": 9499,
    "▁۱۹۱۲": 9500,
    "▁پاکیزگی": 9501,
    "▁رادیکا": 9502,
    "▁گریخت": 9503,
    "▁شادمان": 9504,
    "▁وولف": 9505,
    "▁بکاهد": 9506,
    "▁غیرمعمول": 9507,
    "▁گرکان": 9508,
    "▁تربت": 9509,
    "▁آلفرد": 9510,
    "وتنبرگ": 9511,
    "اسرای": 9512,
    "زامبی": 9513,
    "بلنک": 9514,
    "▁نیمرخ": 9515,
    "▁جانورشناس": 9516,
    "▁توکلی": 9517,
    "▁قدیس": 9518,
    "▁معاند": 9519,
    "▁سفال": 9520,
    "▁فرازمند": 9521,
    "▁واداشته": 9522,
    "▁بازگردیم": 9523,
    "▁بزنید": 9524,
    "▁پنهانکاری": 9525,
    "▁آجر": 9526,
    "▁افتضاح": 9527,
    "▁سیاستگذار": 9528,
    "▁ورزید": 9529,
    "▁زمام": 9530,
    "▁پاسداشت": 9531,
    "▁ولیحی": 9532,
    "▁۱۳۸۰": 9533,
    "▁کوئیک": 9534,
    "▁پرنفوذ": 9535,
    "پپ": 9536,
    "▁بلندگو": 9537,
    "▁استمفورد": 9538,
    "▁میشود": 9539,
    "▁نپرداخت": 9540,
    "▁بندپی": 9541,
    "▁دلیری": 9542,
    "▁لغز": 9543,
    "▁بصیر": 9544,
    "▁شادگان": 9545,
    "▁دهشت": 9546,
    "▁گریختند": 9547,
    "▁خوشبو": 9548,
    "▁دستگیرزاده": 9549,
    "▁الکترودهای": 9550,
    "▁کاکس": 9551,
    "▁هول": 9552,
    "▁اوتیسم": 9553,
    "▁آنالیز": 9554,
    "▁ادیان": 9555,
    "رعب": 9556,
    "حاب": 9557,
    "▁آزاردید": 9558,
    "▁ترفندهای": 9559,
    "▁بایستد": 9560,
    "▁پردیس": 9561,
    "شهرهای": 9562,
    "▁یونیو": 9563,
    "▁۱۹۳۹": 9564,
    "▁فدریک": 9565,
    "▁گچ": 9566,
    "▁نگذشت": 9567,
    "▁جنون": 9568,
    "▁افراز": 9569,
    "▁ترمز": 9570,
    "▁نوگرا": 9571,
    "▁خودخواهانه": 9572,
    "نگار": 9573,
    "▁مکاتبات": 9574,
    "▁فغان": 9575,
    "▁شنیدم": 9576,
    "امدا": 9577,
    "▁ملایم": 9578,
    "▁آموس": 9579,
    "غام": 9580,
    "▁مگاصیص": 9581,
    "▁گاسکوئین": 9582,
    "▁نامطلوب": 9583,
    "▁لوکالکان": 9584,
    "▁هالووین": 9585,
    "▁میکند": 9586,
    "▁تعصب": 9587,
    "▁دوقلوها": 9588,
    "▁کاونت": 9589,
    "▁نوشتاری": 9590,
    "اتاق": 9591,
    "▁فتوا": 9592,
    "رگوت": 9593,
    "▁هملت": 9594,
    "▁بروکلی": 9595,
    "▁تسایت": 9596,
    "▁مشروع": 9597,
    "▁میناری": 9598,
    "▁ژائو": 9599,
    "▁مکزیکو": 9600,
    "▁اغما": 9601,
    "▁مامن": 9602,
    "▁یونس": 9603,
    "▁پراوی": 9604,
    "▁فاصل": 9605,
    "روژن": 9606,
    "▁باگز": 9607,
    "▁بخو": 9608,
    "بنز": 9609,
    "▁متفکر": 9610,
    "▁پرالتهاب": 9611,
    "▁نبات": 9612,
    "▁لاور": 9613,
    "▁وصدا": 9614,
    "▁بلوغ": 9615,
    "▁قراردادها": 9616,
    "▁باغبان": 9617,
    "▁دایان": 9618,
    "گیرند": 9619,
    "گمانه": 9620,
    "▁تازیان": 9621,
    "▁کولون": 9622,
    "▁کوکو": 9623,
    "کشن": 9624,
    "کوف": 9625,
    "دوگا": 9626,
    "▁۲۶۶": 9627,
    "▁رجیس": 9628,
    "▁آپارت": 9629,
    "▁مشوقهای": 9630,
    "اتهام": 9631,
    "▁خفت": 9632,
    "▁فراگرفت": 9633,
    "▁وسائ": 9634,
    "▁گابریلا": 9635,
    "▁امدادگر": 9636,
    "عابد": 9637,
    "گردانیم": 9638,
    "لطیف": 9639,
    "▁نمودار": 9640,
    "▁کراش": 9641,
    "▁جداسازی": 9642,
    "یکصد": 9643,
    "زیچ": 9644,
    "لوژی": 9645,
    "شرکتهای": 9646,
    "▁اکستر": 9647,
    "▁برسید": 9648,
    "▁ایمیل": 9649,
    "قامت": 9650,
    "▁فلین": 9651,
    "زمایش": 9652,
    "▁لودو": 9653,
    "▁اکولوژی": 9654,
    "▁هرچیز": 9655,
    "▁باربارا": 9656,
    "▁کاوش": 9657,
    "▁چول": 9658,
    "▁رباتیک": 9659,
    "زخ": 9660,
    "▁بولد": 9661,
    "▁ابزارک": 9662,
    "▁جزیرو": 9663,
    "وارس": 9664,
    "▁تحص": 9665,
    "▁پرماجرا": 9666,
    "▁خندد": 9667,
    "▁پسندید": 9668,
    "▁صر": 9669,
    "▁بغ": 9670,
    "▁آنجل": 9671,
    "▁ملامت": 9672,
    "دافع": 9673,
    "▁ستد": 9674,
    "▁طالب": 9675,
    "▁بیدگ": 9676,
    "ستاران": 9677,
    "▁کارکرد": 9678,
    "▁زرتشتی": 9679,
    "▁میزند": 9680,
    "▁لومب": 9681,
    "▁۱۷۵": 9682,
    "▁جالبند": 9683,
    "▁پرکار": 9684,
    "▁احم": 9685,
    "خواباند": 9686,
    "▁گیگاب": 9687,
    "▁نفیس": 9688,
    "▁درایو": 9689,
    "▁ناراحتند": 9690,
    "امور": 9691,
    "خاطرات": 9692,
    "▁درانتخابات": 9693,
    "▁نظار": 9694,
    "نیاز": 9695,
    "اکمل": 9696,
    "صفر": 9697,
    "▁نقدهای": 9698,
    "▁بوکا": 9699,
    "لوح": 9700,
    "هاوس": 9701,
    "▁نداشتیم": 9702,
    "▁سرکو": 9703,
    "▁ندادم": 9704,
    "▁پائیز": 9705,
    "۶۲۰": 9706,
    "▁نورال": 9707,
    "▁الط": 9708,
    "▁کوک": 9709,
    "توالی": 9710,
    "▁کوهنوردان": 9711,
    "▁شهیر": 9712,
    "حیط": 9713,
    "▁پیوندند": 9714,
    "▁شایعند": 9715,
    "▁قلو": 9716,
    "رتون": 9717,
    "▁نماید": 9718,
    "فائ": 9719,
    "▁بگویی": 9720,
    "▁حدف": 9721,
    "▁فرآور": 9722,
    "ساخته": 9723,
    "فوت": 9724,
    "▁مکید": 9725,
    "بدن": 9726,
    "ینگز": 9727,
    "▁۲۰۵": 9728,
    "▁درگذشتمحمد": 9729,
    "▁فرمانیه": 9730,
    "کلاغ": 9731,
    "وبل": 9732,
    "▁بقدر": 9733,
    "وپان": 9734,
    "▁اکو": 9735,
    "نوپ": 9736,
    "▁حوت": 9737,
    "تورباز": 9738,
    "▁شراف": 9739,
    "▁همتایان": 9740,
    "▁دفاعیات": 9741,
    "▁میانسال": 9742,
    "▁مرزبان": 9743,
    "▁دق": 9744,
    "▁هوادارن": 9745,
    "▁آوردیم": 9746,
    "▁سپین": 9747,
    "▁عاشقان": 9748,
    "▁مرک": 9749,
    "▁شارل": 9750,
    "▁جوانتر": 9751,
    "▁کلوز": 9752,
    "▁ایوب": 9753,
    "▁محص": 9754,
    "▁مالدار": 9755,
    "▁تاخت": 9756,
    "▁پنس": 9757,
    "▁اض": 9758,
    "جهش": 9759,
    "▁اجراست": 9760,
    "▁آدا": 9761,
    "▁تعار": 9762,
    "▁بدود": 9763,
    "ترونیک": 9764,
    "▁مشق": 9765,
    "▁برچی": 9766,
    "سوال": 9767,
    "میسی": 9768,
    "▁صل": 9769,
    "مقا": 9770,
    "پسون": 9771,
    "قوایی": 9772,
    "▁شگرد": 9773,
    "▁گیرا": 9774,
    "▁بالدار": 9775,
    "▁فوتو": 9776,
    "▁نشرات": 9777,
    "▁مدس": 9778,
    "تلر": 9779,
    "▁چاند": 9780,
    "کیت": 9781,
    "▁هیج": 9782,
    "▁پودر": 9783,
    "▁درازا": 9784,
    "تجمع": 9785,
    "▁همهمه": 9786,
    "▁هلن": 9787,
    "▁اولیان": 9788,
    "کوش": 9789,
    "غای": 9790,
    "بوک": 9791,
    "ولز": 9792,
    "▁بردیم": 9793,
    "درینو": 9794,
    "خسار": 9795,
    "▁انگیزد": 9796,
    "▁شانز": 9797,
    "▁موید": 9798,
    "▁اتو": 9799,
    "سادگی": 9800,
    "ئون": 9801,
    "اوج": 9802,
    "▁نگارم": 9803,
    "▁متروی": 9804,
    "▁خرم": 9805,
    "▁مسیریاب": 9806,
    "▁فضاپیماها": 9807,
    "▁ایستادن": 9808,
    "ردین": 9809,
    "▁هندو": 9810,
    "تعارف": 9811,
    "▁فاخر": 9812,
    "▁سالخورد": 9813,
    "۳۰۰": 9814,
    "▁موثرتر": 9815,
    "▁رفتیم": 9816,
    "▁قرادادش": 9817,
    "▁برگشتن": 9818,
    "زاس": 9819,
    "▁لبن": 9820,
    "▁آزادگان": 9821,
    "۷۱۰": 9822,
    "▁چشمک": 9823,
    "▁مساعدت": 9824,
    "▁پیوستند": 9825,
    "▁برآن": 9826,
    "آما": 9827,
    "▁زیرپا": 9828,
    "▁اندروی": 9829,
    "ناوب": 9830,
    "▁اندازیم": 9831,
    "▁بلن": 9832,
    "پارل": 9833,
    "▁صاحبش": 9834,
    "▁دژها": 9835,
    "▁لیند": 9836,
    "▁بازده": 9837,
    "▁مخا": 9838,
    "▁روپر": 9839,
    "▁پرست": 9840,
    "▁قصر": 9841,
    "▁دیکش": 9842,
    "گرفت": 9843,
    "لخت": 9844,
    "▁بفهمی": 9845,
    "سکان": 9846,
    "بیا": 9847,
    "▁گرج": 9848,
    "▁دخترم": 9849,
    "کوتا": 9850,
    "▁آوریم": 9851,
    "چسبند": 9852,
    "▁آمونی": 9853,
    "▁پروس": 9854,
    "کمپ": 9855,
    "▁کشو": 9856,
    "▁روئی": 9857,
    "▁بوستا": 9858,
    "▁آزمود": 9859,
    "▁هیپستر": 9860,
    "▁راهیاب": 9861,
    "▁نیرومندتر": 9862,
    "▁ایرانروزها": 9863,
    "▁متوس": 9864,
    "دیف": 9865,
    "▁متاب": 9866,
    "▁نیایش": 9867,
    "عبدالو": 9868,
    "▁درعی": 9869,
    "خرج": 9870,
    "▁برادرز": 9871,
    "▁آلتر": 9872,
    "▁استرلی": 9873,
    "همراه": 9874,
    "▁۱۵سال": 9875,
    "ستره": 9876,
    "نگولی": 9877,
    "▁نوآ": 9878,
    "▁واردکنند": 9879,
    "انتری": 9880,
    "نورلند": 9881,
    "▁سمع": 9882,
    "زندگان": 9883,
    "صادف": 9884,
    "▁داکا": 9885,
    "▁افرا": 9886,
    "▁بازدیدها": 9887,
    "نواختر": 9888,
    "▁محبو": 9889,
    "نگل": 9890,
    "العمل": 9891,
    "▁فرما": 9892,
    "مگ": 9893,
    "▁مالت": 9894,
    "ورسوی": 9895,
    "۳۹۰": 9896,
    "▁بالاگ": 9897,
    "▁حائ": 9898,
    "▁چرخاند": 9899,
    "▁دیگ": 9900,
    "▁مساو": 9901,
    "متعارف": 9902,
    "پابل": 9903,
    "▁مثا": 9904,
    "▁یوور": 9905,
    "شمول": 9906,
    "▁بگذار": 9907,
    "رفتار": 9908,
    "▁پولاد": 9909,
    "▁جوید": 9910,
    "عمر": 9911,
    "مترو": 9912,
    "ورانگو": 9913,
    "▁ویرا": 9914,
    "ونیا": 9915,
    "▁فهمیدن": 9916,
    "اتریو": 9917,
    "گوید": 9918,
    "چون": 9919,
    "▁پذیرفتن": 9920,
    "▁مقدا": 9921,
    "▁اطلا": 9922,
    "ایکون": 9923,
    "کرون": 9924,
    "▁ژا": 9925,
    "راث": 9926,
    "شگران": 9927,
    "پیشین": 9928,
    "سیام": 9929,
    "متد": 9930,
    "وئیس": 9931,
    "ریتانی": 9932,
    "▁نشو": 9933,
    "حقوقدانان": 9934,
    "بارون": 9935,
    "▁نیکول": 9936,
    "▁مستن": 9937,
    "▁نواختن": 9938,
    "▁مي": 9939,
    "۱۲": 9940,
    "▁هیپستره": 9941,
    "▁مضا": 9942,
    "خامت": 9943,
    "ملیتی": 9944,
    "▁نمودن": 9945,
    "▁خدایا": 9946,
    "شتابند": 9947,
    "▁رکسا": 9948,
    "▁یورک": 9949,
    "دونا": 9950,
    "استفن": 9951,
    "▁صب": 9952,
    "تمن": 9953,
    "سپارد": 9954,
    "دینامیک": 9955,
    "۱۰۰": 9956,
    "عدد": 9957,
    "لئون": 9958,
    "ریتا": 9959,
    "ائر": 9960,
    "نواز": 9961,
    "تابو": 9962,
    "▁درآو": 9963,
    "ورتینگ": 9964,
    "انتانا": 9965,
    "ساط": 9966,
    "مایند": 9967,
    "▁نگرفتن": 9968,
    "▁نیاوردن": 9969,
    "دالر": 9970,
    "استودیوی": 9971,
    "▁آخ": 9972,
    "بسیار": 9973,
    "آقا": 9974,
    "غور": 9975,
    "▁غفار": 9976,
    "▁فلسطین": 9977,
    "▁راهکارها": 9978,
    "▁بلاتکلیف": 9979,
    "▁نمک": 9980,
    "▁الکتریک": 9981,
    "دئو": 9982,
    "▁انرژ": 9983,
    "▁مخف": 9984,
    "گرایان": 9985,
    "آگاهی": 9986,
    "▁مسخ": 9987,
    "▁آتا": 9988,
    "▁افسا": 9989,
    "غفو": 9990,
    "▁رخدادها": 9991,
    "▁سانتریفیوژها": 9992,
    "تنبور": 9993,
    "سکوت": 9994,
    "گمان": 9995,
    "▁موسیق": 9996,
    "صاب": 9997,
    "▁پائول": 9998,
    "▁بقایا": 9999,
    "ئ": 10000
  }
}