ی	-3.4297
.	-3.4367
</s>	0
<unk>	0
ه	-3.89534
▁است	-4.1117
▁	-4.15114
▁می	-4.20475
▁های	-4.61963
▁ایران	-4.70203
▁شده	-5.01844
،	-5.07644
▁سال	-5.15963
▁بود	-5.18492
▁یک	-5.23421
▁ها	-5.25369
▁شد	-5.27969
▁تصویر	-5.39831
▁کرده	-5.41512
▁ای	-5.42057
▁کرد	-5.49625
ان	-5.54289
منبع	-5.55942
▁بر	-5.5825
▁شود	-5.66046
▁گفته	-5.6887
▁دو	-5.75974
▁کند	-5.76723
▁خود	-5.77679
؛	-5.80896
▁اند	-5.84522
▁کرونا	-5.86479
ین	-5.97042
▁در	-6.01664
▁پیش	-6.06678
▁کشور	-6.07152
ش	-6.07955
▁آمریکا	-6.0819
▁ماه	-6.08692
ن	-6.09238
▁گزارش	-6.11583
▁روز	-6.11949
ت	-6.14588
▁بی	-6.24354
▁فوتبال	-6.26174
▁دارد	-6.26823
▁ا	-6.26941
▁دهد	-6.28924
▁بازی	-6.30083
▁تیم	-6.30184
▁کنند	-6.33812
▁گفت	-6.33898
▁اعلام	-6.34754
▁کار	-6.36012
▁قرار	-6.37824
▁هزار	-6.39049
▁شرکت	-6.40159
▁م	-6.41186
▁و	-6.41299
▁دیگر	-6.41483
▁داده	-6.42149
▁یا	-6.43982
▁دولت	-6.45124
▁دست	-6.46727
▁رئیس	-6.48199
م	-6.48617
▁جهان	-6.48907
▁با	-6.49687
▁گذشته	-6.50882
▁سه	-6.51257
▁به	-6.52333
▁پس	-6.52579
▁خواهد	-6.54492
▁بین	-6.54611
▁آقای	-6.5841
▁گوید	-6.59788
▁ب	-6.60288
▁هر	-6.61495
در	-6.62533
▁میلیون	-6.62772
▁درباره	-6.63095
▁بار	-6.64825
▁درصد	-6.66098
▁لیگ	-6.66749
▁آنها	-6.68187
▁افزایش	-6.68566
▁تهران	-6.69078
▁نفر	-6.69339
▁دلیل	-6.7209
▁یکی	-6.72139
▁افغانستان	-6.72628
'	-6.74339
▁بوده	-6.74604
▁'	-6.75632
▁داد	-6.75969
▁هفته	-6.76286
▁چند	-6.76868
▁بعد	-6.77073
این	-6.7733
های	-6.78819
▁از	-6.78874
▁جدید	-6.79202
▁خبر	-6.79527
▁حال	-6.80877
▁ویروس	-6.80954
▁نفت	-6.81168
▁جهانی	-6.81217
▁ملی	-6.81441
ا	-6.81459
ر	-6.81666
▁دلار	-6.82136
:	-6.82281
▁قیمت	-6.82579
▁بازار	-6.84099
▁سازمان	-6.84657
▁جمهوری	-6.85391
▁ترین	-6.85784
▁همه	-6.85974
▁مورد	-6.86078
▁فیلم	-6.86539
▁نمی	-6.87269
▁هستند	-6.87895
▁همچن	-6.87999
▁برگزار	-6.88263
▁باید	-6.89069
▁نام	-6.89626
▁گرفته	-6.89678
▁تولید	-6.89951
▁عنوان	-6.90242
ند	-6.91409
▁نظر	-6.91634
▁ت	-6.92448
ات	-6.92605
▁چین	-6.93287
▁امروز	-6.93382
▁روی	-6.93661
▁بیش	-6.93813
▁سر	-6.94041
▁کاهش	-6.942
▁کردند	-6.9432
د	-6.95766
▁مجلس	-6.96909
▁داشت	-6.97773
▁وزیر	-6.9833
▁بودند	-6.98422
ب	-6.98462
ل	-6.99491
▁شب	-6.99885
▁آغاز	-7.00257
▁بیشتر	-7.00317
▁اروپا	-7.00498
▁شدن	-7.01196
▁نیست	-7.01281
▁مقابل	-7.02175
▁علی	-7.02651
▁سی	-7.03147
▁اخیر	-7.03395
▁وزارت	-7.03789
▁حدود	-7.04506
▁بزرگ	-7.05037
▁بریتانیا	-7.05614
به	-7.06288
▁اقتصادی	-7.0669
▁راه	-7.07
▁واکسن	-7.07195
▁برنامه	-7.07663
▁ایرانی	-7.07844
▁نیز	-7.07923
س	-7.08162
▁داشته	-7.08538
▁پایان	-7.08741
▁نشان	-7.09139
▁را	-7.09226
▁ف	-7.11093
▁حضور	-7.1127
▁آن	-7.11478
▁زمین	-7.11608
▁زمان	-7.13183
▁شهر	-7.13944
▁باشد	-7.14245
▁اش	-7.15193
که	-7.15275
▁بانک	-7.15419
▁باشگاه	-7.16074
▁منتشر	-7.17096
▁اولین	-7.17651
▁توافق	-7.17988
▁اساس	-7.18417
▁انجام	-7.18877
▁شیوع	-7.18991
▁کم	-7.19315
▁باز	-7.19321
▁صورت	-7.19467
▁هایی	-7.19833
▁تحریم	-7.20034
ز	-7.21448
▁اول	-7.21563
▁فصل	-7.21818
▁تر	-7.21941
▁بخش	-7.22591
گی	-7.23869
▁گل	-7.23921
دامه	-7.24244
▁میان	-7.24609
ری	-7.24615
▁استفاده	-7.25051
▁جمله	-7.25149
▁میلیارد	-7.25629
▁وجود	-7.26089
▁دارند	-7.27634
▁مردم	-7.2774
▁رسید	-7.2823
▁شوند	-7.29772
آقای	-7.30187
؟	-7.30489
▁مسابقات	-7.31107
له	-7.31659
▁س	-7.3169
▁گیری	-7.3319
▁همین	-7.34058
او	-7.34122
▁زندگی	-7.34331
▁خواست	-7.34418
▁مسابقه	-7.35277
▁المللی	-7.36009
▁تومان	-7.36232
▁گروه	-7.36284
▁چهار	-7.36621
▁مقام	-7.36795
و	-7.38791
▁بسیاری	-7.38826
▁ماشین	-7.39072
▁حقوق	-7.3985
▁تمام	-7.40103
▁ارز	-7.40324
▁شدند	-7.40466
▁گرفت	-7.40671
▁تواند	-7.41029
▁ن	-7.4105
▁آینده	-7.41646
▁وقت	-7.41806
▁وضعیت	-7.42078
▁اسلامی	-7.42274
▁نرخ	-7.42308
▁حالی	-7.4237
▁برتر	-7.42788
▁بیماری	-7.43668
▁تنها	-7.44259
▁شرایط	-7.44905
▁ساله	-7.4493
▁پنج	-7.45185
▁امسال	-7.45308
▁زنان	-7.46063
▁جام	-7.46155
انه	-7.46425
▁وارد	-7.47322
▁فعالیت	-7.47541
▁کشورهای	-7.47891
▁اقتصاد	-7.48043
▁هیچ	-7.48819
▁زیاد	-7.49091
▁مختلف	-7.49377
▁توان	-7.49484
▁۲۰	-7.49592
▁قبل	-7.50006
رسی	-7.50021
▁طرح	-7.50292
▁تصمیم	-7.50443
▁دوران	-7.50772
▁اجتماعی	-7.51104
▁خانه	-7.51222
▁غیر	-7.5138
عث	-7.51802
▁خارجه	-7.52115
▁کردن	-7.52147
▁روحانی	-7.52442
▁طور	-7.52547
▁تلاش	-7.53631
▁ولی	-7.5407
▁نخست	-7.54192
▁رسان	-7.54601
بدون	-7.54745
▁گویند	-7.5503
نه	-7.55246
▁نزدیک	-7.55272
▁محمد	-7.55363
▁قهرمان	-7.55887
▁افراد	-7.55996
▁خانواده	-7.56071
▁کمک	-7.56952
▁د	-7.57249
▁فروش	-7.57584
▁تازه	-7.57773
▁دهه	-7.58157
▁بورس	-7.58656
▁جان	-7.59285
▁بسیار	-7.59357
▁ه	-7.59691
▁ک	-7.59721
▁مدت	-7.59964
▁دی	-7.60022
▁نه	-7.60043
▁پی	-7.60044
▁تغییر	-7.6023
▁ریاست	-7.60632
▁انتخابات	-7.60863
▁۱۹	-7.60877
▁مرکزی	-7.60932
▁حالا	-7.61208
سیون	-7.61529
ار	-7.62264
▁قهرمانی	-7.62397
▁منبع	-7.62426
▁مهم	-7.6252
▁تاریخ	-7.62529
▁برای	-7.63133
▁دوره	-7.63167
▁سوی	-7.63885
▁اصلی	-7.64575
▁اثر	-7.65257
▁دانشگاه	-7.65403
▁ش	-7.65413
شان	-7.65416
یک	-7.65482
▁منطقه	-7.65694
قط	-7.6606
▁سرمایه	-7.66615
▁رسمی	-7.66807
▁برابر	-7.66907
▁کنار	-7.67263
▁زیر	-7.67821
▁همراه	-7.67878
▁دنیا	-7.68026
▁هم	-7.68417
▁جمهور	-7.68479
▁درگذشت	-7.68496
▁ر	-7.68568
▁هسته	-7.6872
یت	-7.68733
▁رسیده	-7.68911
▁رقابت	-7.69042
▁برخ	-7.69045
▁موسیقی	-7.69231
▁دوم	-7.6933
یه	-7.69608
▁اطلاعات	-7.69985
▁پول	-7.70036
▁آمار	-7.70096
▁پیدا	-7.70144
▁آ	-7.70262
▁بعضی	-7.70322
شورای	-7.70501
▁۴	-7.71424
▁آمریکایی	-7.71442
▁سفر	-7.71912
▁پرسپولیس	-7.71995
▁پر	-7.72152
ک	-7.72155
ف	-7.72157
شروع	-7.7229
▁میلادی	-7.72699
ثبت	-7.73183
▁نتیج	-7.73306
▁نقش	-7.73308
▁عکس	-7.73363
▁زن	-7.73414
▁خودرو	-7.73988
▁مرکز	-7.74496
▁برجام	-7.74695
▁۱۰	-7.75243
▁یافته	-7.75718
ده	-7.76155
▁کشتی	-7.76181
▁اعتراض	-7.76251
نامه	-7.7628
▁استان	-7.76542
▁نشده	-7.76667
▁بودجه	-7.76894
▁دنبال	-7.77145
▁حاضر	-7.77458
▁جایزه	-7.77549
▁کل	-7.777
▁ممکن	-7.77707
▁شکست	-7.77759
▁اینک	-7.77787
▁حمله	-7.77937
▁توجه	-7.77999
▁رشد	-7.78318
ست	-7.78537
ها	-7.78764
▁نوشته	-7.79165
▁سیاسی	-7.79174
▁شش	-7.79349
▁همکاری	-7.79525
▁سهام	-7.79702
▁حمایت	-7.79757
▁دریافت	-7.80012
▁که	-7.80033
بر	-7.80192
▁بازیکن	-7.80321
با	-7.80415
▁مراسم	-7.80568
▁آزاد	-7.80586
▁او	-7.8079
▁مالی	-7.80973
▁رفت	-7.81191
▁واکنش	-7.81279
▁آلمان	-7.81521
▁بالا	-7.8172
▁الله	-7.8176
توسط	-7.81887
▁۵	-7.81944
▁بهترین	-7.82196
▁پرداخت	-7.8222
▁ندارد	-7.83047
▁کمتر	-7.83108
▁استقلال	-7.83253
ایی	-7.83723
▁آب	-7.83725
▁عراق	-7.83789
▁کر	-7.838
▁۲۰۲۰	-7.84206
▁سیاست	-7.84683
نی	-7.8484
▁هدف	-7.8486
▁بهداشت	-7.84906
▁کتاب	-7.85107
▁دور	-7.85206
▁نامه	-7.8524
▁فرانسه	-7.85824
▁ساعت	-7.85825
▁آژانس	-7.85845
▁عرض	-7.86161
▁۲	-7.86404
▁نیمه	-7.86833
ترین	-7.86956
▁شنبه	-7.87047
▁ترکیه	-7.8718
▁طی	-7.87701
▁روند	-7.88575
▁مدیر	-7.89251
▁آمده	-7.89311
▁عربستان	-7.89768
▁ویژه	-7.89811
▁رسد	-7.89888
ِ	-7.89995
▁خبرگزا	-7.90135
▁انتشار	-7.90244
▁دیدار	-7.90271
▁پیروز	-7.90685
▁جنوبی	-7.9088
▁انرژی	-7.90956
▁خرید	-7.9101
اکنون	-7.91043
حتی	-7.91086
▁شمار	-7.91812
اسیون	-7.91912
▁دهند	-7.92117
▁قهرمانان	-7.9232
از	-7.92733
▁چنین	-7.92822
▁سابق	-7.92834
گان	-7.93156
▁موضوع	-7.93358
)	-7.93395
▁گذاری	-7.93555
▁کنیم	-7.94032
▁پ	-7.94212
▁خام	-7.94261
▁ترامپ	-7.94308
کسب	-7.94775
▁اشار	-7.95043
▁سازی	-7.95044
▁نهایی	-7.95125
▁مبارز	-7.95239
▁اتحاد	-7.95804
▁هشدار	-7.95863
▁یافت	-7.95991
▁میزان	-7.96161
▁ایجاد	-7.96471
▁همان	-7.96647
▁زبان	-7.96649
گیری	-7.96764
▁رو	-7.97121
▁این	-7.97288
▁قابل	-7.97468
▁تبدیل	-7.97783
▁آزمایش	-7.98038
▁خواهند	-7.98072
▁دولتی	-7.98076
▁خارجی	-7.98359
▁درآمد	-7.98509
▁قانون	-7.99303
▁اجرای	-7.99583
▁(	-7.99688
▁جریان	-7.99748
▁کشته	-8.00017
▁نیاز	-8.00365
▁متهم	-8.00393
▁ده	-8.0061
▁ورزش	-8.00614
▁حسن	-8.00681
▁مذاکرات	-8.00929
▁پرونده	-8.00971
▁مشخص	-8.01095
▁تاثیر	-8.01212
▁زده	-8.01224
ای	-8.01301
▁نا	-8.01429
▁هفت	-8.01454
▁اقدام	-8.01663
▁بازیکنان	-8.01715
چه	-8.02301
▁ساخت	-8.02625
▁تایید	-8.02772
▁تلویزیون	-8.02777
▁سپاه	-8.02931
▁۶	-8.02994
▁مرگ	-8.03103
▁تعطیل	-8.03142
▁ح	-8.03548
▁کمی	-8.03608
▁بیمارستان	-8.03689
▁۳	-8.03732
▁سوم	-8.03797
نوز	-8.04211
▁مرد	-8.04606
▁مربوط	-8.04647
▁روسیه	-8.04858
▁فاصله	-8.05085
▁طریق	-8.05104
▁مدل	-8.05208
▁آسیا	-8.05359
▁دیده	-8.05807
▁بازداشت	-8.05989
▁ارتباط	-8.06064
▁.	-8.06245
▁بالای	-8.06435
▁سرمربی	-8.06576
▁احمد	-8.06671
▁اسرائیل	-8.07099
▁جلو	-8.07296
▁سالگی	-8.07371
▁چرا	-8.07478
▁زمانی	-8.07518
▁خاطر	-8.07606
▁مجموعه	-8.07698
▁خارج	-8.07732
▁صادرات	-8.07812
▁محل	-8.07843
▁تنیس	-8.0809
▁بازگشت	-8.08139
▁انسان	-8.08317
▁رهبر	-8.0833
▁نمایش	-8.08466
▁نمایندگان	-8.08733
▁صد	-8.09126
▁کننده	-8.09168
▁لیورپول	-8.09334
▁آی	-8.09538
▁انگلیس	-8.09538
▁نسبت	-8.09686
▁عضو	-8.10002
▁سو	-8.10411
▁حکومت	-8.1052
▁اتمی	-8.11605
▁اعضای	-8.11658
▁ل	-8.11791
▁پلیس	-8.11892
▁دادگاه	-8.12068
▁رود	-8.12105
▁تعداد	-8.12293
▁نشست	-8.12457
▁معاون	-8.12756
▁خط	-8.12789
▁ساخته	-8.12803
▁سطح	-8.13022
▁قرنطینه	-8.13107
▁تو	-8.13107
▁امنیت	-8.13136
▁طول	-8.13505
▁بیانی	-8.13598
▁جو	-8.13624
▁ابتلا	-8.13656
▁ج	-8.1382
▁کامل	-8.13986
ینه	-8.14026
▁صنعت	-8.14102
▁محدودیت	-8.1437
▁انتخاب	-8.1439
▁۳۰	-8.14409
▁خطر	-8.14996
▁برد	-8.15059
▁رد	-8.15087
▁سخنگوی	-8.15157
▁طرف	-8.15193
▁عمومی	-8.15466
▁تحت	-8.15651
▁آخری	-8.15684
▁۷	-8.15829
▁قرارداد	-8.16101
▁دیگری	-8.16129
▁نظامی	-8.16203
▁منابع	-8.16375
می	-8.16397
ون	-8.16524
▁لندن	-8.16677
ق	-8.1684
▁جا	-8.17142
▁لغو	-8.17211
▁خوب	-8.17244
▁بخشی	-8.17682
▁۲۵	-8.17896
▁ارزش	-8.17897
▁کابل	-8.17984
▁جنگ	-8.18117
▁امنیتی	-8.1821
▁شورا	-8.18412
▁نقل	-8.18582
▁کودکان	-8.18583
روز	-8.18611
▁سخت	-8.18903
▁همزمان	-8.18981
▁زندان	-8.1935
▁ظریف	-8.19413
▁نگاه	-8.1952
▁نیم	-8.1954
▁شناخت	-8.19546
▁پزشکی	-8.19721
▁ام	-8.19878
▁آثار	-8.19948
▁بشر	-8.19985
▁گسترده	-8.19997
▁سابقه	-8.20183
▁جاری	-8.20245
▁بشک	-8.20681
▁نگرانی	-8.20936
مین	-8.20996
▁نمایند	-8.21005
▁۲۰۰	-8.21129
▁روزهای	-8.21559
یم	-8.2168
▁ترک	-8.21709
▁توصی	-8.21758
▁انقلاب	-8.21832
▁نفتی	-8.22142
▁جلسه	-8.222
▁نامزد	-8.2257
▁امتیاز	-8.22601
▁سن	-8.22605
-	-8.22627
▁خودش	-8.227
▁مطرح	-8.22736
▁طراح	-8.22747
▁حکم	-8.22825
▁چ	-8.23089
▁شکل	-8.23416
▁رای	-8.23519
خیلی	-8.23554
▁صندوق	-8.23557
ور	-8.23617
▁المپیک	-8.23911
▁حرکت	-8.23921
▁انتظار	-8.24022
▁۹	-8.24152
▁ورزشی	-8.24166
▁رکورد	-8.24461
▁مرح	-8.24712
▁تع	-8.24815
▁شدید	-8.24876
▁اج	-8.2488
▁بینی	-8.25014
▁گاز	-8.2505
▁دوبار	-8.25498
▁قطع	-8.25499
▁برنده	-8.25559
▁۲۰۱۹	-8.25641
▁ورود	-8.25711
▁آیا	-8.26004
▁عالی	-8.26384
▁دادن	-8.26616
▁توانست	-8.26817
▁بایدن	-8.26833
▁ورزشگاه	-8.2684
▁وی	-8.26877
▁تصوی	-8.27096
ازه	-8.27404
▁باشند	-8.27422
▁هز	-8.27603
▁۱۳	-8.27632
▁دستگاه	-8.27681
▁جمعیت	-8.27779
▁آبان	-8.2791
▁رقم	-8.28013
اما	-8.28563
▁متوقف	-8.28604
▁داستان	-8.28774
▁متحده	-8.28997
▁گرفتن	-8.29044
▁نکرده	-8.29118
▁کووید	-8.29158
▁افت	-8.29426
▁چشم	-8.29525
▁شدت	-8.29537
▁ایتالیا	-8.29807
▁۱۴۰۰	-8.29869
▁فشار	-8.3027
▁ارائه	-8.30358
▁معرف	-8.30455
▁بحران	-8.30482
▁قدرت	-8.30646
▁نوشت	-8.3089
▁چهر	-8.31126
ال	-8.31234
▁مشکلات	-8.31516
▁هوای	-8.31965
▁هواپیمای	-8.32001
▁پیشین	-8.32051
▁شهرهای	-8.32185
▁برق	-8.32396
▁انتقاد	-8.324
▁امور	-8.3242
▁مانده	-8.32552
▁جای	-8.32717
▁داشتند	-8.32787
ره	-8.33005
▁گیرد	-8.33035
▁۱۲	-8.33117
▁انتقال	-8.33187
▁۱	-8.33211
▁مصاحبه	-8.33517
▁آزادی	-8.33792
▁فینال	-8.33838
▁جدی	-8.33875
▁موج	-8.34373
▁گذاشته	-8.34401
▁تحقیقات	-8.34424
▁بلند	-8.34607
▁۲۰۱	-8.34618
▁فرهنگ	-8.34814
▁دانست	-8.34935
▁سایر	-8.34938
الات	-8.35008
▁چهارم	-8.35069
▁اتفاق	-8.35207
ستاد	-8.35223
▁اروپایی	-8.35277
▁پاسخ	-8.35347
▁الکتریکی	-8.35427
حه	-8.35464
▁بارسلونا	-8.35496
▁سینما	-8.35555
۸	-8.35681
▁قو	-8.35794
▁آمد	-8.35984
▁هنگام	-8.36177
▁جنوب	-8.36236
▁مصوب	-8.36576
▁موسس	-8.36657
ج	-8.36784
▁کشید	-8.3683
▁رفته	-8.37202
▁نیروهای	-8.37468
ستاره	-8.37499
▁تورم	-8.37729
سی	-8.37821
▁جامعه	-8.37864
▁نو	-8.38121
▁فعال	-8.38275
▁دستور	-8.38285
▁نهاد	-8.38428
▁شامل	-8.38511
▁تشکیل	-8.38514
▁مربی	-8.38583
▁مسی	-8.39049
▁۱۵	-8.39054
▁داخلی	-8.39066
▁مشکل	-8.39298
▁چگون	-8.39364
▁قرن	-8.39377
▁آخر	-8.39675
▁اتهام	-8.39907
▁محیط	-8.40002
▁بست	-8.40256
▁حساب	-8.40685
▁نوع	-8.40723
سازی	-8.40854
▁دادند	-8.40892
▁داخل	-8.40968
▁آنچ	-8.41282
▁فارسی	-8.41284
▁طولانی	-8.414
▁معاملات	-8.41408
▁هند	-8.41455
▁باقی	-8.4148
▁کسان	-8.41489
▁ابتدای	-8.41922
▁قبلی	-8.41998
▁فروردین	-8.42023
▁ماسک	-8.42124
▁نبود	-8.42169
ازم	-8.42234
▁تک	-8.42276
▁درمان	-8.42411
▁گو	-8.42772
▁کس	-8.43
▁سیستم	-8.43162
▁قرمز	-8.43197
▁فکر	-8.43287
▁مسئولان	-8.43315
▁اسفند	-8.43471
▁شماری	-8.43482
▁خانم	-8.43891
▁آسیب	-8.44149
▁فن	-8.44247
▁۲۲	-8.44305
▁نیروی	-8.44411
▁روزنامه	-8.44711
▁خروج	-8.44899
▁پشت	-8.45094
▁کنم	-8.45196
▁مبتلا	-8.45427
▁احتمال	-8.45485
▁کوچک	-8.45588
▁دونالد	-8.45782
▁تحقیق	-8.45807
▁ق	-8.45859
▁تاریخی	-8.46121
▁ممنوع	-8.4626
▁سریال	-8.46348
▁ترکیب	-8.46413
▁۱۱	-8.46789
دی	-8.46916
▁محلی	-8.46921
▁نگهبان	-8.46954
▁غنی	-8.47034
▁کنید	-8.47062
▁آتش	-8.47081
▁۸	-8.47206
▁ملل	-8.47267
وز	-8.47532
▁محکوم	-8.47616
▁یاد	-8.4775
▁درخواست	-8.47797
▁مارادونا	-8.47992
بی	-8.48084
▁۵۰	-8.48292
▁خبرنگار	-8.48479
▁تجاری	-8.48564
▁فدرا	-8.48833
▁دار	-8.48848
▁تجرب	-8.48978
▁امکان	-8.49067
▁شما	-8.49101
وی	-8.49184
▁عامل	-8.4919
▁مرغ	-8.49317
▁دوشنبه	-8.49341
▁صحبت	-8.49414
▁واردات	-8.49554
▁هنری	-8.49766
▁تاکید	-8.49888
پس	-8.49954
▁صادر	-8.49981
▁میزبان	-8.49998
▁زیست	-8.50003
▁اسکار	-8.50053
▁پایین	-8.50075
▁تن	-8.5015
۲	-8.506
▁سیاه	-8.50696
▁سقوط	-8.50717
▁چهارشنبه	-8.50736
▁دلایل	-8.50753
▁فرهنگی	-8.50871
▁طبق	-8.51095
▁گذشت	-8.51274
▁محدود	-8.5154
▁اعدام	-8.51662
▁شان	-8.51726
▁شاهد	-8.51888
▁شاخص	-8.5191
▁سیتی	-8.52086
▁اجرا	-8.52093
▁مواد	-8.52229
۱	-8.52263
▁بنزین	-8.52282
▁خون	-8.52421
▁علت	-8.52493
▁هنر	-8.52504
▁لای	-8.5256
▁ناشی	-8.53056
لی	-8.53176
رفع	-8.53834
▁ع	-8.54092
▁فضای	-8.541
یی	-8.54193
▁کارگران	-8.54357
▁اختیار	-8.54408
▁ترتیب	-8.54445
▁پارسال	-8.54532
▁آوریل	-8.54551
▁همیشه	-8.54555
▁خوانده	-8.54923
▁ال	-8.54939
▁گ	-8.55059
▁حرفه	-8.5519
▁سراسر	-8.55218
▁کوتاه	-8.55273
▁تامین	-8.5537
اخر	-8.55506
▁یع	-8.5556
▁یکشنبه	-8.55564
▁زد	-8.56012
▁چپ	-8.56047
▁کنترل	-8.56059
گاه	-8.56117
▁بیرون	-8.56138
▁آورد	-8.56249
▁دقیقه	-8.5632
▁۶۰	-8.56618
▁اولیه	-8.56731
▁مشترک	-8.56942
▁ضرب	-8.57395
۴	-8.57475
▁بودن	-8.57585
▁توسعه	-8.57646
▁نویسنده	-8.57682
▁کلی	-8.57732
▁سمت	-8.57783
▁روابط	-8.57876
▁احتمالا	-8.5797
▁تا	-8.57994
▁تهدید	-8.58019
▁۴۰	-8.58066
▁افتاد	-8.5807
▁دفاع	-8.58411
▁تقریبا	-8.58456
▁قوانین	-8.58471
▁موارد	-8.585
▁اقدامات	-8.58621
▁مسیر	-8.58671
▁مارس	-8.58807
▁واحد	-8.5896
▁جمعه	-8.59004
▁نظیر	-8.59234
▁شجریان	-8.59238
▁متفاوت	-8.59242
▁حذف	-8.59359
▁مسئول	-8.59438
▁بندی	-8.59723
▁عمل	-8.59977
▁روبرو	-8.59988
▁نظام	-8.5999
▁وین	-8.60017
▁خوزستان	-8.60051
▁اطلاع	-8.60085
▁انفجار	-8.60096
▁استرالیا	-8.6017
▁نتایج	-8.60246
▁یونایتد	-8.60265
▁خصوصی	-8.60293
▁شهروندان	-8.60307
▁سرعت	-8.60367
عده	-8.60648
▁سلامت	-8.60825
▁مناطق	-8.60896
▁گون	-8.60902
▁۹۸	-8.61033
▁جهش	-8.61101
نگ	-8.61339
▁فدر	-8.61604
▁سوخت	-8.61648
▁پروژه	-8.61722
یا	-8.61769
▁فضایی	-8.6189
▁قصد	-8.62027
▁کاملا	-8.6216
▁صفر	-8.62196
▁شاید	-8.62208
▁بتوان	-8.62569
▁بگیرد	-8.62604
طور	-8.62608
▁آستان	-8.62644
▁معروف	-8.62725
▁اوپک	-8.6276
▁آماده	-8.62848
▁رنگ	-8.62897
▁بدن	-8.63139
▁۱۴	-8.63168
مه	-8.63411
▁زاده	-8.63413
▁متر	-8.63471
▁حل	-8.63548
▁اخیرا	-8.63565
▁امضا	-8.6365
۰۰	-8.63668
▁اندازه	-8.63674
▁هایش	-8.6377
▁بیست	-8.63829
▁تاکنون	-8.63879
▁نژاد	-8.6389
▁علاو	-8.63913
▁ونزوئلا	-8.63923
▁جز	-8.63925
▁درگیر	-8.64205
▁۲۰۲۱	-8.64279
▁ولایت	-8.64285
▁آرژانتین	-8.64303
▁احیا	-8.64343
▁جشنواره	-8.64383
▁سنت	-8.64405
۵	-8.64561
▁اس	-8.64851
▁عباس	-8.64933
▁مرتبط	-8.65112
▁فعالان	-8.6522
▁مصرف	-8.6535
▁بارها	-8.65416
▁محمود	-8.65543
▁دسترس	-8.65861
▁۱۶	-8.65934
▁پرواز	-8.65947
▁بیشتری	-8.65975
▁فرد	-8.65992
▁تجارت	-8.65999
▁ندارند	-8.66001
▁هواداران	-8.66016
▁اتاق	-8.66061
▁جدول	-8.66071
▁عملیات	-8.6611
اساس	-8.66139
▁دارایی	-8.66561
▁اختلاف	-8.66843
▁فهرست	-8.66909
یین	-8.67045
▁حد	-8.67309
▁کارگر	-8.67511
▁کارگردان	-8.67533
▁مذاکر	-8.6769
خانه	-8.67752
▁بخوانید	-8.67752
▁شکایت	-8.67832
▁رییس	-8.67878
▁غرب	-8.67967
▁پل	-8.67983
▁پیشنهاد	-8.6806
▁بد	-8.68097
امبر	-8.68174
▁شمال	-8.6822
▁اف	-8.68403
▁هوا	-8.68512
▁پخ	-8.6855
▁۱۷	-8.68842
▁من	-8.68954
▁دومین	-8.69114
▁عد	-8.69281
▁مالیات	-8.69596
انی	-8.69601
حفظ	-8.69683
▁موفق	-8.69827
▁بزرگترین	-8.6995
▁توییتر	-8.70086
▁ان	-8.7021
▁ماند	-8.70374
لق	-8.70393
▁تاج	-8.70537
براز	-8.70569
▁ما	-8.70585
▁رشت	-8.70624
▁قلب	-8.7067
▁برده	-8.70768
▁رسیدن	-8.70833
▁چیزی	-8.71058
▁فوت	-8.71102
▁فدرر	-8.71151
▁مرز	-8.7128
▁کالا	-8.71294
▁پور	-8.71735
▁اداره	-8.71836
▁قطر	-8.7185
▁ایالت	-8.719
▁صفح	-8.71941
▁کاری	-8.71967
▁زنده	-8.72053
▁مشابه	-8.72339
▁واکسین	-8.72388
▁ملت	-8.72883
▁مه	-8.73013
▁نقطه	-8.73252
ایران	-8.73258
▁گروهی	-8.73325
▁چاپ	-8.73353
▁فرصت	-8.73361
▁پاریس	-8.73371
▁هنو	-8.73433
▁سنگین	-8.73467
▁بهبود	-8.73518
▁اعتراضات	-8.73554
▁پیام	-8.73554
▁نقاشی	-8.73629
گر	-8.73644
▁یورو	-8.73707
۶	-8.73808
▁سود	-8.73909
▁حق	-8.74084
▁اعمال	-8.74212
▁دهم	-8.74742
▁بریتانیایی	-8.74796
▁مجدد	-8.75159
▁فساد	-8.75201
▁مجوز	-8.75221
▁کشف	-8.75278
▁واقع	-8.75401
▁فرمانده	-8.75445
▁۵۰۰	-8.75593
▁باخت	-8.7563
▁کارخان	-8.75764
▁قانونی	-8.75863
▁حزب	-8.76097
▁موفقیت	-8.76194
▁بازیگر	-8.76442
▁انگیز	-8.76559
▁کنندگان	-8.76644
▁هشت	-8.76723
▁گفتگو	-8.76749
▁بالاتر	-8.76762
▁جنسی	-8.7681
▁شناس	-8.7683
▁نظارت	-8.77096
▁سرطان	-8.77136
▁مهر	-8.77216
▁نگران	-8.77609
▁خالی	-8.77723
▁سایت	-8.77732
▁مل	-8.77776
▁جمع	-8.7784
▁کشورها	-8.77846
▁روزانه	-8.77947
▁توپ	-8.78151
▁رکود	-8.78151
▁گردد	-8.78163
▁نسل	-8.78292
▁خواننده	-8.78366
▁تغییرات	-8.7847
▁کودک	-8.78592
▁چیز	-8.78613
▁مشهور	-8.78723
▁مردان	-8.78728
▁ماهه	-8.78742
▁مواجه	-8.7902
▁نهادهای	-8.79561
▁خواهان	-8.79616
▁برخورد	-8.79695
▁حوزه	-8.80056
▁تجمع	-8.80084
▁طبیعی	-8.80113
عودی	-8.80139
▁علمی	-8.80216
▁حادثه	-8.80233
▁سریع	-8.80251
▁رفتن	-8.80333
▁دنیای	-8.80413
▁افغان	-8.8069
▁بال	-8.80698
▁هرات	-8.80878
▁تابستان	-8.80907
▁رعایت	-8.81058
▁عدالت	-8.81063
▁موافقت	-8.81164
▁عملکرد	-8.81166
اس	-8.81191
▁اینترنت	-8.81207
▁منچستر	-8.81245
مان	-8.8162
▁روشن	-8.81677
▁خ	-8.8181
▁۱۰۰	-8.82124
▁رابطه	-8.82127
▁طلا	-8.82213
▁تصاویر	-8.82331
▁حرف	-8.82399
ع	-8.82609
تی	-8.82825
▁چه	-8.82934
▁جنگل	-8.82993
▁مد	-8.83195
▁نفتکش	-8.8322
▁جشن	-8.83245
▁درست	-8.83305
▁نشد	-8.83485
▁چلسی	-8.83491
▁امام	-8.83511
▁پروازهای	-8.83527
ممنوعیت	-8.83578
▁کنون	-8.83705
علی	-8.83706
▁بهار	-8.83821
▁سا	-8.83885
▁صدای	-8.83905
▁مجبور	-8.84122
▁مغز	-8.84158
▁بایرن	-8.84182
▁کاخ	-8.84247
▁خصوص	-8.8443
▁قضایی	-8.8472
▁مهدی	-8.84982
▁بیت	-8.85181
▁پاسداران	-8.852
▁مقایس	-8.85245
▁پنجم	-8.85315
▁بحث	-8.85487
▁دوست	-8.85543
▁دختر	-8.8574
▁مجموع	-8.85895
کنندگان	-8.85911
▁آید	-8.86044
▁اضاف	-8.86102
▁توضیح	-8.8611
▁ژوئن	-8.86236
▁ایمن	-8.86239
▁دچار	-8.86244
▁کمیت	-8.86249
▁مقررات	-8.86258
▁تهی	-8.86286
▁یابد	-8.86317
▁ارتش	-8.86322
▁برسد	-8.8634
▁اسپانیا	-8.86444
▁سوریه	-8.86501
▁عمده	-8.86515
▁سعید	-8.86635
بود	-8.86965
▁کیلومتر	-8.87024
▁میدان	-8.87208
▁کانال	-8.8739
▁مجازی	-8.87439
▁۲۴	-8.87452
▁روش	-8.87492
▁مانع	-8.87573
▁مجله	-8.87657
▁ابتدا	-8.8766
دو	-8.8775
▁پای	-8.87806
▁کدام	-8.87937
▁گر	-8.87957
▁پیشرفت	-8.88282
▁منتقل	-8.88401
▁معتقد	-8.88439
فورد	-8.88474
▁تاسیس	-8.88508
▁دانند	-8.88601
▁کوین	-8.88612
▁فنی	-8.88628
▁رساند	-8.88742
▁آورده	-8.88894
▁واقعی	-8.88968
▁دکتر	-8.89024
▁کارشناسان	-8.89029
▁شعر	-8.89053
ول	-8.89131
▁پا	-8.89141
▁مت	-8.89265
▁گذار	-8.89357
ویه	-8.89417
▁نقاط	-8.89496
▁نقدینگی	-8.89501
▁سخنران	-8.89766
▁سفیر	-8.89814
▁خواند	-8.89855
▁صحنه	-8.89876
▁تی	-8.90086
▁مستند	-8.90326
▁۱۸	-8.90337
▁بازارهای	-8.90344
▁پدر	-8.90457
▁خودروساز	-8.90476
▁عبور	-8.90481
▁بهتر	-8.90655
▁قطعی	-8.90828
▁تاتنهام	-8.90885
▁رضا	-8.91038
▁جدا	-8.91409
▁جوان	-8.91657
▁مسکن	-8.91743
▁ارشد	-8.91817
▁افتاده	-8.91902
▁گمرک	-8.9191
▁پوند	-8.91913
▁اظهارات	-8.91923
▁امیدوار	-8.91973
▁۲۸	-8.92044
▁نشری	-8.92082
نمایی	-8.92139
▁بیکار	-8.92416
▁هنرمند	-8.92437
▁امید	-8.92452
▁۲۳	-8.92616
محمد	-8.92623
بیشتر	-8.92767
▁مشغول	-8.92869
▁پایتخت	-8.92869
▁تورنمنت	-8.9287
▁انگلستان	-8.92878
۰	-8.92987
▁اوراق	-8.93022
▁موجب	-8.93134
▁مدیریت	-8.9319
▁حت	-8.93616
▁تقوی	-8.93718
▁مثبت	-8.93847
▁گذاشت	-8.93882
▁صدا	-8.94164
▁مادر	-8.94237
▁رانند	-8.94622
۷	-8.94636
▁راست	-8.94734
▁زنی	-8.94801
▁سفید	-8.94853
▁ژاپن	-8.94978
▁حریف	-8.95012
▁حداقل	-8.95179
▁تزریق	-8.95285
▁ساز	-8.95635
▁رمان	-8.95707
▁دقیق	-8.95736
▁حسین	-8.95935
▁۷۰	-8.95952
▁کن	-8.96117
غلب	-8.96222
▁العاده	-8.96358
▁تاجیکستان	-8.96365
▁-	-8.96379
▁سرشناس	-8.96381
▁قتل	-8.9643
▁نشود	-8.96461
▁مادرید	-8.96474
▁سینمایی	-8.96521
▁بیمار	-8.96586
ید	-8.96606
ام	-8.96711
▁عهد	-8.96732
▁خاک	-8.96815
وایل	-8.96841
▁بنز	-8.96859
یر	-8.96895
▁عرب	-8.96896
▁اوت	-8.96965
▁ژان	-8.97017
تر	-8.97021
▁اورا	-8.97056
▁پذیر	-8.97167
▁سوار	-8.97242
گ	-8.97275
▁وابست	-8.97554
▁ظرف	-8.97562
▁فراهم	-8.97563
▁۱۳۹۹	-8.97624
▁اسطوره	-8.97677
▁پیشتر	-8.97685
▁ساختمان	-8.97716
نیوم	-8.97725
▁مرداد	-8.97737
▁مخالفت	-8.97829
داری	-8.97844
▁تشخیص	-8.97845
▁دفتر	-8.97886
▁دبیر	-8.97935
▁۲۱	-8.98089
▁جایی	-8.98096
▁درآمدهای	-8.98233
▁وضع	-8.9843
▁رفتار	-8.98466
▁تومانی	-8.98499
▁دانشمندان	-8.98507
▁درواز	-8.98557
▁هوشمند	-8.98755
▁مدیران	-8.99194
▁دریا	-8.99347
▁۹۰	-8.99397
▁رخ	-8.99419
▁اجرایی	-8.99435
▁پژوهش	-8.99773
▁تاز	-8.99814
▁معامل	-8.99993
▁نوبل	-9.00001
▁دریایی	-9.00209
▁فوریه	-9.00235
▁خودروهای	-9.00411
▁بهمن	-9.00442
▁اساسی	-9.00552
▁معنای	-9.00586
▁چک	-9.00733
▁اردیبهشت	-9.01282
▁هستیم	-9.01335
▁فیفا	-9.01357
▁کاربران	-9.01365
▁جنجال	-9.01395
▁بهداشتی	-9.01407
▁سوئیس	-9.01435
▁برزیل	-9.01436
▁جدیدی	-9.01474
▁منف	-9.01577
▁خورد	-9.0174
▁محمو	-9.01789
▁قربانی	-9.02254
▁زاغری	-9.02455
▁وزن	-9.02481
▁جزئیات	-9.02547
▁آبی	-9.02547
▁چیست	-9.02555
▁خرداد	-9.02563
▁گرفتند	-9.0264
▁قدیمی	-9.02727
▁نوری	-9.02868
▁قدم	-9.02869
▁فر	-9.03125
▁سنگ	-9.03233
▁استاد	-9.03428
▁مر	-9.03652
۹	-9.03864
▁شرق	-9.03906
▁گرم	-9.04043
▁کنونی	-9.04176
شنبه	-9.04178
▁دید	-9.04313
▁معتبر	-9.0434
▁فو	-9.04486
▁برداشت	-9.04524
▁زود	-9.0464
▁کارکنان	-9.04641
▁ارزی	-9.04819
▁مو	-9.04984
▁بو	-9.04992
▁لحظ	-9.05075
▁ضد	-9.05179
▁حمل	-9.05343
▁صدر	-9.05518
▁زدن	-9.05556
خش	-9.05931
▁هاست	-9.05958
▁یو	-9.06179
▁هدایت	-9.06422
▁۹۹	-9.06473
▁نداشته	-9.06631
▁موجود	-9.06699
▁دریای	-9.06724
▁مسافران	-9.06742
▁آلمانی	-9.0676
▁همسر	-9.06761
▁۳۰۰	-9.06971
▁دل	-9.07134
▁گوش	-9.07479
▁مسدود	-9.07657
▁موقعیت	-9.07658
▁نوامبر	-9.07689
▁شاه	-9.077
▁مطالع	-9.07716
▁معادل	-9.07737
▁موزه	-9.07738
▁نیویورک	-9.0778
▁قسمت	-9.07834
▁رئال	-9.07943
▁مخالفان	-9.08009
▁کارهای	-9.08043
▁بستر	-9.08158
▁نویس	-9.08203
▁آوری	-9.08229
▁مهاجم	-9.08266
▁فارس	-9.08317
▁متع	-9.0843
▁نهایت	-9.08687
▁مستقیم	-9.08689
▁انگلیسی	-9.08754
▁سینمای	-9.08824
▁مبلغ	-9.08988
▁استقبال	-9.0899
▁قضائیه	-9.09013
▁غذا	-9.09039
▁علاقه	-9.09054
▁بحرین	-9.09102
▁دارو	-9.0911
▁رویترز	-9.09115
کسی	-9.09167
▁قبلا	-9.09198
▁یکدیگر	-9.09199
▁آموزش	-9.09349
یات	-9.09483
▁مک	-9.09797
یروز	-9.09809
▁آهنگ	-9.09955
▁ظاهر	-9.10061
▁زندانی	-9.10084
▁تعدادی	-9.10106
▁اصلاح	-9.10168
▁روایت	-9.10285
▁آلبوم	-9.10342
▁عجیب	-9.10345
▁دوربین	-9.10353
▁دوچرخه	-9.10391
اوری	-9.1043
▁مدیرعامل	-9.10433
▁داریم	-9.1055
▁تحصیل	-9.10592
▁محمدرضا	-9.10596
▁فعلی	-9.10679
▁امیر	-9.10683
▁بن	-9.10727
▁بیماران	-9.10843
▁دین	-9.1094
▁بنا	-9.11082
▁صعود	-9.11401
▁خورشیدی	-9.11472
▁پوست	-9.11475
▁سکه	-9.11574
▁خدمات	-9.11739
▁کالاهای	-9.11917
▁فوری	-9.1198
▁جمعی	-9.12141
نقض	-9.1216
▁لو	-9.12558
▁مکان	-9.12674
▁غربی	-9.12724
▁چندان	-9.12761
ح	-9.12905
▁صلح	-9.13083
▁آهن	-9.13084
▁لباس	-9.13112
▁رونالدو	-9.13122
▁تماس	-9.13195
▁نادال	-9.13197
▁مهار	-9.13202
▁سفارت	-9.13319
▁مراجع	-9.1335
▁رافائل	-9.13546
پ	-9.13689
▁۲۶	-9.13719
▁مقامات	-9.13812
▁متوسط	-9.14056
▁خورده	-9.14094
▁منج	-9.14244
▁محصولات	-9.14396
ود	-9.14527
▁مبتلایان	-9.14552
▁فرانسوی	-9.14558
▁بازنشستگان	-9.14572
▁ماموران	-9.14646
▁خواهیم	-9.14848
▁چهل	-9.14919
▁نداشت	-9.15003
▁بنابر	-9.15014
▁۳۱	-9.15016
▁گیرند	-9.15062
▁سرخ	-9.15069
▁بعدی	-9.15094
وق	-9.1523
▁ناظر	-9.15246
▁اقیانوس	-9.1527
▁کشورش	-9.1556
▁افزوده	-9.15653
۳	-9.16028
▁فرزند	-9.16057
پور	-9.16061
▁تخریب	-9.16114
▁جوایز	-9.16118
▁معترضان	-9.16197
▁شخصیت	-9.16347
▁طالب	-9.16381
▁راهی	-9.16389
کی	-9.16404
▁دختران	-9.16601
▁علیرضا	-9.16618
▁۳۵	-9.16737
▁تیر	-9.16973
▁گستر	-9.17005
ط	-9.17026
▁ساکن	-9.17061
رد	-9.17102
▁برود	-9.17168
▁صنایع	-9.17344
▁مونیخ	-9.17345
▁ژوئیه	-9.17345
تان	-9.17368
▁چالش	-9.17411
▁ایستگاه	-9.17412
▁نحو	-9.17471
▁ارسال	-9.17594
▁باره	-9.17792
▁سعی	-9.17834
▁ایم	-9.18086
▁مایک	-9.18248
▁کرونای	-9.18737
▁تحویل	-9.18815
▁۲۰۱۷	-9.18853
▁معمولا	-9.19136
▁برقرار	-9.19152
▁نور	-9.19173
کس	-9.19279
▁میلان	-9.19512
▁شخصی	-9.19661
▁موتور	-9.19827
▁گران	-9.19873
▁تقاضای	-9.1989
ته	-9.19975
▁ماده	-9.20274
یون	-9.20316
▁متعدد	-9.20325
▁برگشت	-9.20338
▁صبح	-9.20347
▁واشنگتن	-9.204
▁نارنجی	-9.20429
نده	-9.20519
▁دانش	-9.20549
▁توقف	-9.20557
زه	-9.20597
▁جوکوویچ	-9.20635
توجه	-9.20714
▁تقاضا	-9.20771
▁دشوار	-9.20872
▁مجری	-9.20889
▁خدم	-9.21164
سال	-9.21503
▁لی	-9.21532
▁اصل	-9.21635
▁قالیباف	-9.21824
▁ویمبلدون	-9.21825
▁نگهداری	-9.21837
▁ثابت	-9.21867
▁آنلاین	-9.21872
▁نخواه	-9.2188
▁سوپر	-9.21901
▁اجاره	-9.21922
▁ادبیات	-9.21945
▁اخراج	-9.21989
▁بازرگانی	-9.22087
▁موقت	-9.22088
▁سلیمانی	-9.22105
گاهی	-9.22392
▁راجر	-9.22466
▁پاکستان	-9.22517
حسین	-9.2256
سته	-9.22629
▁کارها	-9.2265
▁عین	-9.22677
سازمان	-9.22854
▁سهمی	-9.23045
▁مالکی	-9.23062
▁۱۳۹۸	-9.23367
▁بدهی	-9.23391
▁بهادار	-9.23399
▁اخبار	-9.23413
قیف	-9.23419
▁قاچاق	-9.23454
▁زاد	-9.23621
▁نویسندگان	-9.23646
▁ورزشکاران	-9.2376
▁تمامی	-9.23824
▁خیابان	-9.24162
▁تصور	-9.2423
▁تعهدات	-9.24241
▁موشک	-9.24289
▁صف	-9.24359
▁غذای	-9.24524
▁اوج	-9.24633
▁پست	-9.24655
▁جذب	-9.24919
▁نجات	-9.2493
▁هست	-9.24968
▁اکتبر	-9.24969
▁کنسرت	-9.25003
▁خانگی	-9.25024
▁محبوب	-9.25025
▁خلق	-9.25053
▁نشر	-9.25066
▁حاشیه	-9.2521
▁صوتی	-9.25234
▁عادی	-9.25267
▁انجمن	-9.25305
▁کلوپ	-9.25318
▁هموار	-9.25339
هم	-9.2578
▁مربیان	-9.25862
▁توییت	-9.25875
دولت	-9.25884
▁نتوانست	-9.26154
▁نگه	-9.26184
▁مالک	-9.26199
وزارت	-9.26207
▁برمی	-9.26231
▁۸۰	-9.26249
▁سپ	-9.26288
▁آذر	-9.26382
است	-9.26387
▁اسرائیلی	-9.26474
▁جراح	-9.26478
▁حاصل	-9.26524
▁پلاس	-9.26559
▁شاعر	-9.26562
▁تسلا	-9.26623
▁جایگاه	-9.2676
▁حداکثر	-9.26806
▁لیون	-9.26814
▁کافی	-9.26963
من	-9.27078
▁احساس	-9.27218
▁هنرمندان	-9.27232
▁ترانه	-9.27437
▁حیات	-9.27464
خواهد	-9.27595
دار	-9.27598
▁فردا	-9.27622
یان	-9.27741
▁هواپیما	-9.27809
▁شهروند	-9.27846
▁سپاهان	-9.27877
تبه	-9.27917
▁اینستاگرام	-9.27948
▁شمالی	-9.27987
▁صاحب	-9.28035
▁تئاتر	-9.28121
▁اختصاص	-9.28123
▁اهمیت	-9.28171
▁لوکس	-9.28174
▁حفاظت	-9.28177
▁ترس	-9.28232
▁مدعی	-9.28244
▁دارای	-9.28262
خانم	-9.28298
▁فرهاد	-9.28431
▁تیراندازی	-9.28505
قب	-9.28775
▁ادبی	-9.28823
▁شبانه	-9.28849
▁سخنان	-9.28875
▁زخمی	-9.28876
▁داند	-9.28938
▁گفتند	-9.28997
▁احتمالی	-9.29105
وم	-9.29219
▁سهم	-9.29414
▁نزدیکی	-9.29458
را	-9.29505
▁قاسم	-9.29587
قدر	-9.29617
▁مواردی	-9.29735
▁تعویق	-9.2976
▁طبیعت	-9.29793
▁مسلح	-9.29823
▁معرض	-9.29844
▁سند	-9.29879
▁ملک	-9.29899
▁فایل	-9.29918
▁طرفداران	-9.30058
▁مجید	-9.30203
▁تلفن	-9.30259
لیک	-9.30273
▁کردم	-9.30816
▁نوروز	-9.30905
▁تخت	-9.30912
▁دا	-9.30971
نا	-9.3102
▁مارک	-9.31114
یابی	-9.31275
قانونی	-9.313
▁پارک	-9.31325
علوم	-9.31415
▁دیجیتال	-9.31429
▁مراکز	-9.31429
▁ناگهان	-9.31431
▁مدافع	-9.31435
▁خیریه	-9.31534
▁مریخ	-9.31538
وه	-9.31587
▁کردیم	-9.31646
▁صرف	-9.31663
▁سبک	-9.31706
اره	-9.31947
▁آل	-9.31978
▁ز	-9.32144
▁ناز	-9.32148
▁هی	-9.32172
▁پاس	-9.32263
شیدا	-9.3235
یست	-9.32361
▁پرس	-9.32397
رضا	-9.32453
▁مرزی	-9.32609
هرگز	-9.32631
▁پالایشگاه	-9.32645
سه	-9.32691
▁بیان	-9.32799
▁رادیو	-9.32835
▁حذفی	-9.33089
▁اصفهان	-9.33123
▁اجلاس	-9.33126
▁متولد	-9.33196
▁قبول	-9.33199
▁ماجرا	-9.33257
▁دیدن	-9.33319
▁مشا	-9.33382
▁تری	-9.33502
تنظیم	-9.33516
▁دوستان	-9.33538
▁اتریش	-9.33667
▁اتفاقات	-9.33728
▁واقعیت	-9.33871
▁اشتباه	-9.33966
▁سوزی	-9.34007
▁نمو	-9.34012
▁پرو	-9.3403
▁اوپ	-9.34033
مقام	-9.3407
▁پژوهشگران	-9.34339
▁مناسب	-9.34434
▁نگار	-9.34503
▁۲۹	-9.34543
▁خوش	-9.34595
▁گام	-9.34596
▁کارشناس	-9.34685
▁شرقی	-9.34752
اسی	-9.3481
▁مسائل	-9.34853
▁افتخار	-9.34906
▁عوامل	-9.34914
▁صلاحیت	-9.34919
▁نوجوان	-9.34977
رکت	-9.35043
▁اهل	-9.35085
▁سوال	-9.35166
▁مسافر	-9.35235
▁حس	-9.35244
▁مطابق	-9.354
▁باور	-9.35541
▁دادستان	-9.35692
▁فرود	-9.35873
▁خیل	-9.3599
ران	-9.36004
▁فرار	-9.36076
▁استعفا	-9.36285
▁وگو	-9.3654
▁کاپیتان	-9.36602
▁جبران	-9.36619
▁برجسته	-9.36635
▁ارقام	-9.36651
▁عصر	-9.36671
▁شهریور	-9.367
▁پرتاب	-9.36724
▁ماموریت	-9.36736
پیش	-9.36738
گری	-9.36743
▁آلودگی	-9.36749
▁ضمن	-9.36762
▁شیر	-9.36799
▁ض	-9.3706
▁فوتبالیست	-9.3712
▁پزشک	-9.37136
▁موسو	-9.37184
رسدس	-9.37381
▁گیر	-9.37564
افسانه	-9.37568
چند	-9.37808
رئیس	-9.38041
▁ابلاغ	-9.38103
▁زند	-9.38114
▁رهبری	-9.38206
تا	-9.3827
ضاع	-9.38393
▁دوز	-9.38417
▁تاخیر	-9.38432
▁بگیرند	-9.38433
▁داروی	-9.38506
▁بعدا	-9.38557
▁ریز	-9.38784
اری	-9.38787
▁نرم	-9.38943
▁بندر	-9.39097
بط	-9.39153
▁محرم	-9.39166
هر	-9.39237
▁جه	-9.39305
▁فردی	-9.39366
▁عدد	-9.39492
دست	-9.39507
▁اجا	-9.39962
▁محروم	-9.3998
▁ورزشکار	-9.40006
▁کشاورز	-9.40204
▁مراقب	-9.4021
▁هنرپیشه	-9.40234
▁خسارت	-9.40262
▁شاغل	-9.40264
انجام	-9.40267
▁آرسنال	-9.40322
▁رسما	-9.40354
▁حراج	-9.4037
کره	-9.40387
▁ایسنا	-9.40398
▁جیمز	-9.40451
▁حاکی	-9.40482
▁گذارد	-9.40674
▁کارمندان	-9.40687
▁عید	-9.40732
تیم	-9.40771
▁آمیز	-9.4083
▁بلا	-9.40838
▁درک	-9.40891
▁آزار	-9.40975
▁مخالف	-9.40989
خبرگزا	-9.41001
وع	-9.41144
▁ناسا	-9.4117
▁زندانیان	-9.41198
▁روزها	-9.41233
▁سری	-9.41297
رنگ	-9.41394
▁دستگیر	-9.41526
یکی	-9.41642
▁آسمان	-9.41654
▁محسو	-9.41659
▁فرا	-9.41893
هفته	-9.41948
فسور	-9.41994
اک	-9.42035
باید	-9.42047
▁توزیع	-9.42054
▁خشونت	-9.42054
▁عق	-9.42055
▁توکیو	-9.42059
▁آمازون	-9.42112
وئل	-9.42155
▁داشتن	-9.42193
هایی	-9.42213
▁دسته	-9.42239
▁گذرد	-9.42259
▁مدرسه	-9.42284
▁حقوقی	-9.42359
▁ایتالیایی	-9.42379
▁بالاتری	-9.42595
▁تماشاگران	-9.42601
▁فضا	-9.42767
▁الملل	-9.43148
▁ماهی	-9.43156
▁ژا	-9.43189
▁وام	-9.4324
▁کلاس	-9.43412
ونه	-9.43417
چنین	-9.43465
▁رویکرد	-9.43583
▁شصت	-9.43935
▁مشمول	-9.43953
▁نماد	-9.43971
▁سیستان	-9.44102
▁پروتکل	-9.44116
▁۳۲	-9.44183
▁متن	-9.44183
▁مشاور	-9.44368
▁خاص	-9.44414
▁همتی	-9.44509
▁عبدال	-9.45099
▁اکبر	-9.45231
▁دس	-9.45254
▁سیما	-9.45383
▁اندازی	-9.45399
▁جذاب	-9.45569
▁توانسته	-9.45574
▁شناسا	-9.45667
▁روانی	-9.45752
برای	-9.45772
▁سلطنت	-9.45867
▁رقیب	-9.45867
▁اعتبار	-9.4587
قیه	-9.45876
▁مشهد	-9.45876
▁مسئ	-9.45944
یره	-9.46044
▁هویت	-9.46089
▁مشاهد	-9.46106
▁منتظر	-9.46143
▁حسینی	-9.46404
▁درجه	-9.46486
▁جلوی	-9.46584
رو	-9.46646
▁جواد	-9.46733
▁چنان	-9.46754
▁شیو	-9.46762
▁نکرد	-9.47164
وثی	-9.47424
ستان	-9.47515
▁سرنگون	-9.47829
▁تردد	-9.47864
▁موضع	-9.47898
▁فروخته	-9.47951
▁۲۰۱۵	-9.47955
▁پایه	-9.47956
گرد	-9.47977
▁عرص	-9.48005
ذیب	-9.48045
▁صراف	-9.4805
▁حکام	-9.48094
▁آکادمی	-9.48129
شب	-9.48165
▁سامانه	-9.48195
▁برآورد	-9.48236
رده	-9.48324
▁اع	-9.48332
▁دستمزد	-9.48377
یل	-9.48509
▁الدین	-9.4851
▁شاملو	-9.48526
آزادسازی	-9.48555
▁فرمو	-9.4864
▁ذخ	-9.48682
▁تست	-9.48847
گزارش	-9.48931
▁انتخاباتی	-9.48965
▁محققان	-9.49009
اب	-9.49035
▁گاه	-9.49048
اد	-9.49126
سون	-9.49242
▁افزود	-9.49352
▁رحمان	-9.49604
▁تماشاگر	-9.49632
▁شناسی	-9.49734
▁پیوست	-9.49791
▁انداز	-9.49802
▁اتومبیل	-9.49825
▁مصنوعی	-9.49828
▁الهام	-9.49841
▁میانه	-9.49932
▁کشوری	-9.49944
▁فیزیک	-9.49953
▁سرپرست	-9.50009
▁فراموش	-9.50011
▁بان	-9.50033
▁آلود	-9.50118
▁ایرنا	-9.50153
▁تفاوت	-9.50194
▁مسعود	-9.50215
▁نهم	-9.50238
ساوی	-9.50448
▁منتقدان	-9.50489
ماه	-9.5074
▁فرستاده	-9.50775
تمام	-9.50847
لو	-9.51025
شته	-9.51097
▁دما	-9.51183
▁مج	-9.51209
نین	-9.51211
▁ست	-9.51225
▁لس	-9.51484
▁آور	-9.51507
گفته	-9.51631
▁برادر	-9.51648
▁عمیق	-9.51658
▁دام	-9.51701
▁گلستان	-9.51804
▁بلوچستان	-9.51871
▁دعوت	-9.51908
▁اهواز	-9.51919
▁ترجم	-9.51988
▁حملات	-9.52004
▁رانندگان	-9.52059
▁واگذار	-9.52161
▁کلید	-9.52161
▁محمدی	-9.52251
لان	-9.52269
▁نفس	-9.52409
خراج	-9.52431
▁نقاش	-9.52458
▁عکاسی	-9.52463
▁نداده	-9.52552
▁گردشگری	-9.52594
مدید	-9.52656
▁گرانی	-9.527
▁بازگرداند	-9.52768
▁ساده	-9.52786
▁کی	-9.52893
▁هشتم	-9.52941
▁یمن	-9.53026
▁شهرداری	-9.532
▁ابراهیم	-9.53236
▁یخ	-9.53303
▁نیستند	-9.534
▁حامل	-9.53571
صد	-9.53766
ما	-9.53816
▁بلینکن	-9.53948
▁۱۳۹۷	-9.53953
▁سراوان	-9.53953
▁آنجلس	-9.53966
▁نداریم	-9.53969
▁خلی	-9.5397
▁رونق	-9.53988
▁شهرستان	-9.54053
▁گواردیولا	-9.54143
▁مشتریان	-9.54179
...	-9.54228
▁تولد	-9.54249
▁آرام	-9.5436
▁تأ	-9.54409
▁خورشید	-9.54448
▁برخوردار	-9.54455
▁نبوده	-9.54475
▁کادر	-9.54516
▁کلیه	-9.54516
بس	-9.54585
شاره	-9.54666
▁پزشکان	-9.54674
▁دامن	-9.54708
▁پنجاه	-9.54774
▁دیوان	-9.54961
▁عکاس	-9.55079
▁جامع	-9.55165
▁شهرت	-9.55533
▁چشمگیر	-9.55598
پی	-9.55604
▁اطلاعی	-9.55732
غم	-9.55753
▁پسر	-9.56006
▁ازدواج	-9.56075
▁تکرار	-9.56075
▁آکسفورد	-9.56076
▁ژافره	-9.56077
▁اسکاتلند	-9.56077
▁پنهان	-9.56079
▁خطرناک	-9.56079
▁استانبول	-9.5608
▁قالب	-9.56094
▁فعلا	-9.56124
▁شوم	-9.56149
▁داور	-9.56155
▁متحد	-9.56229
▁پکن	-9.56274
▁مسئولیت	-9.56275
▁بهای	-9.56277
▁وکیل	-9.56325
▁سرکوب	-9.56412
▁همسرش	-9.56414
▁هرچ	-9.56427
۱۶	-9.56432
▁محافظ	-9.56442
▁اضطرار	-9.5673
▁جودو	-9.56762
▁داوطلبان	-9.56905
▁کا	-9.57107
▁خان	-9.57291
▁اطراف	-9.57379
▁دلاری	-9.57407
ساز	-9.57428
▁حالت	-9.57574
▁خاتم	-9.57856
▁تمرین	-9.58164
▁۴۰۰	-9.58231
▁حوادث	-9.58247
▁عمدتا	-9.58249
▁تعلیق	-9.5826
▁خفاش	-9.58276
ئی	-9.583
▁زمستان	-9.58334
▁شغل	-9.58339
▁مقصد	-9.58345
▁فرودگاه	-9.58359
▁ساحل	-9.58423
رانی	-9.58451
▁فولاد	-9.58464
▁اسپانیایی	-9.58466
▁بدهد	-9.58486
▁نامش	-9.58499
▁همچو	-9.58575
▁مس	-9.5872
▁ثانی	-9.5877
▁دقیقا	-9.58862
▁موثر	-9.58932
▁نیازمند	-9.58932
▁اختلال	-9.59116
▁دیپلما	-9.59189
▁اسکن	-9.59221
▁سخن	-9.59228
▁توانای	-9.59338
نویه	-9.59483
وس	-9.59539
▁افزار	-9.59563
داد	-9.59635
دکتر	-9.59659
▁صدو	-9.59825
ناصر	-9.59845
▁انداخته	-9.59872
▁تصادف	-9.60187
▁چرخ	-9.60375
▁معدن	-9.60376
▁چارچوب	-9.6047
▁میراث	-9.60544
▁یوونتوس	-9.60606
▁ناپذیر	-9.60612
▁دانیم	-9.60635
▁پادشاه	-9.60676
▁ساعات	-9.60721
▁مدیرکل	-9.60804
▁کوه	-9.60988
▁۳۴	-9.61
▁هماهنگ	-9.61055
▁نشدن	-9.61115
▁جم	-9.61258
▁۹۷	-9.61318
غول	-9.61483
▁برنت	-9.61581
▁گری	-9.61585
نجر	-9.61631
بعضی	-9.61653
▁کارت	-9.61725
▁برداری	-9.61795
▁بازگش	-9.61796
▁امیدواری	-9.62004
▁ابر	-9.62129
کار	-9.62175
▁معمول	-9.62274
▁امضای	-9.62566
حسن	-9.62578
▁مجاز	-9.62632
▁گزین	-9.62685
▁ریال	-9.6271
▁مشاغل	-9.62753
▁صدرنشین	-9.6277
▁پارلمان	-9.62812
▁جلب	-9.62836
▁شفاف	-9.62859
▁دهنده	-9.62904
▁تحولات	-9.62942
▁اطمینان	-9.62949
▁انداخت	-9.62981
▁پایگاه	-9.62993
▁سوئد	-9.63056
▁خاوران	-9.63112
▁هوش	-9.63181
▁آشنا	-9.632
▁بند	-9.63346
▁کیلومتری	-9.63365
▁اسکی	-9.63458
▁ایستاده	-9.6347
▁کانادا	-9.63484
▁استاندار	-9.63643
▁نادر	-9.63672
▁پیگیری	-9.63718
بانک	-9.6384
▁نوروزی	-9.63867
عهد	-9.63894
▁درمانی	-9.6414
▁آفریقا	-9.6422
بنابر	-9.64259
همزمان	-9.64368
▁پاک	-9.64505
وید	-9.64519
▁خواب	-9.64913
▁اسب	-9.65003
▁نطنز	-9.65066
▁عوارض	-9.65066
▁اعتماد	-9.65068
▁بسکتبال	-9.65068
▁حکایت	-9.65068
▁تشویق	-9.65078
▁بماند	-9.65133
▁کلمبیا	-9.65142
▁محرومیت	-9.65143
▁متخصص	-9.65145
▁آواز	-9.65192
▁عشق	-9.65211
▁مستقل	-9.65223
▁لا	-9.65251
▁تب	-9.65308
▁شگفت	-9.65331
▁نوسان	-9.6537
▁ژاپنی	-9.65471
▁نمایندگی	-9.65663
▁علم	-9.65671
▁۱۵۰	-9.65723
▁شانس	-9.65763
▁آفریقای	-9.65923
رت	-9.6594
▁۴۲	-9.66349
▁۴۵	-9.665
جا	-9.66849
▁یافتن	-9.66892
کل	-9.66969
▁خاصی	-9.6698
▁سفرهای	-9.6705
▁قوی	-9.67058
▁تحلیل	-9.67157
▁۶۰۰	-9.67305
▁رویداد	-9.67406
قرار	-9.67418
▁پرچم	-9.67444
▁گرنداسلم	-9.6745
▁کالیفرنیا	-9.67514
▁ریش	-9.67525
▁خطاب	-9.67565
▁ویدیوی	-9.67575
▁فیسبوک	-9.67593
▁تماشای	-9.6763
▁خلاف	-9.67649
▁مهاجرت	-9.67709
▁دانشجویان	-9.67721
▁پیچیده	-9.67743
▁نفوذ	-9.67865
▁مالیاتی	-9.67899
▁مذهبی	-9.67913
▁باغ	-9.67944
▁آمدن	-9.67988
▁منظور	-9.6814
بار	-9.68191
▁پن	-9.68222
▁زدند	-9.68261
شدید	-9.68441
▁جوانان	-9.68514
ابت	-9.68648
کش	-9.68654
▁گوشت	-9.68949
اگر	-9.69118
دان	-9.69255
▁آنتونی	-9.69308
▁نامزدهای	-9.69309
▁شرکتهای	-9.69324
▁مسافرت	-9.69361
▁صادقی	-9.6956
▁اظهار	-9.69603
تصاب	-9.69775
▁نیرو	-9.69779
▁ژرمن	-9.69883
▁کهکشان	-9.69887
▁تنفس	-9.69891
▁اولویت	-9.69898
▁وسیع	-9.69952
▁تجدید	-9.6996
▁پوشش	-9.70026
▁سانسور	-9.70029
▁اورتون	-9.70046
▁شواهد	-9.70047
▁درحالی	-9.70062
▁مطلب	-9.70093
▁خمینی	-9.70096
▁هلند	-9.70103
▁گشایش	-9.70114
▁امارات	-9.70115
▁راحت	-9.7014
▁مقدار	-9.70142
▁پاییز	-9.70154
▁تخم	-9.70155
▁معن	-9.70235
▁ملایی	-9.70282
▁ماجرای	-9.70414
▁زودتر	-9.70416
▁اسماعیل	-9.70509
▁لستر	-9.7053
حمل	-9.70548
چ	-9.70556
▁خودروسازی	-9.70561
نظر	-9.70653
▁آسیای	-9.70806
▁هفتم	-9.70824
▁سرد	-9.70914
▁کارزار	-9.70943
▁قضاییه	-9.71068
۱۸	-9.71121
▁خرد	-9.71134
▁ضرور	-9.7114
▁عمر	-9.71262
وخیم	-9.71373
▁فراز	-9.71396
▁آسان	-9.71407
▁پدرش	-9.71417
زم	-9.71551
▁امر	-9.71589
وش	-9.71683
▁مع	-9.71881
▁بودم	-9.71966
▁شهری	-9.72066
▁اینتر	-9.72084
▁ذر	-9.72202
▁بنیاد	-9.72382
▁بیستم	-9.7239
▁عبارت	-9.72402
▁طلب	-9.72449
▁زهرا	-9.72453
▁نسخ	-9.72457
▁علائم	-9.7246
▁روغن	-9.72468
▁مقدمات	-9.72494
▁۳۳	-9.72512
▁هتل	-9.72556
▁کربن	-9.72564
▁بنیان	-9.72606
▁تجهیزات	-9.72617
▁فیوری	-9.72628
▁رمز	-9.72628
▁جانب	-9.72658
▁یادآور	-9.72684
▁مرجان	-9.72758
▁رویدادهای	-9.72934
▁ثبات	-9.72994
شرکت	-9.73037
▁کسر	-9.73082
▁جری	-9.73101
ریزی	-9.73157
▁مرور	-9.7336
▁بازیگران	-9.73573
▁قله	-9.73717
▁قول	-9.73728
یده	-9.73878
▁کجا	-9.73897
▁ابتلای	-9.74318
▁پیوسته	-9.74413
سعید	-9.74436
▁منع	-9.74543
▁موافق	-9.74695
وال	-9.74762
▁بخت	-9.74778
▁فرم	-9.74825
▁بابا	-9.74831
▁پاری	-9.74874
▁دفاعی	-9.74942
▁ازبکستان	-9.74953
▁متوالی	-9.7496
▁نصب	-9.74963
▁گروسی	-9.7498
▁اندونزی	-9.75027
▁خطوط	-9.7503
▁لبنان	-9.75103
▁دستورالعمل	-9.7511
▁مجازات	-9.75121
▁اقلیم	-9.75166
▁شویم	-9.75174
▁امشب	-9.75215
▁ردیف	-9.75232
▁آرامش	-9.75234
▁هن	-9.75272
▁مبن	-9.75282
▁رسانی	-9.75294
▁قطب	-9.75395
▁تعطیلات	-9.75409
▁شناور	-9.75447
▁اقامت	-9.75485
▁خواهم	-9.75513
▁اقدامی	-9.75554
▁شبی	-9.75574
▁باری	-9.75906
▁توجهی	-9.75921
▁۲۷	-9.76064
▁اسدی	-9.76235
خمین	-9.76236
جمع	-9.76243
ریمه	-9.76348
وقت	-9.76374
ولی	-9.76392
▁ژنتیکی	-9.76476
▁کف	-9.76515
▁مهمتری	-9.7663
▁کو	-9.76846
زی	-9.76924
▁حامی	-9.77063
▁ارزها	-9.77389
▁پاپ	-9.77528
▁ماندن	-9.77584
▁انتظامی	-9.776
▁نباشد	-9.77622
▁باشیم	-9.77636
▁بگذارد	-9.77636
▁غافلگیر	-9.77664
▁کانون	-9.77728
▁مثال	-9.77745
▁سرنوشت	-9.77753
▁زنند	-9.77808
▁تدریج	-9.77864
▁کیفیت	-9.77866
▁شی	-9.77989
▁امکانات	-9.78001
▁کالاها	-9.78064
▁اسناد	-9.78084
▁شاهین	-9.78105
▁مخاطبان	-9.78112
▁طلای	-9.78118
▁اکثر	-9.78214
▁کریمی	-9.78225
▁کیو	-9.78273
▁واقعا	-9.78414
▁اتهامات	-9.78442
▁بردن	-9.78451
▁نامید	-9.78558
▁عملا	-9.78613
▁یونان	-9.787
▁جورج	-9.78898
▁تل	-9.78938
مدال	-9.79034
▁نیمی	-9.79078
آن	-9.79086
خالت	-9.79125
لت	-9.79279
▁کش	-9.79394
وزیر	-9.7942
نس	-9.79648
▁اتفاقی	-9.79691
▁مادرش	-9.80081
واع	-9.80094
▁اصلا	-9.80122
▁حب	-9.80162
▁خواه	-9.80249
▁معاصر	-9.80282
▁تعریف	-9.80291
▁نیمکت	-9.80309
▁حقیقت	-9.80313
▁خطیب	-9.80393
▁سهامداران	-9.80424
▁سقف	-9.80451
▁فرگوسن	-9.80485
▁هفتاد	-9.80487
▁معلوم	-9.80514
▁۴۴	-9.80551
لا	-9.80559
▁دهیم	-9.80577
قیمت	-9.80588
▁محکومیت	-9.80593
▁زاهد	-9.80645
▁برون	-9.807
▁جک	-9.80707
▁بوکس	-9.80736
▁برگزید	-9.8075
▁بازدید	-9.80854
نازنی	-9.80973
▁ششم	-9.81126
▁محصول	-9.81297
▁شک	-9.81351
▁مناسبت	-9.81364
▁دیگران	-9.81429
سپت	-9.81443
شویی	-9.81775
ظ	-9.81968
▁قطعه	-9.82082
▁آماد	-9.8213
▁ذو	-9.82284
وری	-9.82293
سبب	-9.82396
▁ایفا	-9.82511
▁کارمند	-9.82638
▁تاجیک	-9.82718
▁دائم	-9.82742
▁قدر	-9.82774
▁فرمان	-9.8292
▁زیبای	-9.82935
پدیده	-9.83052
▁تائید	-9.83059
▁احترام	-9.83061
▁مورینیو	-9.83061
▁واگن	-9.83065
▁اماکن	-9.83067
▁فراتر	-9.83095
▁منافع	-9.83121
▁حیوانات	-9.83123
آمریکا	-9.83125
▁تراکتور	-9.83143
▁فریاد	-9.83172
▁مدرن	-9.83205
▁درون	-9.83212
▁جانشین	-9.8324
طفی	-9.83245
▁لمس	-9.83304
▁کاوشگر	-9.83313
فاصله	-9.83354
▁عطر	-9.8336
▁کنفرانس	-9.83401
▁نمایشگاه	-9.8347
▁صادق	-9.83517
▁آم	-9.83518
▁مساوی	-9.83546
▁بهشت	-9.83684
▁قار	-9.83693
▁خاطره	-9.83734
▁قیمتها	-9.83838
▁بدتر	-9.8387
▁رحمانی	-9.84028
▁مغزی	-9.84034
▁مسئولین	-9.8405
▁فکری	-9.84115
کا	-9.84163
▁گزارشگر	-9.84317
▁خوان	-9.84417
▁نامداری	-9.84642
▁یاران	-9.84689
▁هو	-9.84772
▁فاز	-9.84924
▁فق	-9.84968
خ	-9.84996
▁کمیس	-9.85053
باقر	-9.85279
بیشترین	-9.85495
▁دانشمند	-9.85516
گانه	-9.85534
جم	-9.8554
▁پژوهشگر	-9.85593
▁سالم	-9.85607
▁اص	-9.8571
▁محاسب	-9.85777
یو	-9.85798
▁زیرا	-9.85911
▁هیئت	-9.85912
▁کیلوگرم	-9.85917
▁فراوان	-9.85917
▁مشروط	-9.85919
▁یادداشت	-9.85944
▁دیپلماتیک	-9.8598
▁هافبک	-9.85998
▁مدارس	-9.86005
▁شیری	-9.86041
▁هشتاد	-9.86113
▁طوری	-9.86126
▁عاص	-9.86144
▁هاشمی	-9.86154
▁جواب	-9.86162
▁بامیان	-9.86179
▁وستهم	-9.86186
▁اولسان	-9.8622
▁خودکشی	-9.86243
▁ویژ	-9.86275
▁برندگان	-9.86335
حدود	-9.86379
▁سرود	-9.86434
▁تایسون	-9.86457
▁بخار	-9.86482
▁درخشان	-9.8654
▁مدار	-9.86548
▁اور	-9.86558
▁روان	-9.86562
▁کریستیان	-9.86597
▁فرماندار	-9.86619
▁تعرف	-9.86718
▁منشا	-9.8673
▁حا	-9.8674
▁بازرس	-9.86804
▁تبار	-9.86889
ئو	-9.8694
▁والی	-9.86942
▁سپرد	-9.86981
▁شهرها	-9.86982
▁ذهن	-9.86992
▁اجباری	-9.87097
▁ایست	-9.87137
▁فقر	-9.87208
▁بردند	-9.87265
▁پو	-9.873
باره	-9.87365
ینگ	-9.87419
▁رویا	-9.87582
▁انگار	-9.87585
▁وال	-9.87613
کن	-9.87668
جسم	-9.87677
▁دان	-9.87718
▁صورتی	-9.87795
▁آموزشی	-9.88223
▁رهبران	-9.88424
▁بیمه	-9.88443
▁طیف	-9.88543
▁عفو	-9.88629
▁عظیم	-9.88644
▁تماشا	-9.88788
مند	-9.88826
▁آفتاب	-9.88856
▁خراسان	-9.88857
▁پتروشیمی	-9.88858
▁جایگزین	-9.88859
▁مسجد	-9.88863
▁روس	-9.88872
▁سلاح	-9.88876
▁جنبش	-9.88897
تری	-9.88912
دن	-9.88979
بنا	-9.88983
▁تبعیض	-9.89026
گین	-9.89031
▁بلژیک	-9.89033
▁شرط	-9.89035
▁نفع	-9.89073
▁شتاب	-9.89136
▁هیجان	-9.89145
▁جنسیت	-9.89216
▁برکنار	-9.89219
▁نژادپرست	-9.89244
▁مدنی	-9.89398
زاده	-9.89577
▁فاش	-9.89578
▁جزیر	-9.89582
▁هجوم	-9.89697
▁برایش	-9.89727
▁فولک	-9.89842
فدرا	-9.89944
▁محمدجواد	-9.89967
▁نی	-9.90129
▁مان	-9.90139
▁۴۸	-9.90165
▁برند	-9.90232
▁طلبان	-9.90368
فت	-9.90431
▁۷۵	-9.90554
قابل	-9.90712
▁ضرر	-9.90712
▁گذر	-9.90841
▁غار	-9.90879
▁عاشق	-9.91033
۱۴	-9.91088
▁نمای	-9.91103
▁کرمان	-9.91114
▁نود	-9.9121
▁باخته	-9.91231
▁۳۸	-9.91232
▁مطمئن	-9.91588
سخنگوی	-9.91623
یش	-9.91659
▁قایق	-9.91802
▁نساجی	-9.91885
▁پیراهن	-9.91887
▁آذربایجان	-9.91888
▁اقلام	-9.91889
▁ترجیح	-9.91889
▁غیرمستقیم	-9.9189
▁گورستان	-9.91892
▁پیامدهای	-9.91895
▁آشکار	-9.91914
▁سلول	-9.9192
▁دانمارک	-9.91978
▁شنا	-9.91983
▁آرایش	-9.91989
▁قادر	-9.92025
▁پرتغال	-9.92071
▁قر	-9.92083
▁پلاستیک	-9.9209
▁خاورمیانه	-9.92157
▁جدایی	-9.92173
▁زرد	-9.92238
▁شنیده	-9.9226
▁قلع	-9.9228
▁تجا	-9.92301
▁جسد	-9.92339
رون	-9.92384
▁علنی	-9.92418
▁ناکام	-9.92441
▁گمان	-9.92722
▁فرو	-9.92726
▁پهلوی	-9.92747
▁مص	-9.92782
ساله	-9.93008
▁سازند	-9.93067
▁مار	-9.93132
۲۰۱۲	-9.93159
▁غلام	-9.93182
▁خیر	-9.93298
▁کیم	-9.93348
▁دیوار	-9.93356
▁ی	-9.93376
▁بودیم	-9.93515
جه	-9.93528
▁کارش	-9.93529
▁۱۹۸	-9.93577
▁انت	-9.93664
افزایش	-9.93703
▁صادرکنند	-9.93822
▁موقع	-9.93937
▁ادا	-9.93975
▁ار	-9.93975
امروز	-9.94112
▁نشین	-9.94114
اده	-9.9427
▁آتی	-9.94357
غ	-9.94473
بیش	-9.94489
▁عادل	-9.94529
▁امین	-9.94538
اپی	-9.94695
ادی	-9.94704
بری	-9.94744
▁سنا	-9.94756
داران	-9.94766
▁خریدار	-9.94791
فر	-9.94984
▁بغداد	-9.95009
▁جستجو	-9.95012
▁خلاص	-9.95016
▁چندی	-9.95049
▁تبریز	-9.95073
▁پادتن	-9.95102
▁بدهند	-9.95129
▁میناوند	-9.95154
▁تکمیل	-9.95206
▁برگزیت	-9.95309
▁آر	-9.95324
▁سوالات	-9.95337
یس	-9.95474
ویز	-9.95499
▁خاتمی	-9.95619
▁کنگره	-9.95628
جی	-9.95646
▁قلم	-9.95649
▁پوشید	-9.95686
▁توماس	-9.95726
▁ظاهرا	-9.95782
▁خشک	-9.95854
ستگی	-9.95887
▁اوبر	-9.96036
▁تحول	-9.96041
▁قد	-9.96056
▁دایک	-9.96124
▁صالح	-9.96302
▁تحلیلگر	-9.96395
طی	-9.96689
▁آزمایشگاه	-9.967
▁وایل	-9.96846
یب	-9.9708
رچند	-9.9715
▁وست	-9.97226
▁نظریه	-9.97395
کته	-9.9743
▁پرفروش	-9.97664
▁ادعای	-9.97677
▁کلاسیک	-9.9773
▁۵۷	-9.97765
▁پرده	-9.97771
▁مطل	-9.9781
▁ارزان	-9.97839
تو	-9.97929
اجع	-9.98093
▁جر	-9.98093
▁یازدهم	-9.9811
▁نبرد	-9.9817
▁روح	-9.98193
▁لذت	-9.98229
▁پانصد	-9.98235
▁فرآیند	-9.98235
▁گوناگون	-9.98237
▁الکترونیک	-9.98237
▁معیشت	-9.98238
▁غزنی	-9.98243
▁آدم	-9.98305
▁سرقت	-9.98321
▁بوندس	-9.9833
▁۲۰۱۰	-9.98342
▁وسایل	-9.98351
▁سراسری	-9.98358
▁آگاه	-9.98399
▁درهای	-9.9841
بسیاری	-9.98414
▁گشت	-9.98448
▁اسلم	-9.98483
مجموعه	-9.98486
▁استادیوم	-9.98567
▁بیاید	-9.98587
▁۲۵۰	-9.98735
▁مرا	-9.98743
▁نگرفته	-9.98771
▁عام	-9.98811
▁گرند	-9.98891
▁لیدز	-9.98912
▁ط	-9.98944
▁قدس	-9.98976
▁شکاف	-9.9908
▁گرا	-9.99146
نیک	-9.99231
مت	-9.99258
▁نابودی	-9.99378
عوض	-9.99626
▁رقص	-9.99628
نادیده	-9.99656
▁حساس	-9.99753
▁کال	-9.99821
▁دوام	-9.99909
ص	-9.99989
احل	-10.0013
▁خیابانی	-10.0014
▁لحا	-10.0022
▁نیک	-10.0034
▁رفتند	-10.0051
▁نت	-10.0055
مون	-10.0057
▁گوشی	-10.0075
▁تپ	-10.0077
▁زا	-10.0078
▁اسم	-10.0078
کاری	-10.0088
شده	-10.0092
▁شور	-10.0095
رز	-10.0104
▁تردید	-10.0104
دگی	-10.012
۱۹	-10.0121
▁شوک	-10.0123
▁۳۷	-10.0128
▁بهتری	-10.0135
▁خوانندگ	-10.0156
▁خداحافظ	-10.0157
▁هالیوود	-10.0157
▁الحاق	-10.0157
▁والیبال	-10.0157
▁برانگیخت	-10.0159
▁تنگ	-10.0159
▁صمت	-10.0163
▁عمق	-10.0163
▁ارشاد	-10.0165
▁مسلمان	-10.0168
▁نمایشگر	-10.017
▁طبری	-10.0171
▁فایزر	-10.0177
▁شیراز	-10.0177
اکان	-10.0177
▁باشید	-10.0177
▁ببرد	-10.0179
▁بخصوص	-10.018
▁وحش	-10.0182
▁اسلام	-10.0186
▁دیگو	-10.0189
▁سرزمین	-10.0191
▁حیدر	-10.0193
▁مستمر	-10.0198
▁تمایل	-10.0199
▁نداشتند	-10.0202
▁جی	-10.0207
▁اهدا	-10.0217
▁بازرسان	-10.0218
ابی	-10.0223
▁دانستند	-10.0224
▁نماز	-10.0226
▁درحال	-10.0226
▁سران	-10.0234
▁داری	-10.0254
▁اوکراین	-10.0257
▁باب	-10.0259
▁فتح	-10.0265
▁نرسیده	-10.0266
▁عادت	-10.0268
▁بلخ	-10.0275
فرین	-10.0277
▁اردو	-10.0281
▁حمید	-10.0311
▁شیرین	-10.0314
مندان	-10.0314
▁رسیدند	-10.0317
▁تاثیرگذار	-10.0319
ایر	-10.0369
▁فرستاد	-10.0396
▁مح	-10.0397
▁راز	-10.0427
۵۰	-10.0433
▁فرش	-10.0437
▁معترض	-10.0447
فق	-10.0456
▁منتقد	-10.0465
▁عملی	-10.0468
▁شایع	-10.0479
▁سوئیسی	-10.0485
▁فیلمساز	-10.0499
▁سامسونگ	-10.0502
▁آنفلوآنزا	-10.0502
▁همیشگی	-10.0502
▁دوپینگ	-10.0502
▁مترجم	-10.0504
▁بکشد	-10.0505
▁محاکمه	-10.0505
▁راستا	-10.0506
▁عراقچی	-10.0506
▁بورل	-10.051
▁فرونشست	-10.0512
▁مقاومت	-10.0512
▁اهداف	-10.0514
▁قاضی	-10.0516
▁زوج	-10.0517
▁هیوندای	-10.0522
▁پرورش	-10.0526
▁مدارک	-10.0526
▁بازنشست	-10.0528
▁بزند	-10.0528
▁محتوای	-10.0529
رسمی	-10.0531
▁منچستریونایتد	-10.0534
▁مطهری	-10.0544
▁جنبه	-10.0553
▁محافظت	-10.056
▁آمارها	-10.0565
▁پپ	-10.0583
خره	-10.0589
تواند	-10.06
▁سفارش	-10.0607
▁موضوعات	-10.0608
▁تبلیغات	-10.061
وند	-10.0613
▁سد	-10.0619
▁صند	-10.0619
▁نیروگاه	-10.0642
▁خوردن	-10.0693
بخش	-10.0696
▁اندک	-10.0696
▁شا	-10.0698
▁توانم	-10.07
▁موشکی	-10.0703
▁کریست	-10.0707
▁پیشگیری	-10.0713
نکه	-10.0716
▁حج	-10.0718
دم	-10.0722
▁روزه	-10.0735
▁تقس	-10.074
▁افکن	-10.0743
▁دارم	-10.0771
▁برج	-10.0772
▁راستی	-10.0773
▁کشد	-10.0775
▁درد	-10.0775
پنج	-10.0778
فیلم	-10.0788
▁ویدیو	-10.0791
▁وا	-10.08
باران	-10.0808
▁برانگیز	-10.0813
▁بوشهر	-10.0842
اق	-10.0844
▁اقلیمی	-10.0848
▁تبلیغ	-10.085
▁آزمایی	-10.0851
▁همجنس	-10.0857
▁موظف	-10.0858
▁تگزاس	-10.0858
▁تسلیحات	-10.0859
▁ناحیه	-10.0859
▁فلوریدا	-10.0859
▁نتانیاهو	-10.0859
▁استراماچونی	-10.0859
▁نوبخت	-10.0859
▁یوفا	-10.0859
▁تظاهرات	-10.086
▁فردوسی	-10.086
▁مطبوعات	-10.0861
▁۱۹۸۶	-10.0861
▁مصدومیت	-10.0861
▁نکنید	-10.0862
هزار	-10.0865
▁پدید	-10.0868
▁تلخ	-10.087
▁۴۹	-10.087
▁امان	-10.0879
▁بیلسا	-10.088
▁بعید	-10.0884
▁وبسایت	-10.0891
▁فرزندان	-10.0892
▁روسی	-10.0894
▁غریب	-10.0895
▁برخلاف	-10.0895
بین	-10.0896
▁۱۹۹	-10.0903
▁بهایی	-10.0904
▁مطالب	-10.0905
طئ	-10.0909
▁مکرون	-10.0911
▁خشم	-10.0918
▁گذراند	-10.0919
آزمایی	-10.092
▁موش	-10.0924
خالص	-10.0927
▁سانتی	-10.0931
▁پیمان	-10.0934
طبق	-10.0936
▁خودم	-10.0937
تون	-10.0947
عه	-10.0954
بورن	-10.0956
▁۶۵	-10.0962
▁لوئی	-10.0973
▁داغ	-10.0983
▁پیست	-10.0997
▁افتد	-10.1002
▁۴۳	-10.1003
▁۹۶	-10.1014
▁شریفی	-10.1023
▁حلق	-10.1034
▁خواستند	-10.1043
حال	-10.1047
▁یور	-10.1089
▁نقدی	-10.1089
آی	-10.1093
فدر	-10.1098
▁افشا	-10.111
▁جرم	-10.1115
▁جیب	-10.1125
▁۱۲۰	-10.1134
▁مهاجر	-10.1145
جونز	-10.1164
وا	-10.1168
افغانستان	-10.1179
▁مرزهای	-10.1203
جان	-10.1209
نام	-10.1212
▁قدرتمند	-10.1214
استفاده	-10.1216
▁رضوی	-10.1227
دا	-10.1228
▁تأثیر	-10.1229
▁قاجار	-10.1229
▁موبایل	-10.1229
▁شمخانی	-10.1229
▁مخفی	-10.1229
▁تروریسم	-10.1229
▁ببینید	-10.123
ریم	-10.1232
▁۳۹	-10.1236
▁طوفان	-10.1239
▁ماراتن	-10.1239
▁ثمر	-10.1239
▁ویلموتس	-10.124
ث	-10.1242
چی	-10.1242
▁درخت	-10.125
▁دموکرات	-10.1251
▁اشتغال	-10.1251
یف	-10.1251
▁گردشگران	-10.1252
▁گمانه	-10.1253
▁یازده	-10.1255
▁اصلاحات	-10.1257
نش	-10.1258
▁خرج	-10.126
▁اختلافات	-10.1263
▁گوگل	-10.1265
آ	-10.1268
پلیس	-10.1272
▁ناامن	-10.1273
▁عبدالله	-10.1275
▁ادعا	-10.1278
▁کاردن	-10.1278
▁پرسش	-10.1279
رس	-10.128
داشت	-10.1282
▁عروس	-10.1295
پیشتر	-10.1296
ض	-10.13
▁همسان	-10.1301
▁هستم	-10.1302
خواهی	-10.1305
ضعیف	-10.1308
▁مبنای	-10.131
▁سرباز	-10.133
▁مقال	-10.1347
▁جدال	-10.1351
الب	-10.1354
کننده	-10.1357
▁مرزها	-10.136
▁سلمان	-10.1372
سم	-10.1373
▁منته	-10.1376
▁کلا	-10.1381
شی	-10.1381
▁تج	-10.1405
تن	-10.1431
▁باند	-10.1444
▁معمار	-10.1456
▁ریه	-10.1468
▁تعامل	-10.1471
▁حضورش	-10.1474
▁کامیون	-10.1476
▁کنگ	-10.1478
▁اگر	-10.148
▁الکس	-10.1487
▁تکان	-10.1528
اند	-10.1536
آنها	-10.1537
▁اهدای	-10.1538
أ	-10.1542
▁هجومی	-10.1548
▁۹۵	-10.1556
▁مکانی	-10.1566
▁نقد	-10.1567
وت	-10.157
▁قوا	-10.1574
▁لب	-10.1575
▁ناراحت	-10.158
▁خوک	-10.1581
▁محقق	-10.1583
▁مادری	-10.1594
بو	-10.1603
رداد	-10.1605
▁تاکسی	-10.1605
▁بومی	-10.1609
خصیص	-10.1612
▁تلفیق	-10.1612
▁تحمیل	-10.1612
▁گیاه	-10.1612
▁الانبیا	-10.1613
▁پروتئین	-10.1613
▁تعدیل	-10.1614
▁غربالگری	-10.1614
▁پرافتخار	-10.1614
▁خوراک	-10.1614
▁تبعات	-10.1614
▁افتتاح	-10.1614
▁پرندگان	-10.1619
سکی	-10.1621
▁ودیعه	-10.1622
▁ویلیامز	-10.1622
▁پردازد	-10.1624
▁ارتفاع	-10.1624
▁برانکو	-10.1625
ارد	-10.1628
▁هیا	-10.163
▁ایام	-10.1632
▁باد	-10.1637
▁سرنشینان	-10.1641
▁آورند	-10.1641
▁شکنج	-10.1642
▁یمانی	-10.1649
▁تعهد	-10.1651
▁لحظات	-10.1655
▁سناتور	-10.1663
سیا	-10.1663
▁باران	-10.1664
▁تف	-10.1668
▁ایلنا	-10.1674
▁گردن	-10.1677
▁معمولی	-10.1678
عبدال	-10.1682
▁دراز	-10.1686
▁خواهی	-10.1686
▁پذیرفته	-10.169
▁منوچ	-10.1692
▁کاسته	-10.1694
راحل	-10.1706
▁ویدئویی	-10.1725
▁عزاداری	-10.1726
▁رها	-10.1728
▁همیلتون	-10.1735
▁کاربر	-10.1737
▁محسن	-10.1742
روی	-10.1755
▁نزد	-10.1773
▁۰	-10.1774
▁۵۶	-10.1774
▁هنگ	-10.1781
▁۵۲	-10.1782
▁عذر	-10.1788
لیگ	-10.179
▁وق	-10.1801
▁آباد	-10.1802
▁واژ	-10.1802
داوم	-10.1803
▁سلف	-10.1826
▁فروشگاه	-10.1831
▁ترور	-10.1833
▁وسی	-10.1844
▁فان	-10.1855
▁پیوند	-10.1859
▁چا	-10.186
▁شورو	-10.1867
اقات	-10.1871
دل	-10.1874
شمار	-10.1879
▁ستار	-10.188
▁تور	-10.1883
رگن	-10.1895
▁یکم	-10.1903
▁گروگان	-10.1907
▁آرای	-10.1916
▁پانزده	-10.1932
سا	-10.1934
▁خشکی	-10.1935
ردن	-10.1953
▁داستانی	-10.1964
▁اطل	-10.1969
وریا	-10.1972
ویژه	-10.1978
▁شعار	-10.1986
▁متاسف	-10.1992
▁کهن	-10.1997
▁خو	-10.2007
غان	-10.2008
▁محدودیتهای	-10.201
▁اعزام	-10.2012
▁دبلیو	-10.2012
▁انقراض	-10.2012
▁منحصر	-10.2012
▁لالیگا	-10.2012
▁مشورت	-10.2012
▁موانع	-10.2012
▁بلاروس	-10.2012
▁تدوین	-10.2012
▁فلوید	-10.2012
▁لهستان	-10.2013
▁مور	-10.2014
▁بدانیم	-10.2014
امی	-10.2015
شه	-10.202
▁تخلف	-10.202
▁نقص	-10.202
▁خاموش	-10.2022
▁لاریجانی	-10.2022
▁فسیل	-10.2023
▁نیوزیلند	-10.2025
▁تسهیلات	-10.2028
▁بدو	-10.2028
▁موسوی	-10.2029
▁راس	-10.203
▁آنقدر	-10.2031
▁محاسبات	-10.2032
لند	-10.2034
کو	-10.2034
▁کارلوس	-10.2043
▁وسط	-10.2044
▁ویران	-10.2046
▁راهبرد	-10.2057
▁وانت	-10.206
▁ربط	-10.2063
امسال	-10.2064
▁استرالیایی	-10.2066
▁خاطرات	-10.2079
▁عبوری	-10.208
▁صلاح	-10.2085
محمود	-10.2085
▁بلیت	-10.209
▁آوردند	-10.2098
▁کیلو	-10.2113
▁آرامکو	-10.2117
۲۵	-10.2126
▁آهنگساز	-10.2127
▁گذاشتن	-10.2131
▁تاب	-10.2142
▁جوانی	-10.2144
برخ	-10.2151
▁ص	-10.2151
▁۵۵	-10.2151
▁سبز	-10.2153
رویی	-10.2154
راضی	-10.216
▁نسب	-10.2173
▁بدی	-10.2177
▁تس	-10.2177
▁گرایان	-10.219
▁عقید	-10.219
▁باستانی	-10.2191
▁گرد	-10.2197
تیپ	-10.2199
التهاب	-10.22
▁خودروها	-10.2206
▁عموم	-10.2207
▁جسم	-10.2211
▁سلطان	-10.2215
▁حیاتی	-10.2221
۳۱	-10.2225
صاف	-10.2235
▁سیا	-10.2241
▁داشتم	-10.2241
▁تمرکز	-10.2244
▁یاری	-10.2249
▁سیف	-10.2249
▁بهر	-10.2263
▁بازیگری	-10.2266
▁ویلیام	-10.2267
▁پولی	-10.2291
▁تاک	-10.2297
▁۷۷	-10.2297
▁دستگیری	-10.2298
▁۷۳	-10.2298
▁ازای	-10.2298
▁استعداد	-10.2299
▁هندی	-10.2306
▁پرسید	-10.232
▁قاطع	-10.2344
یشه	-10.2345
▁بروند	-10.2354
▁آیین	-10.2362
▁خا	-10.2364
▁زیان	-10.2368
گروه	-10.2369
▁سرای	-10.2374
۲۲	-10.2377
▁باشگاهی	-10.2377
▁کام	-10.2396
▁سالن	-10.2409
تکلیف	-10.241
ممکن	-10.2414
▁شاخ	-10.2415
▁۹۱	-10.2415
▁حیوان	-10.2426
▁پارالمپیک	-10.2428
▁اکسیژن	-10.2428
▁زلزله	-10.2429
▁مازندران	-10.2429
▁یهودی	-10.2429
▁دهقان	-10.2429
▁دقایق	-10.243
▁انفرادی	-10.243
▁اسپرت	-10.243
▁کریکت	-10.2431
▁بازگردد	-10.2432
▁بدر	-10.2436
خیص	-10.2436
▁اپلیکیشن	-10.2436
▁متناسب	-10.2437
▁بختیار	-10.2439
▁عفونت	-10.2439
▁کمرنگ	-10.2441
▁متقاضی	-10.2442
▁جلسات	-10.2442
▁ترسیم	-10.2444
▁زنگنه	-10.2444
▁حاکم	-10.2446
▁تلگرام	-10.2447
▁استرازنکا	-10.2448
▁رمزارز	-10.2449
▁ثروت	-10.245
▁تخلفات	-10.2452
▁دایناسور	-10.2459
▁برقی	-10.246
▁مقیم	-10.2474
▁مطالعات	-10.2475
▁قریب	-10.2477
▁جن	-10.2478
▁نمکی	-10.248
▁نکند	-10.2481
▁ضرورت	-10.2489
▁تروریستی	-10.2503
▁عبدی	-10.2504
▁عطرساز	-10.2505
کر	-10.2505
▁خانوارهای	-10.2511
▁ایرانیان	-10.2511
عباس	-10.2526
شاخص	-10.253
▁نوید	-10.2532
▁اید	-10.2543
▁اشک	-10.2547
▁شیش	-10.2548
▁پیکر	-10.2549
▁فدرال	-10.2558
▁میلیاردها	-10.2562
▁رساندن	-10.2565
▁شخص	-10.2565
▁دهک	-10.2577
نوبت	-10.2582
▁ویکتور	-10.2585
▁هاوس	-10.2587
▁شاهزاد	-10.2605
▁ژنتیک	-10.2607
▁کشند	-10.2612
گذاری	-10.2612
▁سیل	-10.2625
▁آوردن	-10.2629
▁رنج	-10.2658
▁مادران	-10.2658
▁قص	-10.2669
نیم	-10.2694
▁عمران	-10.2699
▁سیزدهم	-10.2702
▁کمال	-10.2706
▁فیلتر	-10.2718
▁ماهوار	-10.2724
▁آندر	-10.2728
▁اصطلاح	-10.2738
▁داروهای	-10.2745
▁جین	-10.2746
شدت	-10.2764
▁اقلی	-10.2772
▁پیک	-10.2778
▁فضانورد	-10.2794
کدام	-10.2805
▁بازماند	-10.2816
▁منار	-10.2816
▁ری	-10.2827
▁همکاران	-10.2828
▁منتف	-10.2833
▁خوا	-10.2846
▁خوشحال	-10.2848
▁فلسفه	-10.2863
▁تدابیر	-10.2863
▁رستوران	-10.2863
▁محوطه	-10.2863
▁مدیترانه	-10.2863
▁استخدام	-10.2863
▁بنیانگذار	-10.2863
▁سایپا	-10.2864
▁انبوه	-10.2864
▁تایلند	-10.2864
▁خلاقیت	-10.2864
عنوان	-10.2868
▁برساند	-10.2869
▁رمزارزها	-10.287
▁ذکر	-10.287
▁جانسون	-10.2871
▁علامت	-10.2871
▁پیشتاز	-10.2872
▁ونیز	-10.2874
خته	-10.2874
▁استراحت	-10.2876
▁رابرت	-10.2878
▁قرص	-10.2879
▁همسایه	-10.2879
▁تالاب	-10.2884
▁طنز	-10.2886
▁اشرف	-10.2888
▁احت	-10.2888
▁دستیابی	-10.289
▁مداوم	-10.289
غال	-10.2894
▁سرگرم	-10.2898
▁ناجی	-10.2899
▁نم	-10.2902
▁منچسترسیتی	-10.2906
▁عضلا	-10.2909
▁لیگا	-10.2918
▁خریداران	-10.2921
▁خبرهای	-10.2923
▁پایدار	-10.2925
▁کیهان	-10.2932
▁صرفا	-10.2935
راه	-10.2939
رقابت	-10.2944
▁آبادی	-10.2955
▁فلز	-10.2974
حالا	-10.2979
▁مبادل	-10.2987
▁وقفه	-10.2991
▁بازگشا	-10.2994
نواک	-10.2994
▁سالها	-10.301
▁همچ	-10.3014
لوله	-10.302
▁اح	-10.3028
▁گریز	-10.3031
▁تقویم	-10.3042
▁ریاض	-10.3065
▁فراری	-10.3067
▁رحم	-10.308
▁دیر	-10.3092
هالی	-10.3096
▁پارسی	-10.3102
▁۷۲	-10.3106
▁فقیر	-10.3107
▁تابلوی	-10.3111
▁نشت	-10.3121
▁ساک	-10.3133
▁عم	-10.3139
▁نان	-10.3162
اش	-10.317
موند	-10.3185
▁خواندن	-10.3185
▁تبلیغاتی	-10.3187
▁سپر	-10.3191
شهر	-10.3202
▁محور	-10.3216
زن	-10.3221
▁استاین	-10.3229
▁سین	-10.3247
▁یکصد	-10.3248
ونگ	-10.3251
زکی	-10.3254
▁ثروتمند	-10.3263
▁میل	-10.3263
▁۳۶	-10.3272
▁اظهارنظر	-10.3278
▁مزار	-10.3281
▁برزیلی	-10.3289
▁صعودی	-10.3292
▁مشتری	-10.3293
▁فیلیپ	-10.3306
▁سحر	-10.3309
▁میر	-10.3311
خی	-10.3312
▁امن	-10.3312
آوری	-10.3315
پل	-10.3315
▁امتحان	-10.3318
▁بنگلادش	-10.3318
▁پرطرفدار	-10.3318
▁اشتراک	-10.3318
▁سئوال	-10.3318
▁ثامن	-10.3318
▁تماشاچی	-10.3322
▁زیارت	-10.3323
▁مقرر	-10.333
▁اکتشاف	-10.3332
▁نادرست	-10.3332
▁غیاب	-10.3335
▁مفهوم	-10.3337
رق	-10.3342
▁عروسک	-10.3343
▁سادات	-10.3343
▁احساسات	-10.3344
▁ابعاد	-10.3346
▁طلایی	-10.3353
▁روسا	-10.3354
▁۲۰۲	-10.3357
▁کیانوش	-10.3361
▁آبادان	-10.3361
▁جنایت	-10.3361
▁طرز	-10.3365
▁سربازان	-10.3373
▁ولز	-10.3376
▁آیند	-10.3378
▁روزگار	-10.3382
▁بمب	-10.3392
قه	-10.3394
اولین	-10.3401
▁زانو	-10.3403
تمرکز	-10.3409
▁دانم	-10.3411
▁بشار	-10.3412
▁گردند	-10.3427
شد	-10.3428
▁گم	-10.3431
▁گروگانگیر	-10.3439
خارجه	-10.3441
▁ریخت	-10.3446
▁اعتراضی	-10.3448
▁زور	-10.3466
دانشمندان	-10.3467
▁عزیزی	-10.3477
▁کوچکتر	-10.3484
▁نوی	-10.3493
▁جهانگیری	-10.3494
▁فرید	-10.3502
گن	-10.3511
ظهر	-10.3512
احض	-10.3514
▁اعضا	-10.3517
▁۴۶	-10.3526
▁۶۷	-10.3539
▁ایرلند	-10.3542
▁آنک	-10.3556
▁غ	-10.3583
مرث	-10.3584
رای	-10.3596
▁بستن	-10.3598
▁سراغ	-10.3603
▁شبه	-10.3605
وفر	-10.3606
▁نسبتا	-10.3606
مل	-10.3618
سر	-10.3634
جاسوسی	-10.3637
ذ	-10.3644
▁گفتگوی	-10.3646
▁ظهر	-10.3647
وب	-10.3652
▁انبار	-10.366
▁صحن	-10.3663
▁مهمان	-10.3671
▁شهردار	-10.3675
▁رش	-10.3677
تنش	-10.3679
▁سای	-10.3686
▁استعفای	-10.3688
ستون	-10.3695
سل	-10.3696
▁کشی	-10.3702
▁قراردادش	-10.3722
▁شه	-10.3725
▁بوک	-10.3727
لحق	-10.3749
▁برکناری	-10.3761
▁اخطار	-10.3765
▁وقف	-10.3766
▁کما	-10.3767
▁هنرها	-10.3783
▁اوا	-10.3785
▁شانه	-10.3787
▁پالایش	-10.3793
▁مایکروسافت	-10.3794
▁تعقیب	-10.3794
▁وقایع	-10.3794
▁نوشیدن	-10.3794
▁متاثر	-10.3795
▁بگویم	-10.3795
▁مرجع	-10.3795
▁خوشنام	-10.3796
▁۱۹۹۰	-10.3797
▁مهرماه	-10.3798
▁ساویز	-10.3799
▁ببینند	-10.38
▁۸۰۰	-10.3802
▁۲۰۰۳	-10.3803
▁شمارش	-10.3804
▁ترانزیت	-10.3804
▁پلاک	-10.3806
جو	-10.3807
▁جالب	-10.3808
▁بامداد	-10.3809
▁مقصر	-10.3811
▁ستارگان	-10.3813
▁شاگردان	-10.3821
▁مرخص	-10.3821
ناد	-10.3821
▁دیدگاه	-10.3821
▁طرفدار	-10.3822
▁ستایش	-10.3825
▁برلین	-10.3834
▁آشفت	-10.3837
▁تفاهم	-10.3838
▁صبر	-10.384
▁پوش	-10.384
▁تیرماه	-10.3841
▁عصب	-10.3842
▁عضوی	-10.3846
▁کشت	-10.3849
▁دف	-10.3854
▁کرو	-10.3857
▁شریک	-10.3864
▁صنف	-10.3866
▁ابوال	-10.3868
▁کابین	-10.387
▁اعتیاد	-10.3877
▁قوس	-10.3881
▁وحید	-10.3884
▁لیور	-10.3886
▁مصون	-10.3894
▁خدا	-10.3904
▁قدمت	-10.3906
▁شمسی	-10.3908
▁آگاهی	-10.3908
▁رویای	-10.391
استقلال	-10.3917
▁رادیویی	-10.3918
چین	-10.3921
▁اسپوت	-10.3922
▁تروی	-10.3932
▁بدل	-10.394
اول	-10.3945
ختم	-10.3948
▁شو	-10.3951
▁فراگیر	-10.3954
احمد	-10.3961
وطن	-10.3968
▁استخر	-10.3969
▁راند	-10.3971
▁توفیق	-10.3974
▁اصول	-10.3974
▁سکونت	-10.3979
▁مستق	-10.3989
▁۱۳۵	-10.3994
▁اوست	-10.4009
عادل	-10.4019
▁داروها	-10.4019
نت	-10.4021
قات	-10.4023
▁تحقیقی	-10.4024
▁جبه	-10.4028
پرو	-10.4031
▁تابلو	-10.4035
▁انتقادها	-10.4036
▁حدی	-10.4041
▁قند	-10.4042
▁تورمی	-10.4061
▁نجف	-10.4063
▁بهرام	-10.4074
▁آلن	-10.4076
▁دقت	-10.4076
▁دونده	-10.4078
▁کشیدن	-10.4085
▁نژادی	-10.4089
▁نامزدها	-10.409
شار	-10.4104
▁شکار	-10.4104
▁شر	-10.4107
التی	-10.4114
▁داوطلب	-10.4114
▁زیبا	-10.4116
▁گلزن	-10.4135
۳۰	-10.4143
▁ملا	-10.4148
▁هوادار	-10.415
▁حو	-10.4153
▁اختلا	-10.4156
▁اوکراینی	-10.4158
▁سان	-10.416
▁فلیک	-10.416
▁ور	-10.4162
▁دورت	-10.4164
▁بینند	-10.4191
▁خالص	-10.4199
برگ	-10.4201
هار	-10.4216
▁کلام	-10.4225
▁علیر	-10.4226
▁روستای	-10.4243
▁رس	-10.4244
▁صالحی	-10.4245
▁وب	-10.4251
▁حافظ	-10.426
ناف	-10.4265
▁شعب	-10.4271
▁مخصوص	-10.4291
▁اعتقاد	-10.4294
▁منتخب	-10.4294
▁بندرعباس	-10.4295
▁پشتیبان	-10.4295
▁راموس	-10.4295
▁تجلیل	-10.4295
▁مفید	-10.4296
▁۱۳۹۶	-10.4296
▁پاکبان	-10.4296
▁آرامگاه	-10.4298
▁مسایل	-10.4298
▁مخابرات	-10.4298
بعد	-10.4299
▁لزوم	-10.43
▁بزنند	-10.4301
▁مسکونی	-10.4301
▁برگردد	-10.4302
▁مخدر	-10.4302
▁متعهد	-10.4303
▁منزل	-10.4306
کم	-10.4307
وان	-10.4308
▁تسلیم	-10.4308
▁مرگبار	-10.4315
▁ویل	-10.4318
▁نکنند	-10.432
▁رتکلیف	-10.432
▁ماهیگیر	-10.4322
▁رضایت	-10.4323
▁شایعات	-10.4327
▁غالب	-10.4328
جایی	-10.433
کول	-10.4332
حص	-10.4335
▁آموزان	-10.4335
▁یکسال	-10.4336
▁علاقمندان	-10.4336
وداع	-10.434
▁روبروست	-10.4341
▁موجودات	-10.4347
▁توضیحات	-10.4354
▁گیاهان	-10.4356
▁پیوستن	-10.4358
باشگاه	-10.4359
▁جمال	-10.4361
▁پراکند	-10.4366
▁دادسرا	-10.4378
یحی	-10.4379
▁روزی	-10.4384
وجود	-10.4388
▁خشکسالی	-10.4389
▁آگ	-10.4397
مالاریا	-10.4401
خانواده	-10.441
▁حرم	-10.441
▁زنج	-10.4417
▁بس	-10.4423
▁پرهی	-10.4429
▁۱۳۷	-10.4433
▁کشتار	-10.444
▁آمدند	-10.4445
▁فروشی	-10.4449
لیورپول	-10.4452
رعه	-10.4454
▁ات	-10.446
▁رم	-10.4471
▁کشاند	-10.4473
▁روب	-10.4473
▁تای	-10.4488
▁۶۲	-10.4489
رسان	-10.4504
لاک	-10.4511
▁تش	-10.4514
▁مون	-10.4514
ودی	-10.4517
▁بل	-10.4528
▁اذ	-10.4533
▁افکاری	-10.454
ازی	-10.4544
▁۳۵۰	-10.455
▁ساختن	-10.4558
▁خریده	-10.4574
▁نرسید	-10.4579
برنامه	-10.4584
وف	-10.4585
▁کاغذ	-10.4588
▁تاریک	-10.4589
▁افکار	-10.4592
شاید	-10.4593
▁نظم	-10.4603
▁عکسی	-10.4605
▁نامدار	-10.4607
▁حداد	-10.4616
▁مب	-10.4623
یژن	-10.4646
گل	-10.4658
ماهی	-10.4685
▁سینماها	-10.472
▁تصویری	-10.4726
▁ساختار	-10.4731
زیگ	-10.4737
شید	-10.4746
▁ابزار	-10.4748
▁۹۰۰	-10.476
▁بشری	-10.4766
▁بوش	-10.4767
▁جانور	-10.4768
▁خارا	-10.4769
▁فیل	-10.477
▁تحری	-10.4777
▁مرگش	-10.4794
▁دردسر	-10.4797
▁گرفتار	-10.481
▁تفریح	-10.4811
فی	-10.4813
▁ربات	-10.4816
▁زریاب	-10.482
▁تضمین	-10.482
▁شارژ	-10.482
▁اصرار	-10.482
▁ابتکار	-10.482
▁قزاق	-10.482
▁شلوغ	-10.4821
▁بلوچ	-10.4821
▁اکسید	-10.4823
▁زغال	-10.4823
▁سردبیر	-10.4824
▁شاعران	-10.4824
▁لنون	-10.4825
▁کلینیک	-10.4825
▁کووید۱۹	-10.4825
خر	-10.4832
▁متشک	-10.4832
▁دانشکد	-10.4832
▁مبادلات	-10.4834
▁استراتژیک	-10.4835
نظرسنجی	-10.4836
▁غرق	-10.4839
ساب	-10.484
▁چراغ	-10.4848
▁صحیح	-10.4848
ایش	-10.4852
▁تکنولوژی	-10.4852
▁سیاستمداران	-10.4862
▁دشمنان	-10.4862
▁وجه	-10.4864
▁گرگ	-10.4867
▁مارتین	-10.487
▁۶۴	-10.4873
▁ایستاد	-10.4877
▁دشت	-10.4881
▁رایج	-10.4882
▁خالق	-10.4899
▁دارید	-10.4903
▁درختان	-10.4908
▁اندازد	-10.4912
▁ایرج	-10.4913
بت	-10.4914
▁همرسان	-10.4924
▁نیما	-10.4934
نز	-10.4936
▁سگ	-10.4939
▁۵۹	-10.494
▁فل	-10.4943
▁مرتب	-10.4943
▁شیلی	-10.4947
▁حکمتی	-10.4948
▁شاپو	-10.4957
▁نیافت	-10.4962
▁آمریکاست	-10.4965
▁مسیحی	-10.4971
تب	-10.4979
رهای	-10.4979
▁گزارشگران	-10.498
▁لاری	-10.4993
▁جاسوس	-10.5003
▁شدم	-10.5009
▁موازی	-10.501
کان	-10.5012
▁انیس	-10.5013
▁اریک	-10.502
▁حریفان	-10.5033
اتحاد	-10.5036
معاون	-10.5044
▁واسط	-10.5046
پژوهشگران	-10.5051
وار	-10.5056
اخیرا	-10.5066
ژه	-10.5068
▁آرا	-10.5075
وپن	-10.5076
یلی	-10.5082
۱۱	-10.5083
▁پلی	-10.5088
▁اپرا	-10.509
اع	-10.5107
▁پروان	-10.5114
▁آقا	-10.5118
▁صادراتی	-10.5123
وات	-10.5126
▁ناصر	-10.5134
▁تند	-10.5138
▁گفتگوها	-10.514
سیویر	-10.514
▁مهاجمان	-10.5142
ایت	-10.5144
▁روبرت	-10.5146
آبادی	-10.5146
▁سیزده	-10.5147
دون	-10.5152
▁سم	-10.5159
▁ارا	-10.5161
▁شوهر	-10.5163
صوفی	-10.5165
▁نوشتن	-10.5166
یعن	-10.5166
اج	-10.5175
لک	-10.5189
▁شریف	-10.5192
▁مرس	-10.5211
▁نداد	-10.5221
الی	-10.5232
▁۱۳۸	-10.5232
▁دهان	-10.5243
حافظه	-10.5254
▁ضعیف	-10.5255
▁وحشی	-10.5255
وله	-10.5258
ناز	-10.5259
ندی	-10.5265
امیر	-10.5267
مهدی	-10.5285
کمیت	-10.5285
▁ناو	-10.5285
▁سرو	-10.5291
اتی	-10.5302
خیم	-10.5303
▁صح	-10.5309
▁باستان	-10.531
▁تثب	-10.532
▁درآورد	-10.5322
▁ابرا	-10.5326
▁دروغ	-10.5329
▁مامور	-10.5329
▁دشمن	-10.5334
▁مکرر	-10.5335
▁تم	-10.5353
▁دژپسند	-10.5376
▁کارداشیان	-10.5376
▁دریابندری	-10.5376
▁صداوسیما	-10.5376
▁اوباما	-10.5376
▁بیفتد	-10.5376
▁ناچار	-10.5376
▁شباهت	-10.5376
▁اخلال	-10.5377
▁روشنفکر	-10.5377
▁آسمایی	-10.5378
▁آشوری	-10.5378
▁بگوییم	-10.5378
ژانس	-10.5379
▁خفیف	-10.538
▁بگیریم	-10.5381
▁کوهستان	-10.5382
▁اردوگاه	-10.5382
▁مادو	-10.5382
▁مداخل	-10.5386
جوبی	-10.5386
▁فروپاشی	-10.5386
▁نشیب	-10.5387
▁توجیه	-10.539
▁قطار	-10.5391
▁ولسوال	-10.5391
▁تعبیر	-10.5392
▁وصل	-10.5393
▁مولوی	-10.5394
ضعف	-10.5394
▁هشتگ	-10.5394
▁جابجا	-10.5402
▁نهاده	-10.5409
▁بلومبرگ	-10.541
▁توخل	-10.541
▁کمپین	-10.541
▁نزول	-10.5414
▁پناهجویان	-10.5416
▁بقایای	-10.5417
خاطر	-10.5421
▁سکوت	-10.5422
درصد	-10.543
بهار	-10.5431
▁اسک	-10.5433
▁وزارتخانه	-10.5437
▁شرمن	-10.5443
▁مسکو	-10.5443
▁مقدم	-10.5447
صورت	-10.5454
وزرای	-10.5458
▁زو	-10.5459
▁همکارانش	-10.5461
شیبا	-10.5462
▁تعجب	-10.5473
▁رصد	-10.548
▁صفحات	-10.5483
مانده	-10.5487
▁حاجی	-10.5492
▁تقابل	-10.5493
▁رئیسی	-10.5494
▁سعد	-10.5503
▁پناهندگ	-10.5503
▁نداشتن	-10.5504
▁نمادهای	-10.5504
▁ناآرامی	-10.5506
شیوع	-10.5508
▁چوب	-10.552
واسط	-10.552
بویایی	-10.552
نک	-10.5522
▁افشار	-10.5522
▁برادرش	-10.5537
▁اسد	-10.5538
▁مقا	-10.5548
بازی	-10.5548
▁پیرو	-10.555
دور	-10.557
▁اندیش	-10.5577
▁تصمیمات	-10.5578
▁پسرش	-10.558
مدت	-10.5583
تیک	-10.5585
▁فیلمبردار	-10.5585
▁نیوک	-10.5589
رین	-10.5611
▁یافتند	-10.5622
▁رغ	-10.5626
یشب	-10.5631
▁پالایشگاهی	-10.5632
قی	-10.5637
▁کیست	-10.5637
▁گنج	-10.5639
▁۱۵۰۰	-10.5641
▁سختگیر	-10.5641
عکس	-10.5644
▁شدیدتر	-10.5644
دادگاه	-10.5655
▁بران	-10.566
سن	-10.5663
زا	-10.5679
▁فوریت	-10.5697
▁بازارها	-10.5704
▁زخم	-10.5704
▁رزم	-10.5722
▁ویلا	-10.5729
▁محدودیتها	-10.5734
یخ	-10.5746
▁شناسان	-10.5754
۱۳	-10.5761
▁منطق	-10.5763
▁سام	-10.5781
یاس	-10.5789
▁تقدی	-10.5793
▁خرابکار	-10.581
▁بها	-10.5819
▁شهیدی	-10.5828
▁ارد	-10.5833
▁ژن	-10.5835
▁راک	-10.5837
▁تلف	-10.584
دیگر	-10.5849
▁مقطع	-10.5858
زار	-10.586
اسل	-10.5876
دگان	-10.5877
▁انگشت	-10.5883
فاد	-10.5885
▁قض	-10.5891
▁الزام	-10.5896
▁دنی	-10.5898
نوایی	-10.59
مد	-10.5911
سو	-10.592
گو	-10.5927
▁۱۳۶	-10.5937
▁پستی	-10.5938
گفت	-10.5942
▁خودروی	-10.5943
واک	-10.5952
▁تحقیر	-10.5956
▁آغداشلو	-10.5964
▁اپیدمی	-10.5964
▁بدخشان	-10.5964
▁کانسپت	-10.5964
▁تأیید	-10.5964
▁دماوند	-10.5964
▁آموزگار	-10.5965
▁تتلو	-10.5965
▁معدود	-10.5966
▁منفجر	-10.5966
▁خیانت	-10.5966
▁۱۳۹۵	-10.5967
▁مواضع	-10.5967
▁وفادار	-10.5968
گراندپری	-10.5969
▁ارزشمند	-10.5969
▁۲۰۳۰	-10.5971
▁خزر	-10.5971
▁بمانند	-10.5971
▁آرشیو	-10.5972
▁ناشناخت	-10.5973
▁لبخند	-10.5974
▁بروکسل	-10.5974
▁ندارم	-10.5977
▁زیستگاه	-10.5978
▁تسلیت	-10.5978
▁ایرباس	-10.598
▁خسارات	-10.5981
وازه	-10.5982
▁مدرک	-10.5984
▁گرایش	-10.5985
▁خرند	-10.5997
▁جاشوا	-10.5997
▁خرسند	-10.5998
▁داریوش	-10.6001
▁بافت	-10.6002
▁دهندگان	-10.6005
▁مرتضی	-10.6009
کتب	-10.601
▁اضطراب	-10.601
▁همینطور	-10.6025
▁دیپلمات	-10.6026
▁عقل	-10.6036
لر	-10.6042
▁پیشرو	-10.6042
▁مهاجران	-10.6044
▁شوید	-10.6048
آمیز	-10.6048
▁شناسند	-10.6059
وریس	-10.6061
▁خواندند	-10.6069
▁برنز	-10.6069
▁گازی	-10.6071
▁خودران	-10.6076
▁اما	-10.6078
▁ثروتمندتر	-10.6079
▁هواپیماهای	-10.6087
اینها	-10.6088
▁نوزدهم	-10.6089
▁هلی	-10.6093
کینگ	-10.6113
▁چی	-10.6115
▁کتی	-10.6115
زمان	-10.6118
▁ماز	-10.6122
▁لوان	-10.6136
▁ژوز	-10.6141
فن	-10.6152
▁عالمی	-10.6158
منه	-10.6161
▁زم	-10.6162
▁هرگ	-10.6162
سانه	-10.6163
▁انتقادات	-10.617
اوی	-10.617
▁سارا	-10.6177
▁خواهر	-10.6182
▁مسیرهای	-10.6185
مدیر	-10.6186
▁گرمای	-10.6188
▁کاست	-10.619
▁کامپیوتری	-10.6193
مراسم	-10.6194
▁۴۱	-10.6199
▁جنس	-10.6206
▁مارچ	-10.6214
انتظار	-10.6216
صندوق	-10.6224
▁دیدارهای	-10.6225
هز	-10.6231
مرکز	-10.6231
محققان	-10.6254
▁استودیو	-10.6256
آنتونی	-10.626
▁گلزنی	-10.6277
▁مشت	-10.631
▁نظرات	-10.6314
▁کنسول	-10.6314
ریک	-10.6315
▁خال	-10.6317
▁برگ	-10.6321
▁اسحاق	-10.6338
▁اجبار	-10.6344
▁نروژ	-10.6344
▁پروازها	-10.6353
حمید	-10.6356
آمار	-10.6367
▁فا	-10.6375
▁دوازده	-10.6398
▁کوبا	-10.6415
▁افسر	-10.6416
▁تخیل	-10.6417
▁روستا	-10.6426
▁قراردادهای	-10.6427
فلاتو	-10.6428
شاه	-10.6431
حل	-10.6433
۱۵	-10.6445
دام	-10.6471
▁ایراد	-10.6488
ارغ	-10.6496
▁تغییری	-10.65
▁کاظم	-10.651
تلاف	-10.6516
▁اوین	-10.6517
▁۹۳	-10.6518
▁منصو	-10.652
▁پیمانکار	-10.6522
وایی	-10.6532
▁ظه	-10.6548
▁پارس	-10.6551
▁قطبی	-10.656
▁مکزیک	-10.6568
▁مأمور	-10.6581
▁ایر	-10.6582
▁آتالانتا	-10.6589
▁ارکستر	-10.6589
▁تورنتو	-10.6589
▁مکتوب	-10.6589
▁امیرشاهی	-10.6589
▁یونسکو	-10.6589
▁کمبریج	-10.659
▁اعصاب	-10.6591
▁بیاورد	-10.6592
▁مطلوب	-10.6592
▁بکشند	-10.6592
▁اعتراف	-10.6593
▁۱۹۷۰	-10.6594
▁تکنیک	-10.6595
▁مختل	-10.6595
▁۱۹۴۰	-10.6596
▁معارف	-10.6599
▁بدانند	-10.6601
▁بوکسور	-10.6605
▁آغوش	-10.6605
▁ببیند	-10.6606
▁کریسمس	-10.6606
▁لامبورگینی	-10.6607
▁زودهنگام	-10.6607
▁استراتژی	-10.6608
▁۲۰۰۴	-10.6608
▁عقرب	-10.6608
▁یادبود	-10.6609
▁رفاه	-10.6614
▁خلو	-10.6616
▁پراید	-10.6618
▁گرمایش	-10.6619
▁گشود	-10.6622
▁ضدحمل	-10.6622
▁ترافیک	-10.6623
▁انتقادهای	-10.6626
▁رولینگ	-10.6627
▁مردگان	-10.6629
سئول	-10.6633
▁درس	-10.6635
▁دارا	-10.6643
صخره	-10.6646
▁بنیادی	-10.6647
قص	-10.6656
▁اپل	-10.6661
▁چهاردهم	-10.6666
▁گرسنگ	-10.6667
دین	-10.6668
▁باشم	-10.6669
▁محکم	-10.667
▁ضربات	-10.6675
رگ	-10.6679
▁گوی	-10.6683
▁جزیی	-10.669
▁رفتارهای	-10.6693
▁ریزش	-10.6694
دوف	-10.6696
▁پرسی	-10.6712
▁یکسان	-10.6725
▁پوشاند	-10.6732
▁بولت	-10.6732
▁بلوک	-10.6735
زده	-10.6736
▁عل	-10.6742
▁شهید	-10.675
▁شادی	-10.6754
▁پرتر	-10.6763
▁لح	-10.6773
▁نیو	-10.6777
▁پرآ	-10.6779
▁۷۴	-10.6787
▁همانند	-10.6792
▁الیز	-10.6793
عی	-10.6796
▁۸۲	-10.6804
▁خیال	-10.6809
انصراف	-10.6809
▁کردستان	-10.6818
▁شانزدهم	-10.6822
▁پائی	-10.6824
▁منصور	-10.6829
▁گانه	-10.6829
▁مصاد	-10.6831
▁اشیا	-10.6832
▁دانشجویی	-10.6835
▁بورگ	-10.6838
▁قرض	-10.6855
▁روزمر	-10.6858
▁ایمان	-10.686
جمه	-10.6863
گبا	-10.6865
نمایندگان	-10.687
▁جوز	-10.6871
▁سومی	-10.6874
منابع	-10.6882
▁نورد	-10.6884
یچ	-10.6884
▁۱۷۶	-10.6895
▁غم	-10.6899
▁زحمت	-10.6901
چرا	-10.6902
نو	-10.6905
▁وزرا	-10.6907
▁اسپ	-10.6914
سایه	-10.6915
هدف	-10.6915
گه	-10.6916
▁درخش	-10.6926
▁روستایی	-10.6927
علیرضا	-10.693
▁مهندس	-10.6932
تراشه	-10.6943
▁۱۹۴	-10.6957
فدرر	-10.6959
▁میز	-10.6959
یمز	-10.6971
▁سازد	-10.6972
انا	-10.6974
▁کمتری	-10.7008
▁ناامید	-10.701
▁برگشته	-10.7014
▁زبا	-10.7014
▁شیمی	-10.7021
▁دعوا	-10.7021
▁گزارشها	-10.7022
▁لخت	-10.7028
اطم	-10.7033
فون	-10.704
▁ادب	-10.7056
▁منصوری	-10.7061
▁ذخا	-10.7068
▁خانواد	-10.7072
علاو	-10.7076
انس	-10.709
روج	-10.71
▁کرام	-10.7102
گون	-10.7103
▁ترکمن	-10.7109
▁قومی	-10.7137
▁مالکان	-10.7137
▁درخشانی	-10.7159
▁سیام	-10.7166
مرگ	-10.719
▁درگذشته	-10.7194
▁بینیم	-10.7196
دهنده	-10.7198
▁کلان	-10.7207
▁دستاورد	-10.7213
▁ماهها	-10.7213
▁مغاز	-10.7224
▁کمربند	-10.7225
▁پیچ	-10.7232
▁عا	-10.724
راب	-10.7243
الله	-10.7245
▁خانوار	-10.7248
▁اک	-10.7249
▁معیار	-10.7252
▁فزاینده	-10.7256
▁واضح	-10.7256
▁باورنکردنی	-10.7256
▁وحدت	-10.7256
▁پیرامون	-10.7256
▁دادگستری	-10.7256
▁مضاعف	-10.7256
▁ورشکست	-10.7256
▁آوازخوان	-10.7256
▁گلمکانی	-10.7256
▁مصلحت	-10.7257
▁محترم	-10.7257
▁سوگوار	-10.7257
▁زیرساخت	-10.7257
▁سایبری	-10.7258
▁آویو	-10.7258
▁آشام	-10.7261
▁بپردازد	-10.7261
▁بگذارند	-10.7261
▁بفتا	-10.7261
▁بگیرید	-10.7262
▁۱۹۹۸	-10.7262
▁احکام	-10.7267
▁۱۴۰	-10.7268
▁ناقض	-10.7268
▁پررنگ	-10.727
▁مقر	-10.7272
▁انستیتو	-10.7273
▁حباب	-10.7274
▁تلسکوپ	-10.7275
▁حساسیت	-10.7276
لاشه	-10.7278
▁۱۹۸۰	-10.728
▁نیسان	-10.7281
▁الحسن	-10.7283
رکاب	-10.7283
▁ضایع	-10.7286
▁هستید	-10.7287
▁ناتوان	-10.7289
▁۶۸	-10.7291
▁ادار	-10.7293
▁نارس	-10.7295
▁۵۸	-10.7299
▁دستاوردهای	-10.7299
▁نشانی	-10.7301
▁عارف	-10.7301
▁پیر	-10.7302
▁متنوع	-10.7303
▁نمادی	-10.7304
▁بازخوان	-10.7305
▁سانتریفیوژهای	-10.731
غذی	-10.7311
اداری	-10.7317
▁رضایی	-10.7323
لم	-10.7325
▁زنجان	-10.7329
▁استونز	-10.7335
▁سنبل	-10.7336
▁نکردند	-10.7337
▁ماریا	-10.7342
▁رت	-10.7343
▁انتخابی	-10.7344
سابقه	-10.7346
▁دهید	-10.735
▁خران	-10.7354
▁رسول	-10.7355
▁نکات	-10.7357
▁بردارد	-10.7363
▁فیس	-10.7365
▁۵۳	-10.7367
▁فضانوردان	-10.7368
▁رساندند	-10.7372
▁دیوی	-10.738
نیا	-10.7383
هنورد	-10.7384
▁نوار	-10.7387
▁انتقالات	-10.7396
▁نوآور	-10.74
▁سلام	-10.74
▁حتما	-10.7403
▁بوئنو	-10.7406
▁فرض	-10.742
کاهش	-10.7421
دترا	-10.7431
مجلس	-10.7432
▁داشتیم	-10.7439
کرد	-10.7449
▁۵۴	-10.745
▁کول	-10.7461
▁جلالی	-10.747
هرانا	-10.7473
بینی	-10.7476
▁وجو	-10.7476
هدیه	-10.7478
▁سوئ	-10.748
رونمای	-10.7487
▁اکس	-10.7489
▁بارداری	-10.7493
▁رویه	-10.7498
▁پستان	-10.75
تاسف	-10.7501
▁سرا	-10.7504
▁رانت	-10.7509
▁کودتای	-10.7515
▁طب	-10.7515
▁آرزوی	-10.7521
ایدو	-10.7529
مپ	-10.7536
▁حاد	-10.7543
▁کاس	-10.7556
▁انجامید	-10.7556
اقتصاد	-10.7556
▁سید	-10.7557
▁پیا	-10.7566
▁تاریکی	-10.7576
▁سالان	-10.7582
وارد	-10.7584
▁جهاد	-10.759
تیکو	-10.7592
بانی	-10.7603
مارادونا	-10.7607
▁گال	-10.7626
فعالان	-10.7631
▁کارگردانان	-10.7634
▁فین	-10.7643
▁تیل	-10.7649
ایب	-10.7652
کوبی	-10.7656
▁فرج	-10.7674
▁بدین	-10.7679
▁خطای	-10.7685
رنج	-10.769
▁سلطانی	-10.77
▁کامپیوتر	-10.7706
خبر	-10.7725
▁مدتها	-10.7737
▁صفرها	-10.7737
▁دخترش	-10.774
ناظر	-10.7745
▁ذهنی	-10.7746
امضاکنندگان	-10.7748
فته	-10.7748
▁برداشتن	-10.775
شماری	-10.7761
راجر	-10.7767
▁بریت	-10.777
▁استون	-10.7772
همه	-10.7775
▁دانشگاهی	-10.7782
▁لیس	-10.779
▁واحدها	-10.7794
▁فی	-10.7798
▁تابو	-10.78
▁سون	-10.7802
اثبات	-10.7812
▁روال	-10.7813
تولید	-10.782
▁۴۷	-10.782
▁آفرین	-10.7824
▁بزرگتر	-10.7841
▁آنتی	-10.7854
رخی	-10.7869
▁کاریر	-10.7874
راتی	-10.7879
▁همتای	-10.7882
▁برف	-10.7891
▁۱۳۹	-10.7891
▁جست	-10.7903
فصل	-10.7906
▁پاهای	-10.7908
▁نک	-10.7909
اکثریت	-10.7909
▁آمریکای	-10.7913
▁۷۸	-10.7917
اقد	-10.7917
▁جزای	-10.7918
▁شنیدن	-10.7927
▁۱۹۰	-10.7931
اف	-10.7939
▁سرنشین	-10.7945
کت	-10.7951
▁شاهکار	-10.7952
▁فرانک	-10.7953
▁منظر	-10.7953
▁ناب	-10.7954
ایح	-10.7955
▁جعل	-10.7956
▁پناه	-10.7959
▁اخلاق	-10.7963
▁جامائیکا	-10.797
▁دگرگون	-10.797
▁زاناردی	-10.797
▁اتوبوس	-10.797
▁بوچانی	-10.797
▁سرتاسر	-10.797
▁غرامت	-10.797
▁کادرفنی	-10.797
▁وروورت	-10.797
▁مشکوک	-10.797
▁آسوشیتدپرس	-10.797
▁تخفیف	-10.797
▁پلامر	-10.797
▁مشکات	-10.797
▁ببینیم	-10.7971
▁نوازنده	-10.7972
▁قائدی	-10.7972
▁گوگ	-10.7972
▁معافیت	-10.7974
▁جاهای	-10.7975
▁پنگوئن	-10.7975
▁تعمیر	-10.7975
▁ثانوی	-10.7976
▁رولز	-10.7976
▁طعم	-10.7976
نوش	-10.7977
بون	-10.798
▁آمبول	-10.7981
▁حاکمیت	-10.7981
فینیتی	-10.7982
▁رنجر	-10.7983
▁انصاریان	-10.7983
▁ادارات	-10.7986
▁پرستاران	-10.7989
▁مرکل	-10.799
▁توفان	-10.799
▁غیرنظامی	-10.7991
▁خراب	-10.7993
▁بیروت	-10.7997
▁استفانو	-10.7997
▁ابهام	-10.7998
▁تبعید	-10.8
▁کانادایی	-10.8004
▁سارس	-10.8006
▁گلایه	-10.8007
▁تندرو	-10.8008
تکب	-10.801
▁معوقه	-10.8012
صره	-10.8017
صف	-10.8018
▁۹۴	-10.802
▁اعتنا	-10.802
▁تبادل	-10.8024
▁آرمان	-10.8025
▁محض	-10.8027
▁گرفتم	-10.8027
شا	-10.8028
▁گودال	-10.8029
▁پستاندار	-10.8032
باب	-10.8034
▁سالیوان	-10.8036
▁ندیده	-10.8037
▁مغ	-10.8041
▁ماهشهر	-10.8042
▁تمدن	-10.8044
▁پرند	-10.8045
▁لوو	-10.8045
رخ	-10.8047
▁شغلی	-10.8048
▁عزم	-10.805
▁صریح	-10.8053
▁نویسندگ	-10.8054
نصف	-10.8056
▁قبال	-10.8059
▁لاپورتا	-10.8059
ظیف	-10.8061
شش	-10.8074
چهار	-10.8074
▁بالگرد	-10.8076
▁کاربرد	-10.8083
▁آرش	-10.8088
▁نمانده	-10.8089
▁ندانست	-10.81
▁فضلی	-10.8102
▁رایزن	-10.8105
▁گذاشتند	-10.8107
چرخه	-10.8115
▁الگوی	-10.8119
▁قم	-10.8123
▁قطعات	-10.8124
مکعب	-10.8126
▁میهمان	-10.8127
▁سیر	-10.8133
عارض	-10.8135
▁مستقیما	-10.8135
▁کرج	-10.8142
▁ژو	-10.815
▁رسم	-10.8151
تنها	-10.8151
▁ریچارد	-10.8156
▁دنیاست	-10.816
رات	-10.8163
▁الکل	-10.8178
آغاز	-10.8184
مانع	-10.8193
▁خل	-10.8199
میم	-10.82
▁۱۹۷	-10.8208
▁پانزدهم	-10.8209
▁دوازدهم	-10.8216
▁زایی	-10.8218
▁مست	-10.8235
▁نزدیکان	-10.8241
▁۱۹۵	-10.8243
▁سکت	-10.8245
۹۹	-10.8269
حق	-10.8278
▁میلیاردر	-10.8281
▁افتادن	-10.8281
▁لیست	-10.8284
▁صاف	-10.8292
پرسپولیس	-10.8298
▁سطو	-10.8306
▁تدری	-10.8308
۲۰۰	-10.8311
وکی	-10.8317
▁ایکس	-10.8318
واکنش	-10.8326
برگزار	-10.8337
▁گیل	-10.834
▁نکردن	-10.834
خورده	-10.8348
▁اد	-10.8353
▁ویرجی	-10.8362
بادی	-10.8367
▁احساسی	-10.8369
خت	-10.838
پر	-10.8381
هام	-10.8382
چلسی	-10.8397
سب	-10.8406
▁پاکستانی	-10.8411
سرعت	-10.8414
ویر	-10.8416
رهبر	-10.8419
دالله	-10.8432
▁گردشگر	-10.8433
▁فردین	-10.8443
▁وار	-10.8444
▁دیو	-10.8449
۰۰۰	-10.845
▁فخر	-10.8451
▁مال	-10.8453
مجانی	-10.8453
▁میلاد	-10.8456
▁ارگ	-10.8457
▁اکبری	-10.8458
▁شانزده	-10.8462
▁دوش	-10.8466
▁۱۹۶۰	-10.848
▁چیزهای	-10.8487
▁جوش	-10.8493
▁۱۶۰	-10.8498
سیتی	-10.8504
فرج	-10.8505
▁بهانه	-10.8513
لاق	-10.8514
پاتی	-10.8527
▁موجودی	-10.8533
▁تار	-10.8534
▁نابود	-10.8536
▁هرکس	-10.8546
رود	-10.8549
▁خر	-10.8551
لیون	-10.8552
ندگان	-10.8552
▁جنگند	-10.8553
▁نق	-10.857
▁فال	-10.8572
لاتین	-10.8576
تاپ	-10.8588
▁ماری	-10.8597
▁نمود	-10.8611
▁بلو	-10.8612
طرف	-10.8616
یسون	-10.8631
▁دانشجوی	-10.8635
▁دربار	-10.8643
▁چاب	-10.8653
▁بینید	-10.8654
▁ساترا	-10.8655
کسین	-10.8657
▁شع	-10.8658
▁فروشند	-10.866
قرض	-10.8671
▁صدد	-10.8681
▁مصا	-10.8682
▁مشوق	-10.8699
▁شجاع	-10.8704
▁اعما	-10.8704
▁رخداد	-10.8708
▁مکاتب	-10.8717
▁رکوردهای	-10.8718
▁بدنی	-10.8729
▁ژنو	-10.8735
▁مصدوم	-10.8736
▁تشری	-10.8738
▁شیکاگو	-10.8739
▁اتیوپی	-10.8739
▁خنثی	-10.8739
▁رستگار	-10.8739
▁رمضان	-10.8739
▁ملاحظ	-10.8739
▁مونتاژ	-10.8739
▁اختراع	-10.8739
▁لاجورد	-10.8739
▁زائر	-10.8739
▁خرچنگ	-10.8739
▁مسوول	-10.874
▁آشپز	-10.874
▁ارجاع	-10.874
▁بازنگری	-10.874
▁ناپدید	-10.874
▁بوزمن	-10.874
▁کولمن	-10.874
▁مکلف	-10.8741
▁جرایم	-10.8741
▁سانتیمتر	-10.8741
▁مثلث	-10.8741
▁واریز	-10.8742
▁کلاهبردار	-10.8742
▁مسموم	-10.8743
▁خدایاری	-10.8743
▁آنفیلد	-10.8744
▁احتیاط	-10.8744
▁معالج	-10.8744
▁بهبهان	-10.8745
▁تصاحب	-10.8745
▁اسرار	-10.8745
▁زیدان	-10.8746
▁آثارش	-10.8746
▁تام	-10.8746
▁ماندگار	-10.8747
▁عثمان	-10.8749
▁قائم	-10.875
▁نعمت	-10.8751
▁پالاس	-10.8751
▁هالپ	-10.8752
▁سیارک	-10.8753
▁خادم	-10.8755
▁مبالغ	-10.8755
▁ببرند	-10.8758
▁سامان	-10.8758
▁هرمز	-10.8759
▁طارمی	-10.8759
▁پایبند	-10.876
▁فروغ	-10.8764
▁نامگذاری	-10.8764
▁کانری	-10.8765
▁مسافت	-10.8766
▁خرس	-10.8769
▁بازنشستگی	-10.877
▁یوگا	-10.877
دغدغه	-10.8773
▁جغرافیای	-10.8773
برید	-10.8774
▁غفوری	-10.8774
▁جف	-10.8775
▁والدین	-10.8775
مول	-10.8776
▁گذراندن	-10.8779
▁رانندگی	-10.878
▁فتاح	-10.878
▁خوشبخت	-10.8784
▁ندهد	-10.8788
▁عاشقانه	-10.8789
▁مخلو	-10.8795
واره	-10.8796
▁سل	-10.8798
▁زهره	-10.8805
▁اقتصاددان	-10.881
▁اعطا	-10.8811
۷۰	-10.8812
سانی	-10.8812
▁فیروز	-10.8813
▁مستندساز	-10.8813
▁بانکها	-10.8813
▁برعکس	-10.8814
▁بوئین	-10.8815
زنی	-10.882
▁گلوب	-10.8821
▁بچ	-10.883
▁باختند	-10.8841
▁گذارند	-10.8844
▁پیتر	-10.8845
▁معنا	-10.8845
زاب	-10.8845
▁کیفر	-10.8847
▁معاش	-10.8849
▁توریست	-10.8854
▁حضرت	-10.8857
▁نداشتم	-10.8873
▁اسکو	-10.8874
▁خلیل	-10.8879
▁سالیانه	-10.8884
▁پویا	-10.8886
▁بقای	-10.8896
▁ریالی	-10.8905
▁اعظم	-10.8911
▁مبا	-10.8913
▁چرب	-10.8915
▁تاکتیکی	-10.8921
▁احس	-10.8923
▁شرم	-10.8926
▁خوانی	-10.8928
▁نیاورد	-10.8937
▁ردیاب	-10.8941
تهران	-10.8947
▁نوشتند	-10.8948
▁۸۳	-10.8971
▁نامی	-10.8974
رینگ	-10.8975
▁دینی	-10.8983
▁تیک	-10.8993
دید	-10.8996
۴۶	-10.8997
▁یخی	-10.9016
پتون	-10.902
▁نس	-10.902
▁نفری	-10.9023
▁سرش	-10.9026
▁جانش	-10.9028
کرونا	-10.9032
▁کت	-10.9033
▁شناسد	-10.9037
ندان	-10.904
▁ادوارد	-10.9045
یرت	-10.9048
▁هل	-10.905
▁دم	-10.905
گرفته	-10.906
▁مای	-10.9061
فع	-10.9065
▁سوا	-10.9071
رانه	-10.9083
▁خار	-10.9091
▁تخصص	-10.9091
▁کیت	-10.9099
▁تعهداتش	-10.9109
▁هفدهم	-10.9116
خواهند	-10.9117
▁یگان	-10.9121
▁آندری	-10.9123
سوم	-10.9125
▁وظایف	-10.914
▁تالا	-10.9141
تحول	-10.9157
واد	-10.9158
▁استیون	-10.9159
ناب	-10.9161
کید	-10.9169
سیلوا	-10.9176
▁تعل	-10.9178
دال	-10.9182
▁انوش	-10.919
▁فرهنگیان	-10.9192
جمعیت	-10.92
یوان	-10.9203
دونالد	-10.9203
مسی	-10.9203
لات	-10.9204
(	-10.921
ستانگ	-10.9226
▁شوش	-10.923
مسئولان	-10.9234
شدیدترین	-10.9236
▁مواقع	-10.9246
غلام	-10.9247
کانادا	-10.9248
رافائل	-10.9251
محمدجواد	-10.9254
▁کودتا	-10.9256
▁مهل	-10.9257
ویکتور	-10.9261
▁همکار	-10.9293
▁عواقب	-10.9293
▁دانشجو	-10.9294
▁بیل	-10.9303
تنوع	-10.9308
▁برتری	-10.9309
اظ	-10.9311
▁ضر	-10.9311
قدرت	-10.9313
▁عالم	-10.9328
مارک	-10.9328
▁نیا	-10.9329
شر	-10.933
▁میرزا	-10.934
▁ظ	-10.9353
▁کارتو	-10.9356
▁سیار	-10.9356
▁نوین	-10.9357
سپاری	-10.9364
الکس	-10.9367
▁۵۱	-10.9371
▁ون	-10.9384
غه	-10.939
▁سوری	-10.9391
▁گفتگوهای	-10.9399
▁سالی	-10.9403
نج	-10.9408
▁آشنای	-10.9411
▁یار	-10.9418
▁فرزندش	-10.9427
▁مگا	-10.9435
▁۱۹۳	-10.9436
▁رنگی	-10.9439
▁اسپی	-10.944
بند	-10.9443
ژان	-10.9445
عشی	-10.9449
▁درج	-10.9455
▁دادم	-10.9457
رشاد	-10.9463
ائل	-10.9466
لس	-10.9466
▁میکل	-10.9473
حقق	-10.948
▁۱۷۰	-10.9487
صدایی	-10.949
▁۷۶	-10.9494
▁جولی	-10.9508
▁پهپاد	-10.952
▁ته	-10.9521
۲۳	-10.9523
▁علاقمند	-10.9527
واز	-10.9533
▁سانتریفیوژ	-10.9547
▁بوفالو	-10.9547
▁هکرها	-10.9549
▁متحدان	-10.9555
▁احمدشا	-10.956
▁کالای	-10.9561
بالغ	-10.9568
نفتی	-10.9569
▁آلومینیوم	-10.9572
▁پومپئو	-10.9572
▁چرنکوف	-10.9572
▁جاذبه	-10.9572
▁مظنون	-10.9572
▁دانچیچ	-10.9572
▁مصیبت	-10.9572
▁وحشتناک	-10.9572
▁تفسیر	-10.9573
▁البرز	-10.9573
▁مستاجر	-10.9573
▁اقتدار	-10.9573
▁گاگا	-10.9573
▁هواشناسی	-10.9573
▁فحش	-10.9573
▁گیگز	-10.9574
▁فرسایش	-10.9574
▁بفروشد	-10.9574
▁رژیم	-10.9574
▁آپارتمان	-10.9574
▁مرضیه	-10.9575
مایک	-10.9575
▁سازوکار	-10.9575
▁الماس	-10.9576
▁عنصر	-10.9576
▁پیشکسوت	-10.9576
▁امواج	-10.9576
▁مجاهد	-10.9576
▁وودز	-10.9577
▁تایتان	-10.9577
▁نادری	-10.9578
▁فرایند	-10.9578
ولت	-10.958
▁تکامل	-10.958
▁کلمات	-10.9582
▁فطر	-10.9583
▁فلسطینیان	-10.9584
▁عسل	-10.9585
▁۶۱	-10.9585
▁گابریل	-10.9586
▁کدخدایی	-10.9588
▁اشکال	-10.9588
▁علایم	-10.959
▁اشعار	-10.9591
خاذ	-10.9592
انکن	-10.9593
▁جونیور	-10.9594
▁ایسلند	-10.9594
▁ژیمناست	-10.9594
▁ببر	-10.9596
▁کارگزار	-10.9597
▁شناگر	-10.9599
۲۴	-10.9602
▁فجر	-10.9604
مع	-10.9604
▁نوزادان	-10.9605
پا	-10.9606
▁منظم	-10.9609
▁جرد	-10.9613
▁نیجر	-10.9613
▁گواهی	-10.9613
▁گردش	-10.9614
▁گرامی	-10.9622
▁مخصوصا	-10.9624
▁کوپتر	-10.9624
▁۸۵	-10.9627
لور	-10.9627
▁جیپ	-10.9629
▁ماشه	-10.9633
▁انداختند	-10.9638
▁عزیزان	-10.9639
پای	-10.9641
▁جلد	-10.9645
▁خشن	-10.9646
▁افسران	-10.9649
▁سکسک	-10.9652
▁مثل	-10.9661
▁عرف	-10.9682
▁تابعیت	-10.9682
▁مغول	-10.9682
اوش	-10.9683
▁مهندسان	-10.969
▁رامش	-10.9691
▁کنی	-10.9692
۴۰	-10.9693
▁جعفری	-10.9695
مای	-10.9705
بخشی	-10.9708
▁ریل	-10.971
▁بشریت	-10.9711
▁ویدیوهای	-10.9719
▁مزایای	-10.9721
▁شمایل	-10.9723
▁قبر	-10.9724
▁ذ	-10.9725
▁پارکر	-10.9728
▁فشرد	-10.973
▁ادعاهای	-10.9736
▁فابی	-10.9749
وانند	-10.9751
▁لرز	-10.9757
▁ابلاغی	-10.976
یع	-10.9762
▁کوب	-10.9765
خواهید	-10.9773
لمپ	-10.9784
▁شایست	-10.9786
▁قید	-10.9789
▁شهریار	-10.9797
▁علوی	-10.9798
شو	-10.98
اران	-10.9801
▁نشدند	-10.9803
▁سالمند	-10.9804
رتر	-10.9806
▁رخت	-10.9807
▁گویم	-10.9814
دخت	-10.9818
▁گور	-10.9819
▁کلیسای	-10.9819
گفتگو	-10.9823
▁پرت	-10.9833
▁قرمزها	-10.9834
بل	-10.9836
▁وارن	-10.9838
بازار	-10.9844
▁هامر	-10.9846
۲۰	-10.9846
▁پال	-10.9847
▁مند	-10.9853
۶۰	-10.9863
جر	-10.9865
وظ	-10.987
▁گردون	-10.9874
▁بروم	-10.9885
مار	-10.9888
▁راکت	-10.989
▁نای	-10.9896
▁حفر	-10.9897
▁سیم	-10.9904
▁بوق	-10.9916
آخری	-10.9919
▁خوانند	-10.9926
▁لوکه	-10.9929
▁آما	-10.9937
عداد	-10.9937
مسابقات	-10.9939
نر	-10.9969
▁هما	-10.9972
▁رایان	-10.9982
▁رویس	-10.9982
▁قطعا	-10.9991
▁داو	-10.9991
▁وگوهای	-10.9992
گیل	-10.9997
▁محرک	-11.0018
ولان	-11.0018
▁اموا	-11.002
انش	-11.0023
▁ویزا	-11.0034
آلمان	-11.0037
▁استثنا	-11.0048
▁استادان	-11.0049
فل	-11.005
▁اق	-11.0053
▁مندان	-11.0058
آمریکایی	-11.006
شکل	-11.0061
▁مردمی	-11.007
وزن	-11.0072
▁استاندارد	-11.0079
▁صده	-11.0082
مو	-11.0098
ملو	-11.0102
▁سیمون	-11.0105
روابط	-11.0115
▁آرزو	-11.0119
▁ذی	-11.0122
▁مز	-11.0126
کارشناسان	-11.0131
ویل	-11.014
▁صدم	-11.015
▁گلی	-11.015
▁پار	-11.0151
▁نیل	-11.0162
پیروز	-11.0162
▁رائو	-11.0168
▁بلی	-11.0171
▁طیب	-11.0178
▁بزرگان	-11.0179
▁شیع	-11.0179
ائیل	-11.0186
▁محا	-11.0188
خوان	-11.0189
روزنامه	-11.0194
▁کرمانشاه	-11.0199
▁اندام	-11.02
▁جلال	-11.0205
▁ماس	-11.0205
▁برفی	-11.0209
▁استخوان	-11.0212
شیپ	-11.0216
سفر	-11.0217
حلال	-11.0222
حرفه	-11.0223
▁۸۷	-11.0228
گیر	-11.0233
▁عمو	-11.0235
▁ژ	-11.0236
عادت	-11.0239
▁لطف	-11.0267
نیروی	-11.0268
▁درآمده	-11.0296
▁حی	-11.0308
▁۸۱	-11.031
یسم	-11.0325
الیاس	-11.0326
▁زانوی	-11.0328
▁دستک	-11.0339
▁ایوان	-11.0341
▁تیتر	-11.0366
▁جاست	-11.0369
حث	-11.037
▁ایا	-11.0373
▁کین	-11.0375
رشد	-11.0377
لوت	-11.0379
▁فرق	-11.0389
جانب	-11.0392
تاب	-11.0396
▁فول	-11.04
۲۸	-11.0405
ترا	-11.0409
▁پیشگام	-11.0411
▁مق	-11.0411
▁خواستم	-11.0411
مرز	-11.0419
دترین	-11.0423
▁مصر	-11.0426
▁لوکا	-11.0443
دندان	-11.0443
▁تیره	-11.0447
▁ویدئوی	-11.0457
نقل	-11.0462
▁موزیک	-11.0463
▁شوت	-11.0474
زانه	-11.0476
۹۱	-11.048
▁المستقبل	-11.0481
▁لابراتوار	-11.0481
▁پدافند	-11.0481
▁ژئوپلیتیک	-11.0481
▁پولیتزر	-11.0482
▁بالیوود	-11.0482
▁کرگدن	-11.0482
▁تفکیک	-11.0482
▁ربیعی	-11.0482
▁ویتنام	-11.0482
▁ارمنستان	-11.0482
▁اسراییل	-11.0482
▁بنتلی	-11.0482
▁سنگاپور	-11.0482
▁فروزش	-11.0483
▁حرکات	-11.0484
▁نامناسب	-11.0484
▁نصیب	-11.0484
▁۱۹۶۶	-11.0484
▁داغستان	-11.0485
▁متوفی	-11.0485
▁حجاب	-11.0485
▁تعاون	-11.0486
▁شکارچی	-11.0486
▁یخچال	-11.0486
▁نارضای	-11.0486
▁کفتر	-11.0486
▁محفظه	-11.0487
▁۱۹۶۷	-11.0487
ضاح	-11.0487
▁خردسال	-11.0488
▁اذیت	-11.0489
▁پناهجوی	-11.0491
▁گردنبند	-11.0493
▁نوازندگان	-11.0494
▁قبیل	-11.0494
▁ابهامات	-11.0494
▁زادگاهش	-11.0495
▁دوستداران	-11.0496
▁عروق	-11.0496
▁غلط	-11.0497
▁سازندگی	-11.0497
▁کارفرمایان	-11.0497
▁مضر	-11.0498
▁مسترز	-11.0498
▁مخفیانه	-11.0498
وح	-11.0499
▁مظاهری	-11.05
▁لامرد	-11.05
رطوب	-11.0501
اله	-11.0503
▁نژادپرستانه	-11.0504
▁دبیرستان	-11.0504
▁تویوتا	-11.0505
▁هوندا	-11.0505
▁۲۰۰۶	-11.0508
▁قفس	-11.0513
▁خلوت	-11.0514
▁منفرد	-11.0515
▁باثبات	-11.0518
▁اشنویه	-11.0518
پرها	-11.0519
▁۱۳۴	-11.052
▁دیدیم	-11.052
▁تمرینات	-11.0521
▁ندادن	-11.0522
▁امریکا	-11.0522
آقازاده	-11.0522
▁متکی	-11.0524
▁معیارهای	-11.0525
▁خوشحالم	-11.0529
▁هشتصد	-11.053
▁اسپورت	-11.0532
▁مایع	-11.0533
▁فیلیپین	-11.0534
▁تعویض	-11.0535
▁سیگار	-11.0535
▁آلزایمر	-11.0535
▁انحصار	-11.0535
▁خرمشهر	-11.0535
ویچ	-11.0536
نشین	-11.0538
▁فرخ	-11.0539
▁معتمدی	-11.0542
▁گیلان	-11.0544
▁شستا	-11.0546
▁کیا	-11.0547
▁عرفان	-11.0549
▁دایر	-11.0552
▁نمایشنامه	-11.0555
▁ذات	-11.0561
لینی	-11.0564
▁رونالدینیو	-11.0565
هین	-11.0566
▁شوخی	-11.057
اعلام	-11.0578
▁کمدی	-11.0585
▁خبرها	-11.0586
▁اختیارات	-11.0587
▁سرمای	-11.0589
▁فضاپیمای	-11.0602
۱۷	-11.0603
۲۹	-11.0609
▁۶۳	-11.0613
▁اینستاگرامش	-11.0615
تلاش	-11.0617
▁پینگ	-11.0617
▁امی	-11.0619
▁بیورن	-11.0621
▁زنگ	-11.0626
▁پاتر	-11.063
▁تندی	-11.063
▁نیش	-11.0632
▁جنگی	-11.0634
لین	-11.0635
▁سینماگران	-11.0639
▁۸۹	-11.0641
▁فور	-11.0641
▁جفت	-11.0641
▁اپراتورها	-11.0642
▁اعت	-11.0657
▁ژنرا	-11.0658
▁میلی	-11.066
رویس	-11.0666
▁امتیازات	-11.0666
ژی	-11.0667
▁بگیر	-11.0667
▁لیتر	-11.0675
▁نویسد	-11.0675
▁خیز	-11.0678
سلسل	-11.0685
▁کثیر	-11.0685
▁مض	-11.0688
▁متحدانش	-11.069
▁بارز	-11.0691
▁شمس	-11.0692
▁بازیار	-11.0692
▁نهایتا	-11.0703
▁امو	-11.0704
▁کبد	-11.0706
▁پیداست	-11.0709
▁نگر	-11.0713
اپ	-11.0714
احی	-11.0717
▁استدر	-11.0723
▁دود	-11.0723
▁ماندند	-11.0726
▁یوو	-11.0726
▁خطرات	-11.0742
▁تابستانی	-11.0742
▁کشمی	-11.0744
▁پذیرای	-11.0744
▁تاجیکان	-11.0745
▁معین	-11.0745
▁درز	-11.0753
روح	-11.0754
▁درانی	-11.0773
▁باقر	-11.0784
▁تیموری	-11.0788
▁۶۵۰	-11.0789
▁گا	-11.0797
سکار	-11.08
خوانی	-11.0813
▁بفهم	-11.0814
▁پاسخگو	-11.0816
▁ماخ	-11.0816
نم	-11.082
دلال	-11.0824
ناک	-11.0835
واقع	-11.0844
▁سردار	-11.0858
▁دوج	-11.0868
باع	-11.0871
▁کاوه	-11.0873
▁بزن	-11.0875
جاد	-11.0878
▁لیدی	-11.0879
▁برجا	-11.0888
▁دهلی	-11.0888
▁شعبان	-11.0895
▁قا	-11.0896
▁عکاسان	-11.09
داشته	-11.0916
هادی	-11.092
نزا	-11.0927
▁انتها	-11.0934
قو	-11.095
مر	-11.095
جویی	-11.0977
مز	-11.0987
مص	-11.0991
▁بارور	-11.1003
لندر	-11.1003
اطلاعات	-11.1005
▁ممیز	-11.1011
▁اپرای	-11.1011
▁سومو	-11.1012
شنگ	-11.102
▁عزیز	-11.1029
آژانس	-11.1032
علت	-11.1034
کمتر	-11.1037
یز	-11.1041
انتشار	-11.1047
▁صدایش	-11.1058
▁کشتن	-11.106
▁ریو	-11.1062
▁موس	-11.1067
نصر	-11.1068
۶۳	-11.1068
▁سفی	-11.1073
پذیر	-11.1077
تحقیقات	-11.1085
ورهای	-11.1086
▁هراس	-11.1106
کارگران	-11.1106
▁برهم	-11.1111
کیو	-11.1113
گوف	-11.1116
▁گودا	-11.1117
موسس	-11.1127
▁مغزش	-11.1131
سری	-11.1141
خامن	-11.1144
اسپانیا	-11.1146
سایت	-11.1148
جراح	-11.1148
رگس	-11.1149
مطابق	-11.1151
ارزش	-11.1153
نیچ	-11.1158
همیلتون	-11.1159
اتریش	-11.1161
▁ویدئو	-11.117
اداره	-11.1171
▁بور	-11.1173
▁رومانی	-11.1188
▁پیگیر	-11.119
یلیون	-11.1195
▁لاس	-11.1196
▁استعمار	-11.1197
▁وگوها	-11.1201
▁کروناست	-11.1211
بع	-11.1214
▁۹۲	-11.1216
▁رنو	-11.1219
ویس	-11.1223
▁پهلو	-11.1225
تصاویر	-11.1228
▁توس	-11.1228
▁کشم	-11.1231
▁نیکلا	-11.1238
سوزی	-11.124
▁پسرم	-11.1244
رح	-11.1244
▁درام	-11.1247
▁اقبال	-11.125
▁کولبر	-11.125
▁تونس	-11.1254
▁تبع	-11.1267
▁تحرک	-11.1274
نتی	-11.1281
ضرر	-11.1281
▁رسن	-11.1285
فا	-11.1286
▁نظرهای	-11.1292
▁اتل	-11.1297
زین	-11.1298
درفتار	-11.1299
▁درو	-11.1301
وهان	-11.131
▁لق	-11.1314
برگر	-11.1321
▁باردار	-11.1322
زاری	-11.1325
▁پراکن	-11.1338
▁فار	-11.134
▁تخل	-11.1344
نها	-11.1347
▁ژاک	-11.1359
سلیم	-11.1363
▁۱۸۵	-11.1368
▁چارل	-11.1376
▁ترسن	-11.1377
▁گریه	-11.1386
▁ساعته	-11.1391
▁سفرها	-11.1401
▁گنجی	-11.1404
▁فای	-11.1406
بهم	-11.1407
▁طرفی	-11.1414
رالله	-11.1418
▁لبنانی	-11.1426
ابق	-11.1443
▁عمد	-11.1444
▁کمپ	-11.1449
▁متغیر	-11.1459
روسیا	-11.1465
لپ	-11.1467
▁۸۶	-11.1473
▁مخاطب	-11.1473
رم	-11.1478
▁جزئی	-11.1479
▁انیمیشن	-11.1481
▁ایوانکوویچ	-11.1482
▁مستثن	-11.1482
▁بلانشت	-11.1482
▁ابرنواختر	-11.1482
▁رئوف	-11.1482
▁رولزرویس	-11.1482
▁خاشقچی	-11.1482
▁راهپیمایی	-11.1482
▁غیرمجاز	-11.1482
▁وگاس	-11.1482
▁آرتتا	-11.1482
▁فکاهی	-11.1482
▁جوامع	-11.1482
▁ذیبخش	-11.1482
▁سرماخورد	-11.1482
▁هیدرو	-11.1483
▁عتیق	-11.1483
▁تعزیری	-11.1483
▁گریبان	-11.1483
▁اتصال	-11.1483
▁مطلبی	-11.1483
▁شکستن	-11.1483
▁۱۹۷۳	-11.1484
▁کالبد	-11.1484
▁دول	-11.1484
▁کالینز	-11.1484
▁کلارک	-11.1484
▁بدهکار	-11.1484
▁کج	-11.1485
▁پیکولی	-11.1485
▁پردرآمد	-11.1485
▁بیافتد	-11.1486
▁سلتیک	-11.1487
▁نپال	-11.1488
▁طناب	-11.1488
▁پابند	-11.149
▁الاجل	-11.149
▁سازندگان	-11.1491
▁بنشیند	-11.1491
▁مختاری	-11.1491
▁روانشناس	-11.1492
▁انباشت	-11.1492
▁معلم	-11.1493
▁مکمل	-11.1495
▁بارچا	-11.1496
▁عصبانی	-11.1497
▁معاف	-11.1497
▁حوض	-11.1498
همین	-11.1498
▁تهاجمی	-11.1499
▁فروشندگان	-11.1499
▁جیل	-11.1499
▁مسال	-11.1501
▁تلفات	-11.1506
▁رخشانه	-11.1508
▁مطالبات	-11.1508
▁خیام	-11.1509
▁ناپولی	-11.1509
▁نامجو	-11.151
▁حسرت	-11.1512
▁کادیس	-11.1513
▁سرشار	-11.1516
▁گویی	-11.1518
زادگان	-11.1518
▁قدردان	-11.1519
▁مساحت	-11.1521
▁هاپک	-11.1522
▁برسند	-11.1522
▁رایگان	-11.1523
▁کریم	-11.1526
▁خویش	-11.1533
▁گره	-11.1537
▁گناه	-11.1538
▁تصدی	-11.1539
وخامت	-11.1543
▁کنزو	-11.1551
▁نیستم	-11.1552
▁ادل	-11.1557
قبل	-11.1562
لوب	-11.1563
▁یابند	-11.1565
▁سیبری	-11.1566
▁مسترد	-11.1569
▁صرب	-11.1569
▁شانگ	-11.1574
▁هیولای	-11.1575
▁شهرک	-11.1577
لف	-11.1582
لای	-11.1584
▁متولی	-11.1586
۵۸	-11.1588
▁انگیزترین	-11.1595
▁ایال	-11.1597
▁آموز	-11.1597
▁ناوگان	-11.1598
ارت	-11.1601
▁پادمان	-11.1605
امین	-11.1606
▁اشتباهات	-11.1608
▁سازه	-11.1618
▁کوپا	-11.1619
▁دلتا	-11.1621
زگی	-11.1621
▁نوا	-11.1623
▁محتوی	-11.1623
▁خوابی	-11.1624
▁وحشت	-11.1628
▁معاین	-11.1629
▁کاوا	-11.163
▁اصلاحی	-11.1631
بورد	-11.1633
▁عط	-11.1639
▁امپراتوری	-11.164
▁توقع	-11.1641
▁بلک	-11.1641
هره	-11.165
ونیست	-11.1652
دورو	-11.1653
▁صمیمی	-11.1656
▁تولیدکنند	-11.1659
گا	-11.1662
جهان	-11.1664
▁آرزوهای	-11.1665
▁فرحی	-11.1673
▁شعارهای	-11.1677
▁پرتو	-11.1682
▁یاوری	-11.1684
▁قربان	-11.1685
▁نگارش	-11.1693
▁مراود	-11.1702
▁قوم	-11.1715
ورا	-11.1719
▁گردید	-11.1726
▁سهامدار	-11.1731
افت	-11.1738
فیلد	-11.1745
ائم	-11.1752
▁پیامک	-11.177
تل	-11.1775
▁اصطلاحا	-11.1783
▁سبد	-11.1786
اید	-11.1793
▁بکند	-11.1794
فشار	-11.1802
▁پاد	-11.1816
▁دیدم	-11.182
▁وادار	-11.1824
پرسینگ	-11.1826
▁معمای	-11.1829
▁رشید	-11.1832
ستیک	-11.1834
▁مشهورتر	-11.1836
▁آلبر	-11.184
▁سفره	-11.1852
▁لحن	-11.1853
▁خوست	-11.1859
تعداد	-11.1864
▁مبارک	-11.1865
▁عمدی	-11.1866
دلیل	-11.1868
▁رحمت	-11.1872
▁تح	-11.1873
شما	-11.1873
تم	-11.1874
▁ارگان	-11.1876
▁بله	-11.1876
▁گلو	-11.1884
▁اصولگرای	-11.1896
▁معاهد	-11.1906
▁قاتل	-11.191
▁گرای	-11.1916
▁الی	-11.1921
▁میکروب	-11.1922
▁روحی	-11.1926
صاب	-11.1933
ریت	-11.1933
▁باریک	-11.1934
▁پینک	-11.1948
▁ساری	-11.1962
جل	-11.1977
▁سوگ	-11.1983
▁کادی	-11.199
▁غل	-11.1995
▁کرایس	-11.1997
انتخابات	-11.2003
▁بسیج	-11.2016
▁مینیاتور	-11.2016
جیب	-11.2026
دفتر	-11.2031
▁حریم	-11.2039
▁کلاه	-11.2041
ائب	-11.2042
▁نزدیکتر	-11.205
▁جورجی	-11.2051
▁همخوان	-11.2061
▁ریاضی	-11.2064
صول	-11.2079
شت	-11.2089
سیو	-11.2099
▁بازوی	-11.2112
▁قوت	-11.2112
دیدار	-11.2115
نشان	-11.2127
▁سنگر	-11.2131
▁مبت	-11.2133
تخصصی	-11.2137
مذاکرات	-11.2142
▁۱۸۰	-11.2145
▁طاق	-11.2149
ترکیه	-11.2155
▁مزای	-11.2157
▁شون	-11.2163
▁افق	-11.2166
نوعی	-11.2179
▁حام	-11.218
بورس	-11.2182
نشست	-11.2187
▁۸۸	-11.2188
▁رفتم	-11.2195
ورت	-11.2199
استرالیا	-11.2209
▁نرفت	-11.2212
صل	-11.222
▁کلو	-11.2224
گوئر	-11.2229
▁مایل	-11.2232
▁ران	-11.2242
هی	-11.2244
▁اجتماع	-11.2245
وفون	-11.2247
▁سفارشی	-11.2249
▁مسافری	-11.2249
بان	-11.225
▁خم	-11.225
الت	-11.2258
▁فهم	-11.2258
منظور	-11.2259
نان	-11.2263
▁ناصری	-11.2267
▁محسوس	-11.227
خواست	-11.2271
منازع	-11.2271
رف	-11.2275
مزمن	-11.2289
ارث	-11.2294
هماهنگ	-11.2294
شتم	-11.2296
▁مباد	-11.2296
▁مسیح	-11.2309
صالح	-11.2324
شنا	-11.2327
کاوه	-11.233
▁تاکتیک	-11.2332
▁فرستد	-11.2333
بته	-11.2335
منی	-11.2335
▁فریب	-11.2344
▁کوس	-11.2349
بحث	-11.2349
▁گفتن	-11.235
▁دوری	-11.2355
▁دادخواه	-11.2365
عان	-11.2372
▁۳۲۰	-11.2374
▁رکوردها	-11.2375
خوشایند	-11.2388
▁هول	-11.2399
▁یاب	-11.2404
یاپی	-11.2408
▁ساع	-11.2409
▁معا	-11.2414
▁گردانند	-11.2417
شم	-11.2418
سپری	-11.2418
ومبل	-11.2419
▁هریس	-11.2444
▁مصرفی	-11.2449
نشینی	-11.2449
نتیج	-11.2451
رتب	-11.2455
انت	-11.2471
ذل	-11.2473
▁سرب	-11.2476
اسکو	-11.248
▁بون	-11.2488
رسیدن	-11.249
▁تق	-11.2493
▁مادی	-11.2515
ایه	-11.2516
ستین	-11.2523
▁گرما	-11.2529
▁رز	-11.2532
▁سیاستمدار	-11.2538
ایل	-11.2546
تصور	-11.2551
▁لوی	-11.2553
▁خانمان	-11.2554
▁ول	-11.2565
برآورد	-11.2576
▁تسهیل	-11.2586
تینو	-11.2589
قدس	-11.2591
▁قی	-11.2592
▁بلایندرز	-11.2593
▁رفسنجان	-11.2593
▁آبراموویچ	-11.2593
▁بلغارستان	-11.2593
▁ضوابط	-11.2593
▁لومامبا	-11.2593
▁الگوریتم	-11.2593
▁طغیان	-11.2593
▁مقتدر	-11.2593
▁مائوریت	-11.2593
▁زاکانی	-11.2593
▁تضاد	-11.2593
▁خشمگین	-11.2593
▁اصالت	-11.2594
ژورنال	-11.2594
▁جهرمی	-11.2594
▁ارتقا	-11.2594
▁برسانند	-11.2594
▁واجد	-11.2594
▁حرارت	-11.2594
▁مقد	-11.2594
▁برشمرد	-11.2595
▁پاراگوئه	-11.2595
▁خلوتگر	-11.2595
▁فرنود	-11.2596
▁استقراض	-11.2597
▁معلولیت	-11.2598
تصاعد	-11.2598
▁کاشف	-11.2598
▁گرافیک	-11.2599
▁برگردند	-11.26
▁بیولوژیک	-11.2601
▁اینجا	-11.2603
▁بغلان	-11.2604
▁قرائت	-11.2604
▁کاران	-11.2604
▁۱۹۲۰	-11.2605
▁۱۳۵۰	-11.2605
▁بخرد	-11.2608
▁اسمیت	-11.2608
▁ریاضیات	-11.2608
▁تنگنا	-11.261
▁لگن	-11.261
▁تحق	-11.2611
بدا	-11.2612
▁تلویح	-11.2612
دند	-11.2614
▁کلانتری	-11.2615
▁آث	-11.2616
چهل	-11.2619
▁تأسیس	-11.262
▁سولشر	-11.262
▁بازتاب	-11.262
▁سردرگم	-11.262
▁لشگر	-11.2623
▁ریسک	-11.2624
▁بگویند	-11.2624
▁کیلوولت	-11.2625
▁دستیار	-11.2626
▁جناح	-11.2627
▁داش	-11.2627
لاله	-11.2629
▁کوهنورد	-11.2629
سطی	-11.2629
▁اندرکاران	-11.263
▁بصر	-11.263
بپرس	-11.2631
کنون	-11.2634
▁پورتو	-11.2636
▁معلمان	-11.2636
پرس	-11.2637
▁ترابی	-11.2638
عفون	-11.2639
بیب	-11.2639
▁متروکه	-11.2643
▁دوتار	-11.2645
پائولو	-11.2645
▁شکننده	-11.2646
حض	-11.2647
▁صید	-11.2651
▁بذر	-11.2654
▁استقامت	-11.2655
▁ونگر	-11.2659
▁پیرلو	-11.266
▁غیبت	-11.266
▁مورل	-11.2662
▁اشخاص	-11.2663
▁پریش	-11.2663
▁پوشان	-11.2664
▁مسبب	-11.2665
▁گردیم	-11.2674
▁سرگردان	-11.2681
▁کاتال	-11.2682
▁مرادی	-11.2688
▁کانل	-11.2689
▁فوتبالی	-11.269
▁برآمد	-11.2692
▁پیشگامان	-11.2694
▁شخصا	-11.2695
▁محبوبی	-11.27
ظه	-11.2701
▁هولم	-11.2704
▁لندرو	-11.2707
▁انکار	-11.271
▁۱۳۹۰	-11.271
أی	-11.2718
▁مهمانان	-11.2724
▁راستش	-11.2724
تصویر	-11.2729
پوچ	-11.2731
▁سینماگر	-11.2733
حصول	-11.2734
▁قاب	-11.2739
▁عظیمی	-11.274
▁گدار	-11.2743
▁نامشخص	-11.2748
▁برگردانده	-11.2748
▁اقیانوسیه	-11.2751
▁کیمن	-11.2754
۶۷	-11.2755
▁دستی	-11.2755
▁متخلفان	-11.2756
▁انداختن	-11.2762
ژ	-11.2764
▁عمیقا	-11.2768
زیه	-11.2778
▁کلدی	-11.2785
▁فورا	-11.2788
▁جع	-11.2791
▁مبد	-11.2802
▁جواهر	-11.2808
▁فلور	-11.2808
▁یکبار	-11.2809
▁درشت	-11.2818
▁القا	-11.2819
▁شل	-11.282
▁پروازهایش	-11.282
▁بدوی	-11.2822
▁وگوی	-11.2833
▁بدنش	-11.2834
▁اله	-11.2835
▁منظره	-11.2838
روند	-11.2841
▁اسعد	-11.2845
▁پژو	-11.2847
فظ	-11.2851
تاج	-11.2857
▁مینا	-11.2857
▁بازنده	-11.286
▁یزد	-11.2861
ملک	-11.2861
▁جراحان	-11.2875
▁جد	-11.288
▁چای	-11.2882
▁آلایند	-11.2886
▁رقبای	-11.2887
باز	-11.2891
▁۷۹	-11.2895
سخ	-11.2905
▁هوادارانش	-11.2906
کام	-11.291
سخت	-11.2921
▁شام	-11.2924
مکش	-11.2926
▁نخب	-11.2929
▁ژی	-11.2931
▁رون	-11.2933
▁دانشگر	-11.2938
میلیون	-11.2941
▁لطفی	-11.2943
گروهی	-11.2946
رش	-11.2951
یونان	-11.2954
گشاد	-11.2955
▁هرجا	-11.2969
▁جراحت	-11.297
کند	-11.2972
▁آذری	-11.2975
▁تون	-11.2979
▁جنر	-11.2982
▁بالی	-11.2991
▁کپ	-11.2996
ماری	-11.3003
زمینی	-11.3006
جیغ	-11.3014
▁مانند	-11.3016
ویروس	-11.3017
▁فهمید	-11.3022
نکور	-11.3025
▁بخواهد	-11.3029
▁سرما	-11.303
▁فرزندانش	-11.303
▁زی	-11.304
ینز	-11.3041
لیچ	-11.3048
۲۷	-11.305
فلیک	-11.3056
مپیون	-11.3056
طرح	-11.3059
ازما	-11.3064
دامس	-11.3065
ادا	-11.3068
▁همدان	-11.307
آر	-11.3079
نوردی	-11.308
ناس	-11.3082
ارتاک	-11.3084
صیل	-11.3099
▁مصم	-11.3102
▁استر	-11.312
▁طل	-11.3127
▁ولد	-11.3138
لقی	-11.3142
درون	-11.3145
۹۳	-11.3149
وده	-11.3153
▁موهای	-11.3156
وانی	-11.3157
▁مارکو	-11.3164
▁۴۵۰	-11.3166
▁برآورده	-11.3168
ویک	-11.3172
۶۱	-11.3173
▁اسل	-11.3173
▁اتکا	-11.3176
خان	-11.3183
▁۱۳۰	-11.3187
▁شکوف	-11.3188
▁رامی	-11.319
تحریم	-11.3192
▁اجت	-11.321
اکی	-11.3221
ریگو	-11.3223
▁ایندی	-11.3225
▁آف	-11.3226
غیب	-11.3226
▁سنی	-11.3227
▁عزا	-11.3228
مورد	-11.3229
▁تص	-11.3232
لانتی	-11.3235
رمان	-11.324
▁دراین	-11.3243
▁هفده	-11.3248
ژهای	-11.3252
▁احسا	-11.3252
▁شوق	-11.3256
فو	-11.326
▁شم	-11.327
▁گرانتر	-11.3276
▁کلور	-11.329
▁ریوی	-11.3294
ارو	-11.3297
▁توانی	-11.33
خواه	-11.3301
گارت	-11.3305
▁ادین	-11.3306
▁آموخت	-11.3306
▁الهی	-11.3319
درگذشت	-11.3321
▁اشت	-11.3327
جای	-11.3337
▁بانو	-11.3339
یسی	-11.334
▁حفا	-11.3355
▁توفیقی	-11.3367
سکانس	-11.3368
بازداشت	-11.3379
▁کنف	-11.3397
▁راد	-11.3397
رکورد	-11.3399
برداری	-11.3407
اچو	-11.3409
▁نیکل	-11.3409
خیر	-11.341
▁املا	-11.3411
گاوا	-11.3413
انگ	-11.3415
یونایتد	-11.3419
▁گردهم	-11.3422
ایتالیا	-11.3423
▁رجب	-11.3429
نتایج	-11.3451
خطر	-11.3457
مشخص	-11.3457
دلان	-11.3458
قصد	-11.346
تاتنهام	-11.347
▁جیمی	-11.347
▁راهنمای	-11.3474
سعود	-11.3475
▁مهمتر	-11.3488
▁جنای	-11.3489
▁خاور	-11.3494
کلوپ	-11.3496
▁ثا	-11.3496
▁عزادار	-11.3497
انجمن	-11.3497
موج	-11.3502
▁شورش	-11.3503
اسماعیل	-11.3503
▁بنیا	-11.3505
▁حراست	-11.3506
مجتب	-11.3508
فرگوس	-11.351
ساسی	-11.3512
▁قطرک	-11.3513
آرامکو	-11.3515
▁گرین	-11.3516
گرا	-11.3518
ریچارد	-11.3522
▁کلم	-11.3523
▁۱۱۰	-11.3525
هشدار	-11.353
آیا	-11.3535
بجای	-11.3536
نگرانی	-11.3536
تحلیلگر	-11.3541
لستر	-11.3546
▁نما	-11.3553
▁سروی	-11.3556
▁یادگار	-11.3558
باند	-11.3563
یافته	-11.3566
▁کلیسا	-11.3567
دادستان	-11.3567
▁بازده	-11.3576
▁ناآرام	-11.3581
زره	-11.3587
▁نامم	-11.3589
▁صوت	-11.3594
جن	-11.3596
▁تشک	-11.3613
▁حکمی	-11.3613
جامع	-11.3621
▁توق	-11.3622
برد	-11.3623
کمی	-11.3625
لینگ	-11.3625
یکه	-11.3628
▁نگرفت	-11.363
گراد	-11.363
اراک	-11.3634
کشته	-11.3635
پوتین	-11.3644
▁کلر	-11.3651
▁بیتل	-11.3653
▁فرز	-11.3657
گرایی	-11.366
ریا	-11.3662
▁فرح	-11.3674
▁جاد	-11.369
تازه	-11.3695
▁اعدا	-11.3699
▁ث	-11.3714
۴۲	-11.3714
نگیز	-11.3718
▁مدرس	-11.3718
موسیقی	-11.3725
▁حول	-11.3734
▁رف	-11.3751
▁مول	-11.3754
▁استرس	-11.3754
▁فشارها	-11.3754
▁پری	-11.3758
سنگ	-11.3761
جام	-11.3763
▁نماند	-11.3764
▁خریدن	-11.3764
▁مسیری	-11.3764
▁شاگرد	-11.3775
▁برایت	-11.3775
▁لاش	-11.3779
وئرنیک	-11.3785
▁گارد	-11.3789
▁جوی	-11.3793
بندی	-11.38
▁معلول	-11.3801
▁کوبید	-11.3803
زو	-11.3809
مادر	-11.3809
ینی	-11.381
▁نوزاد	-11.3812
تار	-11.3814
▁مانور	-11.3815
▁فرانسیس	-11.3817
▁قدیم	-11.3821
▁گز	-11.3827
نجی	-11.3829
▁یوآ	-11.383
▁سیری	-11.3838
▁درها	-11.3841
▁احداث	-11.3843
▁اردکانیان	-11.3843
▁اورشلیم	-11.3843
▁مستضعفان	-11.3843
▁پاختاکور	-11.3843
▁پلتفرم	-11.3843
▁اوربیتر	-11.3843
▁کانگورو	-11.3843
▁کامبوج	-11.3843
▁سانتیگراد	-11.3843
▁اقتباس	-11.3843
▁کاسموس	-11.3843
▁ابداع	-11.3843
▁سیستماتیک	-11.3843
▁ژنشنگ	-11.3843
▁امتداد	-11.3843
▁متمایز	-11.3843
▁اسپایدر	-11.3843
▁آنکارا	-11.3843
▁ماراکانا	-11.3843
▁ذوالنور	-11.3843
▁قاعدتا	-11.3844
▁لشکر	-11.3844
▁رغبت	-11.3844
▁آرسن	-11.3845
▁نیچر	-11.3845
▁کلروک	-11.3845
▁سمنان	-11.3845
▁بدانید	-11.3845
▁مارسیال	-11.3845
▁راپینو	-11.3846
▁جاودان	-11.3846
▁بسازد	-11.3846
▁معاد	-11.3847
▁بفروشند	-11.3847
▁واگیر	-11.3848
▁بزوس	-11.3848
▁نیابد	-11.3849
▁مکالمات	-11.3849
▁نورالله	-11.3849
▁نکشید	-11.385
▁شاهرود	-11.385
▁گریگوریان	-11.3851
▁مخرب	-11.3852
▁پرجمعیت	-11.3852
▁فرنگی	-11.3852
▁۱۹۹۵	-11.3853
وحید	-11.3853
▁۷۵۲	-11.3853
▁پاسگاه	-11.3857
▁لبخندها	-11.3857
▁هیل	-11.3858
▁بگذارم	-11.3861
▁انتصاب	-11.3861
▁هنگفت	-11.3863
▁شنوایی	-11.3864
زیمبا	-11.3865
▁رکوردشکن	-11.3865
▁متیو	-11.3865
▁بخواهید	-11.3868
▁ابولا	-11.3868
▁مولف	-11.387
▁برایانت	-11.3871
▁ندهند	-11.3871
▁سیدنی	-11.3873
زیان	-11.3873
▁الاکلنگ	-11.3873
▁قورباغه	-11.3874
▁گوهر	-11.3874
▁موعد	-11.3875
اهی	-11.3875
▁معاونان	-11.3875
▁پیانو	-11.3876
▁تنیده	-11.3877
▁سفیددره	-11.3877
▁تقلب	-11.3877
▁آرایشگاه	-11.3879
▁عزت	-11.388
▁معلولان	-11.3882
▁سحرگاه	-11.3883
▁نورمحمد	-11.3885
▁قان	-11.3886
▁ژنوم	-11.3888
هفتصد	-11.3889
▁آویز	-11.389
▁سریعتر	-11.3895
▁رودکی	-11.3895
▁اخترشناس	-11.3897
▁گوییم	-11.3902
▁نامعلوم	-11.3902
▁موریس	-11.3903
هالیفیلد	-11.3904
▁بنجام	-11.3907
▁آسپر	-11.3914
پو	-11.3915
▁ایلام	-11.3915
▁فرندز	-11.3916
جوزپ	-11.3917
فرانس	-11.3917
▁یونسی	-11.3918
ایف	-11.3921
▁پذیری	-11.3924
▁جذابیت	-11.3924
▁جرج	-11.3926
میشل	-11.3927
▁چابک	-11.3935
رایت	-11.3935
نفر	-11.3936
لستون	-11.3936
▁بدنشان	-11.394
خشنود	-11.3942
▁اسکان	-11.3947
▁ناقل	-11.3948
▁پروست	-11.3948
▁ورزند	-11.3949
▁هوشیار	-11.3951
▁فهیم	-11.3952
▁دورانگو	-11.3953
▁پردازند	-11.3954
▁خطا	-11.3966
▁بگوید	-11.3968
▁کامیاب	-11.3968
▁چادر	-11.3968
مغناطیس	-11.397
▁لیبی	-11.3974
۸۵	-11.3974
▁جنی	-11.3991
▁کوشید	-11.3993
وندی	-11.3998
▁نف	-11.4
▁خوشبین	-11.4002
تاکنون	-11.4005
▁اضافی	-11.4008
▁اکرا	-11.4013
▁سادگی	-11.4015
▁کلیپ	-11.4015
▁جادوی	-11.4016
▁پیمانکاران	-11.402
▁بناها	-11.402
▁میلیاردرها	-11.4024
▁بخشهای	-11.4027
▁چاق	-11.4028
▁سکوها	-11.4037
▁گزینش	-11.4037
گرنه	-11.4039
▁کوچه	-11.4039
▁پرشور	-11.4047
▁لط	-11.4049
▁مستع	-11.4053
▁ساسانی	-11.4054
▁درمی	-11.4056
▁غرور	-11.4058
▁کنیا	-11.408
▁گرفتیم	-11.4092
زیو	-11.4101
طبی	-11.4103
▁نایاب	-11.4105
علم	-11.4109
▁کشیدند	-11.4111
▁حواس	-11.4117
▁لوا	-11.4118
▁احتیا	-11.4119
▁پردازی	-11.412
ریان	-11.4122
▁ویروسی	-11.4123
▁قف	-11.4128
بینند	-11.4128
▁کجاست	-11.4136
کاب	-11.414
▁سرف	-11.4153
▁پسند	-11.4154
نزل	-11.4154
تناسب	-11.4156
▁اخ	-11.416
▁نشدنی	-11.4161
▁کوش	-11.4162
۷۵	-11.4176
▁مرت	-11.4178
▁قاعد	-11.4179
▁درخشید	-11.4181
▁شیفت	-11.4199
سوس	-11.4203
دمای	-11.4205
▁کاندیدا	-11.4205
▁چار	-11.4209
فتن	-11.4211
لاب	-11.4213
ایتون	-11.4215
دانف	-11.422
▁سینو	-11.4222
▁عینک	-11.4223
▁محف	-11.4224
▁قانونگذار	-11.4238
میدان	-11.4245
▁پالا	-11.4253
▁نش	-11.4262
▁زودرس	-11.4266
میر	-11.4266
▁بالاست	-11.4273
▁دیدند	-11.4276
▁نظرش	-11.4277
▁پیامبر	-11.428
سلط	-11.4285
فه	-11.4286
ادل	-11.4299
▁آنگل	-11.4307
لئوپا	-11.4315
شک	-11.4324
چر	-11.4334
▁افزودن	-11.4335
داده	-11.4344
▁معما	-11.4349
وجیه	-11.435
▁درسی	-11.4352
▁داروین	-11.4356
▁رومانیا	-11.4358
سیما	-11.4367
▁مجتب	-11.4373
▁پسران	-11.4373
▁گیتار	-11.4375
▁پنس	-11.4383
▁دانستن	-11.4387
▁مهندسی	-11.4389
▁محو	-11.4404
مایه	-11.4406
وویچ	-11.4412
باتری	-11.4427
▁ساید	-11.443
▁آزمو	-11.4434
▁ابو	-11.4435
گذار	-11.4445
قبره	-11.4447
▁آنا	-11.445
بیه	-11.4451
▁اولی	-11.4454
حوال	-11.4462
ومین	-11.4463
▁کورت	-11.4464
بریتانیا	-11.4468
پیر	-11.4469
▁حریر	-11.447
روازه	-11.4471
▁مخ	-11.4476
▁استثنای	-11.4482
▁حدادی	-11.4485
جیک	-11.4499
هکرها	-11.4502
ریس	-11.4525
وزی	-11.4531
ابلو	-11.4536
▁دقتی	-11.4538
▁مجت	-11.454
▁رپ	-11.4542
▁اجراهای	-11.4542
▁منجم	-11.4561
خواهانه	-11.4563
▁اروپاست	-11.4564
▁گاو	-11.4565
حضور	-11.4569
▁وود	-11.4581
زاد	-11.4592
یوم	-11.4595
▁عج	-11.4598
▁برخاست	-11.4601
▁موثری	-11.4622
▁وظ	-11.4628
▁سپید	-11.4631
فش	-11.4642
شرایط	-11.4648
اکبر	-11.4651
▁شکنی	-11.4657
▁هشدارها	-11.4658
▁تهدیدهای	-11.466
▁موت	-11.4661
اتل	-11.4662
فین	-11.4664
▁دیوارها	-11.4667
پرداخت	-11.4669
▁امیدی	-11.4678
▁خلا	-11.4682
▁کمیاب	-11.4683
یج	-11.4693
▁تپند	-11.4697
▁انقلابی	-11.4698
یزه	-11.4702
داستان	-11.4714
▁بارش	-11.4715
▁شناختن	-11.4721
▁پرز	-11.4722
▁ادوار	-11.4723
▁نکو	-11.473
▁پیشنهادهای	-11.4731
▁جور	-11.4731
جایزه	-11.4739
▁شیب	-11.4748
کاظم	-11.4752
▁باختر	-11.4754
▁گویا	-11.476
▁موک	-11.4769
▁اسید	-11.477
▁افش	-11.4773
ظاهر	-11.4774
کشتی	-11.4776
▁امری	-11.4776
▁کارل	-11.4783
▁کارهایش	-11.4785
▁قل	-11.4791
▁کامپیوترها	-11.4792
▁نب	-11.4793
مسابقه	-11.4798
اعضای	-11.4805
کنیم	-11.4825
▁الن	-11.4826
تعارف	-11.4829
ئین	-11.483
▁فتحی	-11.4835
▁آتن	-11.4837
▁شرک	-11.484
نخست	-11.485
▁پذیرفت	-11.4856
▁انسانها	-11.4857
▁هجدهم	-11.4859
▁پژ	-11.486
هواداران	-11.4865
جواد	-11.4869
▁غیربو	-11.487
بزرگترین	-11.4874
▁مکس	-11.4875
▁پوشیدن	-11.4878
منچستر	-11.488
اوپک	-11.4883
حادثه	-11.4884
▁چال	-11.4885
▁کیف	-11.489
▁مهد	-11.489
▁دیوانه	-11.4892
یانت	-11.4901
▁نزن	-11.4905
جوکوویچ	-11.4907
نقاشی	-11.4908
▁بازدیدکنند	-11.491
سریع	-11.4911
هنگام	-11.4912
تحصیل	-11.4912
آذر	-11.4915
عضو	-11.492
منتقدان	-11.4923
▁خوشی	-11.4927
ویش	-11.4936
▁بیدار	-11.4941
توماس	-11.4941
بفرستید	-11.4941
پزشک	-11.4941
ورد	-11.4948
فضل	-11.4952
▁غرو	-11.4959
لیدز	-11.496
وادا	-11.4963
لد	-11.4977
▁برا	-11.498
بیح	-11.4987
▁قب	-11.4989
قهرمانی	-11.4992
وستون	-11.4993
▁مذک	-11.4997
▁کارفرما	-11.5
مقامات	-11.5001
▁آس	-11.5003
▁صحرا	-11.5003
کانی	-11.5013
▁کنشگر	-11.5014
میته	-11.5014
هیچ	-11.5017
سنگر	-11.502
▁مجرم	-11.502
اعظم	-11.5022
▁حاج	-11.5044
▁کانت	-11.5046
▁برگرداند	-11.5048
چل	-11.5053
▁گدا	-11.5056
جانی	-11.5064
نگین	-11.507
▁چشمان	-11.5086
کور	-11.5087
▁سلیمان	-11.5087
ماجرای	-11.509
▁شدیم	-11.5094
▁مشتاق	-11.5095
▁بیم	-11.5097
▁متخلف	-11.5104
▁گی	-11.5105
▁دبی	-11.5109
▁بایر	-11.511
حقیقی	-11.5113
صرف	-11.5114
▁بینم	-11.5115
ارل	-11.5115
مرغ	-11.5115
واقعی	-11.5127
آلود	-11.5128
▁اسپا	-11.5129
نرخ	-11.5135
▁۸۴	-11.5146
▁بتوانی	-11.5146
▁ملته	-11.5153
رفته	-11.5157
▁دزدی	-11.5158
نسل	-11.5167
▁همای	-11.5169
▁شکن	-11.5174
▁گوها	-11.518
حام	-11.5214
▁درآمدها	-11.5218
سارت	-11.522
▁نوردی	-11.5227
پولیس	-11.5227
▁وض	-11.5235
تفلی	-11.5235
اژ	-11.5236
راق	-11.524
▁ترمی	-11.5244
▁تقریب	-11.5245
▁پولها	-11.5254
▁فیلسوف	-11.5271
▁اویغور	-11.5271
▁نابسامان	-11.5271
▁انقطاع	-11.5271
▁غلیظ	-11.5271
▁عناوین	-11.5271
▁محتاط	-11.5271
▁تدفین	-11.5271
▁ارواح	-11.5271
▁مصداق	-11.5271
▁ناگزیر	-11.5271
▁اسرارآمیز	-11.5271
▁دفاتر	-11.5271
▁فلاکت	-11.5272
▁یادماندنی	-11.5272
▁تجدد	-11.5272
▁گدوت	-11.5272
▁دردناک	-11.5272
▁تذکر	-11.5272
سیزدهم	-11.5272
▁باکتری	-11.5272
▁مقصود	-11.5272
▁فونینی	-11.5272
▁قضاوت	-11.5273
▁بکاهند	-11.5273
▁ترشح	-11.5273
▁صراحت	-11.5273
▁مبتکر	-11.5274
▁خودکفا	-11.5274
▁پابرجاست	-11.5274
▁مرموز	-11.5274
▁ویلسون	-11.5274
▁روانچی	-11.5275
▁کارائیب	-11.5275
▁نابرابر	-11.5276
▁دشتکی	-11.5276
ژگان	-11.5276
▁ببینم	-11.5276
▁حاتمی	-11.5277
▁ابول	-11.5278
▁ریورا	-11.5278
▁۱۹۶۸	-11.5278
▁قبرستان	-11.5279
▁بریجز	-11.528
▁فورمن	-11.528
▁برگردیم	-11.528
▁روانپزشک	-11.5281
▁بزاق	-11.5281
▁تربیت	-11.5284
▁۱۳۶۰	-11.5284
▁موسی	-11.5285
▁درآید	-11.5285
▁مردادماه	-11.5287
▁ببریم	-11.5287
وتی	-11.5294
نسوخ	-11.5294
ذائ	-11.5298
▁بخورد	-11.5298
▁توازن	-11.53
▁دعا	-11.5301
▁جملات	-11.5301
▁تجربیات	-11.5302
کرده	-11.5303
▁برویم	-11.5303
▁سیرو	-11.5303
زبان	-11.5304
▁لوگو	-11.5305
▁اسنپ	-11.5305
▁دماغ	-11.5305
▁شن	-11.5305
▁متغیرهای	-11.5306
▁خاندان	-11.5306
▁تصرف	-11.5307
▁نورماگومدوف	-11.5307
▁مشروب	-11.5309
▁بازه	-11.531
▁اجساد	-11.5312
▁نجوا	-11.5313
▁لورک	-11.5313
▁همسایگان	-11.5314
▁داوود	-11.5314
▁جلیل	-11.5314
بیست	-11.5315
▁بگیرم	-11.5315
▁علیزاده	-11.5317
▁دریانورد	-11.5318
▁فلامینگوها	-11.5318
▁ایستادند	-11.532
▁قش	-11.5321
▁لغت	-11.5323
▁نورستان	-11.5323
▁مأموریت	-11.5325
▁پناهند	-11.5327
کری	-11.5328
▁زادگاه	-11.5331
▁ماهیچه	-11.5334
▁امداد	-11.5334
باخ	-11.5337
▁متقابل	-11.5337
▁موکل	-11.5338
▁افزاید	-11.5341
▁فضل	-11.5344
▁الگو	-11.5353
▁خاکستر	-11.5354
ریه	-11.5356
▁گیلبرت	-11.5356
▁هروی	-11.5357
هربان	-11.5359
ردی	-11.536
▁بهزاد	-11.536
▁سرخک	-11.5365
▁سانتو	-11.5365
▁ابزارهای	-11.5366
▁ابدی	-11.5369
▁مختصر	-11.5369
▁شاکی	-11.5373
▁دردسرهای	-11.5374
اه	-11.5375
▁شکوه	-11.5376
▁رادیوی	-11.538
▁ربکا	-11.5382
▁دسمو	-11.5385
▁واپس	-11.5385
ارومیه	-11.5389
▁مجاور	-11.5394
▁ترقی	-11.5395
▁سف	-11.5396
▁طر	-11.5396
کوس	-11.5398
▁کشتند	-11.5399
▁حکیم	-11.5399
معدنچی	-11.5402
▁منک	-11.5402
▁محصولاتش	-11.5409
▁پهنه	-11.5413
▁انتقام	-11.5413
▁بدهم	-11.5415
▁برن	-11.5419
▁بزرگسال	-11.5422
▁تورین	-11.5424
یفه	-11.543
▁چرخید	-11.5434
▁ساوت	-11.5435
▁توسان	-11.5436
▁مجادل	-11.5442
▁فاضل	-11.5446
▁چرخش	-11.545
▁گریخت	-11.5454
کسل	-11.5458
▁محاف	-11.5459
▁کان	-11.546
یار	-11.5473
▁بیانسه	-11.5481
▁گرجستانی	-11.5489
▁وکلای	-11.5493
▁گهر	-11.5498
▁منقل	-11.55
▁والتر	-11.5501
▁خوابیدن	-11.5503
یگر	-11.5509
▁کوپر	-11.5514
تشکر	-11.5515
▁تئو	-11.5517
▁ماهرویان	-11.5519
پولو	-11.5523
سالار	-11.5523
وین	-11.5524
▁کارلو	-11.5525
▁شنای	-11.5527
▁نوک	-11.5534
▁حجت	-11.5538
▁کوید	-11.554
▁پیمود	-11.5541
▁اثرگذار	-11.5541
▁سفت	-11.5542
▁دارداین	-11.5545
▁نبو	-11.5547
▁پرش	-11.5554
▁خد	-11.5558
ئوری	-11.5559
▁ترسد	-11.5559
▁عناب	-11.5566
شاپی	-11.5569
رگیری	-11.5573
▁نیازها	-11.5574
ادین	-11.5576
▁تردیدهای	-11.5576
▁تشکیلات	-11.5578
▁فروند	-11.5581
▁آز	-11.559
▁ازسر	-11.5596
▁سموم	-11.5602
▁بفرستید	-11.5612
اشی	-11.5619
▁آرم	-11.5628
امیدوارکننده	-11.5628
وسی	-11.563
▁نیکولا	-11.5637
▁کریستی	-11.564
▁بلید	-11.5642
▁بازیافت	-11.5655
▁بروید	-11.5657
باط	-11.5671
▁نیستیم	-11.5677
▁نهادی	-11.568
▁کور	-11.568
▁اراد	-11.5681
▁شکم	-11.5684
▁سرور	-11.5694
خط	-11.5705
▁صحرای	-11.5708
▁قصر	-11.5718
▁رسی	-11.5718
▁سوییس	-11.5721
لتی	-11.5742
تالی	-11.5742
▁قوز	-11.5746
پک	-11.5751
انزا	-11.5756
ورای	-11.5764
▁فک	-11.5764
زاک	-11.5767
▁تاثیرات	-11.5768
▁کریس	-11.577
▁امیدهای	-11.5773
▁زدای	-11.5776
▁اشتها	-11.5778
▁آپ	-11.5788
رن	-11.5797
چال	-11.5799
ئه	-11.5802
▁تز	-11.5805
سانس	-11.5812
▁سنجی	-11.5812
▁کولاک	-11.5818
▁اینچ	-11.5825
ستند	-11.5825
لوس	-11.5826
په	-11.5831
مایش	-11.5831
ادت	-11.5831
سوی	-11.5839
▁سوزاند	-11.5842
▁ساختند	-11.5845
▁ترکی	-11.5848
اندن	-11.5859
درهای	-11.5861
▁بخشیده	-11.5865
▁۱۹۶	-11.5866
▁سانتا	-11.5871
▁اینج	-11.5873
▁علا	-11.5874
▁دادیم	-11.5875
۵۷	-11.588
پول	-11.5885
▁اشتباهی	-11.5888
▁ایرانایران	-11.5891
▁راوی	-11.5907
دس	-11.5909
▁ماهنام	-11.5909
شریف	-11.5911
▁حف	-11.5913
دانه	-11.5916
▁بجا	-11.5917
▁رانگل	-11.5924
▁شاپ	-11.5926
▁ضیا	-11.5929
▁هاروی	-11.5941
زیر	-11.5942
هو	-11.5959
▁الم	-11.5964
برده	-11.5967
▁بسر	-11.5974
▁دوگان	-11.5977
بایی	-11.5989
▁پارچ	-11.5991
▁موری	-11.5992
▁کینگ	-11.5992
کست	-11.5994
▁عفون	-11.6002
مزد	-11.6002
▁کارتر	-11.6004
ورو	-11.6004
ملی	-11.6005
▁ناشر	-11.6013
▁وزار	-11.602
کسیون	-11.6029
▁بوی	-11.6038
بک	-11.605
۳۳	-11.6051
▁گار	-11.6051
▁کنسر	-11.6055
خالف	-11.606
▁همگ	-11.6066
▁بنده	-11.6076
اصل	-11.6084
▁ستا	-11.6094
کارولین	-11.6104
▁کورو	-11.6108
▁دویدن	-11.6121
شوند	-11.6124
▁نشستن	-11.6129
فرجام	-11.613
▁عطف	-11.6132
رحیم	-11.6134
▁پیت	-11.6138
آفرینی	-11.6147
▁بخشد	-11.6148
نیس	-11.6152
فره	-11.6158
نگی	-11.616
انیه	-11.6163
▁باربی	-11.6166
▁زلا	-11.6171
ولین	-11.6178
▁بازگو	-11.618
▁برآوردها	-11.618
▁صدایی	-11.619
▁شفا	-11.6197
ابل	-11.6197
لیات	-11.6211
▁فشارهای	-11.6214
۰۱	-11.6219
▁قامت	-11.6225
▁جس	-11.6226
۴۹	-11.6231
خضر	-11.6231
▁سازهای	-11.6244
▁درآمدزا	-11.6247
▁درسال	-11.6248
الدین	-11.6258
▁پشتو	-11.6262
تصمیم	-11.6266
خصوص	-11.6276
رچه	-11.6277
اردو	-11.6287
▁نوب	-11.6287
▁الس	-11.6288
▁نظ	-11.6292
تور	-11.6294
۳۲	-11.6305
راک	-11.6307
▁فورب	-11.6316
وجه	-11.6317
▁میکروبی	-11.6318
شوه	-11.6323
▁ریلی	-11.6328
خودرو	-11.6337
▁خدای	-11.6344
کشورهای	-11.6347
▁مافی	-11.6354
۴۴	-11.6359
بالا	-11.6367
مجموع	-11.6377
افتاده	-11.6381
▁پرداز	-11.6382
▁پرید	-11.639
عکاس	-11.6396
▁آو	-11.6397
▁اجزا	-11.64
▁محب	-11.6407
▁کمالی	-11.6413
یتونا	-11.6417
▁تصویربردار	-11.6419
قرنطینه	-11.6431
تورهای	-11.6432
ونی	-11.6434
▁فراخوان	-11.644
▁خبرگ	-11.6454
▁۶۹	-11.6454
▁محوری	-11.6464
اتح	-11.6467
نمای	-11.6468
بارسلونا	-11.6468
مکن	-11.6471
▁سوزان	-11.6476
لیسب	-11.6479
۸۹	-11.6482
۱۴۰۰	-11.6484
احتمال	-11.6488
راجع	-11.6492
غلو	-11.6493
تنیس	-11.6495
دوران	-11.6495
جنوب	-11.6496
هور	-11.6498
صیف	-11.6508
▁بخشید	-11.6511
▁بستگان	-11.6513
▁رقبا	-11.6514
▁یوسی	-11.6515
جک	-11.6519
▁عکسها	-11.6519
حصار	-11.6521
نژاد	-11.6521
ائو	-11.6522
فرانسه	-11.6526
رها	-11.6528
▁سکان	-11.6528
فرمانده	-11.6532
ربی	-11.6533
تجرب	-11.6534
دبیر	-11.6545
▁ماست	-11.6548
▁بدنم	-11.6555
سفارت	-11.6562
حداکثر	-11.6568
شعر	-11.657
حاشیه	-11.6572
نیف	-11.6573
تیراندازی	-11.6575
فرهاد	-11.6579
قاسم	-11.6581
محمدرضا	-11.6589
▁لوح	-11.6593
کتاب	-11.6596
زود	-11.6597
رفت	-11.6598
مناسبت	-11.6599
تایسون	-11.6599
کنگره	-11.66
شناس	-11.6601
نفوذ	-11.6602
قبض	-11.6609
خشکسالی	-11.661
مستند	-11.661
کوئین	-11.6611
کجاست	-11.6612
اسناد	-11.6613
فاصل	-11.6613
▁دلیلش	-11.6619
▁سمرقند	-11.6624
▁پاب	-11.6628
▁تولی	-11.6629
غوری	-11.6633
▁مذهب	-11.6638
▁بازرگان	-11.6639
▁باخ	-11.6641
ستی	-11.6641
▁عر	-11.6643
بورگ	-11.6643
گت	-11.6647
گردون	-11.6648
قد	-11.6648
▁تخ	-11.6649
▁ارت	-11.6657
▁بلندپرواز	-11.6663
▁دن	-11.6665
گویی	-11.6665
گویان	-11.6669
نندگان	-11.6682
منتظر	-11.6684
▁فرستادن	-11.6686
باد	-11.6693
▁غور	-11.6701
▁تبر	-11.6702
▁رویدادها	-11.6705
▁امپراتور	-11.6711
بیت	-11.6716
▁۲۱۰	-11.6727
کمه	-11.6729
▁پنجش	-11.6729
مور	-11.673
خون	-11.6732
▁تروریست	-11.6735
تعجب	-11.6737
▁اکا	-11.6739
▁آندرس	-11.6753
آور	-11.6763
کریست	-11.6764
لیگا	-11.6767
نمایند	-11.6767
دختر	-11.6768
▁نخ	-11.6769
▁تراک	-11.6773
وران	-11.6778
لار	-11.6778
▁قاطعان	-11.6778
▁مساعد	-11.678
▁رویز	-11.6781
▁گوسفند	-11.6786
بله	-11.6788
▁دیسک	-11.68
بیگ	-11.68
▁فرضی	-11.6803
▁سهیم	-11.6804
ترانه	-11.6805
▁۲۶۰	-11.6815
▁۷۱	-11.6818
ماخ	-11.6819
▁سیب	-11.6826
همگی	-11.6849
همچن	-11.6855
ندرسون	-11.6861
▁نهادها	-11.6862
عظم	-11.6872
▁لن	-11.6875
▁کارند	-11.6875
▁جنب	-11.6882
ندرت	-11.6883
ارسل	-11.6884
▁اندرکار	-11.6885
▁بازیکنانش	-11.6886
▁هوشی	-11.6891
▁هلندی	-11.6896
▁۷۵۰	-11.69
اط	-11.6901
▁استیو	-11.6911
▁دکترا	-11.6912
رگبار	-11.6922
رزرو	-11.6925
▁مخابر	-11.6927
مرد	-11.6935
▁الاجرا	-11.6935
نگا	-11.6938
▁اختاپوس	-11.6938
▁جاپلقی	-11.6938
▁دگراندیش	-11.6938
▁زاکربرگ	-11.6938
▁ژئوفیزیک	-11.6938
▁بفرستند	-11.6938
▁حناچی	-11.6938
▁سخاوتمند	-11.6938
▁سزاوار	-11.6938
▁موریکونه	-11.6938
▁سیگنال	-11.6938
▁هژمون	-11.6938
▁رادیواکتیو	-11.6938
▁منسجم	-11.6938
▁اکسیدکربن	-11.6938
▁تنگاتنگ	-11.6938
▁سارقان	-11.6938
▁سانتیاگو	-11.6938
▁ناسازگار	-11.6938
لئوپولد	-11.6938
▁دموکراسی	-11.6938
▁انسولین	-11.6938
▁ناخودآگاه	-11.6938
▁فرمانروای	-11.6938
یونیسف	-11.6938
▁هکتار	-11.6938
▁انزوا	-11.6938
▁اوزیل	-11.6939
▁تظاهرکنندگان	-11.6939
▁جگوار	-11.6939
▁باچان	-11.6939
▁کانتینر	-11.6939
▁کوشنر	-11.6939
▁حصبه	-11.6939
▁دوبلور	-11.6939
▁روزافزون	-11.6939
▁اوزون	-11.6939
▁هریرود	-11.6939
▁تکواندو	-11.694
▁میچام	-11.694
▁کبیری	-11.694
▁حیثیت	-11.694
▁وسواس	-11.694
▁موازات	-11.694
▁خاشق	-11.694
▁ظلم	-11.694
▁دامغان	-11.694
▁شنویم	-11.6941
▁مقادیر	-11.6941
▁هتلداران	-11.6941
▁ظالمانه	-11.6941
▁کفایت	-11.6941
▁تمایز	-11.6941
▁صربستان	-11.6941
▁پدربزرگ	-11.6941
▁ارمجانی	-11.6942
▁ضابط	-11.6942
▁متوازن	-11.6942
▁۱۹۶۹	-11.6942
▁سهمگین	-11.6942
▁بیاورند	-11.6942
▁ژرف	-11.6942
▁شارپ	-11.6944
▁پرسنل	-11.6944
▁جرارد	-11.6944
▁پوینت	-11.6945
▁نابویایی	-11.6945
▁بازنگشت	-11.6945
موث	-11.6946
▁الاجراست	-11.6946
▁نیفتاد	-11.6946
▁شادگان	-11.6947
▁بزنیم	-11.6949
▁نباشند	-11.6949
زیرو	-11.695
▁۱۹۹۴	-11.6952
▁عقاب	-11.6955
▁نگیرد	-11.6955
▁بایستند	-11.6957
▁رفیق	-11.6957
▁تحرکات	-11.6958
▁امپرا	-11.6959
▁هندرسون	-11.6959
▁بکنید	-11.6961
▁فیصل	-11.6961
▁برگرداندن	-11.6961
▁تومور	-11.6963
▁ناسیونالیس	-11.6965
▁ناچیز	-11.6965
▁خلاق	-11.6966
▁دمکرا	-11.6969
▁قمار	-11.6969
▁تایوان	-11.6972
▁اتلان	-11.6974
▁لیو	-11.6975
▁دلال	-11.6976
▁رینت	-11.6976
گاتی	-11.6978
▁قیصر	-11.6978
▁اسکورسیزی	-11.6978
▁آبراه	-11.6979
▁سرلشکر	-11.6979
▁عبدالسلام	-11.6979
▁نایتلی	-11.698
▁دلنشین	-11.6982
▁ازبک	-11.6982
نتینو	-11.6983
نوی	-11.6987
▁نشوند	-11.699
▁ملوان	-11.6991
ریوس	-11.6991
▁دانا	-11.6992
متن	-11.6995
▁فرسود	-11.6996
▁راسخ	-11.6997
▁بشردوست	-11.7002
صریح	-11.7003
▁همفکر	-11.7004
▁سولو	-11.7006
خن	-11.7011
▁آگوست	-11.7011
مک	-11.7025
▁پرفسور	-11.7025
▁آزاردید	-11.7026
▁بپذیر	-11.7033
داعش	-11.7034
گوگوش	-11.7036
▁بشنوید	-11.7043
▁کوواکس	-11.7044
▁تعرض	-11.7045
▁روستاهای	-11.7045
▁تسلی	-11.7046
نشأ	-11.7047
▁مولد	-11.705
انتینو	-11.705
گران	-11.7051
▁ناشده	-11.7052
▁نیمروز	-11.7054
▁اولیو	-11.7054
▁کون	-11.7055
یتا	-11.706
▁منظوم	-11.7061
▁باج	-11.7063
یایی	-11.7064
▁لوک	-11.7065
▁یوهان	-11.7065
▁چر	-11.7065
▁نجومی	-11.7066
▁مجرد	-11.7068
اور	-11.7069
▁آزادگان	-11.707
▁توئیتر	-11.7073
▁یاسر	-11.7076
▁نگذاشته	-11.7077
▁اندازند	-11.708
ملا	-11.708
▁تشوی	-11.7082
▁رفقا	-11.7082
▁تاکسیران	-11.7083
تمامی	-11.7087
▁نبی	-11.7089
▁بخواهند	-11.7089
▁پیچید	-11.709
▁افزودند	-11.7095
نفی	-11.711
▁افزارهای	-11.7112
▁دوندگان	-11.7119
آباد	-11.7122
▁سولار	-11.713
▁شمش	-11.713
▁مهیب	-11.7131
۱۹۶۵	-11.7132
▁غذاهای	-11.714
موتو	-11.7143
▁اسلو	-11.7145
▁رابین	-11.7145
▁درمیان	-11.7148
▁مشتاقان	-11.7151
سود	-11.7152
دوغا	-11.7155
▁قبا	-11.7159
میلیارد	-11.7162
▁موتورها	-11.7163
▁رباب	-11.7167
حرف	-11.7167
▁همتایان	-11.717
▁بایست	-11.717
▁۱۷۴	-11.7174
▁برگر	-11.7175
▁فراور	-11.718
▁کشورهاست	-11.7183
وتو	-11.7187
▁کاتل	-11.7187
اتیو	-11.7189
▁منفور	-11.7191
راندن	-11.7192
▁انرو	-11.7192
▁۴۲۰	-11.7199
▁بریج	-11.72
▁رسا	-11.7201
ولوژی	-11.7205
▁لندر	-11.7209
تالیا	-11.7211
▁هستی	-11.7215
▁پاسدار	-11.7217
▁منت	-11.7218
بال	-11.722
▁موسیقیدان	-11.7223
▁کلوز	-11.7224
▁مادام	-11.7224
یامک	-11.7226
یاب	-11.7227
▁کامران	-11.7228
▁دانل	-11.7229
پچو	-11.7233
▁روده	-11.7234
▁متال	-11.7239
▁شنید	-11.724
▁تجمعات	-11.7244
▁سانچ	-11.7244
▁کوهن	-11.7245
▁بدهید	-11.7258
کارآمد	-11.7269
▁بدویا	-11.7269
▁نایا	-11.7275
▁خوردند	-11.7283
رضی	-11.7284
▁اتری	-11.7285
۹۷	-11.7292
اهید	-11.7303
▁وای	-11.7305
▁لینک	-11.7306
▁نیوز	-11.7307
یوئیت	-11.7308
نفت	-11.7311
تعدد	-11.7313
▁شایان	-11.7316
زد	-11.7318
▁کتک	-11.732
دوستان	-11.7321
▁قائ	-11.7327
▁مجرمان	-11.7327
▁ورق	-11.733
▁آرین	-11.733
وفس	-11.7331
▁جوانا	-11.7331
▁پژوهشهای	-11.7331
▁ستیز	-11.7334
▁اینست	-11.7344
▁گراند	-11.7344
شقان	-11.7362
▁خصوصیات	-11.7365
▁بیانداز	-11.7365
▁گذران	-11.7366
▁سور	-11.7369
ستر	-11.7369
▁شجاعت	-11.7379
▁کوبی	-11.7384
▁خوشایند	-11.7387
سیاس	-11.7389
▁وو	-11.7394
▁اینف	-11.7395
▁مستعا	-11.7398
لث	-11.7398
▁نبودند	-11.7399
هرزاد	-11.7399
▁تونسی	-11.7401
▁سیمین	-11.7404
▁تحرکی	-11.7407
▁توا	-11.741
۴۵	-11.742
▁سیلی	-11.7422
لسک	-11.7424
▁مجا	-11.7435
دهم	-11.7437
▁تفکر	-11.7438
▁مولان	-11.744
▁بازگشتند	-11.7446
هنه	-11.7452
الیز	-11.7455
▁نصر	-11.7456
فروش	-11.7458
▁یولیا	-11.7459
▁سوفی	-11.7459
▁بیکاران	-11.746
▁مشخصات	-11.7462
▁اغ	-11.747
▁ارغ	-11.7471
۳۶۰	-11.7479
فرانسی	-11.7485
▁فونت	-11.7485
▁متو	-11.7486
▁منازع	-11.7498
▁سرم	-11.7503
▁پنا	-11.7504
رومن	-11.7507
رج	-11.7508
زای	-11.751
▁خست	-11.7523
دوزی	-11.7524
▁فراخواند	-11.7532
▁خاوری	-11.7533
ورود	-11.7543
▁بایستی	-11.7543
نور	-11.7543
دیه	-11.7548
اسکورت	-11.7555
لون	-11.7559
آفرین	-11.7562
ریکا	-11.7566
بنی	-11.7576
نیوز	-11.7578
▁نیوت	-11.7579
نقدر	-11.7586
طالب	-11.7594
تاکس	-11.7599
▁بکار	-11.7604
▁جون	-11.7604
▁یادم	-11.7605
گردانی	-11.7605
یامده	-11.7607
تین	-11.7608
▁بستند	-11.762
رفه	-11.7635
▁رکس	-11.7636
گوین	-11.7639
چندی	-11.7653
میلیا	-11.7655
▁برنا	-11.7656
▁دخ	-11.7658
خود	-11.7659
▁لک	-11.7672
▁لمب	-11.7672
▁یون	-11.7673
▁پاش	-11.7678
▁بازنش	-11.7692
▁خوشنو	-11.7697
▁زنیم	-11.7708
▁حکمت	-11.7713
▁مهیا	-11.7719
کثیر	-11.7719
▁بودا	-11.773
▁حوا	-11.773
عادی	-11.7733
پاری	-11.7738
▁شار	-11.7741
▁هجدهمی	-11.7745
پادمان	-11.7745
▁سرگذاشت	-11.7747
فارم	-11.7756
▁برگزارکنند	-11.776
شایر	-11.7766
▁فرسا	-11.7766
▁کری	-11.7772
▁ننگ	-11.7774
▁شعرهای	-11.7779
▁دهی	-11.7788
▁دیپلم	-11.7792
▁پوستر	-11.7792
▁سنگی	-11.7796
قهرمان	-11.7798
▁ریگ	-11.7802
▁استعفاها	-11.7803
مق	-11.781
▁محبو	-11.781
▁لوپ	-11.7816
زر	-11.7827
▁شرکتها	-11.7831
طوف	-11.7832
▁شالی	-11.7837
اگ	-11.7844
▁چش	-11.7845
راماتیک	-11.785
▁تبل	-11.7857
▁استوایی	-11.7868
▁دیف	-11.7868
▁عطا	-11.7876
سان	-11.7879
کیت	-11.7882
▁اصولی	-11.7884
▁ارج	-11.7886
اسب	-11.7887
الا	-11.7891
▁زین	-11.7897
▁۶۶	-11.7907
▁بهرامی	-11.7919
جویان	-11.792
▁بنکس	-11.7935
▁بریتانیاست	-11.7946
بزرگ	-11.7949
▁فیش	-11.795
ژن	-11.7953
▁ایرلندی	-11.7956
▁دال	-11.7964
▁معتبری	-11.7964
▁غی	-11.7972
واکسن	-11.7972
▁بش	-11.7974
▁یانگ	-11.7976
▁بیو	-11.7982
۸۴	-11.7984
▁سوت	-11.7985
قای	-11.7987
بوه	-11.7994
وست	-11.801
▁شکوفا	-11.8014
▁صبا	-11.8016
▁بزو	-11.8016
پایان	-11.802
▁آغ	-11.8026
دریچ	-11.8042
امه	-11.805
زندگی	-11.8056
طل	-11.8062
▁تویی	-11.8066
اثر	-11.8068
▁امیرم	-11.8085
تخیلی	-11.8091
سارا	-11.8091
آمارها	-11.8108
چشم	-11.8116
رژی	-11.8117
▁توافقات	-11.8119
کلیف	-11.8125
ندر	-11.8136
▁کابلی	-11.8137
▁حوال	-11.8141
▁اصولگرا	-11.8147
وبی	-11.8147
ادگی	-11.8163
حقوق	-11.8167
زدی	-11.8177
ایان	-11.8184
▁واحده	-11.8185
رالزمان	-11.8185
عمل	-11.8188
زیست	-11.8202
دوم	-11.8204
بیماری	-11.8215
▁گرو	-11.8216
▁آلت	-11.8221
▁درخشند	-11.8224
دانشگاه	-11.8239
▁نازل	-11.8242
▁پرستار	-11.8247
نسک	-11.8252
اوران	-11.8257
▁موسسا	-11.8259
بازیکن	-11.8263
▁چهارمی	-11.8263
رفتن	-11.8272
ماجرا	-11.8274
اعتراض	-11.8278
ارش	-11.828
▁۱۲۵	-11.8305
انک	-11.8316
▁سیت	-11.8335
▁لوس	-11.8337
خانی	-11.8338
۹۶	-11.8346
▁۱۰۹	-11.8359
▁کارتون	-11.836
▁نیافتن	-11.837
ویژ	-11.8372
▁استوار	-11.8375
روس	-11.8381
▁آسا	-11.8383
▁اب	-11.8388
▁سردست	-11.8388
دولتی	-11.839
▁ربای	-11.839
حکم	-11.8391
انتخاب	-11.8391
بازیکنان	-11.8393
محدودیت	-11.8394
ویی	-11.8401
▁والا	-11.8402
جسمی	-11.8405
قرارداد	-11.8405
▁۲۰۵	-11.842
لیو	-11.8429
▁کیمی	-11.843
▁سلب	-11.8437
بحران	-11.8442
صلاح	-11.8444
ابتدا	-11.8445
پاسخ	-11.8454
▁استبا	-11.8454
▁کانتر	-11.8456
ائوس	-11.8457
خه	-11.8458
طری	-11.8461
▁ربود	-11.8463
ترکیب	-11.8464
▁تقی	-11.8466
بن	-11.8467
▁بدان	-11.8473
▁چسبن	-11.8475
▁عبد	-11.8482
آتش	-11.8484
جشنواره	-11.8485
حذف	-11.85
▁۳۳۰	-11.8501
فرصت	-11.851
▁گپ	-11.851
دلایل	-11.8521
تابستان	-11.8527
گمرک	-11.8532
▁کنو	-11.8533
▁فلم	-11.8534
جنجال	-11.8535
بهترین	-11.8538
▁سناریو	-11.8542
▁فعل	-11.8545
صعود	-11.8546
قسمت	-11.8546
▁انگل	-11.8546
تخریب	-11.855
ارجه	-11.855
جوایز	-11.8551
▁جیم	-11.8551
پالایشگاه	-11.8552
▁سمی	-11.8552
▁نوزده	-11.8553
تامی	-11.8557
اتفاقات	-11.8562
▁تمد	-11.8562
لحظ	-11.8562
نادر	-11.8564
رسید	-11.8565
آکادمی	-11.8568
طاع	-11.8569
▁شجاعی	-11.857
▁سخنگو	-11.8571
▁همسران	-11.8574
مردان	-11.8578
▁پولهای	-11.8583
▁۲۵۰۰	-11.8587
پاش	-11.8587
▁اپراتور	-11.8589
▁گیت	-11.8589
نژادپرست	-11.8589
▁آنهاست	-11.8603
ائ	-11.8605
اتهامات	-11.8606
شن	-11.8611
مکزیکو	-11.8611
▁اسا	-11.8615
ایلنا	-11.8616
راست	-11.8617
گزا	-11.862
جری	-11.8628
آزادی	-11.8632
▁روم	-11.8635
گرم	-11.8636
▁آزاری	-11.8639
▁طاهر	-11.8639
▁نیلی	-11.8643
هان	-11.8644
بیل	-11.8644
▁ورز	-11.8649
شهرهای	-11.8657
درحالی	-11.8657
عطا	-11.8661
مدیران	-11.8669
دریایی	-11.8672
▁نخواست	-11.8672
▁مطهر	-11.8674
▁یاسم	-11.8684
▁فنل	-11.8686
خواهیم	-11.8687
سرجی	-11.8691
▁یوسف	-11.8691
رییس	-11.8692
سام	-11.8694
تجمع	-11.8695
۳۴	-11.87
▁فعالی	-11.8707
ستا	-11.8716
مسعود	-11.8726
رث	-11.8726
پانز	-11.8733
▁کوچ	-11.874
▁ریس	-11.8749
کشی	-11.8753
▁فری	-11.8762
▁۲۹۰	-11.8762
▁اورگ	-11.8766
لکس	-11.8766
▁جمل	-11.8785
یکا	-11.8787
▁مواج	-11.8793
▁ثب	-11.8798
▁جعفر	-11.8805
▁میشود	-11.8806
۶۲	-11.881
ضرور	-11.881
▁تلا	-11.8826
▁جولیا	-11.8829
▁رودر	-11.8836
حضرت	-11.8841
▁حسابدار	-11.8849
گزار	-11.886
▁۱۰۲	-11.8861
ینچی	-11.8862
محسن	-11.8863
۰۵	-11.8867
هوش	-11.8867
▁تفنگ	-11.8874
اتور	-11.8876
یح	-11.8881
▁ترفند	-11.8882
سترازنکا	-11.8883
▁محدودی	-11.8883
▁۲۴۰	-11.8884
▁مقاوم	-11.8884
رانگ	-11.8886
▁آنتو	-11.8891
الگو	-11.8892
بازدید	-11.8893
▁ماهان	-11.8902
▁ماتی	-11.8905
▁دلم	-11.891
مونت	-11.8912
▁بروی	-11.8914
▁چرم	-11.8918
▁بقا	-11.8924
سترسیتی	-11.8927
▁مکالم	-11.8929
۱۰	-11.8932
▁باش	-11.8933
▁سب	-11.8934
نزو	-11.8936
▁نمک	-11.8936
▁الشع	-11.8936
▁آکسفام	-11.8938
▁دگرباش	-11.8938
▁رامهرمز	-11.8938
▁تشعشع	-11.8938
▁فستیوال	-11.8938
▁مارگاریتا	-11.8938
▁ننگرهار	-11.8938
▁کوکائین	-11.8938
▁دزفول	-11.8938
▁اوزبیک	-11.8938
▁پرتوافشانی	-11.8938
▁بیندازند	-11.8938
▁اوقاف	-11.8938
▁بیندازد	-11.8938
▁غزنوی	-11.8938
▁برافراشت	-11.8938
▁ناپایدار	-11.8938
▁مردخای	-11.8938
▁هیدروژن	-11.8938
▁بنکدارپور	-11.8938
▁سولیوان	-11.8938
▁اتمسفر	-11.8938
▁مجارستان	-11.8938
▁فرهیخت	-11.8938
▁اصغر	-11.8938
▁مفاهیم	-11.8938
معجزه	-11.8938
▁ایرلاین	-11.8939
▁سوراخ	-11.8939
▁جادوگر	-11.8939
▁نقیض	-11.8939
▁نیکزاد	-11.8939
▁تسخیر	-11.8939
▁سرامیک	-11.8939
▁هیوستون	-11.894
▁خویشتن	-11.894
▁نباشید	-11.894
▁پاستور	-11.894
▁حشرات	-11.894
▁بلندپایه	-11.8941
▁گلیزر	-11.8941
▁عنایت	-11.8941
▁مقاطع	-11.8941
▁بیضایی	-11.8941
▁چندرایان	-11.8942
▁مغایر	-11.8942
▁درهم	-11.8942
▁فاکتور	-11.8942
▁سفیدپوست	-11.8943
▁مادربزرگ	-11.8943
▁۱۹۷۹	-11.8943
▁بمیرد	-11.8943
▁مخوف	-11.8944
▁دیزل	-11.8944
▁زیراتمی	-11.8944
▁شوشتر	-11.8944
▁مطیع	-11.8944
▁مشروعیت	-11.8944
▁تجسس	-11.8944
▁آوینی	-11.8945
▁صفوف	-11.8945
▁شادمان	-11.8945
▁صفاری	-11.8945
▁بپردازند	-11.8946
▁۲۰۳۵	-11.8946
▁گوترش	-11.8947
▁متضاد	-11.8947
▁۱۳۸۶	-11.8948
▁قارچ	-11.8948
▁یقین	-11.8949
▁فواید	-11.8949
▁مالزی	-11.8949
▁فاسد	-11.8949
آنگولا	-11.8951
▁کاسپی	-11.8952
▁بخوانند	-11.8952
▁تمجید	-11.8953
آبی	-11.8954
▁بانکوک	-11.8955
▁توفندها	-11.8955
▁عبادی	-11.8955
▁مجل	-11.8956
▁زوایا	-11.8956
▁زهیر	-11.8957
پالا	-11.8957
▁ژائو	-11.8958
▁ندارید	-11.8958
▁برنگرداند	-11.8959
▁رونالد	-11.8959
▁چوپ	-11.8959
▁خودمختار	-11.8959
لگار	-11.896
▁وارث	-11.8961
▁وجدان	-11.8961
▁زراعت	-11.8961
▁کاردوس	-11.8963
▁سیاهپوست	-11.8968
▁انعکاس	-11.8968
▁سازگار	-11.8969
▁بیایند	-11.8969
▁۱۳۳	-11.8971
▁تمیز	-11.8971
▁آپوف	-11.8971
▁بیگم	-11.8972
▁ذوال	-11.8973
▁آنچنان	-11.8976
▁لرزاند	-11.8976
▁نوابی	-11.8977
ناگلزم	-11.8977
▁برنامک	-11.8978
▁اشکالات	-11.8978
▁معصوم	-11.8979
▁معنادار	-11.898
مانی	-11.8981
▁لاهه	-11.8982
▁هنکس	-11.8982
▁کابوس	-11.8983
▁اعترافات	-11.8983
▁دادخواست	-11.8984
▁فلزات	-11.8986
▁زادروز	-11.8987
▁راجپوت	-11.8987
▁لافرته	-11.8987
▁خجالت	-11.8987
▁ماوریک	-11.8988
▁نیابت	-11.8989
▁مالباخت	-11.8991
▁آموس	-11.8991
▁خلبان	-11.8991
▁عذاب	-11.8992
▁پارکور	-11.8993
▁مبنا	-11.8997
▁پردازش	-11.8997
▁۱۵۵	-11.8999
▁مجلات	-11.9
▁مجزا	-11.9
▁خطاهای	-11.9
▁انصاری	-11.9
فاهی	-11.9002
▁هموطنان	-11.9003
هموار	-11.9005
▁آستین	-11.9006
▁زینب	-11.9006
▁چفرین	-11.9007
یتز	-11.9007
▁قلمرو	-11.9008
سیستم	-11.9009
▁سلیق	-11.9011
▁نگذاشت	-11.9012
▁گاردن	-11.9013
▁ویرانگر	-11.9015
▁اشا	-11.9016
▁چسباند	-11.9018
▁نانو	-11.902
▁روزبه	-11.9022
▁نامند	-11.9023
▁تربت	-11.9024
▁بلاتکلیفی	-11.9025
▁هادرون	-11.9025
▁کولبران	-11.9026
▁مشاهدات	-11.9026
▁بکر	-11.9028
بازد	-11.9028
▁لغز	-11.903
▁دانید	-11.9031
شاد	-11.9031
▁دیابت	-11.9033
▁عزل	-11.9033
▁کوثر	-11.9036
▁میناری	-11.9036
▁قبایل	-11.9037
▁کمربندهای	-11.9038
هایش	-11.9039
▁اجداد	-11.9039
سیم	-11.9043
▁سرپوش	-11.9047
▁لنز	-11.9048
▁نمودار	-11.9048
▁افشاگر	-11.905
▁کورین	-11.9051
▁گوارش	-11.9054
▁وفا	-11.9055
▁گذراندم	-11.9059
▁ندادند	-11.9064
▁توتال	-11.9065
▁درخشد	-11.9068
▁اخطارهای	-11.9069
▁وفن	-11.9073
▁ترکمان	-11.9074
▁فاکس	-11.9078
▁شاهکارهای	-11.9081
▁بدیع	-11.9081
▁خطاط	-11.9082
▁شنوند	-11.9085
▁الجز	-11.9086
▁زشت	-11.9089
▁تایی	-11.9093
▁مورفی	-11.91
▁بزرگسالان	-11.9101
گوئه	-11.9103
انسان	-11.9103
طوری	-11.9104
▁غذاخور	-11.9104
▁امپر	-11.9104
▁دزد	-11.9106
رسون	-11.9108
راز	-11.9114
۱۹۶۴	-11.9115
▁کوک	-11.9115
▁دروغگو	-11.9127
ولا	-11.9128
تعدادی	-11.913
▁رخدادهای	-11.9136
مرور	-11.9145
▁چرن	-11.915
▁برگشتند	-11.9156
▁فتو	-11.916
فیروز	-11.9164
میمون	-11.9165
▁فروشد	-11.9165
مانه	-11.9168
▁سنج	-11.9175
▁ریختن	-11.9176
▁عبدالرحم	-11.918
▁تجسمی	-11.9181
▁نثر	-11.9182
ورلد	-11.9184
▁برنگشت	-11.919
▁دفع	-11.9192
یانگ	-11.9193
نجره	-11.9195
۳۷	-11.9201
ارا	-11.9209
▁اژدها	-11.921
ذره	-11.921
▁یوسفی	-11.9211
روزهای	-11.9214
▁اکثرا	-11.9216
لیس	-11.922
▁وانگ	-11.9221
▁رازی	-11.9227
▁آمری	-11.923
ودم	-11.9234
▁غزل	-11.9241
▁پرد	-11.9253
کافی	-11.9257
▁دیواره	-11.926
▁بوم	-11.9262
▁عینی	-11.9266
▁سوز	-11.9269
نگاره	-11.927
نمود	-11.9273
▁بلندپروازی	-11.9286
▁بطر	-11.9287
▁لیمو	-11.9292
▁هجر	-11.9295
▁سیاستگذار	-11.9297
رزمی	-11.9298
▁حک	-11.93
سبد	-11.9301
▁بادام	-11.9305
▁مایا	-11.9318
شاملو	-11.9323
گردانده	-11.9336
▁طبقات	-11.934
گذشته	-11.934
▁محت	-11.9344
▁آئ	-11.9351
▁مکزیکو	-11.9351
▁سناریوها	-11.9351
▁چشید	-11.9353
▁منه	-11.9354
نمی	-11.9357
ئیت	-11.9357
▁بخ	-11.9359
پایه	-11.9363
▁دوهزار	-11.9371
▁حوت	-11.9371
▁اعم	-11.9375
ائی	-11.9376
▁بعض	-11.9379
▁رژ	-11.939
ولوو	-11.9398
▁کشیم	-11.94
مسترد	-11.9402
▁منا	-11.9409
ینک	-11.941
▁ندید	-11.9414
▁علما	-11.9421
خل	-11.9422
▁اقسا	-11.9424
کردن	-11.9436
▁تراشید	-11.9439
▁افسرد	-11.9456
صله	-11.9467
▁کیل	-11.9485
انسون	-11.9497
▁عاج	-11.9499
پن	-11.9502
▁گرینو	-11.9504
▁ترانس	-11.9514
۳۹	-11.9517
▁سالروز	-11.9539
▁ویر	-11.9542
داشتن	-11.9545
▁هیو	-11.9548
▁مدرنی	-11.9552
▁سفرش	-11.9558
▁آسمانی	-11.9562
صلی	-11.9565
وئر	-11.9569
▁سروده	-11.9571
▁ازد	-11.9579
▁آورید	-11.958
▁بگذاری	-11.9597
▁مزد	-11.9599
▁تختی	-11.9601
ستانه	-11.9607
▁انو	-11.9612
▁آرنو	-11.9624
رژ	-11.9633
دانی	-11.9636
▁خودکار	-11.9637
▁گوا	-11.9638
وازم	-11.9642
▁دانستم	-11.9645
ئوس	-11.9645
▁نر	-11.9647
▁همهمه	-11.965
استان	-11.9656
▁کویت	-11.9666
▁نماید	-11.9667
▁سکو	-11.9672
▁نواخت	-11.9674
ضا	-11.9676
▁میزبانش	-11.9676
▁درصدد	-11.9677
▁افرا	-11.9687
▁کنارش	-11.9692
▁امضاکنند	-11.9694
رغ	-11.9695
کسان	-11.9695
ادام	-11.9695
▁کارکنانش	-11.9698
کسر	-11.97
▁استرا	-11.9708
وکارها	-11.9709
لسون	-11.9709
▁رسیم	-11.9718
▁لینگ	-11.9724
▁تراژ	-11.9725
▁خطی	-11.9731
امک	-11.9731
دیده	-11.9731
▁بز	-11.9732
دایی	-11.9734
گوید	-11.9738
رگامو	-11.9752
۱۲	-11.9753
▁چهارده	-11.9758
▁ستود	-11.9762
▁شرعی	-11.9764
▁افغانی	-11.9769
▁شوراها	-11.977
▁اوکا	-11.9774
▁عطار	-11.9777
▁زدم	-11.9779
ناتان	-11.9782
وبیل	-11.9785
وکسل	-11.9786
▁پرستاره	-11.9791
خوانده	-11.9796
شابه	-11.9798
▁وات	-11.9802
واضع	-11.9809
▁خالد	-11.9816
▁رجبی	-11.9817
▁مفسر	-11.9822
جله	-11.9832
▁غوری	-11.9832
▁ناامیدی	-11.9839
▁دیاب	-11.9844
▁نفی	-11.9845
▁افکند	-11.9847
▁آش	-11.9847
▁هایپر	-11.9848
▁آمونی	-11.9852
▁وث	-11.9852
▁تدا	-11.9856
▁بشود	-11.9856
▁خودس	-11.986
▁تخار	-11.9868
درباره	-11.9869
▁سامانی	-11.987
وط	-11.9882
▁ره	-11.9886
یدن	-11.9897
▁نایت	-11.9906
▁زیباتر	-11.9908
▁پیکا	-11.9923
▁همگان	-11.9924
▁دژ	-11.9939
▁دوسال	-11.9944
▁سینا	-11.9945
▁۱۳۲	-11.9945
▁مث	-11.995
▁سودجو	-11.9951
▁نروژی	-11.9952
نتین	-11.9964
▁افع	-11.9966
یکون	-11.9969
▁صلیب	-11.9971
مس	-11.9974
▁سول	-11.998
▁مارین	-11.9982
▁عار	-11.9983
▁عوا	-11.9983
▁نپذیرفت	-11.9984
▁مصو	-11.9986
خاطره	-11.9996
▁شرکا	-11.9999
بوک	-11.9999
تاد	-12.0006
مهم	-12.0013
▁۱۷۳	-12.0017
شدن	-12.0021
▁آموختن	-12.0023
▁بگ	-12.0035
▁تقلا	-12.0035
▁محص	-12.0036
تراپ	-12.0042
▁معط	-12.0044
لاس	-12.0054
▁نیر	-12.0076
▁شروط	-12.0081
▁متف	-12.0085
▁باک	-12.0091
ادیو	-12.0099
راد	-12.0101
یغ	-12.0102
▁کلینت	-12.0107
▁نگا	-12.0107
▁یدک	-12.0137
گذشت	-12.0139
▁نجفی	-12.0145
▁پهن	-12.0147
جمهوری	-12.0148
▁چید	-12.0154
▁سوپ	-12.0163
▁خصوصا	-12.0163
▁زوم	-12.0165
▁درب	-12.0177
▁بکت	-12.0177
▁میدهد	-12.0197
▁اشع	-12.0206
▁وول	-12.0207
▁لویی	-12.0209
دلی	-12.021
اچ	-12.021
موش	-12.021
▁لات	-12.0212
▁زنم	-12.0215
سپاس	-12.022
تکه	-12.0228
▁شارل	-12.0251
▁شورشی	-12.0258
▁یابی	-12.026
بق	-12.0265
▁تولیدش	-12.0266
▁اسکا	-12.0269
▁استف	-12.027
ساعت	-12.0276
▁طو	-12.0291
گز	-12.0296
لال	-12.0296
▁گرداند	-12.0298
صدا	-12.0314
▁آمی	-12.0319
ویا	-12.032
انریک	-12.0322
پرستانه	-12.0357
▁مصل	-12.0362
وک	-12.0364
▁سخ	-12.0368
▁تحریمها	-12.0371
▁حقوقدان	-12.0374
توافق	-12.0377
زمه	-12.038
▁کریر	-12.0384
باسی	-12.0384
▁محی	-12.0385
▁استودیوی	-12.0385
▁دیرین	-12.0388
▁کوما	-12.0395
▁ضم	-12.0396
ترک	-12.0402
سید	-12.0404
▁چنگ	-12.0412
▁آرت	-12.0415
▁خب	-12.0429
بست	-12.0429
انند	-12.0429
دیس	-12.0437
▁استکه	-12.0459
اکس	-12.0461
ونیا	-12.0463
سینگ	-12.0469
دنی	-12.0469
مشق	-12.0473
▁شمرد	-12.0476
▁ماد	-12.0482
جمله	-12.0482
▁پاشید	-12.0484
▁خند	-12.0488
▁آلم	-12.0501
اسیرو	-12.0518
▁فلی	-12.0519
ماشین	-12.0522
▁حض	-12.0525
▁بندهای	-12.0528
حضا	-12.0535
زنده	-12.0535
وضعیت	-12.0539
یگز	-12.0542
یرو	-12.0543
اندز	-12.0546
لایه	-12.0546
اسرائیل	-12.0548
یدی	-12.0552
▁رشدی	-12.0564
کین	-12.0572
▁گذاریم	-12.0572
ربین	-12.0573
▁همب	-12.0576
▁ناک	-12.0581
صال	-12.0582
▁۲۱۶	-12.0585
اندر	-12.0586
یوآ	-12.0588
▁پارو	-12.0589
▁دایی	-12.0593
سک	-12.0597
▁اط	-12.0598
▁۴۸۰	-12.0599
▁کارم	-12.0599
▁شراب	-12.0605
افراد	-12.0606
ندگی	-12.0617
خارج	-12.0618
▁اپ	-12.0621
توان	-12.0638
یلو	-12.0662
ریتز	-12.0666
شکاف	-12.0668
▁لیلا	-12.0669
▁برو	-12.0675
محل	-12.0682
نویس	-12.0685
▁بلخی	-12.0688
یناتور	-12.0691
▁کوئی	-12.0704
▁بکش	-12.071
یگ	-12.0712
سای	-12.0714
▁محر	-12.0715
حمایت	-12.0717
غا	-12.0718
▁پرکار	-12.0719
اردی	-12.0723
مختار	-12.0729
▁جوانب	-12.0733
▁گنجان	-12.0735
▁چپگرا	-12.0735
عربستان	-12.0736
▁۱۸۹	-12.0738
▁جودوکا	-12.0741
سند	-12.0763
▁نیاورده	-12.0769
ناسا	-12.0773
آزمایش	-12.0777
همکاری	-12.0778
▁دستمزدها	-12.0782
پرونده	-12.0791
▁گراز	-12.0793
انیس	-12.0797
▁پنجاهم	-12.0799
روژ	-12.08
▁فرودست	-12.0802
سپاه	-12.0806
بور	-12.0819
▁خاکس	-12.0822
▁کاو	-12.0827
حکومت	-12.0831
▁کنش	-12.0841
جیل	-12.0844
▁رول	-12.0846
ریدار	-12.0853
▁نیرومند	-12.086
مسئول	-12.0861
▁مشروع	-12.0862
صنعت	-12.0862
شکست	-12.0867
ارتوم	-12.0868
▁اجسا	-12.0872
شکنی	-12.0879
▁نیت	-12.0887
جوان	-12.0889
▁بیک	-12.0899
دخیل	-12.0901
ورانه	-12.0902
غدی	-12.091
خروج	-12.0915
نای	-12.0929
نهادهای	-12.0935
دنبال	-12.0937
سقوط	-12.0937
کانس	-12.094
دستور	-12.0941
جنگ	-12.0949
ارآفرین	-12.0949
جات	-12.0954
پوش	-12.0955
درخواست	-12.0955
جشن	-12.0958
▁نبرده	-12.097
سیاسی	-12.0973
فضای	-12.0973
۲۱	-12.0976
عملکرد	-12.0977
▁بخواب	-12.0983
خواننده	-12.0986
گستر	-12.0987
چاپ	-12.0989
اظهارات	-12.0989
▁همپ	-12.099
رید	-12.0994
پات	-12.1
مصرف	-12.1001
سفیر	-12.1003
کلی	-12.1004
برزیل	-12.1005
مطالع	-12.1007
▁بریم	-12.1009
▁حریفش	-12.1009
نیویورک	-12.101
رویترز	-12.1015
مدیریت	-12.1015
رکود	-12.1017
روبرت	-12.1018
سوئیس	-12.1022
▁سک	-12.1023
فیفا	-12.1026
حکام	-12.1029
ارکان	-12.103
نویسندگان	-12.1036
رئال	-12.104
▁ناکار	-12.1045
بنیا	-12.1046
▁گرجستان	-12.1047
کشف	-12.1057
حساب	-12.1061
ابراهیم	-12.1062
مدیرکل	-12.1064
خاوران	-12.1067
اسپوت	-12.1071
متری	-12.1074
وپ	-12.1079
میان	-12.108
▁دستش	-12.1082
جیمز	-12.1083
▁دوآ	-12.1085
اسنو	-12.1087
ازنده	-12.1094
ناتالی	-12.1095
سناتور	-12.1096
▁ساسان	-12.1098
دوست	-12.11
▁بهت	-12.11
لاپورتا	-12.1103
▁۱۲۶	-12.1103
بیانسه	-12.1103
▁کیس	-12.1108
لیور	-12.111
فاضل	-12.1111
هجوم	-12.1111
پینو	-12.1119
ضی	-12.1124
جسد	-12.1126
▁زای	-12.1128
تابعیت	-12.1129
▁خونی	-12.1129
▁نزده	-12.1129
▁ناشنا	-12.113
نوسان	-12.1134
وکیل	-12.1134
کریس	-12.1135
ایرنا	-12.1137
بالگرد	-12.1139
بدهی	-12.1139
▁سندر	-12.1144
▁گارس	-12.1154
سنج	-12.1156
پیکر	-12.1157
دقیق	-12.1158
▁پترو	-12.1158
نقش	-12.1158
پژوه	-12.1162
نسون	-12.1163
قبلا	-12.1163
رمد	-12.1165
ناوب	-12.1168
▁خانوارها	-12.1168
لیه	-12.1172
▁دیدگ	-12.1173
▁والن	-12.1178
ناوگان	-12.1181
▁مزایا	-12.1194
▁پابل	-12.12
مانس	-12.1203
۷۲	-12.1204
▁اوار	-12.1207
▁چیزها	-12.121
حکمت	-12.1211
علنی	-12.1214
▁علام	-12.1214
▁رج	-12.1216
مکرون	-12.1224
▁ندا	-12.1226
۱۴۶	-12.1228
▁تجسم	-12.1228
ومی	-12.1231
لوح	-12.1243
کیهان	-12.1246
فورا	-12.1246
جین	-12.1247
بولت	-12.1247
▁کتا	-12.125
میلان	-12.1251
وشن	-12.1253
▁بفهمی	-12.1255
▁هواپیماها	-12.1257
▁مختص	-12.126
لاخ	-12.1264
رویز	-12.1264
▁خودرا	-12.1267
۹۴	-12.1268
صرب	-12.127
برت	-12.1271
۳۸	-12.1273
ایده	-12.1275
▁کاف	-12.1275
▁فروخت	-12.1278
▁لوف	-12.1283
▁توئیت	-12.1284
▁قهری	-12.1289
نگو	-12.1292
رجان	-12.1302
▁شوخ	-12.1304
منتف	-12.1306
▁معوق	-12.1307
جنسی	-12.1311
▁هک	-12.1314
گمش	-12.1315
شهرت	-12.1315
▁بدتری	-12.1325
▁شراف	-12.1334
▁نگو	-12.1336
نشدنی	-12.134
بیورن	-12.134
▁بیگان	-12.1347
▁صیاد	-12.1348
نکات	-12.1348
سبک	-12.135
تقابل	-12.1352
▁فلامینگو	-12.1352
▁جید	-12.1352
▁دیگ	-12.1354
تص	-12.1355
رام	-12.1355
▁آبه	-12.1363
ونتی	-12.1366
▁مسیرها	-12.1367
▁کثی	-12.1367
▁محک	-12.1368
نال	-12.137
▁همسایگ	-12.1374
۹۵	-12.1379
▁نوزدهمی	-12.1387
قول	-12.139
▁غواص	-12.1391
طابق	-12.1399
▁آری	-12.1403
اسکار	-12.1403
▁غر	-12.1408
▁اتم	-12.141
▁فض	-12.1416
یکپا	-12.1418
▁مطبوع	-12.142
▁غیرعم	-12.142
▁زحم	-12.1421
باستان	-12.1422
قضی	-12.1422
▁مدا	-12.1423
▁کلت	-12.1427
توم	-12.1433
گرفتن	-12.1437
▁ابتذال	-12.1438
▁اوگوپوگو	-12.1438
▁سوسیالیست	-12.1438
▁طنزپرداز	-12.1438
▁فیزیولوژی	-12.1438
▁انقباض	-12.1438
▁بفرستد	-12.1438
▁بورکینافاسو	-12.1438
▁سوبرانا	-12.1438
▁هخامنشی	-12.1438
▁پورنوگرافی	-12.1438
▁بشنوند	-12.1438
▁تمسخر	-12.1438
▁پرینسخرا	-12.1438
▁مغانلو	-12.1438
▁معشوق	-12.1438
▁میکروسکوپ	-12.1438
▁فانخیو	-12.1438
▁کاریکاتور	-12.1438
▁فلسفی	-12.1438
▁پرسورینس	-12.1438
▁اولیانوف	-12.1438
▁خویشاوند	-12.1438
▁قیراط	-12.1438
▁تشریفات	-12.1438
▁شریعت	-12.1438
▁بپرسید	-12.1438
▁سمنزا	-12.1438
▁خاستگاه	-12.1438
▁فرخزاد	-12.1438
▁ناآشنا	-12.1438
▁اقوام	-12.1438
▁شرمسار	-12.1438
▁لوکزامبورگ	-12.1438
▁نوترینو	-12.1438
▁وسعت	-12.1439
▁همجوار	-12.1439
▁گمپرت	-12.1439
▁شیطان	-12.1439
▁متقلب	-12.1439
▁سوینتن	-12.1439
▁غمگین	-12.1439
▁پاندمی	-12.1439
▁بازوبند	-12.144
▁اساتید	-12.144
▁انحراف	-12.144
▁نافرجام	-12.144
▁اوتیسم	-12.144
▁تمهید	-12.144
▁تدارک	-12.144
▁برسانیم	-12.144
▁وصیت	-12.144
▁آژیر	-12.1441
▁برگردانند	-12.1441
▁۵۳ساله	-12.1441
▁مصادیق	-12.1441
▁فورهند	-12.1441
▁هیلتون	-12.1441
▁جانبازان	-12.1441
ارگ	-12.1441
▁الخروج	-12.1442
▁الفبا	-12.1442
ثه	-12.1442
▁نزاع	-12.1443
▁فرازمینی	-12.1443
▁ارباب	-12.1443
▁سرسبز	-12.1444
▁ویسکانس	-12.1444
▁علیشاهی	-12.1444
▁ناخدا	-12.1444
▁معضل	-12.1444
▁کوئینز	-12.1444
▁هنجار	-12.1444
▁ستیزانه	-12.1444
▁ارنست	-12.1445
▁بشناسد	-12.1446
▁طلسم	-12.1447
▁مفسد	-12.1447
▁داینا	-12.1448
▁ارژن	-12.1448
▁منحنی	-12.1448
▁مشکاتیان	-12.1449
▁سنجاب	-12.1449
کلا	-12.145
▁۱۳۲۳	-12.145
▁فاضلاب	-12.145
▁سیندمی	-12.145
▁خوشبو	-12.1451
▁حروف	-12.1452
▁دفعات	-12.1453
▁بیفتند	-12.1454
شانت	-12.1455
▁نویدبخش	-12.1455
▁معابد	-12.1455
▁۵۵۶	-12.1455
▁گنبد	-12.1455
▁مرورگر	-12.1456
▁بنویسد	-12.1456
▁المپی	-12.1456
▁تشابه	-12.1457
▁۱۹۴۴	-12.1459
▁بازگردم	-12.1459
▁سروصدا	-12.146
▁ونوس	-12.146
▁مقبول	-12.146
▁همینگوی	-12.146
▁دیلن	-12.146
▁ناظمی	-12.146
۸۱	-12.1461
▁کانتونا	-12.1461
▁وزیری	-12.1462
ارزپاشی	-12.1463
▁فرمایش	-12.1465
داگ	-12.1465
▁بردارم	-12.1466
▁منکین	-12.1467
▁طومار	-12.1468
▁آتلانتا	-12.147
▁آندریا	-12.1471
▁تظاهر	-12.1472
▁ترفتال	-12.1472
▁گزاف	-12.1473
▁قبرس	-12.1473
▁سمع	-12.1474
صنوف	-12.1475
▁جوابگوی	-12.1475
▁اسکلت	-12.1476
▁۲۶۶	-12.1476
▁گوتنب	-12.1477
▁بنرهای	-12.1478
▁بهائی	-12.1478
▁آتلانت	-12.1479
▁مرندی	-12.148
▁حر	-12.148
▁بگذار	-12.148
▁مزیت	-12.148
▁رافا	-12.1482
▁روباه	-12.1482
ولکس	-12.1483
▁۲۳۹	-12.1483
▁بارکلی	-12.1484
اینس	-12.1484
خوش	-12.1486
▁رجیس	-12.1486
▁تنبل	-12.1489
▁بازدارند	-12.1489
▁بگریز	-12.1489
▁میانمار	-12.1493
▁زیربنا	-12.1493
▁جویانه	-12.1493
▁ناباور	-12.1494
اپور	-12.1496
▁پوسید	-12.1498
▁دارالا	-12.1498
▁۱۹۱۸	-12.15
▁هالووین	-12.1502
▁مشهود	-12.1502
▁خف	-12.1506
▁مارلی	-12.1507
▁بازوهای	-12.1508
▁صداقت	-12.151
وئیس	-12.1513
حک	-12.1513
وماگا	-12.1514
▁پارکین	-12.1514
جف	-12.1515
بنز	-12.1517
▁مکاتبات	-12.1518
لخ	-12.1518
▁ترو	-12.1518
▁بوفالوران	-12.152
▁فرستند	-12.1522
آمدن	-12.1525
▁مرج	-12.1525
▁خرنامه	-12.1526
▁ایدز	-12.1527
▁پیشگیر	-12.1528
▁نداشتیم	-12.153
▁شوکور	-12.1531
▁هولو	-12.1533
▁فلسطینی	-12.1534
اتب	-12.1537
▁اندرو	-12.1541
▁باگ	-12.1542
عزیز	-12.1542
▁محصور	-12.1544
▁بامیه	-12.1546
رل	-12.1547
▁همبازی	-12.1547
▁شهباز	-12.1549
▁چهارصد	-12.1551
▁لرزید	-12.1554
▁معبد	-12.1554
▁جهانبخ	-12.1559
▁زرتشتی	-12.156
جد	-12.1568
▁جدیدش	-12.1569
کنفرانس	-12.1573
متاز	-12.1574
▁شکس	-12.1575
▁ازآن	-12.1575
▁واژگان	-12.1582
رمانی	-12.1583
▁جوری	-12.1583
ستحکم	-12.1584
ساندر	-12.1585
▁صدیق	-12.1586
▁فالک	-12.1589
▁منصف	-12.1589
▁ترنس	-12.159
▁زالی	-12.1593
▁اوساکا	-12.1596
▁یادمان	-12.1596
رض	-12.1596
▁رحیم	-12.1598
▁معلومات	-12.1599
▁ویدئوهای	-12.1601
▁سندگرن	-12.1604
▁رقصیدن	-12.1604
▁سویی	-12.1608
▁آجر	-12.1611
▁بحری	-12.1614
ونکو	-12.1617
▁تعلیم	-12.1618
▁هرج	-12.1621
وشکن	-12.1624
▁موازن	-12.1625
فراگ	-12.1626
▁آلتر	-12.1627
▁اسکات	-12.1627
▁مستعد	-12.1628
▁کاسی	-12.163
▁ساچ	-12.1632
▁دستفروش	-12.1632
مانند	-12.1637
پائی	-12.1641
▁قدیس	-12.1642
دوج	-12.1642
▁تماشگر	-12.1646
▁گمارد	-12.165
▁لطیفی	-12.1651
شود	-12.1651
▁تناقض	-12.1655
هند	-12.1656
▁فراوانش	-12.1661
▁نوشتارها	-12.1668
هسته	-12.1669
▁فاصل	-12.167
اسرای	-12.167
▁بسط	-12.1671
نعیم	-12.1671
▁محبت	-12.1673
ونت	-12.1677
▁شگرد	-12.1683
▁راهکارهای	-12.169
▁فقی	-12.1693
▁جوج	-12.1693
▁جذابی	-12.1694
▁بم	-12.1701
▁جوزا	-12.1704
▁بنفش	-12.1706
▁شاخک	-12.1708
پیس	-12.171
یقه	-12.1717
وانیم	-12.1719
▁کاترین	-12.1727
▁رحیمی	-12.1734
مال	-12.1736
پهن	-12.1736
▁درصورت	-12.1746
▁فرشید	-12.1746
▁چتر	-12.1753
انشهر	-12.1755
▁الزاما	-12.1766
دارا	-12.1772
▁شرت	-12.1774
▁ترسند	-12.1774
▁یادش	-12.1776
۶۸	-12.1781
▁دائما	-12.1786
▁دالان	-12.1786
▁گیج	-12.1793
▁پربار	-12.1795
▁ماریان	-12.1798
لز	-12.1804
▁حقیق	-12.1821
▁قبای	-12.1827
خدم	-12.1828
رونا	-12.1833
▁کاپل	-12.1841
▁انگ	-12.1848
▁فیض	-12.1857
▁استانها	-12.1864
▁دکترای	-12.1872
ساتبی	-12.1873
▁هیج	-12.1878
▁دستیاران	-12.1879
▁۷۶۰	-12.1881
▁الع	-12.1881
▁خوانید	-12.1882
هفتم	-12.1885
▁یوآن	-12.1888
▁ترا	-12.1889
▁کشمیر	-12.1889
▁یزدان	-12.1892
▁کتابخوان	-12.1892
۸۸	-12.1893
نیو	-12.1895
▁گاردی	-12.1896
▁جهاندار	-12.19
عت	-12.1901
اویر	-12.1907
▁اظهارنظرهای	-12.191
۷۸	-12.1917
راث	-12.1924
جمعی	-12.1925
موسی	-12.193
رگذشت	-12.193
▁چهلم	-12.1937
رک	-12.1938
▁پرمخاط	-12.1938
▁زاها	-12.1944
کران	-12.1944
▁چغا	-12.195
▁بدهیم	-12.1954
▁جلوست	-12.1965
▁استدفتر	-12.1965
▁شناسیم	-12.1968
نتسب	-12.197
حالی	-12.1972
▁بیدگ	-12.1973
فشان	-12.1982
یکصد	-12.1983
▁کلاسیکو	-12.1986
زنان	-12.1986
▁لوت	-12.199
▁چشمم	-12.199
▁آفرید	-12.1998
▁طاهری	-12.1999
▁قبض	-12.2002
▁ویسل	-12.2006
▁هرچیز	-12.2007
▁ماجراهای	-12.201
▁آرن	-12.2013
نیت	-12.2019
کیا	-12.2025
▁وسای	-12.2026
▁الیو	-12.2028
▁شودبا	-12.2038
حریف	-12.2047
▁آهست	-12.2049
▁ترسم	-12.2052
مثبت	-12.2055
حاملگی	-12.2057
ولاتش	-12.2057
▁مته	-12.2058
▁دارن	-12.2064
▁فرگوس	-12.2072
چهارم	-12.2075
جاز	-12.2075
▁افتادند	-12.2081
▁برنج	-12.2084
کاران	-12.2092
▁خفا	-12.2092
▁معل	-12.2093
تمایل	-12.2097
چو	-12.21
سیاست	-12.2105
▁نبردی	-12.2109
تاز	-12.2111
▁بنی	-12.2116
▁پدرو	-12.2123
▁بویی	-12.2123
ارک	-12.2123
▁کاشت	-12.2133
لیدی	-12.2133
▁کامر	-12.2134
▁نیستید	-12.215
لوگ	-12.215
▁پاور	-12.2152
▁آمو	-12.2153
▁شست	-12.2154
▁بنام	-12.2156
▁سرگرفتن	-12.2157
▁انگیزش	-12.2172
▁پذیرد	-12.2173
▁وزر	-12.2175
▁پاتری	-12.2177
ستری	-12.2178
رگز	-12.2183
شیر	-12.2184
▁بارتو	-12.2185
لنگ	-12.2185
گرانی	-12.2186
تحرک	-12.2187
▁رهنو	-12.219
▁تعبی	-12.2204
▁توسل	-12.2205
▁شناختند	-12.221
شیتز	-12.2211
▁نرفتن	-12.2213
▁الف	-12.2215
▁ارو	-12.222
▁دستورات	-12.2221
▁بلیک	-12.2223
▁پوک	-12.2225
▁قهر	-12.2228
▁لیز	-12.2236
عر	-12.2247
▁کولبری	-12.2249
▁آوریم	-12.225
اردونا	-12.2251
▁رامین	-12.226
▁افراز	-12.2262
▁رویکردهای	-12.2263
ارض	-12.2269
میزان	-12.2273
▁ایرانسل	-12.2277
▁مهرا	-12.2285
سپورت	-12.2288
۷۷	-12.2296
▁منسو	-12.2301
مش	-12.2303
انده	-12.2306
چار	-12.2309
▁همد	-12.2312
مری	-12.2312
سورها	-12.2315
▁استعماری	-12.2317
▁نگ	-12.2319
ونومی	-12.2321
استین	-12.2321
نبه	-12.2322
▁ناخ	-12.2323
▁گود	-12.2329
▁سیلوا	-12.2347
گیرند	-12.235
الار	-12.2363
▁کارآمد	-12.2375
▁نیافتاد	-12.2375
▁نحس	-12.2378
▁اوب	-12.2381
▁وصدا	-12.2403
ازاد	-12.2411
وشه	-12.2411
▁مذاکراتش	-12.2417
▁کلک	-12.2419
نما	-12.2433
▁گاف	-12.244
▁کاش	-12.2441
▁وتو	-12.2441
▁اتفاقا	-12.2451
قیق	-12.2454
▁دره	-12.2467
▁خانود	-12.247
دهی	-12.2475
راکت	-12.2483
▁رسند	-12.2485
▁پولدار	-12.2488
ناوند	-12.2497
▁لایک	-12.25
▁کاپ	-12.2513
▁راهکار	-12.2516
عود	-12.2525
▁سپهر	-12.2532
▁درسا	-12.2533
زهای	-12.2533
جاست	-12.2534
▁بلوم	-12.2539
▁سکوی	-12.2562
رنوش	-12.2563
وص	-12.2568
▁گفتم	-12.2569
ننده	-12.2572
▁قمر	-12.2572
▁پرداختند	-12.2576
▁اندیشید	-12.2586
بریتی	-12.2586
▁بیگ	-12.2611
▁وایت	-12.2619
وشیرو	-12.2619
سادگی	-12.2627
▁حم	-12.263
▁مبه	-12.2637
ینا	-12.2638
کابو	-12.2641
▁یوس	-12.2642
▁۱۳۱	-12.2642
▁سراغش	-12.2643
نگوی	-12.2643
▁قه	-12.2644
۸۲	-12.2646
باف	-12.2648
وکس	-12.2655
▁نزدیکانش	-12.2661
اشک	-12.2664
اطی	-12.2665
تال	-12.2666
▁ضمی	-12.2675
یافت	-12.2683
▁صعودش	-12.2685
▁بری	-12.2696
زمانی	-12.2697
یشان	-12.2699
بریز	-12.2711
▁گلد	-12.2713
▁راب	-12.2722
▁ماهیان	-12.2731
فرنو	-12.2732
▁سلیم	-12.2735
▁اوجی	-12.274
یری	-12.2746
▁کنسولی	-12.2748
▁تیز	-12.2749
وردی	-12.275
▁نایم	-12.2753
▁سندی	-12.2757
▁قضا	-12.2761
▁ولای	-12.2762
نازل	-12.2771
▁هوی	-12.2771
▁هندو	-12.2779
▁کریستین	-12.2782
▁بلن	-12.2799
▁چاو	-12.28
▁حواسش	-12.2804
ولز	-12.2805
▁ایرایی	-12.2811
گلدار	-12.2818
▁سازمانها	-12.2824
▁تنه	-12.2826
▁هواپیماساز	-12.2831
▁ابراهیمی	-12.2834
۴۳	-12.2834
فرد	-12.2839
آخر	-12.2842
▁میانج	-12.2846
▁العم	-12.2847
▁بازو	-12.2848
مداری	-12.285
ئل	-12.2856
▁مستندهای	-12.2858
▁ولت	-12.2867
۸۷	-12.2867
ادیوم	-12.2872
ساطی	-12.2873
▁بلندهای	-12.288
▁۱۱۹	-12.2881
تانک	-12.2883
اشا	-12.2887
طغ	-12.2888
▁فدریک	-12.2891
▁۱۶۶	-12.2897
▁نفربر	-12.2907
تقبل	-12.2908
سرع	-12.2911
کاظمی	-12.2912
انستان	-12.2915
قانون	-12.2921
فهمد	-12.2923
خور	-12.2932
▁وینس	-12.2933
▁نول	-12.2933
▁دولتها	-12.2936
ارز	-12.2946
▁نقاشان	-12.2953
اشق	-12.2954
▁مدد	-12.2969
▁مینیاتوری	-12.2983
عکسی	-12.2987
▁نگفت	-12.2992
▁وظایفش	-12.2994
▁هزاره	-12.2995
طلس	-12.3003
▁زوا	-12.3006
▁رویت	-12.3017
منت	-12.3023
ورسوی	-12.3028
▁جنگیدن	-12.303
یلد	-12.3036
اگون	-12.304
اقت	-12.3041
▁مستن	-12.3046
بسیار	-12.3052
▁مشترکان	-12.3054
▁نتوان	-12.3054
نگاه	-12.3076
انو	-12.3079
بومی	-12.3081
▁سپه	-12.3094
دلار	-12.3096
▁تصو	-12.3106
▁لاب	-12.3108
▁جدیدتر	-12.3114
دروس	-12.3117
یمن	-12.312
اپیش	-12.3123
ختی	-12.3123
▁ببری	-12.3128
▁نظار	-12.313
۸۰۰۰	-12.3133
رویا	-12.3139
انچین	-12.3142
محمدی	-12.315
▁گرون	-12.3152
▁اتکای	-12.3153
ستردا	-12.3157
بد	-12.3158
▁ابط	-12.3164
▁ویلر	-12.3168
یوید	-12.3183
رصدخان	-12.3183
▁ناگ	-12.3196
▁..	-12.3199
خو	-12.32
کسوت	-12.3201
تد	-12.3208
▁لیم	-12.3214
جماع	-12.3223
ضیا	-12.3236
▁منح	-12.3252
ولادی	-12.3253
چلو	-12.327
لینک	-12.3271
هکرهای	-12.3274
▁مگ	-12.3276
▁استانداردها	-12.3277
ناتور	-12.3284
▁کیش	-12.329
رابی	-12.3296
وژه	-12.33
▁نبودن	-12.33
▁کیپ	-12.3304
گور	-12.3313
یگری	-12.3317
صادف	-12.3321
▁رزو	-12.3333
▁عمرم	-12.3342
۹۰	-12.335
ورس	-12.3356
وقی	-12.3357
▁محصولش	-12.3376
۸۰	-12.3377
چون	-12.338
▁ماریو	-12.3383
رال	-12.3384
▁استرلی	-12.3388
انگر	-12.339
تامین	-12.3396
شبن	-12.3402
▁فراپا	-12.3404
▁آنجل	-12.3408
▁فوب	-12.3409
شواری	-12.3422
▁آین	-12.3427
▁مزارش	-12.3432
فعال	-12.3433
ارسیا	-12.3435
اشته	-12.3435
▁دریاب	-12.3435
▁بنشین	-12.3439
جران	-12.3441
تاریخ	-12.3442
اندرو	-12.3444
ثر	-12.3451
▁شغلش	-12.3454
تعلل	-12.3474
▁۱۸۸	-12.3478
ودن	-12.3481
▁آسود	-12.3488
▁مخاط	-12.3492
▁موفقی	-12.3501
▁مسا	-12.3506
▁۱۲۷	-12.3508
▁جود	-12.3514
دیر	-12.3522
▁پشتکار	-12.3528
بدیل	-12.3539
عفو	-12.3543
کلاس	-12.3544
اقدام	-12.3546
▁فضاپیما	-12.3559
بول	-12.3559
سگ	-12.3566
▁فهمیدن	-12.3572
▁۱۲۸	-12.3576
فرید	-12.3586
▁اندروز	-12.3587
ضب	-12.3587
رونالدو	-12.3599
▁پهنا	-12.361
فال	-12.3616
آقا	-12.3626
▁برپا	-12.3633
چیزی	-12.3637
▁بهنا	-12.3641
خرید	-12.3642
صدای	-12.3644
▁پود	-12.3648
▁شرع	-12.3656
لج	-12.3661
مگان	-12.3666
فعالیت	-12.3668
▁سرزن	-12.3675
کای	-12.3676
▁ترسید	-12.368
▁دز	-12.3696
تس	-12.3702
روحانی	-12.3703
مانیا	-12.3704
سمانی	-12.3705
نشینان	-12.3707
▁مری	-12.3729
وگو	-12.3732
ورنتین	-12.3739
▁۶۳۰	-12.3739
کارت	-12.3747
▁باشی	-12.3753
نگل	-12.3759
فان	-12.3759
▁بک	-12.3798
▁سبزی	-12.3802
پیدا	-12.3815
نوان	-12.3817
▁هنک	-12.3817
درآمد	-12.382
▁آبیار	-12.3826
▁تشخیصی	-12.3833
وینچ	-12.3849
▁شدایران	-12.3857
▁محمدحس	-12.3869
▁براه	-12.3871
▁بیند	-12.3879
▁مبل	-12.3879
دیو	-12.3883
سپی	-12.3885
▁واژگ	-12.3887
▁پرور	-12.3891
بودجه	-12.3896
عل	-12.3898
▁یونیو	-12.39
▁آنف	-12.3904
▁تجر	-12.391
▁بایس	-12.3914
ریاست	-12.3921
▁سط	-12.3927
▁بدق	-12.3929
۲۰۲۰	-12.3939
امید	-12.3939
ورش	-12.394
▁هوک	-12.3948
تفاوت	-12.3948
▁سرن	-12.3957
موضوع	-12.3966
▁آت	-12.3969
لوی	-12.397
تروئ	-12.3972
دوش	-12.3974
قاب	-12.3983
پزی	-12.3985
یلند	-12.3989
▁وج	-12.399
سین	-12.4003
رآمیز	-12.4012
سرمربی	-12.4013
▁زیرین	-12.4016
▁همسری	-12.4019
حی	-12.4019
صادرات	-12.4021
▁پارسا	-12.4024
شاهد	-12.4026
▁نیکول	-12.403
▁رودخ	-12.4033
المپیک	-12.4034
قاد	-12.4034
لیت	-12.4035
ذب	-12.4046
امگاه	-12.4049
▁نابینا	-12.4056
مالا	-12.4071
▁عی	-12.4081
کنی	-12.4081
قدیم	-12.4082
▁میلو	-12.4083
ورزشگاه	-12.4089
ظریف	-12.4095
آمدی	-12.41
هیه	-12.41
قطع	-12.41
بندند	-12.4109
انح	-12.4123
تراز	-12.4127
▁آلیس	-12.4131
متوقف	-12.4133
قامت	-12.4136
جز	-12.4142
حرکت	-12.4142
سوخت	-12.4153
▁بهم	-12.4157
سیمون	-12.4158
خبرنگار	-12.4158
▁استروئید	-12.4163
▁سودی	-12.4163
یدا	-12.4164
چهارشنبه	-12.4165
▁اکر	-12.4173
ئیز	-12.4173
نوم	-12.4184
کانا	-12.4187
اسکا	-12.4187
پارسال	-12.4187
▁لیورپولی	-12.4195
سریال	-12.4198
▁بارس	-12.4205
جلسه	-12.4205
▁دری	-12.4205
ینس	-12.4211
معروف	-12.4213
عملیات	-12.4216
همیشه	-12.4223
▁لرد	-12.423
▁آرزوها	-12.4232
▁گردی	-12.4233
شکایت	-12.4235
▁شرو	-12.4235
▁هجده	-12.4236
نوا	-12.4236
جدول	-12.424
اعتراضات	-12.4243
▁کتابدار	-12.4245
تک	-12.4246
▁نویسند	-12.4248
کودک	-12.425
واحد	-12.425
سرطان	-12.4252
فساد	-12.4257
تهدید	-12.4257
برخورد	-12.4257
والی	-12.4259
▁درگذشتم	-12.4263
برداشت	-12.4267
مجید	-12.4267
امنیتی	-12.4269
شناسی	-12.4273
▁کیلی	-12.4275
▁ماجراجو	-12.4278
تاسیس	-12.4281
▁گوست	-12.4284
تزریق	-12.4287
▁زندگیش	-12.4288
▁شاد	-12.4296
ادبی	-12.4297
مدیرعامل	-12.4298
نوشت	-12.4299
چپ	-12.43
ساخته	-12.43
▁الکترودها	-12.4301
▁۱۵۲	-12.4302
یادی	-12.4305
بحرین	-12.4305
▁اپی	-12.4306
اسفند	-12.4309
معترضان	-12.431
اتاق	-12.4312
فرق	-12.4313
▁خرم	-12.4314
▁صفت	-12.4322
هدایت	-12.4325
▁درازا	-12.4328
خودروهای	-12.4329
▁آلک	-12.433
لود	-12.4331
توییت	-12.4334
تماشاگر	-12.4336
▁مورخ	-12.4336
▁هیچگ	-12.4337
دول	-12.4339
خیابان	-12.434
نادال	-12.4341
مشاور	-12.4343
معمولا	-12.4343
▁هاستل	-12.4343
بازارهای	-12.4343
▁وینفر	-12.4346
پروتکل	-12.4348
اختلال	-12.4348
آلبر	-12.4353
گواردیولا	-12.4353
سرپرست	-12.4355
فراموش	-12.4355
مالک	-12.4356
▁نیروها	-12.4358
▁فره	-12.4359
اصلاح	-12.4361
قچی	-12.4362
حراج	-12.4364
پادشاه	-12.4365
فولاد	-12.4368
واشی	-12.4369
▁بازیها	-12.4372
اطمینان	-12.4373
ایسنا	-12.4375
تجهیزات	-12.4375
پایگاه	-12.4376
رامش	-12.4378
تماشاگران	-12.4379
حشمت	-12.4381
▁فیلی	-12.4383
ساعات	-12.4384
گشایش	-12.4384
▁انع	-12.4385
پاییز	-12.4386
خودکشی	-12.4388
دالر	-12.4388
▁اینگ	-12.4388
کیفیت	-12.4389
▁فرزان	-12.4392
تدریج	-12.4393
منچستریونایتد	-12.4393
کاوشگر	-12.4393
اولسان	-12.4394
کوئ	-12.4399
▁دلو	-12.4399
نوروز	-12.4399
عرص	-12.44
معمول	-12.44
وبسایت	-12.4405
▁فران	-12.4406
امارات	-12.4406
۸۰۰	-12.4407
برخلاف	-12.4408
منچسترسیتی	-12.4408
عطرساز	-12.4409
ویلیام	-12.441
خالق	-12.4411
غریب	-12.4411
وستهم	-12.4411
کیانوش	-12.4414
ثروت	-12.4419
تیرماه	-12.4419
انوس	-12.4419
بنفش	-12.442
▁محبوبش	-12.442
کوبا	-12.4422
کریستین	-12.4423
سنا	-12.4424
تفاهم	-12.4424
مارتین	-12.4428
حجت	-12.443
رونالدینیو	-12.4431
▁بستگ	-12.4431
انتقادات	-12.4431
سولار	-12.4433
امد	-12.4433
ساترا	-12.4437
جدال	-12.444
▁۱۵۱	-12.4447
▁قزوین	-12.4449
▁هیولا	-12.4457
▁وکلا	-12.4459
نهایی	-12.446
عبدالله	-12.4461
امشب	-12.4462
▁پناهجو	-12.4465
▁سالیان	-12.4466
▁گرسن	-12.4467
▁حائ	-12.4469
جعفر	-12.447
▁جهنم	-12.4471
پژوهش	-12.4474
▁واعظ	-12.4475
کمپ	-12.4476
▁اظهارنظرها	-12.4481
ربط	-12.4482
پناه	-12.4482
▁پیل	-12.4484
▁نارنج	-12.4485
روا	-12.4491
▁هراتی	-12.4491
▁وسائ	-12.4494
▁محتوا	-12.4495
وتا	-12.4495
ربکا	-12.4498
▁ردیفی	-12.4499
کولبر	-12.45
▁نجوم	-12.4506
▁شغلها	-12.451
▁محدو	-12.4512
▁رهن	-12.4516
واری	-12.4521
خالی	-12.4524
▁خسرو	-12.4527
شکر	-12.4528
▁لنگ	-12.4528
▁تیفو	-12.4529
▁نوپا	-12.4533
جهش	-12.4537
▁الک	-12.4552
مینا	-12.4553
▁ماورا	-12.4554
کنند	-12.4561
▁اخت	-12.4563
ارگردان	-12.4563
▁مضا	-12.4567
▁گزی	-12.457
ستانی	-12.4573
پپ	-12.4575
▁لطیف	-12.4576
▁آزم	-12.4579
نیاز	-12.4583
▁جادو	-12.4584
▁نمادها	-12.4585
▁بیس	-12.4586
▁تجار	-12.4589
▁قضائی	-12.4591
زاق	-12.4592
دوره	-12.4595
▁لئو	-12.4603
لائو	-12.4604
▁حسگر	-12.4608
▁امیدها	-12.4612
بهبود	-12.4613
▁کوری	-12.4617
سپ	-12.4619
استار	-12.462
ستن	-12.4625
پزشکان	-12.4627
خاطرات	-12.463
شرکتهای	-12.4634
قویا	-12.4638
▁صمیم	-12.4638
تناقض	-12.4643
▁ایل	-12.4649
▁هرسال	-12.4666
رسانی	-12.4672
مسلم	-12.4686
▁بولد	-12.4687
▁هال	-12.4695
ریزش	-12.4695
▁دلسوز	-12.4699
▁هموطن	-12.4701
▁الکترود	-12.4704
لومین	-12.4706
ساعد	-12.4707
▁خدایا	-12.4708
▁هیپ	-12.4709
رجب	-12.4712
▁گزارشش	-12.4715
تعی	-12.4717
تگان	-12.4722
▁تهدیدها	-12.4728
▁کامی	-12.4728
▁متروک	-12.4731
▁بپرداز	-12.4732
▁منو	-12.474
ابات	-12.474
▁لج	-12.4742
ظن	-12.4744
▁کانتون	-12.4752
اراگوئه	-12.4764
▁ظالم	-12.4765
▁پابرجا	-12.4767
ستراز	-12.4769
▁دستورها	-12.4771
▁ابوظبی	-12.4771
▁ایزوتوپ	-12.4771
▁تمساح	-12.4771
▁سریلانکا	-12.4771
▁سولوویوف	-12.4771
▁عنکبوت	-12.4771
▁ژئوپلتیک	-12.4771
▁بتهوون	-12.4771
▁غوغای	-12.4771
▁پوآرو	-12.4771
▁شقاقی	-12.4771
▁همقطاران	-12.4771
▁بپیوندد	-12.4771
▁اسپانسر	-12.4771
▁بورژوا	-12.4771
▁لاوروف	-12.4771
▁سبحانی	-12.4771
▁هلیکوپتر	-12.4771
▁پورتلند	-12.4771
▁واکاندا	-12.4771
▁مدودف	-12.4771
▁نیفتد	-12.4771
▁سانفرانسیسکو	-12.4771
▁مفرط	-12.4771
▁گانگستر	-12.4771
▁متذکر	-12.4771
▁اوکلاه	-12.4771
▁هورایزن	-12.4771
▁ابطحی	-12.4771
▁سیدابراهیم	-12.4771
▁هامبورگ	-12.4772
▁مقننه	-12.4772
▁پولانسکی	-12.4772
▁برگکمپ	-12.4772
▁مانیتور	-12.4772
▁واینالد	-12.4772
▁نردبان	-12.4772
▁نافذ	-12.4772
ناملموس	-12.4772
▁صحافی	-12.4772
▁مخترع	-12.4772
▁ابریشم	-12.4772
▁سیلیکون	-12.4772
▁نگرائو	-12.4772
▁شکوهمند	-12.4773
خیز	-12.4773
▁کمرشکن	-12.4773
▁اسنوبرد	-12.4773
▁متعاقب	-12.4773
▁نیفتند	-12.4773
▁آسایشگاه	-12.4773
▁مهدیخانی	-12.4773
شمالی	-12.4773
▁هلمند	-12.4774
▁دوقلو	-12.4774
▁لاتکس	-12.4774
▁قاپید	-12.4774
▁پاکیزگی	-12.4774
▁اتوبان	-12.4774
▁کاذب	-12.4775
▁مقتض	-12.4775
▁جماعت	-12.4775
▁بمانید	-12.4775
▁نباشیم	-12.4775
▁مزاح	-12.4776
▁بصیر	-12.4776
▁انسداد	-12.4776
▁باشکوه	-12.4776
▁برنگردد	-12.4777
▁منفعت	-12.4777
▁ندوشن	-12.4777
حرمسرا	-12.4777
▁محتکر	-12.4777
▁ستمگر	-12.4777
▁اوباش	-12.4777
▁ووندر	-12.4777
▁کربلا	-12.4778
▁غفار	-12.4778
▁غیرم	-12.4779
▁فراهانی	-12.4779
▁آلمادو	-12.4779
▁افتضاح	-12.478
▁حیفا	-12.478
▁فروزان	-12.4781
▁بکاهد	-12.4781
▁کلسترو	-12.4782
اندی	-12.4782
▁ضدویروس	-12.4782
▁آلفرد	-12.4783
▁گاندو	-12.4783
▁آسایش	-12.4783
▁شگرف	-12.4783
▁پرنفوذ	-12.4784
▁گوریل	-12.4784
مویرگی	-12.4784
▁تلاقی	-12.4785
▁معصومانه	-12.4785
▁پنهانکاری	-12.4786
هنر	-12.4786
▁متأسف	-12.4786
▁بیاییم	-12.4786
▁آلبانی	-12.4788
▁سالوادور	-12.4788
▁بسپارد	-12.4789
▁۱۹۷۷	-12.4789
▁بیایید	-12.479
▁۱۹۱۲	-12.479
▁پاسداشت	-12.479
▁بزنید	-12.479
▁روایات	-12.479
▁۱۳۸۰	-12.4791
▁ارمنی	-12.4793
▁بغل	-12.4793
▁عمارت	-12.4793
▁نوازد	-12.4795
▁متهیا	-12.4795
▁تول	-12.4796
▁۱۹۳۹	-12.4796
▁۶۱۲	-12.4796
▁کوونی	-12.4796
▁بروکلی	-12.4797
▁اغما	-12.4797
▁بنویس	-12.4798
▁توکلی	-12.4799
▁خانلو	-12.4799
▁موثق	-12.4799
▁اسطور	-12.48
▁نشناخت	-12.4802
▁بنویسم	-12.4803
▁عبرت	-12.4803
▁گریختند	-12.4804
▁دلهره	-12.4805
▁اتومات	-12.4805
اشار	-12.4808
▁قراردادها	-12.4808
▁الاغ	-12.4811
▁چاقو	-12.4812
▁ضامن	-12.4812
▁بیابد	-12.4813
▁ولیحی	-12.4814
▁۷۲۲	-12.4815
انیا	-12.4818
▁نها	-12.4819
رزاده	-12.482
▁ریتم	-12.4821
▁خیاط	-12.4822
▁بایستد	-12.4823
▁ونچ	-12.4824
▁جنایات	-12.4826
▁پراوی	-12.4827
▁باغبان	-12.4827
سطح	-12.4827
▁ساق	-12.4829
▁هدفمند	-12.4831
▁عابران	-12.4832
▁سرمست	-12.4832
▁تعصب	-12.4834
▁ریاکاری	-12.4835
▁اکولوژی	-12.4836
زامبی	-12.4837
▁شنیدم	-12.4837
▁بیولوژی	-12.4839
لگرام	-12.484
▁ملایم	-12.4841
▁رهنوش	-12.4842
▁اپوز	-12.4843
۵۳	-12.4843
▁نگرفتند	-12.4845
▁سفیدپوستان	-12.485
▁زیباست	-12.485
▁موزیکال	-12.485
▁ارتد	-12.4852
▁گیگاب	-12.4854
منوچ	-12.4856
▁پردازیم	-12.4857
▁علفزارها	-12.4858
غر	-12.4862
▁لوکالکان	-12.4862
▁گاسکوئین	-12.4862
▁افراط	-12.4864
▁متفکر	-12.4865
▁آغازکرد	-12.4866
یدند	-12.4868
▁۲۲۰	-12.487
▁نوگرا	-12.4871
▁فرما	-12.4872
▁خورند	-12.4875
▁رادارها	-12.4876
یوس	-12.4877
▁میکند	-12.4877
▁گسست	-12.4879
▁همدلی	-12.4879
▁حکاک	-12.4881
▁درمانگاه	-12.4883
▁جالبند	-12.4884
سرین	-12.4886
▁مخلوط	-12.4887
یلان	-12.4888
▁سوزد	-12.4894
▁۲۴۸	-12.49
شیده	-12.4904
اطبا	-12.4905
ارتی	-12.4906
▁پیوندند	-12.4908
تز	-12.4909
▁دلیری	-12.491
▁الاسلام	-12.4911
▁شنیدنش	-12.4911
▁نرسیدند	-12.4913
▁فقرا	-12.4916
▁تسایت	-12.4916
▁مارکان	-12.4918
▁ناراحتند	-12.4918
▁مش	-12.492
▁ریختند	-12.4921
▁تحص	-12.4922
▁کاونت	-12.4923
▁هرل	-12.4923
▁ترمز	-12.4923
الج	-12.4923
▁غص	-12.4923
▁آلپ	-12.4925
▁هاشم	-12.4925
▁صیادان	-12.4929
▁گابریلا	-12.4929
▁داود	-12.493
▁شایعند	-12.4931
▁نیکو	-12.4934
▁آندریاس	-12.4942
▁جانباخت	-12.4942
لنگر	-12.4943
حکیم	-12.4944
▁قرادادش	-12.4944
▁بپیچ	-12.4949
▁امیدورا	-12.4949
ئرنیک	-12.495
اوج	-12.495
پرت	-12.4953
رپر	-12.4954
▁آسم	-12.4957
کریک	-12.4958
۳۰۰	-12.4961
▁شرافت	-12.4963
▁مانورهای	-12.4969
ویتز	-12.4969
▁نزدند	-12.4971
▁جزیرو	-12.4971
▁مشوقهای	-12.4977
▁مناسبات	-12.4978
▁کساد	-12.4981
▁حیا	-12.4981
اصله	-12.4987
▁حسگرها	-12.4987
▁حدف	-12.499
▁باربارا	-12.4996
▁هملت	-12.5
▁پرماجرا	-12.5002
▁نرود	-12.5005
▁استانهای	-12.5007
▁آوردیم	-12.5015
▁ائ	-12.5017
▁دلا	-12.5019
▁اهرم	-12.5019
▁خوانیم	-12.5023
هشت	-12.5023
تورباز	-12.5024
عد	-12.5025
رفتار	-12.5027
▁اکستر	-12.503
▁زدیم	-12.5031
▁بق	-12.5034
▁گنا	-12.5036
▁پرای	-12.5038
پارد	-12.5045
مردی	-12.5046
نیمه	-12.505
▁لئون	-12.5052
▁مسلم	-12.5057
▁دفاعیات	-12.5059
▁نگذشته	-12.506
▁پهپادهای	-12.5066
▁مبتلای	-12.5074
▁ایستادن	-12.5076
▁واعظی	-12.5076
▁مین	-12.5079
آید	-12.5084
ریف	-12.5086
▁نزند	-12.5086
▁ربع	-12.5093
▁مکید	-12.5095
▁فرمانیه	-12.5095
حور	-12.5095
▁برسیم	-12.5097
زارها	-12.5098
▁گماشت	-12.5099
▁ابزارک	-12.51
▁فاین	-12.51
▁کورن	-12.5103
▁فراگرفت	-12.5103
مریکایی	-12.511
▁کاکس	-12.5111
لاستیک	-12.5117
▁مومن	-12.5119
▁کوارت	-12.512
بلنک	-12.5122
فهیم	-12.5123
▁جنون	-12.5127
▁خسروی	-12.5127
رنا	-12.5135
▁مخالفند	-12.514
امدا	-12.5142
▁معذ	-12.5149
▁نرسیدن	-12.515
▁روایتگر	-12.5156
▁الاصل	-12.5157
پوشان	-12.5157
تژیک	-12.5163
نورلند	-12.5167
چشمه	-12.5168
▁خاطراتی	-12.5172
▁حشر	-12.5173
▁هلن	-12.5174
▁هنرپیشگ	-12.5174
دینگ	-12.5174
▁غنای	-12.5176
▁تحقی	-12.518
▁لیک	-12.5182
▁گرانبها	-12.5182
▁گذرا	-12.5183
▁کوو	-12.5185
انطب	-12.5187
▁پیشا	-12.5189
▁خص	-12.519
▁فیو	-12.5191
صائی	-12.5195
▁گرکان	-12.5196
▁بلندق	-12.5207
▁نگارم	-12.5208
▁فیروزجا	-12.5213
بوم	-12.5214
اوبر	-12.5217
اگرا	-12.5223
▁تحم	-12.5223
▁فتوا	-12.5236
▁پاپو	-12.5239
پدر	-12.525
هاوس	-12.5251
▁فرانس	-12.5253
▁آغازکرده	-12.5259
▁لارن	-12.526
▁بگو	-12.526
واگذار	-12.5261
▁رک	-12.5268
▁پرشک	-12.5271
▁هورن	-12.5272
▁کد	-12.5273
▁عطش	-12.5274
▁نقدهای	-12.5274
▁اولیان	-12.5277
▁۱۷۷	-12.5277
ارنوک	-12.5278
▁باگز	-12.528
▁برایان	-12.5281
▁رازهای	-12.5284
کوش	-12.5285
فرود	-12.5286
خزن	-12.5291
▁اسپری	-12.5299
▁سالگ	-12.5311
▁پیوستند	-12.5312
▁ملامت	-12.5328
فرمانی	-12.5332
▁لورن	-12.5336
▁تریل	-12.5337
▁لین	-12.5337
▁کراش	-12.5342
▁مطمئنا	-12.5344
▁میگویند	-12.5347
ثمی	-12.5351
▁حسابش	-12.5352
▁چشمه	-12.5352
فروشی	-12.5357
▁ونت	-12.5364
▁برادرز	-12.5365
▁۱۹۲	-12.5367
▁مواجهند	-12.5368
▁هارد	-12.5369
جمعه	-12.5372
▁کارن	-12.5372
۳۵	-12.5381
▁فرن	-12.5382
▁بخوان	-12.5389
وژان	-12.539
اکبری	-12.5397
▁لگو	-12.54
▁صاحبش	-12.5401
▁نط	-12.5403
امبو	-12.5405
▁جرئ	-12.5406
▁دیسکی	-12.5406
درس	-12.5406
▁انگاشت	-12.5408
ونیک	-12.5413
▁انریک	-12.5416
▁حریری	-12.5419
▁سونت	-12.5421
▁انگشتان	-12.5421
▁رایکو	-12.5428
▁کارفرمای	-12.5434
▁نکردم	-12.544
▁نشو	-12.5447
فوت	-12.5452
▁مم	-12.5456
العمل	-12.5458
▁ماجراجوی	-12.5464
ذه	-12.5465
▁السلط	-12.5471
▁مظ	-12.5472
طع	-12.5473
▁اقام	-12.5475
بشر	-12.5477
▁برچید	-12.5477
تورم	-12.5477
▁چول	-12.5478
پنها	-12.5479
نگام	-12.5498
▁اوس	-12.5519
▁موثرتر	-12.5521
▁اندازیم	-12.5523
سلی	-12.5524
شمال	-12.5526
فاخر	-12.5527
پال	-12.5533
کلاسی	-12.5535
▁نابینای	-12.5548
شایست	-12.5549
اسا	-12.556
دپای	-12.5564
▁پلاکاردها	-12.5574
سکین	-12.5574
عابد	-12.5579
▁جولیان	-12.5585
▁مساعدت	-12.5586
شکی	-12.5586
▁شناسانه	-12.5589
▁خیرخواه	-12.5591
▁درنظر	-12.5593
▁مگن	-12.5594
اینک	-12.5597
▁فضاپیماها	-12.5598
وما	-12.5603
▁دزدید	-12.561
پیک	-12.5612
▁روست	-12.5614
▁شدگ	-12.5617
▁مگنو	-12.5625
▁اندیشی	-12.5627
▁۱۸۴	-12.5633
کاسی	-12.5634
▁حری	-12.5639
▁میمن	-12.5642
▁آوا	-12.5643
▁نیرومندتر	-12.5644
▁نع	-12.5644
قطب	-12.5644
عب	-12.5646
سیل	-12.5651
رستان	-12.5658
▁عاشقان	-12.5662
انع	-12.5663
گذرانند	-12.5667
متر	-12.5672
نوار	-12.5672
▁یادگاری	-12.5681
▁ماسا	-12.569
▁افزای	-12.569
▁حصار	-12.569
گفتگوی	-12.5693
▁فاخر	-12.5693
▁بدبین	-12.5704
▁خرو	-12.5715
▁الاه	-12.5718
اتری	-12.5723
ریسون	-12.5723
یعی	-12.5724
▁تسا	-12.5724
▁لیپ	-12.5731
▁میانسال	-12.5734
▁خرمش	-12.5735
▁بخوانی	-12.5736
▁گردآ	-12.5745
▁شهرنشین	-12.5746
سارو	-12.575
▁گرب	-12.5753
▁اسکور	-12.5756
نار	-12.5758
▁دمید	-12.5763
▁ببخش	-12.5768
لوژی	-12.577
▁چسب	-12.5777
▁دوک	-12.5781
▁نوآ	-12.5784
۵۰۰	-12.5789
▁بخواهی	-12.5791
رایش	-12.5793
▁بوکا	-12.5799
▁زهی	-12.5799
▁مساو	-12.5803
طف	-12.5806
▁خانو	-12.582
اتنگ	-12.5826
دخواهانه	-12.5828
▁یونه	-12.5835
▁متص	-12.5838
▁همدم	-12.5849
علیر	-12.5859
▁راکل	-12.5863
▁برگشتن	-12.5869
▁اروپای	-12.587
▁نفیس	-12.5882
▁پخت	-12.5882
▁کیفی	-12.5883
▁پودر	-12.5889
▁ایرانروزها	-12.5891
▁بالدار	-12.5893
▁رن	-12.5897
اقبال	-12.5898
۹۸	-12.5898
▁گچ	-12.5899
دئو	-12.5917
▁کنگو	-12.5918
دائی	-12.5919
نیز	-12.5923
والو	-12.593
▁گنجه	-12.5942
▁شغلهای	-12.5946
ونتو	-12.5947
سرفصل	-12.595
▁هری	-12.5958
مارس	-12.5958
▁فرام	-12.5964
▁چون	-12.5966
▁آهنگی	-12.5967
حاب	-12.5969
▁برسید	-12.5973
▁کندی	-12.5975
▁مسخ	-12.5976
▁خرابکاران	-12.5983
▁لول	-12.5984
۵۵	-12.5985
▁خواف	-12.5986
ورگان	-12.5987
دای	-12.5989
نتس	-12.5995
▁ویچ	-12.5997
▁لوور	-12.6013
▁ماندم	-12.6014
طر	-12.6015
▁آنه	-12.6024
▁جووان	-12.6025
۵۴	-12.6028
چنان	-12.6029
▁دایم	-12.6037
▁کرمانشاهی	-12.6038
سپر	-12.6042
▁اقیانوسی	-12.6048
▁صادرکنن	-12.6055
▁عاملی	-12.606
لیا	-12.6066
رایان	-12.6073
▁خبرس	-12.6074
بشار	-12.6082
▁کنت	-12.6082
ولونیا	-12.6083
ازهای	-12.6086
زیا	-12.6102
▁توب	-12.6104
▁انگیزد	-12.6108
چندان	-12.6115
پانی	-12.6116
▁مونش	-12.6118
▁عن	-12.6118
روسازی	-12.6122
▁سفیدش	-12.6126
ایکون	-12.6127
▁سفال	-12.6139
▁خندد	-12.6142
لع	-12.6148
▁عواقبی	-12.6152
▁غز	-12.6157
▁ایوب	-12.6158
▁روئی	-12.6159
▁جهانگرد	-12.6167
حبی	-12.6167
دوی	-12.6174
▁بکنند	-12.6175
کات	-12.6176
▁دیکش	-12.6183
▁میزند	-12.6185
▁مجد	-12.6187
هلن	-12.6192
چای	-12.6208
شانس	-12.6208
▁سالفورد	-12.621
نست	-12.6215
▁هوم	-12.622
کرون	-12.6223
▁بقدر	-12.6224
▁هیپستره	-12.6225
خرج	-12.6233
▁چپگرای	-12.6238
▁لاین	-12.6241
▁شلو	-12.6246
▁انبارها	-12.6256
منستان	-12.6266
▁کامپیوترهای	-12.6266
▁ابرها	-12.6266
الان	-12.6268
ورال	-12.627
▁سالخورد	-12.628
▁تعری	-12.6294
▁چندسال	-12.6297
زستان	-12.6302
وث	-12.6329
▁برآن	-12.6334
▁افزو	-12.6335
اعت	-12.6347
▁لاپ	-12.6357
▁آیر	-12.6358
▁پریا	-12.6365
نسیم	-12.6368
▁آلو	-12.6374
نقا	-12.6374
▁مرک	-12.6376
▁شکو	-12.6382
▁بگویی	-12.6382
هاب	-12.6387
▁شانز	-12.6391
غما	-12.6397
سد	-12.6401
اندوم	-12.6403
▁مشق	-12.6409
ومان	-12.6415
اشبور	-12.6419
▁دوید	-12.6421
▁مینیا	-12.6421
▁ایز	-12.6424
ترینگ	-12.6425
افشار	-12.6427
امت	-12.6434
فولک	-12.6437
آلات	-12.6442
فونی	-12.6449
▁رادیکا	-12.6451
شمول	-12.6458
▁دلش	-12.6458
▁پلت	-12.6463
نواختر	-12.6464
▁برت	-12.6478
▁مفتو	-12.6478
▁بلندتر	-12.6481
هیج	-12.6488
▁منجی	-12.6505
۳۶	-12.6521
ترونیک	-12.6525
▁ونزوئلای	-12.6537
▁عص	-12.6537
▁هچ	-12.6542
ایمن	-12.6545
یروس	-12.6551
سترش	-12.6571
پتا	-12.6575
شمن	-12.6582
لیل	-12.6582
بندهای	-12.6588
▁فرجی	-12.6598
ریتا	-12.6602
وازا	-12.6603
▁گوتر	-12.661
▁بلاف	-12.6613
لاح	-12.6615
▁تامی	-12.6624
عدد	-12.664
▁پرگا	-12.6641
اثی	-12.6647
ایرانی	-12.6649
تش	-12.6652
سازند	-12.6655
مردم	-12.6658
عاقب	-12.6662
سقف	-12.6669
زمین	-12.6671
احسا	-12.6672
فرا	-12.6679
ورز	-12.6687
▁هیچک	-12.6699
برند	-12.6699
الیف	-12.6707
▁شکستند	-12.6711
▁دیا	-12.6716
تونی	-12.6717
آنچ	-12.6719
حقوقدانان	-12.6721
فرام	-12.6727
▁کاشی	-12.6732
▁سکس	-12.674
یتس	-12.6749
جدید	-12.6754
پیشه	-12.6778
جرد	-12.6783
▁کردآ	-12.6797
ومئ	-12.681
▁بیوا	-12.6814
وسط	-12.6828
یوه	-12.6832
نل	-12.6833
▁مرب	-12.6838
الیزا	-12.6842
کلت	-12.6844
▁اورک	-12.6849
▁کالین	-12.6853
▁نواختن	-12.6856
نگر	-12.686
▁مافیا	-12.686
رع	-12.6861
مایند	-12.6863
▁متروی	-12.6871
آم	-12.6873
▁بت	-12.6875
▁آنجلی	-12.6876
نتر	-12.6879
▁بول	-12.6885
▁بدنساز	-12.6894
▁استبر	-12.6911
▁چکهای	-12.6928
فلورا	-12.693
▁عزیزانم	-12.6934
▁مقدا	-12.6942
؟'	-12.6944
یکن	-12.6946
فات	-12.6963
▁افزا	-12.6968
▁الکسا	-12.6971
حا	-12.6974
▁زبانه	-12.6978
▁شدیک	-12.699
الش	-12.6996
▁دومی	-12.6999
افق	-12.7015
▁اتو	-12.7017
ئیل	-12.7019
▁تبعی	-12.7025
ظاهری	-12.703
▁لال	-12.7033
افزون	-12.7034
عات	-12.7043
شهری	-12.7049
اوا	-12.7059
اطل	-12.7068
▁ترساند	-12.7069
▁دلت	-12.7075
دمان	-12.7077
▁زمام	-12.7078
▁پونت	-12.7098
▁رسوب	-12.71
ولتی	-12.7101
▁فراو	-12.7108
یژ	-12.7123
شیری	-12.7123
جیان	-12.7124
▁راین	-12.7135
▁عس	-12.7142
ونا	-12.7148
آیی	-12.7152
▁تراش	-12.716
▁دوور	-12.7166
ضیه	-12.7183
گرفت	-12.7185
ریحان	-12.7189
جزیی	-12.719
مغان	-12.719
▁خوار	-12.7194
روش	-12.7195
▁غیرقا	-12.7196
روزی	-12.7207
▁کرونایش	-12.7208
ورهم	-12.7217
▁فد	-12.722
▁جوانتر	-12.7225
رگوت	-12.7237
▁چم	-12.7238
پشتکاری	-12.7239
لوگر	-12.7239
▁کلن	-12.7243
▁السی	-12.7247
▁صلیبی	-12.7253
▁غیربورسی	-12.7261
یران	-12.7265
▁دوب	-12.7269
▁گارا	-12.7273
▁دلجو	-12.7274
رجا	-12.7278
▁کانا	-12.728
ستعار	-12.7284
دوگو	-12.7286
تکین	-12.7286
یانی	-12.7288
برا	-12.7289
الوح	-12.7303
▁غلا	-12.7303
▁کانتی	-12.7306
دری	-12.7311
▁پوشی	-12.7316
رب	-12.7318
▁ظر	-12.7331
انیو	-12.7333
▁نخل	-12.7341
دهد	-12.7348
▁۱۹ب	-12.7387
▁بازم	-12.7392
▁درآمدش	-12.7418
▁هیب	-12.742
مام	-12.7422
موم	-12.7435
▁وز	-12.7436
▁فلین	-12.7443
▁یافتم	-12.7447
▁اون	-12.7454
مج	-12.7455
سوری	-12.7493
نورد	-12.7493
الف	-12.7517
هاج	-12.7521
لاند	-12.7531
▁ویول	-12.7534
دیوم	-12.7546
ابو	-12.7548
▁گلش	-12.756
فرشی	-12.7571
▁صب	-12.7576
مساعد	-12.7577
لزم	-12.7583
▁کوچکتری	-12.7591
▁کبود	-12.7597
جهانی	-12.76
کوویچ	-12.7603
▁بوس	-12.7605
کورا	-12.7607
▁زمانه	-12.7616
راهه	-12.762
▁فلا	-12.7623
ردین	-12.7625
سنده	-12.7626
قا	-12.7629
نکن	-12.7631
کشن	-12.764
▁سرگ	-12.7648
زندگان	-12.7651
هنگ	-12.7651
فاو	-12.7656
امو	-12.7658
۸۶	-12.766
خنده	-12.7665
▁رکن	-12.7676
▁طلبی	-12.7678
سکو	-12.7693
اروس	-12.7694
انزلی	-12.7706
مقابل	-12.7707
وکسین	-12.7715
اپار	-12.7721
۴۰۰	-12.7721
کنت	-12.7737
▁برخاستن	-12.7745
▁نتوا	-12.7749
روژان	-12.7754
▁کورس	-12.7754
▁کنج	-12.7757
ستقر	-12.7759
یناوی	-12.7764
▁صحبتها	-12.777
▁هیپستر	-12.777
ماند	-12.7779
باری	-12.7782
ردام	-12.7785
دیبه	-12.7786
▁آیزا	-12.7787
▁چشمک	-12.7795
دها	-12.7803
پیشین	-12.7834
ستاو	-12.7839
ضمن	-12.7841
تح	-12.7847
▁وسو	-12.7857
▁داس	-12.7859
▁زبر	-12.7865
هیز	-12.7866
سلطان	-12.787
اخ	-12.7872
▁دشوارتر	-12.7874
▁میلک	-12.788
▁بای	-12.7882
هن	-12.7889
▁تان	-12.7894
▁مشخصا	-12.7899
کاو	-12.7902
▁سلمانی	-12.7906
▁کالو	-12.7906
رویش	-12.7907
▁؛	-12.7915
▁ابله	-12.7916
▁دوبل	-12.7917
خری	-12.792
وای	-12.7936
شتر	-12.7947
تام	-12.795
یانه	-12.7967
روها	-12.7967
ندتر	-12.7983
گردیم	-12.7991
▁دوروت	-12.7993
▁نورال	-12.7993
زند	-12.801
برمی	-12.8011
▁آسو	-12.802
▁بیشمار	-12.8023
رگاه	-12.8032
▁دایان	-12.8033
قناع	-12.8034
▁سانت	-12.8043
نزدیک	-12.8059
اویل	-12.8061
نواز	-12.8077
۱۱۲	-12.8081
▁اکو	-12.8087
الگرد	-12.8094
▁رگی	-12.8099
▁چیزور	-12.8107
▁ایگ	-12.8117
زاوی	-12.8146
▁جاندار	-12.8146
▁طرد	-12.8148
آینده	-12.8152
ژیک	-12.8155
▁آلبا	-12.8156
رتاک	-12.8161
▁کولا	-12.8166
▁سوریا	-12.8168
▁رید	-12.8172
یای	-12.8178
لوم	-12.8184
▁مراک	-12.8188
▁یوشی	-12.8199
▁گفتار	-12.8202
اجرای	-12.8214
▁اندی	-12.8224
▁جبار	-12.8226
▁فرشت	-12.8227
ریل	-12.8235
▁دژها	-12.8243
غی	-12.8251
مبا	-12.8255
▁۱۷۸	-12.8259
ارکز	-12.826
میخ	-12.826
▁فرمین	-12.8263
▁بتا	-12.8265
تیو	-12.8272
▁فوتو	-12.8276
کولی	-12.8284
ماجد	-12.8292
▁جاس	-12.8294
سالم	-12.8298
اننده	-12.8302
▁منش	-12.831
اقی	-12.8316
تغییر	-12.8331
ریض	-12.834
ارس	-12.8345
مدار	-12.8346
▁فینل	-12.8347
زئی	-12.8355
نگولی	-12.8358
درینو	-12.8366
▁نورا	-12.8369
دفو	-12.8371
▁بغ	-12.8378
▁غری	-12.8387
برابر	-12.8402
▁چیپ	-12.8408
▁کمکها	-12.8414
یکایی	-12.8417
ایم	-12.8418
▁همزی	-12.8437
▁گذاشتم	-12.8438
وخته	-12.8439
ذا	-12.8455
میلادی	-12.8458
▁سیو	-12.8466
▁واردکنند	-12.8477
نند	-12.848
نهاد	-12.848
▁نات	-12.8481
ساخت	-12.8481
لژی	-12.8487
▁کالی	-12.8496
کمک	-12.8498
▁بوئن	-12.85
تیر	-12.8502
▁بوتا	-12.8509
گذران	-12.8512
سینما	-12.8515
▁پشم	-12.8516
حسی	-12.8521
ولو	-12.8536
▁تنی	-12.8538
▁دربر	-12.8538
چگون	-12.854
دریافت	-12.8544
▁فیزیوتراپ	-12.8549
سمی	-12.8551
گورک	-12.8562
▁میلیاردی	-12.8566
رمند	-12.8571
یور	-12.8584
▁انج	-12.8584
▁دکترها	-12.859
یابان	-12.8606
شیو	-12.8606
نیتو	-12.8612
▁نوش	-12.8615
داخل	-12.8619
▁ندار	-12.8619
تباهی	-12.8644
دانش	-12.8644
▁بازگردان	-12.8647
انگلر	-12.8658
▁عصا	-12.8665
▁خی	-12.8672
تلویزیون	-12.868
▁ساند	-12.8681
▁حمایتها	-12.8689
آدام	-12.8692
▁سوک	-12.8697
برجام	-12.8699
طین	-12.8704
گرایان	-12.8708
فای	-12.8709
اقش	-12.8709
▁لائو	-12.8712
تایی	-12.8714
۶۵	-12.8714
▁کربی	-12.872
▁آه	-12.8721
نوشته	-12.8728
▁لیپی	-12.8733
اخته	-12.8735
آگاهی	-12.8741
مربوط	-12.8742
مبارز	-12.8746
وسازی	-12.8747
▁یکصدم	-12.8765
گانی	-12.8767
▁شئو	-12.8767
متهم	-12.877
ردند	-12.8771
▁بسا	-12.8773
نوع	-12.8777
ورزش	-12.8779
کوه	-12.8783
ارق	-12.8785
▁وس	-12.8786
ورگ	-12.879
باغ	-12.8791
▁ناهم	-12.8796
▁تبری	-12.8804
خواهان	-12.8807
لیز	-12.8808
▁ثق	-12.8808
جزی	-12.8812
▁کالیفرنیای	-12.8813
▁نخوان	-12.8816
وبل	-12.8829
▁شیاد	-12.8829
۳۱۴	-12.8838
▁ژور	-12.8842
انقلاب	-12.8844
راس	-12.885
▁بوستا	-12.885
تاگون	-12.8852
▁آپار	-12.8853
ارسال	-12.8855
▁لم	-12.8857
▁آنگو	-12.8858
▁ایت	-12.8859
نامزد	-12.8862
وضع	-12.8863
▁کرون	-12.8863
خاص	-12.8864
آثار	-12.8864
یکل	-12.8865
نکو	-12.8867
انتقاد	-12.8869
فکر	-12.8876
سترد	-12.8882
▁هارو	-12.8884
ئ	-12.8886
ائیه	-12.8886
نمایش	-12.8894
ئون	-12.8896
مصاحبه	-12.8905
طراح	-12.8906
ماد	-12.8908
انتقال	-12.8911
▁مدس	-12.8922
الکلی	-12.8935
۴۷	-12.8935
▁موی	-12.8942
سالگی	-12.8945
ادعا	-12.8946
▁گرده	-12.8948
تحقیق	-12.8949
رزی	-12.8949
طول	-12.895
ربا	-12.8955
یما	-12.8958
گلستان	-12.8962
▁ویلای	-12.897
تولد	-12.8974
▁کندایران	-12.8976
ورده	-12.8976
۴۸	-12.8981
معرف	-12.8983
وتر	-12.8984
بیز	-12.8993
▁کشاندن	-12.8994
▁تاخت	-12.8995
نیرو	-12.8996
کوچک	-12.8996
▁دخترشا	-12.9
▁دوجا	-12.9011
یژه	-12.9012
تاس	-12.9015
▁۱۰۵	-12.9019
رار	-12.9021
ماسک	-12.9022
اعدام	-12.9024
▁دلخو	-12.9024
شهروندان	-12.9026
▁پرکارت	-12.9027
رسیویر	-12.9031
قوانین	-12.9032
آرژانتین	-12.9034
اختیار	-12.9034
واردات	-12.9034
انفجار	-12.9039
مراه	-12.9039
▁دریاها	-12.904
نچ	-12.9047
صراف	-12.905
کارگردان	-12.9055
▁پره	-12.9062
▁اوستر	-12.9065
قش	-12.9066
اختلاف	-12.9067
فهرست	-12.9073
پورت	-12.9076
کنترل	-12.9076
قوی	-12.908
ارمی	-12.9081
پشت	-12.9082
کوتاه	-12.9088
▁امروزش	-12.9093
وام	-12.9095
رسا	-12.9098
روت	-12.91
زمن	-12.9105
▁راهیاب	-12.9106
کالا	-12.9106
خورشید	-12.9111
اتهام	-12.9114
قدم	-12.9115
تغییرات	-12.9116
جس	-12.9119
ناور	-12.9129
▁موسیق	-12.913
روسا	-12.9131
▁دوتای	-12.9132
خودروساز	-12.9134
نفتکش	-12.9136
تحلیل	-12.9138
مجوز	-12.9138
پاریس	-12.9141
▁روا	-12.9143
مواجه	-12.9148
▁شکا	-12.915
پرای	-12.9153
کابل	-12.9153
رابطه	-12.9154
▁آنتون	-12.9159
▁جل	-12.916
ساختمان	-12.9165
▁مختا	-12.9171
اسطوره	-12.9172
اردیبهشت	-12.9173
قطعی	-12.9175
اکثر	-12.9175
وفق	-12.9177
جزئیات	-12.918
سط	-12.9185
جنگل	-12.9186
▁بلای	-12.9188
۱۳۹۹	-12.9189
نوس	-12.9193
بازنشستگان	-12.9197
▁بره	-12.9197
الین	-12.9199
عمده	-12.92
خلاف	-12.9203
چاق	-12.9207
علاقه	-12.9209
۲۶	-12.9213
تف	-12.9213
کانال	-12.9219
ملامت	-12.922
واشنگتن	-12.9223
▁ممی	-12.9227
سکوت	-12.9228
▁بنزم	-12.9232
شتابند	-12.9233
مجله	-12.9235
خلال	-12.9236
▁اقتصادها	-12.9236
ماموران	-12.9238
▁پین	-12.9239
قاچاق	-12.9241
مونیک	-12.9243
درخشند	-12.9243
▁ولاد	-12.9253
سخنان	-12.9254
▁ناتو	-12.9256
ماموریت	-12.9263
استاندار	-12.9265
صفر	-12.9265
نگران	-12.9267
آرسنال	-12.9269
فیزیک	-12.9269
پرتاب	-12.9272
مشکل	-12.9273
آلودگی	-12.9279
ایرا	-12.928
▁متما	-12.9281
▁ایرانشناس	-12.9286
شعار	-12.9288
۶۰۰	-12.9289
تسلا	-12.9291
▁مقل	-12.9291
روایت	-12.9292
فرانسوی	-12.9294
دارایی	-12.9297
ساکو	-12.9297
▁الکتریک	-12.9298
سرکوب	-12.9299
یوونتوس	-12.9304
تکرار	-12.9306
▁پان	-12.9308
شهرداری	-12.9315
فیسبوک	-12.9315
قتل	-12.9316
دستورالعمل	-12.9317
▁لومب	-12.9319
▁قبرها	-12.9319
فوریه	-12.9326
اینترنت	-12.9327
لوئی	-12.9327
تقوی	-12.933
▁کورم	-12.933
کریستیان	-12.933
▁مالدار	-12.933
سرنوشت	-12.9332
میچ	-12.9336
عشق	-12.9337
خاورمیانه	-12.934
اورتون	-12.9342
پلاستیک	-12.9343
آب	-12.9343
رزم	-12.9344
تحولات	-12.9344
انتری	-12.9346
پرتغال	-12.9347
بلژیک	-12.9348
مرجان	-12.9351
کاخ	-12.9351
نمایندگی	-12.9353
تکمیل	-12.9355
پانزده	-12.9357
هیوندای	-12.936
فایزر	-12.9361
سرزمین	-12.9362
بازرسان	-12.9362
تبعیض	-12.9363
برادر	-12.9364
طح	-12.9366
تماشای	-12.9368
▁مارسل	-12.9369
برگزیت	-12.9369
ناپذیر	-12.937
استادیوم	-12.9371
بیلسا	-12.9372
سپاهان	-12.9372
خانوارهای	-12.9373
اشتغال	-12.9375
▁معتمد	-12.9375
پرورش	-12.9375
دایناسور	-12.9376
▁راهکارها	-12.9377
یزی	-12.9381
گوگل	-12.9382
جواب	-12.9382
مریخ	-12.9384
رمزارز	-12.9385
جنایت	-12.9387
کارلوس	-12.9389
دارد	-12.939
دموکرات	-12.9391
تکنولوژی	-12.9392
واقعیت	-12.9393
بلومبرگ	-12.9395
ابعاد	-12.9396
شواهد	-12.9399
اضطراب	-12.9401
چهاردهم	-12.9401
▁غیرمت	-12.9403
کوپتر	-12.9403
مرتضی	-12.9404
اسحاق	-12.9405
▁درآو	-12.9405
مبنای	-12.9406
صحرا	-12.9406
ارتش	-12.9407
توخل	-12.9409
یچی	-12.9409
استراتژی	-12.9411
مهاجمان	-12.9412
سیاستگذار	-12.9412
محبت	-12.9413
مهندسان	-12.9413
خوشبخت	-12.9414
فاج	-12.9414
مسئولین	-12.9415
آلزایمر	-12.9415
کلیسای	-12.9416
خرمشهر	-12.9416
تعویض	-12.9417
باربارا	-12.9418
سوزاند	-12.9418
دیوان	-12.9419
گابریل	-12.942
اوساکا	-12.942
رولینگ	-12.9421
بشنوید	-12.9422
گیلبرت	-12.9423
الشهدا	-12.9423
اشخاص	-12.9424
فرندز	-12.9425
پیرلو	-12.9427
توتال	-12.9427
سندگرن	-12.9428
▁تیرانداز	-12.9432
رانندگان	-12.9433
استودیوی	-12.9436
طاهر	-12.9438
منشا	-12.9438
پانزدهم	-12.9439
وکلای	-12.944
بیاید	-12.9442
دیوار	-12.9442
تلر	-12.9442
سادات	-12.9443
رفران	-12.9444
مادرش	-12.9444
بهرام	-12.9444
بلخ	-12.9446
گزارشگران	-12.9446
▁هورمون	-12.9447
رحمانی	-12.945
ذهن	-12.9451
خصوصا	-12.9451
آلن	-12.9452
صحیح	-12.9452
درآمدهای	-12.9453
جاشوا	-12.9453
یاد	-12.9454
لیسم	-12.9455
داریوش	-12.9456
ریختن	-12.9459
▁سانتریفیوژها	-12.946
▁آقاخان	-12.9461
معاش	-12.9462
ترافیک	-12.9463
کنزو	-12.9467
لوکا	-12.9467
شکوف	-12.9469
بندر	-12.947
▁فلسطین	-12.947
خلیل	-12.9471
▁سلین	-12.9476
نمادهای	-12.9478
فرگوسن	-12.948
مثل	-12.9485
ناو	-12.9486
آموز	-12.9486
فشارها	-12.9486
▁نخاع	-12.9487
آشفت	-12.9489
تماس	-12.949
کارلو	-12.9491
▁دوشان	-12.9493
▁رخدادها	-12.9497
مالی	-12.9499
ابهام	-12.9503
مامور	-12.9503
دادسرا	-12.9504
▁ادعاها	-12.9505
▁پائول	-12.9508
▁غفور	-12.9508
بخت	-12.9509
پنجاه	-12.9511
پیمان	-12.9513
▁قراداد	-12.9515
لئون	-12.9516
بنیاد	-12.9519
فرض	-12.9523
گمانه	-12.9524
استعفای	-12.9527
▁دومینو	-12.9527
▁۳۸۰	-12.9528
مسلح	-12.9534
روزها	-12.9536
گفتگوهای	-12.9536
جیپ	-12.9538
صبا	-12.954
لول	-12.9547
▁صیا	-12.9548
غیبت	-12.9549
▁یوت	-12.9555
اخترشناس	-12.9559
▁نئ	-12.9561
لطف	-12.9564
حاف	-12.9565
صمد	-12.9572
موت	-12.9572
دسازی	-12.9573
▁پرداختن	-12.9574
ابوال	-12.9574
تاریخی	-12.9577
▁کبری	-12.9578
نماها	-12.958
نوشتن	-12.9581
انحصار	-12.9585
▁میخ	-12.9589
خبرهای	-12.9593
داول	-12.9594
ائونی	-12.9595
نهم	-12.9597
▁خاورمیان	-12.9599
انصاری	-12.9601
ضایع	-12.9603
▁ودیع	-12.9606
نجف	-12.9607
▁تهرا	-12.9608
مرح	-12.9609
سروده	-12.9613
اربی	-12.9615
▁نرساند	-12.9616
عظیم	-12.9617
مادران	-12.9623
خلق	-12.9627
▁تابع	-12.9627
▁عبدالح	-12.9636
سانسور	-12.9638
هشتاد	-12.964
▁ترانزی	-12.9641
کوثر	-12.9644
▁ویز	-12.9645
لبی	-12.9646
دومین	-12.9648
دستگیری	-12.9648
▁اپلیکیش	-12.9652
درخت	-12.9653
هنری	-12.9654
▁گیگا	-12.9654
دآور	-12.9654
▁جمهو	-12.9656
نزدیکان	-12.9656
فرخ	-12.9657
متیو	-12.9659
▁کارول	-12.9661
واجه	-12.9662
▁کارتونی	-12.9663
▁یونس	-12.9663
اسک	-12.9664
خرجش	-12.9674
سلیمان	-12.9675
▁جهانگیر	-12.968
گذرد	-12.9683
▁میکرو	-12.9688
▁آق	-12.9688
نشا	-12.9689
ستایش	-12.9691
رهبران	-12.9691
وساز	-12.9698
▁بقایا	-12.9699
رزیدن	-12.9701
سینمای	-12.9704
▁بارکین	-12.9706
▁جسی	-12.9706
ارزیا	-12.9708
▁واری	-12.971
صی	-12.9715
▁مندل	-12.9718
صدق	-12.9721
▁آشتی	-12.9726
▁گریگوری	-12.9733
▁کوئ	-12.9735
قل	-12.9737
باخته	-12.9745
شبانه	-12.9748
الیس	-12.9753
شاهزاد	-12.9755
▁قرائ	-12.9758
ستاگرام	-12.9759
سینا	-12.976
▁بشنوی	-12.9761
پارتمان	-12.9763
▁معت	-12.9764
کارزار	-12.9766
زلزل	-12.9766
موزگار	-12.9767
یاهو	-12.9769
▁اختصا	-12.977
▁قبلش	-12.9771
ورتیکواستروئیدها	-12.9771
▁لیاخوف	-12.9771
▁افروختن	-12.9771
▁الکترومغناطیس	-12.9771
▁اورنیتودیر	-12.9771
▁برافروختن	-12.9771
▁بولگاکف	-12.9771
▁دیکتاتور	-12.9771
▁رآکتور	-12.9771
▁سپاسگزار	-12.9771
▁مخروطی	-12.9771
▁میهایلوویچ	-12.9771
▁نیشیکوری	-12.9771
▁هادرسفیلد	-12.9771
▁هوآیفنگ	-12.9771
▁پاخاسته	-12.9771
▁کداخدایی	-12.9771
▁گالاپاگوس	-12.9771
▁یوکوکورا	-12.9771
▁قنبرزاده	-12.9771
▁آریزونا	-12.9771
▁جوردیزج	-12.9771
▁فراماسون	-12.9771
▁کامفیروزی	-12.9771
▁بیندازید	-12.9771
▁آکروبات	-12.9771
▁روانشناختی	-12.9771
▁فخرالدینی	-12.9771
▁مددکاران	-12.9771
▁نپاشید	-12.9771
▁مالوچی	-12.9771
▁پیکارجوی	-12.9771
▁موناکو	-12.9771
▁خشایار	-12.9771
▁رنگارنگ	-12.9771
▁هولدینگ	-12.9772
▁تکنسین	-12.9772
▁آزارنکا	-12.9772
▁وسکات	-12.9772
▁سمنگان	-12.9772
▁وبلاگ	-12.9772
▁رادیوتلسکوپ	-12.9772
▁مفاسد	-12.9772
▁واچارا	-12.9772
▁تارانتینو	-12.9772
▁بلموندو	-12.9772
▁اسمیتسونی	-12.9772
▁رهنمود	-12.9772
▁واتسون	-12.9772
▁فمینیست	-12.9772
▁واچینگ	-12.9772
▁سرخپوشان	-12.9773
▁موهبت	-12.9773
▁دایموند	-12.9773
▁انتقلات	-12.9773
▁اقتدارگرا	-12.9773
▁جوکووی	-12.9773
▁بیانجامد	-12.9773
▁خونسرد	-12.9773
▁بااستعداد	-12.9773
▁بیاموز	-12.9774
▁گلاسگو	-12.9774
▁ماراکا	-12.9774
▁گریبانگیر	-12.9774
▁خرگوش	-12.9774
▁آنفلو	-12.9774
▁یکپارچ	-12.9774
▁عبادت	-12.9774
▁زنجبیل	-12.9774
▁نگذارند	-12.9774
▁باواریا	-12.9774
▁ورزیدند	-12.9775
▁غرابت	-12.9775
لجستیک	-12.9776
▁بزهکار	-12.9776
▁ریزتراشه	-12.9776
▁عقوبت	-12.9776
▁سربگیرند	-12.9777
▁اکلاه	-12.9777
▁بغض	-12.9777
▁آسانژ	-12.9777
▁رزمندگان	-12.9778
▁پرچالش	-12.9778
▁امدادرسان	-12.9778
تیاگو	-12.9779
▁پرتفو	-12.9779
▁لنکش	-12.9779
▁۱۷۴۷	-12.978
▁بمانیم	-12.978
▁حیث	-12.978
▁برلیناله	-12.9781
▁الگ	-12.9781
▁مترمکعب	-12.9782
▁یونا	-12.9782
▁بدردنخور	-12.9782
▁واقف	-12.9782
سبز	-12.9782
▁ناخوش	-12.9783
▁پرستویی	-12.9783
▁نرفتیم	-12.9784
▁بالادستی	-12.9784
▁کلمبو	-12.9785
▁الشعرای	-12.9785
▁گندم	-12.9785
▁بیکینی	-12.9786
▁سرمنشا	-12.9786
▁بنکدار	-12.9788
▁بیاوریم	-12.9788
▁خمیس	-12.9788
▁بشناسیم	-12.979
کپلر	-12.9791
▁غیردقیق	-12.9791
▁فیروزکو	-12.9791
▁نوازندگ	-12.9791
عالی	-12.9791
قایق	-12.9791
▁دزدیدند	-12.9792
▁جوبیل	-12.9793
▁بولیوی	-12.9794
▁سندیکا	-12.9794
عقوب	-12.9795
▁خندند	-12.9795
▁سمینار	-12.9795
▁فرایدی	-12.9797
▁برمودا	-12.9797
▁کلارین	-12.9797
▁درنوردید	-12.9798
ناوال	-12.9799
▁خرچ	-12.9799
یاری	-12.98
▁زوکر	-12.98
یکیشن	-12.9801
باکرگی	-12.9801
▁ببندد	-12.9802
▁غیرمعمول	-12.9802
▁اوتاوا	-12.9802
▁کواکس	-12.9804
بارور	-12.9804
▁انجیل	-12.9805
بای	-12.9805
دیوارنگار	-12.9806
▁معذور	-12.9806
▁بشوید	-12.9807
▁نکنم	-12.9808
▁فراقانونی	-12.9809
ندگرن	-12.9809
▁رخشان	-12.9809
▁موریسون	-12.9809
▁نترس	-12.981
روسکوپ	-12.981
▁بکن	-12.9811
▁بازگردند	-12.9811
▁نامتناسب	-12.9812
▁گالا	-12.9812
▁ضدکرونا	-12.9814
▁رعیت	-12.9815
انگیخت	-12.9815
▁یوکو	-12.9816
▁کسوف	-12.9816
خب	-12.9817
▁اوتنز	-12.9819
▁جاشو	-12.9821
▁گرانفروش	-12.9821
▁وروو	-12.9823
جوانی	-12.9824
▁بوسد	-12.9824
▁بیابند	-12.9824
▁وولف	-12.9826
تأسف	-12.9826
▁کواچ	-12.9827
▁پرستو	-12.9827
ستشوی	-12.9827
بعدا	-12.9828
▁خواباند	-12.9828
▁تکریم	-12.9829
صفح	-12.983
▁استمفورد	-12.983
یارا	-12.9831
▁نواز	-12.9832
رپیچ	-12.9834
▁حماسی	-12.9835
ناقل	-12.9836
▁روسکو	-12.9837
▁افسا	-12.9838
عزیزی	-12.9839
نظار	-12.984
عکاسی	-12.9842
▁۱۲۱	-12.9842
▁بیولو	-12.9846
▁پرالتهاب	-12.9847
ایرج	-12.9848
▁شمشیر	-12.9848
پار	-12.9849
▁زردشت	-12.9849
▁عابر	-12.9852
خمری	-12.9852
▁چرچ	-12.9853
یورو	-12.9853
توت	-12.986
▁آپارت	-12.9861
▁تویتتر	-12.9861
▁لنفو	-12.9866
▁سنسور	-12.9866
مترو	-12.9867
▁عوام	-12.9868
میل	-12.9869
▁پاندا	-12.987
گذرانی	-12.987
رشنا	-12.987
▁همدستان	-12.987
▁اکشن	-12.9872
▁اندروی	-12.9873
▁گابر	-12.9879
▁پوشاندند	-12.9879
شگفت	-12.9879
▁غواصان	-12.9879
▁مونتری	-12.988
▁کوبیدند	-12.9881
▁صن	-12.9882
دوبندها	-12.9884
وتنز	-12.9886
▁ارس	-12.9886
▁استیشن	-12.9889
جیح	-12.9889
▁تفریحات	-12.989
▁خوابید	-12.9894
وگرافی	-12.9894
عاب	-12.9896
▁رئ	-12.9897
▁اسفن	-12.99
فیر	-12.9902
▁ریسمان	-12.9902
فرانسیسکو	-12.9903
▁شهرزاد	-12.9905
▁امدادگر	-12.9909
روشی	-12.991
درت	-12.9912
▁معر	-12.9912
▁داوو	-12.9912
▁گشاید	-12.9913
ستراح	-12.9913
▁تحر	-12.9915
▁اختر	-12.9916
▁تکاپو	-12.9924
▁فروتن	-12.9924
▁آشتیان	-12.9925
▁نامطلوب	-12.9928
▁بندها	-12.9932
▁نگشته	-12.9933
▁میزنند	-12.9934
▁آدمکها	-12.9934
▁سانتر	-12.9935
پیانیست	-12.9938
▁سالار	-12.9939
▁خراش	-12.9939
▁گلگیر	-12.9941
▁ژس	-12.9944
روژن	-12.9946
▁مطب	-12.9946
▁ترفندهای	-12.9949
اینتس	-12.9949
حمد	-12.9952
▁هالیف	-12.9953
▁تابعی	-12.9956
دلیلش	-12.9958
گذراند	-12.9958
تابو	-12.996
طاب	-12.996
غرب	-12.9962
▁استنلی	-12.9964
▁راهگشای	-12.9966
▁برگرداندند	-12.9966
بقای	-12.9967
نسان	-12.9968
▁تهاتر	-12.9968
سران	-12.9975
▁نرسد	-12.9977
▁بیندیش	-12.9978
▁داستانها	-12.998
▁متنف	-12.9981
نسی	-12.9982
▁کارآ	-12.9986
بنوی	-12.9991
استفان	-12.9993
▁تفنگدار	-12.9993
▁اینجور	-12.9993
خوف	-12.9994
پشمک	-12.9996
▁همجنسگرای	-12.9997
▁پوسترهای	-12.9999
اچی	-13
▁وسکو	-13.0002
▁فلام	-13.0004
▁رقابتها	-13.0005
مثال	-13.0005
▁دهشت	-13.0006
▁خش	-13.0007
▁امت	-13.0011
▁خونبار	-13.0013
نتخاباتی	-13.0014
یدگی	-13.0014
▁اردبی	-13.0015
▁نرسانده	-13.0016
▁سبی	-13.0018
استیون	-13.0019
▁کینگز	-13.0019
شکاران	-13.0022
▁کاوش	-13.0026
▁چمبر	-13.0027
▁هوگ	-13.0028
▁رسیدبر	-13.0029
▁معترضی	-13.0029
رافات	-13.003
▁بکاه	-13.0032
▁سع	-13.0035
مناف	-13.004
▁لافت	-13.0044
▁متکب	-13.0046
▁لوب	-13.0046
آندر	-13.0051
▁هاف	-13.0052
ودگی	-13.0058
هیجان	-13.006
▁رساندیم	-13.0064
▁سیدمحم	-13.0068
▁اثرها	-13.0073
▁بازکنند	-13.0077
▁درآمدن	-13.0085
▁نخاعی	-13.0086
▁شتابزد	-13.0089
▁نگرفتن	-13.0089
▁۱۲۲	-13.009
رخه	-13.0093
▁بسازم	-13.0093
▁آقاخانی	-13.0097
▁متنفری	-13.0098
وجی	-13.0098
عمیق	-13.01
▁نومید	-13.0102
▁وجد	-13.0105
▁هورمونی	-13.0106
▁اطلا	-13.0108
▁پالیس	-13.0112
▁پش	-13.0115
▁قدرتمندتر	-13.012
▁کوبیدن	-13.0123
▁دلخور	-13.0126
▁درانتخابات	-13.0126
▁مقالات	-13.0131
▁الشهدا	-13.0132
▁طع	-13.0132
▁شنیدند	-13.0134
▁بط	-13.0135
▁شوی	-13.0136
▁بازجو	-13.0136
▁منشور	-13.0137
رنجر	-13.0145
▁غربال	-13.0145
کستان	-13.0149
▁رویاهای	-13.0149
▁خیری	-13.0149
پابلیک	-13.015
پرش	-13.016
▁امرال	-13.0163
▁تکراری	-13.0168
بلک	-13.0172
امور	-13.0175
افه	-13.0181
برج	-13.0182
▁لامپ	-13.0182
ئویی	-13.0184
سرگ	-13.0186
▁بسپار	-13.0186
▁بکنیم	-13.019
گزین	-13.0195
▁پسندید	-13.0197
▁دلسوزان	-13.0199
▁بروک	-13.0199
بلند	-13.02
▁مترو	-13.02
▁ندادم	-13.0205
▁باورم	-13.0219
ستار	-13.0221
▁دات	-13.0222
وشو	-13.0224
▁مارات	-13.0225
ضطر	-13.0227
▁مولتی	-13.023
▁دورهم	-13.0237
انگیزترین	-13.024
پرف	-13.024
▁متاسفم	-13.0244
بوس	-13.0256
▁مکررا	-13.0263
▁بالاگ	-13.0265
▁لیند	-13.0265
▁چکی	-13.0272
▁رباتی	-13.0272
▁ناراحتم	-13.0273
وادور	-13.0277
گلد	-13.0277
عالمی	-13.0279
دیک	-13.0281
زیرا	-13.0285
▁پترول	-13.0287
درمانی	-13.029
▁صمد	-13.0291
▁آرکا	-13.0293
▁ریچار	-13.0293
▁گردو	-13.0296
مالیا	-13.0298
▁بریزب	-13.0298
▁تیفوها	-13.0302
پراتور	-13.0302
پیشرفت	-13.0304
▁پویش	-13.0304
▁گذراندند	-13.0307
▁بازن	-13.031
▁چرخاند	-13.0311
▁بنگا	-13.0316
ناکا	-13.0317
▁قزوینی	-13.0321
▁جهنمی	-13.0326
▁گوسفندان	-13.033
گارد	-13.0331
▁بردارند	-13.0333
▁لانک	-13.0333
تمالا	-13.0338
ورتور	-13.0338
چینگ	-13.0344
رتون	-13.0358
▁گردآمد	-13.0379
▁جنگیم	-13.0382
شرف	-13.0382
▁محرومند	-13.0382
▁شنود	-13.0389
▁بولدو	-13.0393
فرانک	-13.0395
▁اسکندر	-13.0398
مرک	-13.0401
▁قایقران	-13.0405
▁مأ	-13.0407
شنود	-13.0413
▁توما	-13.0416
▁مشاه	-13.042
▁مارلو	-13.0421
▁ساد	-13.043
▁نپرداخت	-13.0431
لکت	-13.0435
هشتم	-13.0436
عاش	-13.0443
▁حشمت	-13.0444
یکس	-13.0445
مهار	-13.0448
سکه	-13.0454
▁کتابها	-13.0455
بات	-13.0459
▁حسی	-13.0459
▁الا	-13.0461
▁مونت	-13.0466
▁گسترد	-13.0471
▁فرانکن	-13.0474
▁فرمانی	-13.0482
گلی	-13.0485
فرون	-13.0491
▁انیستی	-13.0491
مولان	-13.0496
راژ	-13.0496
▁موندی	-13.05
▁پک	-13.05
▁هندرس	-13.0503
همراه	-13.0503
▁هزارتومان	-13.0505
▁آتا	-13.0509
ودزاده	-13.051
▁استادکار	-13.052
▁بشناسی	-13.0524
کشور	-13.0525
شین	-13.0526
ونگر	-13.0528
▁پاکیز	-13.053
دونا	-13.0532
▁چنار	-13.0533
تهام	-13.0536
▁نیس	-13.0543
نشاهی	-13.0544
▁آفریدندم	-13.0548
▁لارس	-13.055
▁مازند	-13.0554
▁داکا	-13.0555
▁گودو	-13.0556
الاح	-13.0561
▁سلامتش	-13.0565
پارسی	-13.0567
نهاده	-13.0573
بقی	-13.0579
▁گردان	-13.0583
▁گلشی	-13.0583
▁آژا	-13.0587
خواند	-13.0587
▁نترسید	-13.0593
▁سرلش	-13.0593
▁نشاند	-13.0597
▁گواه	-13.0598
▁پاکن	-13.0611
روید	-13.0616
▁آوازم	-13.0618
نع	-13.0619
▁بریز	-13.0623
ئر	-13.0625
رمو	-13.0633
چک	-13.0634
▁ساختیم	-13.0635
▁غیرع	-13.0635
▁تاجر	-13.0635
▁کالیفرنیایی	-13.064
الیات	-13.0646
▁درآمی	-13.0649
▁کارآگاه	-13.0653
مب	-13.0655
رئی	-13.0661
ماتیک	-13.0661
کلیه	-13.0665
▁آزا	-13.0667
رهایش	-13.0678
▁بوگو	-13.0695
قان	-13.0703
▁الکترودهای	-13.0709
ظره	-13.0713
سمت	-13.0715
▁معتر	-13.0721
صالحی	-13.0728
زمایش	-13.073
▁سودده	-13.073
داود	-13.0759
نگار	-13.0763
▁میچ	-13.0769
▁قبرهای	-13.0771
▁حوز	-13.0782
▁آزمایند	-13.0785
گفتار	-13.0791
▁وآمدها	-13.0792
▁ژست	-13.0792
▁برداریم	-13.0818
▁سلط	-13.0819
الیا	-13.0828
یستی	-13.083
قت	-13.083
حسنی	-13.0834
سوار	-13.0838
تراژ	-13.0852
▁آمر	-13.0855
اونت	-13.0857
چیان	-13.0861
▁سرکو	-13.0865
رالم	-13.0875
بندها	-13.0876
▁آریا	-13.0881
خامت	-13.0891
راپ	-13.0894
ریح	-13.0902
شرق	-13.0905
▁هیکل	-13.0905
▁ژائ	-13.091
خسار	-13.0911
دستان	-13.0914
▁نوای	-13.0917
▁بردی	-13.0919
فاق	-13.0921
▁گذا	-13.0924
▁دستورهای	-13.0928
▁براندا	-13.0933
یوهان	-13.0933
▁نونو	-13.0933
▁مرم	-13.0936
▁استوای	-13.0937
▁بازد	-13.0939
▁سیلا	-13.0957
حبو	-13.0961
نتال	-13.0961
رساز	-13.0969
▁سمرقندی	-13.0972
غازه	-13.0979
▁گلوی	-13.0979
بناب	-13.0981
کاریر	-13.0986
▁تندر	-13.0989
اطه	-13.099
▁استادی	-13.0994
▁مضرا	-13.0999
یویا	-13.1
رامین	-13.1001
یرانی	-13.1003
دستی	-13.1004
▁پرفروشی	-13.1011
۷۱۰	-13.1017
▁مهن	-13.1017
نهام	-13.1018
▁بام	-13.1018
چهر	-13.102
▁بردیم	-13.102
نیما	-13.1024
▁اشتری	-13.1027
۱۰۰	-13.1031
نخ	-13.1032
کون	-13.1039
نگون	-13.1044
▁انگی	-13.105
داستانی	-13.1051
▁یکجا	-13.1054
سایر	-13.1059
خار	-13.1061
▁مذ	-13.1063
سرخ	-13.1064
▁خواندم	-13.1078
▁گرانت	-13.1079
▁استکمی	-13.108
▁صر	-13.1088
توس	-13.1088
▁متش	-13.1088
▁رستم	-13.1089
▁خاط	-13.1093
▁کمب	-13.1093
▁صداها	-13.1095
▁بخوابان	-13.1095
▁گلستانک	-13.1097
▁سبیل	-13.11
تاق	-13.11
▁هاینر	-13.1106
خوار	-13.1111
▁ترد	-13.1112
نتن	-13.1112
قاعد	-13.1113
پذیری	-13.1115
نوری	-13.1121
الک	-13.1127
▁نامت	-13.1145
آما	-13.1149
▁وایز	-13.1154
▁برخوردها	-13.1157
▁فیزیوتراپی	-13.1158
ئولی	-13.1159
عبور	-13.1159
▁طبل	-13.1161
کاس	-13.1162
وض	-13.1164
ازار	-13.1168
بیا	-13.1168
لمن	-13.1169
▁تاس	-13.1173
تیلن	-13.1174
▁فص	-13.1196
▁جبر	-13.1197
▁خانوا	-13.12
▁احتمالات	-13.1214
▁دلی	-13.1214
▁نکاست	-13.1217
گم	-13.1222
▁زیور	-13.1233
۳۸۵	-13.1238
دافع	-13.1245
▁کشو	-13.1256
▁بوهای	-13.1266
▁متح	-13.1268
خونی	-13.1276
گنجی	-13.1279
امدهای	-13.1279
▁مشک	-13.1282
روهای	-13.1285
نگه	-13.1286
نطق	-13.1288
▁پالی	-13.1292
مرا	-13.1294
ریدلی	-13.1301
▁آناتو	-13.1305
▁اجراست	-13.1309
▁جزی	-13.1316
▁جنگجو	-13.1317
نیایی	-13.1331
▁سوخته	-13.1342
بوش	-13.1343
▁بازدیدها	-13.1365
انتوس	-13.1365
وانه	-13.137
▁بیماریهای	-13.1375
قطر	-13.1375
دوستد	-13.1376
وستا	-13.1383
توپ	-13.1388
▁تهرانی	-13.139
▁نصی	-13.1391
اتریو	-13.1399
▁جوا	-13.14
یگان	-13.1411
خاس	-13.1416
لیان	-13.1417
▁سرز	-13.142
دخا	-13.1425
ندا	-13.1428
▁کیان	-13.1432
▁موید	-13.1445
▁پذیرفتن	-13.1456
شعا	-13.146
بیانی	-13.1461
ارهای	-13.1464
ونز	-13.1465
فوتبال	-13.1467
▁هید	-13.1475
لخت	-13.1477
عبدالو	-13.148
گار	-13.1481
ذیر	-13.1487
رسانده	-13.1489
▁هوادارن	-13.1497
▁مامن	-13.15
▁مکث	-13.1503
رسیتی	-13.1507
▁محم	-13.1509
▁ایرا	-13.151
▁زیا	-13.1519
گوی	-13.1529
▁خاوی	-13.1532
▁شبان	-13.1535
لقو	-13.1541
▁پانز	-13.1546
اتان	-13.1557
▁گزار	-13.1561
عامل	-13.1562
▁ماتیس	-13.1566
▁عموی	-13.1569
قض	-13.1587
اعی	-13.1589
ویت	-13.1591
▁گلها	-13.1591
غیان	-13.1592
کاک	-13.1594
▁داران	-13.1598
هراب	-13.1604
پان	-13.1606
▁فریبی	-13.1616
▁سح	-13.1616
▁حماس	-13.1617
▁دمش	-13.1619
تنه	-13.1625
▁چاند	-13.1633
▁نقط	-13.1652
افی	-13.1653
▁فاک	-13.1658
▁الط	-13.1668
▁کرای	-13.167
▁رزمند	-13.167
یض	-13.1682
شستن	-13.1689
۳۹۸	-13.1706
▁بستگانش	-13.1707
▁شف	-13.1709
▁میانشان	-13.1713
▁دیری	-13.1713
عفر	-13.1722
حراستی	-13.1723
رکنا	-13.173
▁صفات	-13.1736
اغذی	-13.1738
▁همدست	-13.1739
▁موتورس	-13.1741
پایی	-13.1743
▁خودت	-13.1752
ربه	-13.1755
ضل	-13.1757
▁پاراد	-13.1772
ینیو	-13.1784
▁میامی	-13.1787
اهد	-13.1795
همان	-13.18
قدان	-13.1802
موثر	-13.1807
تراپی	-13.1809
▁باورهای	-13.181
▁بگری	-13.1812
▁قاسمی	-13.1822
▁بشوی	-13.1828
یابند	-13.1842
استاد	-13.1853
نالد	-13.1853
▁نائ	-13.186
▁نقوی	-13.1864
▁تیمور	-13.1867
جنب	-13.1869
طه	-13.1876
گمان	-13.1879
▁لبن	-13.1884
رکز	-13.1885
▁بزرگتری	-13.1891
فری	-13.1896
جده	-13.1896
نشری	-13.1898
▁نداری	-13.1902
▁ببند	-13.1905
زرد	-13.1905
▁بخو	-13.1906
وبار	-13.1909
۹۸۰	-13.1914
روری	-13.1916
۹۶۰	-13.1922
تنبور	-13.1931
▁قوان	-13.1935
زاس	-13.1937
▁رادو	-13.1939
دورا	-13.1939
▁اقبالی	-13.1941
▁مستم	-13.1952
▁نشدم	-13.1959
▁مشترکا	-13.1959
سوا	-13.1978
لوکه	-13.1988
بگ	-13.1992
▁دخترم	-13.1993
یتار	-13.1994
بدن	-13.1997
اص	-13.1998
جدی	-13.2016
سات	-13.2025
ابه	-13.2026
روفی	-13.2031
هامر	-13.2039
▁دورا	-13.205
یبو	-13.205
▁عب	-13.2059
صولا	-13.2059
مله	-13.206
هده	-13.2062
سعی	-13.2069
▁لاف	-13.2089
سماع	-13.209
▁ابی	-13.2092
▁شال	-13.2096
▁میکردند	-13.2105
▁عرا	-13.2114
میرز	-13.2114
سیلو	-13.2116
▁۴۸۰۰	-13.2126
نحل	-13.2134
▁رومان	-13.2146
▁گوه	-13.2148
طالبا	-13.2163
ژا	-13.2167
▁پلات	-13.2171
اتم	-13.2174
ورنال	-13.2176
ریستو	-13.2181
▁چهارتا	-13.2187
قتی	-13.2187
▁روبل	-13.2187
طم	-13.2195
▁مط	-13.2199
لاشی	-13.2209
▁غیرسا	-13.2225
▁گردم	-13.2234
یکسا	-13.2252
گیاه	-13.2252
▁حدود۲	-13.2255
▁جانک	-13.2263
▁عز	-13.2266
رسد	-13.2273
▁بیگانگ	-13.2287
رجی	-13.2289
زان	-13.2296
▁ساختم	-13.2327
▁بمیر	-13.2331
گولد	-13.2338
▁هوانو	-13.234
میتسو	-13.2345
▁فعالند	-13.2352
پوزی	-13.2361
گش	-13.2363
ورها	-13.2364
▁مانو	-13.2369
▁درگذشتگ	-13.238
انجی	-13.2396
عطف	-13.2399
۱۵۰	-13.241
▁هنرش	-13.2418
▁آسیاب	-13.2425
اتکلیف	-13.2431
تئو	-13.2431
▁گیران	-13.2433
انندگان	-13.2435
▁کسا	-13.2453
▁زر	-13.2456
یشت	-13.2457
رختک	-13.2464
▁آیوا	-13.2469
▁تازی	-13.2471
▁نعل	-13.2473
▁کامب	-13.2473
تلف	-13.2478
لیف	-13.248
▁ناخو	-13.2489
▁همس	-13.249
▁سلا	-13.2515
▁برادرهای	-13.2536
مایی	-13.2539
فرنی	-13.2543
▁هانت	-13.2544
۷۴	-13.2545
▁پسا	-13.2547
▁احرا	-13.2547
▁پاشی	-13.2552
مارکان	-13.2552
▁شماست	-13.2557
رخور	-13.2566
نظم	-13.2568
▁گردهما	-13.2574
گام	-13.2582
▁پز	-13.2587
ساس	-13.2594
خیل	-13.2595
▁تعار	-13.2596
انگیز	-13.26
▁زید	-13.2607
عرض	-13.2628
▁یونی	-13.2629
وود	-13.2638
مکس	-13.2642
موس	-13.2646
چوب	-13.2647
▁تباه	-13.2652
اطب	-13.2653
▁مخا	-13.2654
دخواهان	-13.2656
رسیده	-13.2659
بوت	-13.2659
کرها	-13.2673
▁پریان	-13.2677
تپل	-13.269
▁نیمرخ	-13.269
خیو	-13.2705
بازگش	-13.2709
یمه	-13.2709
▁جوید	-13.2715
رند	-13.273
▁گروهها	-13.2733
کوتا	-13.2741
▁شدبا	-13.2742
▁باردو	-13.2745
ساکن	-13.2763
▁بلندگو	-13.2777
ماگو	-13.2781
▁هیک	-13.2783
سبح	-13.2797
▁بازارگردان	-13.28
نکر	-13.2808
یاق	-13.2822
یوتی	-13.2824
علام	-13.2825
▁تئودوری	-13.284
▁کمپا	-13.2841
▁ریچ	-13.2855
میانه	-13.2858
فرت	-13.2862
نداشته	-13.2866
▁زب	-13.2871
▁کوم	-13.2886
نجیر	-13.2889
عم	-13.2895
▁درنیا	-13.2897
الکسا	-13.2898
رخواست	-13.2905
▁بمان	-13.2919
▁پیوندان	-13.2924
▁وایلر	-13.2928
فاشی	-13.2945
▁نشا	-13.2948
▁۱۸۷	-13.2965
فلور	-13.2983
سولا	-13.2988
▁مونو	-13.2992
دهه	-13.3007
اشتن	-13.3009
روبات	-13.3014
گاری	-13.3034
طلق	-13.3043
▁الد	-13.305
وشش	-13.3052
یال	-13.3068
کیه	-13.3071
منوعیت	-13.3078
یدمن	-13.3078
▁کریک	-13.3078
▁شودبر	-13.3082
یرشا	-13.3088
شخصی	-13.3108
▁توش	-13.3123
گاو	-13.3124
▁دادنش	-13.3153
▁ملکو	-13.3162
موف	-13.3163
دگار	-13.3175
مدند	-13.3177
▁ناکا	-13.3181
▁هادس	-13.319
▁اسحاقی	-13.32
▁انب	-13.32
ترود	-13.32
▁کاستل	-13.3211
▁ویلیامس	-13.3221
افشانی	-13.3225
نته	-13.3231
احتی	-13.3239
برو	-13.3242
▁فرآور	-13.3246
لوف	-13.3266
▁مواقعی	-13.3282
▁خریدند	-13.3311
وپا	-13.3318
▁سپین	-13.3321
▁پاکس	-13.3327
رنس	-13.3327
یکت	-13.3334
زبور	-13.3334
▁ادوا	-13.334
▁دهن	-13.3346
▁نظران	-13.3353
▁قهار	-13.3369
▁استفان	-13.3371
ریکو	-13.3376
تعرض	-13.3385
رشا	-13.3391
پوآ	-13.3394
بنای	-13.3407
پنتا	-13.3416
رانر	-13.3418
▁شناسم	-13.342
ستم	-13.3421
▁سرایی	-13.3447
ورکا	-13.3455
متعارف	-13.3464
▁گلاس	-13.3472
درومن	-13.3485
یتسی	-13.3486
▁شدمحمد	-13.3489
▁سطل	-13.3491
▁داغتر	-13.3494
جاری	-13.3498
اتوار	-13.3502
اروج	-13.352
رآمدن	-13.3528
▁شهره	-13.3533
▁اسلون	-13.3537
حت	-13.3544
▁اسما	-13.355
▁فون	-13.356
▁پائ	-13.3566
▁نبات	-13.357
▁کلاسها	-13.3583
▁استعدادی	-13.3583
آخ	-13.3587
تنی	-13.3591
▁کاغذها	-13.3605
ژیو	-13.3619
▁گذاشتد	-13.3634
▁تقلی	-13.3642
اغت	-13.3657
شون	-13.3678
▁سپی	-13.368
بهر	-13.3693
▁کلیو	-13.3694
▁مفا	-13.3707
▁موق	-13.3708
اپیما	-13.3735
▁بسیجی	-13.3736
▁الو	-13.3739
ودرو	-13.3739
بلا	-13.3747
▁شرا	-13.3755
▁کازو	-13.3758
دحال	-13.3764
▁امنی	-13.3768
▁حسا	-13.3774
ژیر	-13.3781
کورت	-13.3788
▁میک	-13.3794
عاده	-13.3818
ذو	-13.3825
نیان	-13.3827
دبی	-13.3838
▁کشورروز	-13.3844
▁۲۱۸	-13.3844
سار	-13.3846
لن	-13.3857
▁هامحمد	-13.3868
انشان	-13.3869
▁روشها	-13.3881
ایشگاه	-13.3889
یبریا	-13.3892
رچ	-13.3892
ورن	-13.39
یدون	-13.3913
چا	-13.3918
رکی	-13.3925
استیتس	-13.3931
صیر	-13.3935
▁زحمتش	-13.3939
رشدی	-13.3944
کوم	-13.3959
فروشیم	-13.3961
▁بخور	-13.3964
▁صل	-13.3967
▁جش	-13.3976
موفق	-13.3978
گلیسم	-13.3997
▁ویرجین	-13.4005
▁تارهای	-13.4009
▁گله	-13.4011
▁صع	-13.4023
ایا	-13.4033
آمد	-13.4033
▁عبدالو	-13.4042
▁مراو	-13.4047
رنامه	-13.4048
▁بیاور	-13.405
▁متوس	-13.4068
ادزه	-13.4069
▁محمودی	-13.4078
ابا	-13.4093
گردها	-13.4103
اح	-13.4106
▁جاه	-13.4108
▁ورند	-13.4122
حمدی	-13.4131
▁خودد	-13.4137
▁هواس	-13.4147
▁مرو	-13.4155
▁اکت	-13.4168
▁نخود	-13.4175
▁رابی	-13.4183
رزهای	-13.4211
▁مزا	-13.4215
▁معای	-13.4224
▁بورسی	-13.4226
ارگری	-13.4238
ریش	-13.4249
شهره	-13.4256
انتو	-13.4256
▁وکا	-13.4258
▁نیایش	-13.4269
احات	-13.4279
▁ایرانمقام	-13.4285
▁رایک	-13.4285
تینگ	-13.4286
▁صوفی	-13.4288
▁موقر	-13.4297
ونس	-13.4298
تصدی	-13.4305
▁جمهوریخواه	-13.431
▁تاثیرگذارتر	-13.4311
اماتیک	-13.4311
▁ایجا	-13.4325
بودن	-13.4328
▁بطل	-13.4329
لیخ	-13.4348
ویلا	-13.4357
پیچ	-13.4365
▁سرخورد	-13.4379
مداران	-13.4379
▁بردار	-13.438
ولیوی	-13.4394
امن	-13.4407
▁زل	-13.4416
فیو	-13.4437
حریم	-13.4442
▁ممت	-13.4445
لب	-13.4446
▁آیو	-13.4452
▁مناز	-13.4463
فور	-13.4468
▁رسیدنددو	-13.447
سول	-13.448
▁تئودور	-13.4497
▁خور	-13.4498
▁مراد	-13.4499
▁فرس	-13.4508
▁ند	-13.4509
سپرد	-13.4515
اث	-13.4515
جریان	-13.4518
انکی	-13.4521
▁۱۴۵	-13.4549
وشند	-13.4565
▁حساسی	-13.4573
▁مدی	-13.4584
▁توریس	-13.4584
▁گذرانی	-13.4597
▁پاشیدن	-13.4603
▁فروشگاهها	-13.461
احس	-13.4613
یرا	-13.4615
بودند	-13.4617
▁پاشو	-13.4634
یتی	-13.4637
جار	-13.464
اهت	-13.464
دهای	-13.4657
▁مکت	-13.4661
▁میا	-13.4667
▁ورش	-13.4678
دیکت	-13.4712
▁برگز	-13.4715
▁نامیدن	-13.4727
حیط	-13.474
▁افتند	-13.4753
میو	-13.4754
▁بارت	-13.4769
رلند	-13.4778
▁کاملتر	-13.4784
▁کردنش	-13.4786
رجه	-13.4799
تهم	-13.4801
هستند	-13.4818
۰۳	-13.4821
▁اینت	-13.4831
ائر	-13.4833
زرویس	-13.4834
ضم	-13.4849
▁مثا	-13.4849
▁تض	-13.4852
▁شکای	-13.4858
▁فیور	-13.4864
▁برع	-13.4866
رائ	-13.4872
ولس	-13.4874
ریز	-13.4888
▁ابد	-13.4889
▁رادیک	-13.489
▁سکونتش	-13.489
بستند	-13.4893
▁قاتلی	-13.4895
دهند	-13.4906
▁شدیدتری	-13.4906
تند	-13.4907
▁دوخت	-13.4922
اوت	-13.4945
▁اض	-13.4948
فراغ	-13.4952
▁مینگ	-13.4953
▁کیانی	-13.4968
▁گیتاری	-13.4969
بوده	-13.4988
یپ	-13.4999
▁نیروگاهها	-13.5006
یاضی	-13.5007
▁نابی	-13.5018
۲۶۰	-13.5019
▁استشما	-13.5029
نتوس	-13.5029
▁هدفم	-13.5037
عیار	-13.5049
بوتی	-13.5049
کشاند	-13.5058
معک	-13.5061
▁دپ	-13.5076
▁سرورها	-13.5091
ثی	-13.5092
▁نوح	-13.5096
پش	-13.5098
▁خیا	-13.5102
▁اینه	-13.5109
کاوا	-13.511
نزمن	-13.512
بهشت	-13.5157
▁حقوقش	-13.5163
گات	-13.5165
کستر	-13.5179
▁ورزی	-13.5183
بدی	-13.5187
▁منص	-13.5193
ریو	-13.5196
دعوا	-13.52
▁رسیدم	-13.5201
آئو	-13.5205
۰۹	-13.5216
▁عبدالر	-13.5246
لوغ	-13.5247
▁بشمر	-13.5263
کمیس	-13.5284
▁خز	-13.5288
▁آمل	-13.5291
دقت	-13.5301
دینامی	-13.5305
▁مجرای	-13.5316
اروی	-13.5317
▁تزار	-13.5321
بورسی۳	-13.5324
لدی	-13.5339
ودوگ	-13.5344
▁درعی	-13.5362
وو	-13.5368
▁کات	-13.539
عن	-13.5407
وانگ	-13.5419
▁بیاوری	-13.543
▁مقی	-13.5439
▁پون	-13.5443
رائو	-13.5444
▁اشکان	-13.5466
امان	-13.5476
رساندن	-13.5483
اطع	-13.5486
▁موم	-13.5488
▁یورک	-13.5491
▁اعلا	-13.5493
▁فدا	-13.55
فول	-13.551
▁شیرها	-13.5515
تخم	-13.5535
▁هرز	-13.5541
ازن	-13.5558
پارات	-13.5571
▁کوئین	-13.5578
▁دربا	-13.5586
▁استلا	-13.559
۹۵۳	-13.5599
دف	-13.561
▁ردی	-13.5614
یسه	-13.5615
▁راهبر	-13.5623
▁آشو	-13.5638
▁زندگ	-13.5651
▁بنت	-13.5656
▁منامه	-13.566
▁قدی	-13.566
لیزا	-13.5673
▁توم	-13.5691
خوب	-13.5692
▁شنوی	-13.5697
▁آبخ	-13.5699
▁چرخی	-13.5701
▁رئیسان	-13.5702
▁تفر	-13.5708
نقیب	-13.571
شبی	-13.573
▁اطرافش	-13.5735
یمون	-13.5758
▁اکوس	-13.576
▁تریلی	-13.5765
اردن	-13.5769
▁بگیری	-13.5771
▁گلای	-13.5777
آمده	-13.5784
▁ضخ	-13.5786
▁سوزن	-13.5804
وآلا	-13.581
وستان	-13.5812
▁ماکرو	-13.5815
گسترد	-13.5816
▁حرا	-13.5829
▁جند	-13.583
عین	-13.5831
نسیل	-13.5843
۱۶۵	-13.5846
مفهوم	-13.5851
▁۴۱۰	-13.5856
هفت	-13.5882
رینیو	-13.5889
ماز	-13.589
▁میلانی	-13.5896
وارت	-13.5898
محبوب	-13.5902
▁بازاری	-13.5904
▁بساز	-13.5906
▁ظاهرش	-13.5909
ترن	-13.5916
وییچ	-13.5917
▁۲۰۶	-13.5921
لویی	-13.5934
▁باکر	-13.5936
نف	-13.5945
▁میزبانان	-13.5963
▁سپاری	-13.5995
درو	-13.5998
▁غای	-13.6009
۶۲۰	-13.6013
عط	-13.6017
رنت	-13.6026
▁کجاها	-13.6032
▁انف	-13.6043
▁دریابی	-13.6043
گوش	-13.6052
▁بلان	-13.607
▁کاندید	-13.6075
عمر	-13.6077
▁آد	-13.6082
غدار	-13.6091
▁هرت	-13.612
گردی	-13.6124
رمت	-13.6139
لبه	-13.6154
المللی	-13.6155
▁کیک	-13.6159
ثری	-13.617
لاغ	-13.6172
لوز	-13.6176
۵۶	-13.6178
توری	-13.6197
رگان	-13.6211
▁خودستا	-13.6218
▁مفت	-13.6223
سلان	-13.6244
▁مطم	-13.6252
▁ترویس	-13.6259
حمدرضا	-13.6262
کنان	-13.6263
ایس	-13.6274
نچه	-13.6285
▁تال	-13.6293
یتو	-13.6305
نشیند	-13.6307
اغر	-13.631
ندین	-13.6325
زلی	-13.6335
''	-13.6351
▁گذ	-13.6365
بگذاری	-13.6373
ولشوی	-13.6376
راکسی	-13.6378
▁آسای	-13.638
لام	-13.6383
کنار	-13.6394
داند	-13.6409
▁نوشتار	-13.641
▁بکشان	-13.643
▁گنب	-13.6436
▁بازها	-13.645
یمو	-13.6471
عصب	-13.6474
▁همت	-13.6495
نویسم	-13.6517
▁آنگ	-13.6517
▁هاس	-13.6518
ترو	-13.6526
رطرف	-13.6527
▁نکنی	-13.6533
گویید	-13.6561
یمار	-13.6564
▁و۲	-13.6565
پورن	-13.6568
▁هکر	-13.6578
▁بوت	-13.6584
برتو	-13.6587
یلمن	-13.6588
وریدی	-13.6589
چن	-13.6593
ابلاغ	-13.6601
فتی	-13.6604
▁بوداها	-13.6605
دارانش	-13.6612
▁فقیرتر	-13.6624
نبع	-13.6625
▁آدا	-13.6644
لاز	-13.6649
▁ضرو	-13.6655
۰۲	-13.6656
▁ماهر	-13.666
▁آلف	-13.6668
آزاد	-13.6689
کیف	-13.6691
۳۷۹	-13.6702
یرس	-13.6705
مزه	-13.6707
▁دیگرش	-13.6724
تاکو	-13.6733
▁''	-13.6738
نقی	-13.6743
سهیل	-13.6743
▁پاترو	-13.6768
کوت	-13.6769
▁کوپ	-13.6779
▁غا	-13.6781
وروف	-13.6786
غیر	-13.6825
ویایی	-13.684
.'	-13.6874
▁برگرد	-13.6874
اعات	-13.6884
لینز	-13.6898
ریتانی	-13.69
رچی	-13.6905
پرده	-13.691
فیک	-13.6916
مدان	-13.6935
وج	-13.6948
یجی	-13.6948
دوین	-13.6956
▁والد	-13.6962
صور	-13.6966
▁پلاکارد	-13.6966
▁رفتارش	-13.697
توقف	-13.6982
▁بده	-13.6987
لمینگ	-13.6992
▁حما	-13.7003
ابن	-13.7007
یگو	-13.7057
هد	-13.7065
▁نمودن	-13.707
▁درخشیدن	-13.7072
ضو	-13.709
اشناس	-13.7116
▁شدندم	-13.7125
ارات	-13.7141
کنش	-13.7144
▁وک	-13.7144
اتفاق	-13.7162
کثی	-13.7166
اگان	-13.7167
▁علیا	-13.7173
▁ورزید	-13.7174
ردیف	-13.7176
نامی	-13.7183
▁قای	-13.7194
▁اقامتش	-13.7205
امنیت	-13.7206
▁فریم	-13.7208
▁الکسی	-13.7222
▁مردن	-13.7223
▁مخد	-13.723
وزش	-13.7234
آمدتر	-13.7244
گانگ	-13.7245
۷۶	-13.7245
آل	-13.7263
▁کنددر	-13.727
▁ایش	-13.7272
صادر	-13.7273
اشتی	-13.7286
مچ	-13.7288
گد	-13.73
حمله	-13.7309
بنگ	-13.7342
▁بخشند	-13.7353
طرن	-13.7358
رصد	-13.736
▁درهایش	-13.7363
▁پستو	-13.7367
نکا	-13.7395
سلامی	-13.7395
▁هد	-13.7399
▁شاک	-13.7408
رنده	-13.7414
▁بهمنی	-13.7422
عراق	-13.7423
▁برگذار	-13.7434
فرش	-13.7457
نتو	-13.746
اکستر	-13.7472
سهام	-13.7478
▁ابت	-13.7487
نکرده	-13.749
▁پلن	-13.7492
ناسی	-13.7494
اکمل	-13.7496
یفرانس	-13.7498
سیام	-13.7503
کایی	-13.7506
▁مائو	-13.7507
هدی	-13.7512
▁توئی	-13.7514
گوپ	-13.7518
کلور	-13.752
▁عادلا	-13.7523
ترش	-13.7528
انرژی	-13.7547
سوب	-13.7558
ترامپ	-13.7564
▁نزدی	-13.7577
پنسا	-13.7578
▁پاکی	-13.7588
اندیشد	-13.7598
زخ	-13.7603
▁نص	-13.7611
ایند	-13.7614
▁همنوا	-13.7617
▁نبست	-13.7625
تبدیل	-13.7625
وشی	-13.763
▁چرخد	-13.7639
▁مخاطبانم	-13.764
ئیس	-13.7651
هاپ	-13.7657
تاثیر	-13.7658
هوا	-13.7678
تعطیل	-13.769
▁پارکها	-13.7691
ارتباط	-13.7698
▁زیرو	-13.7699
شناخت	-13.7707
سیدن	-13.7722
تایید	-13.7722
▁تقل	-13.7728
▁درامد	-13.7731
وژ	-13.7755
▁طبا	-13.7768
مینگ	-13.7769
▁ولا	-13.7771
▁هیون	-13.7795
نائو	-13.78
طریق	-13.78
باق	-13.7803
حد	-13.7812
▁همکاریها	-13.7813
۶۶	-13.7816
ناپولی	-13.7819
▁یوور	-13.7829
▁پدی	-13.7833
▁هلا	-13.785
شیا	-13.7851
▁تانس	-13.7852
یاروی	-13.7866
یلانی	-13.7869
آورده	-13.7871
کف	-13.7873
▁روزن	-13.788
▁زاه	-13.7889
▁نارن	-13.7896
نفرانس	-13.7896
▁میلیونر	-13.7916
نسه	-13.7924
ستمز	-13.7926
تفا	-13.7929
نونی	-13.7938
کودکان	-13.7942
ژدهای	-13.7943
شق	-13.7956
گسترده	-13.7984
▁جها	-13.8005
▁۱۷۱۰	-13.8007
برون	-13.8012
▁تعذی	-13.8015
رعب	-13.8016
▁بردم	-13.8018
چس	-13.8022
دوگا	-13.8035
نتونیو	-13.8042
جلو	-13.8059
▁سایتش	-13.8062
وپول	-13.8063
انیان	-13.807
دستگاه	-13.807
رایی	-13.8075
لگرد	-13.8078
لغو	-13.8081
وئی	-13.8082
مشکلات	-13.809
کووید	-13.8096
▁انتظا	-13.8103
قریب	-13.8105
رپ	-13.8107
رساند	-13.8115
▁نیمو	-13.8126
فغانستان	-13.8129
▁برک	-13.8134
▁بارد	-13.814
▁خردکن	-13.8141
شورا	-13.8144
نیروهای	-13.8148
▁اعل	-13.8149
▁،	-13.8153
زمی	-13.8169
▁انصا	-13.817
گدا	-13.8178
▁معال	-13.8181
شای	-13.8193
وقف	-13.82
معاملات	-13.8202
هواپیمای	-13.8209
لانی	-13.8209
▁استمقام	-13.821
آبان	-13.8225
کتر	-13.8231
▁دوی	-13.8233
پاپ	-13.8235
اندا	-13.8235
گردد	-13.8243
مسئ	-13.8259
پاس	-13.8265
هارت	-13.8281
▁تران	-13.8299
آسیب	-13.8311
اپل	-13.8314
فتا	-13.8314
ضرب	-13.8318
▁ایمپ	-13.8328
▁کاراک	-13.8328
داش	-13.8351
یتسو	-13.8358
صحبت	-13.837
مصوب	-13.8376
غنی	-13.8377
یفر	-13.8381
وزه	-13.8381
تقریبا	-13.8395
▁شفی	-13.8404
دیان	-13.8405
▁نورها	-13.8416
توسعه	-13.8416
▁گلا	-13.8421
دمین	-13.8422
▁مفص	-13.8427
ونزوئلا	-13.8428
▁دینام	-13.844
▁نکن	-13.8446
مناطق	-13.8446
پرا	-13.8447
روم	-13.8448
نظام	-13.8449
مدوف	-13.8461
گلو	-13.8463
سراسر	-13.8465
▁پیشر	-13.8477
مذاکر	-13.848
آنا	-13.8481
فارسی	-13.8482
نشده	-13.8485
احتمالا	-13.8489
نرم	-13.8491
دفاع	-13.8498
کونی	-13.8501
▁مارتا	-13.8506
پرواز	-13.8506
یناف	-13.8507
یوشیت	-13.8511
▁مسابق	-13.8512
۲۰۲۱	-13.852
بیرون	-13.8528
بگیرد	-13.8533
آوریل	-13.8536
جنس	-13.8538
▁کارا	-13.8542
▁ولو	-13.8553
توییتر	-13.8555
کایین	-13.8557
ولایت	-13.8558
شاهی	-13.8564
برنده	-13.8564
موفقیت	-13.8579
ماس	-13.8583
گذارد	-13.8585
یشمن	-13.8592
اعمال	-13.8594
▁رنجی	-13.8596
بالای	-13.8598
سرا	-13.86
نظارت	-13.8613
موافقت	-13.8614
مالیات	-13.862
پروازهای	-13.862
طبیعی	-13.8627
افغان	-13.8632
رعایت	-13.8634
عدالت	-13.8635
۹۲	-13.8641
غار	-13.8645
▁بازند	-13.8646
آموزند	-13.8652
▁آبرو	-13.8664
لرز	-13.8666
بایرن	-13.8669
▁تراشی	-13.8674
امیدوار	-13.8681
مقایس	-13.8683
▁کراس	-13.8683
هنرمند	-13.8688
▁فت	-13.869
جامعه	-13.8695
تحق	-13.8696
▁اندبر	-13.8698
بلیت	-13.8704
معتقد	-13.8704
فارس	-13.8705
سخنران	-13.871
یتون	-13.8714
▁قن	-13.8718
هواپیما	-13.8749
مخالفت	-13.8752
یکشنبه	-13.8753
افرا	-13.8758
انپزشک	-13.8759
پیام	-13.8762
اوراق	-13.8769
موزه	-13.8771
یورنس	-13.8771
حزب	-13.8774
کارکنان	-13.8779
حوم	-13.8791
قربانی	-13.8798
▁تد	-13.8805
▁غیرت	-13.8806
رماخ	-13.8807
شیروان	-13.8813
▁تعزی	-13.8818
▁رق	-13.8819
مسدود	-13.8827
آلبوم	-13.8841
برسد	-13.8844
محیط	-13.8848
چالش	-13.8851
آموزش	-13.8858
نوامبر	-13.8859
فتند	-13.8859
مبلغ	-13.8861
ایستگاه	-13.8872
بایدن	-13.8878
پاکستان	-13.8885
الزمان	-13.889
فرزند	-13.8891
ریال	-13.8892
آنلاین	-13.8894
ششم	-13.8895
عجیب	-13.8898
▁۱۱۴	-13.8899
تصوی	-13.8899
▁جار	-13.8901
▁بهمین	-13.891
ادبیات	-13.8918
مسر	-13.892
▁الاس	-13.8925
واپسی	-13.8925
چیده	-13.8928
طرفداران	-13.8929
افزوده	-13.8935
سوریه	-13.8938
اکتبر	-13.8939
کنسرت	-13.894
اخبار	-13.8942
حفاظت	-13.8944
سوپر	-13.8945
معامل	-13.8945
سپارد	-13.8945
کوب	-13.8949
▁کولی	-13.895
ابتدای	-13.8952
زش	-13.8954
افع	-13.8955
ثابت	-13.8956
صبح	-13.8964
اهمیت	-13.8969
شاعر	-13.8971
▁باشگا	-13.8973
هنرمندان	-13.8975
برهای	-13.898
عوامل	-13.8983
▁توک	-13.8984
▁افز	-13.8985
زخمی	-13.8987
اینستاگرام	-13.899
شهریور	-13.8992
افته	-13.8992
▁ابری	-13.8992
قبول	-13.8994
ورزشکار	-13.8994
موشک	-13.8995
▁غنا	-13.8997
▁رادار	-13.8997
آمازون	-13.9
▁پاین	-13.9007
آسمان	-13.9009
مسافر	-13.9012
نحو	-13.9014
▁امروزی	-13.9016
کارشناس	-13.9017
ارقام	-13.9026
نب	-13.9027
زندانیان	-13.9031
▁ساس	-13.9031
صلاحیت	-13.9037
▁صی	-13.9037
سلمان	-13.9038
دستمزد	-13.9038
قاضی	-13.9043
متولد	-13.9045
داوطلبان	-13.9047
پری	-13.9048
خسارت	-13.9049
کلانش	-13.9056
نروژ	-13.906
چشمگیر	-13.9061
ربات	-13.9063
تقاضای	-13.9066
عصر	-13.9067
فرودگاه	-13.9068
رویکرد	-13.9068
۲۰۱۵	-13.9068
تخلف	-13.907
خواب	-13.9071
پارلمان	-13.908
▁مغر	-13.9082
دانشجویان	-13.9088
قتصاد	-13.909
▁زرتشت	-13.909
▁جغرافیا	-13.9092
کلمبیا	-13.9095
کربن	-13.9107
سوئد	-13.9116
حات	-13.9117
متخصص	-13.9118
هما	-13.9119
▁ناخوا	-13.912
شفاف	-13.9121
ادر	-13.9129
اندونزی	-13.9132
نوجوان	-13.9133
علائم	-13.9136
پیمای	-13.9137
غافلگیر	-13.9137
مجازات	-13.9138
محمو	-13.914
▁بازگرد	-13.9142
یچه	-13.9153
تراکتور	-13.9153
روغن	-13.9155
رادیو	-13.9158
خطوط	-13.9158
امکانات	-13.916
زمستان	-13.9161
محکومیت	-13.9163
تمان	-13.9173
فایل	-13.9173
ظاهرا	-13.9173
هافبک	-13.9179
خرداد	-13.9184
▁دک	-13.9185
ویدیوی	-13.9187
مذهبی	-13.9187
کتو	-13.9188
دانمارک	-13.9192
جوز	-13.9195
صادق	-13.9196
▁گیره	-13.92
فریاد	-13.9201
تأم	-13.9201
مرداد	-13.9203
مطلب	-13.9203
پادتن	-13.9204
▁باورها	-13.9204
....	-13.9206
مطمئن	-13.9206
لیتو	-13.9206
پهلوی	-13.9206
پیچیده	-13.9207
اتاگو	-13.9212
اوکراین	-13.9214
تحریر	-13.9215
تروریست	-13.9215
فرونشست	-13.9216
ورتر	-13.9216
بوندس	-13.9218
کالاهای	-13.9218
موقع	-13.922
گزارشگر	-13.9221
برکنار	-13.9225
تخت	-13.9226
نیروگاه	-13.923
زنش	-13.9235
ویلموتس	-13.9235
نابودی	-13.9236
▁نشاندن	-13.9238
شکار	-13.9245
جوش	-13.9248
شکنج	-13.9249
وسایل	-13.925
نیوزیلند	-13.925
کوارت	-13.9251
مجری	-13.9252
ارتفاع	-13.9253
ابر	-13.9254
برانکو	-13.9254
تسهیلات	-13.9258
دقیقا	-13.9263
ینوس	-13.9266
متقاضی	-13.9268
تصویری	-13.9272
زنگنه	-13.9274
نطور	-13.9274
فروشگاه	-13.9279
فراگیر	-13.9283
تخلفات	-13.9283
توما	-13.9285
دلجو	-13.9286
عروسک	-13.9289
اکتشاف	-13.9289
اعتیاد	-13.929
خورشیدی	-13.9292
علاقمندان	-13.9292
پوشاند	-13.9293
تابلوی	-13.9295
سوال	-13.9296
بامداد	-13.9297
ناراحت	-13.93
زیاد	-13.9308
▁شعارها	-13.9309
ماندند	-13.9309
سفرهای	-13.9309
▁سلی	-13.931
▁هیس	-13.931
ثمر	-13.931
سیاستمداران	-13.931
▁همجنسگرا	-13.9312
جلسات	-13.9313
▁آگوس	-13.9313
تلگرام	-13.9315
▁مدع	-13.9315
منافع	-13.9319
تالاب	-13.9319
کاغذ	-13.9319
[...]
