{
  "src_word2id": {
    "<pad>": 0,
    "<s>": 1,
    "</s>": 2,
    "<unk>": 3,
    "ی": 4,
    ".": 5,
    "ه": 6,
    "▁است": 7,
    "▁": 8,
    "▁می": 9,
    "▁های": 10,
    "▁ایران": 11,
    "▁شده": 12,
    "،": 13,
    "▁سال": 14,
    "▁بود": 15,
    "▁یک": 16,
    "▁ها": 17,
    "▁شد": 18,
    "▁تصویر": 19,
    "▁کرده": 20,
    "▁ای": 21,
    "▁کرد": 22,
    "ان": 23,
    "منبع": 24,
    "▁بر": 25,
    "▁شود": 26,
    "▁گفته": 27,
    "▁دو": 28,
    "▁کند": 29,
    "▁خود": 30,
    "؛": 31,
    "▁اند": 32,
    "▁کرونا": 33,
    "ین": 34,
    "▁در": 35,
    "▁پیش": 36,
    "▁کشور": 37,
    "ش": 38,
    "▁آمریکا": 39,
    "▁ماه": 40,
    "ن": 41,
    "▁گزارش": 42,
    "▁روز": 43,
    "ت": 44,
    "▁بی": 45,
    "▁فوتبال": 46,
    "▁دارد": 47,
    "▁ا": 48,
    "▁دهد": 49,
    "▁بازی": 50,
    "▁تیم": 51,
    "▁کنند": 52,
    "▁گفت": 53,
    "▁اعلام": 54,
    "▁کار": 55,
    "▁قرار": 56,
    "▁هزار": 57,
    "▁شرکت": 58,
    "▁م": 59,
    "▁و": 60,
    "▁دیگر": 61,
    "▁داده": 62,
    "▁یا": 63,
    "▁دولت": 64,
    "▁دست": 65,
    "▁رئیس": 66,
    "م": 67,
    "▁جهان": 68,
    "▁با": 69,
    "▁گذشته": 70,
    "▁سه": 71,
    "▁به": 72,
    "▁پس": 73,
    "▁خواهد": 74,
    "▁بین": 75,
    "▁آقای": 76,
    "▁گوید": 77,
    "▁ب": 78,
    "▁هر": 79,
    "در": 80,
    "▁میلیون": 81,
    "▁درباره": 82,
    "▁بار": 83,
    "▁درصد": 84,
    "▁لیگ": 85,
    "▁آنها": 86,
    "▁افزایش": 87,
    "▁تهران": 88,
    "▁نفر": 89,
    "▁دلیل": 90,
    "▁یکی": 91,
    "▁افغانستان": 92,
    "'": 93,
    "▁بوده": 94,
    "▁'": 95,
    "▁داد": 96,
    "▁هفته": 97,
    "▁چند": 98,
    "▁بعد": 99,
    "این": 100,
    "های": 101,
    "▁از": 102,
    "▁جدید": 103,
    "▁خبر": 104,
    "▁حال": 105,
    "▁ویروس": 106,
    "▁نفت": 107,
    "▁جهانی": 108,
    "▁ملی": 109,
    "ا": 110,
    "ر": 111,
    "▁دلار": 112,
    ":": 113,
    "▁قیمت": 114,
    "▁بازار": 115,
    "▁سازمان": 116,
    "▁جمهوری": 117,
    "▁ترین": 118,
    "▁همه": 119,
    "▁مورد": 120,
    "▁فیلم": 121,
    "▁نمی": 122,
    "▁هستند": 123,
    "▁همچن": 124,
    "▁برگزار": 125,
    "▁باید": 126,
    "▁نام": 127,
    "▁گرفته": 128,
    "▁تولید": 129,
    "▁عنوان": 130,
    "ند": 131,
    "▁نظر": 132,
    "▁ت": 133,
    "ات": 134,
    "▁چین": 135,
    "▁امروز": 136,
    "▁روی": 137,
    "▁بیش": 138,
    "▁سر": 139,
    "▁کاهش": 140,
    "▁کردند": 141,
    "د": 142,
    "▁مجلس": 143,
    "▁داشت": 144,
    "▁وزیر": 145,
    "▁بودند": 146,
    "ب": 147,
    "ل": 148,
    "▁شب": 149,
    "▁آغاز": 150,
    "▁بیشتر": 151,
    "▁اروپا": 152,
    "▁شدن": 153,
    "▁نیست": 154,
    "▁مقابل": 155,
    "▁علی": 156,
    "▁سی": 157,
    "▁اخیر": 158,
    "▁وزارت": 159,
    "▁حدود": 160,
    "▁بزرگ": 161,
    "▁بریتانیا": 162,
    "به": 163,
    "▁اقتصادی": 164,
    "▁راه": 165,
    "▁واکسن": 166,
    "▁برنامه": 167,
    "▁ایرانی": 168,
    "▁نیز": 169,
    "س": 170,
    "▁داشته": 171,
    "▁پایان": 172,
    "▁نشان": 173,
    "▁را": 174,
    "▁ف": 175,
    "▁حضور": 176,
    "▁آن": 177,
    "▁زمین": 178,
    "▁زمان": 179,
    "▁شهر": 180,
    "▁باشد": 181,
    "▁اش": 182,
    "که": 183,
    "▁بانک": 184,
    "▁باشگاه": 185,
    "▁منتشر": 186,
    "▁اولین": 187,
    "▁توافق": 188,
    "▁اساس": 189,
    "▁انجام": 190,
    "▁شیوع": 191,
    "▁کم": 192,
    "▁باز": 193,
    "▁صورت": 194,
    "▁هایی": 195,
    "▁تحریم": 196,
    "ز": 197,
    "▁اول": 198,
    "▁فصل": 199,
    "▁تر": 200,
    "▁بخش": 201,
    "گی": 202,
    "▁گل": 203,
    "دامه": 204,
    "▁میان": 205,
    "ری": 206,
    "▁استفاده": 207,
    "▁جمله": 208,
    "▁میلیارد": 209,
    "▁وجود": 210,
    "▁دارند": 211,
    "▁مردم": 212,
    "▁رسید": 213,
    "▁شوند": 214,
    "آقای": 215,
    "؟": 216,
    "▁مسابقات": 217,
    "له": 218,
    "▁س": 219,
    "▁گیری": 220,
    "▁همین": 221,
    "او": 222,
    "▁زندگی": 223,
    "▁خواست": 224,
    "▁مسابقه": 225,
    "▁المللی": 226,
    "▁تومان": 227,
    "▁گروه": 228,
    "▁چهار": 229,
    "▁مقام": 230,
    "و": 231,
    "▁بسیاری": 232,
    "▁ماشین": 233,
    "▁حقوق": 234,
    "▁تمام": 235,
    "▁ارز": 236,
    "▁شدند": 237,
    "▁گرفت": 238,
    "▁تواند": 239,
    "▁ن": 240,
    "▁آینده": 241,
    "▁وقت": 242,
    "▁وضعیت": 243,
    "▁اسلامی": 244,
    "▁نرخ": 245,
    "▁حالی": 246,
    "▁برتر": 247,
    "▁بیماری": 248,
    "▁تنها": 249,
    "▁شرایط": 250,
    "▁ساله": 251,
    "▁پنج": 252,
    "▁امسال": 253,
    "▁زنان": 254,
    "▁جام": 255,
    "انه": 256,
    "▁وارد": 257,
    "▁فعالیت": 258,
    "▁کشورهای": 259,
    "▁اقتصاد": 260,
    "▁هیچ": 261,
    "▁زیاد": 262,
    "▁مختلف": 263,
    "▁توان": 264,
    "▁۲۰": 265,
    "▁قبل": 266,
    "رسی": 267,
    "▁طرح": 268,
    "▁تصمیم": 269,
    "▁دوران": 270,
    "▁اجتماعی": 271,
    "▁خانه": 272,
    "▁غیر": 273,
    "عث": 274,
    "▁خارجه": 275,
    "▁کردن": 276,
    "▁روحانی": 277,
    "▁طور": 278,
    "▁تلاش": 279,
    "▁ولی": 280,
    "▁نخست": 281,
    "▁رسان": 282,
    "بدون": 283,
    "▁گویند": 284,
    "نه": 285,
    "▁نزدیک": 286,
    "▁محمد": 287,
    "▁قهرمان": 288,
    "▁افراد": 289,
    "▁خانواده": 290,
    "▁کمک": 291,
    "▁د": 292,
    "▁فروش": 293,
    "▁تازه": 294,
    "▁دهه": 295,
    "▁بورس": 296,
    "▁جان": 297,
    "▁بسیار": 298,
    "▁ه": 299,
    "▁ک": 300,
    "▁مدت": 301,
    "▁دی": 302,
    "▁نه": 303,
    "▁پی": 304,
    "▁تغییر": 305,
    "▁ریاست": 306,
    "▁انتخابات": 307,
    "▁۱۹": 308,
    "▁مرکزی": 309,
    "▁حالا": 310,
    "سیون": 311,
    "ار": 312,
    "▁قهرمانی": 313,
    "▁منبع": 314,
    "▁مهم": 315,
    "▁تاریخ": 316,
    "▁برای": 317,
    "▁دوره": 318,
    "▁سوی": 319,
    "▁اصلی": 320,
    "▁اثر": 321,
    "▁دانشگاه": 322,
    "▁ش": 323,
    "شان": 324,
    "یک": 325,
    "▁منطقه": 326,
    "قط": 327,
    "▁سرمایه": 328,
    "▁رسمی": 329,
    "▁برابر": 330,
    "▁کنار": 331,
    "▁زیر": 332,
    "▁همراه": 333,
    "▁دنیا": 334,
    "▁هم": 335,
    "▁جمهور": 336,
    "▁درگذشت": 337,
    "▁ر": 338,
    "▁هسته": 339,
    "یت": 340,
    "▁رسیده": 341,
    "▁رقابت": 342,
    "▁برخ": 343,
    "▁موسیقی": 344,
    "▁دوم": 345,
    "یه": 346,
    "▁اطلاعات": 347,
    "▁پول": 348,
    "▁آمار": 349,
    "▁پیدا": 350,
    "▁آ": 351,
    "▁بعضی": 352,
    "شورای": 353,
    "▁۴": 354,
    "▁آمریکایی": 355,
    "▁سفر": 356,
    "▁پرسپولیس": 357,
    "▁پر": 358,
    "ک": 359,
    "ف": 360,
    "شروع": 361,
    "▁میلادی": 362,
    "ثبت": 363,
    "▁نتیج": 364,
    "▁نقش": 365,
    "▁عکس": 366,
    "▁زن": 367,
    "▁خودرو": 368,
    "▁مرکز": 369,
    "▁برجام": 370,
    "▁۱۰": 371,
    "▁یافته": 372,
    "ده": 373,
    "▁کشتی": 374,
    "▁اعتراض": 375,
    "نامه": 376,
    "▁استان": 377,
    "▁نشده": 378,
    "▁بودجه": 379,
    "▁دنبال": 380,
    "▁حاضر": 381,
    "▁جایزه": 382,
    "▁کل": 383,
    "▁ممکن": 384,
    "▁شکست": 385,
    "▁اینک": 386,
    "▁حمله": 387,
    "▁توجه": 388,
    "▁رشد": 389,
    "ست": 390,
    "ها": 391,
    "▁نوشته": 392,
    "▁سیاسی": 393,
    "▁شش": 394,
    "▁همکاری": 395,
    "▁سهام": 396,
    "▁حمایت": 397,
    "▁دریافت": 398,
    "▁که": 399,
    "بر": 400,
    "▁بازیکن": 401,
    "با": 402,
    "▁مراسم": 403,
    "▁آزاد": 404,
    "▁او": 405,
    "▁مالی": 406,
    "▁رفت": 407,
    "▁واکنش": 408,
    "▁آلمان": 409,
    "▁بالا": 410,
    "▁الله": 411,
    "توسط": 412,
    "▁۵": 413,
    "▁بهترین": 414,
    "▁پرداخت": 415,
    "▁ندارد": 416,
    "▁کمتر": 417,
    "▁استقلال": 418,
    "ایی": 419,
    "▁آب": 420,
    "▁عراق": 421,
    "▁کر": 422,
    "▁۲۰۲۰": 423,
    "▁سیاست": 424,
    "نی": 425,
    "▁هدف": 426,
    "▁بهداشت": 427,
    "▁کتاب": 428,
    "▁دور": 429,
    "▁نامه": 430,
    "▁فرانسه": 431,
    "▁ساعت": 432,
    "▁آژانس": 433,
    "▁عرض": 434,
    "▁۲": 435,
    "▁نیمه": 436,
    "ترین": 437,
    "▁شنبه": 438,
    "▁ترکیه": 439,
    "▁طی": 440,
    "▁روند": 441,
    "▁مدیر": 442,
    "▁آمده": 443,
    "▁عربستان": 444,
    "▁ویژه": 445,
    "▁رسد": 446,
    "ِ": 447,
    "▁خبرگزا": 448,
    "▁انتشار": 449,
    "▁دیدار": 450,
    "▁پیروز": 451,
    "▁جنوبی": 452,
    "▁انرژی": 453,
    "▁خرید": 454,
    "اکنون": 455,
    "حتی": 456,
    "▁شمار": 457,
    "اسیون": 458,
    "▁دهند": 459,
    "▁قهرمانان": 460,
    "از": 461,
    "▁چنین": 462,
    "▁سابق": 463,
    "گان": 464,
    "▁موضوع": 465,
    ")": 466,
    "▁گذاری": 467,
    "▁کنیم": 468,
    "▁پ": 469,
    "▁خام": 470,
    "▁ترامپ": 471,
    "کسب": 472,
    "▁اشار": 473,
    "▁سازی": 474,
    "▁نهایی": 475,
    "▁مبارز": 476,
    "▁اتحاد": 477,
    "▁هشدار": 478,
    "▁یافت": 479,
    "▁میزان": 480,
    "▁ایجاد": 481,
    "▁همان": 482,
    "▁زبان": 483,
    "گیری": 484,
    "▁رو": 485,
    "▁این": 486,
    "▁قابل": 487,
    "▁تبدیل": 488,
    "▁آزمایش": 489,
    "▁خواهند": 490,
    "▁دولتی": 491,
    "▁خارجی": 492,
    "▁درآمد": 493,
    "▁قانون": 494,
    "▁اجرای": 495,
    "▁(": 496,
    "▁جریان": 497,
    "▁کشته": 498,
    "▁نیاز": 499,
    "▁متهم": 500,
    "▁ده": 501,
    "▁ورزش": 502,
    "▁حسن": 503,
    "▁مذاکرات": 504,
    "▁پرونده": 505,
    "▁مشخص": 506,
    "▁تاثیر": 507,
    "▁زده": 508,
    "ای": 509,
    "▁نا": 510,
    "▁هفت": 511,
    "▁اقدام": 512,
    "▁بازیکنان": 513,
    "چه": 514,
    "▁ساخت": 515,
    "▁تایید": 516,
    "▁تلویزیون": 517,
    "▁سپاه": 518,
    "▁۶": 519,
    "▁مرگ": 520,
    "▁تعطیل": 521,
    "▁ح": 522,
    "▁کمی": 523,
    "▁بیمارستان": 524,
    "▁۳": 525,
    "▁سوم": 526,
    "نوز": 527,
    "▁مرد": 528,
    "▁مربوط": 529,
    "▁روسیه": 530,
    "▁فاصله": 531,
    "▁طریق": 532,
    "▁مدل": 533,
    "▁آسیا": 534,
    "▁دیده": 535,
    "▁بازداشت": 536,
    "▁ارتباط": 537,
    "▁.": 538,
    "▁بالای": 539,
    "▁سرمربی": 540,
    "▁احمد": 541,
    "▁اسرائیل": 542,
    "▁جلو": 543,
    "▁سالگی": 544,
    "▁چرا": 545,
    "▁زمانی": 546,
    "▁خاطر": 547,
    "▁مجموعه": 548,
    "▁خارج": 549,
    "▁صادرات": 550,
    "▁محل": 551,
    "▁تنیس": 552,
    "▁بازگشت": 553,
    "▁انسان": 554,
    "▁رهبر": 555,
    "▁نمایش": 556,
    "▁نمایندگان": 557,
    "▁صد": 558,
    "▁کننده": 559,
    "▁لیورپول": 560,
    "▁آی": 561,
    "▁انگلیس": 562,
    "▁نسبت": 563,
    "▁عضو": 564,
    "▁سو": 565,
    "▁حکومت": 566,
    "▁اتمی": 567,
    "▁اعضای": 568,
    "▁ل": 569,
    "▁پلیس": 570,
    "▁دادگاه": 571,
    "▁رود": 572,
    "▁تعداد": 573,
    "▁نشست": 574,
    "▁معاون": 575,
    "▁خط": 576,
    "▁ساخته": 577,
    "▁سطح": 578,
    "▁قرنطینه": 579,
    "▁تو": 580,
    "▁امنیت": 581,
    "▁طول": 582,
    "▁بیانی": 583,
    "▁جو": 584,
    "▁ابتلا": 585,
    "▁ج": 586,
    "▁کامل": 587,
    "ینه": 588,
    "▁صنعت": 589,
    "▁محدودیت": 590,
    "▁انتخاب": 591,
    "▁۳۰": 592,
    "▁خطر": 593,
    "▁برد": 594,
    "▁رد": 595,
    "▁سخنگوی": 596,
    "▁طرف": 597,
    "▁عمومی": 598,
    "▁تحت": 599,
    "▁آخری": 600,
    "▁۷": 601,
    "▁قرارداد": 602,
    "▁دیگری": 603,
    "▁نظامی": 604,
    "▁منابع": 605,
    "می": 606,
    "ون": 607,
    "▁لندن": 608,
    "ق": 609,
    "▁جا": 610,
    "▁لغو": 611,
    "▁خوب": 612,
    "▁بخشی": 613,
    "▁۲۵": 614,
    "▁ارزش": 615,
    "▁کابل": 616,
    "▁جنگ": 617,
    "▁امنیتی": 618,
    "▁شورا": 619,
    "▁نقل": 620,
    "▁کودکان": 621,
    "روز": 622,
    "▁سخت": 623,
    "▁همزمان": 624,
    "▁زندان": 625,
    "▁ظریف": 626,
    "▁نگاه": 627,
    "▁نیم": 628,
    "▁شناخت": 629,
    "▁پزشکی": 630,
    "▁ام": 631,
    "▁آثار": 632,
    "▁بشر": 633,
    "▁گسترده": 634,
    "▁سابقه": 635,
    "▁جاری": 636,
    "▁بشک": 637,
    "▁نگرانی": 638,
    "مین": 639,
    "▁نمایند": 640,
    "▁۲۰۰": 641,
    "▁روزهای": 642,
    "یم": 643,
    "▁ترک": 644,
    "▁توصی": 645,
    "▁انقلاب": 646,
    "▁نفتی": 647,
    "▁جلسه": 648,
    "▁نامزد": 649,
    "▁امتیاز": 650,
    "▁سن": 651,
    "-": 652,
    "▁خودش": 653,
    "▁مطرح": 654,
    "▁طراح": 655,
    "▁حکم": 656,
    "▁چ": 657,
    "▁شکل": 658,
    "▁رای": 659,
    "خیلی": 660,
    "▁صندوق": 661,
    "ور": 662,
    "▁المپیک": 663,
    "▁حرکت": 664,
    "▁انتظار": 665,
    "▁۹": 666,
    "▁ورزشی": 667,
    "▁رکورد": 668,
    "▁مرح": 669,
    "▁تع": 670,
    "▁شدید": 671,
    "▁اج": 672,
    "▁بینی": 673,
    "▁گاز": 674,
    "▁دوبار": 675,
    "▁قطع": 676,
    "▁برنده": 677,
    "▁۲۰۱۹": 678,
    "▁ورود": 679,
    "▁آیا": 680,
    "▁عالی": 681,
    "▁دادن": 682,
    "▁توانست": 683,
    "▁بایدن": 684,
    "▁ورزشگاه": 685,
    "▁وی": 686,
    "▁تصوی": 687,
    "ازه": 688,
    "▁باشند": 689,
    "▁هز": 690,
    "▁۱۳": 691,
    "▁دستگاه": 692,
    "▁جمعیت": 693,
    "▁آبان": 694,
    "▁رقم": 695,
    "اما": 696,
    "▁متوقف": 697,
    "▁داستان": 698,
    "▁متحده": 699,
    "▁گرفتن": 700,
    "▁نکرده": 701,
    "▁کووید": 702,
    "▁افت": 703,
    "▁چشم": 704,
    "▁شدت": 705,
    "▁ایتالیا": 706,
    "▁۱۴۰۰": 707,
    "▁فشار": 708,
    "▁ارائه": 709,
    "▁معرف": 710,
    "▁بحران": 711,
    "▁قدرت": 712,
    "▁نوشت": 713,
    "▁چهر": 714,
    "ال": 715,
    "▁مشکلات": 716,
    "▁هوای": 717,
    "▁هواپیمای": 718,
    "▁پیشین": 719,
    "▁شهرهای": 720,
    "▁برق": 721,
    "▁انتقاد": 722,
    "▁امور": 723,
    "▁مانده": 724,
    "▁جای": 725,
    "▁داشتند": 726,
    "ره": 727,
    "▁گیرد": 728,
    "▁۱۲": 729,
    "▁انتقال": 730,
    "▁۱": 731,
    "▁مصاحبه": 732,
    "▁آزادی": 733,
    "▁فینال": 734,
    "▁جدی": 735,
    "▁موج": 736,
    "▁گذاشته": 737,
    "▁تحقیقات": 738,
    "▁بلند": 739,
    "▁۲۰۱": 740,
    "▁فرهنگ": 741,
    "▁دانست": 742,
    "▁سایر": 743,
    "الات": 744,
    "▁چهارم": 745,
    "▁اتفاق": 746,
    "ستاد": 747,
    "▁اروپایی": 748,
    "▁پاسخ": 749,
    "▁الکتریکی": 750,
    "حه": 751,
    "▁بارسلونا": 752,
    "▁سینما": 753,
    "۸": 754,
    "▁قو": 755,
    "▁آمد": 756,
    "▁هنگام": 757,
    "▁جنوب": 758,
    "▁مصوب": 759,
    "▁موسس": 760,
    "ج": 761,
    "▁کشید": 762,
    "▁رفته": 763,
    "▁نیروهای": 764,
    "ستاره": 765,
    "▁تورم": 766,
    "سی": 767,
    "▁جامعه": 768,
    "▁نو": 769,
    "▁فعال": 770,
    "▁دستور": 771,
    "▁نهاد": 772,
    "▁شامل": 773,
    "▁تشکیل": 774,
    "▁مربی": 775,
    "▁مسی": 776,
    "▁۱۵": 777,
    "▁داخلی": 778,
    "▁مشکل": 779,
    "▁چگون": 780,
    "▁قرن": 781,
    "▁آخر": 782,
    "▁اتهام": 783,
    "▁محیط": 784,
    "▁بست": 785,
    "▁حساب": 786,
    "▁نوع": 787,
    "سازی": 788,
    "▁دادند": 789,
    "▁داخل": 790,
    "▁آنچ": 791,
    "▁فارسی": 792,
    "▁طولانی": 793,
    "▁معاملات": 794,
    "▁هند": 795,
    "▁باقی": 796,
    "▁کسان": 797,
    "▁ابتدای": 798,
    "▁قبلی": 799,
    "▁فروردین": 800,
    "▁ماسک": 801,
    "▁نبود": 802,
    "ازم": 803,
    "▁تک": 804,
    "▁درمان": 805,
    "▁گو": 806,
    "▁کس": 807,
    "▁سیستم": 808,
    "▁قرمز": 809,
    "▁فکر": 810,
    "▁مسئولان": 811,
    "▁اسفند": 812,
    "▁شماری": 813,
    "▁خانم": 814,
    "▁آسیب": 815,
    "▁فن": 816,
    "▁۲۲": 817,
    "▁نیروی": 818,
    "▁روزنامه": 819,
    "▁خروج": 820,
    "▁پشت": 821,
    "▁کنم": 822,
    "▁مبتلا": 823,
    "▁احتمال": 824,
    "▁کوچک": 825,
    "▁دونالد": 826,
    "▁تحقیق": 827,
    "▁ق": 828,
    "▁تاریخی": 829,
    "▁ممنوع": 830,
    "▁سریال": 831,
    "▁ترکیب": 832,
    "▁۱۱": 833,
    "دی": 834,
    "▁محلی": 835,
    "▁نگهبان": 836,
    "▁غنی": 837,
    "▁کنید": 838,
    "▁آتش": 839,
    "▁۸": 840,
    "▁ملل": 841,
    "وز": 842,
    "▁محکوم": 843,
    "▁یاد": 844,
    "▁درخواست": 845,
    "▁مارادونا": 846,
    "بی": 847,
    "▁۵۰": 848,
    "▁خبرنگار": 849,
    "▁تجاری": 850,
    "▁فدرا": 851,
    "▁دار": 852,
    "▁تجرب": 853,
    "▁امکان": 854,
    "▁شما": 855,
    "وی": 856,
    "▁عامل": 857,
    "▁مرغ": 858,
    "▁دوشنبه": 859,
    "▁صحبت": 860,
    "▁واردات": 861,
    "▁هنری": 862,
    "▁تاکید": 863,
    "پس": 864,
    "▁صادر": 865,
    "▁میزبان": 866,
    "▁زیست": 867,
    "▁اسکار": 868,
    "▁پایین": 869,
    "▁تن": 870,
    "۲": 871,
    "▁سیاه": 872,
    "▁سقوط": 873,
    "▁چهارشنبه": 874,
    "▁دلایل": 875,
    "▁فرهنگی": 876,
    "▁طبق": 877,
    "▁گذشت": 878,
    "▁محدود": 879,
    "▁اعدام": 880,
    "▁شان": 881,
    "▁شاهد": 882,
    "▁شاخص": 883,
    "▁سیتی": 884,
    "▁اجرا": 885,
    "▁مواد": 886,
    "۱": 887,
    "▁بنزین": 888,
    "▁خون": 889,
    "▁علت": 890,
    "▁هنر": 891,
    "▁لای": 892,
    "▁ناشی": 893,
    "لی": 894,
    "رفع": 895,
    "▁ع": 896,
    "▁فضای": 897,
    "یی": 898,
    "▁کارگران": 899,
    "▁اختیار": 900,
    "▁ترتیب": 901,
    "▁پارسال": 902,
    "▁آوریل": 903,
    "▁همیشه": 904,
    "▁خوانده": 905,
    "▁ال": 906,
    "▁گ": 907,
    "▁حرفه": 908,
    "▁سراسر": 909,
    "▁کوتاه": 910,
    "▁تامین": 911,
    "اخر": 912,
    "▁یع": 913,
    "▁یکشنبه": 914,
    "▁زد": 915,
    "▁چپ": 916,
    "▁کنترل": 917,
    "گاه": 918,
    "▁بیرون": 919,
    "▁آورد": 920,
    "▁دقیقه": 921,
    "▁۶۰": 922,
    "▁اولیه": 923,
    "▁مشترک": 924,
    "▁ضرب": 925,
    "۴": 926,
    "▁بودن": 927,
    "▁توسعه": 928,
    "▁نویسنده": 929,
    "▁کلی": 930,
    "▁سمت": 931,
    "▁روابط": 932,
    "▁احتمالا": 933,
    "▁تا": 934,
    "▁تهدید": 935,
    "▁۴۰": 936,
    "▁افتاد": 937,
    "▁دفاع": 938,
    "▁تقریبا": 939,
    "▁قوانین": 940,
    "▁موارد": 941,
    "▁اقدامات": 942,
    "▁مسیر": 943,
    "▁مارس": 944,
    "▁واحد": 945,
    "▁جمعه": 946,
    "▁نظیر": 947,
    "▁شجریان": 948,
    "▁متفاوت": 949,
    "▁حذف": 950,
    "▁مسئول": 951,
    "▁بندی": 952,
    "▁عمل": 953,
    "▁روبرو": 954,
    "▁نظام": 955,
    "▁وین": 956,
    "▁خوزستان": 957,
    "▁اطلاع": 958,
    "▁انفجار": 959,
    "▁استرالیا": 960,
    "▁نتایج": 961,
    "▁یونایتد": 962,
    "▁خصوصی": 963,
    "▁شهروندان": 964,
    "▁سرعت": 965,
    "عده": 966,
    "▁سلامت": 967,
    "▁مناطق": 968,
    "▁گون": 969,
    "▁۹۸": 970,
    "▁جهش": 971,
    "نگ": 972,
    "▁فدر": 973,
    "▁سوخت": 974,
    "▁پروژه": 975,
    "یا": 976,
    "▁فضایی": 977,
    "▁قصد": 978,
    "▁کاملا": 979,
    "▁صفر": 980,
    "▁شاید": 981,
    "▁بتوان": 982,
    "▁بگیرد": 983,
    "طور": 984,
    "▁آستان": 985,
    "▁معروف": 986,
    "▁اوپک": 987,
    "▁آماده": 988,
    "▁رنگ": 989,
    "▁بدن": 990,
    "▁۱۴": 991,
    "مه": 992,
    "▁زاده": 993,
    "▁متر": 994,
    "▁حل": 995,
    "▁اخیرا": 996,
    "▁امضا": 997,
    "۰۰": 998,
    "▁اندازه": 999,
    "▁هایش": 1000,
    "▁بیست": 1001,
    "▁تاکنون": 1002,
    "▁نژاد": 1003,
    "▁علاو": 1004,
    "▁ونزوئلا": 1005,
    "▁جز": 1006,
    "▁درگیر": 1007,
    "▁۲۰۲۱": 1008,
    "▁ولایت": 1009,
    "▁آرژانتین": 1010,
    "▁احیا": 1011,
    "▁جشنواره": 1012,
    "▁سنت": 1013,
    "۵": 1014,
    "▁اس": 1015,
    "▁عباس": 1016,
    "▁مرتبط": 1017,
    "▁فعالان": 1018,
    "▁مصرف": 1019,
    "▁بارها": 1020,
    "▁محمود": 1021,
    "▁دسترس": 1022,
    "▁۱۶": 1023,
    "▁پرواز": 1024,
    "▁بیشتری": 1025,
    "▁فرد": 1026,
    "▁تجارت": 1027,
    "▁ندارند": 1028,
    "▁هواداران": 1029,
    "▁اتاق": 1030,
    "▁جدول": 1031,
    "▁عملیات": 1032,
    "اساس": 1033,
    "▁دارایی": 1034,
    "▁اختلاف": 1035,
    "▁فهرست": 1036,
    "یین": 1037,
    "▁حد": 1038,
    "▁کارگر": 1039,
    "▁کارگردان": 1040,
    "▁مذاکر": 1041,
    "خانه": 1042,
    "▁بخوانید": 1043,
    "▁شکایت": 1044,
    "▁رییس": 1045,
    "▁غرب": 1046,
    "▁پل": 1047,
    "▁پیشنهاد": 1048,
    "▁بد": 1049,
    "امبر": 1050,
    "▁شمال": 1051,
    "▁اف": 1052,
    "▁هوا": 1053,
    "▁پخ": 1054,
    "▁۱۷": 1055,
    "▁من": 1056,
    "▁دومین": 1057,
    "▁عد": 1058,
    "▁مالیات": 1059,
    "انی": 1060,
    "حفظ": 1061,
    "▁موفق": 1062,
    "▁بزرگترین": 1063,
    "▁توییتر": 1064,
    "▁ان": 1065,
    "▁ماند": 1066,
    "لق": 1067,
    "▁تاج": 1068,
    "براز": 1069,
    "▁ما": 1070,
    "▁رشت": 1071,
    "▁قلب": 1072,
    "▁برده": 1073,
    "▁رسیدن": 1074,
    "▁چیزی": 1075,
    "▁فوت": 1076,
    "▁فدرر": 1077,
    "▁مرز": 1078,
    "▁کالا": 1079,
    "▁پور": 1080,
    "▁اداره": 1081,
    "▁قطر": 1082,
    "▁ایالت": 1083,
    "▁صفح": 1084,
    "▁کاری": 1085,
    "▁زنده": 1086,
    "▁مشابه": 1087,
    "▁واکسین": 1088,
    "▁ملت": 1089,
    "▁مه": 1090,
    "▁نقطه": 1091,
    "ایران": 1092,
    "▁گروهی": 1093,
    "▁چاپ": 1094,
    "▁فرصت": 1095,
    "▁پاریس": 1096,
    "▁هنو": 1097,
    "▁سنگین": 1098,
    "▁بهبود": 1099,
    "▁اعتراضات": 1100,
    "▁پیام": 1101,
    "▁نقاشی": 1102,
    "گر": 1103,
    "▁یورو": 1104,
    "۶": 1105,
    "▁سود": 1106,
    "▁حق": 1107,
    "▁اعمال": 1108,
    "▁دهم": 1109,
    "▁بریتانیایی": 1110,
    "▁مجدد": 1111,
    "▁فساد": 1112,
    "▁مجوز": 1113,
    "▁کشف": 1114,
    "▁واقع": 1115,
    "▁فرمانده": 1116,
    "▁۵۰۰": 1117,
    "▁باخت": 1118,
    "▁کارخان": 1119,
    "▁قانونی": 1120,
    "▁حزب": 1121,
    "▁موفقیت": 1122,
    "▁بازیگر": 1123,
    "▁انگیز": 1124,
    "▁کنندگان": 1125,
    "▁هشت": 1126,
    "▁گفتگو": 1127,
    "▁بالاتر": 1128,
    "▁جنسی": 1129,
    "▁شناس": 1130,
    "▁نظارت": 1131,
    "▁سرطان": 1132,
    "▁مهر": 1133,
    "▁نگران": 1134,
    "▁خالی": 1135,
    "▁سایت": 1136,
    "▁مل": 1137,
    "▁جمع": 1138,
    "▁کشورها": 1139,
    "▁روزانه": 1140,
    "▁توپ": 1141,
    "▁رکود": 1142,
    "▁گردد": 1143,
    "▁نسل": 1144,
    "▁خواننده": 1145,
    "▁تغییرات": 1146,
    "▁کودک": 1147,
    "▁چیز": 1148,
    "▁مشهور": 1149,
    "▁مردان": 1150,
    "▁ماهه": 1151,
    "▁مواجه": 1152,
    "▁نهادهای": 1153,
    "▁خواهان": 1154,
    "▁برخورد": 1155,
    "▁حوزه": 1156,
    "▁تجمع": 1157,
    "▁طبیعی": 1158,
    "عودی": 1159,
    "▁علمی": 1160,
    "▁حادثه": 1161,
    "▁سریع": 1162,
    "▁رفتن": 1163,
    "▁دنیای": 1164,
    "▁افغان": 1165,
    "▁بال": 1166,
    "▁هرات": 1167,
    "▁تابستان": 1168,
    "▁رعایت": 1169,
    "▁عدالت": 1170,
    "▁موافقت": 1171,
    "▁عملکرد": 1172,
    "اس": 1173,
    "▁اینترنت": 1174,
    "▁منچستر": 1175,
    "مان": 1176,
    "▁روشن": 1177,
    "▁خ": 1178,
    "▁۱۰۰": 1179,
    "▁رابطه": 1180,
    "▁طلا": 1181,
    "▁تصاویر": 1182,
    "▁حرف": 1183,
    "ع": 1184,
    "تی": 1185,
    "▁چه": 1186,
    "▁جنگل": 1187,
    "▁مد": 1188,
    "▁نفتکش": 1189,
    "▁جشن": 1190,
    "▁درست": 1191,
    "▁نشد": 1192,
    "▁چلسی": 1193,
    "▁امام": 1194,
    "▁پروازهای": 1195,
    "ممنوعیت": 1196,
    "▁کنون": 1197,
    "علی": 1198,
    "▁بهار": 1199,
    "▁سا": 1200,
    "▁صدای": 1201,
    "▁مجبور": 1202,
    "▁مغز": 1203,
    "▁بایرن": 1204,
    "▁کاخ": 1205,
    "▁خصوص": 1206,
    "▁قضایی": 1207,
    "▁مهدی": 1208,
    "▁بیت": 1209,
    "▁پاسداران": 1210,
    "▁مقایس": 1211,
    "▁پنجم": 1212,
    "▁بحث": 1213,
    "▁دوست": 1214,
    "▁دختر": 1215,
    "▁مجموع": 1216,
    "کنندگان": 1217,
    "▁آید": 1218,
    "▁اضاف": 1219,
    "▁توضیح": 1220,
    "▁ژوئن": 1221,
    "▁ایمن": 1222,
    "▁دچار": 1223,
    "▁کمیت": 1224,
    "▁مقررات": 1225,
    "▁تهی": 1226,
    "▁یابد": 1227,
    "▁ارتش": 1228,
    "▁برسد": 1229,
    "▁اسپانیا": 1230,
    "▁سوریه": 1231,
    "▁عمده": 1232,
    "▁سعید": 1233,
    "بود": 1234,
    "▁کیلومتر": 1235,
    "▁میدان": 1236,
    "▁کانال": 1237,
    "▁مجازی": 1238,
    "▁۲۴": 1239,
    "▁روش": 1240,
    "▁مانع": 1241,
    "▁مجله": 1242,
    "▁ابتدا": 1243,
    "دو": 1244,
    "▁پای": 1245,
    "▁کدام": 1246,
    "▁گر": 1247,
    "▁پیشرفت": 1248,
    "▁منتقل": 1249,
    "▁معتقد": 1250,
    "فورد": 1251,
    "▁تاسیس": 1252,
    "▁دانند": 1253,
    "▁کوین": 1254,
    "▁فنی": 1255,
    "▁رساند": 1256,
    "▁آورده": 1257,
    "▁واقعی": 1258,
    "▁دکتر": 1259,
    "▁کارشناسان": 1260,
    "▁شعر": 1261,
    "ول": 1262,
    "▁پا": 1263,
    "▁مت": 1264,
    "▁گذار": 1265,
    "ویه": 1266,
    "▁نقاط": 1267,
    "▁نقدینگی": 1268,
    "▁سخنران": 1269,
    "▁سفیر": 1270,
    "▁خواند": 1271,
    "▁صحنه": 1272,
    "▁تی": 1273,
    "▁مستند": 1274,
    "▁۱۸": 1275,
    "▁بازارهای": 1276,
    "▁پدر": 1277,
    "▁خودروساز": 1278,
    "▁عبور": 1279,
    "▁بهتر": 1280,
    "▁قطعی": 1281,
    "▁تاتنهام": 1282,
    "▁رضا": 1283,
    "▁جدا": 1284,
    "▁جوان": 1285,
    "▁مسکن": 1286,
    "▁ارشد": 1287,
    "▁افتاده": 1288,
    "▁گمرک": 1289,
    "▁پوند": 1290,
    "▁اظهارات": 1291,
    "▁امیدوار": 1292,
    "▁۲۸": 1293,
    "▁نشری": 1294,
    "نمایی": 1295,
    "▁بیکار": 1296,
    "▁هنرمند": 1297,
    "▁امید": 1298,
    "▁۲۳": 1299,
    "محمد": 1300,
    "بیشتر": 1301,
    "▁مشغول": 1302,
    "▁پایتخت": 1303,
    "▁تورنمنت": 1304,
    "▁انگلستان": 1305,
    "۰": 1306,
    "▁اوراق": 1307,
    "▁موجب": 1308,
    "▁مدیریت": 1309,
    "▁حت": 1310,
    "▁تقوی": 1311,
    "▁مثبت": 1312,
    "▁گذاشت": 1313,
    "▁صدا": 1314,
    "▁مادر": 1315,
    "▁رانند": 1316,
    "۷": 1317,
    "▁راست": 1318,
    "▁زنی": 1319,
    "▁سفید": 1320,
    "▁ژاپن": 1321,
    "▁حریف": 1322,
    "▁حداقل": 1323,
    "▁تزریق": 1324,
    "▁ساز": 1325,
    "▁رمان": 1326,
    "▁دقیق": 1327,
    "▁حسین": 1328,
    "▁۷۰": 1329,
    "▁کن": 1330,
    "غلب": 1331,
    "▁العاده": 1332,
    "▁تاجیکستان": 1333,
    "▁-": 1334,
    "▁سرشناس": 1335,
    "▁قتل": 1336,
    "▁نشود": 1337,
    "▁مادرید": 1338,
    "▁سینمایی": 1339,
    "▁بیمار": 1340,
    "ید": 1341,
    "ام": 1342,
    "▁عهد": 1343,
    "▁خاک": 1344,
    "وایل": 1345,
    "▁بنز": 1346,
    "یر": 1347,
    "▁عرب": 1348,
    "▁اوت": 1349,
    "▁ژان": 1350,
    "تر": 1351,
    "▁اورا": 1352,
    "▁پذیر": 1353,
    "▁سوار": 1354,
    "گ": 1355,
    "▁وابست": 1356,
    "▁ظرف": 1357,
    "▁فراهم": 1358,
    "▁۱۳۹۹": 1359,
    "▁اسطوره": 1360,
    "▁پیشتر": 1361,
    "▁ساختمان": 1362,
    "نیوم": 1363,
    "▁مرداد": 1364,
    "▁مخالفت": 1365,
    "داری": 1366,
    "▁تشخیص": 1367,
    "▁دفتر": 1368,
    "▁دبیر": 1369,
    "▁۲۱": 1370,
    "▁جایی": 1371,
    "▁درآمدهای": 1372,
    "▁وضع": 1373,
    "▁رفتار": 1374,
    "▁تومانی": 1375,
    "▁دانشمندان": 1376,
    "▁درواز": 1377,
    "▁هوشمند": 1378,
    "▁مدیران": 1379,
    "▁دریا": 1380,
    "▁۹۰": 1381,
    "▁رخ": 1382,
    "▁اجرایی": 1383,
    "▁پژوهش": 1384,
    "▁تاز": 1385,
    "▁معامل": 1386,
    "▁نوبل": 1387,
    "▁دریایی": 1388,
    "▁فوریه": 1389,
    "▁خودروهای": 1390,
    "▁بهمن": 1391,
    "▁اساسی": 1392,
    "▁معنای": 1393,
    "▁چک": 1394,
    "▁اردیبهشت": 1395,
    "▁هستیم": 1396,
    "▁فیفا": 1397,
    "▁کاربران": 1398,
    "▁جنجال": 1399,
    "▁بهداشتی": 1400,
    "▁سوئیس": 1401,
    "▁برزیل": 1402,
    "▁جدیدی": 1403,
    "▁منف": 1404,
    "▁خورد": 1405,
    "▁محمو": 1406,
    "▁قربانی": 1407,
    "▁زاغری": 1408,
    "▁وزن": 1409,
    "▁جزئیات": 1410,
    "▁آبی": 1411,
    "▁چیست": 1412,
    "▁خرداد": 1413,
    "▁گرفتند": 1414,
    "▁قدیمی": 1415,
    "▁نوری": 1416,
    "▁قدم": 1417,
    "▁فر": 1418,
    "▁سنگ": 1419,
    "▁استاد": 1420,
    "▁مر": 1421,
    "۹": 1422,
    "▁شرق": 1423,
    "▁گرم": 1424,
    "▁کنونی": 1425,
    "شنبه": 1426,
    "▁دید": 1427,
    "▁معتبر": 1428,
    "▁فو": 1429,
    "▁برداشت": 1430,
    "▁زود": 1431,
    "▁کارکنان": 1432,
    "▁ارزی": 1433,
    "▁مو": 1434,
    "▁بو": 1435,
    "▁لحظ": 1436,
    "▁ضد": 1437,
    "▁حمل": 1438,
    "▁صدر": 1439,
    "▁زدن": 1440,
    "خش": 1441,
    "▁هاست": 1442,
    "▁یو": 1443,
    "▁هدایت": 1444,
    "▁۹۹": 1445,
    "▁نداشته": 1446,
    "▁موجود": 1447,
    "▁دریای": 1448,
    "▁مسافران": 1449,
    "▁آلمانی": 1450,
    "▁همسر": 1451,
    "▁۳۰۰": 1452,
    "▁دل": 1453,
    "▁گوش": 1454,
    "▁مسدود": 1455,
    "▁موقعیت": 1456,
    "▁نوامبر": 1457,
    "▁شاه": 1458,
    "▁مطالع": 1459,
    "▁معادل": 1460,
    "▁موزه": 1461,
    "▁نیویورک": 1462,
    "▁قسمت": 1463,
    "▁رئال": 1464,
    "▁مخالفان": 1465,
    "▁کارهای": 1466,
    "▁بستر": 1467,
    "▁نویس": 1468,
    "▁آوری": 1469,
    "▁مهاجم": 1470,
    "▁فارس": 1471,
    "▁متع": 1472,
    "▁نهایت": 1473,
    "▁مستقیم": 1474,
    "▁انگلیسی": 1475,
    "▁سینمای": 1476,
    "▁مبلغ": 1477,
    "▁استقبال": 1478,
    "▁قضائیه": 1479,
    "▁غذا": 1480,
    "▁علاقه": 1481,
    "▁بحرین": 1482,
    "▁دارو": 1483,
    "▁رویترز": 1484,
    "کسی": 1485,
    "▁قبلا": 1486,
    "▁یکدیگر": 1487,
    "▁آموزش": 1488,
    "یات": 1489,
    "▁مک": 1490,
    "یروز": 1491,
    "▁آهنگ": 1492,
    "▁ظاهر": 1493,
    "▁زندانی": 1494,
    "▁تعدادی": 1495,
    "▁اصلاح": 1496,
    "▁روایت": 1497,
    "▁آلبوم": 1498,
    "▁عجیب": 1499,
    "▁دوربین": 1500,
    "▁دوچرخه": 1501,
    "اوری": 1502,
    "▁مدیرعامل": 1503,
    "▁داریم": 1504,
    "▁تحصیل": 1505,
    "▁محمدرضا": 1506,
    "▁فعلی": 1507,
    "▁امیر": 1508,
    "▁بن": 1509,
    "▁بیماران": 1510,
    "▁دین": 1511,
    "▁بنا": 1512,
    "▁صعود": 1513,
    "▁خورشیدی": 1514,
    "▁پوست": 1515,
    "▁سکه": 1516,
    "▁خدمات": 1517,
    "▁کالاهای": 1518,
    "▁فوری": 1519,
    "▁جمعی": 1520,
    "نقض": 1521,
    "▁لو": 1522,
    "▁مکان": 1523,
    "▁غربی": 1524,
    "▁چندان": 1525,
    "ح": 1526,
    "▁صلح": 1527,
    "▁آهن": 1528,
    "▁لباس": 1529,
    "▁رونالدو": 1530,
    "▁تماس": 1531,
    "▁نادال": 1532,
    "▁مهار": 1533,
    "▁سفارت": 1534,
    "▁مراجع": 1535,
    "▁رافائل": 1536,
    "پ": 1537,
    "▁۲۶": 1538,
    "▁مقامات": 1539,
    "▁متوسط": 1540,
    "▁خورده": 1541,
    "▁منج": 1542,
    "▁محصولات": 1543,
    "ود": 1544,
    "▁مبتلایان": 1545,
    "▁فرانسوی": 1546,
    "▁بازنشستگان": 1547,
    "▁ماموران": 1548,
    "▁خواهیم": 1549,
    "▁چهل": 1550,
    "▁نداشت": 1551,
    "▁بنابر": 1552,
    "▁۳۱": 1553,
    "▁گیرند": 1554,
    "▁سرخ": 1555,
    "▁بعدی": 1556,
    "وق": 1557,
    "▁ناظر": 1558,
    "▁اقیانوس": 1559,
    "▁کشورش": 1560,
    "▁افزوده": 1561,
    "۳": 1562,
    "▁فرزند": 1563,
    "پور": 1564,
    "▁تخریب": 1565,
    "▁جوایز": 1566,
    "▁معترضان": 1567,
    "▁شخصیت": 1568,
    "▁طالب": 1569,
    "▁راهی": 1570,
    "کی": 1571,
    "▁دختران": 1572,
    "▁علیرضا": 1573,
    "▁۳۵": 1574,
    "▁تیر": 1575,
    "▁گستر": 1576,
    "ط": 1577,
    "▁ساکن": 1578,
    "رد": 1579,
    "▁برود": 1580,
    "▁صنایع": 1581,
    "▁مونیخ": 1582,
    "▁ژوئیه": 1583,
    "تان": 1584,
    "▁چالش": 1585,
    "▁ایستگاه": 1586,
    "▁نحو": 1587,
    "▁ارسال": 1588,
    "▁باره": 1589,
    "▁سعی": 1590,
    "▁ایم": 1591,
    "▁مایک": 1592,
    "▁کرونای": 1593,
    "▁تحویل": 1594,
    "▁۲۰۱۷": 1595,
    "▁معمولا": 1596,
    "▁برقرار": 1597,
    "▁نور": 1598,
    "کس": 1599,
    "▁میلان": 1600,
    "▁شخصی": 1601,
    "▁موتور": 1602,
    "▁گران": 1603,
    "▁تقاضای": 1604,
    "ته": 1605,
    "▁ماده": 1606,
    "یون": 1607,
    "▁متعدد": 1608,
    "▁برگشت": 1609,
    "▁صبح": 1610,
    "▁واشنگتن": 1611,
    "▁نارنجی": 1612,
    "نده": 1613,
    "▁دانش": 1614,
    "▁توقف": 1615,
    "زه": 1616,
    "▁جوکوویچ": 1617,
    "توجه": 1618,
    "▁تقاضا": 1619,
    "▁دشوار": 1620,
    "▁مجری": 1621,
    "▁خدم": 1622,
    "سال": 1623,
    "▁لی": 1624,
    "▁اصل": 1625,
    "▁قالیباف": 1626,
    "▁ویمبلدون": 1627,
    "▁نگهداری": 1628,
    "▁ثابت": 1629,
    "▁آنلاین": 1630,
    "▁نخواه": 1631,
    "▁سوپر": 1632,
    "▁اجاره": 1633,
    "▁ادبیات": 1634,
    "▁اخراج": 1635,
    "▁بازرگانی": 1636,
    "▁موقت": 1637,
    "▁سلیمانی": 1638,
    "گاهی": 1639,
    "▁راجر": 1640,
    "▁پاکستان": 1641,
    "حسین": 1642,
    "سته": 1643,
    "▁کارها": 1644,
    "▁عین": 1645,
    "سازمان": 1646,
    "▁سهمی": 1647,
    "▁مالکی": 1648,
    "▁۱۳۹۸": 1649,
    "▁بدهی": 1650,
    "▁بهادار": 1651,
    "▁اخبار": 1652,
    "قیف": 1653,
    "▁قاچاق": 1654,
    "▁زاد": 1655,
    "▁نویسندگان": 1656,
    "▁ورزشکاران": 1657,
    "▁تمامی": 1658,
    "▁خیابان": 1659,
    "▁تصور": 1660,
    "▁تعهدات": 1661,
    "▁موشک": 1662,
    "▁صف": 1663,
    "▁غذای": 1664,
    "▁اوج": 1665,
    "▁پست": 1666,
    "▁جذب": 1667,
    "▁نجات": 1668,
    "▁هست": 1669,
    "▁اکتبر": 1670,
    "▁کنسرت": 1671,
    "▁خانگی": 1672,
    "▁محبوب": 1673,
    "▁خلق": 1674,
    "▁نشر": 1675,
    "▁حاشیه": 1676,
    "▁صوتی": 1677,
    "▁عادی": 1678,
    "▁انجمن": 1679,
    "▁کلوپ": 1680,
    "▁هموار": 1681,
    "هم": 1682,
    "▁مربیان": 1683,
    "▁توییت": 1684,
    "دولت": 1685,
    "▁نتوانست": 1686,
    "▁نگه": 1687,
    "▁مالک": 1688,
    "وزارت": 1689,
    "▁برمی": 1690,
    "▁۸۰": 1691,
    "▁سپ": 1692,
    "▁آذر": 1693,
    "است": 1694,
    "▁اسرائیلی": 1695,
    "▁جراح": 1696,
    "▁حاصل": 1697,
    "▁پلاس": 1698,
    "▁شاعر": 1699,
    "▁تسلا": 1700,
    "▁جایگاه": 1701,
    "▁حداکثر": 1702,
    "▁لیون": 1703,
    "▁کافی": 1704,
    "من": 1705,
    "▁احساس": 1706,
    "▁هنرمندان": 1707,
    "▁ترانه": 1708,
    "▁حیات": 1709,
    "خواهد": 1710,
    "دار": 1711,
    "▁فردا": 1712,
    "یان": 1713,
    "▁هواپیما": 1714,
    "▁شهروند": 1715,
    "▁سپاهان": 1716,
    "تبه": 1717,
    "▁اینستاگرام": 1718,
    "▁شمالی": 1719,
    "▁صاحب": 1720,
    "▁تئاتر": 1721,
    "▁اختصاص": 1722,
    "▁اهمیت": 1723,
    "▁لوکس": 1724,
    "▁حفاظت": 1725,
    "▁ترس": 1726,
    "▁مدعی": 1727,
    "▁دارای": 1728,
    "خانم": 1729,
    "▁فرهاد": 1730,
    "▁تیراندازی": 1731,
    "قب": 1732,
    "▁ادبی": 1733,
    "▁شبانه": 1734,
    "▁سخنان": 1735,
    "▁زخمی": 1736,
    "▁داند": 1737,
    "▁گفتند": 1738,
    "▁احتمالی": 1739,
    "وم": 1740,
    "▁سهم": 1741,
    "▁نزدیکی": 1742,
    "را": 1743,
    "▁قاسم": 1744,
    "قدر": 1745,
    "▁مواردی": 1746,
    "▁تعویق": 1747,
    "▁طبیعت": 1748,
    "▁مسلح": 1749,
    "▁معرض": 1750,
    "▁سند": 1751,
    "▁ملک": 1752,
    "▁فایل": 1753,
    "▁طرفداران": 1754,
    "▁مجید": 1755,
    "▁تلفن": 1756,
    "لیک": 1757,
    "▁کردم": 1758,
    "▁نوروز": 1759,
    "▁تخت": 1760,
    "▁دا": 1761,
    "نا": 1762,
    "▁مارک": 1763,
    "یابی": 1764,
    "قانونی": 1765,
    "▁پارک": 1766,
    "علوم": 1767,
    "▁دیجیتال": 1768,
    "▁مراکز": 1769,
    "▁ناگهان": 1770,
    "▁مدافع": 1771,
    "▁خیریه": 1772,
    "▁مریخ": 1773,
    "وه": 1774,
    "▁کردیم": 1775,
    "▁صرف": 1776,
    "▁سبک": 1777,
    "اره": 1778,
    "▁آل": 1779,
    "▁ز": 1780,
    "▁ناز": 1781,
    "▁هی": 1782,
    "▁پاس": 1783,
    "شیدا": 1784,
    "یست": 1785,
    "▁پرس": 1786,
    "رضا": 1787,
    "▁مرزی": 1788,
    "هرگز": 1789,
    "▁پالایشگاه": 1790,
    "سه": 1791,
    "▁بیان": 1792,
    "▁رادیو": 1793,
    "▁حذفی": 1794,
    "▁اصفهان": 1795,
    "▁اجلاس": 1796,
    "▁متولد": 1797,
    "▁قبول": 1798,
    "▁ماجرا": 1799,
    "▁دیدن": 1800,
    "▁مشا": 1801,
    "▁تری": 1802,
    "تنظیم": 1803,
    "▁دوستان": 1804,
    "▁اتریش": 1805,
    "▁اتفاقات": 1806,
    "▁واقعیت": 1807,
    "▁اشتباه": 1808,
    "▁سوزی": 1809,
    "▁نمو": 1810,
    "▁پرو": 1811,
    "▁اوپ": 1812,
    "مقام": 1813,
    "▁پژوهشگران": 1814,
    "▁مناسب": 1815,
    "▁نگار": 1816,
    "▁۲۹": 1817,
    "▁خوش": 1818,
    "▁گام": 1819,
    "▁کارشناس": 1820,
    "▁شرقی": 1821,
    "اسی": 1822,
    "▁مسائل": 1823,
    "▁افتخار": 1824,
    "▁عوامل": 1825,
    "▁صلاحیت": 1826,
    "▁نوجوان": 1827,
    "رکت": 1828,
    "▁اهل": 1829,
    "▁سوال": 1830,
    "▁مسافر": 1831,
    "▁حس": 1832,
    "▁مطابق": 1833,
    "▁باور": 1834,
    "▁دادستان": 1835,
    "▁فرود": 1836,
    "▁خیل": 1837,
    "ران": 1838,
    "▁فرار": 1839,
    "▁استعفا": 1840,
    "▁وگو": 1841,
    "▁کاپیتان": 1842,
    "▁جبران": 1843,
    "▁برجسته": 1844,
    "▁ارقام": 1845,
    "▁عصر": 1846,
    "▁شهریور": 1847,
    "▁پرتاب": 1848,
    "▁ماموریت": 1849,
    "پیش": 1850,
    "گری": 1851,
    "▁آلودگی": 1852,
    "▁ضمن": 1853,
    "▁شیر": 1854,
    "▁ض": 1855,
    "▁فوتبالیست": 1856,
    "▁پزشک": 1857,
    "▁موسو": 1858,
    "رسدس": 1859,
    "▁گیر": 1860,
    "افسانه": 1861,
    "چند": 1862,
    "رئیس": 1863,
    "▁ابلاغ": 1864,
    "▁زند": 1865,
    "▁رهبری": 1866,
    "تا": 1867,
    "ضاع": 1868,
    "▁دوز": 1869,
    "▁تاخیر": 1870,
    "▁بگیرند": 1871,
    "▁داروی": 1872,
    "▁بعدا": 1873,
    "▁ریز": 1874,
    "اری": 1875,
    "▁نرم": 1876,
    "▁بندر": 1877,
    "بط": 1878,
    "▁محرم": 1879,
    "هر": 1880,
    "▁جه": 1881,
    "▁فردی": 1882,
    "▁عدد": 1883,
    "دست": 1884,
    "▁اجا": 1885,
    "▁محروم": 1886,
    "▁ورزشکار": 1887,
    "▁کشاورز": 1888,
    "▁مراقب": 1889,
    "▁هنرپیشه": 1890,
    "▁خسارت": 1891,
    "▁شاغل": 1892,
    "انجام": 1893,
    "▁آرسنال": 1894,
    "▁رسما": 1895,
    "▁حراج": 1896,
    "کره": 1897,
    "▁ایسنا": 1898,
    "▁جیمز": 1899,
    "▁حاکی": 1900,
    "▁گذارد": 1901,
    "▁کارمندان": 1902,
    "▁عید": 1903,
    "تیم": 1904,
    "▁آمیز": 1905,
    "▁بلا": 1906,
    "▁درک": 1907,
    "▁آزار": 1908,
    "▁مخالف": 1909,
    "خبرگزا": 1910,
    "وع": 1911,
    "▁ناسا": 1912,
    "▁زندانیان": 1913,
    "▁روزها": 1914,
    "▁سری": 1915,
    "رنگ": 1916,
    "▁دستگیر": 1917,
    "یکی": 1918,
    "▁آسمان": 1919,
    "▁محسو": 1920,
    "▁فرا": 1921,
    "هفته": 1922,
    "فسور": 1923,
    "اک": 1924,
    "باید": 1925,
    "▁توزیع": 1926,
    "▁خشونت": 1927,
    "▁عق": 1928,
    "▁توکیو": 1929,
    "▁آمازون": 1930,
    "وئل": 1931,
    "▁داشتن": 1932,
    "هایی": 1933,
    "▁دسته": 1934,
    "▁گذرد": 1935,
    "▁مدرسه": 1936,
    "▁حقوقی": 1937,
    "▁ایتالیایی": 1938,
    "▁بالاتری": 1939,
    "▁تماشاگران": 1940,
    "▁فضا": 1941,
    "▁الملل": 1942,
    "▁ماهی": 1943,
    "▁ژا": 1944,
    "▁وام": 1945,
    "▁کلاس": 1946,
    "ونه": 1947,
    "چنین": 1948,
    "▁رویکرد": 1949,
    "▁شصت": 1950,
    "▁مشمول": 1951,
    "▁نماد": 1952,
    "▁سیستان": 1953,
    "▁پروتکل": 1954,
    "▁۳۲": 1955,
    "▁متن": 1956,
    "▁مشاور": 1957,
    "▁خاص": 1958,
    "▁همتی": 1959,
    "▁عبدال": 1960,
    "▁اکبر": 1961,
    "▁دس": 1962,
    "▁سیما": 1963,
    "▁اندازی": 1964,
    "▁جذاب": 1965,
    "▁توانسته": 1966,
    "▁شناسا": 1967,
    "▁روانی": 1968,
    "برای": 1969,
    "▁سلطنت": 1970,
    "▁رقیب": 1971,
    "▁اعتبار": 1972,
    "قیه": 1973,
    "▁مشهد": 1974,
    "▁مسئ": 1975,
    "یره": 1976,
    "▁هویت": 1977,
    "▁مشاهد": 1978,
    "▁منتظر": 1979,
    "▁حسینی": 1980,
    "▁درجه": 1981,
    "▁جلوی": 1982,
    "رو": 1983,
    "▁جواد": 1984,
    "▁چنان": 1985,
    "▁شیو": 1986,
    "▁نکرد": 1987,
    "وثی": 1988,
    "ستان": 1989,
    "▁سرنگون": 1990,
    "▁تردد": 1991,
    "▁موضع": 1992,
    "▁فروخته": 1993,
    "▁۲۰۱۵": 1994,
    "▁پایه": 1995,
    "گرد": 1996,
    "▁عرص": 1997,
    "ذیب": 1998,
    "▁صراف": 1999,
    "▁حکام": 2000,
    "▁آکادمی": 2001,
    "شب": 2002,
    "▁سامانه": 2003,
    "▁برآورد": 2004,
    "رده": 2005,
    "▁اع": 2006,
    "▁دستمزد": 2007,
    "یل": 2008,
    "▁الدین": 2009,
    "▁شاملو": 2010,
    "آزادسازی": 2011,
    "▁فرمو": 2012,
    "▁ذخ": 2013,
    "▁تست": 2014,
    "گزارش": 2015,
    "▁انتخاباتی": 2016,
    "▁محققان": 2017,
    "اب": 2018,
    "▁گاه": 2019,
    "اد": 2020,
    "سون": 2021,
    "▁افزود": 2022,
    "▁رحمان": 2023,
    "▁تماشاگر": 2024,
    "▁شناسی": 2025,
    "▁پیوست": 2026,
    "▁انداز": 2027,
    "▁اتومبیل": 2028,
    "▁مصنوعی": 2029,
    "▁الهام": 2030,
    "▁میانه": 2031,
    "▁کشوری": 2032,
    "▁فیزیک": 2033,
    "▁سرپرست": 2034,
    "▁فراموش": 2035,
    "▁بان": 2036,
    "▁آلود": 2037,
    "▁ایرنا": 2038,
    "▁تفاوت": 2039,
    "▁مسعود": 2040,
    "▁نهم": 2041,
    "ساوی": 2042,
    "▁منتقدان": 2043,
    "ماه": 2044,
    "▁فرستاده": 2045,
    "تمام": 2046,
    "لو": 2047,
    "شته": 2048,
    "▁دما": 2049,
    "▁مج": 2050,
    "نین": 2051,
    "▁ست": 2052,
    "▁لس": 2053,
    "▁آور": 2054,
    "گفته": 2055,
    "▁برادر": 2056,
    "▁عمیق": 2057,
    "▁دام": 2058,
    "▁گلستان": 2059,
    "▁بلوچستان": 2060,
    "▁دعوت": 2061,
    "▁اهواز": 2062,
    "▁ترجم": 2063,
    "▁حملات": 2064,
    "▁رانندگان": 2065,
    "▁واگذار": 2066,
    "▁کلید": 2067,
    "▁محمدی": 2068,
    "لان": 2069,
    "▁نفس": 2070,
    "خراج": 2071,
    "▁نقاش": 2072,
    "▁عکاسی": 2073,
    "▁نداده": 2074,
    "▁گردشگری": 2075,
    "مدید": 2076,
    "▁گرانی": 2077,
    "▁بازگرداند": 2078,
    "▁ساده": 2079,
    "▁کی": 2080,
    "▁هشتم": 2081,
    "▁یمن": 2082,
    "▁شهرداری": 2083,
    "▁ابراهیم": 2084,
    "▁یخ": 2085,
    "▁نیستند": 2086,
    "▁حامل": 2087,
    "صد": 2088,
    "ما": 2089,
    "▁بلینکن": 2090,
    "▁۱۳۹۷": 2091,
    "▁سراوان": 2092,
    "▁آنجلس": 2093,
    "▁نداریم": 2094,
    "▁خلی": 2095,
    "▁رونق": 2096,
    "▁شهرستان": 2097,
    "▁گواردیولا": 2098,
    "▁مشتریان": 2099,
    "...": 2100,
    "▁تولد": 2101,
    "▁آرام": 2102,
    "▁تأ": 2103,
    "▁خورشید": 2104,
    "▁برخوردار": 2105,
    "▁نبوده": 2106,
    "▁کادر": 2107,
    "▁کلیه": 2108,
    "بس": 2109,
    "شاره": 2110,
    "▁پزشکان": 2111,
    "▁دامن": 2112,
    "▁پنجاه": 2113,
    "▁دیوان": 2114,
    "▁عکاس": 2115,
    "▁جامع": 2116,
    "▁شهرت": 2117,
    "▁چشمگیر": 2118,
    "پی": 2119,
    "▁اطلاعی": 2120,
    "غم": 2121,
    "▁پسر": 2122,
    "▁ازدواج": 2123,
    "▁تکرار": 2124,
    "▁آکسفورد": 2125,
    "▁ژافره": 2126,
    "▁اسکاتلند": 2127,
    "▁پنهان": 2128,
    "▁خطرناک": 2129,
    "▁استانبول": 2130,
    "▁قالب": 2131,
    "▁فعلا": 2132,
    "▁شوم": 2133,
    "▁داور": 2134,
    "▁متحد": 2135,
    "▁پکن": 2136,
    "▁مسئولیت": 2137,
    "▁بهای": 2138,
    "▁وکیل": 2139,
    "▁سرکوب": 2140,
    "▁همسرش": 2141,
    "▁هرچ": 2142,
    "۱۶": 2143,
    "▁محافظ": 2144,
    "▁اضطرار": 2145,
    "▁جودو": 2146,
    "▁داوطلبان": 2147,
    "▁کا": 2148,
    "▁خان": 2149,
    "▁اطراف": 2150,
    "▁دلاری": 2151,
    "ساز": 2152,
    "▁حالت": 2153,
    "▁خاتم": 2154,
    "▁تمرین": 2155,
    "▁۴۰۰": 2156,
    "▁حوادث": 2157,
    "▁عمدتا": 2158,
    "▁تعلیق": 2159,
    "▁خفاش": 2160,
    "ئی": 2161,
    "▁زمستان": 2162,
    "▁شغل": 2163,
    "▁مقصد": 2164,
    "▁فرودگاه": 2165,
    "▁ساحل": 2166,
    "رانی": 2167,
    "▁فولاد": 2168,
    "▁اسپانیایی": 2169,
    "▁بدهد": 2170,
    "▁نامش": 2171,
    "▁همچو": 2172,
    "▁مس": 2173,
    "▁ثانی": 2174,
    "▁دقیقا": 2175,
    "▁موثر": 2176,
    "▁نیازمند": 2177,
    "▁اختلال": 2178,
    "▁دیپلما": 2179,
    "▁اسکن": 2180,
    "▁سخن": 2181,
    "▁توانای": 2182,
    "نویه": 2183,
    "وس": 2184,
    "▁افزار": 2185,
    "داد": 2186,
    "دکتر": 2187,
    "▁صدو": 2188,
    "ناصر": 2189,
    "▁انداخته": 2190,
    "▁تصادف": 2191,
    "▁چرخ": 2192,
    "▁معدن": 2193,
    "▁چارچوب": 2194,
    "▁میراث": 2195,
    "▁یوونتوس": 2196,
    "▁ناپذیر": 2197,
    "▁دانیم": 2198,
    "▁پادشاه": 2199,
    "▁ساعات": 2200,
    "▁مدیرکل": 2201,
    "▁کوه": 2202,
    "▁۳۴": 2203,
    "▁هماهنگ": 2204,
    "▁نشدن": 2205,
    "▁جم": 2206,
    "▁۹۷": 2207,
    "غول": 2208,
    "▁برنت": 2209,
    "▁گری": 2210,
    "نجر": 2211,
    "بعضی": 2212,
    "▁کارت": 2213,
    "▁برداری": 2214,
    "▁بازگش": 2215,
    "▁امیدواری": 2216,
    "▁ابر": 2217,
    "کار": 2218,
    "▁معمول": 2219,
    "▁امضای": 2220,
    "حسن": 2221,
    "▁مجاز": 2222,
    "▁گزین": 2223,
    "▁ریال": 2224,
    "▁مشاغل": 2225,
    "▁صدرنشین": 2226,
    "▁پارلمان": 2227,
    "▁جلب": 2228,
    "▁شفاف": 2229,
    "▁دهنده": 2230,
    "▁تحولات": 2231,
    "▁اطمینان": 2232,
    "▁انداخت": 2233,
    "▁پایگاه": 2234,
    "▁سوئد": 2235,
    "▁خاوران": 2236,
    "▁هوش": 2237,
    "▁آشنا": 2238,
    "▁بند": 2239,
    "▁کیلومتری": 2240,
    "▁اسکی": 2241,
    "▁ایستاده": 2242,
    "▁کانادا": 2243,
    "▁استاندار": 2244,
    "▁نادر": 2245,
    "▁پیگیری": 2246,
    "بانک": 2247,
    "▁نوروزی": 2248,
    "عهد": 2249,
    "▁درمانی": 2250,
    "▁آفریقا": 2251,
    "بنابر": 2252,
    "همزمان": 2253,
    "▁پاک": 2254,
    "وید": 2255,
    "▁خواب": 2256,
    "▁اسب": 2257,
    "▁نطنز": 2258,
    "▁عوارض": 2259,
    "▁اعتماد": 2260,
    "▁بسکتبال": 2261,
    "▁حکایت": 2262,
    "▁تشویق": 2263,
    "▁بماند": 2264,
    "▁کلمبیا": 2265,
    "▁محرومیت": 2266,
    "▁متخصص": 2267,
    "▁آواز": 2268,
    "▁عشق": 2269,
    "▁مستقل": 2270,
    "▁لا": 2271,
    "▁تب": 2272,
    "▁شگفت": 2273,
    "▁نوسان": 2274,
    "▁ژاپنی": 2275,
    "▁نمایندگی": 2276,
    "▁علم": 2277,
    "▁۱۵۰": 2278,
    "▁شانس": 2279,
    "▁آفریقای": 2280,
    "رت": 2281,
    "▁۴۲": 2282,
    "▁۴۵": 2283,
    "جا": 2284,
    "▁یافتن": 2285,
    "کل": 2286,
    "▁خاصی": 2287,
    "▁سفرهای": 2288,
    "▁قوی": 2289,
    "▁تحلیل": 2290,
    "▁۶۰۰": 2291,
    "▁رویداد": 2292,
    "قرار": 2293,
    "▁پرچم": 2294,
    "▁گرنداسلم": 2295,
    "▁کالیفرنیا": 2296,
    "▁ریش": 2297,
    "▁خطاب": 2298,
    "▁ویدیوی": 2299,
    "▁فیسبوک": 2300,
    "▁تماشای": 2301,
    "▁خلاف": 2302,
    "▁مهاجرت": 2303,
    "▁دانشجویان": 2304,
    "▁پیچیده": 2305,
    "▁نفوذ": 2306,
    "▁مالیاتی": 2307,
    "▁مذهبی": 2308,
    "▁باغ": 2309,
    "▁آمدن": 2310,
    "▁منظور": 2311,
    "بار": 2312,
    "▁پن": 2313,
    "▁زدند": 2314,
    "شدید": 2315,
    "▁جوانان": 2316,
    "ابت": 2317,
    "کش": 2318,
    "▁گوشت": 2319,
    "اگر": 2320,
    "دان": 2321,
    "▁آنتونی": 2322,
    "▁نامزدهای": 2323,
    "▁شرکتهای": 2324,
    "▁مسافرت": 2325,
    "▁صادقی": 2326,
    "▁اظهار": 2327,
    "تصاب": 2328,
    "▁نیرو": 2329,
    "▁ژرمن": 2330,
    "▁کهکشان": 2331,
    "▁تنفس": 2332,
    "▁اولویت": 2333,
    "▁وسیع": 2334,
    "▁تجدید": 2335,
    "▁پوشش": 2336,
    "▁سانسور": 2337,
    "▁اورتون": 2338,
    "▁شواهد": 2339,
    "▁درحالی": 2340,
    "▁مطلب": 2341,
    "▁خمینی": 2342,
    "▁هلند": 2343,
    "▁گشایش": 2344,
    "▁امارات": 2345,
    "▁راحت": 2346,
    "▁مقدار": 2347,
    "▁پاییز": 2348,
    "▁تخم": 2349,
    "▁معن": 2350,
    "▁ملایی": 2351,
    "▁ماجرای": 2352,
    "▁زودتر": 2353,
    "▁اسماعیل": 2354,
    "▁لستر": 2355,
    "حمل": 2356,
    "چ": 2357,
    "▁خودروسازی": 2358,
    "نظر": 2359,
    "▁آسیای": 2360,
    "▁هفتم": 2361,
    "▁سرد": 2362,
    "▁کارزار": 2363,
    "▁قضاییه": 2364,
    "۱۸": 2365,
    "▁خرد": 2366,
    "▁ضرور": 2367,
    "▁عمر": 2368,
    "وخیم": 2369,
    "▁فراز": 2370,
    "▁آسان": 2371,
    "▁پدرش": 2372,
    "زم": 2373,
    "▁امر": 2374,
    "وش": 2375,
    "▁مع": 2376,
    "▁بودم": 2377,
    "▁شهری": 2378,
    "▁اینتر": 2379,
    "▁ذر": 2380,
    "▁بنیاد": 2381,
    "▁بیستم": 2382,
    "▁عبارت": 2383,
    "▁طلب": 2384,
    "▁زهرا": 2385,
    "▁نسخ": 2386,
    "▁علائم": 2387,
    "▁روغن": 2388,
    "▁مقدمات": 2389,
    "▁۳۳": 2390,
    "▁هتل": 2391,
    "▁کربن": 2392,
    "▁بنیان": 2393,
    "▁تجهیزات": 2394,
    "▁فیوری": 2395,
    "▁رمز": 2396,
    "▁جانب": 2397,
    "▁یادآور": 2398,
    "▁مرجان": 2399,
    "▁رویدادهای": 2400,
    "▁ثبات": 2401,
    "شرکت": 2402,
    "▁کسر": 2403,
    "▁جری": 2404,
    "ریزی": 2405,
    "▁مرور": 2406,
    "▁بازیگران": 2407,
    "▁قله": 2408,
    "▁قول": 2409,
    "یده": 2410,
    "▁کجا": 2411,
    "▁ابتلای": 2412,
    "▁پیوسته": 2413,
    "سعید": 2414,
    "▁منع": 2415,
    "▁موافق": 2416,
    "وال": 2417,
    "▁بخت": 2418,
    "▁فرم": 2419,
    "▁بابا": 2420,
    "▁پاری": 2421,
    "▁دفاعی": 2422,
    "▁ازبکستان": 2423,
    "▁متوالی": 2424,
    "▁نصب": 2425,
    "▁گروسی": 2426,
    "▁اندونزی": 2427,
    "▁خطوط": 2428,
    "▁لبنان": 2429,
    "▁دستورالعمل": 2430,
    "▁مجازات": 2431,
    "▁اقلیم": 2432,
    "▁شویم": 2433,
    "▁امشب": 2434,
    "▁ردیف": 2435,
    "▁آرامش": 2436,
    "▁هن": 2437,
    "▁مبن": 2438,
    "▁رسانی": 2439,
    "▁قطب": 2440,
    "▁تعطیلات": 2441,
    "▁شناور": 2442,
    "▁اقامت": 2443,
    "▁خواهم": 2444,
    "▁اقدامی": 2445,
    "▁شبی": 2446,
    "▁باری": 2447,
    "▁توجهی": 2448,
    "▁۲۷": 2449,
    "▁اسدی": 2450,
    "خمین": 2451,
    "جمع": 2452,
    "ریمه": 2453,
    "وقت": 2454,
    "ولی": 2455,
    "▁ژنتیکی": 2456,
    "▁کف": 2457,
    "▁مهمتری": 2458,
    "▁کو": 2459,
    "زی": 2460,
    "▁حامی": 2461,
    "▁ارزها": 2462,
    "▁پاپ": 2463,
    "▁ماندن": 2464,
    "▁انتظامی": 2465,
    "▁نباشد": 2466,
    "▁باشیم": 2467,
    "▁بگذارد": 2468,
    "▁غافلگیر": 2469,
    "▁کانون": 2470,
    "▁مثال": 2471,
    "▁سرنوشت": 2472,
    "▁زنند": 2473,
    "▁تدریج": 2474,
    "▁کیفیت": 2475,
    "▁شی": 2476,
    "▁امکانات": 2477,
    "▁کالاها": 2478,
    "▁اسناد": 2479,
    "▁شاهین": 2480,
    "▁مخاطبان": 2481,
    "▁طلای": 2482,
    "▁اکثر": 2483,
    "▁کریمی": 2484,
    "▁کیو": 2485,
    "▁واقعا": 2486,
    "▁اتهامات": 2487,
    "▁بردن": 2488,
    "▁نامید": 2489,
    "▁عملا": 2490,
    "▁یونان": 2491,
    "▁جورج": 2492,
    "▁تل": 2493,
    "مدال": 2494,
    "▁نیمی": 2495,
    "آن": 2496,
    "خالت": 2497,
    "لت": 2498,
    "▁کش": 2499,
    "وزیر": 2500,
    "نس": 2501,
    "▁اتفاقی": 2502,
    "▁مادرش": 2503,
    "واع": 2504,
    "▁اصلا": 2505,
    "▁حب": 2506,
    "▁خواه": 2507,
    "▁معاصر": 2508,
    "▁تعریف": 2509,
    "▁نیمکت": 2510,
    "▁حقیقت": 2511,
    "▁خطیب": 2512,
    "▁سهامداران": 2513,
    "▁سقف": 2514,
    "▁فرگوسن": 2515,
    "▁هفتاد": 2516,
    "▁معلوم": 2517,
    "▁۴۴": 2518,
    "لا": 2519,
    "▁دهیم": 2520,
    "قیمت": 2521,
    "▁محکومیت": 2522,
    "▁زاهد": 2523,
    "▁برون": 2524,
    "▁جک": 2525,
    "▁بوکس": 2526,
    "▁برگزید": 2527,
    "▁بازدید": 2528,
    "نازنی": 2529,
    "▁ششم": 2530,
    "▁محصول": 2531,
    "▁شک": 2532,
    "▁مناسبت": 2533,
    "▁دیگران": 2534,
    "سپت": 2535,
    "شویی": 2536,
    "ظ": 2537,
    "▁قطعه": 2538,
    "▁آماد": 2539,
    "▁ذو": 2540,
    "وری": 2541,
    "سبب": 2542,
    "▁ایفا": 2543,
    "▁کارمند": 2544,
    "▁تاجیک": 2545,
    "▁دائم": 2546,
    "▁قدر": 2547,
    "▁فرمان": 2548,
    "▁زیبای": 2549,
    "پدیده": 2550,
    "▁تائید": 2551,
    "▁احترام": 2552,
    "▁مورینیو": 2553,
    "▁واگن": 2554,
    "▁اماکن": 2555,
    "▁فراتر": 2556,
    "▁منافع": 2557,
    "▁حیوانات": 2558,
    "آمریکا": 2559,
    "▁تراکتور": 2560,
    "▁فریاد": 2561,
    "▁مدرن": 2562,
    "▁درون": 2563,
    "▁جانشین": 2564,
    "طفی": 2565,
    "▁لمس": 2566,
    "▁کاوشگر": 2567,
    "فاصله": 2568,
    "▁عطر": 2569,
    "▁کنفرانس": 2570,
    "▁نمایشگاه": 2571,
    "▁صادق": 2572,
    "▁آم": 2573,
    "▁مساوی": 2574,
    "▁بهشت": 2575,
    "▁قار": 2576,
    "▁خاطره": 2577,
    "▁قیمتها": 2578,
    "▁بدتر": 2579,
    "▁رحمانی": 2580,
    "▁مغزی": 2581,
    "▁مسئولین": 2582,
    "▁فکری": 2583,
    "کا": 2584,
    "▁گزارشگر": 2585,
    "▁خوان": 2586,
    "▁نامداری": 2587,
    "▁یاران": 2588,
    "▁هو": 2589,
    "▁فاز": 2590,
    "▁فق": 2591,
    "خ": 2592,
    "▁کمیس": 2593,
    "باقر": 2594,
    "بیشترین": 2595,
    "▁دانشمند": 2596,
    "گانه": 2597,
    "جم": 2598,
    "▁پژوهشگر": 2599,
    "▁سالم": 2600,
    "▁اص": 2601,
    "▁محاسب": 2602,
    "یو": 2603,
    "▁زیرا": 2604,
    "▁هیئت": 2605,
    "▁کیلوگرم": 2606,
    "▁فراوان": 2607,
    "▁مشروط": 2608,
    "▁یادداشت": 2609,
    "▁دیپلماتیک": 2610,
    "▁هافبک": 2611,
    "▁مدارس": 2612,
    "▁شیری": 2613,
    "▁هشتاد": 2614,
    "▁طوری": 2615,
    "▁عاص": 2616,
    "▁هاشمی": 2617,
    "▁جواب": 2618,
    "▁بامیان": 2619,
    "▁وستهم": 2620,
    "▁اولسان": 2621,
    "▁خودکشی": 2622,
    "▁ویژ": 2623,
    "▁برندگان": 2624,
    "حدود": 2625,
    "▁سرود": 2626,
    "▁تایسون": 2627,
    "▁بخار": 2628,
    "▁درخشان": 2629,
    "▁مدار": 2630,
    "▁اور": 2631,
    "▁روان": 2632,
    "▁کریستیان": 2633,
    "▁فرماندار": 2634,
    "▁تعرف": 2635,
    "▁منشا": 2636,
    "▁حا": 2637,
    "▁بازرس": 2638,
    "▁تبار": 2639,
    "ئو": 2640,
    "▁والی": 2641,
    "▁سپرد": 2642,
    "▁شهرها": 2643,
    "▁ذهن": 2644,
    "▁اجباری": 2645,
    "▁ایست": 2646,
    "▁فقر": 2647,
    "▁بردند": 2648,
    "▁پو": 2649,
    "باره": 2650,
    "ینگ": 2651,
    "▁رویا": 2652,
    "▁انگار": 2653,
    "▁وال": 2654,
    "کن": 2655,
    "جسم": 2656,
    "▁دان": 2657,
    "▁صورتی": 2658,
    "▁آموزشی": 2659,
    "▁رهبران": 2660,
    "▁بیمه": 2661,
    "▁طیف": 2662,
    "▁عفو": 2663,
    "▁عظیم": 2664,
    "▁تماشا": 2665,
    "مند": 2666,
    "▁آفتاب": 2667,
    "▁خراسان": 2668,
    "▁پتروشیمی": 2669,
    "▁جایگزین": 2670,
    "▁مسجد": 2671,
    "▁روس": 2672,
    "▁سلاح": 2673,
    "▁جنبش": 2674,
    "تری": 2675,
    "دن": 2676,
    "بنا": 2677,
    "▁تبعیض": 2678,
    "گین": 2679,
    "▁بلژیک": 2680,
    "▁شرط": 2681,
    "▁نفع": 2682,
    "▁شتاب": 2683,
    "▁هیجان": 2684,
    "▁جنسیت": 2685,
    "▁برکنار": 2686,
    "▁نژادپرست": 2687,
    "▁مدنی": 2688,
    "زاده": 2689,
    "▁فاش": 2690,
    "▁جزیر": 2691,
    "▁هجوم": 2692,
    "▁برایش": 2693,
    "▁فولک": 2694,
    "فدرا": 2695,
    "▁محمدجواد": 2696,
    "▁نی": 2697,
    "▁مان": 2698,
    "▁۴۸": 2699,
    "▁برند": 2700,
    "▁طلبان": 2701,
    "فت": 2702,
    "▁۷۵": 2703,
    "قابل": 2704,
    "▁ضرر": 2705,
    "▁گذر": 2706,
    "▁غار": 2707,
    "▁عاشق": 2708,
    "۱۴": 2709,
    "▁نمای": 2710,
    "▁کرمان": 2711,
    "▁نود": 2712,
    "▁باخته": 2713,
    "▁۳۸": 2714,
    "▁مطمئن": 2715,
    "سخنگوی": 2716,
    "یش": 2717,
    "▁قایق": 2718,
    "▁نساجی": 2719,
    "▁پیراهن": 2720,
    "▁آذربایجان": 2721,
    "▁اقلام": 2722,
    "▁ترجیح": 2723,
    "▁غیرمستقیم": 2724,
    "▁گورستان": 2725,
    "▁پیامدهای": 2726,
    "▁آشکار": 2727,
    "▁سلول": 2728,
    "▁دانمارک": 2729,
    "▁شنا": 2730,
    "▁آرایش": 2731,
    "▁قادر": 2732,
    "▁پرتغال": 2733,
    "▁قر": 2734,
    "▁پلاستیک": 2735,
    "▁خاورمیانه": 2736,
    "▁جدایی": 2737,
    "▁زرد": 2738,
    "▁شنیده": 2739,
    "▁قلع": 2740,
    "▁تجا": 2741,
    "▁جسد": 2742,
    "رون": 2743,
    "▁علنی": 2744,
    "▁ناکام": 2745,
    "▁گمان": 2746,
    "▁فرو": 2747,
    "▁پهلوی": 2748,
    "▁مص": 2749,
    "ساله": 2750,
    "▁سازند": 2751,
    "▁مار": 2752,
    "۲۰۱۲": 2753,
    "▁غلام": 2754,
    "▁خیر": 2755,
    "▁کیم": 2756,
    "▁دیوار": 2757,
    "▁ی": 2758,
    "▁بودیم": 2759,
    "جه": 2760,
    "▁کارش": 2761,
    "▁۱۹۸": 2762,
    "▁انت": 2763,
    "افزایش": 2764,
    "▁صادرکنند": 2765,
    "▁موقع": 2766,
    "▁ادا": 2767,
    "▁ار": 2768,
    "امروز": 2769,
    "▁نشین": 2770,
    "اده": 2771,
    "▁آتی": 2772,
    "غ": 2773,
    "بیش": 2774,
    "▁عادل": 2775,
    "▁امین": 2776,
    "اپی": 2777,
    "ادی": 2778,
    "بری": 2779,
    "▁سنا": 2780,
    "داران": 2781,
    "▁خریدار": 2782,
    "فر": 2783,
    "▁بغداد": 2784,
    "▁جستجو": 2785,
    "▁خلاص": 2786,
    "▁چندی": 2787,
    "▁تبریز": 2788,
    "▁پادتن": 2789,
    "▁بدهند": 2790,
    "▁میناوند": 2791,
    "▁تکمیل": 2792,
    "▁برگزیت": 2793,
    "▁آر": 2794,
    "▁سوالات": 2795,
    "یس": 2796,
    "ویز": 2797,
    "▁خاتمی": 2798,
    "▁کنگره": 2799,
    "جی": 2800,
    "▁قلم": 2801,
    "▁پوشید": 2802,
    "▁توماس": 2803,
    "▁ظاهرا": 2804,
    "▁خشک": 2805,
    "ستگی": 2806,
    "▁اوبر": 2807,
    "▁تحول": 2808,
    "▁قد": 2809,
    "▁دایک": 2810,
    "▁صالح": 2811,
    "▁تحلیلگر": 2812,
    "طی": 2813,
    "▁آزمایشگاه": 2814,
    "▁وایل": 2815,
    "یب": 2816,
    "رچند": 2817,
    "▁وست": 2818,
    "▁نظریه": 2819,
    "کته": 2820,
    "▁پرفروش": 2821,
    "▁ادعای": 2822,
    "▁کلاسیک": 2823,
    "▁۵۷": 2824,
    "▁پرده": 2825,
    "▁مطل": 2826,
    "▁ارزان": 2827,
    "تو": 2828,
    "اجع": 2829,
    "▁جر": 2830,
    "▁یازدهم": 2831,
    "▁نبرد": 2832,
    "▁روح": 2833,
    "▁لذت": 2834,
    "▁پانصد": 2835,
    "▁فرآیند": 2836,
    "▁گوناگون": 2837,
    "▁الکترونیک": 2838,
    "▁معیشت": 2839,
    "▁غزنی": 2840,
    "▁آدم": 2841,
    "▁سرقت": 2842,
    "▁بوندس": 2843,
    "▁۲۰۱۰": 2844,
    "▁وسایل": 2845,
    "▁سراسری": 2846,
    "▁آگاه": 2847,
    "▁درهای": 2848,
    "بسیاری": 2849,
    "▁گشت": 2850,
    "▁اسلم": 2851,
    "مجموعه": 2852,
    "▁استادیوم": 2853,
    "▁بیاید": 2854,
    "▁۲۵۰": 2855,
    "▁مرا": 2856,
    "▁نگرفته": 2857,
    "▁عام": 2858,
    "▁گرند": 2859,
    "▁لیدز": 2860,
    "▁ط": 2861,
    "▁قدس": 2862,
    "▁شکاف": 2863,
    "▁گرا": 2864,
    "نیک": 2865,
    "مت": 2866,
    "▁نابودی": 2867,
    "عوض": 2868,
    "▁رقص": 2869,
    "نادیده": 2870,
    "▁حساس": 2871,
    "▁کال": 2872,
    "▁دوام": 2873,
    "ص": 2874,
    "احل": 2875,
    "▁خیابانی": 2876,
    "▁لحا": 2877,
    "▁نیک": 2878,
    "▁رفتند": 2879,
    "▁نت": 2880,
    "مون": 2881,
    "▁گوشی": 2882,
    "▁تپ": 2883,
    "▁زا": 2884,
    "▁اسم": 2885,
    "کاری": 2886,
    "شده": 2887,
    "▁شور": 2888,
    "رز": 2889,
    "▁تردید": 2890,
    "دگی": 2891,
    "۱۹": 2892,
    "▁شوک": 2893,
    "▁۳۷": 2894,
    "▁بهتری": 2895,
    "▁خوانندگ": 2896,
    "▁خداحافظ": 2897,
    "▁هالیوود": 2898,
    "▁الحاق": 2899,
    "▁والیبال": 2900,
    "▁برانگیخت": 2901,
    "▁تنگ": 2902,
    "▁صمت": 2903,
    "▁عمق": 2904,
    "▁ارشاد": 2905,
    "▁مسلمان": 2906,
    "▁نمایشگر": 2907,
    "▁طبری": 2908,
    "▁فایزر": 2909,
    "▁شیراز": 2910,
    "اکان": 2911,
    "▁باشید": 2912,
    "▁ببرد": 2913,
    "▁بخصوص": 2914,
    "▁وحش": 2915,
    "▁اسلام": 2916,
    "▁دیگو": 2917,
    "▁سرزمین": 2918,
    "▁حیدر": 2919,
    "▁مستمر": 2920,
    "▁تمایل": 2921,
    "▁نداشتند": 2922,
    "▁جی": 2923,
    "▁اهدا": 2924,
    "▁بازرسان": 2925,
    "ابی": 2926,
    "▁دانستند": 2927,
    "▁نماز": 2928,
    "▁درحال": 2929,
    "▁سران": 2930,
    "▁داری": 2931,
    "▁اوکراین": 2932,
    "▁باب": 2933,
    "▁فتح": 2934,
    "▁نرسیده": 2935,
    "▁عادت": 2936,
    "▁بلخ": 2937,
    "فرین": 2938,
    "▁اردو": 2939,
    "▁حمید": 2940,
    "▁شیرین": 2941,
    "مندان": 2942,
    "▁رسیدند": 2943,
    "▁تاثیرگذار": 2944,
    "ایر": 2945,
    "▁فرستاد": 2946,
    "▁مح": 2947,
    "▁راز": 2948,
    "۵۰": 2949,
    "▁فرش": 2950,
    "▁معترض": 2951,
    "فق": 2952,
    "▁منتقد": 2953,
    "▁عملی": 2954,
    "▁شایع": 2955,
    "▁سوئیسی": 2956,
    "▁فیلمساز": 2957,
    "▁سامسونگ": 2958,
    "▁آنفلوآنزا": 2959,
    "▁همیشگی": 2960,
    "▁دوپینگ": 2961,
    "▁مترجم": 2962,
    "▁بکشد": 2963,
    "▁محاکمه": 2964,
    "▁راستا": 2965,
    "▁عراقچی": 2966,
    "▁بورل": 2967,
    "▁فرونشست": 2968,
    "▁مقاومت": 2969,
    "▁اهداف": 2970,
    "▁قاضی": 2971,
    "▁زوج": 2972,
    "▁هیوندای": 2973,
    "▁پرورش": 2974,
    "▁مدارک": 2975,
    "▁بازنشست": 2976,
    "▁بزند": 2977,
    "▁محتوای": 2978,
    "رسمی": 2979,
    "▁منچستریونایتد": 2980,
    "▁مطهری": 2981,
    "▁جنبه": 2982,
    "▁محافظت": 2983,
    "▁آمارها": 2984,
    "▁پپ": 2985,
    "خره": 2986,
    "تواند": 2987,
    "▁سفارش": 2988,
    "▁موضوعات": 2989,
    "▁تبلیغات": 2990,
    "وند": 2991,
    "▁سد": 2992,
    "▁صند": 2993,
    "▁نیروگاه": 2994,
    "▁خوردن": 2995,
    "بخش": 2996,
    "▁اندک": 2997,
    "▁شا": 2998,
    "▁توانم": 2999,
    "▁موشکی": 3000,
    "▁کریست": 3001,
    "▁پیشگیری": 3002,
    "نکه": 3003,
    "▁حج": 3004,
    "دم": 3005,
    "▁روزه": 3006,
    "▁تقس": 3007,
    "▁افکن": 3008,
    "▁دارم": 3009,
    "▁برج": 3010,
    "▁راستی": 3011,
    "▁کشد": 3012,
    "▁درد": 3013,
    "پنج": 3014,
    "فیلم": 3015,
    "▁ویدیو": 3016,
    "▁وا": 3017,
    "باران": 3018,
    "▁برانگیز": 3019,
    "▁بوشهر": 3020,
    "اق": 3021,
    "▁اقلیمی": 3022,
    "▁تبلیغ": 3023,
    "▁آزمایی": 3024,
    "▁همجنس": 3025,
    "▁موظف": 3026,
    "▁تگزاس": 3027,
    "▁تسلیحات": 3028,
    "▁ناحیه": 3029,
    "▁فلوریدا": 3030,
    "▁نتانیاهو": 3031,
    "▁استراماچونی": 3032,
    "▁نوبخت": 3033,
    "▁یوفا": 3034,
    "▁تظاهرات": 3035,
    "▁فردوسی": 3036,
    "▁مطبوعات": 3037,
    "▁۱۹۸۶": 3038,
    "▁مصدومیت": 3039,
    "▁نکنید": 3040,
    "هزار": 3041,
    "▁پدید": 3042,
    "▁تلخ": 3043,
    "▁۴۹": 3044,
    "▁امان": 3045,
    "▁بیلسا": 3046,
    "▁بعید": 3047,
    "▁وبسایت": 3048,
    "▁فرزندان": 3049,
    "▁روسی": 3050,
    "▁غریب": 3051,
    "▁برخلاف": 3052,
    "بین": 3053,
    "▁۱۹۹": 3054,
    "▁بهایی": 3055,
    "▁مطالب": 3056,
    "طئ": 3057,
    "▁مکرون": 3058,
    "▁خشم": 3059,
    "▁گذراند": 3060,
    "آزمایی": 3061,
    "▁موش": 3062,
    "خالص": 3063,
    "▁سانتی": 3064,
    "▁پیمان": 3065,
    "طبق": 3066,
    "▁خودم": 3067,
    "تون": 3068,
    "عه": 3069,
    "بورن": 3070,
    "▁۶۵": 3071,
    "▁لوئی": 3072,
    "▁داغ": 3073,
    "▁پیست": 3074,
    "▁افتد": 3075,
    "▁۴۳": 3076,
    "▁۹۶": 3077,
    "▁شریفی": 3078,
    "▁حلق": 3079,
    "▁خواستند": 3080,
    "حال": 3081,
    "▁یور": 3082,
    "▁نقدی": 3083,
    "آی": 3084,
    "فدر": 3085,
    "▁افشا": 3086,
    "▁جرم": 3087,
    "▁جیب": 3088,
    "▁۱۲۰": 3089,
    "▁مهاجر": 3090,
    "جونز": 3091,
    "وا": 3092,
    "افغانستان": 3093,
    "▁مرزهای": 3094,
    "جان": 3095,
    "نام": 3096,
    "▁قدرتمند": 3097,
    "استفاده": 3098,
    "▁رضوی": 3099,
    "دا": 3100,
    "▁تأثیر": 3101,
    "▁قاجار": 3102,
    "▁موبایل": 3103,
    "▁شمخانی": 3104,
    "▁مخفی": 3105,
    "▁تروریسم": 3106,
    "▁ببینید": 3107,
    "ریم": 3108,
    "▁۳۹": 3109,
    "▁طوفان": 3110,
    "▁ماراتن": 3111,
    "▁ثمر": 3112,
    "▁ویلموتس": 3113,
    "ث": 3114,
    "چی": 3115,
    "▁درخت": 3116,
    "▁دموکرات": 3117,
    "▁اشتغال": 3118,
    "یف": 3119,
    "▁گردشگران": 3120,
    "▁گمانه": 3121,
    "▁یازده": 3122,
    "▁اصلاحات": 3123,
    "نش": 3124,
    "▁خرج": 3125,
    "▁اختلافات": 3126,
    "▁گوگل": 3127,
    "آ": 3128,
    "پلیس": 3129,
    "▁ناامن": 3130,
    "▁عبدالله": 3131,
    "▁ادعا": 3132,
    "▁کاردن": 3133,
    "▁پرسش": 3134,
    "رس": 3135,
    "داشت": 3136,
    "▁عروس": 3137,
    "پیشتر": 3138,
    "ض": 3139,
    "▁همسان": 3140,
    "▁هستم": 3141,
    "خواهی": 3142,
    "ضعیف": 3143,
    "▁مبنای": 3144,
    "▁سرباز": 3145,
    "▁مقال": 3146,
    "▁جدال": 3147,
    "الب": 3148,
    "کننده": 3149,
    "▁مرزها": 3150,
    "▁سلمان": 3151,
    "سم": 3152,
    "▁منته": 3153,
    "▁کلا": 3154,
    "شی": 3155,
    "▁تج": 3156,
    "تن": 3157,
    "▁باند": 3158,
    "▁معمار": 3159,
    "▁ریه": 3160,
    "▁تعامل": 3161,
    "▁حضورش": 3162,
    "▁کامیون": 3163,
    "▁کنگ": 3164,
    "▁اگر": 3165,
    "▁الکس": 3166,
    "▁تکان": 3167,
    "اند": 3168,
    "آنها": 3169,
    "▁اهدای": 3170,
    "أ": 3171,
    "▁هجومی": 3172,
    "▁۹۵": 3173,
    "▁مکانی": 3174,
    "▁نقد": 3175,
    "وت": 3176,
    "▁قوا": 3177,
    "▁لب": 3178,
    "▁ناراحت": 3179,
    "▁خوک": 3180,
    "▁محقق": 3181,
    "▁مادری": 3182,
    "بو": 3183,
    "رداد": 3184,
    "▁تاکسی": 3185,
    "▁بومی": 3186,
    "خصیص": 3187,
    "▁تلفیق": 3188,
    "▁تحمیل": 3189,
    "▁گیاه": 3190,
    "▁الانبیا": 3191,
    "▁پروتئین": 3192,
    "▁تعدیل": 3193,
    "▁غربالگری": 3194,
    "▁پرافتخار": 3195,
    "▁خوراک": 3196,
    "▁تبعات": 3197,
    "▁افتتاح": 3198,
    "▁پرندگان": 3199,
    "سکی": 3200,
    "▁ودیعه": 3201,
    "▁ویلیامز": 3202,
    "▁پردازد": 3203,
    "▁ارتفاع": 3204,
    "▁برانکو": 3205,
    "ارد": 3206,
    "▁هیا": 3207,
    "▁ایام": 3208,
    "▁باد": 3209,
    "▁سرنشینان": 3210,
    "▁آورند": 3211,
    "▁شکنج": 3212,
    "▁یمانی": 3213,
    "▁تعهد": 3214,
    "▁لحظات": 3215,
    "▁سناتور": 3216,
    "سیا": 3217,
    "▁باران": 3218,
    "▁تف": 3219,
    "▁ایلنا": 3220,
    "▁گردن": 3221,
    "▁معمولی": 3222,
    "عبدال": 3223,
    "▁دراز": 3224,
    "▁خواهی": 3225,
    "▁پذیرفته": 3226,
    "▁منوچ": 3227,
    "▁کاسته": 3228,
    "راحل": 3229,
    "▁ویدئویی": 3230,
    "▁عزاداری": 3231,
    "▁رها": 3232,
    "▁همیلتون": 3233,
    "▁کاربر": 3234,
    "▁محسن": 3235,
    "روی": 3236,
    "▁نزد": 3237,
    "▁۰": 3238,
    "▁۵۶": 3239,
    "▁هنگ": 3240,
    "▁۵۲": 3241,
    "▁عذر": 3242,
    "لیگ": 3243,
    "▁وق": 3244,
    "▁آباد": 3245,
    "▁واژ": 3246,
    "داوم": 3247,
    "▁سلف": 3248,
    "▁فروشگاه": 3249,
    "▁ترور": 3250,
    "▁وسی": 3251,
    "▁فان": 3252,
    "▁پیوند": 3253,
    "▁چا": 3254,
    "▁شورو": 3255,
    "اقات": 3256,
    "دل": 3257,
    "شمار": 3258,
    "▁ستار": 3259,
    "▁تور": 3260,
    "رگن": 3261,
    "▁یکم": 3262,
    "▁گروگان": 3263,
    "▁آرای": 3264,
    "▁پانزده": 3265,
    "سا": 3266,
    "▁خشکی": 3267,
    "ردن": 3268,
    "▁داستانی": 3269,
    "▁اطل": 3270,
    "وریا": 3271,
    "ویژه": 3272,
    "▁شعار": 3273,
    "▁متاسف": 3274,
    "▁کهن": 3275,
    "▁خو": 3276,
    "غان": 3277,
    "▁محدودیتهای": 3278,
    "▁اعزام": 3279,
    "▁دبلیو": 3280,
    "▁انقراض": 3281,
    "▁منحصر": 3282,
    "▁لالیگا": 3283,
    "▁مشورت": 3284,
    "▁موانع": 3285,
    "▁بلاروس": 3286,
    "▁تدوین": 3287,
    "▁فلوید": 3288,
    "▁لهستان": 3289,
    "▁مور": 3290,
    "▁بدانیم": 3291,
    "امی": 3292,
    "شه": 3293,
    "▁تخلف": 3294,
    "▁نقص": 3295,
    "▁خاموش": 3296,
    "▁لاریجانی": 3297,
    "▁فسیل": 3298,
    "▁نیوزیلند": 3299,
    "▁تسهیلات": 3300,
    "▁بدو": 3301,
    "▁موسوی": 3302,
    "▁راس": 3303,
    "▁آنقدر": 3304,
    "▁محاسبات": 3305,
    "لند": 3306,
    "کو": 3307,
    "▁کارلوس": 3308,
    "▁وسط": 3309,
    "▁ویران": 3310,
    "▁راهبرد": 3311,
    "▁وانت": 3312,
    "▁ربط": 3313,
    "امسال": 3314,
    "▁استرالیایی": 3315,
    "▁خاطرات": 3316,
    "▁عبوری": 3317,
    "▁صلاح": 3318,
    "محمود": 3319,
    "▁بلیت": 3320,
    "▁آوردند": 3321,
    "▁کیلو": 3322,
    "▁آرامکو": 3323,
    "۲۵": 3324,
    "▁آهنگساز": 3325,
    "▁گذاشتن": 3326,
    "▁تاب": 3327,
    "▁جوانی": 3328,
    "برخ": 3329,
    "▁ص": 3330,
    "▁۵۵": 3331,
    "▁سبز": 3332,
    "رویی": 3333,
    "راضی": 3334,
    "▁نسب": 3335,
    "▁بدی": 3336,
    "▁تس": 3337,
    "▁گرایان": 3338,
    "▁عقید": 3339,
    "▁باستانی": 3340,
    "▁گرد": 3341,
    "تیپ": 3342,
    "التهاب": 3343,
    "▁خودروها": 3344,
    "▁عموم": 3345,
    "▁جسم": 3346,
    "▁سلطان": 3347,
    "▁حیاتی": 3348,
    "۳۱": 3349,
    "صاف": 3350,
    "▁سیا": 3351,
    "▁داشتم": 3352,
    "▁تمرکز": 3353,
    "▁یاری": 3354,
    "▁سیف": 3355,
    "▁بهر": 3356,
    "▁بازیگری": 3357,
    "▁ویلیام": 3358,
    "▁پولی": 3359,
    "▁تاک": 3360,
    "▁۷۷": 3361,
    "▁دستگیری": 3362,
    "▁۷۳": 3363,
    "▁ازای": 3364,
    "▁استعداد": 3365,
    "▁هندی": 3366,
    "▁پرسید": 3367,
    "▁قاطع": 3368,
    "یشه": 3369,
    "▁بروند": 3370,
    "▁آیین": 3371,
    "▁خا": 3372,
    "▁زیان": 3373,
    "گروه": 3374,
    "▁سرای": 3375,
    "۲۲": 3376,
    "▁باشگاهی": 3377,
    "▁کام": 3378,
    "▁سالن": 3379,
    "تکلیف": 3380,
    "ممکن": 3381,
    "▁شاخ": 3382,
    "▁۹۱": 3383,
    "▁حیوان": 3384,
    "▁پارالمپیک": 3385,
    "▁اکسیژن": 3386,
    "▁زلزله": 3387,
    "▁مازندران": 3388,
    "▁یهودی": 3389,
    "▁دهقان": 3390,
    "▁دقایق": 3391,
    "▁انفرادی": 3392,
    "▁اسپرت": 3393,
    "▁کریکت": 3394,
    "▁بازگردد": 3395,
    "▁بدر": 3396,
    "خیص": 3397,
    "▁اپلیکیشن": 3398,
    "▁متناسب": 3399,
    "▁بختیار": 3400,
    "▁عفونت": 3401,
    "▁کمرنگ": 3402,
    "▁متقاضی": 3403,
    "▁جلسات": 3404,
    "▁ترسیم": 3405,
    "▁زنگنه": 3406,
    "▁حاکم": 3407,
    "▁تلگرام": 3408,
    "▁استرازنکا": 3409,
    "▁رمزارز": 3410,
    "▁ثروت": 3411,
    "▁تخلفات": 3412,
    "▁دایناسور": 3413,
    "▁برقی": 3414,
    "▁مقیم": 3415,
    "▁مطالعات": 3416,
    "▁قریب": 3417,
    "▁جن": 3418,
    "▁نمکی": 3419,
    "▁نکند": 3420,
    "▁ضرورت": 3421,
    "▁تروریستی": 3422,
    "▁عبدی": 3423,
    "▁عطرساز": 3424,
    "کر": 3425,
    "▁خانوارهای": 3426,
    "▁ایرانیان": 3427,
    "عباس": 3428,
    "شاخص": 3429,
    "▁نوید": 3430,
    "▁اید": 3431,
    "▁اشک": 3432,
    "▁شیش": 3433,
    "▁پیکر": 3434,
    "▁فدرال": 3435,
    "▁میلیاردها": 3436,
    "▁رساندن": 3437,
    "▁شخص": 3438,
    "▁دهک": 3439,
    "نوبت": 3440,
    "▁ویکتور": 3441,
    "▁هاوس": 3442,
    "▁شاهزاد": 3443,
    "▁ژنتیک": 3444,
    "▁کشند": 3445,
    "گذاری": 3446,
    "▁سیل": 3447,
    "▁آوردن": 3448,
    "▁رنج": 3449,
    "▁مادران": 3450,
    "▁قص": 3451,
    "نیم": 3452,
    "▁عمران": 3453,
    "▁سیزدهم": 3454,
    "▁کمال": 3455,
    "▁فیلتر": 3456,
    "▁ماهوار": 3457,
    "▁آندر": 3458,
    "▁اصطلاح": 3459,
    "▁داروهای": 3460,
    "▁جین": 3461,
    "شدت": 3462,
    "▁اقلی": 3463,
    "▁پیک": 3464,
    "▁فضانورد": 3465,
    "کدام": 3466,
    "▁بازماند": 3467,
    "▁منار": 3468,
    "▁ری": 3469,
    "▁همکاران": 3470,
    "▁منتف": 3471,
    "▁خوا": 3472,
    "▁خوشحال": 3473,
    "▁فلسفه": 3474,
    "▁تدابیر": 3475,
    "▁رستوران": 3476,
    "▁محوطه": 3477,
    "▁مدیترانه": 3478,
    "▁استخدام": 3479,
    "▁بنیانگذار": 3480,
    "▁سایپا": 3481,
    "▁انبوه": 3482,
    "▁تایلند": 3483,
    "▁خلاقیت": 3484,
    "عنوان": 3485,
    "▁برساند": 3486,
    "▁رمزارزها": 3487,
    "▁ذکر": 3488,
    "▁جانسون": 3489,
    "▁علامت": 3490,
    "▁پیشتاز": 3491,
    "▁ونیز": 3492,
    "خته": 3493,
    "▁استراحت": 3494,
    "▁رابرت": 3495,
    "▁قرص": 3496,
    "▁همسایه": 3497,
    "▁تالاب": 3498,
    "▁طنز": 3499,
    "▁اشرف": 3500,
    "▁احت": 3501,
    "▁دستیابی": 3502,
    "▁مداوم": 3503,
    "غال": 3504,
    "▁سرگرم": 3505,
    "▁ناجی": 3506,
    "▁نم": 3507,
    "▁منچسترسیتی": 3508,
    "▁عضلا": 3509,
    "▁لیگا": 3510,
    "▁خریداران": 3511,
    "▁خبرهای": 3512,
    "▁پایدار": 3513,
    "▁کیهان": 3514,
    "▁صرفا": 3515,
    "راه": 3516,
    "رقابت": 3517,
    "▁آبادی": 3518,
    "▁فلز": 3519,
    "حالا": 3520,
    "▁مبادل": 3521,
    "▁وقفه": 3522,
    "▁بازگشا": 3523,
    "نواک": 3524,
    "▁سالها": 3525,
    "▁همچ": 3526,
    "لوله": 3527,
    "▁اح": 3528,
    "▁گریز": 3529,
    "▁تقویم": 3530,
    "▁ریاض": 3531,
    "▁فراری": 3532,
    "▁رحم": 3533,
    "▁دیر": 3534,
    "هالی": 3535,
    "▁پارسی": 3536,
    "▁۷۲": 3537,
    "▁فقیر": 3538,
    "▁تابلوی": 3539,
    "▁نشت": 3540,
    "▁ساک": 3541,
    "▁عم": 3542,
    "▁نان": 3543,
    "اش": 3544,
    "موند": 3545,
    "▁خواندن": 3546,
    "▁تبلیغاتی": 3547,
    "▁سپر": 3548,
    "شهر": 3549,
    "▁محور": 3550,
    "زن": 3551,
    "▁استاین": 3552,
    "▁سین": 3553,
    "▁یکصد": 3554,
    "ونگ": 3555,
    "زکی": 3556,
    "▁ثروتمند": 3557,
    "▁میل": 3558,
    "▁۳۶": 3559,
    "▁اظهارنظر": 3560,
    "▁مزار": 3561,
    "▁برزیلی": 3562,
    "▁صعودی": 3563,
    "▁مشتری": 3564,
    "▁فیلیپ": 3565,
    "▁سحر": 3566,
    "▁میر": 3567,
    "خی": 3568,
    "▁امن": 3569,
    "آوری": 3570,
    "پل": 3571,
    "▁امتحان": 3572,
    "▁بنگلادش": 3573,
    "▁پرطرفدار": 3574,
    "▁اشتراک": 3575,
    "▁سئوال": 3576,
    "▁ثامن": 3577,
    "▁تماشاچی": 3578,
    "▁زیارت": 3579,
    "▁مقرر": 3580,
    "▁اکتشاف": 3581,
    "▁نادرست": 3582,
    "▁غیاب": 3583,
    "▁مفهوم": 3584,
    "رق": 3585,
    "▁عروسک": 3586,
    "▁سادات": 3587,
    "▁احساسات": 3588,
    "▁ابعاد": 3589,
    "▁طلایی": 3590,
    "▁روسا": 3591,
    "▁۲۰۲": 3592,
    "▁کیانوش": 3593,
    "▁آبادان": 3594,
    "▁جنایت": 3595,
    "▁طرز": 3596,
    "▁سربازان": 3597,
    "▁ولز": 3598,
    "▁آیند": 3599,
    "▁روزگار": 3600,
    "▁بمب": 3601,
    "قه": 3602,
    "اولین": 3603,
    "▁زانو": 3604,
    "تمرکز": 3605,
    "▁دانم": 3606,
    "▁بشار": 3607,
    "▁گردند": 3608,
    "شد": 3609,
    "▁گم": 3610,
    "▁گروگانگیر": 3611,
    "خارجه": 3612,
    "▁ریخت": 3613,
    "▁اعتراضی": 3614,
    "▁زور": 3615,
    "دانشمندان": 3616,
    "▁عزیزی": 3617,
    "▁کوچکتر": 3618,
    "▁نوی": 3619,
    "▁جهانگیری": 3620,
    "▁فرید": 3621,
    "گن": 3622,
    "ظهر": 3623,
    "احض": 3624,
    "▁اعضا": 3625,
    "▁۴۶": 3626,
    "▁۶۷": 3627,
    "▁ایرلند": 3628,
    "▁آنک": 3629,
    "▁غ": 3630,
    "مرث": 3631,
    "رای": 3632,
    "▁بستن": 3633,
    "▁سراغ": 3634,
    "▁شبه": 3635,
    "وفر": 3636,
    "▁نسبتا": 3637,
    "مل": 3638,
    "سر": 3639,
    "جاسوسی": 3640,
    "ذ": 3641,
    "▁گفتگوی": 3642,
    "▁ظهر": 3643,
    "وب": 3644,
    "▁انبار": 3645,
    "▁صحن": 3646,
    "▁مهمان": 3647,
    "▁شهردار": 3648,
    "▁رش": 3649,
    "تنش": 3650,
    "▁سای": 3651,
    "▁استعفای": 3652,
    "ستون": 3653,
    "سل": 3654,
    "▁کشی": 3655,
    "▁قراردادش": 3656,
    "▁شه": 3657,
    "▁بوک": 3658,
    "لحق": 3659,
    "▁برکناری": 3660,
    "▁اخطار": 3661,
    "▁وقف": 3662,
    "▁کما": 3663,
    "▁هنرها": 3664,
    "▁اوا": 3665,
    "▁شانه": 3666,
    "▁پالایش": 3667,
    "▁مایکروسافت": 3668,
    "▁تعقیب": 3669,
    "▁وقایع": 3670,
    "▁نوشیدن": 3671,
    "▁متاثر": 3672,
    "▁بگویم": 3673,
    "▁مرجع": 3674,
    "▁خوشنام": 3675,
    "▁۱۹۹۰": 3676,
    "▁مهرماه": 3677,
    "▁ساویز": 3678,
    "▁ببینند": 3679,
    "▁۸۰۰": 3680,
    "▁۲۰۰۳": 3681,
    "▁شمارش": 3682,
    "▁ترانزیت": 3683,
    "▁پلاک": 3684,
    "جو": 3685,
    "▁جالب": 3686,
    "▁بامداد": 3687,
    "▁مقصر": 3688,
    "▁ستارگان": 3689,
    "▁شاگردان": 3690,
    "▁مرخص": 3691,
    "ناد": 3692,
    "▁دیدگاه": 3693,
    "▁طرفدار": 3694,
    "▁ستایش": 3695,
    "▁برلین": 3696,
    "▁آشفت": 3697,
    "▁تفاهم": 3698,
    "▁صبر": 3699,
    "▁پوش": 3700,
    "▁تیرماه": 3701,
    "▁عصب": 3702,
    "▁عضوی": 3703,
    "▁کشت": 3704,
    "▁دف": 3705,
    "▁کرو": 3706,
    "▁شریک": 3707,
    "▁صنف": 3708,
    "▁ابوال": 3709,
    "▁کابین": 3710,
    "▁اعتیاد": 3711,
    "▁قوس": 3712,
    "▁وحید": 3713,
    "▁لیور": 3714,
    "▁مصون": 3715,
    "▁خدا": 3716,
    "▁قدمت": 3717,
    "▁شمسی": 3718,
    "▁آگاهی": 3719,
    "▁رویای": 3720,
    "استقلال": 3721,
    "▁رادیویی": 3722,
    "چین": 3723,
    "▁اسپوت": 3724,
    "▁تروی": 3725,
    "▁بدل": 3726,
    "اول": 3727,
    "ختم": 3728,
    "▁شو": 3729,
    "▁فراگیر": 3730,
    "احمد": 3731,
    "وطن": 3732,
    "▁استخر": 3733,
    "▁راند": 3734,
    "▁توفیق": 3735,
    "▁اصول": 3736,
    "▁سکونت": 3737,
    "▁مستق": 3738,
    "▁۱۳۵": 3739,
    "▁اوست": 3740,
    "عادل": 3741,
    "▁داروها": 3742,
    "نت": 3743,
    "قات": 3744,
    "▁تحقیقی": 3745,
    "▁جبه": 3746,
    "پرو": 3747,
    "▁تابلو": 3748,
    "▁انتقادها": 3749,
    "▁حدی": 3750,
    "▁قند": 3751,
    "▁تورمی": 3752,
    "▁نجف": 3753,
    "▁بهرام": 3754,
    "▁آلن": 3755,
    "▁دقت": 3756,
    "▁دونده": 3757,
    "▁کشیدن": 3758,
    "▁نژادی": 3759,
    "▁نامزدها": 3760,
    "شار": 3761,
    "▁شکار": 3762,
    "▁شر": 3763,
    "التی": 3764,
    "▁داوطلب": 3765,
    "▁زیبا": 3766,
    "▁گلزن": 3767,
    "۳۰": 3768,
    "▁ملا": 3769,
    "▁هوادار": 3770,
    "▁حو": 3771,
    "▁اختلا": 3772,
    "▁اوکراینی": 3773,
    "▁سان": 3774,
    "▁فلیک": 3775,
    "▁ور": 3776,
    "▁دورت": 3777,
    "▁بینند": 3778,
    "▁خالص": 3779,
    "برگ": 3780,
    "هار": 3781,
    "▁کلام": 3782,
    "▁علیر": 3783,
    "▁روستای": 3784,
    "▁رس": 3785,
    "▁صالحی": 3786,
    "▁وب": 3787,
    "▁حافظ": 3788,
    "ناف": 3789,
    "▁شعب": 3790,
    "▁مخصوص": 3791,
    "▁اعتقاد": 3792,
    "▁منتخب": 3793,
    "▁بندرعباس": 3794,
    "▁پشتیبان": 3795,
    "▁راموس": 3796,
    "▁تجلیل": 3797,
    "▁مفید": 3798,
    "▁۱۳۹۶": 3799,
    "▁پاکبان": 3800,
    "▁آرامگاه": 3801,
    "▁مسایل": 3802,
    "▁مخابرات": 3803,
    "بعد": 3804,
    "▁لزوم": 3805,
    "▁بزنند": 3806,
    "▁مسکونی": 3807,
    "▁برگردد": 3808,
    "▁مخدر": 3809,
    "▁متعهد": 3810,
    "▁منزل": 3811,
    "کم": 3812,
    "وان": 3813,
    "▁تسلیم": 3814,
    "▁مرگبار": 3815,
    "▁ویل": 3816,
    "▁نکنند": 3817,
    "▁رتکلیف": 3818,
    "▁ماهیگیر": 3819,
    "▁رضایت": 3820,
    "▁شایعات": 3821,
    "▁غالب": 3822,
    "جایی": 3823,
    "کول": 3824,
    "حص": 3825,
    "▁آموزان": 3826,
    "▁یکسال": 3827,
    "▁علاقمندان": 3828,
    "وداع": 3829,
    "▁روبروست": 3830,
    "▁موجودات": 3831,
    "▁توضیحات": 3832,
    "▁گیاهان": 3833,
    "▁پیوستن": 3834,
    "باشگاه": 3835,
    "▁جمال": 3836,
    "▁پراکند": 3837,
    "▁دادسرا": 3838,
    "یحی": 3839,
    "▁روزی": 3840,
    "وجود": 3841,
    "▁خشکسالی": 3842,
    "▁آگ": 3843,
    "مالاریا": 3844,
    "خانواده": 3845,
    "▁حرم": 3846,
    "▁زنج": 3847,
    "▁بس": 3848,
    "▁پرهی": 3849,
    "▁۱۳۷": 3850,
    "▁کشتار": 3851,
    "▁آمدند": 3852,
    "▁فروشی": 3853,
    "لیورپول": 3854,
    "رعه": 3855,
    "▁ات": 3856,
    "▁رم": 3857,
    "▁کشاند": 3858,
    "▁روب": 3859,
    "▁تای": 3860,
    "▁۶۲": 3861,
    "رسان": 3862,
    "لاک": 3863,
    "▁تش": 3864,
    "▁مون": 3865,
    "ودی": 3866,
    "▁بل": 3867,
    "▁اذ": 3868,
    "▁افکاری": 3869,
    "ازی": 3870,
    "▁۳۵۰": 3871,
    "▁ساختن": 3872,
    "▁خریده": 3873,
    "▁نرسید": 3874,
    "برنامه": 3875,
    "وف": 3876,
    "▁کاغذ": 3877,
    "▁تاریک": 3878,
    "▁افکار": 3879,
    "شاید": 3880,
    "▁نظم": 3881,
    "▁عکسی": 3882,
    "▁نامدار": 3883,
    "▁حداد": 3884,
    "▁مب": 3885,
    "یژن": 3886,
    "گل": 3887,
    "ماهی": 3888,
    "▁سینماها": 3889,
    "▁تصویری": 3890,
    "▁ساختار": 3891,
    "زیگ": 3892,
    "شید": 3893,
    "▁ابزار": 3894,
    "▁۹۰۰": 3895,
    "▁بشری": 3896,
    "▁بوش": 3897,
    "▁جانور": 3898,
    "▁خارا": 3899,
    "▁فیل": 3900,
    "▁تحری": 3901,
    "▁مرگش": 3902,
    "▁دردسر": 3903,
    "▁گرفتار": 3904,
    "▁تفریح": 3905,
    "فی": 3906,
    "▁ربات": 3907,
    "▁زریاب": 3908,
    "▁تضمین": 3909,
    "▁شارژ": 3910,
    "▁اصرار": 3911,
    "▁ابتکار": 3912,
    "▁قزاق": 3913,
    "▁شلوغ": 3914,
    "▁بلوچ": 3915,
    "▁اکسید": 3916,
    "▁زغال": 3917,
    "▁سردبیر": 3918,
    "▁شاعران": 3919,
    "▁لنون": 3920,
    "▁کلینیک": 3921,
    "▁کووید۱۹": 3922,
    "خر": 3923,
    "▁متشک": 3924,
    "▁دانشکد": 3925,
    "▁مبادلات": 3926,
    "▁استراتژیک": 3927,
    "نظرسنجی": 3928,
    "▁غرق": 3929,
    "ساب": 3930,
    "▁چراغ": 3931,
    "▁صحیح": 3932,
    "ایش": 3933,
    "▁تکنولوژی": 3934,
    "▁سیاستمداران": 3935,
    "▁دشمنان": 3936,
    "▁وجه": 3937,
    "▁گرگ": 3938,
    "▁مارتین": 3939,
    "▁۶۴": 3940,
    "▁ایستاد": 3941,
    "▁دشت": 3942,
    "▁رایج": 3943,
    "▁خالق": 3944,
    "▁دارید": 3945,
    "▁درختان": 3946,
    "▁اندازد": 3947,
    "▁ایرج": 3948,
    "بت": 3949,
    "▁همرسان": 3950,
    "▁نیما": 3951,
    "نز": 3952,
    "▁سگ": 3953,
    "▁۵۹": 3954,
    "▁فل": 3955,
    "▁مرتب": 3956,
    "▁شیلی": 3957,
    "▁حکمتی": 3958,
    "▁شاپو": 3959,
    "▁نیافت": 3960,
    "▁آمریکاست": 3961,
    "▁مسیحی": 3962,
    "تب": 3963,
    "رهای": 3964,
    "▁گزارشگران": 3965,
    "▁لاری": 3966,
    "▁جاسوس": 3967,
    "▁شدم": 3968,
    "▁موازی": 3969,
    "کان": 3970,
    "▁انیس": 3971,
    "▁اریک": 3972,
    "▁حریفان": 3973,
    "اتحاد": 3974,
    "معاون": 3975,
    "▁واسط": 3976,
    "پژوهشگران": 3977,
    "وار": 3978,
    "اخیرا": 3979,
    "ژه": 3980,
    "▁آرا": 3981,
    "وپن": 3982,
    "یلی": 3983,
    "۱۱": 3984,
    "▁پلی": 3985,
    "▁اپرا": 3986,
    "اع": 3987,
    "▁پروان": 3988,
    "▁آقا": 3989,
    "▁صادراتی": 3990,
    "وات": 3991,
    "▁ناصر": 3992,
    "▁تند": 3993,
    "▁گفتگوها": 3994,
    "سیویر": 3995,
    "▁مهاجمان": 3996,
    "ایت": 3997,
    "▁روبرت": 3998,
    "آبادی": 3999,
    "▁سیزده": 4000,
    "دون": 4001,
    "▁سم": 4002,
    "▁ارا": 4003,
    "▁شوهر": 4004,
    "صوفی": 4005,
    "▁نوشتن": 4006,
    "یعن": 4007,
    "اج": 4008,
    "لک": 4009,
    "▁شریف": 4010,
    "▁مرس": 4011,
    "▁نداد": 4012,
    "الی": 4013,
    "▁۱۳۸": 4014,
    "▁دهان": 4015,
    "حافظه": 4016,
    "▁ضعیف": 4017,
    "▁وحشی": 4018,
    "وله": 4019,
    "ناز": 4020,
    "ندی": 4021,
    "امیر": 4022,
    "مهدی": 4023,
    "کمیت": 4024,
    "▁ناو": 4025,
    "▁سرو": 4026,
    "اتی": 4027,
    "خیم": 4028,
    "▁صح": 4029,
    "▁باستان": 4030,
    "▁تثب": 4031,
    "▁درآورد": 4032,
    "▁ابرا": 4033,
    "▁دروغ": 4034,
    "▁مامور": 4035,
    "▁دشمن": 4036,
    "▁مکرر": 4037,
    "▁تم": 4038,
    "▁دژپسند": 4039,
    "▁کارداشیان": 4040,
    "▁دریابندری": 4041,
    "▁صداوسیما": 4042,
    "▁اوباما": 4043,
    "▁بیفتد": 4044,
    "▁ناچار": 4045,
    "▁شباهت": 4046,
    "▁اخلال": 4047,
    "▁روشنفکر": 4048,
    "▁آسمایی": 4049,
    "▁آشوری": 4050,
    "▁بگوییم": 4051,
    "ژانس": 4052,
    "▁خفیف": 4053,
    "▁بگیریم": 4054,
    "▁کوهستان": 4055,
    "▁اردوگاه": 4056,
    "▁مادو": 4057,
    "▁مداخل": 4058,
    "جوبی": 4059,
    "▁فروپاشی": 4060,
    "▁نشیب": 4061,
    "▁توجیه": 4062,
    "▁قطار": 4063,
    "▁ولسوال": 4064,
    "▁تعبیر": 4065,
    "▁وصل": 4066,
    "▁مولوی": 4067,
    "ضعف": 4068,
    "▁هشتگ": 4069,
    "▁جابجا": 4070,
    "▁نهاده": 4071,
    "▁بلومبرگ": 4072,
    "▁توخل": 4073,
    "▁کمپین": 4074,
    "▁نزول": 4075,
    "▁پناهجویان": 4076,
    "▁بقایای": 4077,
    "خاطر": 4078,
    "▁سکوت": 4079,
    "درصد": 4080,
    "بهار": 4081,
    "▁اسک": 4082,
    "▁وزارتخانه": 4083,
    "▁شرمن": 4084,
    "▁مسکو": 4085,
    "▁مقدم": 4086,
    "صورت": 4087,
    "وزرای": 4088,
    "▁زو": 4089,
    "▁همکارانش": 4090,
    "شیبا": 4091,
    "▁تعجب": 4092,
    "▁رصد": 4093,
    "▁صفحات": 4094,
    "مانده": 4095,
    "▁حاجی": 4096,
    "▁تقابل": 4097,
    "▁رئیسی": 4098,
    "▁سعد": 4099,
    "▁پناهندگ": 4100,
    "▁نداشتن": 4101,
    "▁نمادهای": 4102,
    "▁ناآرامی": 4103,
    "شیوع": 4104,
    "▁چوب": 4105,
    "واسط": 4106,
    "بویایی": 4107,
    "نک": 4108,
    "▁افشار": 4109,
    "▁برادرش": 4110,
    "▁اسد": 4111,
    "▁مقا": 4112,
    "بازی": 4113,
    "▁پیرو": 4114,
    "دور": 4115,
    "▁اندیش": 4116,
    "▁تصمیمات": 4117,
    "▁پسرش": 4118,
    "مدت": 4119,
    "تیک": 4120,
    "▁فیلمبردار": 4121,
    "▁نیوک": 4122,
    "رین": 4123,
    "▁یافتند": 4124,
    "▁رغ": 4125,
    "یشب": 4126,
    "▁پالایشگاهی": 4127,
    "قی": 4128,
    "▁کیست": 4129,
    "▁گنج": 4130,
    "▁۱۵۰۰": 4131,
    "▁سختگیر": 4132,
    "عکس": 4133,
    "▁شدیدتر": 4134,
    "دادگاه": 4135,
    "▁بران": 4136,
    "سن": 4137,
    "زا": 4138,
    "▁فوریت": 4139,
    "▁بازارها": 4140,
    "▁زخم": 4141,
    "▁رزم": 4142,
    "▁ویلا": 4143,
    "▁محدودیتها": 4144,
    "یخ": 4145,
    "▁شناسان": 4146,
    "۱۳": 4147,
    "▁منطق": 4148,
    "▁سام": 4149,
    "یاس": 4150,
    "▁تقدی": 4151,
    "▁خرابکار": 4152,
    "▁بها": 4153,
    "▁شهیدی": 4154,
    "▁ارد": 4155,
    "▁ژن": 4156,
    "▁راک": 4157,
    "▁تلف": 4158,
    "دیگر": 4159,
    "▁مقطع": 4160,
    "زار": 4161,
    "اسل": 4162,
    "دگان": 4163,
    "▁انگشت": 4164,
    "فاد": 4165,
    "▁قض": 4166,
    "▁الزام": 4167,
    "▁دنی": 4168,
    "نوایی": 4169,
    "مد": 4170,
    "سو": 4171,
    "گو": 4172,
    "▁۱۳۶": 4173,
    "▁پستی": 4174,
    "گفت": 4175,
    "▁خودروی": 4176,
    "واک": 4177,
    "▁تحقیر": 4178,
    "▁آغداشلو": 4179,
    "▁اپیدمی": 4180,
    "▁بدخشان": 4181,
    "▁کانسپت": 4182,
    "▁تأیید": 4183,
    "▁دماوند": 4184,
    "▁آموزگار": 4185,
    "▁تتلو": 4186,
    "▁معدود": 4187,
    "▁منفجر": 4188,
    "▁خیانت": 4189,
    "▁۱۳۹۵": 4190,
    "▁مواضع": 4191,
    "▁وفادار": 4192,
    "گراندپری": 4193,
    "▁ارزشمند": 4194,
    "▁۲۰۳۰": 4195,
    "▁خزر": 4196,
    "▁بمانند": 4197,
    "▁آرشیو": 4198,
    "▁ناشناخت": 4199,
    "▁لبخند": 4200,
    "▁بروکسل": 4201,
    "▁ندارم": 4202,
    "▁زیستگاه": 4203,
    "▁تسلیت": 4204,
    "▁ایرباس": 4205,
    "▁خسارات": 4206,
    "وازه": 4207,
    "▁مدرک": 4208,
    "▁گرایش": 4209,
    "▁خرند": 4210,
    "▁جاشوا": 4211,
    "▁خرسند": 4212,
    "▁داریوش": 4213,
    "▁بافت": 4214,
    "▁دهندگان": 4215,
    "▁مرتضی": 4216,
    "کتب": 4217,
    "▁اضطراب": 4218,
    "▁همینطور": 4219,
    "▁دیپلمات": 4220,
    "▁عقل": 4221,
    "لر": 4222,
    "▁پیشرو": 4223,
    "▁مهاجران": 4224,
    "▁شوید": 4225,
    "آمیز": 4226,
    "▁شناسند": 4227,
    "وریس": 4228,
    "▁خواندند": 4229,
    "▁برنز": 4230,
    "▁گازی": 4231,
    "▁خودران": 4232,
    "▁اما": 4233,
    "▁ثروتمندتر": 4234,
    "▁هواپیماهای": 4235,
    "اینها": 4236,
    "▁نوزدهم": 4237,
    "▁هلی": 4238,
    "کینگ": 4239,
    "▁چی": 4240,
    "▁کتی": 4241,
    "زمان": 4242,
    "▁ماز": 4243,
    "▁لوان": 4244,
    "▁ژوز": 4245,
    "فن": 4246,
    "▁عالمی": 4247,
    "منه": 4248,
    "▁زم": 4249,
    "▁هرگ": 4250,
    "سانه": 4251,
    "▁انتقادات": 4252,
    "اوی": 4253,
    "▁سارا": 4254,
    "▁خواهر": 4255,
    "▁مسیرهای": 4256,
    "مدیر": 4257,
    "▁گرمای": 4258,
    "▁کاست": 4259,
    "▁کامپیوتری": 4260,
    "مراسم": 4261,
    "▁۴۱": 4262,
    "▁جنس": 4263,
    "▁مارچ": 4264,
    "انتظار": 4265,
    "صندوق": 4266,
    "▁دیدارهای": 4267,
    "هز": 4268,
    "مرکز": 4269,
    "محققان": 4270,
    "▁استودیو": 4271,
    "آنتونی": 4272,
    "▁گلزنی": 4273,
    "▁مشت": 4274,
    "▁نظرات": 4275,
    "▁کنسول": 4276,
    "ریک": 4277,
    "▁خال": 4278,
    "▁برگ": 4279,
    "▁اسحاق": 4280,
    "▁اجبار": 4281,
    "▁نروژ": 4282,
    "▁پروازها": 4283,
    "حمید": 4284,
    "آمار": 4285,
    "▁فا": 4286,
    "▁دوازده": 4287,
    "▁کوبا": 4288,
    "▁افسر": 4289,
    "▁تخیل": 4290,
    "▁روستا": 4291,
    "▁قراردادهای": 4292,
    "فلاتو": 4293,
    "شاه": 4294,
    "حل": 4295,
    "۱۵": 4296,
    "دام": 4297,
    "▁ایراد": 4298,
    "ارغ": 4299,
    "▁تغییری": 4300,
    "▁کاظم": 4301,
    "تلاف": 4302,
    "▁اوین": 4303,
    "▁۹۳": 4304,
    "▁منصو": 4305,
    "▁پیمانکار": 4306,
    "وایی": 4307,
    "▁ظه": 4308,
    "▁پارس": 4309,
    "▁قطبی": 4310,
    "▁مکزیک": 4311,
    "▁مأمور": 4312,
    "▁ایر": 4313,
    "▁آتالانتا": 4314,
    "▁ارکستر": 4315,
    "▁تورنتو": 4316,
    "▁مکتوب": 4317,
    "▁امیرشاهی": 4318,
    "▁یونسکو": 4319,
    "▁کمبریج": 4320,
    "▁اعصاب": 4321,
    "▁بیاورد": 4322,
    "▁مطلوب": 4323,
    "▁بکشند": 4324,
    "▁اعتراف": 4325,
    "▁۱۹۷۰": 4326,
    "▁تکنیک": 4327,
    "▁مختل": 4328,
    "▁۱۹۴۰": 4329,
    "▁معارف": 4330,
    "▁بدانند": 4331,
    "▁بوکسور": 4332,
    "▁آغوش": 4333,
    "▁ببیند": 4334,
    "▁کریسمس": 4335,
    "▁لامبورگینی": 4336,
    "▁زودهنگام": 4337,
    "▁استراتژی": 4338,
    "▁۲۰۰۴": 4339,
    "▁عقرب": 4340,
    "▁یادبود": 4341,
    "▁رفاه": 4342,
    "▁خلو": 4343,
    "▁پراید": 4344,
    "▁گرمایش": 4345,
    "▁گشود": 4346,
    "▁ضدحمل": 4347,
    "▁ترافیک": 4348,
    "▁انتقادهای": 4349,
    "▁رولینگ": 4350,
    "▁مردگان": 4351,
    "سئول": 4352,
    "▁درس": 4353,
    "▁دارا": 4354,
    "صخره": 4355,
    "▁بنیادی": 4356,
    "قص": 4357,
    "▁اپل": 4358,
    "▁چهاردهم": 4359,
    "▁گرسنگ": 4360,
    "دین": 4361,
    "▁باشم": 4362,
    "▁محکم": 4363,
    "▁ضربات": 4364,
    "رگ": 4365,
    "▁گوی": 4366,
    "▁جزیی": 4367,
    "▁رفتارهای": 4368,
    "▁ریزش": 4369,
    "دوف": 4370,
    "▁پرسی": 4371,
    "▁یکسان": 4372,
    "▁پوشاند": 4373,
    "▁بولت": 4374,
    "▁بلوک": 4375,
    "زده": 4376,
    "▁عل": 4377,
    "▁شهید": 4378,
    "▁شادی": 4379,
    "▁پرتر": 4380,
    "▁لح": 4381,
    "▁نیو": 4382,
    "▁پرآ": 4383,
    "▁۷۴": 4384,
    "▁همانند": 4385,
    "▁الیز": 4386,
    "عی": 4387,
    "▁۸۲": 4388,
    "▁خیال": 4389,
    "انصراف": 4390,
    "▁کردستان": 4391,
    "▁شانزدهم": 4392,
    "▁پائی": 4393,
    "▁منصور": 4394,
    "▁گانه": 4395,
    "▁مصاد": 4396,
    "▁اشیا": 4397,
    "▁دانشجویی": 4398,
    "▁بورگ": 4399,
    "▁قرض": 4400,
    "▁روزمر": 4401,
    "▁ایمان": 4402,
    "جمه": 4403,
    "گبا": 4404,
    "نمایندگان": 4405,
    "▁جوز": 4406,
    "▁سومی": 4407,
    "منابع": 4408,
    "▁نورد": 4409,
    "یچ": 4410,
    "▁۱۷۶": 4411,
    "▁غم": 4412,
    "▁زحمت": 4413,
    "چرا": 4414,
    "نو": 4415,
    "▁وزرا": 4416,
    "▁اسپ": 4417,
    "سایه": 4418,
    "هدف": 4419,
    "گه": 4420,
    "▁درخش": 4421,
    "▁روستایی": 4422,
    "علیرضا": 4423,
    "▁مهندس": 4424,
    "تراشه": 4425,
    "▁۱۹۴": 4426,
    "فدرر": 4427,
    "▁میز": 4428,
    "یمز": 4429,
    "▁سازد": 4430,
    "انا": 4431,
    "▁کمتری": 4432,
    "▁ناامید": 4433,
    "▁برگشته": 4434,
    "▁زبا": 4435,
    "▁شیمی": 4436,
    "▁دعوا": 4437,
    "▁گزارشها": 4438,
    "▁لخت": 4439,
    "اطم": 4440,
    "فون": 4441,
    "▁ادب": 4442,
    "▁منصوری": 4443,
    "▁ذخا": 4444,
    "▁خانواد": 4445,
    "علاو": 4446,
    "انس": 4447,
    "روج": 4448,
    "▁کرام": 4449,
    "گون": 4450,
    "▁ترکمن": 4451,
    "▁قومی": 4452,
    "▁مالکان": 4453,
    "▁درخشانی": 4454,
    "▁سیام": 4455,
    "مرگ": 4456,
    "▁درگذشته": 4457,
    "▁بینیم": 4458,
    "دهنده": 4459,
    "▁کلان": 4460,
    "▁دستاورد": 4461,
    "▁ماهها": 4462,
    "▁مغاز": 4463,
    "▁کمربند": 4464,
    "▁پیچ": 4465,
    "▁عا": 4466,
    "راب": 4467,
    "الله": 4468,
    "▁خانوار": 4469,
    "▁اک": 4470,
    "▁معیار": 4471,
    "▁فزاینده": 4472,
    "▁واضح": 4473,
    "▁باورنکردنی": 4474,
    "▁وحدت": 4475,
    "▁پیرامون": 4476,
    "▁دادگستری": 4477,
    "▁مضاعف": 4478,
    "▁ورشکست": 4479,
    "▁آوازخوان": 4480,
    "▁گلمکانی": 4481,
    "▁مصلحت": 4482,
    "▁محترم": 4483,
    "▁سوگوار": 4484,
    "▁زیرساخت": 4485,
    "▁سایبری": 4486,
    "▁آویو": 4487,
    "▁آشام": 4488,
    "▁بپردازد": 4489,
    "▁بگذارند": 4490,
    "▁بفتا": 4491,
    "▁بگیرید": 4492,
    "▁۱۹۹۸": 4493,
    "▁احکام": 4494,
    "▁۱۴۰": 4495,
    "▁ناقض": 4496,
    "▁پررنگ": 4497,
    "▁مقر": 4498,
    "▁انستیتو": 4499,
    "▁حباب": 4500,
    "▁تلسکوپ": 4501,
    "▁حساسیت": 4502,
    "لاشه": 4503,
    "▁۱۹۸۰": 4504,
    "▁نیسان": 4505,
    "▁الحسن": 4506,
    "رکاب": 4507,
    "▁ضایع": 4508,
    "▁هستید": 4509,
    "▁ناتوان": 4510,
    "▁۶۸": 4511,
    "▁ادار": 4512,
    "▁نارس": 4513,
    "▁۵۸": 4514,
    "▁دستاوردهای": 4515,
    "▁نشانی": 4516,
    "▁عارف": 4517,
    "▁پیر": 4518,
    "▁متنوع": 4519,
    "▁نمادی": 4520,
    "▁بازخوان": 4521,
    "▁سانتریفیوژهای": 4522,
    "غذی": 4523,
    "اداری": 4524,
    "▁رضایی": 4525,
    "لم": 4526,
    "▁زنجان": 4527,
    "▁استونز": 4528,
    "▁سنبل": 4529,
    "▁نکردند": 4530,
    "▁ماریا": 4531,
    "▁رت": 4532,
    "▁انتخابی": 4533,
    "سابقه": 4534,
    "▁دهید": 4535,
    "▁خران": 4536,
    "▁رسول": 4537,
    "▁نکات": 4538,
    "▁بردارد": 4539,
    "▁فیس": 4540,
    "▁۵۳": 4541,
    "▁فضانوردان": 4542,
    "▁رساندند": 4543,
    "▁دیوی": 4544,
    "نیا": 4545,
    "هنورد": 4546,
    "▁نوار": 4547,
    "▁انتقالات": 4548,
    "▁نوآور": 4549,
    "▁سلام": 4550,
    "▁حتما": 4551,
    "▁بوئنو": 4552,
    "▁فرض": 4553,
    "کاهش": 4554,
    "دترا": 4555,
    "مجلس": 4556,
    "▁داشتیم": 4557,
    "کرد": 4558,
    "▁۵۴": 4559,
    "▁کول": 4560,
    "▁جلالی": 4561,
    "هرانا": 4562,
    "بینی": 4563,
    "▁وجو": 4564,
    "هدیه": 4565,
    "▁سوئ": 4566,
    "رونمای": 4567,
    "▁اکس": 4568,
    "▁بارداری": 4569,
    "▁رویه": 4570,
    "▁پستان": 4571,
    "تاسف": 4572,
    "▁سرا": 4573,
    "▁رانت": 4574,
    "▁کودتای": 4575,
    "▁طب": 4576,
    "▁آرزوی": 4577,
    "ایدو": 4578,
    "مپ": 4579,
    "▁حاد": 4580,
    "▁کاس": 4581,
    "▁انجامید": 4582,
    "اقتصاد": 4583,
    "▁سید": 4584,
    "▁پیا": 4585,
    "▁تاریکی": 4586,
    "▁سالان": 4587,
    "وارد": 4588,
    "▁جهاد": 4589,
    "تیکو": 4590,
    "بانی": 4591,
    "مارادونا": 4592,
    "▁گال": 4593,
    "فعالان": 4594,
    "▁کارگردانان": 4595,
    "▁فین": 4596,
    "▁تیل": 4597,
    "ایب": 4598,
    "کوبی": 4599,
    "▁فرج": 4600,
    "▁بدین": 4601,
    "▁خطای": 4602,
    "رنج": 4603,
    "▁سلطانی": 4604,
    "▁کامپیوتر": 4605,
    "خبر": 4606,
    "▁مدتها": 4607,
    "▁صفرها": 4608,
    "▁دخترش": 4609,
    "ناظر": 4610,
    "▁ذهنی": 4611,
    "امضاکنندگان": 4612,
    "فته": 4613,
    "▁برداشتن": 4614,
    "شماری": 4615,
    "راجر": 4616,
    "▁بریت": 4617,
    "▁استون": 4618,
    "همه": 4619,
    "▁دانشگاهی": 4620,
    "▁لیس": 4621,
    "▁واحدها": 4622,
    "▁فی": 4623,
    "▁تابو": 4624,
    "▁سون": 4625,
    "اثبات": 4626,
    "▁روال": 4627,
    "تولید": 4628,
    "▁۴۷": 4629,
    "▁آفرین": 4630,
    "▁بزرگتر": 4631,
    "▁آنتی": 4632,
    "رخی": 4633,
    "▁کاریر": 4634,
    "راتی": 4635,
    "▁همتای": 4636,
    "▁برف": 4637,
    "▁۱۳۹": 4638,
    "▁جست": 4639,
    "فصل": 4640,
    "▁پاهای": 4641,
    "▁نک": 4642,
    "اکثریت": 4643,
    "▁آمریکای": 4644,
    "▁۷۸": 4645,
    "اقد": 4646,
    "▁جزای": 4647,
    "▁شنیدن": 4648,
    "▁۱۹۰": 4649,
    "اف": 4650,
    "▁سرنشین": 4651,
    "کت": 4652,
    "▁شاهکار": 4653,
    "▁فرانک": 4654,
    "▁منظر": 4655,
    "▁ناب": 4656,
    "ایح": 4657,
    "▁جعل": 4658,
    "▁پناه": 4659,
    "▁اخلاق": 4660,
    "▁جامائیکا": 4661,
    "▁دگرگون": 4662,
    "▁زاناردی": 4663,
    "▁اتوبوس": 4664,
    "▁بوچانی": 4665,
    "▁سرتاسر": 4666,
    "▁غرامت": 4667,
    "▁کادرفنی": 4668,
    "▁وروورت": 4669,
    "▁مشکوک": 4670,
    "▁آسوشیتدپرس": 4671,
    "▁تخفیف": 4672,
    "▁پلامر": 4673,
    "▁مشکات": 4674,
    "▁ببینیم": 4675,
    "▁نوازنده": 4676,
    "▁قائدی": 4677,
    "▁گوگ": 4678,
    "▁معافیت": 4679,
    "▁جاهای": 4680,
    "▁پنگوئن": 4681,
    "▁تعمیر": 4682,
    "▁ثانوی": 4683,
    "▁رولز": 4684,
    "▁طعم": 4685,
    "نوش": 4686,
    "بون": 4687,
    "▁آمبول": 4688,
    "▁حاکمیت": 4689,
    "فینیتی": 4690,
    "▁رنجر": 4691,
    "▁انصاریان": 4692,
    "▁ادارات": 4693,
    "▁پرستاران": 4694,
    "▁مرکل": 4695,
    "▁توفان": 4696,
    "▁غیرنظامی": 4697,
    "▁خراب": 4698,
    "▁بیروت": 4699,
    "▁استفانو": 4700,
    "▁ابهام": 4701,
    "▁تبعید": 4702,
    "▁کانادایی": 4703,
    "▁سارس": 4704,
    "▁گلایه": 4705,
    "▁تندرو": 4706,
    "تکب": 4707,
    "▁معوقه": 4708,
    "صره": 4709,
    "صف": 4710,
    "▁۹۴": 4711,
    "▁اعتنا": 4712,
    "▁تبادل": 4713,
    "▁آرمان": 4714,
    "▁محض": 4715,
    "▁گرفتم": 4716,
    "شا": 4717,
    "▁گودال": 4718,
    "▁پستاندار": 4719,
    "باب": 4720,
    "▁سالیوان": 4721,
    "▁ندیده": 4722,
    "▁مغ": 4723,
    "▁ماهشهر": 4724,
    "▁تمدن": 4725,
    "▁پرند": 4726,
    "▁لوو": 4727,
    "رخ": 4728,
    "▁شغلی": 4729,
    "▁عزم": 4730,
    "▁صریح": 4731,
    "▁نویسندگ": 4732,
    "نصف": 4733,
    "▁قبال": 4734,
    "▁لاپورتا": 4735,
    "ظیف": 4736,
    "شش": 4737,
    "چهار": 4738,
    "▁بالگرد": 4739,
    "▁کاربرد": 4740,
    "▁آرش": 4741,
    "▁نمانده": 4742,
    "▁ندانست": 4743,
    "▁فضلی": 4744,
    "▁رایزن": 4745,
    "▁گذاشتند": 4746,
    "چرخه": 4747,
    "▁الگوی": 4748,
    "▁قم": 4749,
    "▁قطعات": 4750,
    "مکعب": 4751,
    "▁میهمان": 4752,
    "▁سیر": 4753,
    "عارض": 4754,
    "▁مستقیما": 4755,
    "▁کرج": 4756,
    "▁ژو": 4757,
    "▁رسم": 4758,
    "تنها": 4759,
    "▁ریچارد": 4760,
    "▁دنیاست": 4761,
    "رات": 4762,
    "▁الکل": 4763,
    "آغاز": 4764,
    "مانع": 4765,
    "▁خل": 4766,
    "میم": 4767,
    "▁۱۹۷": 4768,
    "▁پانزدهم": 4769,
    "▁دوازدهم": 4770,
    "▁زایی": 4771,
    "▁مست": 4772,
    "▁نزدیکان": 4773,
    "▁۱۹۵": 4774,
    "▁سکت": 4775,
    "۹۹": 4776,
    "حق": 4777,
    "▁میلیاردر": 4778,
    "▁افتادن": 4779,
    "▁لیست": 4780,
    "▁صاف": 4781,
    "پرسپولیس": 4782,
    "▁سطو": 4783,
    "▁تدری": 4784,
    "۲۰۰": 4785,
    "وکی": 4786,
    "▁ایکس": 4787,
    "واکنش": 4788,
    "برگزار": 4789,
    "▁گیل": 4790,
    "▁نکردن": 4791,
    "خورده": 4792,
    "▁اد": 4793,
    "▁ویرجی": 4794,
    "بادی": 4795,
    "▁احساسی": 4796,
    "خت": 4797,
    "پر": 4798,
    "هام": 4799,
    "چلسی": 4800,
    "سب": 4801,
    "▁پاکستانی": 4802,
    "سرعت": 4803,
    "ویر": 4804,
    "رهبر": 4805,
    "دالله": 4806,
    "▁گردشگر": 4807,
    "▁فردین": 4808,
    "▁وار": 4809,
    "▁دیو": 4810,
    "۰۰۰": 4811,
    "▁فخر": 4812,
    "▁مال": 4813,
    "مجانی": 4814,
    "▁میلاد": 4815,
    "▁ارگ": 4816,
    "▁اکبری": 4817,
    "▁شانزده": 4818,
    "▁دوش": 4819,
    "▁۱۹۶۰": 4820,
    "▁چیزهای": 4821,
    "▁جوش": 4822,
    "▁۱۶۰": 4823,
    "سیتی": 4824,
    "فرج": 4825,
    "▁بهانه": 4826,
    "لاق": 4827,
    "پاتی": 4828,
    "▁موجودی": 4829,
    "▁تار": 4830,
    "▁نابود": 4831,
    "▁هرکس": 4832,
    "رود": 4833,
    "▁خر": 4834,
    "لیون": 4835,
    "ندگان": 4836,
    "▁جنگند": 4837,
    "▁نق": 4838,
    "▁فال": 4839,
    "لاتین": 4840,
    "تاپ": 4841,
    "▁ماری": 4842,
    "▁نمود": 4843,
    "▁بلو": 4844,
    "طرف": 4845,
    "یسون": 4846,
    "▁دانشجوی": 4847,
    "▁دربار": 4848,
    "▁چاب": 4849,
    "▁بینید": 4850,
    "▁ساترا": 4851,
    "کسین": 4852,
    "▁شع": 4853,
    "▁فروشند": 4854,
    "قرض": 4855,
    "▁صدد": 4856,
    "▁مصا": 4857,
    "▁مشوق": 4858,
    "▁شجاع": 4859,
    "▁اعما": 4860,
    "▁رخداد": 4861,
    "▁مکاتب": 4862,
    "▁رکوردهای": 4863,
    "▁بدنی": 4864,
    "▁ژنو": 4865,
    "▁مصدوم": 4866,
    "▁تشری": 4867,
    "▁شیکاگو": 4868,
    "▁اتیوپی": 4869,
    "▁خنثی": 4870,
    "▁رستگار": 4871,
    "▁رمضان": 4872,
    "▁ملاحظ": 4873,
    "▁مونتاژ": 4874,
    "▁اختراع": 4875,
    "▁لاجورد": 4876,
    "▁زائر": 4877,
    "▁خرچنگ": 4878,
    "▁مسوول": 4879,
    "▁آشپز": 4880,
    "▁ارجاع": 4881,
    "▁بازنگری": 4882,
    "▁ناپدید": 4883,
    "▁بوزمن": 4884,
    "▁کولمن": 4885,
    "▁مکلف": 4886,
    "▁جرایم": 4887,
    "▁سانتیمتر": 4888,
    "▁مثلث": 4889,
    "▁واریز": 4890,
    "▁کلاهبردار": 4891,
    "▁مسموم": 4892,
    "▁خدایاری": 4893,
    "▁آنفیلد": 4894,
    "▁احتیاط": 4895,
    "▁معالج": 4896,
    "▁بهبهان": 4897,
    "▁تصاحب": 4898,
    "▁اسرار": 4899,
    "▁زیدان": 4900,
    "▁آثارش": 4901,
    "▁تام": 4902,
    "▁ماندگار": 4903,
    "▁عثمان": 4904,
    "▁قائم": 4905,
    "▁نعمت": 4906,
    "▁پالاس": 4907,
    "▁هالپ": 4908,
    "▁سیارک": 4909,
    "▁خادم": 4910,
    "▁مبالغ": 4911,
    "▁ببرند": 4912,
    "▁سامان": 4913,
    "▁هرمز": 4914,
    "▁طارمی": 4915,
    "▁پایبند": 4916,
    "▁فروغ": 4917,
    "▁نامگذاری": 4918,
    "▁کانری": 4919,
    "▁مسافت": 4920,
    "▁خرس": 4921,
    "▁بازنشستگی": 4922,
    "▁یوگا": 4923,
    "دغدغه": 4924,
    "▁جغرافیای": 4925,
    "برید": 4926,
    "▁غفوری": 4927,
    "▁جف": 4928,
    "▁والدین": 4929,
    "مول": 4930,
    "▁گذراندن": 4931,
    "▁رانندگی": 4932,
    "▁فتاح": 4933,
    "▁خوشبخت": 4934,
    "▁ندهد": 4935,
    "▁عاشقانه": 4936,
    "▁مخلو": 4937,
    "واره": 4938,
    "▁سل": 4939,
    "▁زهره": 4940,
    "▁اقتصاددان": 4941,
    "▁اعطا": 4942,
    "۷۰": 4943,
    "سانی": 4944,
    "▁فیروز": 4945,
    "▁مستندساز": 4946,
    "▁بانکها": 4947,
    "▁برعکس": 4948,
    "▁بوئین": 4949,
    "زنی": 4950,
    "▁گلوب": 4951,
    "▁بچ": 4952,
    "▁باختند": 4953,
    "▁گذارند": 4954,
    "▁پیتر": 4955,
    "▁معنا": 4956,
    "زاب": 4957,
    "▁کیفر": 4958,
    "▁معاش": 4959,
    "▁توریست": 4960,
    "▁حضرت": 4961,
    "▁نداشتم": 4962,
    "▁اسکو": 4963,
    "▁خلیل": 4964,
    "▁سالیانه": 4965,
    "▁پویا": 4966,
    "▁بقای": 4967,
    "▁ریالی": 4968,
    "▁اعظم": 4969,
    "▁مبا": 4970,
    "▁چرب": 4971,
    "▁تاکتیکی": 4972,
    "▁احس": 4973,
    "▁شرم": 4974,
    "▁خوانی": 4975,
    "▁نیاورد": 4976,
    "▁ردیاب": 4977,
    "تهران": 4978,
    "▁نوشتند": 4979,
    "▁۸۳": 4980,
    "▁نامی": 4981,
    "رینگ": 4982,
    "▁دینی": 4983,
    "▁تیک": 4984,
    "دید": 4985,
    "۴۶": 4986,
    "▁یخی": 4987,
    "پتون": 4988,
    "▁نس": 4989,
    "▁نفری": 4990,
    "▁سرش": 4991,
    "▁جانش": 4992,
    "کرونا": 4993,
    "▁کت": 4994,
    "▁شناسد": 4995,
    "ندان": 4996,
    "▁ادوارد": 4997,
    "یرت": 4998,
    "▁هل": 4999,
    "▁دم": 5000,
    "گرفته": 5001,
    "▁مای": 5002,
    "فع": 5003,
    "▁سوا": 5004,
    "رانه": 5005,
    "▁خار": 5006,
    "▁تخصص": 5007,
    "▁کیت": 5008,
    "▁تعهداتش": 5009,
    "▁هفدهم": 5010,
    "خواهند": 5011,
    "▁یگان": 5012,
    "▁آندری": 5013,
    "سوم": 5014,
    "▁وظایف": 5015,
    "▁تالا": 5016,
    "تحول": 5017,
    "واد": 5018,
    "▁استیون": 5019,
    "ناب": 5020,
    "کید": 5021,
    "سیلوا": 5022,
    "▁تعل": 5023,
    "دال": 5024,
    "▁انوش": 5025,
    "▁فرهنگیان": 5026,
    "جمعیت": 5027,
    "یوان": 5028,
    "دونالد": 5029,
    "مسی": 5030,
    "لات": 5031,
    "(": 5032,
    "ستانگ": 5033,
    "▁شوش": 5034,
    "مسئولان": 5035,
    "شدیدترین": 5036,
    "▁مواقع": 5037,
    "غلام": 5038,
    "کانادا": 5039,
    "رافائل": 5040,
    "محمدجواد": 5041,
    "▁کودتا": 5042,
    "▁مهل": 5043,
    "ویکتور": 5044,
    "▁همکار": 5045,
    "▁عواقب": 5046,
    "▁دانشجو": 5047,
    "▁بیل": 5048,
    "تنوع": 5049,
    "▁برتری": 5050,
    "اظ": 5051,
    "▁ضر": 5052,
    "قدرت": 5053,
    "▁عالم": 5054,
    "مارک": 5055,
    "▁نیا": 5056,
    "شر": 5057,
    "▁میرزا": 5058,
    "▁ظ": 5059,
    "▁کارتو": 5060,
    "▁سیار": 5061,
    "▁نوین": 5062,
    "سپاری": 5063,
    "الکس": 5064,
    "▁۵۱": 5065,
    "▁ون": 5066,
    "غه": 5067,
    "▁سوری": 5068,
    "▁گفتگوهای": 5069,
    "▁سالی": 5070,
    "نج": 5071,
    "▁آشنای": 5072,
    "▁یار": 5073,
    "▁فرزندش": 5074,
    "▁مگا": 5075,
    "▁۱۹۳": 5076,
    "▁رنگی": 5077,
    "▁اسپی": 5078,
    "بند": 5079,
    "ژان": 5080,
    "عشی": 5081,
    "▁درج": 5082,
    "▁دادم": 5083,
    "رشاد": 5084,
    "ائل": 5085,
    "لس": 5086,
    "▁میکل": 5087,
    "حقق": 5088,
    "▁۱۷۰": 5089,
    "صدایی": 5090,
    "▁۷۶": 5091,
    "▁جولی": 5092,
    "▁پهپاد": 5093,
    "▁ته": 5094,
    "۲۳": 5095,
    "▁علاقمند": 5096,
    "واز": 5097,
    "▁سانتریفیوژ": 5098,
    "▁بوفالو": 5099,
    "▁هکرها": 5100,
    "▁متحدان": 5101,
    "▁احمدشا": 5102,
    "▁کالای": 5103,
    "بالغ": 5104,
    "نفتی": 5105,
    "▁آلومینیوم": 5106,
    "▁پومپئو": 5107,
    "▁چرنکوف": 5108,
    "▁جاذبه": 5109,
    "▁مظنون": 5110,
    "▁دانچیچ": 5111,
    "▁مصیبت": 5112,
    "▁وحشتناک": 5113,
    "▁تفسیر": 5114,
    "▁البرز": 5115,
    "▁مستاجر": 5116,
    "▁اقتدار": 5117,
    "▁گاگا": 5118,
    "▁هواشناسی": 5119,
    "▁فحش": 5120,
    "▁گیگز": 5121,
    "▁فرسایش": 5122,
    "▁بفروشد": 5123,
    "▁رژیم": 5124,
    "▁آپارتمان": 5125,
    "▁مرضیه": 5126,
    "مایک": 5127,
    "▁سازوکار": 5128,
    "▁الماس": 5129,
    "▁عنصر": 5130,
    "▁پیشکسوت": 5131,
    "▁امواج": 5132,
    "▁مجاهد": 5133,
    "▁وودز": 5134,
    "▁تایتان": 5135,
    "▁نادری": 5136,
    "▁فرایند": 5137,
    "ولت": 5138,
    "▁تکامل": 5139,
    "▁کلمات": 5140,
    "▁فطر": 5141,
    "▁فلسطینیان": 5142,
    "▁عسل": 5143,
    "▁۶۱": 5144,
    "▁گابریل": 5145,
    "▁کدخدایی": 5146,
    "▁اشکال": 5147,
    "▁علایم": 5148,
    "▁اشعار": 5149,
    "خاذ": 5150,
    "انکن": 5151,
    "▁جونیور": 5152,
    "▁ایسلند": 5153,
    "▁ژیمناست": 5154,
    "▁ببر": 5155,
    "▁کارگزار": 5156,
    "▁شناگر": 5157,
    "۲۴": 5158,
    "▁فجر": 5159,
    "مع": 5160,
    "▁نوزادان": 5161,
    "پا": 5162,
    "▁منظم": 5163,
    "▁جرد": 5164,
    "▁نیجر": 5165,
    "▁گواهی": 5166,
    "▁گردش": 5167,
    "▁گرامی": 5168,
    "▁مخصوصا": 5169,
    "▁کوپتر": 5170,
    "▁۸۵": 5171,
    "لور": 5172,
    "▁جیپ": 5173,
    "▁ماشه": 5174,
    "▁انداختند": 5175,
    "▁عزیزان": 5176,
    "پای": 5177,
    "▁جلد": 5178,
    "▁خشن": 5179,
    "▁افسران": 5180,
    "▁سکسک": 5181,
    "▁مثل": 5182,
    "▁عرف": 5183,
    "▁تابعیت": 5184,
    "▁مغول": 5185,
    "اوش": 5186,
    "▁مهندسان": 5187,
    "▁رامش": 5188,
    "▁کنی": 5189,
    "۴۰": 5190,
    "▁جعفری": 5191,
    "مای": 5192,
    "بخشی": 5193,
    "▁ریل": 5194,
    "▁بشریت": 5195,
    "▁ویدیوهای": 5196,
    "▁مزایای": 5197,
    "▁شمایل": 5198,
    "▁قبر": 5199,
    "▁ذ": 5200,
    "▁پارکر": 5201,
    "▁فشرد": 5202,
    "▁ادعاهای": 5203,
    "▁فابی": 5204,
    "وانند": 5205,
    "▁لرز": 5206,
    "▁ابلاغی": 5207,
    "یع": 5208,
    "▁کوب": 5209,
    "خواهید": 5210,
    "لمپ": 5211,
    "▁شایست": 5212,
    "▁قید": 5213,
    "▁شهریار": 5214,
    "▁علوی": 5215,
    "شو": 5216,
    "اران": 5217,
    "▁نشدند": 5218,
    "▁سالمند": 5219,
    "رتر": 5220,
    "▁رخت": 5221,
    "▁گویم": 5222,
    "دخت": 5223,
    "▁گور": 5224,
    "▁کلیسای": 5225,
    "گفتگو": 5226,
    "▁پرت": 5227,
    "▁قرمزها": 5228,
    "بل": 5229,
    "▁وارن": 5230,
    "بازار": 5231,
    "▁هامر": 5232,
    "۲۰": 5233,
    "▁پال": 5234,
    "▁مند": 5235,
    "۶۰": 5236,
    "جر": 5237,
    "وظ": 5238,
    "▁گردون": 5239,
    "▁بروم": 5240,
    "مار": 5241,
    "▁راکت": 5242,
    "▁نای": 5243,
    "▁حفر": 5244,
    "▁سیم": 5245,
    "▁بوق": 5246,
    "آخری": 5247,
    "▁خوانند": 5248,
    "▁لوکه": 5249,
    "▁آما": 5250,
    "عداد": 5251,
    "مسابقات": 5252,
    "نر": 5253,
    "▁هما": 5254,
    "▁رایان": 5255,
    "▁رویس": 5256,
    "▁قطعا": 5257,
    "▁داو": 5258,
    "▁وگوهای": 5259,
    "گیل": 5260,
    "▁محرک": 5261,
    "ولان": 5262,
    "▁اموا": 5263,
    "انش": 5264,
    "▁ویزا": 5265,
    "آلمان": 5266,
    "▁استثنا": 5267,
    "▁استادان": 5268,
    "فل": 5269,
    "▁اق": 5270,
    "▁مندان": 5271,
    "آمریکایی": 5272,
    "شکل": 5273,
    "▁مردمی": 5274,
    "وزن": 5275,
    "▁استاندارد": 5276,
    "▁صده": 5277,
    "مو": 5278,
    "ملو": 5279,
    "▁سیمون": 5280,
    "روابط": 5281,
    "▁آرزو": 5282,
    "▁ذی": 5283,
    "▁مز": 5284,
    "کارشناسان": 5285,
    "ویل": 5286,
    "▁صدم": 5287,
    "▁گلی": 5288,
    "▁پار": 5289,
    "▁نیل": 5290,
    "پیروز": 5291,
    "▁رائو": 5292,
    "▁بلی": 5293,
    "▁طیب": 5294,
    "▁بزرگان": 5295,
    "▁شیع": 5296,
    "ائیل": 5297,
    "▁محا": 5298,
    "خوان": 5299,
    "روزنامه": 5300,
    "▁کرمانشاه": 5301,
    "▁اندام": 5302,
    "▁جلال": 5303,
    "▁ماس": 5304,
    "▁برفی": 5305,
    "▁استخوان": 5306,
    "شیپ": 5307,
    "سفر": 5308,
    "حلال": 5309,
    "حرفه": 5310,
    "▁۸۷": 5311,
    "گیر": 5312,
    "▁عمو": 5313,
    "▁ژ": 5314,
    "عادت": 5315,
    "▁لطف": 5316,
    "نیروی": 5317,
    "▁درآمده": 5318,
    "▁حی": 5319,
    "▁۸۱": 5320,
    "یسم": 5321,
    "الیاس": 5322,
    "▁زانوی": 5323,
    "▁دستک": 5324,
    "▁ایوان": 5325,
    "▁تیتر": 5326,
    "▁جاست": 5327,
    "حث": 5328,
    "▁ایا": 5329,
    "▁کین": 5330,
    "رشد": 5331,
    "لوت": 5332,
    "▁فرق": 5333,
    "جانب": 5334,
    "تاب": 5335,
    "▁فول": 5336,
    "۲۸": 5337,
    "ترا": 5338,
    "▁پیشگام": 5339,
    "▁مق": 5340,
    "▁خواستم": 5341,
    "مرز": 5342,
    "دترین": 5343,
    "▁مصر": 5344,
    "▁لوکا": 5345,
    "دندان": 5346,
    "▁تیره": 5347,
    "▁ویدئوی": 5348,
    "نقل": 5349,
    "▁موزیک": 5350,
    "▁شوت": 5351,
    "زانه": 5352,
    "۹۱": 5353,
    "▁المستقبل": 5354,
    "▁لابراتوار": 5355,
    "▁پدافند": 5356,
    "▁ژئوپلیتیک": 5357,
    "▁پولیتزر": 5358,
    "▁بالیوود": 5359,
    "▁کرگدن": 5360,
    "▁تفکیک": 5361,
    "▁ربیعی": 5362,
    "▁ویتنام": 5363,
    "▁ارمنستان": 5364,
    "▁اسراییل": 5365,
    "▁بنتلی": 5366,
    "▁سنگاپور": 5367,
    "▁فروزش": 5368,
    "▁حرکات": 5369,
    "▁نامناسب": 5370,
    "▁نصیب": 5371,
    "▁۱۹۶۶": 5372,
    "▁داغستان": 5373,
    "▁متوفی": 5374,
    "▁حجاب": 5375,
    "▁تعاون": 5376,
    "▁شکارچی": 5377,
    "▁یخچال": 5378,
    "▁نارضای": 5379,
    "▁کفتر": 5380,
    "▁محفظه": 5381,
    "▁۱۹۶۷": 5382,
    "ضاح": 5383,
    "▁خردسال": 5384,
    "▁اذیت": 5385,
    "▁پناهجوی": 5386,
    "▁گردنبند": 5387,
    "▁نوازندگان": 5388,
    "▁قبیل": 5389,
    "▁ابهامات": 5390,
    "▁زادگاهش": 5391,
    "▁دوستداران": 5392,
    "▁عروق": 5393,
    "▁غلط": 5394,
    "▁سازندگی": 5395,
    "▁کارفرمایان": 5396,
    "▁مضر": 5397,
    "▁مسترز": 5398,
    "▁مخفیانه": 5399,
    "وح": 5400,
    "▁مظاهری": 5401,
    "▁لامرد": 5402,
    "رطوب": 5403,
    "اله": 5404,
    "▁نژادپرستانه": 5405,
    "▁دبیرستان": 5406,
    "▁تویوتا": 5407,
    "▁هوندا": 5408,
    "▁۲۰۰۶": 5409,
    "▁قفس": 5410,
    "▁خلوت": 5411,
    "▁منفرد": 5412,
    "▁باثبات": 5413,
    "▁اشنویه": 5414,
    "پرها": 5415,
    "▁۱۳۴": 5416,
    "▁دیدیم": 5417,
    "▁تمرینات": 5418,
    "▁ندادن": 5419,
    "▁امریکا": 5420,
    "آقازاده": 5421,
    "▁متکی": 5422,
    "▁معیارهای": 5423,
    "▁خوشحالم": 5424,
    "▁هشتصد": 5425,
    "▁اسپورت": 5426,
    "▁مایع": 5427,
    "▁فیلیپین": 5428,
    "▁تعویض": 5429,
    "▁سیگار": 5430,
    "▁آلزایمر": 5431,
    "▁انحصار": 5432,
    "▁خرمشهر": 5433,
    "ویچ": 5434,
    "نشین": 5435,
    "▁فرخ": 5436,
    "▁معتمدی": 5437,
    "▁گیلان": 5438,
    "▁شستا": 5439,
    "▁کیا": 5440,
    "▁عرفان": 5441,
    "▁دایر": 5442,
    "▁نمایشنامه": 5443,
    "▁ذات": 5444,
    "لینی": 5445,
    "▁رونالدینیو": 5446,
    "هین": 5447,
    "▁شوخی": 5448,
    "اعلام": 5449,
    "▁کمدی": 5450,
    "▁خبرها": 5451,
    "▁اختیارات": 5452,
    "▁سرمای": 5453,
    "▁فضاپیمای": 5454,
    "۱۷": 5455,
    "۲۹": 5456,
    "▁۶۳": 5457,
    "▁اینستاگرامش": 5458,
    "تلاش": 5459,
    "▁پینگ": 5460,
    "▁امی": 5461,
    "▁بیورن": 5462,
    "▁زنگ": 5463,
    "▁پاتر": 5464,
    "▁تندی": 5465,
    "▁نیش": 5466,
    "▁جنگی": 5467,
    "لین": 5468,
    "▁سینماگران": 5469,
    "▁۸۹": 5470,
    "▁فور": 5471,
    "▁جفت": 5472,
    "▁اپراتورها": 5473,
    "▁اعت": 5474,
    "▁ژنرا": 5475,
    "▁میلی": 5476,
    "رویس": 5477,
    "▁امتیازات": 5478,
    "ژی": 5479,
    "▁بگیر": 5480,
    "▁لیتر": 5481,
    "▁نویسد": 5482,
    "▁خیز": 5483,
    "سلسل": 5484,
    "▁کثیر": 5485,
    "▁مض": 5486,
    "▁متحدانش": 5487,
    "▁بارز": 5488,
    "▁شمس": 5489,
    "▁بازیار": 5490,
    "▁نهایتا": 5491,
    "▁امو": 5492,
    "▁کبد": 5493,
    "▁پیداست": 5494,
    "▁نگر": 5495,
    "اپ": 5496,
    "احی": 5497,
    "▁استدر": 5498,
    "▁دود": 5499,
    "▁ماندند": 5500,
    "▁یوو": 5501,
    "▁خطرات": 5502,
    "▁تابستانی": 5503,
    "▁کشمی": 5504,
    "▁پذیرای": 5505,
    "▁تاجیکان": 5506,
    "▁معین": 5507,
    "▁درز": 5508,
    "روح": 5509,
    "▁درانی": 5510,
    "▁باقر": 5511,
    "▁تیموری": 5512,
    "▁۶۵۰": 5513,
    "▁گا": 5514,
    "سکار": 5515,
    "خوانی": 5516,
    "▁بفهم": 5517,
    "▁پاسخگو": 5518,
    "▁ماخ": 5519,
    "نم": 5520,
    "دلال": 5521,
    "ناک": 5522,
    "واقع": 5523,
    "▁سردار": 5524,
    "▁دوج": 5525,
    "باع": 5526,
    "▁کاوه": 5527,
    "▁بزن": 5528,
    "جاد": 5529,
    "▁لیدی": 5530,
    "▁برجا": 5531,
    "▁دهلی": 5532,
    "▁شعبان": 5533,
    "▁قا": 5534,
    "▁عکاسان": 5535,
    "داشته": 5536,
    "هادی": 5537,
    "نزا": 5538,
    "▁انتها": 5539,
    "قو": 5540,
    "مر": 5541,
    "جویی": 5542,
    "مز": 5543,
    "مص": 5544,
    "▁بارور": 5545,
    "لندر": 5546,
    "اطلاعات": 5547,
    "▁ممیز": 5548,
    "▁اپرای": 5549,
    "▁سومو": 5550,
    "شنگ": 5551,
    "▁عزیز": 5552,
    "آژانس": 5553,
    "علت": 5554,
    "کمتر": 5555,
    "یز": 5556,
    "انتشار": 5557,
    "▁صدایش": 5558,
    "▁کشتن": 5559,
    "▁ریو": 5560,
    "▁موس": 5561,
    "نصر": 5562,
    "۶۳": 5563,
    "▁سفی": 5564,
    "پذیر": 5565,
    "تحقیقات": 5566,
    "ورهای": 5567,
    "▁هراس": 5568,
    "کارگران": 5569,
    "▁برهم": 5570,
    "کیو": 5571,
    "گوف": 5572,
    "▁گودا": 5573,
    "موسس": 5574,
    "▁مغزش": 5575,
    "سری": 5576,
    "خامن": 5577,
    "اسپانیا": 5578,
    "سایت": 5579,
    "جراح": 5580,
    "رگس": 5581,
    "مطابق": 5582,
    "ارزش": 5583,
    "نیچ": 5584,
    "همیلتون": 5585,
    "اتریش": 5586,
    "▁ویدئو": 5587,
    "اداره": 5588,
    "▁بور": 5589,
    "▁رومانی": 5590,
    "▁پیگیر": 5591,
    "یلیون": 5592,
    "▁لاس": 5593,
    "▁استعمار": 5594,
    "▁وگوها": 5595,
    "▁کروناست": 5596,
    "بع": 5597,
    "▁۹۲": 5598,
    "▁رنو": 5599,
    "ویس": 5600,
    "▁پهلو": 5601,
    "تصاویر": 5602,
    "▁توس": 5603,
    "▁کشم": 5604,
    "▁نیکلا": 5605,
    "سوزی": 5606,
    "▁پسرم": 5607,
    "رح": 5608,
    "▁درام": 5609,
    "▁اقبال": 5610,
    "▁کولبر": 5611,
    "▁تونس": 5612,
    "▁تبع": 5613,
    "▁تحرک": 5614,
    "نتی": 5615,
    "ضرر": 5616,
    "▁رسن": 5617,
    "فا": 5618,
    "▁نظرهای": 5619,
    "▁اتل": 5620,
    "زین": 5621,
    "درفتار": 5622,
    "▁درو": 5623,
    "وهان": 5624,
    "▁لق": 5625,
    "برگر": 5626,
    "▁باردار": 5627,
    "زاری": 5628,
    "▁پراکن": 5629,
    "▁فار": 5630,
    "▁تخل": 5631,
    "نها": 5632,
    "▁ژاک": 5633,
    "سلیم": 5634,
    "▁۱۸۵": 5635,
    "▁چارل": 5636,
    "▁ترسن": 5637,
    "▁گریه": 5638,
    "▁ساعته": 5639,
    "▁سفرها": 5640,
    "▁گنجی": 5641,
    "▁فای": 5642,
    "بهم": 5643,
    "▁طرفی": 5644,
    "رالله": 5645,
    "▁لبنانی": 5646,
    "ابق": 5647,
    "▁عمد": 5648,
    "▁کمپ": 5649,
    "▁متغیر": 5650,
    "روسیا": 5651,
    "لپ": 5652,
    "▁۸۶": 5653,
    "▁مخاطب": 5654,
    "رم": 5655,
    "▁جزئی": 5656,
    "▁انیمیشن": 5657,
    "▁ایوانکوویچ": 5658,
    "▁مستثن": 5659,
    "▁بلانشت": 5660,
    "▁ابرنواختر": 5661,
    "▁رئوف": 5662,
    "▁رولزرویس": 5663,
    "▁خاشقچی": 5664,
    "▁راهپیمایی": 5665,
    "▁غیرمجاز": 5666,
    "▁وگاس": 5667,
    "▁آرتتا": 5668,
    "▁فکاهی": 5669,
    "▁جوامع": 5670,
    "▁ذیبخش": 5671,
    "▁سرماخورد": 5672,
    "▁هیدرو": 5673,
    "▁عتیق": 5674,
    "▁تعزیری": 5675,
    "▁گریبان": 5676,
    "▁اتصال": 5677,
    "▁مطلبی": 5678,
    "▁شکستن": 5679,
    "▁۱۹۷۳": 5680,
    "▁کالبد": 5681,
    "▁دول": 5682,
    "▁کالینز": 5683,
    "▁کلارک": 5684,
    "▁بدهکار": 5685,
    "▁کج": 5686,
    "▁پیکولی": 5687,
    "▁پردرآمد": 5688,
    "▁بیافتد": 5689,
    "▁سلتیک": 5690,
    "▁نپال": 5691,
    "▁طناب": 5692,
    "▁پابند": 5693,
    "▁الاجل": 5694,
    "▁سازندگان": 5695,
    "▁بنشیند": 5696,
    "▁مختاری": 5697,
    "▁روانشناس": 5698,
    "▁انباشت": 5699,
    "▁معلم": 5700,
    "▁مکمل": 5701,
    "▁بارچا": 5702,
    "▁عصبانی": 5703,
    "▁معاف": 5704,
    "▁حوض": 5705,
    "همین": 5706,
    "▁تهاجمی": 5707,
    "▁فروشندگان": 5708,
    "▁جیل": 5709,
    "▁مسال": 5710,
    "▁تلفات": 5711,
    "▁رخشانه": 5712,
    "▁مطالبات": 5713,
    "▁خیام": 5714,
    "▁ناپولی": 5715,
    "▁نامجو": 5716,
    "▁حسرت": 5717,
    "▁کادیس": 5718,
    "▁سرشار": 5719,
    "▁گویی": 5720,
    "زادگان": 5721,
    "▁قدردان": 5722,
    "▁مساحت": 5723,
    "▁هاپک": 5724,
    "▁برسند": 5725,
    "▁رایگان": 5726,
    "▁کریم": 5727,
    "▁خویش": 5728,
    "▁گره": 5729,
    "▁گناه": 5730,
    "▁تصدی": 5731,
    "وخامت": 5732,
    "▁کنزو": 5733,
    "▁نیستم": 5734,
    "▁ادل": 5735,
    "قبل": 5736,
    "لوب": 5737,
    "▁یابند": 5738,
    "▁سیبری": 5739,
    "▁مسترد": 5740,
    "▁صرب": 5741,
    "▁شانگ": 5742,
    "▁هیولای": 5743,
    "▁شهرک": 5744,
    "لف": 5745,
    "لای": 5746,
    "▁متولی": 5747,
    "۵۸": 5748,
    "▁انگیزترین": 5749,
    "▁ایال": 5750,
    "▁آموز": 5751,
    "▁ناوگان": 5752,
    "ارت": 5753,
    "▁پادمان": 5754,
    "امین": 5755,
    "▁اشتباهات": 5756,
    "▁سازه": 5757,
    "▁کوپا": 5758,
    "▁دلتا": 5759,
    "زگی": 5760,
    "▁نوا": 5761,
    "▁محتوی": 5762,
    "▁خوابی": 5763,
    "▁وحشت": 5764,
    "▁معاین": 5765,
    "▁کاوا": 5766,
    "▁اصلاحی": 5767,
    "بورد": 5768,
    "▁عط": 5769,
    "▁امپراتوری": 5770,
    "▁توقع": 5771,
    "▁بلک": 5772,
    "هره": 5773,
    "ونیست": 5774,
    "دورو": 5775,
    "▁صمیمی": 5776,
    "▁تولیدکنند": 5777,
    "گا": 5778,
    "جهان": 5779,
    "▁آرزوهای": 5780,
    "▁فرحی": 5781,
    "▁شعارهای": 5782,
    "▁پرتو": 5783,
    "▁یاوری": 5784,
    "▁قربان": 5785,
    "▁نگارش": 5786,
    "▁مراود": 5787,
    "▁قوم": 5788,
    "ورا": 5789,
    "▁گردید": 5790,
    "▁سهامدار": 5791,
    "افت": 5792,
    "فیلد": 5793,
    "ائم": 5794,
    "▁پیامک": 5795,
    "تل": 5796,
    "▁اصطلاحا": 5797,
    "▁سبد": 5798,
    "اید": 5799,
    "▁بکند": 5800,
    "فشار": 5801,
    "▁پاد": 5802,
    "▁دیدم": 5803,
    "▁وادار": 5804,
    "پرسینگ": 5805,
    "▁معمای": 5806,
    "▁رشید": 5807,
    "ستیک": 5808,
    "▁مشهورتر": 5809,
    "▁آلبر": 5810,
    "▁سفره": 5811,
    "▁لحن": 5812,
    "▁خوست": 5813,
    "تعداد": 5814,
    "▁مبارک": 5815,
    "▁عمدی": 5816,
    "دلیل": 5817,
    "▁رحمت": 5818,
    "▁تح": 5819,
    "شما": 5820,
    "تم": 5821,
    "▁ارگان": 5822,
    "▁بله": 5823,
    "▁گلو": 5824,
    "▁اصولگرای": 5825,
    "▁معاهد": 5826,
    "▁قاتل": 5827,
    "▁گرای": 5828,
    "▁الی": 5829,
    "▁میکروب": 5830,
    "▁روحی": 5831,
    "صاب": 5832,
    "ریت": 5833,
    "▁باریک": 5834,
    "▁پینک": 5835,
    "▁ساری": 5836,
    "جل": 5837,
    "▁سوگ": 5838,
    "▁کادی": 5839,
    "▁غل": 5840,
    "▁کرایس": 5841,
    "انتخابات": 5842,
    "▁بسیج": 5843,
    "▁مینیاتور": 5844,
    "جیب": 5845,
    "دفتر": 5846,
    "▁حریم": 5847,
    "▁کلاه": 5848,
    "ائب": 5849,
    "▁نزدیکتر": 5850,
    "▁جورجی": 5851,
    "▁همخوان": 5852,
    "▁ریاضی": 5853,
    "صول": 5854,
    "شت": 5855,
    "سیو": 5856,
    "▁بازوی": 5857,
    "▁قوت": 5858,
    "دیدار": 5859,
    "نشان": 5860,
    "▁سنگر": 5861,
    "▁مبت": 5862,
    "تخصصی": 5863,
    "مذاکرات": 5864,
    "▁۱۸۰": 5865,
    "▁طاق": 5866,
    "ترکیه": 5867,
    "▁مزای": 5868,
    "▁شون": 5869,
    "▁افق": 5870,
    "نوعی": 5871,
    "▁حام": 5872,
    "بورس": 5873,
    "نشست": 5874,
    "▁۸۸": 5875,
    "▁رفتم": 5876,
    "ورت": 5877,
    "استرالیا": 5878,
    "▁نرفت": 5879,
    "صل": 5880,
    "▁کلو": 5881,
    "گوئر": 5882,
    "▁مایل": 5883,
    "▁ران": 5884,
    "هی": 5885,
    "▁اجتماع": 5886,
    "وفون": 5887,
    "▁سفارشی": 5888,
    "▁مسافری": 5889,
    "بان": 5890,
    "▁خم": 5891,
    "الت": 5892,
    "▁فهم": 5893,
    "منظور": 5894,
    "نان": 5895,
    "▁ناصری": 5896,
    "▁محسوس": 5897,
    "خواست": 5898,
    "منازع": 5899,
    "رف": 5900,
    "مزمن": 5901,
    "ارث": 5902,
    "هماهنگ": 5903,
    "شتم": 5904,
    "▁مباد": 5905,
    "▁مسیح": 5906,
    "صالح": 5907,
    "شنا": 5908,
    "کاوه": 5909,
    "▁تاکتیک": 5910,
    "▁فرستد": 5911,
    "بته": 5912,
    "منی": 5913,
    "▁فریب": 5914,
    "▁کوس": 5915,
    "بحث": 5916,
    "▁گفتن": 5917,
    "▁دوری": 5918,
    "▁دادخواه": 5919,
    "عان": 5920,
    "▁۳۲۰": 5921,
    "▁رکوردها": 5922,
    "خوشایند": 5923,
    "▁هول": 5924,
    "▁یاب": 5925,
    "یاپی": 5926,
    "▁ساع": 5927,
    "▁معا": 5928,
    "▁گردانند": 5929,
    "شم": 5930,
    "سپری": 5931,
    "ومبل": 5932,
    "▁هریس": 5933,
    "▁مصرفی": 5934,
    "نشینی": 5935,
    "نتیج": 5936,
    "رتب": 5937,
    "انت": 5938,
    "ذل": 5939,
    "▁سرب": 5940,
    "اسکو": 5941,
    "▁بون": 5942,
    "رسیدن": 5943,
    "▁تق": 5944,
    "▁مادی": 5945,
    "ایه": 5946,
    "ستین": 5947,
    "▁گرما": 5948,
    "▁رز": 5949,
    "▁سیاستمدار": 5950,
    "ایل": 5951,
    "تصور": 5952,
    "▁لوی": 5953,
    "▁خانمان": 5954,
    "▁ول": 5955,
    "برآورد": 5956,
    "▁تسهیل": 5957,
    "تینو": 5958,
    "قدس": 5959,
    "▁قی": 5960,
    "▁بلایندرز": 5961,
    "▁رفسنجان": 5962,
    "▁آبراموویچ": 5963,
    "▁بلغارستان": 5964,
    "▁ضوابط": 5965,
    "▁لومامبا": 5966,
    "▁الگوریتم": 5967,
    "▁طغیان": 5968,
    "▁مقتدر": 5969,
    "▁مائوریت": 5970,
    "▁زاکانی": 5971,
    "▁تضاد": 5972,
    "▁خشمگین": 5973,
    "▁اصالت": 5974,
    "ژورنال": 5975,
    "▁جهرمی": 5976,
    "▁ارتقا": 5977,
    "▁برسانند": 5978,
    "▁واجد": 5979,
    "▁حرارت": 5980,
    "▁مقد": 5981,
    "▁برشمرد": 5982,
    "▁پاراگوئه": 5983,
    "▁خلوتگر": 5984,
    "▁فرنود": 5985,
    "▁استقراض": 5986,
    "▁معلولیت": 5987,
    "تصاعد": 5988,
    "▁کاشف": 5989,
    "▁گرافیک": 5990,
    "▁برگردند": 5991,
    "▁بیولوژیک": 5992,
    "▁اینجا": 5993,
    "▁بغلان": 5994,
    "▁قرائت": 5995,
    "▁کاران": 5996,
    "▁۱۹۲۰": 5997,
    "▁۱۳۵۰": 5998,
    "▁بخرد": 5999,
    "▁اسمیت": 6000,
    "▁ریاضیات": 6001,
    "▁تنگنا": 6002,
    "▁لگن": 6003,
    "▁تحق": 6004,
    "بدا": 6005,
    "▁تلویح": 6006,
    "دند": 6007,
    "▁کلانتری": 6008,
    "▁آث": 6009,
    "چهل": 6010,
    "▁تأسیس": 6011,
    "▁سولشر": 6012,
    "▁بازتاب": 6013,
    "▁سردرگم": 6014,
    "▁لشگر": 6015,
    "▁ریسک": 6016,
    "▁بگویند": 6017,
    "▁کیلوولت": 6018,
    "▁دستیار": 6019,
    "▁جناح": 6020,
    "▁داش": 6021,
    "لاله": 6022,
    "▁کوهنورد": 6023,
    "سطی": 6024,
    "▁اندرکاران": 6025,
    "▁بصر": 6026,
    "بپرس": 6027,
    "کنون": 6028,
    "▁پورتو": 6029,
    "▁معلمان": 6030,
    "پرس": 6031,
    "▁ترابی": 6032,
    "عفون": 6033,
    "بیب": 6034,
    "▁متروکه": 6035,
    "▁دوتار": 6036,
    "پائولو": 6037,
    "▁شکننده": 6038,
    "حض": 6039,
    "▁صید": 6040,
    "▁بذر": 6041,
    "▁استقامت": 6042,
    "▁ونگر": 6043,
    "▁پیرلو": 6044,
    "▁غیبت": 6045,
    "▁مورل": 6046,
    "▁اشخاص": 6047,
    "▁پریش": 6048,
    "▁پوشان": 6049,
    "▁مسبب": 6050,
    "▁گردیم": 6051,
    "▁سرگردان": 6052,
    "▁کاتال": 6053,
    "▁مرادی": 6054,
    "▁کانل": 6055,
    "▁فوتبالی": 6056,
    "▁برآمد": 6057,
    "▁پیشگامان": 6058,
    "▁شخصا": 6059,
    "▁محبوبی": 6060,
    "ظه": 6061,
    "▁هولم": 6062,
    "▁لندرو": 6063,
    "▁انکار": 6064,
    "▁۱۳۹۰": 6065,
    "أی": 6066,
    "▁مهمانان": 6067,
    "▁راستش": 6068,
    "تصویر": 6069,
    "پوچ": 6070,
    "▁سینماگر": 6071,
    "حصول": 6072,
    "▁قاب": 6073,
    "▁عظیمی": 6074,
    "▁گدار": 6075,
    "▁نامشخص": 6076,
    "▁برگردانده": 6077,
    "▁اقیانوسیه": 6078,
    "▁کیمن": 6079,
    "۶۷": 6080,
    "▁دستی": 6081,
    "▁متخلفان": 6082,
    "▁انداختن": 6083,
    "ژ": 6084,
    "▁عمیقا": 6085,
    "زیه": 6086,
    "▁کلدی": 6087,
    "▁فورا": 6088,
    "▁جع": 6089,
    "▁مبد": 6090,
    "▁جواهر": 6091,
    "▁فلور": 6092,
    "▁یکبار": 6093,
    "▁درشت": 6094,
    "▁القا": 6095,
    "▁شل": 6096,
    "▁پروازهایش": 6097,
    "▁بدوی": 6098,
    "▁وگوی": 6099,
    "▁بدنش": 6100,
    "▁اله": 6101,
    "▁منظره": 6102,
    "روند": 6103,
    "▁اسعد": 6104,
    "▁پژو": 6105,
    "فظ": 6106,
    "تاج": 6107,
    "▁مینا": 6108,
    "▁بازنده": 6109,
    "▁یزد": 6110,
    "ملک": 6111,
    "▁جراحان": 6112,
    "▁جد": 6113,
    "▁چای": 6114,
    "▁آلایند": 6115,
    "▁رقبای": 6116,
    "باز": 6117,
    "▁۷۹": 6118,
    "سخ": 6119,
    "▁هوادارانش": 6120,
    "کام": 6121,
    "سخت": 6122,
    "▁شام": 6123,
    "مکش": 6124,
    "▁نخب": 6125,
    "▁ژی": 6126,
    "▁رون": 6127,
    "▁دانشگر": 6128,
    "میلیون": 6129,
    "▁لطفی": 6130,
    "گروهی": 6131,
    "رش": 6132,
    "یونان": 6133,
    "گشاد": 6134,
    "▁هرجا": 6135,
    "▁جراحت": 6136,
    "کند": 6137,
    "▁آذری": 6138,
    "▁تون": 6139,
    "▁جنر": 6140,
    "▁بالی": 6141,
    "▁کپ": 6142,
    "ماری": 6143,
    "زمینی": 6144,
    "جیغ": 6145,
    "▁مانند": 6146,
    "ویروس": 6147,
    "▁فهمید": 6148,
    "نکور": 6149,
    "▁بخواهد": 6150,
    "▁سرما": 6151,
    "▁فرزندانش": 6152,
    "▁زی": 6153,
    "ینز": 6154,
    "لیچ": 6155,
    "۲۷": 6156,
    "فلیک": 6157,
    "مپیون": 6158,
    "طرح": 6159,
    "ازما": 6160,
    "دامس": 6161,
    "ادا": 6162,
    "▁همدان": 6163,
    "آر": 6164,
    "نوردی": 6165,
    "ناس": 6166,
    "ارتاک": 6167,
    "صیل": 6168,
    "▁مصم": 6169,
    "▁استر": 6170,
    "▁طل": 6171,
    "▁ولد": 6172,
    "لقی": 6173,
    "درون": 6174,
    "۹۳": 6175,
    "وده": 6176,
    "▁موهای": 6177,
    "وانی": 6178,
    "▁مارکو": 6179,
    "▁۴۵۰": 6180,
    "▁برآورده": 6181,
    "ویک": 6182,
    "۶۱": 6183,
    "▁اسل": 6184,
    "▁اتکا": 6185,
    "خان": 6186,
    "▁۱۳۰": 6187,
    "▁شکوف": 6188,
    "▁رامی": 6189,
    "تحریم": 6190,
    "▁اجت": 6191,
    "اکی": 6192,
    "ریگو": 6193,
    "▁ایندی": 6194,
    "▁آف": 6195,
    "غیب": 6196,
    "▁سنی": 6197,
    "▁عزا": 6198,
    "مورد": 6199,
    "▁تص": 6200,
    "لانتی": 6201,
    "رمان": 6202,
    "▁دراین": 6203,
    "▁هفده": 6204,
    "ژهای": 6205,
    "▁احسا": 6206,
    "▁شوق": 6207,
    "فو": 6208,
    "▁شم": 6209,
    "▁گرانتر": 6210,
    "▁کلور": 6211,
    "▁ریوی": 6212,
    "ارو": 6213,
    "▁توانی": 6214,
    "خواه": 6215,
    "گارت": 6216,
    "▁ادین": 6217,
    "▁آموخت": 6218,
    "▁الهی": 6219,
    "درگذشت": 6220,
    "▁اشت": 6221,
    "جای": 6222,
    "▁بانو": 6223,
    "یسی": 6224,
    "▁حفا": 6225,
    "▁توفیقی": 6226,
    "سکانس": 6227,
    "بازداشت": 6228,
    "▁کنف": 6229,
    "▁راد": 6230,
    "رکورد": 6231,
    "برداری": 6232,
    "اچو": 6233,
    "▁نیکل": 6234,
    "خیر": 6235,
    "▁املا": 6236,
    "گاوا": 6237,
    "انگ": 6238,
    "یونایتد": 6239,
    "▁گردهم": 6240,
    "ایتالیا": 6241,
    "▁رجب": 6242,
    "نتایج": 6243,
    "خطر": 6244,
    "مشخص": 6245,
    "دلان": 6246,
    "قصد": 6247,
    "تاتنهام": 6248,
    "▁جیمی": 6249,
    "▁راهنمای": 6250,
    "سعود": 6251,
    "▁مهمتر": 6252,
    "▁جنای": 6253,
    "▁خاور": 6254,
    "کلوپ": 6255,
    "▁ثا": 6256,
    "▁عزادار": 6257,
    "انجمن": 6258,
    "موج": 6259,
    "▁شورش": 6260,
    "اسماعیل": 6261,
    "▁بنیا": 6262,
    "▁حراست": 6263,
    "مجتب": 6264,
    "فرگوس": 6265,
    "ساسی": 6266,
    "▁قطرک": 6267,
    "آرامکو": 6268,
    "▁گرین": 6269,
    "گرا": 6270,
    "ریچارد": 6271,
    "▁کلم": 6272,
    "▁۱۱۰": 6273,
    "هشدار": 6274,
    "آیا": 6275,
    "بجای": 6276,
    "نگرانی": 6277,
    "تحلیلگر": 6278,
    "لستر": 6279,
    "▁نما": 6280,
    "▁سروی": 6281,
    "▁یادگار": 6282,
    "باند": 6283,
    "یافته": 6284,
    "▁کلیسا": 6285,
    "دادستان": 6286,
    "▁بازده": 6287,
    "▁ناآرام": 6288,
    "زره": 6289,
    "▁نامم": 6290,
    "▁صوت": 6291,
    "جن": 6292,
    "▁تشک": 6293,
    "▁حکمی": 6294,
    "جامع": 6295,
    "▁توق": 6296,
    "برد": 6297,
    "کمی": 6298,
    "لینگ": 6299,
    "یکه": 6300,
    "▁نگرفت": 6301,
    "گراد": 6302,
    "اراک": 6303,
    "کشته": 6304,
    "پوتین": 6305,
    "▁کلر": 6306,
    "▁بیتل": 6307,
    "▁فرز": 6308,
    "گرایی": 6309,
    "ریا": 6310,
    "▁فرح": 6311,
    "▁جاد": 6312,
    "تازه": 6313,
    "▁اعدا": 6314,
    "▁ث": 6315,
    "۴۲": 6316,
    "نگیز": 6317,
    "▁مدرس": 6318,
    "موسیقی": 6319,
    "▁حول": 6320,
    "▁رف": 6321,
    "▁مول": 6322,
    "▁استرس": 6323,
    "▁فشارها": 6324,
    "▁پری": 6325,
    "سنگ": 6326,
    "جام": 6327,
    "▁نماند": 6328,
    "▁خریدن": 6329,
    "▁مسیری": 6330,
    "▁شاگرد": 6331,
    "▁برایت": 6332,
    "▁لاش": 6333,
    "وئرنیک": 6334,
    "▁گارد": 6335,
    "▁جوی": 6336,
    "بندی": 6337,
    "▁معلول": 6338,
    "▁کوبید": 6339,
    "زو": 6340,
    "مادر": 6341,
    "ینی": 6342,
    "▁نوزاد": 6343,
    "تار": 6344,
    "▁مانور": 6345,
    "▁فرانسیس": 6346,
    "▁قدیم": 6347,
    "▁گز": 6348,
    "نجی": 6349,
    "▁یوآ": 6350,
    "▁سیری": 6351,
    "▁درها": 6352,
    "▁احداث": 6353,
    "▁اردکانیان": 6354,
    "▁اورشلیم": 6355,
    "▁مستضعفان": 6356,
    "▁پاختاکور": 6357,
    "▁پلتفرم": 6358,
    "▁اوربیتر": 6359,
    "▁کانگورو": 6360,
    "▁کامبوج": 6361,
    "▁سانتیگراد": 6362,
    "▁اقتباس": 6363,
    "▁کاسموس": 6364,
    "▁ابداع": 6365,
    "▁سیستماتیک": 6366,
    "▁ژنشنگ": 6367,
    "▁امتداد": 6368,
    "▁متمایز": 6369,
    "▁اسپایدر": 6370,
    "▁آنکارا": 6371,
    "▁ماراکانا": 6372,
    "▁ذوالنور": 6373,
    "▁قاعدتا": 6374,
    "▁لشکر": 6375,
    "▁رغبت": 6376,
    "▁آرسن": 6377,
    "▁نیچر": 6378,
    "▁کلروک": 6379,
    "▁سمنان": 6380,
    "▁بدانید": 6381,
    "▁مارسیال": 6382,
    "▁راپینو": 6383,
    "▁جاودان": 6384,
    "▁بسازد": 6385,
    "▁معاد": 6386,
    "▁بفروشند": 6387,
    "▁واگیر": 6388,
    "▁بزوس": 6389,
    "▁نیابد": 6390,
    "▁مکالمات": 6391,
    "▁نورالله": 6392,
    "▁نکشید": 6393,
    "▁شاهرود": 6394,
    "▁گریگوریان": 6395,
    "▁مخرب": 6396,
    "▁پرجمعیت": 6397,
    "▁فرنگی": 6398,
    "▁۱۹۹۵": 6399,
    "وحید": 6400,
    "▁۷۵۲": 6401,
    "▁پاسگاه": 6402,
    "▁لبخندها": 6403,
    "▁هیل": 6404,
    "▁بگذارم": 6405,
    "▁انتصاب": 6406,
    "▁هنگفت": 6407,
    "▁شنوایی": 6408,
    "زیمبا": 6409,
    "▁رکوردشکن": 6410,
    "▁متیو": 6411,
    "▁بخواهید": 6412,
    "▁ابولا": 6413,
    "▁مولف": 6414,
    "▁برایانت": 6415,
    "▁ندهند": 6416,
    "▁سیدنی": 6417,
    "زیان": 6418,
    "▁الاکلنگ": 6419,
    "▁قورباغه": 6420,
    "▁گوهر": 6421,
    "▁موعد": 6422,
    "اهی": 6423,
    "▁معاونان": 6424,
    "▁پیانو": 6425,
    "▁تنیده": 6426,
    "▁سفیددره": 6427,
    "▁تقلب": 6428,
    "▁آرایشگاه": 6429,
    "▁عزت": 6430,
    "▁معلولان": 6431,
    "▁سحرگاه": 6432,
    "▁نورمحمد": 6433,
    "▁قان": 6434,
    "▁ژنوم": 6435,
    "هفتصد": 6436,
    "▁آویز": 6437,
    "▁سریعتر": 6438,
    "▁رودکی": 6439,
    "▁اخترشناس": 6440,
    "▁گوییم": 6441,
    "▁نامعلوم": 6442,
    "▁موریس": 6443,
    "هالیفیلد": 6444,
    "▁بنجام": 6445,
    "▁آسپر": 6446,
    "پو": 6447,
    "▁ایلام": 6448,
    "▁فرندز": 6449,
    "جوزپ": 6450,
    "فرانس": 6451,
    "▁یونسی": 6452,
    "ایف": 6453,
    "▁پذیری": 6454,
    "▁جذابیت": 6455,
    "▁جرج": 6456,
    "میشل": 6457,
    "▁چابک": 6458,
    "رایت": 6459,
    "نفر": 6460,
    "لستون": 6461,
    "▁بدنشان": 6462,
    "خشنود": 6463,
    "▁اسکان": 6464,
    "▁ناقل": 6465,
    "▁پروست": 6466,
    "▁ورزند": 6467,
    "▁هوشیار": 6468,
    "▁فهیم": 6469,
    "▁دورانگو": 6470,
    "▁پردازند": 6471,
    "▁خطا": 6472,
    "▁بگوید": 6473,
    "▁کامیاب": 6474,
    "▁چادر": 6475,
    "مغناطیس": 6476,
    "▁لیبی": 6477,
    "۸۵": 6478,
    "▁جنی": 6479,
    "▁کوشید": 6480,
    "وندی": 6481,
    "▁نف": 6482,
    "▁خوشبین": 6483,
    "تاکنون": 6484,
    "▁اضافی": 6485,
    "▁اکرا": 6486,
    "▁سادگی": 6487,
    "▁کلیپ": 6488,
    "▁جادوی": 6489,
    "▁پیمانکاران": 6490,
    "▁بناها": 6491,
    "▁میلیاردرها": 6492,
    "▁بخشهای": 6493,
    "▁چاق": 6494,
    "▁سکوها": 6495,
    "▁گزینش": 6496,
    "گرنه": 6497,
    "▁کوچه": 6498,
    "▁پرشور": 6499,
    "▁لط": 6500,
    "▁مستع": 6501,
    "▁ساسانی": 6502,
    "▁درمی": 6503,
    "▁غرور": 6504,
    "▁کنیا": 6505,
    "▁گرفتیم": 6506,
    "زیو": 6507,
    "طبی": 6508,
    "▁نایاب": 6509,
    "علم": 6510,
    "▁کشیدند": 6511,
    "▁حواس": 6512,
    "▁لوا": 6513,
    "▁احتیا": 6514,
    "▁پردازی": 6515,
    "ریان": 6516,
    "▁ویروسی": 6517,
    "▁قف": 6518,
    "بینند": 6519,
    "▁کجاست": 6520,
    "کاب": 6521,
    "▁سرف": 6522,
    "▁پسند": 6523,
    "نزل": 6524,
    "تناسب": 6525,
    "▁اخ": 6526,
    "▁نشدنی": 6527,
    "▁کوش": 6528,
    "۷۵": 6529,
    "▁مرت": 6530,
    "▁قاعد": 6531,
    "▁درخشید": 6532,
    "▁شیفت": 6533,
    "سوس": 6534,
    "دمای": 6535,
    "▁کاندیدا": 6536,
    "▁چار": 6537,
    "فتن": 6538,
    "لاب": 6539,
    "ایتون": 6540,
    "دانف": 6541,
    "▁سینو": 6542,
    "▁عینک": 6543,
    "▁محف": 6544,
    "▁قانونگذار": 6545,
    "میدان": 6546,
    "▁پالا": 6547,
    "▁نش": 6548,
    "▁زودرس": 6549,
    "میر": 6550,
    "▁بالاست": 6551,
    "▁دیدند": 6552,
    "▁نظرش": 6553,
    "▁پیامبر": 6554,
    "سلط": 6555,
    "فه": 6556,
    "ادل": 6557,
    "▁آنگل": 6558,
    "لئوپا": 6559,
    "شک": 6560,
    "چر": 6561,
    "▁افزودن": 6562,
    "داده": 6563,
    "▁معما": 6564,
    "وجیه": 6565,
    "▁درسی": 6566,
    "▁داروین": 6567,
    "▁رومانیا": 6568,
    "سیما": 6569,
    "▁مجتب": 6570,
    "▁پسران": 6571,
    "▁گیتار": 6572,
    "▁پنس": 6573,
    "▁دانستن": 6574,
    "▁مهندسی": 6575,
    "▁محو": 6576,
    "مایه": 6577,
    "وویچ": 6578,
    "باتری": 6579,
    "▁ساید": 6580,
    "▁آزمو": 6581,
    "▁ابو": 6582,
    "گذار": 6583,
    "قبره": 6584,
    "▁آنا": 6585,
    "بیه": 6586,
    "▁اولی": 6587,
    "حوال": 6588,
    "ومین": 6589,
    "▁کورت": 6590,
    "بریتانیا": 6591,
    "پیر": 6592,
    "▁حریر": 6593,
    "روازه": 6594,
    "▁مخ": 6595,
    "▁استثنای": 6596,
    "▁حدادی": 6597,
    "جیک": 6598,
    "هکرها": 6599,
    "ریس": 6600,
    "وزی": 6601,
    "ابلو": 6602,
    "▁دقتی": 6603,
    "▁مجت": 6604,
    "▁رپ": 6605,
    "▁اجراهای": 6606,
    "▁منجم": 6607,
    "خواهانه": 6608,
    "▁اروپاست": 6609,
    "▁گاو": 6610,
    "حضور": 6611,
    "▁وود": 6612,
    "زاد": 6613,
    "یوم": 6614,
    "▁عج": 6615,
    "▁برخاست": 6616,
    "▁موثری": 6617,
    "▁وظ": 6618,
    "▁سپید": 6619,
    "فش": 6620,
    "شرایط": 6621,
    "اکبر": 6622,
    "▁شکنی": 6623,
    "▁هشدارها": 6624,
    "▁تهدیدهای": 6625,
    "▁موت": 6626,
    "اتل": 6627,
    "فین": 6628,
    "▁دیوارها": 6629,
    "پرداخت": 6630,
    "▁امیدی": 6631,
    "▁خلا": 6632,
    "▁کمیاب": 6633,
    "یج": 6634,
    "▁تپند": 6635,
    "▁انقلابی": 6636,
    "یزه": 6637,
    "داستان": 6638,
    "▁بارش": 6639,
    "▁شناختن": 6640,
    "▁پرز": 6641,
    "▁ادوار": 6642,
    "▁نکو": 6643,
    "▁پیشنهادهای": 6644,
    "▁جور": 6645,
    "جایزه": 6646,
    "▁شیب": 6647,
    "کاظم": 6648,
    "▁باختر": 6649,
    "▁گویا": 6650,
    "▁موک": 6651,
    "▁اسید": 6652,
    "▁افش": 6653,
    "ظاهر": 6654,
    "کشتی": 6655,
    "▁امری": 6656,
    "▁کارل": 6657,
    "▁کارهایش": 6658,
    "▁قل": 6659,
    "▁کامپیوترها": 6660,
    "▁نب": 6661,
    "مسابقه": 6662,
    "اعضای": 6663,
    "کنیم": 6664,
    "▁الن": 6665,
    "تعارف": 6666,
    "ئین": 6667,
    "▁فتحی": 6668,
    "▁آتن": 6669,
    "▁شرک": 6670,
    "نخست": 6671,
    "▁پذیرفت": 6672,
    "▁انسانها": 6673,
    "▁هجدهم": 6674,
    "▁پژ": 6675,
    "هواداران": 6676,
    "جواد": 6677,
    "▁غیربو": 6678,
    "بزرگترین": 6679,
    "▁مکس": 6680,
    "▁پوشیدن": 6681,
    "منچستر": 6682,
    "اوپک": 6683,
    "حادثه": 6684,
    "▁چال": 6685,
    "▁کیف": 6686,
    "▁مهد": 6687,
    "▁دیوانه": 6688,
    "یانت": 6689,
    "▁نزن": 6690,
    "جوکوویچ": 6691,
    "نقاشی": 6692,
    "▁بازدیدکنند": 6693,
    "سریع": 6694,
    "هنگام": 6695,
    "تحصیل": 6696,
    "آذر": 6697,
    "عضو": 6698,
    "منتقدان": 6699,
    "▁خوشی": 6700,
    "ویش": 6701,
    "▁بیدار": 6702,
    "توماس": 6703,
    "بفرستید": 6704,
    "پزشک": 6705,
    "ورد": 6706,
    "فضل": 6707,
    "▁غرو": 6708,
    "لیدز": 6709,
    "وادا": 6710,
    "لد": 6711,
    "▁برا": 6712,
    "بیح": 6713,
    "▁قب": 6714,
    "قهرمانی": 6715,
    "وستون": 6716,
    "▁مذک": 6717,
    "▁کارفرما": 6718,
    "مقامات": 6719,
    "▁آس": 6720,
    "▁صحرا": 6721,
    "کانی": 6722,
    "▁کنشگر": 6723,
    "میته": 6724,
    "هیچ": 6725,
    "سنگر": 6726,
    "▁مجرم": 6727,
    "اعظم": 6728,
    "▁حاج": 6729,
    "▁کانت": 6730,
    "▁برگرداند": 6731,
    "چل": 6732,
    "▁گدا": 6733,
    "جانی": 6734,
    "نگین": 6735,
    "▁چشمان": 6736,
    "کور": 6737,
    "▁سلیمان": 6738,
    "ماجرای": 6739,
    "▁شدیم": 6740,
    "▁مشتاق": 6741,
    "▁بیم": 6742,
    "▁متخلف": 6743,
    "▁گی": 6744,
    "▁دبی": 6745,
    "▁بایر": 6746,
    "حقیقی": 6747,
    "صرف": 6748,
    "▁بینم": 6749,
    "ارل": 6750,
    "مرغ": 6751,
    "واقعی": 6752,
    "آلود": 6753,
    "▁اسپا": 6754,
    "نرخ": 6755,
    "▁۸۴": 6756,
    "▁بتوانی": 6757,
    "▁ملته": 6758,
    "رفته": 6759,
    "▁دزدی": 6760,
    "نسل": 6761,
    "▁همای": 6762,
    "▁شکن": 6763,
    "▁گوها": 6764,
    "حام": 6765,
    "▁درآمدها": 6766,
    "سارت": 6767,
    "▁نوردی": 6768,
    "پولیس": 6769,
    "▁وض": 6770,
    "تفلی": 6771,
    "اژ": 6772,
    "راق": 6773,
    "▁ترمی": 6774,
    "▁تقریب": 6775,
    "▁پولها": 6776,
    "▁فیلسوف": 6777,
    "▁اویغور": 6778,
    "▁نابسامان": 6779,
    "▁انقطاع": 6780,
    "▁غلیظ": 6781,
    "▁عناوین": 6782,
    "▁محتاط": 6783,
    "▁تدفین": 6784,
    "▁ارواح": 6785,
    "▁مصداق": 6786,
    "▁ناگزیر": 6787,
    "▁اسرارآمیز": 6788,
    "▁دفاتر": 6789,
    "▁فلاکت": 6790,
    "▁یادماندنی": 6791,
    "▁تجدد": 6792,
    "▁گدوت": 6793,
    "▁دردناک": 6794,
    "▁تذکر": 6795,
    "سیزدهم": 6796,
    "▁باکتری": 6797,
    "▁مقصود": 6798,
    "▁فونینی": 6799,
    "▁قضاوت": 6800,
    "▁بکاهند": 6801,
    "▁ترشح": 6802,
    "▁صراحت": 6803,
    "▁مبتکر": 6804,
    "▁خودکفا": 6805,
    "▁پابرجاست": 6806,
    "▁مرموز": 6807,
    "▁ویلسون": 6808,
    "▁روانچی": 6809,
    "▁کارائیب": 6810,
    "▁نابرابر": 6811,
    "▁دشتکی": 6812,
    "ژگان": 6813,
    "▁ببینم": 6814,
    "▁حاتمی": 6815,
    "▁ابول": 6816,
    "▁ریورا": 6817,
    "▁۱۹۶۸": 6818,
    "▁قبرستان": 6819,
    "▁بریجز": 6820,
    "▁فورمن": 6821,
    "▁برگردیم": 6822,
    "▁روانپزشک": 6823,
    "▁بزاق": 6824,
    "▁تربیت": 6825,
    "▁۱۳۶۰": 6826,
    "▁موسی": 6827,
    "▁درآید": 6828,
    "▁مردادماه": 6829,
    "▁ببریم": 6830,
    "وتی": 6831,
    "نسوخ": 6832,
    "ذائ": 6833,
    "▁بخورد": 6834,
    "▁توازن": 6835,
    "▁دعا": 6836,
    "▁جملات": 6837,
    "▁تجربیات": 6838,
    "کرده": 6839,
    "▁برویم": 6840,
    "▁سیرو": 6841,
    "زبان": 6842,
    "▁لوگو": 6843,
    "▁اسنپ": 6844,
    "▁دماغ": 6845,
    "▁شن": 6846,
    "▁متغیرهای": 6847,
    "▁خاندان": 6848,
    "▁تصرف": 6849,
    "▁نورماگومدوف": 6850,
    "▁مشروب": 6851,
    "▁بازه": 6852,
    "▁اجساد": 6853,
    "▁نجوا": 6854,
    "▁لورک": 6855,
    "▁همسایگان": 6856,
    "▁داوود": 6857,
    "▁جلیل": 6858,
    "بیست": 6859,
    "▁بگیرم": 6860,
    "▁علیزاده": 6861,
    "▁دریانورد": 6862,
    "▁فلامینگوها": 6863,
    "▁ایستادند": 6864,
    "▁قش": 6865,
    "▁لغت": 6866,
    "▁نورستان": 6867,
    "▁مأموریت": 6868,
    "▁پناهند": 6869,
    "کری": 6870,
    "▁زادگاه": 6871,
    "▁ماهیچه": 6872,
    "▁امداد": 6873,
    "باخ": 6874,
    "▁متقابل": 6875,
    "▁موکل": 6876,
    "▁افزاید": 6877,
    "▁فضل": 6878,
    "▁الگو": 6879,
    "▁خاکستر": 6880,
    "ریه": 6881,
    "▁گیلبرت": 6882,
    "▁هروی": 6883,
    "هربان": 6884,
    "ردی": 6885,
    "▁بهزاد": 6886,
    "▁سرخک": 6887,
    "▁سانتو": 6888,
    "▁ابزارهای": 6889,
    "▁ابدی": 6890,
    "▁مختصر": 6891,
    "▁شاکی": 6892,
    "▁دردسرهای": 6893,
    "اه": 6894,
    "▁شکوه": 6895,
    "▁رادیوی": 6896,
    "▁ربکا": 6897,
    "▁دسمو": 6898,
    "▁واپس": 6899,
    "ارومیه": 6900,
    "▁مجاور": 6901,
    "▁ترقی": 6902,
    "▁سف": 6903,
    "▁طر": 6904,
    "کوس": 6905,
    "▁کشتند": 6906,
    "▁حکیم": 6907,
    "معدنچی": 6908,
    "▁منک": 6909,
    "▁محصولاتش": 6910,
    "▁پهنه": 6911,
    "▁انتقام": 6912,
    "▁بدهم": 6913,
    "▁برن": 6914,
    "▁بزرگسال": 6915,
    "▁تورین": 6916,
    "یفه": 6917,
    "▁چرخید": 6918,
    "▁ساوت": 6919,
    "▁توسان": 6920,
    "▁مجادل": 6921,
    "▁فاضل": 6922,
    "▁چرخش": 6923,
    "▁گریخت": 6924,
    "کسل": 6925,
    "▁محاف": 6926,
    "▁کان": 6927,
    "یار": 6928,
    "▁بیانسه": 6929,
    "▁گرجستانی": 6930,
    "▁وکلای": 6931,
    "▁گهر": 6932,
    "▁منقل": 6933,
    "▁والتر": 6934,
    "▁خوابیدن": 6935,
    "یگر": 6936,
    "▁کوپر": 6937,
    "تشکر": 6938,
    "▁تئو": 6939,
    "▁ماهرویان": 6940,
    "پولو": 6941,
    "سالار": 6942,
    "وین": 6943,
    "▁کارلو": 6944,
    "▁شنای": 6945,
    "▁نوک": 6946,
    "▁حجت": 6947,
    "▁کوید": 6948,
    "▁پیمود": 6949,
    "▁اثرگذار": 6950,
    "▁سفت": 6951,
    "▁دارداین": 6952,
    "▁نبو": 6953,
    "▁پرش": 6954,
    "▁خد": 6955,
    "ئوری": 6956,
    "▁ترسد": 6957,
    "▁عناب": 6958,
    "شاپی": 6959,
    "رگیری": 6960,
    "▁نیازها": 6961,
    "ادین": 6962,
    "▁تردیدهای": 6963,
    "▁تشکیلات": 6964,
    "▁فروند": 6965,
    "▁آز": 6966,
    "▁ازسر": 6967,
    "▁سموم": 6968,
    "▁بفرستید": 6969,
    "اشی": 6970,
    "▁آرم": 6971,
    "امیدوارکننده": 6972,
    "وسی": 6973,
    "▁نیکولا": 6974,
    "▁کریستی": 6975,
    "▁بلید": 6976,
    "▁بازیافت": 6977,
    "▁بروید": 6978,
    "باط": 6979,
    "▁نیستیم": 6980,
    "▁نهادی": 6981,
    "▁کور": 6982,
    "▁اراد": 6983,
    "▁شکم": 6984,
    "▁سرور": 6985,
    "خط": 6986,
    "▁صحرای": 6987,
    "▁قصر": 6988,
    "▁رسی": 6989,
    "▁سوییس": 6990,
    "لتی": 6991,
    "تالی": 6992,
    "▁قوز": 6993,
    "پک": 6994,
    "انزا": 6995,
    "ورای": 6996,
    "▁فک": 6997,
    "زاک": 6998,
    "▁تاثیرات": 6999,
    "▁کریس": 7000,
    "▁امیدهای": 7001,
    "▁زدای": 7002,
    "▁اشتها": 7003,
    "▁آپ": 7004,
    "رن": 7005,
    "چال": 7006,
    "ئه": 7007,
    "▁تز": 7008,
    "سانس": 7009,
    "▁سنجی": 7010,
    "▁کولاک": 7011,
    "▁اینچ": 7012,
    "ستند": 7013,
    "لوس": 7014,
    "په": 7015,
    "مایش": 7016,
    "ادت": 7017,
    "سوی": 7018,
    "▁سوزاند": 7019,
    "▁ساختند": 7020,
    "▁ترکی": 7021,
    "اندن": 7022,
    "درهای": 7023,
    "▁بخشیده": 7024,
    "▁۱۹۶": 7025,
    "▁سانتا": 7026,
    "▁اینج": 7027,
    "▁علا": 7028,
    "▁دادیم": 7029,
    "۵۷": 7030,
    "پول": 7031,
    "▁اشتباهی": 7032,
    "▁ایرانایران": 7033,
    "▁راوی": 7034,
    "دس": 7035,
    "▁ماهنام": 7036,
    "شریف": 7037,
    "▁حف": 7038,
    "دانه": 7039,
    "▁بجا": 7040,
    "▁رانگل": 7041,
    "▁شاپ": 7042,
    "▁ضیا": 7043,
    "▁هاروی": 7044,
    "زیر": 7045,
    "هو": 7046,
    "▁الم": 7047,
    "برده": 7048,
    "▁بسر": 7049,
    "▁دوگان": 7050,
    "بایی": 7051,
    "▁پارچ": 7052,
    "▁موری": 7053,
    "▁کینگ": 7054,
    "کست": 7055,
    "▁عفون": 7056,
    "مزد": 7057,
    "▁کارتر": 7058,
    "ورو": 7059,
    "ملی": 7060,
    "▁ناشر": 7061,
    "▁وزار": 7062,
    "کسیون": 7063,
    "▁بوی": 7064,
    "بک": 7065,
    "۳۳": 7066,
    "▁گار": 7067,
    "▁کنسر": 7068,
    "خالف": 7069,
    "▁همگ": 7070,
    "▁بنده": 7071,
    "اصل": 7072,
    "▁ستا": 7073,
    "کارولین": 7074,
    "▁کورو": 7075,
    "▁دویدن": 7076,
    "شوند": 7077,
    "▁نشستن": 7078,
    "فرجام": 7079,
    "▁عطف": 7080,
    "رحیم": 7081,
    "▁پیت": 7082,
    "آفرینی": 7083,
    "▁بخشد": 7084,
    "نیس": 7085,
    "فره": 7086,
    "نگی": 7087,
    "انیه": 7088,
    "▁باربی": 7089,
    "▁زلا": 7090,
    "ولین": 7091,
    "▁بازگو": 7092,
    "▁برآوردها": 7093,
    "▁صدایی": 7094,
    "▁شفا": 7095,
    "ابل": 7096,
    "لیات": 7097,
    "▁فشارهای": 7098,
    "۰۱": 7099,
    "▁قامت": 7100,
    "▁جس": 7101,
    "۴۹": 7102,
    "خضر": 7103,
    "▁سازهای": 7104,
    "▁درآمدزا": 7105,
    "▁درسال": 7106,
    "الدین": 7107,
    "▁پشتو": 7108,
    "تصمیم": 7109,
    "خصوص": 7110,
    "رچه": 7111,
    "اردو": 7112,
    "▁نوب": 7113,
    "▁الس": 7114,
    "▁نظ": 7115,
    "تور": 7116,
    "۳۲": 7117,
    "راک": 7118,
    "▁فورب": 7119,
    "وجه": 7120,
    "▁میکروبی": 7121,
    "شوه": 7122,
    "▁ریلی": 7123,
    "خودرو": 7124,
    "▁خدای": 7125,
    "کشورهای": 7126,
    "▁مافی": 7127,
    "۴۴": 7128,
    "بالا": 7129,
    "مجموع": 7130,
    "افتاده": 7131,
    "▁پرداز": 7132,
    "▁پرید": 7133,
    "عکاس": 7134,
    "▁آو": 7135,
    "▁اجزا": 7136,
    "▁محب": 7137,
    "▁کمالی": 7138,
    "یتونا": 7139,
    "▁تصویربردار": 7140,
    "قرنطینه": 7141,
    "تورهای": 7142,
    "ونی": 7143,
    "▁فراخوان": 7144,
    "▁خبرگ": 7145,
    "▁۶۹": 7146,
    "▁محوری": 7147,
    "اتح": 7148,
    "نمای": 7149,
    "بارسلونا": 7150,
    "مکن": 7151,
    "▁سوزان": 7152,
    "لیسب": 7153,
    "۸۹": 7154,
    "۱۴۰۰": 7155,
    "احتمال": 7156,
    "راجع": 7157,
    "غلو": 7158,
    "تنیس": 7159,
    "دوران": 7160,
    "جنوب": 7161,
    "هور": 7162,
    "صیف": 7163,
    "▁بخشید": 7164,
    "▁بستگان": 7165,
    "▁رقبا": 7166,
    "▁یوسی": 7167,
    "جک": 7168,
    "▁عکسها": 7169,
    "حصار": 7170,
    "نژاد": 7171,
    "ائو": 7172,
    "فرانسه": 7173,
    "رها": 7174,
    "▁سکان": 7175,
    "فرمانده": 7176,
    "ربی": 7177,
    "تجرب": 7178,
    "دبیر": 7179,
    "▁ماست": 7180,
    "▁بدنم": 7181,
    "سفارت": 7182,
    "حداکثر": 7183,
    "شعر": 7184,
    "حاشیه": 7185,
    "نیف": 7186,
    "تیراندازی": 7187,
    "فرهاد": 7188,
    "قاسم": 7189,
    "محمدرضا": 7190,
    "▁لوح": 7191,
    "کتاب": 7192,
    "زود": 7193,
    "رفت": 7194,
    "مناسبت": 7195,
    "تایسون": 7196,
    "کنگره": 7197,
    "شناس": 7198,
    "نفوذ": 7199,
    "قبض": 7200,
    "خشکسالی": 7201,
    "مستند": 7202,
    "کوئین": 7203,
    "کجاست": 7204,
    "اسناد": 7205,
    "فاصل": 7206,
    "▁دلیلش": 7207,
    "▁سمرقند": 7208,
    "▁پاب": 7209,
    "▁تولی": 7210,
    "غوری": 7211,
    "▁مذهب": 7212,
    "▁بازرگان": 7213,
    "▁باخ": 7214,
    "ستی": 7215,
    "▁عر": 7216,
    "بورگ": 7217,
    "گت": 7218,
    "گردون": 7219,
    "قد": 7220,
    "▁تخ": 7221,
    "▁ارت": 7222,
    "▁بلندپرواز": 7223,
    "▁دن": 7224,
    "گویی": 7225,
    "گویان": 7226,
    "نندگان": 7227,
    "منتظر": 7228,
    "▁فرستادن": 7229,
    "باد": 7230,
    "▁غور": 7231,
    "▁تبر": 7232,
    "▁رویدادها": 7233,
    "▁امپراتور": 7234,
    "بیت": 7235,
    "▁۲۱۰": 7236,
    "کمه": 7237,
    "▁پنجش": 7238,
    "مور": 7239,
    "خون": 7240,
    "▁تروریست": 7241,
    "تعجب": 7242,
    "▁اکا": 7243,
    "▁آندرس": 7244,
    "آور": 7245,
    "کریست": 7246,
    "لیگا": 7247,
    "نمایند": 7248,
    "دختر": 7249,
    "▁نخ": 7250,
    "▁تراک": 7251,
    "وران": 7252,
    "لار": 7253,
    "▁قاطعان": 7254,
    "▁مساعد": 7255,
    "▁رویز": 7256,
    "▁گوسفند": 7257,
    "بله": 7258,
    "▁دیسک": 7259,
    "بیگ": 7260,
    "▁فرضی": 7261,
    "▁سهیم": 7262,
    "ترانه": 7263,
    "▁۲۶۰": 7264,
    "▁۷۱": 7265,
    "ماخ": 7266,
    "▁سیب": 7267,
    "همگی": 7268,
    "همچن": 7269,
    "ندرسون": 7270,
    "▁نهادها": 7271,
    "عظم": 7272,
    "▁لن": 7273,
    "▁کارند": 7274,
    "▁جنب": 7275,
    "ندرت": 7276,
    "ارسل": 7277,
    "▁اندرکار": 7278,
    "▁بازیکنانش": 7279,
    "▁هوشی": 7280,
    "▁هلندی": 7281,
    "▁۷۵۰": 7282,
    "اط": 7283,
    "▁استیو": 7284,
    "▁دکترا": 7285,
    "رگبار": 7286,
    "رزرو": 7287,
    "▁مخابر": 7288,
    "مرد": 7289,
    "▁الاجرا": 7290,
    "نگا": 7291,
    "▁اختاپوس": 7292,
    "▁جاپلقی": 7293,
    "▁دگراندیش": 7294,
    "▁زاکربرگ": 7295,
    "▁ژئوفیزیک": 7296,
    "▁بفرستند": 7297,
    "▁حناچی": 7298,
    "▁سخاوتمند": 7299,
    "▁سزاوار": 7300,
    "▁موریکونه": 7301,
    "▁سیگنال": 7302,
    "▁هژمون": 7303,
    "▁رادیواکتیو": 7304,
    "▁منسجم": 7305,
    "▁اکسیدکربن": 7306,
    "▁تنگاتنگ": 7307,
    "▁سارقان": 7308,
    "▁سانتیاگو": 7309,
    "▁ناسازگار": 7310,
    "لئوپولد": 7311,
    "▁دموکراسی": 7312,
    "▁انسولین": 7313,
    "▁ناخودآگاه": 7314,
    "▁فرمانروای": 7315,
    "یونیسف": 7316,
    "▁هکتار": 7317,
    "▁انزوا": 7318,
    "▁اوزیل": 7319,
    "▁تظاهرکنندگان": 7320,
    "▁جگوار": 7321,
    "▁باچان": 7322,
    "▁کانتینر": 7323,
    "▁کوشنر": 7324,
    "▁حصبه": 7325,
    "▁دوبلور": 7326,
    "▁روزافزون": 7327,
    "▁اوزون": 7328,
    "▁هریرود": 7329,
    "▁تکواندو": 7330,
    "▁میچام": 7331,
    "▁کبیری": 7332,
    "▁حیثیت": 7333,
    "▁وسواس": 7334,
    "▁موازات": 7335,
    "▁خاشق": 7336,
    "▁ظلم": 7337,
    "▁دامغان": 7338,
    "▁شنویم": 7339,
    "▁مقادیر": 7340,
    "▁هتلداران": 7341,
    "▁ظالمانه": 7342,
    "▁کفایت": 7343,
    "▁تمایز": 7344,
    "▁صربستان": 7345,
    "▁پدربزرگ": 7346,
    "▁ارمجانی": 7347,
    "▁ضابط": 7348,
    "▁متوازن": 7349,
    "▁۱۹۶۹": 7350,
    "▁سهمگین": 7351,
    "▁بیاورند": 7352,
    "▁ژرف": 7353,
    "▁شارپ": 7354,
    "▁پرسنل": 7355,
    "▁جرارد": 7356,
    "▁پوینت": 7357,
    "▁نابویایی": 7358,
    "▁بازنگشت": 7359,
    "موث": 7360,
    "▁الاجراست": 7361,
    "▁نیفتاد": 7362,
    "▁شادگان": 7363,
    "▁بزنیم": 7364,
    "▁نباشند": 7365,
    "زیرو": 7366,
    "▁۱۹۹۴": 7367,
    "▁عقاب": 7368,
    "▁نگیرد": 7369,
    "▁بایستند": 7370,
    "▁رفیق": 7371,
    "▁تحرکات": 7372,
    "▁امپرا": 7373,
    "▁هندرسون": 7374,
    "▁بکنید": 7375,
    "▁فیصل": 7376,
    "▁برگرداندن": 7377,
    "▁تومور": 7378,
    "▁ناسیونالیس": 7379,
    "▁ناچیز": 7380,
    "▁خلاق": 7381,
    "▁دمکرا": 7382,
    "▁قمار": 7383,
    "▁تایوان": 7384,
    "▁اتلان": 7385,
    "▁لیو": 7386,
    "▁دلال": 7387,
    "▁رینت": 7388,
    "گاتی": 7389,
    "▁قیصر": 7390,
    "▁اسکورسیزی": 7391,
    "▁آبراه": 7392,
    "▁سرلشکر": 7393,
    "▁عبدالسلام": 7394,
    "▁نایتلی": 7395,
    "▁دلنشین": 7396,
    "▁ازبک": 7397,
    "نتینو": 7398,
    "نوی": 7399,
    "▁نشوند": 7400,
    "▁ملوان": 7401,
    "ریوس": 7402,
    "▁دانا": 7403,
    "متن": 7404,
    "▁فرسود": 7405,
    "▁راسخ": 7406,
    "▁بشردوست": 7407,
    "صریح": 7408,
    "▁همفکر": 7409,
    "▁سولو": 7410,
    "خن": 7411,
    "▁آگوست": 7412,
    "مک": 7413,
    "▁پرفسور": 7414,
    "▁آزاردید": 7415,
    "▁بپذیر": 7416,
    "داعش": 7417,
    "گوگوش": 7418,
    "▁بشنوید": 7419,
    "▁کوواکس": 7420,
    "▁تعرض": 7421,
    "▁روستاهای": 7422,
    "▁تسلی": 7423,
    "نشأ": 7424,
    "▁مولد": 7425,
    "انتینو": 7426,
    "گران": 7427,
    "▁ناشده": 7428,
    "▁نیمروز": 7429,
    "▁اولیو": 7430,
    "▁کون": 7431,
    "یتا": 7432,
    "▁منظوم": 7433,
    "▁باج": 7434,
    "یایی": 7435,
    "▁لوک": 7436,
    "▁یوهان": 7437,
    "▁چر": 7438,
    "▁نجومی": 7439,
    "▁مجرد": 7440,
    "اور": 7441,
    "▁آزادگان": 7442,
    "▁توئیتر": 7443,
    "▁یاسر": 7444,
    "▁نگذاشته": 7445,
    "▁اندازند": 7446,
    "ملا": 7447,
    "▁تشوی": 7448,
    "▁رفقا": 7449,
    "▁تاکسیران": 7450,
    "تمامی": 7451,
    "▁نبی": 7452,
    "▁بخواهند": 7453,
    "▁پیچید": 7454,
    "▁افزودند": 7455,
    "نفی": 7456,
    "▁افزارهای": 7457,
    "▁دوندگان": 7458,
    "آباد": 7459,
    "▁سولار": 7460,
    "▁شمش": 7461,
    "▁مهیب": 7462,
    "۱۹۶۵": 7463,
    "▁غذاهای": 7464,
    "موتو": 7465,
    "▁اسلو": 7466,
    "▁رابین": 7467,
    "▁درمیان": 7468,
    "▁مشتاقان": 7469,
    "سود": 7470,
    "دوغا": 7471,
    "▁قبا": 7472,
    "میلیارد": 7473,
    "▁موتورها": 7474,
    "▁رباب": 7475,
    "حرف": 7476,
    "▁همتایان": 7477,
    "▁بایست": 7478,
    "▁۱۷۴": 7479,
    "▁برگر": 7480,
    "▁فراور": 7481,
    "▁کشورهاست": 7482,
    "وتو": 7483,
    "▁کاتل": 7484,
    "اتیو": 7485,
    "▁منفور": 7486,
    "راندن": 7487,
    "▁انرو": 7488,
    "▁۴۲۰": 7489,
    "▁بریج": 7490,
    "▁رسا": 7491,
    "ولوژی": 7492,
    "▁لندر": 7493,
    "تالیا": 7494,
    "▁هستی": 7495,
    "▁پاسدار": 7496,
    "▁منت": 7497,
    "بال": 7498,
    "▁موسیقیدان": 7499,
    "▁کلوز": 7500,
    "▁مادام": 7501,
    "یامک": 7502,
    "یاب": 7503,
    "▁کامران": 7504,
    "▁دانل": 7505,
    "پچو": 7506,
    "▁روده": 7507,
    "▁متال": 7508,
    "▁شنید": 7509,
    "▁تجمعات": 7510,
    "▁سانچ": 7511,
    "▁کوهن": 7512,
    "▁بدهید": 7513,
    "کارآمد": 7514,
    "▁بدویا": 7515,
    "▁نایا": 7516,
    "▁خوردند": 7517,
    "رضی": 7518,
    "▁اتری": 7519,
    "۹۷": 7520,
    "اهید": 7521,
    "▁وای": 7522,
    "▁لینک": 7523,
    "▁نیوز": 7524,
    "یوئیت": 7525,
    "نفت": 7526,
    "تعدد": 7527,
    "▁شایان": 7528,
    "زد": 7529,
    "▁کتک": 7530,
    "دوستان": 7531,
    "▁قائ": 7532,
    "▁مجرمان": 7533,
    "▁ورق": 7534,
    "▁آرین": 7535,
    "وفس": 7536,
    "▁جوانا": 7537,
    "▁پژوهشهای": 7538,
    "▁ستیز": 7539,
    "▁اینست": 7540,
    "▁گراند": 7541,
    "شقان": 7542,
    "▁خصوصیات": 7543,
    "▁بیانداز": 7544,
    "▁گذران": 7545,
    "▁سور": 7546,
    "ستر": 7547,
    "▁شجاعت": 7548,
    "▁کوبی": 7549,
    "▁خوشایند": 7550,
    "سیاس": 7551,
    "▁وو": 7552,
    "▁اینف": 7553,
    "▁مستعا": 7554,
    "لث": 7555,
    "▁نبودند": 7556,
    "هرزاد": 7557,
    "▁تونسی": 7558,
    "▁سیمین": 7559,
    "▁تحرکی": 7560,
    "▁توا": 7561,
    "۴۵": 7562,
    "▁سیلی": 7563,
    "لسک": 7564,
    "▁مجا": 7565,
    "دهم": 7566,
    "▁تفکر": 7567,
    "▁مولان": 7568,
    "▁بازگشتند": 7569,
    "هنه": 7570,
    "الیز": 7571,
    "▁نصر": 7572,
    "فروش": 7573,
    "▁یولیا": 7574,
    "▁سوفی": 7575,
    "▁بیکاران": 7576,
    "▁مشخصات": 7577,
    "▁اغ": 7578,
    "▁ارغ": 7579,
    "۳۶۰": 7580,
    "فرانسی": 7581,
    "▁فونت": 7582,
    "▁متو": 7583,
    "▁منازع": 7584,
    "▁سرم": 7585,
    "▁پنا": 7586,
    "رومن": 7587,
    "رج": 7588,
    "زای": 7589,
    "▁خست": 7590,
    "دوزی": 7591,
    "▁فراخواند": 7592,
    "▁خاوری": 7593,
    "ورود": 7594,
    "▁بایستی": 7595,
    "نور": 7596,
    "دیه": 7597,
    "اسکورت": 7598,
    "لون": 7599,
    "آفرین": 7600,
    "ریکا": 7601,
    "بنی": 7602,
    "نیوز": 7603,
    "▁نیوت": 7604,
    "نقدر": 7605,
    "طالب": 7606,
    "تاکس": 7607,
    "▁بکار": 7608,
    "▁جون": 7609,
    "▁یادم": 7610,
    "گردانی": 7611,
    "یامده": 7612,
    "تین": 7613,
    "▁بستند": 7614,
    "رفه": 7615,
    "▁رکس": 7616,
    "گوین": 7617,
    "چندی": 7618,
    "میلیا": 7619,
    "▁برنا": 7620,
    "▁دخ": 7621,
    "خود": 7622,
    "▁لک": 7623,
    "▁لمب": 7624,
    "▁یون": 7625,
    "▁پاش": 7626,
    "▁بازنش": 7627,
    "▁خوشنو": 7628,
    "▁زنیم": 7629,
    "▁حکمت": 7630,
    "▁مهیا": 7631,
    "کثیر": 7632,
    "▁بودا": 7633,
    "▁حوا": 7634,
    "عادی": 7635,
    "پاری": 7636,
    "▁شار": 7637,
    "▁هجدهمی": 7638,
    "پادمان": 7639,
    "▁سرگذاشت": 7640,
    "فارم": 7641,
    "▁برگزارکنند": 7642,
    "شایر": 7643,
    "▁فرسا": 7644,
    "▁کری": 7645,
    "▁ننگ": 7646,
    "▁شعرهای": 7647,
    "▁دهی": 7648,
    "▁دیپلم": 7649,
    "▁پوستر": 7650,
    "▁سنگی": 7651,
    "قهرمان": 7652,
    "▁ریگ": 7653,
    "▁استعفاها": 7654,
    "مق": 7655,
    "▁محبو": 7656,
    "▁لوپ": 7657,
    "زر": 7658,
    "▁شرکتها": 7659,
    "طوف": 7660,
    "▁شالی": 7661,
    "اگ": 7662,
    "▁چش": 7663,
    "راماتیک": 7664,
    "▁تبل": 7665,
    "▁استوایی": 7666,
    "▁دیف": 7667,
    "▁عطا": 7668,
    "سان": 7669,
    "کیت": 7670,
    "▁اصولی": 7671,
    "▁ارج": 7672,
    "اسب": 7673,
    "الا": 7674,
    "▁زین": 7675,
    "▁۶۶": 7676,
    "▁بهرامی": 7677,
    "جویان": 7678,
    "▁بنکس": 7679,
    "▁بریتانیاست": 7680,
    "بزرگ": 7681,
    "▁فیش": 7682,
    "ژن": 7683,
    "▁ایرلندی": 7684,
    "▁دال": 7685,
    "▁معتبری": 7686,
    "▁غی": 7687,
    "واکسن": 7688,
    "▁بش": 7689,
    "▁یانگ": 7690,
    "▁بیو": 7691,
    "۸۴": 7692,
    "▁سوت": 7693,
    "قای": 7694,
    "بوه": 7695,
    "وست": 7696,
    "▁شکوفا": 7697,
    "▁صبا": 7698,
    "▁بزو": 7699,
    "پایان": 7700,
    "▁آغ": 7701,
    "دریچ": 7702,
    "امه": 7703,
    "زندگی": 7704,
    "طل": 7705,
    "▁تویی": 7706,
    "اثر": 7707,
    "▁امیرم": 7708,
    "تخیلی": 7709,
    "سارا": 7710,
    "آمارها": 7711,
    "چشم": 7712,
    "رژی": 7713,
    "▁توافقات": 7714,
    "کلیف": 7715,
    "ندر": 7716,
    "▁کابلی": 7717,
    "▁حوال": 7718,
    "▁اصولگرا": 7719,
    "وبی": 7720,
    "ادگی": 7721,
    "حقوق": 7722,
    "زدی": 7723,
    "ایان": 7724,
    "▁واحده": 7725,
    "رالزمان": 7726,
    "عمل": 7727,
    "زیست": 7728,
    "دوم": 7729,
    "بیماری": 7730,
    "▁گرو": 7731,
    "▁آلت": 7732,
    "▁درخشند": 7733,
    "دانشگاه": 7734,
    "▁نازل": 7735,
    "▁پرستار": 7736,
    "نسک": 7737,
    "اوران": 7738,
    "▁موسسا": 7739,
    "بازیکن": 7740,
    "▁چهارمی": 7741,
    "رفتن": 7742,
    "ماجرا": 7743,
    "اعتراض": 7744,
    "ارش": 7745,
    "▁۱۲۵": 7746,
    "انک": 7747,
    "▁سیت": 7748,
    "▁لوس": 7749,
    "خانی": 7750,
    "۹۶": 7751,
    "▁۱۰۹": 7752,
    "▁کارتون": 7753,
    "▁نیافتن": 7754,
    "ویژ": 7755,
    "▁استوار": 7756,
    "روس": 7757,
    "▁آسا": 7758,
    "▁اب": 7759,
    "▁سردست": 7760,
    "دولتی": 7761,
    "▁ربای": 7762,
    "حکم": 7763,
    "انتخاب": 7764,
    "بازیکنان": 7765,
    "محدودیت": 7766,
    "ویی": 7767,
    "▁والا": 7768,
    "جسمی": 7769,
    "قرارداد": 7770,
    "▁۲۰۵": 7771,
    "لیو": 7772,
    "▁کیمی": 7773,
    "▁سلب": 7774,
    "بحران": 7775,
    "صلاح": 7776,
    "ابتدا": 7777,
    "پاسخ": 7778,
    "▁استبا": 7779,
    "▁کانتر": 7780,
    "ائوس": 7781,
    "خه": 7782,
    "طری": 7783,
    "▁ربود": 7784,
    "ترکیب": 7785,
    "▁تقی": 7786,
    "بن": 7787,
    "▁بدان": 7788,
    "▁چسبن": 7789,
    "▁عبد": 7790,
    "آتش": 7791,
    "جشنواره": 7792,
    "حذف": 7793,
    "▁۳۳۰": 7794,
    "فرصت": 7795,
    "▁گپ": 7796,
    "دلایل": 7797,
    "تابستان": 7798,
    "گمرک": 7799,
    "▁کنو": 7800,
    "▁فلم": 7801,
    "جنجال": 7802,
    "بهترین": 7803,
    "▁سناریو": 7804,
    "▁فعل": 7805,
    "صعود": 7806,
    "قسمت": 7807,
    "▁انگل": 7808,
    "تخریب": 7809,
    "ارجه": 7810,
    "جوایز": 7811,
    "▁جیم": 7812,
    "پالایشگاه": 7813,
    "▁سمی": 7814,
    "▁نوزده": 7815,
    "تامی": 7816,
    "اتفاقات": 7817,
    "▁تمد": 7818,
    "لحظ": 7819,
    "نادر": 7820,
    "رسید": 7821,
    "آکادمی": 7822,
    "طاع": 7823,
    "▁شجاعی": 7824,
    "▁سخنگو": 7825,
    "▁همسران": 7826,
    "مردان": 7827,
    "▁پولهای": 7828,
    "▁۲۵۰۰": 7829,
    "پاش": 7830,
    "▁اپراتور": 7831,
    "▁گیت": 7832,
    "نژادپرست": 7833,
    "▁آنهاست": 7834,
    "ائ": 7835,
    "اتهامات": 7836,
    "شن": 7837,
    "مکزیکو": 7838,
    "▁اسا": 7839,
    "ایلنا": 7840,
    "راست": 7841,
    "گزا": 7842,
    "جری": 7843,
    "آزادی": 7844,
    "▁روم": 7845,
    "گرم": 7846,
    "▁آزاری": 7847,
    "▁طاهر": 7848,
    "▁نیلی": 7849,
    "هان": 7850,
    "بیل": 7851,
    "▁ورز": 7852,
    "شهرهای": 7853,
    "درحالی": 7854,
    "عطا": 7855,
    "مدیران": 7856,
    "دریایی": 7857,
    "▁نخواست": 7858,
    "▁مطهر": 7859,
    "▁یاسم": 7860,
    "▁فنل": 7861,
    "خواهیم": 7862,
    "سرجی": 7863,
    "▁یوسف": 7864,
    "رییس": 7865,
    "سام": 7866,
    "تجمع": 7867,
    "۳۴": 7868,
    "▁فعالی": 7869,
    "ستا": 7870,
    "مسعود": 7871,
    "رث": 7872,
    "پانز": 7873,
    "▁کوچ": 7874,
    "▁ریس": 7875,
    "کشی": 7876,
    "▁فری": 7877,
    "▁۲۹۰": 7878,
    "▁اورگ": 7879,
    "لکس": 7880,
    "▁جمل": 7881,
    "یکا": 7882,
    "▁مواج": 7883,
    "▁ثب": 7884,
    "▁جعفر": 7885,
    "▁میشود": 7886,
    "۶۲": 7887,
    "ضرور": 7888,
    "▁تلا": 7889,
    "▁جولیا": 7890,
    "▁رودر": 7891,
    "حضرت": 7892,
    "▁حسابدار": 7893,
    "گزار": 7894,
    "▁۱۰۲": 7895,
    "ینچی": 7896,
    "محسن": 7897,
    "۰۵": 7898,
    "هوش": 7899,
    "▁تفنگ": 7900,
    "اتور": 7901,
    "یح": 7902,
    "▁ترفند": 7903,
    "سترازنکا": 7904,
    "▁محدودی": 7905,
    "▁۲۴۰": 7906,
    "▁مقاوم": 7907,
    "رانگ": 7908,
    "▁آنتو": 7909,
    "الگو": 7910,
    "بازدید": 7911,
    "▁ماهان": 7912,
    "▁ماتی": 7913,
    "▁دلم": 7914,
    "مونت": 7915,
    "▁بروی": 7916,
    "▁چرم": 7917,
    "▁بقا": 7918,
    "سترسیتی": 7919,
    "▁مکالم": 7920,
    "۱۰": 7921,
    "▁باش": 7922,
    "▁سب": 7923,
    "نزو": 7924,
    "▁نمک": 7925,
    "▁الشع": 7926,
    "▁آکسفام": 7927,
    "▁دگرباش": 7928,
    "▁رامهرمز": 7929,
    "▁تشعشع": 7930,
    "▁فستیوال": 7931,
    "▁مارگاریتا": 7932,
    "▁ننگرهار": 7933,
    "▁کوکائین": 7934,
    "▁دزفول": 7935,
    "▁اوزبیک": 7936,
    "▁پرتوافشانی": 7937,
    "▁بیندازند": 7938,
    "▁اوقاف": 7939,
    "▁بیندازد": 7940,
    "▁غزنوی": 7941,
    "▁برافراشت": 7942,
    "▁ناپایدار": 7943,
    "▁مردخای": 7944,
    "▁هیدروژن": 7945,
    "▁بنکدارپور": 7946,
    "▁سولیوان": 7947,
    "▁اتمسفر": 7948,
    "▁مجارستان": 7949,
    "▁فرهیخت": 7950,
    "▁اصغر": 7951,
    "▁مفاهیم": 7952,
    "معجزه": 7953,
    "▁ایرلاین": 7954,
    "▁سوراخ": 7955,
    "▁جادوگر": 7956,
    "▁نقیض": 7957,
    "▁نیکزاد": 7958,
    "▁تسخیر": 7959,
    "▁سرامیک": 7960,
    "▁هیوستون": 7961,
    "▁خویشتن": 7962,
    "▁نباشید": 7963,
    "▁پاستور": 7964,
    "▁حشرات": 7965,
    "▁بلندپایه": 7966,
    "▁گلیزر": 7967,
    "▁عنایت": 7968,
    "▁مقاطع": 7969,
    "▁بیضایی": 7970,
    "▁چندرایان": 7971,
    "▁مغایر": 7972,
    "▁درهم": 7973,
    "▁فاکتور": 7974,
    "▁سفیدپوست": 7975,
    "▁مادربزرگ": 7976,
    "▁۱۹۷۹": 7977,
    "▁بمیرد": 7978,
    "▁مخوف": 7979,
    "▁دیزل": 7980,
    "▁زیراتمی": 7981,
    "▁شوشتر": 7982,
    "▁مطیع": 7983,
    "▁مشروعیت": 7984,
    "▁تجسس": 7985,
    "▁آوینی": 7986,
    "▁صفوف": 7987,
    "▁شادمان": 7988,
    "▁صفاری": 7989,
    "▁بپردازند": 7990,
    "▁۲۰۳۵": 7991,
    "▁گوترش": 7992,
    "▁متضاد": 7993,
    "▁۱۳۸۶": 7994,
    "▁قارچ": 7995,
    "▁یقین": 7996,
    "▁فواید": 7997,
    "▁مالزی": 7998,
    "▁فاسد": 7999,
    "آنگولا": 8000,
    "▁کاسپی": 8001,
    "▁بخوانند": 8002,
    "▁تمجید": 8003,
    "آبی": 8004,
    "▁بانکوک": 8005,
    "▁توفندها": 8006,
    "▁عبادی": 8007,
    "▁مجل": 8008,
    "▁زوایا": 8009,
    "▁زهیر": 8010,
    "پالا": 8011,
    "▁ژائو": 8012,
    "▁ندارید": 8013,
    "▁برنگرداند": 8014,
    "▁رونالد": 8015,
    "▁چوپ": 8016,
    "▁خودمختار": 8017,
    "لگار": 8018,
    "▁وارث": 8019,
    "▁وجدان": 8020,
    "▁زراعت": 8021,
    "▁کاردوس": 8022,
    "▁سیاهپوست": 8023,
    "▁انعکاس": 8024,
    "▁سازگار": 8025,
    "▁بیایند": 8026,
    "▁۱۳۳": 8027,
    "▁تمیز": 8028,
    "▁آپوف": 8029,
    "▁بیگم": 8030,
    "▁ذوال": 8031,
    "▁آنچنان": 8032,
    "▁لرزاند": 8033,
    "▁نوابی": 8034,
    "ناگلزم": 8035,
    "▁برنامک": 8036,
    "▁اشکالات": 8037,
    "▁معصوم": 8038,
    "▁معنادار": 8039,
    "مانی": 8040,
    "▁لاهه": 8041,
    "▁هنکس": 8042,
    "▁کابوس": 8043,
    "▁اعترافات": 8044,
    "▁دادخواست": 8045,
    "▁فلزات": 8046,
    "▁زادروز": 8047,
    "▁راجپوت": 8048,
    "▁لافرته": 8049,
    "▁خجالت": 8050,
    "▁ماوریک": 8051,
    "▁نیابت": 8052,
    "▁مالباخت": 8053,
    "▁آموس": 8054,
    "▁خلبان": 8055,
    "▁عذاب": 8056,
    "▁پارکور": 8057,
    "▁مبنا": 8058,
    "▁پردازش": 8059,
    "▁۱۵۵": 8060,
    "▁مجلات": 8061,
    "▁مجزا": 8062,
    "▁خطاهای": 8063,
    "▁انصاری": 8064,
    "فاهی": 8065,
    "▁هموطنان": 8066,
    "هموار": 8067,
    "▁آستین": 8068,
    "▁زینب": 8069,
    "▁چفرین": 8070,
    "یتز": 8071,
    "▁قلمرو": 8072,
    "سیستم": 8073,
    "▁سلیق": 8074,
    "▁نگذاشت": 8075,
    "▁گاردن": 8076,
    "▁ویرانگر": 8077,
    "▁اشا": 8078,
    "▁چسباند": 8079,
    "▁نانو": 8080,
    "▁روزبه": 8081,
    "▁نامند": 8082,
    "▁تربت": 8083,
    "▁بلاتکلیفی": 8084,
    "▁هادرون": 8085,
    "▁کولبران": 8086,
    "▁مشاهدات": 8087,
    "▁بکر": 8088,
    "بازد": 8089,
    "▁لغز": 8090,
    "▁دانید": 8091,
    "شاد": 8092,
    "▁دیابت": 8093,
    "▁عزل": 8094,
    "▁کوثر": 8095,
    "▁میناری": 8096,
    "▁قبایل": 8097,
    "▁کمربندهای": 8098,
    "هایش": 8099,
    "▁اجداد": 8100,
    "سیم": 8101,
    "▁سرپوش": 8102,
    "▁لنز": 8103,
    "▁نمودار": 8104,
    "▁افشاگر": 8105,
    "▁کورین": 8106,
    "▁گوارش": 8107,
    "▁وفا": 8108,
    "▁گذراندم": 8109,
    "▁ندادند": 8110,
    "▁توتال": 8111,
    "▁درخشد": 8112,
    "▁اخطارهای": 8113,
    "▁وفن": 8114,
    "▁ترکمان": 8115,
    "▁فاکس": 8116,
    "▁شاهکارهای": 8117,
    "▁بدیع": 8118,
    "▁خطاط": 8119,
    "▁شنوند": 8120,
    "▁الجز": 8121,
    "▁زشت": 8122,
    "▁تایی": 8123,
    "▁مورفی": 8124,
    "▁بزرگسالان": 8125,
    "گوئه": 8126,
    "انسان": 8127,
    "طوری": 8128,
    "▁غذاخور": 8129,
    "▁امپر": 8130,
    "▁دزد": 8131,
    "رسون": 8132,
    "راز": 8133,
    "۱۹۶۴": 8134,
    "▁کوک": 8135,
    "▁دروغگو": 8136,
    "ولا": 8137,
    "تعدادی": 8138,
    "▁رخدادهای": 8139,
    "مرور": 8140,
    "▁چرن": 8141,
    "▁برگشتند": 8142,
    "▁فتو": 8143,
    "فیروز": 8144,
    "میمون": 8145,
    "▁فروشد": 8146,
    "مانه": 8147,
    "▁سنج": 8148,
    "▁ریختن": 8149,
    "▁عبدالرحم": 8150,
    "▁تجسمی": 8151,
    "▁نثر": 8152,
    "ورلد": 8153,
    "▁برنگشت": 8154,
    "▁دفع": 8155,
    "یانگ": 8156,
    "نجره": 8157,
    "۳۷": 8158,
    "ارا": 8159,
    "▁اژدها": 8160,
    "ذره": 8161,
    "▁یوسفی": 8162,
    "روزهای": 8163,
    "▁اکثرا": 8164,
    "لیس": 8165,
    "▁وانگ": 8166,
    "▁رازی": 8167,
    "▁آمری": 8168,
    "ودم": 8169,
    "▁غزل": 8170,
    "▁پرد": 8171,
    "کافی": 8172,
    "▁دیواره": 8173,
    "▁بوم": 8174,
    "▁عینی": 8175,
    "▁سوز": 8176,
    "نگاره": 8177,
    "نمود": 8178,
    "▁بلندپروازی": 8179,
    "▁بطر": 8180,
    "▁لیمو": 8181,
    "▁هجر": 8182,
    "▁سیاستگذار": 8183,
    "رزمی": 8184,
    "▁حک": 8185,
    "سبد": 8186,
    "▁بادام": 8187,
    "▁مایا": 8188,
    "شاملو": 8189,
    "گردانده": 8190,
    "▁طبقات": 8191,
    "گذشته": 8192,
    "▁محت": 8193,
    "▁آئ": 8194,
    "▁مکزیکو": 8195,
    "▁سناریوها": 8196,
    "▁چشید": 8197,
    "▁منه": 8198,
    "نمی": 8199,
    "ئیت": 8200,
    "▁بخ": 8201,
    "پایه": 8202,
    "▁دوهزار": 8203,
    "▁حوت": 8204,
    "▁اعم": 8205,
    "ائی": 8206,
    "▁بعض": 8207,
    "▁رژ": 8208,
    "ولوو": 8209,
    "▁کشیم": 8210,
    "مسترد": 8211,
    "▁منا": 8212,
    "ینک": 8213,
    "▁ندید": 8214,
    "▁علما": 8215,
    "خل": 8216,
    "▁اقسا": 8217,
    "کردن": 8218,
    "▁تراشید": 8219,
    "▁افسرد": 8220,
    "صله": 8221,
    "▁کیل": 8222,
    "انسون": 8223,
    "▁عاج": 8224,
    "پن": 8225,
    "▁گرینو": 8226,
    "▁ترانس": 8227,
    "۳۹": 8228,
    "▁سالروز": 8229,
    "▁ویر": 8230,
    "داشتن": 8231,
    "▁هیو": 8232,
    "▁مدرنی": 8233,
    "▁سفرش": 8234,
    "▁آسمانی": 8235,
    "صلی": 8236,
    "وئر": 8237,
    "▁سروده": 8238,
    "▁ازد": 8239,
    "▁آورید": 8240,
    "▁بگذاری": 8241,
    "▁مزد": 8242,
    "▁تختی": 8243,
    "ستانه": 8244,
    "▁انو": 8245,
    "▁آرنو": 8246,
    "رژ": 8247,
    "دانی": 8248,
    "▁خودکار": 8249,
    "▁گوا": 8250,
    "وازم": 8251,
    "▁دانستم": 8252,
    "ئوس": 8253,
    "▁نر": 8254,
    "▁همهمه": 8255,
    "استان": 8256,
    "▁کویت": 8257,
    "▁نماید": 8258,
    "▁سکو": 8259,
    "▁نواخت": 8260,
    "ضا": 8261,
    "▁میزبانش": 8262,
    "▁درصدد": 8263,
    "▁افرا": 8264,
    "▁کنارش": 8265,
    "▁امضاکنند": 8266,
    "رغ": 8267,
    "کسان": 8268,
    "ادام": 8269,
    "▁کارکنانش": 8270,
    "کسر": 8271,
    "▁استرا": 8272,
    "وکارها": 8273,
    "لسون": 8274,
    "▁رسیم": 8275,
    "▁لینگ": 8276,
    "▁تراژ": 8277,
    "▁خطی": 8278,
    "امک": 8279,
    "دیده": 8280,
    "▁بز": 8281,
    "دایی": 8282,
    "گوید": 8283,
    "رگامو": 8284,
    "۱۲": 8285,
    "▁چهارده": 8286,
    "▁ستود": 8287,
    "▁شرعی": 8288,
    "▁افغانی": 8289,
    "▁شوراها": 8290,
    "▁اوکا": 8291,
    "▁عطار": 8292,
    "▁زدم": 8293,
    "ناتان": 8294,
    "وبیل": 8295,
    "وکسل": 8296,
    "▁پرستاره": 8297,
    "خوانده": 8298,
    "شابه": 8299,
    "▁وات": 8300,
    "واضع": 8301,
    "▁خالد": 8302,
    "▁رجبی": 8303,
    "▁مفسر": 8304,
    "جله": 8305,
    "▁غوری": 8306,
    "▁ناامیدی": 8307,
    "▁دیاب": 8308,
    "▁نفی": 8309,
    "▁افکند": 8310,
    "▁آش": 8311,
    "▁هایپر": 8312,
    "▁آمونی": 8313,
    "▁وث": 8314,
    "▁تدا": 8315,
    "▁بشود": 8316,
    "▁خودس": 8317,
    "▁تخار": 8318,
    "درباره": 8319,
    "▁سامانی": 8320,
    "وط": 8321,
    "▁ره": 8322,
    "یدن": 8323,
    "▁نایت": 8324,
    "▁زیباتر": 8325,
    "▁پیکا": 8326,
    "▁همگان": 8327,
    "▁دژ": 8328,
    "▁دوسال": 8329,
    "▁سینا": 8330,
    "▁۱۳۲": 8331,
    "▁مث": 8332,
    "▁سودجو": 8333,
    "▁نروژی": 8334,
    "نتین": 8335,
    "▁افع": 8336,
    "یکون": 8337,
    "▁صلیب": 8338,
    "مس": 8339,
    "▁سول": 8340,
    "▁مارین": 8341,
    "▁عار": 8342,
    "▁عوا": 8343,
    "▁نپذیرفت": 8344,
    "▁مصو": 8345,
    "خاطره": 8346,
    "▁شرکا": 8347,
    "بوک": 8348,
    "تاد": 8349,
    "مهم": 8350,
    "▁۱۷۳": 8351,
    "شدن": 8352,
    "▁آموختن": 8353,
    "▁بگ": 8354,
    "▁تقلا": 8355,
    "▁محص": 8356,
    "تراپ": 8357,
    "▁معط": 8358,
    "لاس": 8359,
    "▁نیر": 8360,
    "▁شروط": 8361,
    "▁متف": 8362,
    "▁باک": 8363,
    "ادیو": 8364,
    "راد": 8365,
    "یغ": 8366,
    "▁کلینت": 8367,
    "▁نگا": 8368,
    "▁یدک": 8369,
    "گذشت": 8370,
    "▁نجفی": 8371,
    "▁پهن": 8372,
    "جمهوری": 8373,
    "▁چید": 8374,
    "▁سوپ": 8375,
    "▁خصوصا": 8376,
    "▁زوم": 8377,
    "▁درب": 8378,
    "▁بکت": 8379,
    "▁میدهد": 8380,
    "▁اشع": 8381,
    "▁وول": 8382,
    "▁لویی": 8383,
    "دلی": 8384,
    "اچ": 8385,
    "موش": 8386,
    "▁لات": 8387,
    "▁زنم": 8388,
    "سپاس": 8389,
    "تکه": 8390,
    "▁شارل": 8391,
    "▁شورشی": 8392,
    "▁یابی": 8393,
    "بق": 8394,
    "▁تولیدش": 8395,
    "▁اسکا": 8396,
    "▁استف": 8397,
    "ساعت": 8398,
    "▁طو": 8399,
    "گز": 8400,
    "لال": 8401,
    "▁گرداند": 8402,
    "صدا": 8403,
    "▁آمی": 8404,
    "ویا": 8405,
    "انریک": 8406,
    "پرستانه": 8407,
    "▁مصل": 8408,
    "وک": 8409,
    "▁سخ": 8410,
    "▁تحریمها": 8411,
    "▁حقوقدان": 8412,
    "توافق": 8413,
    "زمه": 8414,
    "▁کریر": 8415,
    "باسی": 8416,
    "▁محی": 8417,
    "▁استودیوی": 8418,
    "▁دیرین": 8419,
    "▁کوما": 8420,
    "▁ضم": 8421,
    "ترک": 8422,
    "سید": 8423,
    "▁چنگ": 8424,
    "▁آرت": 8425,
    "▁خب": 8426,
    "بست": 8427,
    "انند": 8428,
    "دیس": 8429,
    "▁استکه": 8430,
    "اکس": 8431,
    "ونیا": 8432,
    "سینگ": 8433,
    "دنی": 8434,
    "مشق": 8435,
    "▁شمرد": 8436,
    "▁ماد": 8437,
    "جمله": 8438,
    "▁پاشید": 8439,
    "▁خند": 8440,
    "▁آلم": 8441,
    "اسیرو": 8442,
    "▁فلی": 8443,
    "ماشین": 8444,
    "▁حض": 8445,
    "▁بندهای": 8446,
    "حضا": 8447,
    "زنده": 8448,
    "وضعیت": 8449,
    "یگز": 8450,
    "یرو": 8451,
    "اندز": 8452,
    "لایه": 8453,
    "اسرائیل": 8454,
    "یدی": 8455,
    "▁رشدی": 8456,
    "کین": 8457,
    "▁گذاریم": 8458,
    "ربین": 8459,
    "▁همب": 8460,
    "▁ناک": 8461,
    "صال": 8462,
    "▁۲۱۶": 8463,
    "اندر": 8464,
    "یوآ": 8465,
    "▁پارو": 8466,
    "▁دایی": 8467,
    "سک": 8468,
    "▁اط": 8469,
    "▁۴۸۰": 8470,
    "▁کارم": 8471,
    "▁شراب": 8472,
    "افراد": 8473,
    "ندگی": 8474,
    "خارج": 8475,
    "▁اپ": 8476,
    "توان": 8477,
    "یلو": 8478,
    "ریتز": 8479,
    "شکاف": 8480,
    "▁لیلا": 8481,
    "▁برو": 8482,
    "محل": 8483,
    "نویس": 8484,
    "▁بلخی": 8485,
    "یناتور": 8486,
    "▁کوئی": 8487,
    "▁بکش": 8488,
    "یگ": 8489,
    "سای": 8490,
    "▁محر": 8491,
    "حمایت": 8492,
    "غا": 8493,
    "▁پرکار": 8494,
    "اردی": 8495,
    "مختار": 8496,
    "▁جوانب": 8497,
    "▁گنجان": 8498,
    "▁چپگرا": 8499,
    "عربستان": 8500,
    "▁۱۸۹": 8501,
    "▁جودوکا": 8502,
    "سند": 8503,
    "▁نیاورده": 8504,
    "ناسا": 8505,
    "آزمایش": 8506,
    "همکاری": 8507,
    "▁دستمزدها": 8508,
    "پرونده": 8509,
    "▁گراز": 8510,
    "انیس": 8511,
    "▁پنجاهم": 8512,
    "روژ": 8513,
    "▁فرودست": 8514,
    "سپاه": 8515,
    "بور": 8516,
    "▁خاکس": 8517,
    "▁کاو": 8518,
    "حکومت": 8519,
    "▁کنش": 8520,
    "جیل": 8521,
    "▁رول": 8522,
    "ریدار": 8523,
    "▁نیرومند": 8524,
    "مسئول": 8525,
    "▁مشروع": 8526,
    "صنعت": 8527,
    "شکست": 8528,
    "ارتوم": 8529,
    "▁اجسا": 8530,
    "شکنی": 8531,
    "▁نیت": 8532,
    "جوان": 8533,
    "▁بیک": 8534,
    "دخیل": 8535,
    "ورانه": 8536,
    "غدی": 8537,
    "خروج": 8538,
    "نای": 8539,
    "نهادهای": 8540,
    "دنبال": 8541,
    "سقوط": 8542,
    "کانس": 8543,
    "دستور": 8544,
    "جنگ": 8545,
    "ارآفرین": 8546,
    "جات": 8547,
    "پوش": 8548,
    "درخواست": 8549,
    "جشن": 8550,
    "▁نبرده": 8551,
    "سیاسی": 8552,
    "فضای": 8553,
    "۲۱": 8554,
    "عملکرد": 8555,
    "▁بخواب": 8556,
    "خواننده": 8557,
    "گستر": 8558,
    "چاپ": 8559,
    "اظهارات": 8560,
    "▁همپ": 8561,
    "رید": 8562,
    "پات": 8563,
    "مصرف": 8564,
    "سفیر": 8565,
    "کلی": 8566,
    "برزیل": 8567,
    "مطالع": 8568,
    "▁بریم": 8569,
    "▁حریفش": 8570,
    "نیویورک": 8571,
    "رویترز": 8572,
    "مدیریت": 8573,
    "رکود": 8574,
    "روبرت": 8575,
    "سوئیس": 8576,
    "▁سک": 8577,
    "فیفا": 8578,
    "حکام": 8579,
    "ارکان": 8580,
    "نویسندگان": 8581,
    "رئال": 8582,
    "▁ناکار": 8583,
    "بنیا": 8584,
    "▁گرجستان": 8585,
    "کشف": 8586,
    "حساب": 8587,
    "ابراهیم": 8588,
    "مدیرکل": 8589,
    "خاوران": 8590,
    "اسپوت": 8591,
    "متری": 8592,
    "وپ": 8593,
    "میان": 8594,
    "▁دستش": 8595,
    "جیمز": 8596,
    "▁دوآ": 8597,
    "اسنو": 8598,
    "ازنده": 8599,
    "ناتالی": 8600,
    "سناتور": 8601,
    "▁ساسان": 8602,
    "دوست": 8603,
    "▁بهت": 8604,
    "لاپورتا": 8605,
    "▁۱۲۶": 8606,
    "بیانسه": 8607,
    "▁کیس": 8608,
    "لیور": 8609,
    "فاضل": 8610,
    "هجوم": 8611,
    "پینو": 8612,
    "ضی": 8613,
    "جسد": 8614,
    "▁زای": 8615,
    "تابعیت": 8616,
    "▁خونی": 8617,
    "▁نزده": 8618,
    "▁ناشنا": 8619,
    "نوسان": 8620,
    "وکیل": 8621,
    "کریس": 8622,
    "ایرنا": 8623,
    "بالگرد": 8624,
    "بدهی": 8625,
    "▁سندر": 8626,
    "▁گارس": 8627,
    "سنج": 8628,
    "پیکر": 8629,
    "دقیق": 8630,
    "▁پترو": 8631,
    "نقش": 8632,
    "پژوه": 8633,
    "نسون": 8634,
    "قبلا": 8635,
    "رمد": 8636,
    "ناوب": 8637,
    "▁خانوارها": 8638,
    "لیه": 8639,
    "▁دیدگ": 8640,
    "▁والن": 8641,
    "ناوگان": 8642,
    "▁مزایا": 8643,
    "▁پابل": 8644,
    "مانس": 8645,
    "۷۲": 8646,
    "▁اوار": 8647,
    "▁چیزها": 8648,
    "حکمت": 8649,
    "علنی": 8650,
    "▁علام": 8651,
    "▁رج": 8652,
    "مکرون": 8653,
    "▁ندا": 8654,
    "۱۴۶": 8655,
    "▁تجسم": 8656,
    "ومی": 8657,
    "لوح": 8658,
    "کیهان": 8659,
    "فورا": 8660,
    "جین": 8661,
    "بولت": 8662,
    "▁کتا": 8663,
    "میلان": 8664,
    "وشن": 8665,
    "▁بفهمی": 8666,
    "▁هواپیماها": 8667,
    "▁مختص": 8668,
    "لاخ": 8669,
    "رویز": 8670,
    "▁خودرا": 8671,
    "۹۴": 8672,
    "صرب": 8673,
    "برت": 8674,
    "۳۸": 8675,
    "ایده": 8676,
    "▁کاف": 8677,
    "▁فروخت": 8678,
    "▁لوف": 8679,
    "▁توئیت": 8680,
    "▁قهری": 8681,
    "نگو": 8682,
    "رجان": 8683,
    "▁شوخ": 8684,
    "منتف": 8685,
    "▁معوق": 8686,
    "جنسی": 8687,
    "▁هک": 8688,
    "گمش": 8689,
    "شهرت": 8690,
    "▁بدتری": 8691,
    "▁شراف": 8692,
    "▁نگو": 8693,
    "نشدنی": 8694,
    "بیورن": 8695,
    "▁بیگان": 8696,
    "▁صیاد": 8697,
    "نکات": 8698,
    "سبک": 8699,
    "تقابل": 8700,
    "▁فلامینگو": 8701,
    "▁جید": 8702,
    "▁دیگ": 8703,
    "تص": 8704,
    "رام": 8705,
    "▁آبه": 8706,
    "ونتی": 8707,
    "▁مسیرها": 8708,
    "▁کثی": 8709,
    "▁محک": 8710,
    "نال": 8711,
    "▁همسایگ": 8712,
    "۹۵": 8713,
    "▁نوزدهمی": 8714,
    "قول": 8715,
    "▁غواص": 8716,
    "طابق": 8717,
    "▁آری": 8718,
    "اسکار": 8719,
    "▁غر": 8720,
    "▁اتم": 8721,
    "▁فض": 8722,
    "یکپا": 8723,
    "▁مطبوع": 8724,
    "▁غیرعم": 8725,
    "▁زحم": 8726,
    "باستان": 8727,
    "قضی": 8728,
    "▁مدا": 8729,
    "▁کلت": 8730,
    "توم": 8731,
    "گرفتن": 8732,
    "▁ابتذال": 8733,
    "▁اوگوپوگو": 8734,
    "▁سوسیالیست": 8735,
    "▁طنزپرداز": 8736,
    "▁فیزیولوژی": 8737,
    "▁انقباض": 8738,
    "▁بفرستد": 8739,
    "▁بورکینافاسو": 8740,
    "▁سوبرانا": 8741,
    "▁هخامنشی": 8742,
    "▁پورنوگرافی": 8743,
    "▁بشنوند": 8744,
    "▁تمسخر": 8745,
    "▁پرینسخرا": 8746,
    "▁مغانلو": 8747,
    "▁معشوق": 8748,
    "▁میکروسکوپ": 8749,
    "▁فانخیو": 8750,
    "▁کاریکاتور": 8751,
    "▁فلسفی": 8752,
    "▁پرسورینس": 8753,
    "▁اولیانوف": 8754,
    "▁خویشاوند": 8755,
    "▁قیراط": 8756,
    "▁تشریفات": 8757,
    "▁شریعت": 8758,
    "▁بپرسید": 8759,
    "▁سمنزا": 8760,
    "▁خاستگاه": 8761,
    "▁فرخزاد": 8762,
    "▁ناآشنا": 8763,
    "▁اقوام": 8764,
    "▁شرمسار": 8765,
    "▁لوکزامبورگ": 8766,
    "▁نوترینو": 8767,
    "▁وسعت": 8768,
    "▁همجوار": 8769,
    "▁گمپرت": 8770,
    "▁شیطان": 8771,
    "▁متقلب": 8772,
    "▁سوینتن": 8773,
    "▁غمگین": 8774,
    "▁پاندمی": 8775,
    "▁بازوبند": 8776,
    "▁اساتید": 8777,
    "▁انحراف": 8778,
    "▁نافرجام": 8779,
    "▁اوتیسم": 8780,
    "▁تمهید": 8781,
    "▁تدارک": 8782,
    "▁برسانیم": 8783,
    "▁وصیت": 8784,
    "▁آژیر": 8785,
    "▁برگردانند": 8786,
    "▁۵۳ساله": 8787,
    "▁مصادیق": 8788,
    "▁فورهند": 8789,
    "▁هیلتون": 8790,
    "▁جانبازان": 8791,
    "ارگ": 8792,
    "▁الخروج": 8793,
    "▁الفبا": 8794,
    "ثه": 8795,
    "▁نزاع": 8796,
    "▁فرازمینی": 8797,
    "▁ارباب": 8798,
    "▁سرسبز": 8799,
    "▁ویسکانس": 8800,
    "▁علیشاهی": 8801,
    "▁ناخدا": 8802,
    "▁معضل": 8803,
    "▁کوئینز": 8804,
    "▁هنجار": 8805,
    "▁ستیزانه": 8806,
    "▁ارنست": 8807,
    "▁بشناسد": 8808,
    "▁طلسم": 8809,
    "▁مفسد": 8810,
    "▁داینا": 8811,
    "▁ارژن": 8812,
    "▁منحنی": 8813,
    "▁مشکاتیان": 8814,
    "▁سنجاب": 8815,
    "کلا": 8816,
    "▁۱۳۲۳": 8817,
    "▁فاضلاب": 8818,
    "▁سیندمی": 8819,
    "▁خوشبو": 8820,
    "▁حروف": 8821,
    "▁دفعات": 8822,
    "▁بیفتند": 8823,
    "شانت": 8824,
    "▁نویدبخش": 8825,
    "▁معابد": 8826,
    "▁۵۵۶": 8827,
    "▁گنبد": 8828,
    "▁مرورگر": 8829,
    "▁بنویسد": 8830,
    "▁المپی": 8831,
    "▁تشابه": 8832,
    "▁۱۹۴۴": 8833,
    "▁بازگردم": 8834,
    "▁سروصدا": 8835,
    "▁ونوس": 8836,
    "▁مقبول": 8837,
    "▁همینگوی": 8838,
    "▁دیلن": 8839,
    "▁ناظمی": 8840,
    "۸۱": 8841,
    "▁کانتونا": 8842,
    "▁وزیری": 8843,
    "ارزپاشی": 8844,
    "▁فرمایش": 8845,
    "داگ": 8846,
    "▁بردارم": 8847,
    "▁منکین": 8848,
    "▁طومار": 8849,
    "▁آتلانتا": 8850,
    "▁آندریا": 8851,
    "▁تظاهر": 8852,
    "▁ترفتال": 8853,
    "▁گزاف": 8854,
    "▁قبرس": 8855,
    "▁سمع": 8856,
    "صنوف": 8857,
    "▁جوابگوی": 8858,
    "▁اسکلت": 8859,
    "▁۲۶۶": 8860,
    "▁گوتنب": 8861,
    "▁بنرهای": 8862,
    "▁بهائی": 8863,
    "▁آتلانت": 8864,
    "▁مرندی": 8865,
    "▁حر": 8866,
    "▁بگذار": 8867,
    "▁مزیت": 8868,
    "▁رافا": 8869,
    "▁روباه": 8870,
    "ولکس": 8871,
    "▁۲۳۹": 8872,
    "▁بارکلی": 8873,
    "اینس": 8874,
    "خوش": 8875,
    "▁رجیس": 8876,
    "▁تنبل": 8877,
    "▁بازدارند": 8878,
    "▁بگریز": 8879,
    "▁میانمار": 8880,
    "▁زیربنا": 8881,
    "▁جویانه": 8882,
    "▁ناباور": 8883,
    "اپور": 8884,
    "▁پوسید": 8885,
    "▁دارالا": 8886,
    "▁۱۹۱۸": 8887,
    "▁هالووین": 8888,
    "▁مشهود": 8889,
    "▁خف": 8890,
    "▁مارلی": 8891,
    "▁بازوهای": 8892,
    "▁صداقت": 8893,
    "وئیس": 8894,
    "حک": 8895,
    "وماگا": 8896,
    "▁پارکین": 8897,
    "جف": 8898,
    "بنز": 8899,
    "▁مکاتبات": 8900,
    "لخ": 8901,
    "▁ترو": 8902,
    "▁بوفالوران": 8903,
    "▁فرستند": 8904,
    "آمدن": 8905,
    "▁مرج": 8906,
    "▁خرنامه": 8907,
    "▁ایدز": 8908,
    "▁پیشگیر": 8909,
    "▁نداشتیم": 8910,
    "▁شوکور": 8911,
    "▁هولو": 8912,
    "▁فلسطینی": 8913,
    "اتب": 8914,
    "▁اندرو": 8915,
    "▁باگ": 8916,
    "عزیز": 8917,
    "▁محصور": 8918,
    "▁بامیه": 8919,
    "رل": 8920,
    "▁همبازی": 8921,
    "▁شهباز": 8922,
    "▁چهارصد": 8923,
    "▁لرزید": 8924,
    "▁معبد": 8925,
    "▁جهانبخ": 8926,
    "▁زرتشتی": 8927,
    "جد": 8928,
    "▁جدیدش": 8929,
    "کنفرانس": 8930,
    "متاز": 8931,
    "▁شکس": 8932,
    "▁ازآن": 8933,
    "▁واژگان": 8934,
    "رمانی": 8935,
    "▁جوری": 8936,
    "ستحکم": 8937,
    "ساندر": 8938,
    "▁صدیق": 8939,
    "▁فالک": 8940,
    "▁منصف": 8941,
    "▁ترنس": 8942,
    "▁زالی": 8943,
    "▁اوساکا": 8944,
    "▁یادمان": 8945,
    "رض": 8946,
    "▁رحیم": 8947,
    "▁معلومات": 8948,
    "▁ویدئوهای": 8949,
    "▁سندگرن": 8950,
    "▁رقصیدن": 8951,
    "▁سویی": 8952,
    "▁آجر": 8953,
    "▁بحری": 8954,
    "ونکو": 8955,
    "▁تعلیم": 8956,
    "▁هرج": 8957,
    "وشکن": 8958,
    "▁موازن": 8959,
    "فراگ": 8960,
    "▁آلتر": 8961,
    "▁اسکات": 8962,
    "▁مستعد": 8963,
    "▁کاسی": 8964,
    "▁ساچ": 8965,
    "▁دستفروش": 8966,
    "مانند": 8967,
    "پائی": 8968,
    "▁قدیس": 8969,
    "دوج": 8970,
    "▁تماشگر": 8971,
    "▁گمارد": 8972,
    "▁لطیفی": 8973,
    "شود": 8974,
    "▁تناقض": 8975,
    "هند": 8976,
    "▁فراوانش": 8977,
    "▁نوشتارها": 8978,
    "هسته": 8979,
    "▁فاصل": 8980,
    "اسرای": 8981,
    "▁بسط": 8982,
    "نعیم": 8983,
    "▁محبت": 8984,
    "ونت": 8985,
    "▁شگرد": 8986,
    "▁راهکارهای": 8987,
    "▁فقی": 8988,
    "▁جوج": 8989,
    "▁جذابی": 8990,
    "▁بم": 8991,
    "▁جوزا": 8992,
    "▁بنفش": 8993,
    "▁شاخک": 8994,
    "پیس": 8995,
    "یقه": 8996,
    "وانیم": 8997,
    "▁کاترین": 8998,
    "▁رحیمی": 8999,
    "مال": 9000,
    "پهن": 9001,
    "▁درصورت": 9002,
    "▁فرشید": 9003,
    "▁چتر": 9004,
    "انشهر": 9005,
    "▁الزاما": 9006,
    "دارا": 9007,
    "▁شرت": 9008,
    "▁ترسند": 9009,
    "▁یادش": 9010,
    "۶۸": 9011,
    "▁دائما": 9012,
    "▁دالان": 9013,
    "▁گیج": 9014,
    "▁پربار": 9015,
    "▁ماریان": 9016,
    "لز": 9017,
    "▁حقیق": 9018,
    "▁قبای": 9019,
    "خدم": 9020,
    "رونا": 9021,
    "▁کاپل": 9022,
    "▁انگ": 9023,
    "▁فیض": 9024,
    "▁استانها": 9025,
    "▁دکترای": 9026,
    "ساتبی": 9027,
    "▁هیج": 9028,
    "▁دستیاران": 9029,
    "▁۷۶۰": 9030,
    "▁الع": 9031,
    "▁خوانید": 9032,
    "هفتم": 9033,
    "▁یوآن": 9034,
    "▁ترا": 9035,
    "▁کشمیر": 9036,
    "▁یزدان": 9037,
    "▁کتابخوان": 9038,
    "۸۸": 9039,
    "نیو": 9040,
    "▁گاردی": 9041,
    "▁جهاندار": 9042,
    "عت": 9043,
    "اویر": 9044,
    "▁اظهارنظرهای": 9045,
    "۷۸": 9046,
    "راث": 9047,
    "جمعی": 9048,
    "موسی": 9049,
    "رگذشت": 9050,
    "▁چهلم": 9051,
    "رک": 9052,
    "▁پرمخاط": 9053,
    "▁زاها": 9054,
    "کران": 9055,
    "▁چغا": 9056,
    "▁بدهیم": 9057,
    "▁جلوست": 9058,
    "▁استدفتر": 9059,
    "▁شناسیم": 9060,
    "نتسب": 9061,
    "حالی": 9062,
    "▁بیدگ": 9063,
    "فشان": 9064,
    "یکصد": 9065,
    "▁کلاسیکو": 9066,
    "زنان": 9067,
    "▁لوت": 9068,
    "▁چشمم": 9069,
    "▁آفرید": 9070,
    "▁طاهری": 9071,
    "▁قبض": 9072,
    "▁ویسل": 9073,
    "▁هرچیز": 9074,
    "▁ماجراهای": 9075,
    "▁آرن": 9076,
    "نیت": 9077,
    "کیا": 9078,
    "▁وسای": 9079,
    "▁الیو": 9080,
    "▁شودبا": 9081,
    "حریف": 9082,
    "▁آهست": 9083,
    "▁ترسم": 9084,
    "مثبت": 9085,
    "حاملگی": 9086,
    "ولاتش": 9087,
    "▁مته": 9088,
    "▁دارن": 9089,
    "▁فرگوس": 9090,
    "چهارم": 9091,
    "جاز": 9092,
    "▁افتادند": 9093,
    "▁برنج": 9094,
    "کاران": 9095,
    "▁خفا": 9096,
    "▁معل": 9097,
    "تمایل": 9098,
    "چو": 9099,
    "سیاست": 9100,
    "▁نبردی": 9101,
    "تاز": 9102,
    "▁بنی": 9103,
    "▁پدرو": 9104,
    "▁بویی": 9105,
    "ارک": 9106,
    "▁کاشت": 9107,
    "لیدی": 9108,
    "▁کامر": 9109,
    "▁نیستید": 9110,
    "لوگ": 9111,
    "▁پاور": 9112,
    "▁آمو": 9113,
    "▁شست": 9114,
    "▁بنام": 9115,
    "▁سرگرفتن": 9116,
    "▁انگیزش": 9117,
    "▁پذیرد": 9118,
    "▁وزر": 9119,
    "▁پاتری": 9120,
    "ستری": 9121,
    "رگز": 9122,
    "شیر": 9123,
    "▁بارتو": 9124,
    "لنگ": 9125,
    "گرانی": 9126,
    "تحرک": 9127,
    "▁رهنو": 9128,
    "▁تعبی": 9129,
    "▁توسل": 9130,
    "▁شناختند": 9131,
    "شیتز": 9132,
    "▁نرفتن": 9133,
    "▁الف": 9134,
    "▁ارو": 9135,
    "▁دستورات": 9136,
    "▁بلیک": 9137,
    "▁پوک": 9138,
    "▁قهر": 9139,
    "▁لیز": 9140,
    "عر": 9141,
    "▁کولبری": 9142,
    "▁آوریم": 9143,
    "اردونا": 9144,
    "▁رامین": 9145,
    "▁افراز": 9146,
    "▁رویکردهای": 9147,
    "ارض": 9148,
    "میزان": 9149,
    "▁ایرانسل": 9150,
    "▁مهرا": 9151,
    "سپورت": 9152,
    "۷۷": 9153,
    "▁منسو": 9154,
    "مش": 9155,
    "انده": 9156,
    "چار": 9157,
    "▁همد": 9158,
    "مری": 9159,
    "سورها": 9160,
    "▁استعماری": 9161,
    "▁نگ": 9162,
    "ونومی": 9163,
    "استین": 9164,
    "نبه": 9165,
    "▁ناخ": 9166,
    "▁گود": 9167,
    "▁سیلوا": 9168,
    "گیرند": 9169,
    "الار": 9170,
    "▁کارآمد": 9171,
    "▁نیافتاد": 9172,
    "▁نحس": 9173,
    "▁اوب": 9174,
    "▁وصدا": 9175,
    "ازاد": 9176,
    "وشه": 9177,
    "▁مذاکراتش": 9178,
    "▁کلک": 9179,
    "نما": 9180,
    "▁گاف": 9181,
    "▁کاش": 9182,
    "▁وتو": 9183,
    "▁اتفاقا": 9184,
    "قیق": 9185,
    "▁دره": 9186,
    "▁خانود": 9187,
    "دهی": 9188,
    "راکت": 9189,
    "▁رسند": 9190,
    "▁پولدار": 9191,
    "ناوند": 9192,
    "▁لایک": 9193,
    "▁کاپ": 9194,
    "▁راهکار": 9195,
    "عود": 9196,
    "▁سپهر": 9197,
    "▁درسا": 9198,
    "زهای": 9199,
    "جاست": 9200,
    "▁بلوم": 9201,
    "▁سکوی": 9202,
    "رنوش": 9203,
    "وص": 9204,
    "▁گفتم": 9205,
    "ننده": 9206,
    "▁قمر": 9207,
    "▁پرداختند": 9208,
    "▁اندیشید": 9209,
    "بریتی": 9210,
    "▁بیگ": 9211,
    "▁وایت": 9212,
    "وشیرو": 9213,
    "سادگی": 9214,
    "▁حم": 9215,
    "▁مبه": 9216,
    "ینا": 9217,
    "کابو": 9218,
    "▁یوس": 9219,
    "▁۱۳۱": 9220,
    "▁سراغش": 9221,
    "نگوی": 9222,
    "▁قه": 9223,
    "۸۲": 9224,
    "باف": 9225,
    "وکس": 9226,
    "▁نزدیکانش": 9227,
    "اشک": 9228,
    "اطی": 9229,
    "تال": 9230,
    "▁ضمی": 9231,
    "یافت": 9232,
    "▁صعودش": 9233,
    "▁بری": 9234,
    "زمانی": 9235,
    "یشان": 9236,
    "بریز": 9237,
    "▁گلد": 9238,
    "▁راب": 9239,
    "▁ماهیان": 9240,
    "فرنو": 9241,
    "▁سلیم": 9242,
    "▁اوجی": 9243,
    "یری": 9244,
    "▁کنسولی": 9245,
    "▁تیز": 9246,
    "وردی": 9247,
    "▁نایم": 9248,
    "▁سندی": 9249,
    "▁قضا": 9250,
    "▁ولای": 9251,
    "نازل": 9252,
    "▁هوی": 9253,
    "▁هندو": 9254,
    "▁کریستین": 9255,
    "▁بلن": 9256,
    "▁چاو": 9257,
    "▁حواسش": 9258,
    "ولز": 9259,
    "▁ایرایی": 9260,
    "گلدار": 9261,
    "▁سازمانها": 9262,
    "▁تنه": 9263,
    "▁هواپیماساز": 9264,
    "▁ابراهیمی": 9265,
    "۴۳": 9266,
    "فرد": 9267,
    "آخر": 9268,
    "▁میانج": 9269,
    "▁العم": 9270,
    "▁بازو": 9271,
    "مداری": 9272,
    "ئل": 9273,
    "▁مستندهای": 9274,
    "▁ولت": 9275,
    "۸۷": 9276,
    "ادیوم": 9277,
    "ساطی": 9278,
    "▁بلندهای": 9279,
    "▁۱۱۹": 9280,
    "تانک": 9281,
    "اشا": 9282,
    "طغ": 9283,
    "▁فدریک": 9284,
    "▁۱۶۶": 9285,
    "▁نفربر": 9286,
    "تقبل": 9287,
    "سرع": 9288,
    "کاظمی": 9289,
    "انستان": 9290,
    "قانون": 9291,
    "فهمد": 9292,
    "خور": 9293,
    "▁وینس": 9294,
    "▁نول": 9295,
    "▁دولتها": 9296,
    "ارز": 9297,
    "▁نقاشان": 9298,
    "اشق": 9299,
    "▁مدد": 9300,
    "▁مینیاتوری": 9301,
    "عکسی": 9302,
    "▁نگفت": 9303,
    "▁وظایفش": 9304,
    "▁هزاره": 9305,
    "طلس": 9306,
    "▁زوا": 9307,
    "▁رویت": 9308,
    "منت": 9309,
    "ورسوی": 9310,
    "▁جنگیدن": 9311,
    "یلد": 9312,
    "اگون": 9313,
    "اقت": 9314,
    "▁مستن": 9315,
    "بسیار": 9316,
    "▁مشترکان": 9317,
    "▁نتوان": 9318,
    "نگاه": 9319,
    "انو": 9320,
    "بومی": 9321,
    "▁سپه": 9322,
    "دلار": 9323,
    "▁تصو": 9324,
    "▁لاب": 9325,
    "▁جدیدتر": 9326,
    "دروس": 9327,
    "یمن": 9328,
    "اپیش": 9329,
    "ختی": 9330,
    "▁ببری": 9331,
    "▁نظار": 9332,
    "۸۰۰۰": 9333,
    "رویا": 9334,
    "انچین": 9335,
    "محمدی": 9336,
    "▁گرون": 9337,
    "▁اتکای": 9338,
    "ستردا": 9339,
    "بد": 9340,
    "▁ابط": 9341,
    "▁ویلر": 9342,
    "یوید": 9343,
    "رصدخان": 9344,
    "▁ناگ": 9345,
    "▁..": 9346,
    "خو": 9347,
    "کسوت": 9348,
    "تد": 9349,
    "▁لیم": 9350,
    "جماع": 9351,
    "ضیا": 9352,
    "▁منح": 9353,
    "ولادی": 9354,
    "چلو": 9355,
    "لینک": 9356,
    "هکرهای": 9357,
    "▁مگ": 9358,
    "▁استانداردها": 9359,
    "ناتور": 9360,
    "▁کیش": 9361,
    "رابی": 9362,
    "وژه": 9363,
    "▁نبودن": 9364,
    "▁کیپ": 9365,
    "گور": 9366,
    "یگری": 9367,
    "صادف": 9368,
    "▁رزو": 9369,
    "▁عمرم": 9370,
    "۹۰": 9371,
    "ورس": 9372,
    "وقی": 9373,
    "▁محصولش": 9374,
    "۸۰": 9375,
    "چون": 9376,
    "▁ماریو": 9377,
    "رال": 9378,
    "▁استرلی": 9379,
    "انگر": 9380,
    "تامین": 9381,
    "شبن": 9382,
    "▁فراپا": 9383,
    "▁آنجل": 9384,
    "▁فوب": 9385,
    "شواری": 9386,
    "▁آین": 9387,
    "▁مزارش": 9388,
    "فعال": 9389,
    "ارسیا": 9390,
    "اشته": 9391,
    "▁دریاب": 9392,
    "▁بنشین": 9393,
    "جران": 9394,
    "تاریخ": 9395,
    "اندرو": 9396,
    "ثر": 9397,
    "▁شغلش": 9398,
    "تعلل": 9399,
    "▁۱۸۸": 9400,
    "ودن": 9401,
    "▁آسود": 9402,
    "▁مخاط": 9403,
    "▁موفقی": 9404,
    "▁مسا": 9405,
    "▁۱۲۷": 9406,
    "▁جود": 9407,
    "دیر": 9408,
    "▁پشتکار": 9409,
    "بدیل": 9410,
    "عفو": 9411,
    "کلاس": 9412,
    "اقدام": 9413,
    "▁فضاپیما": 9414,
    "بول": 9415,
    "سگ": 9416,
    "▁فهمیدن": 9417,
    "▁۱۲۸": 9418,
    "فرید": 9419,
    "▁اندروز": 9420,
    "ضب": 9421,
    "رونالدو": 9422,
    "▁پهنا": 9423,
    "فال": 9424,
    "آقا": 9425,
    "▁برپا": 9426,
    "چیزی": 9427,
    "▁بهنا": 9428,
    "خرید": 9429,
    "صدای": 9430,
    "▁پود": 9431,
    "▁شرع": 9432,
    "لج": 9433,
    "مگان": 9434,
    "فعالیت": 9435,
    "▁سرزن": 9436,
    "کای": 9437,
    "▁ترسید": 9438,
    "▁دز": 9439,
    "تس": 9440,
    "روحانی": 9441,
    "مانیا": 9442,
    "سمانی": 9443,
    "نشینان": 9444,
    "▁مری": 9445,
    "وگو": 9446,
    "ورنتین": 9447,
    "▁۶۳۰": 9448,
    "کارت": 9449,
    "▁باشی": 9450,
    "نگل": 9451,
    "فان": 9452,
    "▁بک": 9453,
    "▁سبزی": 9454,
    "پیدا": 9455,
    "نوان": 9456,
    "▁هنک": 9457,
    "درآمد": 9458,
    "▁آبیار": 9459,
    "▁تشخیصی": 9460,
    "وینچ": 9461,
    "▁شدایران": 9462,
    "▁محمدحس": 9463,
    "▁براه": 9464,
    "▁بیند": 9465,
    "▁مبل": 9466,
    "دیو": 9467,
    "سپی": 9468,
    "▁واژگ": 9469,
    "▁پرور": 9470,
    "بودجه": 9471,
    "عل": 9472,
    "▁یونیو": 9473,
    "▁آنف": 9474,
    "▁تجر": 9475,
    "▁بایس": 9476,
    "ریاست": 9477,
    "▁سط": 9478,
    "▁بدق": 9479,
    "۲۰۲۰": 9480,
    "امید": 9481,
    "ورش": 9482,
    "▁هوک": 9483,
    "تفاوت": 9484,
    "▁سرن": 9485,
    "موضوع": 9486,
    "▁آت": 9487,
    "لوی": 9488,
    "تروئ": 9489,
    "دوش": 9490,
    "قاب": 9491,
    "پزی": 9492,
    "یلند": 9493,
    "▁وج": 9494,
    "سین": 9495,
    "رآمیز": 9496,
    "سرمربی": 9497,
    "▁زیرین": 9498,
    "▁همسری": 9499,
    "حی": 9500,
    "صادرات": 9501,
    "▁پارسا": 9502,
    "شاهد": 9503,
    "▁نیکول": 9504,
    "▁رودخ": 9505,
    "المپیک": 9506,
    "قاد": 9507,
    "لیت": 9508,
    "ذب": 9509,
    "امگاه": 9510,
    "▁نابینا": 9511,
    "مالا": 9512,
    "▁عی": 9513,
    "کنی": 9514,
    "قدیم": 9515,
    "▁میلو": 9516,
    "ورزشگاه": 9517,
    "ظریف": 9518,
    "آمدی": 9519,
    "هیه": 9520,
    "قطع": 9521,
    "بندند": 9522,
    "انح": 9523,
    "تراز": 9524,
    "▁آلیس": 9525,
    "متوقف": 9526,
    "قامت": 9527,
    "جز": 9528,
    "حرکت": 9529,
    "سوخت": 9530,
    "▁بهم": 9531,
    "سیمون": 9532,
    "خبرنگار": 9533,
    "▁استروئید": 9534,
    "▁سودی": 9535,
    "یدا": 9536,
    "چهارشنبه": 9537,
    "▁اکر": 9538,
    "ئیز": 9539,
    "نوم": 9540,
    "کانا": 9541,
    "اسکا": 9542,
    "پارسال": 9543,
    "▁لیورپولی": 9544,
    "سریال": 9545,
    "▁بارس": 9546,
    "جلسه": 9547,
    "▁دری": 9548,
    "ینس": 9549,
    "معروف": 9550,
    "عملیات": 9551,
    "همیشه": 9552,
    "▁لرد": 9553,
    "▁آرزوها": 9554,
    "▁گردی": 9555,
    "شکایت": 9556,
    "▁شرو": 9557,
    "▁هجده": 9558,
    "نوا": 9559,
    "جدول": 9560,
    "اعتراضات": 9561,
    "▁کتابدار": 9562,
    "تک": 9563,
    "▁نویسند": 9564,
    "کودک": 9565,
    "واحد": 9566,
    "سرطان": 9567,
    "فساد": 9568,
    "تهدید": 9569,
    "برخورد": 9570,
    "والی": 9571,
    "▁درگذشتم": 9572,
    "برداشت": 9573,
    "مجید": 9574,
    "امنیتی": 9575,
    "شناسی": 9576,
    "▁کیلی": 9577,
    "▁ماجراجو": 9578,
    "تاسیس": 9579,
    "▁گوست": 9580,
    "تزریق": 9581,
    "▁زندگیش": 9582,
    "▁شاد": 9583,
    "ادبی": 9584,
    "مدیرعامل": 9585,
    "نوشت": 9586,
    "چپ": 9587,
    "ساخته": 9588,
    "▁الکترودها": 9589,
    "▁۱۵۲": 9590,
    "یادی": 9591,
    "بحرین": 9592,
    "▁اپی": 9593,
    "اسفند": 9594,
    "معترضان": 9595,
    "اتاق": 9596,
    "فرق": 9597,
    "▁خرم": 9598,
    "▁صفت": 9599,
    "هدایت": 9600,
    "▁درازا": 9601,
    "خودروهای": 9602,
    "▁آلک": 9603,
    "لود": 9604,
    "توییت": 9605,
    "تماشاگر": 9606,
    "▁مورخ": 9607,
    "▁هیچگ": 9608,
    "دول": 9609,
    "خیابان": 9610,
    "نادال": 9611,
    "مشاور": 9612,
    "معمولا": 9613,
    "▁هاستل": 9614,
    "بازارهای": 9615,
    "▁وینفر": 9616,
    "پروتکل": 9617,
    "اختلال": 9618,
    "آلبر": 9619,
    "گواردیولا": 9620,
    "سرپرست": 9621,
    "فراموش": 9622,
    "مالک": 9623,
    "▁نیروها": 9624,
    "▁فره": 9625,
    "اصلاح": 9626,
    "قچی": 9627,
    "حراج": 9628,
    "پادشاه": 9629,
    "فولاد": 9630,
    "واشی": 9631,
    "▁بازیها": 9632,
    "اطمینان": 9633,
    "ایسنا": 9634,
    "تجهیزات": 9635,
    "پایگاه": 9636,
    "رامش": 9637,
    "تماشاگران": 9638,
    "حشمت": 9639,
    "▁فیلی": 9640,
    "ساعات": 9641,
    "گشایش": 9642,
    "▁انع": 9643,
    "پاییز": 9644,
    "خودکشی": 9645,
    "دالر": 9646,
    "▁اینگ": 9647,
    "کیفیت": 9648,
    "▁فرزان": 9649,
    "تدریج": 9650,
    "منچستریونایتد": 9651,
    "کاوشگر": 9652,
    "اولسان": 9653,
    "کوئ": 9654,
    "▁دلو": 9655,
    "نوروز": 9656,
    "عرص": 9657,
    "معمول": 9658,
    "وبسایت": 9659,
    "▁فران": 9660,
    "امارات": 9661,
    "۸۰۰": 9662,
    "برخلاف": 9663,
    "منچسترسیتی": 9664,
    "عطرساز": 9665,
    "ویلیام": 9666,
    "خالق": 9667,
    "غریب": 9668,
    "وستهم": 9669,
    "کیانوش": 9670,
    "ثروت": 9671,
    "تیرماه": 9672,
    "انوس": 9673,
    "بنفش": 9674,
    "▁محبوبش": 9675,
    "کوبا": 9676,
    "کریستین": 9677,
    "سنا": 9678,
    "تفاهم": 9679,
    "مارتین": 9680,
    "حجت": 9681,
    "رونالدینیو": 9682,
    "▁بستگ": 9683,
    "انتقادات": 9684,
    "سولار": 9685,
    "امد": 9686,
    "ساترا": 9687,
    "جدال": 9688,
    "▁۱۵۱": 9689,
    "▁قزوین": 9690,
    "▁هیولا": 9691,
    "▁وکلا": 9692,
    "نهایی": 9693,
    "عبدالله": 9694,
    "امشب": 9695,
    "▁پناهجو": 9696,
    "▁سالیان": 9697,
    "▁گرسن": 9698,
    "▁حائ": 9699,
    "جعفر": 9700,
    "▁جهنم": 9701,
    "پژوهش": 9702,
    "▁واعظ": 9703,
    "کمپ": 9704,
    "▁اظهارنظرها": 9705,
    "ربط": 9706,
    "پناه": 9707,
    "▁پیل": 9708,
    "▁نارنج": 9709,
    "روا": 9710,
    "▁هراتی": 9711,
    "▁وسائ": 9712,
    "▁محتوا": 9713,
    "وتا": 9714,
    "ربکا": 9715,
    "▁ردیفی": 9716,
    "کولبر": 9717,
    "▁نجوم": 9718,
    "▁شغلها": 9719,
    "▁محدو": 9720,
    "▁رهن": 9721,
    "واری": 9722,
    "خالی": 9723,
    "▁خسرو": 9724,
    "شکر": 9725,
    "▁لنگ": 9726,
    "▁تیفو": 9727,
    "▁نوپا": 9728,
    "جهش": 9729,
    "▁الک": 9730,
    "مینا": 9731,
    "▁ماورا": 9732,
    "کنند": 9733,
    "▁اخت": 9734,
    "ارگردان": 9735,
    "▁مضا": 9736,
    "▁گزی": 9737,
    "ستانی": 9738,
    "پپ": 9739,
    "▁لطیف": 9740,
    "▁آزم": 9741,
    "نیاز": 9742,
    "▁جادو": 9743,
    "▁نمادها": 9744,
    "▁بیس": 9745,
    "▁تجار": 9746,
    "▁قضائی": 9747,
    "زاق": 9748,
    "دوره": 9749,
    "▁لئو": 9750,
    "لائو": 9751,
    "▁حسگر": 9752,
    "▁امیدها": 9753,
    "بهبود": 9754,
    "▁کوری": 9755,
    "سپ": 9756,
    "استار": 9757,
    "ستن": 9758,
    "پزشکان": 9759,
    "خاطرات": 9760,
    "شرکتهای": 9761,
    "قویا": 9762,
    "▁صمیم": 9763,
    "تناقض": 9764,
    "▁ایل": 9765,
    "▁هرسال": 9766,
    "رسانی": 9767,
    "مسلم": 9768,
    "▁بولد": 9769,
    "▁هال": 9770,
    "ریزش": 9771,
    "▁دلسوز": 9772,
    "▁هموطن": 9773,
    "▁الکترود": 9774,
    "لومین": 9775,
    "ساعد": 9776,
    "▁خدایا": 9777,
    "▁هیپ": 9778,
    "رجب": 9779,
    "▁گزارشش": 9780,
    "تعی": 9781,
    "تگان": 9782,
    "▁تهدیدها": 9783,
    "▁کامی": 9784,
    "▁متروک": 9785,
    "▁بپرداز": 9786,
    "▁منو": 9787,
    "ابات": 9788,
    "▁لج": 9789,
    "ظن": 9790,
    "▁کانتون": 9791,
    "اراگوئه": 9792,
    "▁ظالم": 9793,
    "▁پابرجا": 9794,
    "ستراز": 9795,
    "▁دستورها": 9796,
    "▁ابوظبی": 9797,
    "▁ایزوتوپ": 9798,
    "▁تمساح": 9799,
    "▁سریلانکا": 9800,
    "▁سولوویوف": 9801,
    "▁عنکبوت": 9802,
    "▁ژئوپلتیک": 9803,
    "▁بتهوون": 9804,
    "▁غوغای": 9805,
    "▁پوآرو": 9806,
    "▁شقاقی": 9807,
    "▁همقطاران": 9808,
    "▁بپیوندد": 9809,
    "▁اسپانسر": 9810,
    "▁بورژوا": 9811,
    "▁لاوروف": 9812,
    "▁سبحانی": 9813,
    "▁هلیکوپتر": 9814,
    "▁پورتلند": 9815,
    "▁واکاندا": 9816,
    "▁مدودف": 9817,
    "▁نیفتد": 9818,
    "▁سانفرانسیسکو": 9819,
    "▁مفرط": 9820,
    "▁گانگستر": 9821,
    "▁متذکر": 9822,
    "▁اوکلاه": 9823,
    "▁هورایزن": 9824,
    "▁ابطحی": 9825,
    "▁سیدابراهیم": 9826,
    "▁هامبورگ": 9827,
    "▁مقننه": 9828,
    "▁پولانسکی": 9829,
    "▁برگکمپ": 9830,
    "▁مانیتور": 9831,
    "▁واینالد": 9832,
    "▁نردبان": 9833,
    "▁نافذ": 9834,
    "ناملموس": 9835,
    "▁صحافی": 9836,
    "▁مخترع": 9837,
    "▁ابریشم": 9838,
    "▁سیلیکون": 9839,
    "▁نگرائو": 9840,
    "▁شکوهمند": 9841,
    "خیز": 9842,
    "▁کمرشکن": 9843,
    "▁اسنوبرد": 9844,
    "▁متعاقب": 9845,
    "▁نیفتند": 9846,
    "▁آسایشگاه": 9847,
    "▁مهدیخانی": 9848,
    "شمالی": 9849,
    "▁هلمند": 9850,
    "▁دوقلو": 9851,
    "▁لاتکس": 9852,
    "▁قاپید": 9853,
    "▁پاکیزگی": 9854,
    "▁اتوبان": 9855,
    "▁کاذب": 9856,
    "▁مقتض": 9857,
    "▁جماعت": 9858,
    "▁بمانید": 9859,
    "▁نباشیم": 9860,
    "▁مزاح": 9861,
    "▁بصیر": 9862,
    "▁انسداد": 9863,
    "▁باشکوه": 9864,
    "▁برنگردد": 9865,
    "▁منفعت": 9866,
    "▁ندوشن": 9867,
    "حرمسرا": 9868,
    "▁محتکر": 9869,
    "▁ستمگر": 9870,
    "▁اوباش": 9871,
    "▁ووندر": 9872,
    "▁کربلا": 9873,
    "▁غفار": 9874,
    "▁غیرم": 9875,
    "▁فراهانی": 9876,
    "▁آلمادو": 9877,
    "▁افتضاح": 9878,
    "▁حیفا": 9879,
    "▁فروزان": 9880,
    "▁بکاهد": 9881,
    "▁کلسترو": 9882,
    "اندی": 9883,
    "▁ضدویروس": 9884,
    "▁آلفرد": 9885,
    "▁گاندو": 9886,
    "▁آسایش": 9887,
    "▁شگرف": 9888,
    "▁پرنفوذ": 9889,
    "▁گوریل": 9890,
    "مویرگی": 9891,
    "▁تلاقی": 9892,
    "▁معصومانه": 9893,
    "▁پنهانکاری": 9894,
    "هنر": 9895,
    "▁متأسف": 9896,
    "▁بیاییم": 9897,
    "▁آلبانی": 9898,
    "▁سالوادور": 9899,
    "▁بسپارد": 9900,
    "▁۱۹۷۷": 9901,
    "▁بیایید": 9902,
    "▁۱۹۱۲": 9903,
    "▁پاسداشت": 9904,
    "▁بزنید": 9905,
    "▁روایات": 9906,
    "▁۱۳۸۰": 9907,
    "▁ارمنی": 9908,
    "▁بغل": 9909,
    "▁عمارت": 9910,
    "▁نوازد": 9911,
    "▁متهیا": 9912,
    "▁تول": 9913,
    "▁۱۹۳۹": 9914,
    "▁۶۱۲": 9915,
    "▁کوونی": 9916,
    "▁بروکلی": 9917,
    "▁اغما": 9918,
    "▁بنویس": 9919,
    "▁توکلی": 9920,
    "▁خانلو": 9921,
    "▁موثق": 9922,
    "▁اسطور": 9923,
    "▁نشناخت": 9924,
    "▁بنویسم": 9925,
    "▁عبرت": 9926,
    "▁گریختند": 9927,
    "▁دلهره": 9928,
    "▁اتومات": 9929,
    "اشار": 9930,
    "▁قراردادها": 9931,
    "▁الاغ": 9932,
    "▁چاقو": 9933,
    "▁ضامن": 9934,
    "▁بیابد": 9935,
    "▁ولیحی": 9936,
    "▁۷۲۲": 9937,
    "انیا": 9938,
    "▁نها": 9939,
    "رزاده": 9940,
    "▁ریتم": 9941,
    "▁خیاط": 9942,
    "▁بایستد": 9943,
    "▁ونچ": 9944,
    "▁جنایات": 9945,
    "▁پراوی": 9946,
    "▁باغبان": 9947,
    "سطح": 9948,
    "▁ساق": 9949,
    "▁هدفمند": 9950,
    "▁عابران": 9951,
    "▁سرمست": 9952,
    "▁تعصب": 9953,
    "▁ریاکاری": 9954,
    "▁اکولوژی": 9955,
    "زامبی": 9956,
    "▁شنیدم": 9957,
    "▁بیولوژی": 9958,
    "لگرام": 9959,
    "▁ملایم": 9960,
    "▁رهنوش": 9961,
    "▁اپوز": 9962,
    "۵۳": 9963,
    "▁نگرفتند": 9964,
    "▁سفیدپوستان": 9965,
    "▁زیباست": 9966,
    "▁موزیکال": 9967,
    "▁ارتد": 9968,
    "▁گیگاب": 9969,
    "منوچ": 9970,
    "▁پردازیم": 9971,
    "▁علفزارها": 9972,
    "غر": 9973,
    "▁لوکالکان": 9974,
    "▁گاسکوئین": 9975,
    "▁افراط": 9976,
    "▁متفکر": 9977,
    "▁آغازکرد": 9978,
    "یدند": 9979,
    "▁۲۲۰": 9980,
    "▁نوگرا": 9981,
    "▁فرما": 9982,
    "▁خورند": 9983,
    "▁رادارها": 9984,
    "یوس": 9985,
    "▁میکند": 9986,
    "▁گسست": 9987,
    "▁همدلی": 9988,
    "▁حکاک": 9989,
    "▁درمانگاه": 9990,
    "▁جالبند": 9991,
    "سرین": 9992,
    "▁مخلوط": 9993,
    "یلان": 9994,
    "▁سوزد": 9995,
    "▁۲۴۸": 9996,
    "شیده": 9997,
    "اطبا": 9998,
    "ارتی": 9999,
    "▁پیوندند": 10000,
    "تز": 10001,
    "▁دلیری": 10002,
    "▁الاسلام": 10003,
    "▁شنیدنش": 10004,
    "▁نرسیدند": 10005,
    "▁فقرا": 10006,
    "▁تسایت": 10007,
    "▁مارکان": 10008,
    "▁ناراحتند": 10009,
    "▁مش": 10010,
    "▁ریختند": 10011,
    "▁تحص": 10012,
    "▁کاونت": 10013,
    "▁هرل": 10014,
    "▁ترمز": 10015,
    "الج": 10016,
    "▁غص": 10017,
    "▁آلپ": 10018,
    "▁هاشم": 10019,
    "▁صیادان": 10020,
    "▁گابریلا": 10021,
    "▁داود": 10022,
    "▁شایعند": 10023,
    "▁نیکو": 10024,
    "▁آندریاس": 10025,
    "▁جانباخت": 10026,
    "لنگر": 10027,
    "حکیم": 10028,
    "▁قرادادش": 10029,
    "▁بپیچ": 10030,
    "▁امیدورا": 10031,
    "ئرنیک": 10032,
    "اوج": 10033,
    "پرت": 10034,
    "رپر": 10035,
    "▁آسم": 10036,
    "کریک": 10037,
    "۳۰۰": 10038,
    "▁شرافت": 10039,
    "▁مانورهای": 10040,
    "ویتز": 10041,
    "▁نزدند": 10042,
    "▁جزیرو": 10043,
    "▁مشوقهای": 10044,
    "▁مناسبات": 10045,
    "▁کساد": 10046,
    "▁حیا": 10047,
    "اصله": 10048,
    "▁حسگرها": 10049,
    "▁حدف": 10050,
    "▁باربارا": 10051,
    "▁هملت": 10052,
    "▁پرماجرا": 10053,
    "▁نرود": 10054,
    "▁استانهای": 10055,
    "▁آوردیم": 10056,
    "▁ائ": 10057,
    "▁دلا": 10058,
    "▁اهرم": 10059,
    "▁خوانیم": 10060,
    "هشت": 10061,
    "تورباز": 10062,
    "عد": 10063,
    "رفتار": 10064,
    "▁اکستر": 10065,
    "▁زدیم": 10066,
    "▁بق": 10067,
    "▁گنا": 10068,
    "▁پرای": 10069,
    "پارد": 10070,
    "مردی": 10071,
    "نیمه": 10072,
    "▁لئون": 10073,
    "▁مسلم": 10074,
    "▁دفاعیات": 10075,
    "▁نگذشته": 10076,
    "▁پهپادهای": 10077,
    "▁مبتلای": 10078,
    "▁ایستادن": 10079,
    "▁واعظی": 10080,
    "▁مین": 10081,
    "آید": 10082,
    "ریف": 10083,
    "▁نزند": 10084,
    "▁ربع": 10085,
    "▁مکید": 10086,
    "▁فرمانیه": 10087,
    "حور": 10088,
    "▁برسیم": 10089,
    "زارها": 10090,
    "▁گماشت": 10091,
    "▁ابزارک": 10092,
    "▁فاین": 10093,
    "▁کورن": 10094,
    "▁فراگرفت": 10095,
    "مریکایی": 10096,
    "▁کاکس": 10097,
    "لاستیک": 10098,
    "▁مومن": 10099,
    "▁کوارت": 10100,
    "بلنک": 10101,
    "فهیم": 10102,
    "▁جنون": 10103,
    "▁خسروی": 10104,
    "رنا": 10105,
    "▁مخالفند": 10106,
    "امدا": 10107,
    "▁معذ": 10108,
    "▁نرسیدن": 10109,
    "▁روایتگر": 10110,
    "▁الاصل": 10111,
    "پوشان": 10112,
    "تژیک": 10113,
    "نورلند": 10114,
    "چشمه": 10115,
    "▁خاطراتی": 10116,
    "▁حشر": 10117,
    "▁هلن": 10118,
    "▁هنرپیشگ": 10119,
    "دینگ": 10120,
    "▁غنای": 10121,
    "▁تحقی": 10122,
    "▁لیک": 10123,
    "▁گرانبها": 10124,
    "▁گذرا": 10125,
    "▁کوو": 10126,
    "انطب": 10127,
    "▁پیشا": 10128,
    "▁خص": 10129,
    "▁فیو": 10130,
    "صائی": 10131,
    "▁گرکان": 10132,
    "▁بلندق": 10133,
    "▁نگارم": 10134,
    "▁فیروزجا": 10135,
    "بوم": 10136,
    "اوبر": 10137,
    "اگرا": 10138,
    "▁تحم": 10139,
    "▁فتوا": 10140,
    "▁پاپو": 10141,
    "پدر": 10142,
    "هاوس": 10143,
    "▁فرانس": 10144,
    "▁آغازکرده": 10145,
    "▁لارن": 10146,
    "▁بگو": 10147,
    "واگذار": 10148,
    "▁رک": 10149,
    "▁پرشک": 10150,
    "▁هورن": 10151,
    "▁کد": 10152,
    "▁عطش": 10153,
    "▁نقدهای": 10154,
    "▁اولیان": 10155,
    "▁۱۷۷": 10156,
    "ارنوک": 10157,
    "▁باگز": 10158,
    "▁برایان": 10159,
    "▁رازهای": 10160,
    "کوش": 10161,
    "فرود": 10162,
    "خزن": 10163,
    "▁اسپری": 10164,
    "▁سالگ": 10165,
    "▁پیوستند": 10166,
    "▁ملامت": 10167,
    "فرمانی": 10168,
    "▁لورن": 10169,
    "▁تریل": 10170,
    "▁لین": 10171,
    "▁کراش": 10172,
    "▁مطمئنا": 10173,
    "▁میگویند": 10174,
    "ثمی": 10175,
    "▁حسابش": 10176,
    "▁چشمه": 10177,
    "فروشی": 10178,
    "▁ونت": 10179,
    "▁برادرز": 10180,
    "▁۱۹۲": 10181,
    "▁مواجهند": 10182,
    "▁هارد": 10183,
    "جمعه": 10184,
    "▁کارن": 10185,
    "۳۵": 10186,
    "▁فرن": 10187,
    "▁بخوان": 10188,
    "وژان": 10189,
    "اکبری": 10190,
    "▁لگو": 10191,
    "▁صاحبش": 10192,
    "▁نط": 10193,
    "امبو": 10194,
    "▁جرئ": 10195,
    "▁دیسکی": 10196,
    "درس": 10197,
    "▁انگاشت": 10198,
    "ونیک": 10199,
    "▁انریک": 10200,
    "▁حریری": 10201,
    "▁سونت": 10202,
    "▁انگشتان": 10203,
    "▁رایکو": 10204,
    "▁کارفرمای": 10205,
    "▁نکردم": 10206,
    "▁نشو": 10207,
    "فوت": 10208,
    "▁مم": 10209,
    "العمل": 10210,
    "▁ماجراجوی": 10211,
    "ذه": 10212,
    "▁السلط": 10213,
    "▁مظ": 10214,
    "طع": 10215,
    "▁اقام": 10216,
    "بشر": 10217,
    "▁برچید": 10218,
    "تورم": 10219,
    "▁چول": 10220,
    "پنها": 10221,
    "نگام": 10222,
    "▁اوس": 10223,
    "▁موثرتر": 10224,
    "▁اندازیم": 10225,
    "سلی": 10226,
    "شمال": 10227,
    "فاخر": 10228,
    "پال": 10229,
    "کلاسی": 10230,
    "▁نابینای": 10231,
    "شایست": 10232,
    "اسا": 10233,
    "دپای": 10234,
    "▁پلاکاردها": 10235,
    "سکین": 10236,
    "عابد": 10237,
    "▁جولیان": 10238,
    "▁مساعدت": 10239,
    "شکی": 10240,
    "▁شناسانه": 10241,
    "▁خیرخواه": 10242,
    "▁درنظر": 10243,
    "▁مگن": 10244,
    "اینک": 10245,
    "▁فضاپیماها": 10246,
    "وما": 10247,
    "▁دزدید": 10248,
    "پیک": 10249,
    "▁روست": 10250,
    "▁شدگ": 10251,
    "▁مگنو": 10252,
    "▁اندیشی": 10253,
    "▁۱۸۴": 10254,
    "کاسی": 10255,
    "▁حری": 10256,
    "▁میمن": 10257,
    "▁آوا": 10258,
    "▁نیرومندتر": 10259,
    "▁نع": 10260,
    "قطب": 10261,
    "عب": 10262,
    "سیل": 10263,
    "رستان": 10264,
    "▁عاشقان": 10265,
    "انع": 10266,
    "گذرانند": 10267,
    "متر": 10268,
    "نوار": 10269,
    "▁یادگاری": 10270,
    "▁ماسا": 10271,
    "▁افزای": 10272,
    "▁حصار": 10273,
    "گفتگوی": 10274,
    "▁فاخر": 10275,
    "▁بدبین": 10276,
    "▁خرو": 10277,
    "▁الاه": 10278,
    "اتری": 10279,
    "ریسون": 10280,
    "یعی": 10281,
    "▁تسا": 10282,
    "▁لیپ": 10283,
    "▁میانسال": 10284,
    "▁خرمش": 10285,
    "▁بخوانی": 10286,
    "▁گردآ": 10287,
    "▁شهرنشین": 10288,
    "سارو": 10289,
    "▁گرب": 10290,
    "▁اسکور": 10291,
    "نار": 10292,
    "▁دمید": 10293,
    "▁ببخش": 10294,
    "لوژی": 10295,
    "▁چسب": 10296,
    "▁دوک": 10297,
    "▁نوآ": 10298,
    "۵۰۰": 10299,
    "▁بخواهی": 10300,
    "رایش": 10301,
    "▁بوکا": 10302,
    "▁زهی": 10303,
    "▁مساو": 10304,
    "طف": 10305,
    "▁خانو": 10306,
    "اتنگ": 10307,
    "دخواهانه": 10308,
    "▁یونه": 10309,
    "▁متص": 10310,
    "▁همدم": 10311,
    "علیر": 10312,
    "▁راکل": 10313,
    "▁برگشتن": 10314,
    "▁اروپای": 10315,
    "▁نفیس": 10316,
    "▁پخت": 10317,
    "▁کیفی": 10318,
    "▁پودر": 10319,
    "▁ایرانروزها": 10320,
    "▁بالدار": 10321,
    "▁رن": 10322,
    "اقبال": 10323,
    "۹۸": 10324,
    "▁گچ": 10325,
    "دئو": 10326,
    "▁کنگو": 10327,
    "دائی": 10328,
    "نیز": 10329,
    "والو": 10330,
    "▁گنجه": 10331,
    "▁شغلهای": 10332,
    "ونتو": 10333,
    "سرفصل": 10334,
    "▁هری": 10335,
    "مارس": 10336,
    "▁فرام": 10337,
    "▁چون": 10338,
    "▁آهنگی": 10339,
    "حاب": 10340,
    "▁برسید": 10341,
    "▁کندی": 10342,
    "▁مسخ": 10343,
    "▁خرابکاران": 10344,
    "▁لول": 10345,
    "۵۵": 10346,
    "▁خواف": 10347,
    "ورگان": 10348,
    "دای": 10349,
    "نتس": 10350,
    "▁ویچ": 10351,
    "▁لوور": 10352,
    "▁ماندم": 10353,
    "طر": 10354,
    "▁آنه": 10355,
    "▁جووان": 10356,
    "۵۴": 10357,
    "چنان": 10358,
    "▁دایم": 10359,
    "▁کرمانشاهی": 10360,
    "سپر": 10361,
    "▁اقیانوسی": 10362,
    "▁صادرکنن": 10363,
    "▁عاملی": 10364,
    "لیا": 10365,
    "رایان": 10366,
    "▁خبرس": 10367,
    "بشار": 10368,
    "▁کنت": 10369,
    "ولونیا": 10370,
    "ازهای": 10371,
    "زیا": 10372,
    "▁توب": 10373,
    "▁انگیزد": 10374,
    "چندان": 10375,
    "پانی": 10376,
    "▁مونش": 10377,
    "▁عن": 10378,
    "روسازی": 10379,
    "▁سفیدش": 10380,
    "ایکون": 10381,
    "▁سفال": 10382,
    "▁خندد": 10383,
    "لع": 10384,
    "▁عواقبی": 10385,
    "▁غز": 10386,
    "▁ایوب": 10387,
    "▁روئی": 10388,
    "▁جهانگرد": 10389,
    "حبی": 10390,
    "دوی": 10391,
    "▁بکنند": 10392,
    "کات": 10393,
    "▁دیکش": 10394,
    "▁میزند": 10395,
    "▁مجد": 10396,
    "هلن": 10397,
    "چای": 10398,
    "شانس": 10399,
    "▁سالفورد": 10400,
    "نست": 10401,
    "▁هوم": 10402,
    "کرون": 10403,
    "▁بقدر": 10404,
    "▁هیپستره": 10405,
    "خرج": 10406,
    "▁چپگرای": 10407,
    "▁لاین": 10408,
    "▁شلو": 10409,
    "▁انبارها": 10410,
    "منستان": 10411,
    "▁کامپیوترهای": 10412,
    "▁ابرها": 10413,
    "الان": 10414,
    "ورال": 10415,
    "▁سالخورد": 10416,
    "▁تعری": 10417,
    "▁چندسال": 10418,
    "زستان": 10419,
    "وث": 10420,
    "▁برآن": 10421,
    "▁افزو": 10422,
    "اعت": 10423,
    "▁لاپ": 10424,
    "▁آیر": 10425,
    "▁پریا": 10426,
    "نسیم": 10427,
    "▁آلو": 10428,
    "نقا": 10429,
    "▁مرک": 10430,
    "▁شکو": 10431,
    "▁بگویی": 10432,
    "هاب": 10433,
    "▁شانز": 10434,
    "غما": 10435,
    "سد": 10436,
    "اندوم": 10437,
    "▁مشق": 10438,
    "ومان": 10439,
    "اشبور": 10440,
    "▁دوید": 10441,
    "▁مینیا": 10442,
    "▁ایز": 10443,
    "ترینگ": 10444,
    "افشار": 10445,
    "امت": 10446,
    "فولک": 10447,
    "آلات": 10448,
    "فونی": 10449,
    "▁رادیکا": 10450,
    "شمول": 10451,
    "▁دلش": 10452,
    "▁پلت": 10453,
    "نواختر": 10454,
    "▁برت": 10455,
    "▁مفتو": 10456,
    "▁بلندتر": 10457,
    "هیج": 10458,
    "▁منجی": 10459,
    "۳۶": 10460,
    "ترونیک": 10461,
    "▁ونزوئلای": 10462,
    "▁عص": 10463,
    "▁هچ": 10464,
    "ایمن": 10465,
    "یروس": 10466,
    "سترش": 10467,
    "پتا": 10468,
    "شمن": 10469,
    "لیل": 10470,
    "بندهای": 10471,
[...]
