<pad>	0
▁می	-3.9799
</s>	0
<unk>	0
▁های	-4.38376
▁ایران	-4.5505
▁است	-4.7002
▁شده	-4.79729
▁سال	-5.00713
▁یک	-5.0215
▁ها	-5.10492
▁کرده	-5.17851
▁است.	-5.27492
▁تصویر	-5.28333
▁ای	-5.29841
▁بود	-5.40433
▁گفته	-5.45725
▁خود	-5.61467
▁دو	-5.63084
▁بر	-5.65225
▁کرونا	-5.75749
▁پیش	-5.87165
▁کشور	-5.88068
▁شد	-5.88768
▁آمریکا	-5.9061
▁در	-5.90754
▁روز	-5.91906
▁گزارش	-5.94475
▁ماه	-5.94922
▁کرد	-5.98806
▁بی	-6.05218
▁فوتبال	-6.05301
▁بازی	-6.06888
▁اعلام	-6.10749
▁گفت	-6.15039
▁قرار	-6.15681
▁شرکت	-6.16419
▁تیم	-6.18005
▁داده	-6.18477
▁شود	-6.21062
▁یا	-6.21841
▁دیگر	-6.22134
▁هزار	-6.22527
▁دولت	-6.25423
▁رئیس	-6.26955
▁سه	-6.27264
▁گذشته	-6.27989
▁پس	-6.29349
▁خواهد	-6.30196
▁دست	-6.32998
▁آقای	-6.33436
▁بین	-6.34429
▁به	-6.34762
▁کار	-6.34985
▁جهان	-6.35544
▁یکی	-6.37126
▁گوید	-6.38617
▁درباره	-6.38733
▁کند	-6.38849
▁اند	-6.40602
▁میلیون	-6.40838
▁لیگ	-6.42027
▁افزایش	-6.44817
▁آنها	-6.45558
▁بوده	-6.49089
▁و	-6.49089
▁دلیل	-6.49475
▁هر	-6.49604
▁هفته	-6.51296
▁شد.	-6.51822
▁بار	-6.52351
▁درصد	-6.52617
▁تهران	-6.53016
▁دارد	-6.53686
▁نفر	-6.53821
▁افغانستان	-6.54225
▁جهانی	-6.55723
▁ملی	-6.57662
▁از	-6.57802
▁ویروس	-6.57802
▁همه	-6.60068
▁ترین	-6.60212
▁نفت	-6.60355
▁جدید	-6.60787
▁بعد	-6.61076
▁سازمان	-6.61221
▁دلار	-6.61511
▁نمی	-6.61802
▁جمهوری	-6.62094
▁بازار	-6.62241
▁قیمت	-6.62241
▁باید	-6.64162
▁مورد	-6.64162
▁حال	-6.64761
▁عنوان	-6.6597
▁گرفته	-6.66427
▁ایرانی	-6.68276
▁چند	-6.68276
▁دهد.	-6.68743
▁هایی	-6.689
▁بیش	-6.69056
▁نظر	-6.70796
▁کاهش	-6.70955
▁امروز	-6.73708
▁مجلس	-6.74037
▁فیلم	-6.74202
▁روی	-6.74533
▁نام	-6.75531
▁شدن	-6.7654
▁آغاز	-6.77217
▁تولید	-6.77388
▁بود.	-6.779
▁شود.	-6.78587
▁وزارت	-6.78587
▁همچنین	-6.80502
▁کرد.	-6.80502
▁اقتصادی	-6.81208
▁وزیر	-6.81385
▁اخیر	-6.82097
▁حدود	-6.82097
▁برنامه	-6.82634
▁نیز	-6.83174
▁واکسن	-6.84445
▁بیشتر	-6.84812
▁اروپا	-6.85179
▁داشته	-6.85364
▁کند.	-6.86104
▁چین	-6.86664
▁راه	-6.86851
▁بریتانیا	-6.87981
▁خبر	-6.9028
▁کنند	-6.90863
▁حضور	-6.91645
▁زمان	-6.92039
▁اولین	-6.92237
▁منتشر	-6.9363
▁شیوع	-6.9383
▁انجام	-6.94233
▁باشگاه	-6.94839
▁پایان	-6.95246
▁تحریم	-6.98348
▁اش	-6.98769
▁ادامه	-6.98981
▁صورت	-6.98981
▁اساس	-6.99617
▁استفاده	-7.00043
▁را	-7.00472
▁جمله	-7.00686
▁وجود	-7.01334
▁سی	-7.01985
▁برگزار	-7.02422
▁میلیارد	-7.02422
▁با	-7.0286
▁بزرگ	-7.0286
▁توافق	-7.03743
▁میان	-7.03965
▁نشان	-7.03965
▁بخش	-7.04858
▁فصل	-7.04858
▁بانک	-7.05083
▁اول	-7.05759
▁گیری	-7.07126
▁شهر	-7.07816
▁مسابقات	-7.08279
▁مردم	-7.08978
▁اند.	-7.09446
▁دهد	-7.09681
▁همین	-7.09681
▁ساله	-7.1039
▁مسابقه	-7.10627
▁شورای	-7.11103
▁بسیاری	-7.11582
▁المللی	-7.12304
▁زندگی	-7.12545
▁مقابل	-7.14501
▁سر	-7.14997
▁تواند	-7.15494
▁تومان	-7.17002
▁گروه	-7.17002
▁مقام	-7.17509
▁حقوق	-7.18019
▁تمام	-7.18532
▁منبع	-7.19048
▁چهار	-7.19048
▁تر	-7.19306
▁آینده	-7.19566
▁ماشین	-7.19566
▁بیماری	-7.20087
▁داد	-7.21137
▁امسال	-7.21666
▁نرخ	-7.22732
▁بدون	-7.23001
▁برتر	-7.2327
▁اسلامی	-7.23811
▁تنها	-7.23811
▁خانه	-7.2545
▁هستند	-7.2545
▁کردن	-7.25726
▁خارجه	-7.26002
▁جام	-7.2628
▁وضعیت	-7.26558
▁باعث	-7.26837
▁گل	-7.27117
▁فعالیت	-7.27678
▁اجتماعی	-7.28243
▁قبل	-7.28527
▁طور	-7.28812
▁بودند	-7.29097
▁وارد	-7.29383
▁دوران	-7.2967
▁کم	-7.29958
▁اقتصاد	-7.30826
▁زنان	-7.30826
▁هنوز	-7.30826
▁خانواده	-7.31409
▁رسانه	-7.3229
▁تازه	-7.32586
▁شبکه	-7.32882
▁هیچ	-7.33179
▁تصویر،	-7.33776
▁طرح	-7.33776
▁قهرمان	-7.33776
▁مرکزی	-7.34076
▁نزدیک	-7.34377
▁تلاش	-7.34678
▁ولی	-7.34678
▁کمک	-7.35589
▁حالا	-7.35894
▁دهه	-7.35894
▁داشت	-7.362
▁فروش	-7.362
▁قهرمانی	-7.362
▁کشورهای	-7.362
▁برخی	-7.36508
▁حالی	-7.36508
▁حتی	-7.36508
▁ریاست	-7.37125
▁علی	-7.37125
▁گویند	-7.37125
▁بسیار	-7.37435
▁تصمیم	-7.37435
▁آن	-7.38058
▁تغییر	-7.38058
▁شرایط	-7.38058
▁دوره	-7.38371
▁نیست	-7.38685
▁انتخابات	-7.39
▁اصلی	-7.39316
▁بورس	-7.39951
▁ارز	-7.4027
▁مختلف	-7.40911
▁فقط	-7.41233
▁روحانی	-7.41556
▁باز	-7.4188
▁سرمایه	-7.4188
▁کردند	-7.4188
▁استان	-7.42205
▁منطقه	-7.42859
▁کنند.	-7.42859
▁اینکه	-7.43517
▁هسته	-7.43517
▁دانشگاه	-7.43848
▁تاریخ	-7.44512
▁بعضی	-7.44846
▁دوم	-7.45854
▁رسیده	-7.45854
▁موسیقی	-7.46193
▁برای	-7.46873
▁سوی	-7.47215
▁پیدا	-7.47558
▁بررسی	-7.47902
▁نتیجه	-7.48248
▁که	-7.48248
▁برابر	-7.48942
▁شروع	-7.48942
▁ثبت	-7.49291
▁جمهور	-7.49291
▁آمریکایی	-7.49993
▁اشاره	-7.49993
▁جان	-7.49993
▁رقابت	-7.49993
▁همراه	-7.50699
▁اثر	-7.51055
▁رسمی	-7.51055
▁زیادی	-7.51055
▁نه	-7.51769
▁بودجه	-7.52128
▁مرکز	-7.52128
▁جایزه	-7.52488
▁میلادی	-7.52488
▁یافته	-7.5285
▁حمله	-7.53213
▁نامه	-7.53213
▁زمین	-7.53577
▁آمار	-7.53943
▁توجه	-7.5431
▁ممکن	-7.5431
▁پرسپولیس	-7.5431
▁کنار	-7.5431
▁اعتراض	-7.54678
▁دنبال	-7.54678
▁سفر	-7.54678
▁محمد	-7.54678
▁کشتی	-7.54678
▁رشد	-7.55048
▁نوشته	-7.55048
▁همکاری	-7.55419
▁دنیا	-7.55791
▁توسط	-7.56165
▁نشده	-7.56165
▁بهترین	-7.56917
▁باشد	-7.57295
▁کره	-7.57295
▁سیاسی	-7.57675
▁شش	-7.57675
▁مدت	-7.57675
▁الله	-7.58056
▁حاضر	-7.58056
▁دارند	-7.58056
▁عکس	-7.58056
▁پنج	-7.58056
▁آخرین	-7.58822
▁مالی	-7.58822
▁۴	-7.58822
▁افراد	-7.59207
▁فدراسیون	-7.60372
▁پول	-7.60372
▁زن	-7.61157
▁زیر	-7.61157
▁شنبه	-7.61157
▁نیمه	-7.61157
▁برجام	-7.61551
▁مهم	-7.61551
▁دولتی	-7.62744
▁سیاست	-7.62744
▁علیه	-7.62744
▁اطلاعات	-7.63145
▁سهام	-7.63145
▁کسب	-7.63145
▁آمده	-7.64357
▁خبرگزاری	-7.64357
▁مراسم	-7.64357
▁ویژه	-7.64357
▁آلمان	-7.64764
▁بهداشت	-7.64764
▁آژانس	-7.65173
▁حمایت	-7.65173
▁کمتر	-7.65173
▁واکنش	-7.65584
▁۱۰	-7.65584
▁دریافت	-7.65996
▁استقلال	-7.6641
▁انرژی	-7.6641
▁فرانسه	-7.6641
▁ترکیه	-7.66826
▁طی	-7.66826
▁ساعت	-7.67663
▁عرضه	-7.67663
▁چنین	-7.67663
▁پی	-7.68084
▁سازی	-7.68507
▁هدف	-7.68507
▁انتشار	-7.68932
▁دارد.	-7.68932
▁جنوبی	-7.69358
▁گذاری	-7.69358
▁قهرمانان	-7.69786
▁عربستان	-7.70216
▁۵	-7.71082
▁ایجاد	-7.71518
▁دور	-7.71956
▁نهایی	-7.71956
▁اکنون	-7.72395
▁بازیکن	-7.72395
▁شکست	-7.72395
▁تبدیل	-7.72837
▁میزان	-7.72837
▁دیدار	-7.73726
▁سابق	-7.73726
▁نقش	-7.73726
▁ترامپ	-7.74173
▁خارجی	-7.74173
▁خواهند	-7.74173
▁خودرو	-7.75074
▁اجازه	-7.75527
▁خیلی	-7.75527
▁روند	-7.75527
▁مبارزه	-7.75527
▁وقتی	-7.75527
▁اجرای	-7.75983
▁جریان	-7.75983
▁حسن	-7.75983
▁پرونده	-7.75983
▁زمینه	-7.76441
▁کشته	-7.76441
▁۲۰۲۰	-7.76441
▁آزاد	-7.769
▁کننده	-7.769
▁عراق	-7.77826
▁قانون	-7.77826
▁هشدار	-7.77826
▁اتحادیه	-7.78293
▁دیگری	-7.78761
▁زمانی	-7.78761
▁۱۹	-7.78761
▁ده	-7.79232
▁اقدام	-7.79704
▁تایید	-7.79704
▁زده	-7.79704
▁همان	-7.79704
▁طریق	-7.80179
▁موضوع	-7.80179
▁خرید	-7.80657
▁خواسته	-7.80657
▁مذاکرات	-7.80657
▁گرفت	-7.80657
▁شب	-7.81136
▁ورزش	-7.81136
▁۲	-7.81136
▁دیده	-7.81618
▁مجموعه	-7.81618
▁کتاب	-7.81618
▁زبان	-7.82589
▁سالگی	-7.82589
▁فاصله	-7.82589
▁آب	-7.83078
▁شوند	-7.83078
▁مرگ	-7.83078
▁بیانیه	-7.8357
▁برگزاری	-7.84063
▁تنیس	-7.84063
▁روسیه	-7.84063
▁قابل	-7.84063
▁مدیر	-7.84063
▁سپاه	-7.8456
▁هفت	-7.8456
▁صادرات	-7.85058
▁مدل	-7.8556
▁نسبت	-7.8556
▁بازداشت	-7.86063
▁۲۰	-7.86063
▁اعضای	-7.8657
▁خاطر	-7.8657
▁دوباره	-7.8657
▁خامنه	-7.87079
▁رهبر	-7.87079
▁ساخته	-7.87079
▁مربوط	-7.87079
▁بالا	-7.8759
▁بخشی	-7.88104
▁طول	-7.88104
▁نیاز	-7.88104
▁اتمی	-7.88621
▁بینی	-7.88621
▁خارج	-7.88621
▁کل	-7.88621
▁ساخت	-7.89141
▁متهم	-7.89141
▁نفتی	-7.89141
▁نمایندگان	-7.89141
▁پلیس	-7.89141
▁پیروزی	-7.89141
▁چرا	-7.89663
▁۶	-7.89663
▁این	-7.90188
▁ابتلا	-7.90716
▁تحت	-7.90716
▁تعداد	-7.90716
▁پرداخت	-7.90716
▁آسیا	-7.91246
▁امنیت	-7.91246
▁انگلیس	-7.91246
▁بازیکنان	-7.91246
▁توان	-7.91246
▁سخنگوی	-7.91246
▁لیورپول	-7.91246
▁کامل	-7.91246
▁است.در	-7.91779
▁امنیتی	-7.91779
▁بالای	-7.91779
▁قرنطینه	-7.91779
▁آزمایش	-7.92316
▁است؛	-7.92316
▁انتخاب	-7.92316
▁خط	-7.92316
▁سرمربی	-7.92855
▁لغو	-7.92855
▁رفت	-7.93397
▁پخش	-7.93397
▁اسرائیل	-7.93942
▁بیمارستان	-7.93942
▁درآمد	-7.93942
▁عمومی	-7.93942
▁محدودیت	-7.93942
▁محل	-7.93942
▁مشخص	-7.93942
▁مقابله	-7.9449
▁نگرانی	-7.9449
▁سابقه	-7.95041
▁گسترده	-7.95041
▁خطر	-7.95595
▁ارزش	-7.96152
▁سطح	-7.96152
▁تاثیر	-7.96712
▁جاری	-7.96712
▁رسد	-7.96712
▁عضو	-7.96712
▁منابع	-7.96712
▁نماینده	-7.96712
▁۳۰	-7.96712
▁است.این	-7.97275
▁بازگشت	-7.97275
▁جلسه	-7.97275
▁نخستین	-7.97275
▁پزشکی	-7.97275
▁مطرح	-7.97842
▁ورزشی	-7.97842
▁۲۵	-7.97842
▁بشکه	-7.98412
▁رد	-7.98412
▁شدت	-7.98412
▁همزمان	-7.98412
▁وقت	-7.98412
▁روزهای	-7.98985
▁زندان	-7.98985
▁نقل	-7.98985
▁بشر	-7.99561
▁جنگ	-7.99561
▁۳	-7.99561
▁انقلاب	-8.00141
▁چهره	-8.00141
▁آیا	-8.00724
▁برنده	-8.00724
▁ترک	-8.00724
▁تصویب	-8.00724
▁صندوق	-8.00724
▁المپیک	-8.0131
▁ستاره	-8.0131
▁معاون	-8.0131
▁طرف	-8.019
▁آثار	-8.02494
▁شمار	-8.02494
▁هزینه	-8.02494
▁بایدن	-8.03091
▁دادن	-8.03091
▁نخست	-8.03091
▁گرفتن	-8.03091
▁.	-8.03691
▁دادگاه	-8.03691
▁هم	-8.03691
▁آبان	-8.04296
▁حرکت	-8.04296
▁لندن	-8.04296
▁متوقف	-8.04296
▁ورزشگاه	-8.04296
▁کابل	-8.04296
▁کودکان	-8.04904
▁آزادی	-8.05515
▁ارائه	-8.05515
▁متحده	-8.05515
▁نمایش	-8.05515
▁عالی	-8.06131
▁مرحله	-8.06131
▁۹	-8.06131
▁حکم	-8.0675
▁حکومت	-8.07373
▁سوم	-8.07373
▁نکرده	-8.07373
▁کمیسیون	-8.07373
▁جای	-8.08
▁داستان	-8.08
▁افت	-8.08631
▁رای	-8.08631
▁شدند	-8.08631
▁معرفی	-8.08631
▁نشست	-8.08631
▁رسید	-8.09266
▁مصاحبه	-8.09266
▁نظامی	-8.09266
▁همچنان	-8.09266
▁کسانی	-8.09266
▁گذاشته	-8.09266
▁برق	-8.09905
▁خبری	-8.09905
▁خودش	-8.09905
▁دستگاه	-8.09905
▁ظریف	-8.09905
▁ایتالیا	-8.10548
▁تعیین	-8.10548
▁ستاد	-8.10548
▁شدمنبع	-8.10548
▁قدرت	-8.10548
▁مانده	-8.10548
▁ورود	-8.10548
▁وی	-8.10548
▁پیشین	-8.10548
▁جمعیت	-8.11195
▁شدید	-8.11195
▁شناخته	-8.11195
▁شکل	-8.11195
▁فشار	-8.11195
▁قبلی	-8.11195
▁نیم	-8.11195
▁هستند.	-8.11195
▁انتقال	-8.11846
▁قرارداد	-8.11846
▁اتفاق	-8.12502
▁است.منبع	-8.12502
▁الکتریکی	-8.12502
▁امور	-8.12502
▁جامعه	-8.12502
▁داخلی	-8.12502
▁رفته	-8.12502
▁سن	-8.12502
▁شهرهای	-8.12502
▁فینال	-8.12502
▁ایالات	-8.13162
▁دی	-8.13162
▁شامل	-8.13162
▁چشم	-8.13162
▁کسی	-8.13162
▁اروپایی	-8.13827
▁تشکیل	-8.13827
▁است.آقای	-8.14496
▁بسته	-8.14496
▁جدی	-8.14496
▁سایر	-8.14496
▁شماری	-8.14496
▁صنعت	-8.14496
▁مرد	-8.14496
▁جنوب	-8.15169
▁داد.	-8.15169
▁نیروهای	-8.15169
▁آنچه	-8.15847
▁پر	-8.15847
▁یعنی	-8.15847
▁۲۰۱۹	-8.15847
▁تورم	-8.16529
▁۱۴۰۰	-8.16529
▁قرن	-8.17217
▁کنیم	-8.17217
▁امتیاز	-8.17909
▁تاریخی	-8.17909
▁خانم	-8.17909
▁نیست.	-8.17909
▁انسان	-8.18606
▁فعال	-8.18606
▁مربی	-8.18606
▁مسی	-8.18606
▁معاملات	-8.18606
▁۷	-8.18606
▁انتقاد	-8.19308
▁جلوگیری	-8.19308
▁روزنامه	-8.19308
▁محلی	-8.19308
▁نیروی	-8.19308
▁کووید	-8.19308
▁گاز	-8.19308
▁انتظار	-8.20014
▁بارسلونا	-8.20014
▁ماسک	-8.20014
▁مسئولان	-8.20014
▁دستور	-8.20726
▁دونالد	-8.20726
▁طولانی	-8.20726
▁ابراز	-8.21443
▁داخل	-8.21443
▁سیستم	-8.21443
▁نوشت	-8.21443
▁خواستار	-8.22165
▁فارسی	-8.22165
▁کردند.	-8.22165
▁۱۵	-8.22165
▁ارتباط	-8.22892
▁تحقیق	-8.22892
▁رقم	-8.22892
▁فروردین	-8.22892
▁مشکلات	-8.22892
▁موج	-8.22892
▁پشت	-8.22892
▁درمان	-8.23625
▁شان	-8.23625
▁قوه	-8.23625
▁ملل	-8.23625
▁آیت	-8.24363
▁اتهام	-8.24363
▁تجربه	-8.24363
▁رکورد	-8.24363
▁طراحی	-8.24363
▁فرهنگی	-8.24363
▁مبتلا	-8.24363
▁محکوم	-8.24363
▁هنری	-8.24363
▁باقی	-8.25106
▁بحران	-8.25106
▁بودن	-8.25106
▁جو	-8.25106
▁درخواست	-8.25106
▁رشته	-8.25106
▁فکر	-8.25106
▁نهاد	-8.25106
▁هند	-8.25106
▁هوایی	-8.25106
▁پایین	-8.25106
▁۱۲	-8.25106
▁احتمال	-8.25855
▁رفع	-8.25855
▁غنی	-8.25855
▁فرهنگ	-8.25855
▁آسیب	-8.2661
▁تجاری	-8.2661
▁خروج	-8.2661
▁دهند	-8.2661
▁سقوط	-8.2661
▁قرمز	-8.2661
▁ممنوع	-8.2737
▁پاسخ	-8.2737
▁چهارم	-8.2737
▁حساب	-8.28137
▁داشت.	-8.28137
▁شاخص	-8.28137
▁علت	-8.28137
▁نگهبان	-8.28137
▁گونه	-8.28137
▁امکان	-8.28909
▁تاکید	-8.28909
▁حرفه	-8.28909
▁دوشنبه	-8.28909
▁ناشی	-8.28909
▁کاری	-8.28909
▁ام	-8.29687
▁سینما	-8.29687
▁صحبت	-8.29687
▁آتش	-8.30471
▁آوریل	-8.30471
▁دقیقه	-8.30471
▁سیتی	-8.30471
▁مواد	-8.30471
▁یکشنبه	-8.30471
▁اولیه	-8.31262
▁باشد.	-8.31262
▁بودند.	-8.31262
▁تامین	-8.31262
▁توانست	-8.31262
▁دیروز	-8.31262
▁شما	-8.31262
▁توانند	-8.32059
▁سراسر	-8.32059
▁سریال	-8.32059
▁همیشه	-8.32059
▁چهارشنبه	-8.32059
▁۵۰	-8.32059
▁اسفند	-8.32862
▁بلند	-8.32862
▁روابط	-8.32862
▁شاهد	-8.32862
▁غیر	-8.32862
▁مشکل	-8.32862
▁ندارد	-8.32862
▁اجرا	-8.33672
▁خوانده	-8.33672
▁فضای	-8.33672
▁لازم	-8.33672
▁کنترل	-8.33672
▁اسکار	-8.34488
▁فضایی	-8.34488
▁هنگام	-8.34488
▁احتمالا	-8.35311
▁بندی	-8.35311
▁توسعه	-8.35311
▁سخت	-8.35311
▁موارد	-8.35311
▁نظیر	-8.35311
▁هایش	-8.35311
▁کارگران	-8.35311
▁۸	-8.35311
▁بنزین	-8.36141
▁تعطیلی	-8.36141
▁حذف	-8.36141
▁دفاع	-8.36141
▁سمت	-8.36141
▁محیط	-8.36141
▁۶۰	-8.36141
▁عمل	-8.36978
▁مسئول	-8.36978
▁نویسنده	-8.36978
▁پارسال	-8.36978
▁پروژه	-8.36978
▁۴۰	-8.36978
▁اندازه	-8.37822
▁جمعه	-8.37822
▁دلایل	-8.37822
▁شهروندان	-8.37822
▁قصد	-8.37822
▁اواخر	-8.38673
▁بیرون	-8.38673
▁شاید	-8.38673
▁شناسایی	-8.38673
▁شوند.	-8.38673
▁مسیر	-8.38673
▁چپ	-8.38673
▁کارخانه	-8.38673
▁یاد	-8.38673
▁اختیار	-8.39531
▁تاکنون	-8.39531
▁ترتیب	-8.39531
▁ترکیب	-8.39531
▁صفر	-8.39531
▁علاوه	-8.39531
▁قوانین	-8.39531
▁موسسه	-8.39531
▁نظام	-8.39531
▁گروهی	-8.39531
▁۱۱	-8.39531
▁آماده	-8.40397
▁بارها	-8.40397
▁بیست	-8.40397
▁جشنواره	-8.40397
▁جهش	-8.40397
▁دارایی	-8.40397
▁مارادونا	-8.40397
▁ماهه	-8.40397
▁مشترک	-8.40397
▁یونایتد	-8.40397
▁برده	-8.4127
▁بیشتری	-8.4127
▁تلویزیون	-8.4127
▁خصوصی	-8.4127
▁صد	-8.4127
▁عامل	-8.4127
▁فعالان	-8.4127
▁نوع	-8.4127
▁آستانه	-8.42151
▁خون	-8.42151
▁سیاه	-8.42151
▁مصرف	-8.42151
▁ولایت	-8.42151
▁۲۲	-8.42151
▁اختلاف	-8.4304
▁اخیرا	-8.4304
▁اعدام	-8.4304
▁دسترسی	-8.4304
▁روبرو	-8.4304
▁مارس	-8.4304
▁مرتبط	-8.4304
▁معروف	-8.4304
▁نتایج	-8.4304
▁هواداران	-8.4304
▁کاملا	-8.4304
▁اطلاع	-8.43937
▁اوپک	-8.43937
▁ایران،	-8.43937
▁رسیدن	-8.43937
▁رود	-8.43937
▁صادر	-8.43937
▁فوق	-8.43937
▁چیزی	-8.43937
▁۹۸	-8.43937
▁بزرگترین	-8.44842
▁توصیف	-8.44842
▁رییس	-8.44842
▁فرد	-8.44842
▁مذاکره	-8.44842
▁مرغ	-8.44842
▁مناطق	-8.44842
▁وین	-8.44842
▁کوچک	-8.44842
▁امضا	-8.45755
▁تجارت	-8.45755
▁تحقیقات	-8.45755
▁سعودی	-8.45755
▁محمود	-8.45755
▁موفق	-8.45755
▁هواپیمایی	-8.45755
▁ابتدای	-8.46677
▁اداره	-8.46677
▁است.او	-8.46677
▁حفظ	-8.46677
▁حل	-8.46677
▁صفحه	-8.46677
▁قانونی	-8.46677
▁مالیات	-8.46677
▁محدود	-8.46677
▁۱	-8.46677
▁جدول	-8.47607
▁زنده	-8.47607
▁سوخت	-8.47607
▁شمال	-8.47607
▁منجر	-8.47607
▁چگونه	-8.47607
▁اتاق	-8.48546
▁خوزستان	-8.48546
▁دنیای	-8.48546
▁سلامت	-8.48546
▁فهرست	-8.48546
▁نقاشی	-8.48546
▁نقطه	-8.48546
▁واردات	-8.48546
▁کمیته	-8.48546
▁اعمال	-8.49494
▁فدرر	-8.49494
▁ونزوئلا	-8.49494
▁ژانویه	-8.49494
▁۲۰۲۱	-8.49494
▁ایران؛	-8.50451
▁برد	-8.50451
▁تهدید	-8.50451
▁مصوبه	-8.50451
▁احمد	-8.51417
▁بهبود	-8.51417
▁تقریبا	-8.51417
▁غرب	-8.51417
▁کشف	-8.51417
▁انفجار	-8.52393
▁حق	-8.52393
▁خوب	-8.52393
▁شکایت	-8.52393
▁ملت	-8.52393
▁کردمنبع	-8.52393
▁یافت	-8.52393
▁۵۰۰	-8.52393
▁بریتانیایی	-8.53378
▁تلویزیونی	-8.53378
▁خواننده	-8.53378
▁سرعت	-8.53378
▁طبق	-8.53378
▁فساد	-8.53378
▁اقدامات	-8.54373
▁تن	-8.54373
▁تیمی	-8.54373
▁حزب	-8.54373
▁روزانه	-8.54373
▁رکود	-8.54373
▁هیات	-8.54373
▁کشورها	-8.54373
▁۱۴	-8.54373
▁حوزه	-8.55378
▁سایت	-8.55378
▁طبیعی	-8.55378
▁هشت	-8.55378
▁پرواز	-8.55378
▁جمع	-8.56393
▁حادثه	-8.56393
▁دومین	-8.56393
▁رسید.	-8.56393
▁رعایت	-8.56393
▁رفتن	-8.56393
▁رنگ	-8.56393
▁زاده	-8.56393
▁ممنوعیت	-8.56393
▁نهادهای	-8.56393
▁نژاد	-8.56393
▁چاپ	-8.56393
▁گفتگو	-8.56393
▁استرالیا	-8.57419
▁اعتراضات	-8.57419
▁بازیگر	-8.57419
▁تهیه	-8.57419
▁جا	-8.57419
▁جدیدی	-8.57419
▁خواهان	-8.57419
▁رابطه	-8.57419
▁سرطان	-8.57419
▁منچستر	-8.57419
▁نخواهد	-8.57419
▁واحد	-8.57419
▁کرونای	-8.57419
▁تابستان	-8.58455
▁مرز	-8.58455
▁مهدی	-8.58455
▁موفقیت	-8.58455
▁هنر	-8.58455
▁کمی	-8.58455
▁کنم	-8.58455
▁۱۶	-8.58455
▁آمد	-8.59503
▁احیای	-8.59503
▁بیت	-8.59503
▁تعطیل	-8.59503
▁درگذشت	-8.59503
▁شجریان	-8.59503
▁هرات	-8.59503
▁پروازهای	-8.59503
▁کاخ	-8.59503
▁کنندگان	-8.59503
▁کنون	-8.59503
▁۱۷	-8.59503
▁آنان	-8.60561
▁بالاترین	-8.60561
▁زیست	-8.60561
▁سنگین	-8.60561
▁صدای	-8.60561
▁فنی	-8.60561
▁قضایی	-8.60561
▁نسل	-8.60561
▁واقعی	-8.60561
▁پاسداران	-8.60561
▁چه	-8.60561
▁کالا	-8.60561
▁گزارشی	-8.60561
▁ایالت	-8.6163
▁ایمنی	-8.6163
▁بایرن	-8.6163
▁تجمع	-8.6163
▁جنگل	-8.6163
▁حد	-8.6163
▁خصوص	-8.6163
▁داشتند	-8.6163
▁دروازه	-8.6163
▁سریع	-8.6163
▁عدم	-8.6163
▁علمی	-8.6163
▁عمده	-8.6163
▁مقایسه	-8.6163
▁۱۳	-8.6163
▁احمدی	-8.62711
▁ارتش	-8.62711
▁اضافه	-8.62711
▁بحث	-8.62711
▁توییتر	-8.62711
▁زنی	-8.62711
▁سالانه	-8.62711
▁عملیات	-8.62711
▁مجله	-8.62711
▁مجوز	-8.62711
▁موافقت	-8.62711
▁نگاهی	-8.62711
▁۱۰۰	-8.62711
▁اساسی	-8.63804
▁برخورد	-8.63804
▁تاج	-8.63804
▁تومانی	-8.63804
▁توپ	-8.63804
▁دچار	-8.63804
▁مجموع	-8.63804
▁مقررات	-8.63804
▁منتقل	-8.63804
▁نگاه	-8.63804
▁نگران	-8.63804
▁چندین	-8.63804
▁کشیده	-8.63804
▁اف	-8.64909
▁جشن	-8.64909
▁حرف	-8.64909
▁خالی	-8.64909
▁صحنه	-8.64909
▁لایحه	-8.64909
▁پاریس	-8.64909
▁ژوئن	-8.64909
▁کانال	-8.64909
▁کوین	-8.64909
▁قطع	-8.66026
▁مجازی	-8.66026
▁مغز	-8.66026
▁نقاط	-8.66026
▁پیشنهاد	-8.66026
▁کارشناسان	-8.66026
▁کنید	-8.66026
▁کوتاه	-8.66026
▁بدن	-8.67157
▁بهتر	-8.67157
▁تی	-8.67157
▁دکتر	-8.67157
▁رتبه	-8.67157
▁سعید	-8.67157
▁سود	-8.67157
▁ضربه	-8.67157
▁متفاوت	-8.67157
▁مجبور	-8.67157
▁مسکن	-8.67157
▁مواجه	-8.67157
▁نامزد	-8.67157
▁واقع	-8.67157
▁کیلومتر	-8.67157
▁۲۴	-8.67157
▁ابتدا	-8.68299
▁اجرایی	-8.68299
▁افغان	-8.68299
▁جنسی	-8.68299
▁عبور	-8.68299
▁عدالت	-8.68299
▁فرصت	-8.68299
▁متر	-8.68299
▁مجدد	-8.68299
▁مه	-8.68299
▁موجب	-8.68299
▁نقدینگی	-8.68299
▁چلسی	-8.68299
▁کدام	-8.68299
▁ارشد	-8.69456
▁افتاده	-8.69456
▁افرادی	-8.69456
▁اوراق	-8.69456
▁بازارهای	-8.69456
▁بعدی	-8.69456
▁جایی	-8.69456
▁رونمایی	-8.69456
▁قطر	-8.69456
▁مشغول	-8.69456
▁نظارت	-8.69456
▁نفتکش	-8.69456
▁است.به	-8.70625
▁اسپانیا	-8.70625
▁اوایل	-8.70625
▁بهداشتی	-8.70625
▁توضیح	-8.70625
▁حداقل	-8.70625
▁راننده	-8.70625
▁سخنرانی	-8.70625
▁سینمایی	-8.70625
▁مانع	-8.70625
▁منفی	-8.70625
▁چیز	-8.70625
▁آورده	-8.71809
▁اوت	-8.71809
▁تزریق	-8.71809
▁تغییرات	-8.71809
▁درست	-8.71809
▁سفیر	-8.71809
▁صدور	-8.71809
▁عملکرد	-8.71809
▁قتل	-8.71809
▁قطعی	-8.71809
▁مشهور	-8.71809
▁پایتخت	-8.71809
▁کلی	-8.71809
▁انگلستان	-8.73006
▁باره	-8.73006
▁درآمدهای	-8.73006
▁دریایی	-8.73006
▁سوریه	-8.73006
▁طلا	-8.73006
▁مدیریت	-8.73006
▁مرداد	-8.73006
▁مردان	-8.73006
▁نامزدی	-8.73006
▁پیشتر	-8.73006
▁کرونا؛	-8.73006
▁گرفت.	-8.73006
▁آلمانی	-8.74218
▁است،	-8.74218
▁اسطوره	-8.74218
▁العاده	-8.74218
▁بیمار	-8.74218
▁تاتنهام	-8.74218
▁تازگی	-8.74218
▁تورنمنت	-8.74218
▁حسین	-8.74218
▁راهی	-8.74218
▁زیاد	-8.74218
▁سفید	-8.74218
▁فراهم	-8.74218
▁محموله	-8.74218
▁معامله	-8.74218
▁نبود	-8.74218
▁وضع	-8.74218
▁ژاپن	-8.74218
▁یورو	-8.74218
▁۲۰۰	-8.74218
▁اظهارات	-8.75445
▁امام	-8.75445
▁بیشترین	-8.75445
▁تشخیص	-8.75445
▁حریف	-8.75445
▁عهده	-8.75445
▁فوریه	-8.75445
▁کنونی	-8.75445
▁گذشت	-8.75445
▁آرژانتین	-8.76688
▁براساس	-8.76688
▁جوان	-8.76688
▁خوبی	-8.76688
▁دهم	-8.76688
▁سرشناس	-8.76688
▁نوبل	-8.76688
▁کمبود	-8.76688
▁۲۰۱۸	-8.76688
▁بهار	-8.77945
▁دانشمندان	-8.77945
▁درصدی	-8.77945
▁درگذشت.	-8.77945
▁رمان	-8.77945
▁شدند.	-8.77945
▁فرمانده	-8.77945
▁قدیمی	-8.77945
▁مخالفت	-8.77945
▁هرچند	-8.77945
▁پوند	-8.77945
▁کشوری	-8.77945
▁استاد	-8.79219
▁انگلیسی	-8.79219
▁اورانیوم	-8.79219
▁بهمن	-8.79219
▁بود؛	-8.79219
▁تاجیکستان	-8.79219
▁تعدادی	-8.79219
▁جریمه	-8.79219
▁جز	-8.79219
▁دار	-8.79219
▁رخ	-8.79219
▁رضا	-8.79219
▁روشن	-8.79219
▁زندانی	-8.79219
▁فوت	-8.79219
▁مدیران	-8.79219
▁واکسیناسیون	-8.79219
▁۹۰	-8.79219
▁امید	-8.8051
▁بزرگی	-8.8051
▁دریای	-8.8051
▁روش	-8.8051
▁ساختمان	-8.8051
▁سینمای	-8.8051
▁عده	-8.8051
▁لحظه	-8.8051
▁نشریه	-8.8051
▁نمونه	-8.8051
▁هنرمند	-8.8051
▁آبی	-8.81817
▁آوری	-8.81817
▁اوپن	-8.81817
▁تقویت	-8.81817
▁حمل	-8.81817
▁خرداد	-8.81817
▁شرق	-8.81817
▁مادر	-8.81817
▁مالکیت	-8.81817
▁مثبت	-8.81817
▁مطالعه	-8.81817
▁نداشته	-8.81817
▁۲۱	-8.81817
▁اردیبهشت	-8.83141
▁خبرنگار	-8.83141
▁خودروهای	-8.83141
▁دفتر	-8.83141
▁زدن	-8.83141
▁مسدود	-8.83141
▁مشابه	-8.83141
▁نشانه	-8.83141
▁نهایت	-8.83141
▁نوری	-8.83141
▁هدایت	-8.83141
▁پای	-8.83141
▁پیام	-8.83141
▁چک	-8.83141
▁کاربران	-8.83141
▁گو	-8.83141
▁آخر	-8.84484
▁بنز	-8.84484
▁بیکاری	-8.84484
▁توصیه	-8.84484
▁جمعی	-8.84484
▁رئال	-8.84484
▁شعر	-8.84484
▁عقب	-8.84484
▁علاقه	-8.84484
▁مادرید	-8.84484
▁ماهی	-8.84484
▁متعلق	-8.84484
▁موزه	-8.84484
▁یکدیگر	-8.84484
▁۱۸	-8.84484
▁۲۳	-8.84484
▁۹۹	-8.84484
▁ارزی	-8.85844
▁استقبال	-8.85844
▁باشند	-8.85844
▁زاغری	-8.85844
▁سنگ	-8.85844
▁فعلی	-8.85844
▁قطعنامه	-8.85844
▁وابسته	-8.85844
▁کارکنان	-8.85844
▁۱۳۹۹	-8.85844
▁۲۰۱۶	-8.85844
▁۲۸	-8.85844
▁برزیل	-8.87224
▁خواست	-8.87224
▁دوربین	-8.87224
▁دوچرخه	-8.87224
▁سکه	-8.87224
▁محمدرضا	-8.87224
▁موجود	-8.87224
▁پیشرفت	-8.87224
▁کارگر	-8.87224
▁اصلاح	-8.88622
▁ایران:	-8.88622
▁بیماران	-8.88622
▁تمامی	-8.88622
▁دختر	-8.88622
▁دقیق	-8.88622
▁راست	-8.88622
▁رافائل	-8.88622
▁رویترز	-8.88622
▁سفارت	-8.88622
▁متوسط	-8.88622
▁مدیرعامل	-8.88622
▁مقامات	-8.88622
▁نوامبر	-8.88622
▁هوا	-8.88622
▁وعده	-8.88622
▁پنجشنبه	-8.88622
▁کشورش	-8.88622
▁۳۰۰	-8.88622
▁ان	-8.90041
▁حبس	-8.90041
▁خورشیدی	-8.90041
▁ریزی	-8.90041
▁سوئیس	-8.90041
▁صعود	-8.90041
▁غربی	-8.90041
▁قضائیه	-8.90041
▁معادل	-8.90041
▁کالاهای	-8.90041
▁کودک	-8.90041
▁آی	-8.91479
▁افزوده	-8.91479
▁اقیانوس	-8.91479
▁تخریب	-8.91479
▁خواهیم	-8.91479
▁خورده	-8.91479
▁رفتار	-8.91479
▁رونالدو	-8.91479
▁سعی	-8.91479
▁صدا	-8.91479
▁صدر	-8.91479
▁صلح	-8.91479
▁فرمول	-8.91479
▁فیفا	-8.91479
▁ماموران	-8.91479
▁مبتلایان	-8.91479
▁مبلغ	-8.91479
▁مدتی	-8.91479
▁مسافران	-8.91479
▁مستند	-8.91479
▁مهاجم	-8.91479
▁میدان	-8.91479
▁نزدیکی	-8.91479
▁نقض	-8.91479
▁پنجم	-8.91479
▁چینی	-8.91479
▁-	-8.92939
▁آموزش	-8.92939
▁ارسال	-8.92939
▁بازنشستگان	-8.92939
▁بحرین	-8.92939
▁بستری	-8.92939
▁تقاضای	-8.92939
▁تماس	-8.92939
▁حالیست	-8.92939
▁خاک	-8.92939
▁دارند.	-8.92939
▁سپس	-8.92939
▁طالبان	-8.92939
▁علیرضا	-8.92939
▁غذا	-8.92939
▁قبلا	-8.92939
▁مخالفان	-8.92939
▁مستقیم	-8.92939
▁معترضان	-8.92939
▁معنای	-8.92939
▁مک	-8.92939
▁هزاران	-8.92939
▁ژوئیه	-8.92939
▁گسترش	-8.92939
▁آ	-8.94421
▁آلبوم	-8.94421
▁اغلب	-8.94421
▁بخوانید	-8.94421
▁تحویل	-8.94421
▁توقیف	-8.94421
▁تک	-8.94421
▁جوایز	-8.94421
▁دین	-8.94421
▁سری	-8.94421
▁سهمیه	-8.94421
▁شخصی	-8.94421
▁شماره	-8.94421
▁صنایع	-8.94421
▁عباس	-8.94421
▁فرانسوی	-8.94421
▁نازنین	-8.94421
▁پدر	-8.94421
▁۲۰۱۷	-8.94421
▁۷۰	-8.94421
▁آهن	-8.95925
▁آهنگ	-8.95925
▁استمنبع	-8.95925
▁اسرائیلی	-8.95925
▁ایستگاه	-8.95925
▁بازگشایی	-8.95925
▁بالاتر	-8.95925
▁خدمات	-8.95925
▁درگیری	-8.95925
▁دسته	-8.95925
▁شد؛	-8.95925
▁صبح	-8.95925
▁فناوری	-8.95925
▁مکان	-8.95925
▁میزبانی	-8.95925
▁ندارد.	-8.95925
▁نیویورک	-8.95925
▁وزن	-8.95925
▁گاهی	-8.95925
▁آنلاین	-8.97451
▁بازرگانی	-8.97451
▁برمی	-8.97451
▁جزئیات	-8.97451
▁جوکوویچ	-8.97451
▁دادند	-8.97451
▁دانسته	-8.97451
▁عجیب	-8.97451
▁ماده	-8.97451
▁متوجه	-8.97451
▁میزبان	-8.97451
▁نگهداری	-8.97451
▁واشنگتن	-8.97451
▁چهل	-8.97451
▁گیرد	-8.97451
▁ی	-8.97451
▁اجاره	-8.99002
▁اخراج	-8.99002
▁بانکی	-8.99002
▁بدهی	-8.99002
▁تصاویر	-8.99002
▁دوست	-8.99002
▁زد	-8.99002
▁سلیمانی	-8.99002
▁سومین	-8.99002
▁شاسی	-8.99002
▁شدگان	-8.99002
▁موقعیت	-8.99002
▁چالش	-8.99002
▁کارها	-8.99002
▁۱۳۹۸	-8.99002
▁احتمالی	-9.00577
▁ادبیات	-9.00577
▁اکتبر	-9.00577
▁اینترنتی	-9.00577
▁بال	-9.00577
▁بن	-9.00577
▁توقف	-9.00577
▁جذب	-9.00577
▁حاشیه	-9.00577
▁خلق	-9.00577
▁رسیدگی	-9.00577
▁شخصیت	-9.00577
▁فارس	-9.00577
▁لباس	-9.00577
▁مونیخ	-9.00577
▁نجات	-9.00577
▁همسر	-9.00577
▁همچون	-9.00577
▁۳۱	-9.00577
▁انجمن	-9.02177
▁اوج	-9.02177
▁بهادار	-9.02177
▁تخمین	-9.02177
▁ترانه	-9.02177
▁تسلا	-9.02177
▁تعهدات	-9.02177
▁خانگی	-9.02177
▁دانش	-9.02177
▁دختران	-9.02177
▁زخمی	-9.02177
▁شمالی	-9.02177
▁صوتی	-9.02177
▁عادی	-9.02177
▁قسمت	-9.02177
▁محصولات	-9.02177
▁مربیان	-9.02177
▁مواردی	-9.02177
▁نادال	-9.02177
▁هرگز	-9.02177
▁ویمبلدون	-9.02177
▁کافی	-9.02177
▁ادبی	-9.03803
▁تا	-9.03803
▁تیراندازی	-9.03803
▁ثابت	-9.03803
▁دارای	-9.03803
▁ساز	-9.03803
▁سختی	-9.03803
▁سنت	-9.03803
▁شرایطی	-9.03803
▁علوم	-9.03803
▁عین	-9.03803
▁قالیباف	-9.03803
▁مرزی	-9.03803
▁مهمترین	-9.03803
▁موسوم	-9.03803
▁موشک	-9.03803
▁میلان	-9.03803
▁نارنجی	-9.03803
▁هاست	-9.03803
▁ورزشکاران	-9.03803
▁پژوهش	-9.03803
▁۳۵	-9.03803
▁ارزیابی	-9.05456
▁اصل	-9.05456
▁انسانی	-9.05456
▁تعویق	-9.05456
▁تقاضا	-9.05456
▁تیر	-9.05456
▁حاصل	-9.05456
▁حقوقی	-9.05456
▁روایت	-9.05456
▁سپاهان	-9.05456
▁شده،	-9.05456
▁قاسم	-9.05456
▁معرض	-9.05456
▁نگه	-9.05456
▁پاکستان	-9.05456
▁کنسرت	-9.05456
▁احساس	-9.07136
▁است.بر	-9.07136
▁افتاد	-9.07136
▁امیدوار	-9.07136
▁انگیز	-9.07136
▁تصور	-9.07136
▁تمدید	-9.07136
▁خیابان	-9.07136
▁دارو	-9.07136
▁درگیر	-9.07136
▁سهم	-9.07136
▁شبانه	-9.07136
▁شرقی	-9.07136
▁لوکس	-9.07136
▁مراکز	-9.07136
▁معمولا	-9.07136
▁میانه	-9.07136
▁نو	-9.07136
▁پور	-9.07136
▁گمرک	-9.07136
▁باری	-9.08846
▁تنظیم	-9.08846
▁رده	-9.08846
▁رهبری	-9.08846
▁سند	-9.08846
▁سوزی	-9.08846
▁شبیه	-9.08846
▁غیرقانونی	-9.08846
▁فردی	-9.08846
▁فرهاد	-9.08846
▁قاچاق	-9.08846
▁مهر	-9.08846
▁نشر	-9.08846
▁هنرمندان	-9.08846
▁هواپیما	-9.08846
▁پایانی	-9.08846
▁پرداخته	-9.08846
▁پست	-9.08846
▁چندان	-9.08846
▁گرم	-9.08846
▁۲۶	-9.08846
▁۸۰	-9.08846
▁اشتباه	-9.10585
▁انتخاباتی	-9.10585
▁بنا	-9.10585
▁تاسیسات	-9.10585
▁تصویری	-9.10585
▁جهت	-9.10585
▁حذفی	-9.10585
▁حفاظت	-9.10585
▁ظاهر	-9.10585
▁فایل	-9.10585
▁قربانیان	-9.10585
▁لیونل	-9.10585
▁متولد	-9.10585
▁نویسندگان	-9.10585
▁پالایشگاه	-9.10585
▁پلاس	-9.10585
▁کارگردانی	-9.10585
▁کلوپ	-9.10585
▁آلودگی	-9.12355
▁اهمیت	-9.12355
▁باخت	-9.12355
▁باشند.	-9.12355
▁برجسته	-9.12355
▁بروز	-9.12355
▁توانایی	-9.12355
▁خیریه	-9.12355
▁زودی	-9.12355
▁سپتامبر	-9.12355
▁صف	-9.12355
▁ضمن	-9.12355
▁فرار	-9.12355
▁فردا	-9.12355
▁قاره	-9.12355
▁قبول	-9.12355
▁مجری	-9.12355
▁نوروز	-9.12355
▁پژوهشگران	-9.12355
▁کارهای	-9.12355
▁کارگردان	-9.12355
▁گران	-9.12355
▁بقیه	-9.14157
▁تری	-9.14157
▁جلوی	-9.14157
▁راجر	-9.14157
▁زاد	-9.14157
▁سوال	-9.14157
▁شلیک	-9.14157
▁ضد	-9.14157
▁عصر	-9.14157
▁مطابق	-9.14157
▁همواره	-9.14157
▁واقعیت	-9.14157
▁وگو	-9.14157
▁گفتند	-9.14157
▁اهل	-9.15992
▁بهره	-9.15992
▁تاخیر	-9.15992
▁جراحی	-9.15992
▁حجم	-9.15992
▁حیات	-9.15992
▁خام	-9.15992
▁درک	-9.15992
▁دیجیتال	-9.15992
▁رادیو	-9.15992
▁سبک	-9.15992
▁فرزند	-9.15992
▁ماموریت	-9.15992
▁محسوب	-9.15992
▁مریخ	-9.15992
▁مسلح	-9.15992
▁مشارکت	-9.15992
▁معتبر	-9.15992
▁هواپیمای	-9.15992
▁پرتاب	-9.15992
▁پزشک	-9.15992
▁پله	-9.15992
▁کشورهایی	-9.15992
▁آورد	-9.17861
▁ابلاغ	-9.17861
▁ارقام	-9.17861
▁ترس	-9.17861
▁تساوی	-9.17861
▁تماشاگران	-9.17861
▁تنش	-9.17861
▁توانسته	-9.17861
▁روزها	-9.17861
▁ست	-9.17861
▁طبیعت	-9.17861
▁ماجرا	-9.17861
▁محروم	-9.17861
▁مخالف	-9.17861
▁مسائل	-9.17861
▁مشاهده	-9.17861
▁هنرپیشه	-9.17861
▁پا	-9.17861
▁پارک	-9.17861
▁۲۹	-9.17861
▁آمازون	-9.19766
▁آنکه	-9.19766
▁آید	-9.19766
▁افسانه	-9.19766
▁توزیع	-9.19766
▁جایگاه	-9.19766
▁جبران	-9.19766
▁خسارت	-9.19766
▁خشونت	-9.19766
▁دلاری	-9.19766
▁دوز	-9.19766
▁روانی	-9.19766
▁سنتی	-9.19766
▁سیستان	-9.19766
▁شاه	-9.19766
▁شصت	-9.19766
▁فن	-9.19766
▁مسئله	-9.19766
▁ها،	-9.19766
▁وام	-9.19766
▁پایه	-9.19766
▁پروتکل	-9.19766
▁پیروز	-9.19766
▁گردد	-9.19766
▁گفته:	-9.19766
▁اندازی	-9.21708
▁اوضاع	-9.21708
▁بعدا	-9.21708
▁بچه	-9.21708
▁تئاتر	-9.21708
▁تخت	-9.21708
▁حس	-9.21708
▁شناسی	-9.21708
▁شیوه	-9.21708
▁طرفداران	-9.21708
▁عوامل	-9.21708
▁محبوب	-9.21708
▁مد	-9.21708
▁مدافع	-9.21708
▁مدرسه	-9.21708
▁موقت	-9.21708
▁ندارند	-9.21708
▁نرم	-9.21708
▁هوشمندی	-9.21708
▁آسمان	-9.23688
▁اتفاقات	-9.23688
▁اجلاس	-9.23688
▁اس	-9.23688
▁اصفهان	-9.23688
▁الملل	-9.23688
▁ایسنا	-9.23688
▁بهای	-9.23688
▁بگیرد	-9.23688
▁ترجمه	-9.23688
▁تست	-9.23688
▁توکیو	-9.23688
▁جذاب	-9.23688
▁حسینی	-9.23688
▁خبرنگاران	-9.23688
▁داریم	-9.23688
▁درجه	-9.23688
▁دسامبر	-9.23688
▁دستگیر	-9.23688
▁سالهای	-9.23688
▁سامانه	-9.23688
▁سرانجام	-9.23688
▁شاعر	-9.23688
▁شهریور	-9.23688
▁صلاحیت	-9.23688
▁ضبط	-9.23688
▁فروخته	-9.23688
▁قلبی	-9.23688
▁محققان	-9.23688
▁محمدی	-9.23688
▁مراقبت	-9.23688
▁مهار	-9.23688
▁موتور	-9.23688
▁ناسا	-9.23688
▁نباید	-9.23688
▁چقدر	-9.23688
▁کرد؛	-9.23688
▁کردم	-9.23688
▁کلاس	-9.23688
▁کنیم.	-9.23688
▁۲۰۱۵	-9.23688
▁آرسنال	-9.25708
▁آکادمی	-9.25708
▁اطلاعاتی	-9.25708
▁بتواند	-9.25708
▁تحصیل	-9.25708
▁خاص	-9.25708
▁خلیج	-9.25708
▁خودرو؛	-9.25708
▁خودروساز	-9.25708
▁خوش	-9.25708
▁داشتن	-9.25708
▁دبیر	-9.25708
▁سالی	-9.25708
▁سخنان	-9.25708
▁فرستاده	-9.25708
▁فوری	-9.25708
▁قلب	-9.25708
▁ماههای	-9.25708
▁مدال	-9.25708
▁منتقدان	-9.25708
▁نبوده	-9.25708
▁پاس	-9.25708
▁گام	-9.25708
▁گذاران	-9.25708
▁گرانی	-9.25708
▁اتریش	-9.2777
▁اخبار	-9.2777
▁الهام	-9.2777
▁ایتالیایی	-9.2777
▁برآورد	-9.2777
▁برداشته	-9.2777
▁بندر	-9.2777
▁جیمز	-9.2777
▁حملات	-9.2777
▁دیپلماسی	-9.2777
▁رسما	-9.2777
▁زندانیان	-9.2777
▁ساده	-9.2777
▁سرخ	-9.2777
▁سوپر	-9.2777
▁شاملو	-9.2777
▁شهری	-9.2777
▁مدعی	-9.2777
▁مسعود	-9.2777
▁مصنوعی	-9.2777
▁منتظر	-9.2777
▁نداده	-9.2777
▁نور	-9.2777
▁پدیده	-9.2777
▁پوست	-9.2777
▁کلیه	-9.2777
▁آزادسازی	-9.29875
▁آمادگی	-9.29875
▁آمیز	-9.29875
▁اداری	-9.29875
▁است.با	-9.29875
▁الدین	-9.29875
▁ایده	-9.29875
▁بازرسی	-9.29875
▁بیان	-9.29875
▁جدا	-9.29875
▁جواد	-9.29875
▁حالت	-9.29875
▁حاکی	-9.29875
▁خدمه	-9.29875
▁خودداری	-9.29875
▁خودشان	-9.29875
▁دیدن	-9.29875
▁شهرداری	-9.29875
▁عرصه	-9.29875
▁عکاسی	-9.29875
▁عید	-9.29875
▁فیلمی	-9.29875
▁مایکل	-9.29875
▁مبنی	-9.29875
▁متن	-9.29875
▁مرسدس	-9.29875
▁معتقدند	-9.29875
▁نحوه	-9.29875
▁نقاش	-9.29875
▁چطور	-9.29875
▁کادر	-9.29875
▁گلستان	-9.29875
▁گوش	-9.29875
▁آکسفورد	-9.32026
▁ازدواج	-9.32026
▁استعفا	-9.32026
▁اعتصاب	-9.32026
▁امضای	-9.32026
▁انداز	-9.32026
▁ایرنا	-9.32026
▁بان	-9.32026
▁تحقیقاتی	-9.32026
▁تکرار	-9.32026
▁جاده	-9.32026
▁جنجالی	-9.32026
▁حامل	-9.32026
▁دهند.	-9.32026
▁دهنده	-9.32026
▁دید	-9.32026
▁رانندگان	-9.32026
▁رونق	-9.32026
▁رویکرد	-9.32026
▁سالگرد	-9.32026
▁سواری	-9.32026
▁ظرف	-9.32026
▁فراموش	-9.32026
▁قالب	-9.32026
▁مالک	-9.32026
▁مردی	-9.32026
▁مشمول	-9.32026
▁مهمی	-9.32026
▁هستیم	-9.32026
▁ورزشکار	-9.32026
▁پزشکان	-9.32026
▁ژافره	-9.32026
▁کارمندان	-9.32026
▁کندمنبع	-9.32026
▁یخ	-9.32026
▁۱۳۹۷	-9.32026
▁۴۰۰	-9.32026
▁استانبول	-9.34224
▁امیر	-9.34224
▁انداخته	-9.34224
▁برگشت	-9.34224
▁تولیدکنندگان	-9.34224
▁حداکثر	-9.34224
▁حکام	-9.34224
▁خطرناک	-9.34224
▁داربی	-9.34224
▁درمانی	-9.34224
▁دیوان	-9.34224
▁رسانی	-9.34224
▁سایه	-9.34224
▁صدها	-9.34224
▁فرود	-9.34224
▁مشهد	-9.34224
▁موضع	-9.34224
▁نامش	-9.34224
▁نشود	-9.34224
▁نهم	-9.34224
▁همسرش	-9.34224
▁پنهان	-9.34224
▁پکن	-9.34224
▁کیلومتری	-9.34224
▁گزینه	-9.34224
▁گواردیولا	-9.34224
▁گیر	-9.34224
▁۲۰۱۴	-9.34224
▁آنجلس	-9.36471
▁ابراهیم	-9.36471
▁استخراج	-9.36471
▁اطلاعیه	-9.36471
▁اکبر	-9.36471
▁باور	-9.36471
▁بدست	-9.36471
▁برداری	-9.36471
▁تردد	-9.36471
▁جامع	-9.36471
▁دشوار	-9.36471
▁دعوت	-9.36471
▁رو	-9.36471
▁ریشه	-9.36471
▁سخن	-9.36471
▁سراوان	-9.36471
▁شد،	-9.36471
▁شهروند	-9.36471
▁صرافی	-9.36471
▁عباسی	-9.36471
▁عدد	-9.36471
▁عکاس	-9.36471
▁غول	-9.36471
▁فورد	-9.36471
▁فولاد	-9.36471
▁لس	-9.36471
▁مختلفی	-9.36471
▁میراث	-9.36471
▁نماد	-9.36471
▁همتی	-9.36471
▁وکیل	-9.36471
▁پذیرش	-9.36471
▁پنجاه	-9.36471
▁کی	-9.36471
▁یمن	-9.36471
▁یوونتوس	-9.36471
▁۳۲	-9.36471
▁آزار	-9.3877
▁ابتلای	-9.3877
▁اسپانیایی	-9.3877
▁ایستاده	-9.3877
▁بد	-9.3877
▁تفاوت	-9.3877
▁تمرین	-9.3877
▁تولد	-9.3877
▁خفاش	-9.3877
▁دانند	-9.3877
▁دستمزد	-9.3877
▁رقیب	-9.3877
▁روزی	-9.3877
▁ساکن	-9.3877
▁شهرت	-9.3877
▁شهرستان	-9.3877
▁عمیق	-9.3877
▁فرودگاه	-9.3877
▁فوتبالیست	-9.3877
▁قوی	-9.3877
▁متحد	-9.3877
▁مدیرکل	-9.3877
▁مسئولیت	-9.3877
▁مناسب	-9.3877
▁نشدن	-9.3877
▁نفس	-9.3877
▁نوعی	-9.3877
▁پایگاه	-9.3877
▁پسر	-9.3877
▁پیاپی	-9.3877
▁پیگیری	-9.3877
▁چارچوب	-9.3877
▁چگونگی	-9.3877
▁کرونا،	-9.3877
▁گردشگری	-9.3877
▁یافتن	-9.3877
▁۹۷	-9.3877
▁اسکناس	-9.41123
▁اطمینان	-9.41123
▁افزود	-9.41123
▁اهواز	-9.41123
▁او	-9.41123
▁برسد	-9.41123
▁بلوچستان	-9.41123
▁بلینکن	-9.41123
▁تعلیق	-9.41123
▁تماشاگر	-9.41123
▁توجهی	-9.41123
▁تکذیب	-9.41123
▁جلب	-9.41123
▁خواند	-9.41123
▁روزه	-9.41123
▁سالم	-9.41123
▁سرایت	-9.41123
▁شانس	-9.41123
▁شرکتهای	-9.41123
▁شغل	-9.41123
▁متعددی	-9.41123
▁مجاز	-9.41123
▁محرومیت	-9.41123
▁مشتریان	-9.41123
▁نوروزی	-9.41123
▁نیمی	-9.41123
▁هویت	-9.41123
▁چیست	-9.41123
▁کارت	-9.41123
▁کارشناس	-9.41123
▁کانادا	-9.41123
▁کردیم	-9.41123
▁گرفتند	-9.41123
▁۶۰۰	-9.41123
▁آشنا	-9.43533
▁ابتدایی	-9.43533
▁اقدامی	-9.43533
▁انواع	-9.43533
▁بازسازی	-9.43533
▁بازیکنی	-9.43533
▁تحولات	-9.43533
▁ثانیه	-9.43533
▁حاوی	-9.43533
▁حراج	-9.43533
▁حوادث	-9.43533
▁خاصی	-9.43533
▁خلاف	-9.43533
▁خودروسازی	-9.43533
▁خورشید	-9.43533
▁داروی	-9.43533
▁دریاچه	-9.43533
▁دمای	-9.43533
▁شد.این	-9.43533
▁صاحب	-9.43533
▁صورتی	-9.43533
▁ضروری	-9.43533
▁طوری	-9.43533
▁عربی	-9.43533
▁عمدتا	-9.43533
▁عوارض	-9.43533
▁غذایی	-9.43533
▁لحاظ	-9.43533
▁مستقل	-9.43533
▁مشاغل	-9.43533
▁معمول	-9.43533
▁مقصد	-9.43533
▁موثر	-9.43533
▁نامزدهای	-9.43533
▁نمایندگی	-9.43533
▁پیچیده	-9.43533
▁ژاپنی	-9.43533
▁کارنامه	-9.43533
▁کالیفرنیا	-9.43533
▁کند.این	-9.43533
▁کند؛	-9.43533
▁گرنداسلم	-9.43533
▁گری	-9.43533
▁آرام	-9.46002
▁آلوده	-9.46002
▁آور	-9.46002
▁است:	-9.46002
▁حکایت	-9.46002
▁خطاب	-9.46002
▁داند	-9.46002
▁دفاعی	-9.46002
▁دیشب	-9.46002
▁دیگران	-9.46002
▁رحمان	-9.46002
▁رویداد	-9.46002
▁ریال	-9.46002
▁زودتر	-9.46002
▁سرپرست	-9.46002
▁سفرهای	-9.46002
▁فعلا	-9.46002
▁قضاییه	-9.46002
▁مراجعه	-9.46002
▁مطلب	-9.46002
▁معدن	-9.46002
▁نویس	-9.46002
▁هایشان	-9.46002
▁پاری	-9.46002
▁پرچم	-9.46002
▁پنجمین	-9.46002
▁کارگری	-9.46002
▁گذار	-9.46002
▁۱۵۰	-9.46002
▁۷۰۰	-9.46002
▁آذر	-9.48534
▁اتفاقی	-9.48534
▁اورتون	-9.48534
▁ایم	-9.48534
▁اینستاگرام	-9.48534
▁بتوانند	-9.48534
▁برقرار	-9.48534
▁بسکتبال	-9.48534
▁بنیان	-9.48534
▁تلفن	-9.48534
▁خبرساز	-9.48534
▁دانست	-9.48534
▁دل	-9.48534
▁رویدادهای	-9.48534
▁شود.در	-9.48534
▁صنعتی	-9.48534
▁طلای	-9.48534
▁عرب	-9.48534
▁عضویت	-9.48534
▁فراز	-9.48534
▁ملایی	-9.48534
▁مهاجرت	-9.48534
▁ناگهانی	-9.48534
▁نسخه	-9.48534
▁نشد	-9.48534
▁نطنز	-9.48534
▁پاییز	-9.48534
▁پیوسته	-9.48534
▁ژرمن	-9.48534
▁گاه	-9.48534
▁.آقای	-9.51132
▁آمدن	-9.51132
▁ارتباطات	-9.51132
▁اسدی	-9.51132
▁اطراف	-9.51132
▁اظهار	-9.51132
▁امشب	-9.51132
▁اولویت	-9.51132
▁اینها	-9.51132
▁بازیگران	-9.51132
▁برخوردار	-9.51132
▁برنت	-9.51132
▁تاثیری	-9.51132
▁تصمیمی	-9.51132
▁تعطیلات	-9.51132
▁تماشای	-9.51132
▁جوانان	-9.51132
▁حالیکه	-9.51132
▁خاطره	-9.51132
▁خاوران	-9.51132
▁خمینی	-9.51132
▁خواب	-9.51132
▁درحالی	-9.51132
▁ذخیره	-9.51132
▁ردیف	-9.51132
▁سالن	-9.51132
▁سبب	-9.51132
▁شهرسازی	-9.51132
▁شود،	-9.51132
▁صادقی	-9.51132
▁ظرفیت	-9.51132
▁فکری	-9.51132
▁فیسبوک	-9.51132
▁قدم	-9.51132
▁قطب	-9.51132
▁قطعه	-9.51132
▁قله	-9.51132
▁متوالی	-9.51132
▁مجسمه	-9.51132
▁محرمانه	-9.51132
▁منظور	-9.51132
▁ندارند.	-9.51132
▁نصب	-9.51132
▁نفوذ	-9.51132
▁هتل	-9.51132
▁هست	-9.51132
▁هلند	-9.51132
▁پدرش	-9.51132
▁پرس	-9.51132
▁پوشش	-9.51132
▁کاپیتان	-9.51132
▁کشید	-9.51132
▁کوه	-9.51132
▁یافت.	-9.51132
▁۴۵	-9.51132
▁اختصاص	-9.53798
▁اختلال	-9.53798
▁اضطراری	-9.53798
▁اعتماد	-9.53798
▁اقلیم	-9.53798
▁امارات	-9.53798
▁امیدواری	-9.53798
▁انتظامی	-9.53798
▁اکثر	-9.53798
▁بردن	-9.53798
▁بنابراین	-9.53798
▁بند	-9.53798
▁بنیاد	-9.53798
▁تجهیزات	-9.53798
▁تحلیل	-9.53798
▁حوثی	-9.53798
▁حکومتی	-9.53798
▁خواهم	-9.53798
▁خودروسازان	-9.53798
▁شورا	-9.53798
▁صرف	-9.53798
▁علم	-9.53798
▁فیوری	-9.53798
▁قول	-9.53798
▁لی	-9.53798
▁مارک	-9.53798
▁مالیاتی	-9.53798
▁ماند.	-9.53798
▁مثال	-9.53798
▁مجازات	-9.53798
▁مذهبی	-9.53798
▁مشاور	-9.53798
▁معلوم	-9.53798
▁نایب	-9.53798
▁نداشت	-9.53798
▁نمایشی	-9.53798
▁نکته	-9.53798
▁نیرو	-9.53798
▁هوای	-9.53798
▁واقعا	-9.53798
▁وخیم	-9.53798
▁ژنتیکی	-9.53798
▁کلمبیا	-9.53798
▁گشایش	-9.53798
▁یابد	-9.53798
▁۲۰۱۱	-9.53798
▁۲۷	-9.53798
▁۳۴	-9.53798
▁آرامش	-9.56538
▁آواز	-9.56538
▁اسب	-9.56538
▁استاندار	-9.56538
▁افتخار	-9.56538
▁اینترنت	-9.56538
▁بابا	-9.56538
▁بگیرد.	-9.56538
▁تشویق	-9.56538
▁حقیقت	-9.56538
▁خان	-9.56538
▁دادند.	-9.56538
▁داشتند.	-9.56538
▁دانشجویان	-9.56538
▁دخالت	-9.56538
▁دریا	-9.56538
▁رمز	-9.56538
▁زیرا	-9.56538
▁سازنده	-9.56538
▁سانسور	-9.56538
▁سقف	-9.56538
▁طراح	-9.56538
▁قدر	-9.56538
▁مغزی	-9.56538
▁نیمکت	-9.56538
▁هفتاد	-9.56538
▁پروفسور	-9.56538
▁کربن	-9.56538
▁کرد.این	-9.56538
▁کسری	-9.56538
▁کنفدراسیون	-9.56538
▁کهکشان	-9.56538
▁کیفیت	-9.56538
▁یارانه	-9.56538
▁آمد.	-9.59355
▁ارزهای	-9.59355
▁اسکاتلند	-9.59355
▁امکانات	-9.59355
▁اند.این	-9.59355
▁اند؛	-9.59355
▁اندونزی	-9.59355
▁بابت	-9.59355
▁بلافاصله	-9.59355
▁بنابر	-9.59355
▁تائید	-9.59355
▁تشدید	-9.59355
▁جزیره	-9.59355
▁خطیب	-9.59355
▁دام	-9.59355
▁دستورالعمل	-9.59355
▁رحمانی	-9.59355
▁رفت.	-9.59355
▁روغن	-9.59355
▁سرنوشت	-9.59355
▁سهامداران	-9.59355
▁شاهین	-9.59355
▁شگفت	-9.59355
▁شیر	-9.59355
▁شیشه	-9.59355
▁صدرنشین	-9.59355
▁عاصمی	-9.59355
▁عملا	-9.59355
▁فرمان	-9.59355
▁فضا	-9.59355
▁لبنان	-9.59355
▁لستر	-9.59355
▁ماجرای	-9.59355
▁ماند	-9.59355
▁مجیدی	-9.59355
▁محاسبه	-9.59355
▁محصول	-9.59355
▁مرور	-9.59355
▁مسئولین	-9.59355
▁مساوی	-9.59355
▁معاصر	-9.59355
▁معنی	-9.59355
▁مناسبت	-9.59355
▁مهرداد	-9.59355
▁ناظر	-9.59355
▁نفره	-9.59355
▁هشتم	-9.59355
▁واگن	-9.59355
▁چنان	-9.59355
▁کانون	-9.59355
▁کجا	-9.59355
▁گذاشت	-9.59355
▁آفریقا	-9.62254
▁آموزشی	-9.62254
▁آورد.	-9.62254
▁ازبکستان	-9.62254
▁اماکن	-9.62254
▁اند.منبع	-9.62254
▁باشگاهی	-9.62254
▁بهشت	-9.62254
▁بوکس	-9.62254
▁بیمه	-9.62254
▁تاسیس	-9.62254
▁تعرفه	-9.62254
▁تعریف	-9.62254
▁توافقی	-9.62254
▁توییت	-9.62254
▁جنجال	-9.62254
▁جواب	-9.62254
▁خطوط	-9.62254
▁خودکشی	-9.62254
▁خورد	-9.62254
▁رهبران	-9.62254
▁سرکوب	-9.62254
▁سپرده	-9.62254
▁شیدا	-9.62254
▁شیری	-9.62254
▁ضرب	-9.62254
▁فرگوسن	-9.62254
▁فریاد	-9.62254
▁فولکس	-9.62254
▁ما	-9.62254
▁مجمع	-9.62254
▁مدارس	-9.62254
▁مورینیو	-9.62254
▁میانگین	-9.62254
▁نظامیان	-9.62254
▁والی	-9.62254
▁وستهم	-9.62254
▁وضعیتی	-9.62254
▁چهارمین	-9.62254
▁کاوشگر	-9.62254
▁کرد،	-9.62254
▁یورگن	-9.62254
▁اجباری	-9.65239
▁احضار	-9.65239
▁اموال	-9.65239
▁اولسان	-9.65239
▁باخته	-9.65239
▁برداشت	-9.65239
▁برندگان	-9.65239
▁برگزیده	-9.65239
▁بطور	-9.65239
▁تبعیض	-9.65239
▁تجاوز	-9.65239
▁تحمل	-9.65239
▁تصاویری	-9.65239
▁تیمش	-9.65239
▁حیوانات	-9.65239
▁خراسان	-9.65239
▁دادستان	-9.65239
▁داری	-9.65239
▁درهای	-9.65239
▁دقیقا	-9.65239
▁دیپلماتیک	-9.65239
▁رغم	-9.65239
▁زمینی	-9.65239
▁سراسری	-9.65239
▁سرنگونی	-9.65239
▁شد.منبع	-9.65239
▁شناور	-9.65239
▁شکسته	-9.65239
▁عظیم	-9.65239
▁عفو	-9.65239
▁فاش	-9.65239
▁فراتر	-9.65239
▁لوازم	-9.65239
▁ماندن	-9.65239
▁متری	-9.65239
▁محمدجواد	-9.65239
▁مدنی	-9.65239
▁مسافر	-9.65239
▁مقدار	-9.65239
▁ملاقات	-9.65239
▁منافع	-9.65239
▁نفع	-9.65239
▁نقشه	-9.65239
▁نژادپرستی	-9.65239
▁نیازمند	-9.65239
▁نیستند	-9.65239
▁هافبک	-9.65239
▁هجوم	-9.65239
▁پارلمان	-9.65239
▁پتروشیمی	-9.65239
▁پل	-9.65239
▁پژوهشگر	-9.65239
▁کارمند	-9.65239
▁کالاها	-9.65239
▁کنم.	-9.65239
▁گروسی	-9.65239
▁گزارشگر	-9.65239
▁یکم	-9.65239
▁۲۰۱۲	-9.65239
▁۳۳	-9.65239
▁۴۴	-9.65239
▁'به	-9.68317
▁آسان	-9.68317
▁اسناد	-9.68317
▁ایرانمنبع	-9.68317
▁بالینی	-9.68317
▁برادر	-9.68317
▁برد.	-9.68317
▁برکنار	-9.68317
▁بهتری	-9.68317
▁تراکتور	-9.68317
▁تصادف	-9.68317
▁جانشین	-9.68317
▁جدایی	-9.68317
▁جزو	-9.68317
▁جسد	-9.68317
▁خاتمی	-9.68317
▁خودم	-9.68317
▁دانشمند	-9.68317
▁درخشان	-9.68317
▁درد	-9.68317
▁درون	-9.68317
▁رسد.	-9.68317
▁زند	-9.68317
▁ساحل	-9.68317
▁سرد	-9.68317
▁سلول	-9.68317
▁سوئد	-9.68317
▁سواحل	-9.68317
▁شده.	-9.68317
▁شنیده	-9.68317
▁شهرها	-9.68317
▁طبقه	-9.68317
▁علائم	-9.68317
▁علنی	-9.68317
▁غیرمستقیم	-9.68317
▁فاجعه	-9.68317
▁فاز	-9.68317
▁فصلی	-9.68317
▁فقر	-9.68317
▁قرارگاه	-9.68317
▁قلعه	-9.68317
▁قیمتها	-9.68317
▁مادرش	-9.68317
▁متفاوتی	-9.68317
▁مطمئن	-9.68317
▁مقاله	-9.68317
▁موقع	-9.68317
▁نان	-9.68317
▁نساجی	-9.68317
▁هیجان	-9.68317
▁وایلدر	-9.68317
▁ویژگی	-9.68317
▁پاپ	-9.68317
▁کریستیانو	-9.68317
▁کلیدی	-9.68317
▁کنفرانس	-9.68317
▁گورستان	-9.68317
▁گوشت	-9.68317
▁گیرد.	-9.68317
▁۰	-9.68317
▁۴۸	-9.68317
▁آنتونی	-9.71491
▁اتومبیل	-9.71491
▁ارتباطی	-9.71491
▁اقلام	-9.71491
▁ایست	-9.71491
▁بازدید	-9.71491
▁بامیان	-9.71491
▁بخوانید:	-9.71491
▁بودم	-9.71491
▁بیستم	-9.71491
▁تایسون	-9.71491
▁تماشا	-9.71491
▁تپه	-9.71491
▁جلو	-9.71491
▁جنبش	-9.71491
▁جودو	-9.71491
▁رساند	-9.71491
▁رقمی	-9.71491
▁زرد	-9.71491
▁سلاح	-9.71491
▁سلطنت	-9.71491
▁سیما	-9.71491
▁شود؛	-9.71491
▁طلب	-9.71491
▁عاشق	-9.71491
▁عملی	-9.71491
▁قراردادی	-9.71491
▁مخاطبان	-9.71491
▁مدیره	-9.71491
▁معتقد	-9.71491
▁مقدماتی	-9.71491
▁نابودی	-9.71491
▁نظریه	-9.71491
▁نمایشگاه	-9.71491
▁نود	-9.71491
▁هشتاد	-9.71491
▁هفتم	-9.71491
▁هنرهای	-9.71491
▁هیئت	-9.71491
▁پرده	-9.71491
▁پیامدهای	-9.71491
▁پیراهن	-9.71491
▁کند،	-9.71491
▁کنگره	-9.71491
▁کودکی	-9.71491
▁گرند	-9.71491
▁گوشی	-9.71491
▁گیرند	-9.71491
▁یونان	-9.71491
▁۳۸	-9.71491
▁۴۲	-9.71491
▁آرژانتینی	-9.7477
▁آسیایی	-9.7477
▁احترام	-9.7477
▁استادیوم	-9.7477
▁اسکی	-9.7477
▁اصلا	-9.7477
▁اعتبار	-9.7477
▁باد	-9.7477
▁باغ	-9.7477
▁برایش	-9.7477
▁بود،	-9.7477
▁توماس	-9.7477
▁جاسوسی	-9.7477
▁جورج	-9.7477
▁خاورمیانه	-9.7477
▁خوانندگان	-9.7477
▁داوطلبان	-9.7477
▁دیوید	-9.7477
▁ذرات	-9.7477
▁ذوب	-9.7477
▁راستی	-9.7477
▁زیبایی	-9.7477
▁سرقت	-9.7477
▁سرود	-9.7477
▁شوروی	-9.7477
▁عطر	-9.7477
▁عمر	-9.7477
▁عوض	-9.7477
▁غیرقابل	-9.7477
▁لیدز	-9.7477
▁مشابهی	-9.7477
▁میناوند	-9.7477
▁نادیده	-9.7477
▁نباشد	-9.7477
▁نبود.	-9.7477
▁هاشمی	-9.7477
▁هنگامی	-9.7477
▁هوشمند	-9.7477
▁وارداتی	-9.7477
▁پادتن	-9.7477
▁پانصد	-9.7477
▁پولشویی	-9.7477
▁چرخ	-9.7477
▁چشمگیر	-9.7477
▁کریمی	-9.7477
▁کلاسیک	-9.7477
▁کوتاهی	-9.7477
▁۲۰۱۰	-9.7477
▁۷۵	-9.7477
▁آرایش	-9.78161
▁آزمایشی	-9.78161
▁آفریقای	-9.78161
▁آمریکای	-9.78161
▁اتهامات	-9.78161
▁ارزان	-9.78161
▁اسلام	-9.78161
▁اسلم	-9.78161
▁اسم	-9.78161
▁ال	-9.78161
▁امر	-9.78161
▁اهدا	-9.78161
▁ب	-9.78161
▁بازرسان	-9.78161
▁بازنشسته	-9.78161
▁بتوان	-9.78161
▁بخصوص	-9.78161
▁برقراری	-9.78161
▁بهرنگ	-9.78161
▁بودیم	-9.78161
▁تاجیک	-9.78161
▁تبار	-9.78161
▁تردید	-9.78161
▁تقسیم	-9.78161
▁توهین	-9.78161
▁تکمیل	-9.78161
▁دادگاهی	-9.78161
▁دامن	-9.78161
▁درحال	-9.78161
▁رئیسی	-9.78161
▁روح	-9.78161
▁سوئیسی	-9.78161
▁شنا	-9.78161
▁طرحی	-9.78161
▁عشق	-9.78161
▁عمق	-9.78161
▁فایزر	-9.78161
▁فتح	-9.78161
▁قدس	-9.78161
▁قیمتی	-9.78161
▁لذت	-9.78161
▁لمس	-9.78161
▁محیطی	-9.78161
▁منع	-9.78161
▁ناپذیر	-9.78161
▁نرسیده	-9.78161
▁نقشی	-9.78161
▁نگرفته	-9.78161
▁واکسینه	-9.78161
▁پهلوی	-9.78161
▁پوشیده	-9.78161
▁کشاورزی	-9.78161
▁کماکان	-9.78161
▁گرچه	-9.78161
▁گمان	-9.78161
▁۲۵۰	-9.78161
▁آتی	-9.8167
▁آدم	-9.8167
▁آذربایجان	-9.8167
▁آزمایی	-9.8167
▁افزار	-9.8167
▁الحاقی	-9.8167
▁اند.در	-9.8167
▁انگیزه	-9.8167
▁بخت	-9.8167
▁برخلاف	-9.8167
▁بود.در	-9.8167
▁بود.منبع	-9.8167
▁تبلیغات	-9.8167
▁توییتی	-9.8167
▁جانبی	-9.8167
▁جنبه	-9.8167
▁حساس	-9.8167
▁حیرت	-9.8167
▁خداحافظی	-9.8167
▁خوان	-9.8167
▁داستانی	-9.8167
▁داوران	-9.8167
▁دفن	-9.8167
▁دوام	-9.8167
▁دوپینگ	-9.8167
▁دیگو	-9.8167
▁ریه	-9.8167
▁زمستان	-9.8167
▁زیستی	-9.8167
▁سفارش	-9.8167
▁سو	-9.8167
▁سپری	-9.8167
▁شاغل	-9.8167
▁شود.منبع	-9.8167
▁صمت	-9.8167
▁صندلی	-9.8167
▁طیف	-9.8167
▁عادت	-9.8167
▁عراقی	-9.8167
▁غیررسمی	-9.8167
▁فرونشست	-9.8167
▁فیزیک	-9.8167
▁قاضی	-9.8167
▁مادورو	-9.8167
▁متهمان	-9.8167
▁محکومیت	-9.8167
▁مساله	-9.8167
▁مسجد	-9.8167
▁ملکه	-9.8167
▁من	-9.8167
▁منتقد	-9.8167
▁موشکی	-9.8167
▁میر	-9.8167
▁نامداری	-9.8167
▁نمایشگر	-9.8167
▁نواک	-9.8167
▁نوبت	-9.8167
▁نویسی	-9.8167
▁نیروگاه	-9.8167
▁همجنس	-9.8167
▁والیبال	-9.8167
▁وزیران	-9.8167
▁وسایل	-9.8167
▁وست	-9.8167
▁پذیر	-9.8167
▁پپ	-9.8167
▁پیشگیری	-9.8167
▁کارش	-9.8167
▁کناره	-9.8167
▁کیلوگرم	-9.8167
▁کیم	-9.8167
▁۲۰۰۰	-9.8167
▁ارشاد	-9.85307
▁است.از	-9.85307
▁است.اما	-9.85307
▁اطلس	-9.85307
▁اعتراضی	-9.85307
▁اوبر	-9.85307
▁ایام	-9.85307
▁بازگرداندن	-9.85307
▁بالاخره	-9.85307
▁بالایی	-9.85307
▁باند	-9.85307
▁بحرانی	-9.85307
▁بدتر	-9.85307
▁بدی	-9.85307
▁بغداد	-9.85307
▁بلخ	-9.85307
▁بود.این	-9.85307
▁بیمارستانی	-9.85307
▁تأمین	-9.85307
▁تظاهرات	-9.85307
▁توانیم	-9.85307
▁توطئه	-9.85307
▁ثبات	-9.85307
▁خواستند	-9.85307
▁دارد؛	-9.85307
▁دانیم	-9.85307
▁دویست	-9.85307
▁رقص	-9.85307
▁زنند	-9.85307
▁زهرا	-9.85307
▁سانتی	-9.85307
▁سد	-9.85307
▁سران	-9.85307
▁سوار	-9.85307
▁سوالات	-9.85307
▁شد.در	-9.85307
▁شودمنبع	-9.85307
▁شویم	-9.85307
▁صادرکننده	-9.85307
▁عراقچی	-9.85307
▁فان	-9.85307
▁فرمانداری	-9.85307
▁قایق	-9.85307
▁قدم؛	-9.85307
▁محافظت	-9.85307
▁محتوای	-9.85307
▁مرزهای	-9.85307
▁مشخصی	-9.85307
▁مصاف	-9.85307
▁مصدومیت	-9.85307
▁مطلع	-9.85307
▁مطهری	-9.85307
▁منتهی	-9.85307
▁موافق	-9.85307
▁موضوعی	-9.85307
▁ناحیه	-9.85307
▁ناخالص	-9.85307
▁نادر	-9.85307
▁نتوانسته	-9.85307
▁هماهنگی	-9.85307
▁همیشگی	-9.85307
▁واگذاری	-9.85307
▁وسیله	-9.85307
▁پرورش	-9.85307
▁پولی	-9.85307
▁پیست	-9.85307
▁پیوست	-9.85307
▁چابهار	-9.85307
▁چندی	-9.85307
▁کس	-9.85307
▁کلیات	-9.85307
▁گذرد	-9.85307
▁گمانه	-9.85307
▁۲۰۲۲	-9.85307
▁۵۷	-9.85307
▁۹۶	-9.85307
▁آمارهای	-9.89081
▁آگاه	-9.89081
▁اختلافات	-9.89081
▁ادعا	-9.89081
▁ادعای	-9.89081
▁اشتغال	-9.89081
▁افتاد.	-9.89081
▁اقامت	-9.89081
▁اقلیمی	-9.89081
▁اند،	-9.89081
▁اوکراین	-9.89081
▁ایرانیان	-9.89081
▁باران	-9.89081
▁بازیکنانی	-9.89081
▁بازیگری	-9.89081
▁برود	-9.89081
▁برگزیت	-9.89081
▁بوندس	-9.89081
▁بیلسا	-9.89081
▁تب	-9.89081
▁تبریز	-9.89081
▁تعلق	-9.89081
▁توانم	-9.89081
▁جایگزین	-9.89081
▁جونز	-9.89081
▁جی	-9.89081
▁حضورش	-9.89081
▁خاتم	-9.89081
▁خرج	-9.89081
▁خیابانی	-9.89081
▁دوستانه	-9.89081
▁دیه	-9.89081
▁ذخایر	-9.89081
▁راحت	-9.89081
▁راستای	-9.89081
▁رسیدمنبع	-9.89081
▁رضوی	-9.89081
▁رویارویی	-9.89081
▁سامسونگ	-9.89081
▁سرزمین	-9.89081
▁سرویس	-9.89081
▁شبه	-9.89081
▁شتاب	-9.89081
▁شرط	-9.89081
▁ششم	-9.89081
▁شناس	-9.89081
▁شواهد	-9.89081
▁شود.این	-9.89081
▁صادق	-9.89081
▁صالح	-9.89081
▁ضرر	-9.89081
▁طبری	-9.89081
▁طلبان	-9.89081
▁عبارت	-9.89081
▁عبدالله	-9.89081
▁عمان	-9.89081
▁فروشی	-9.89081
▁لوئیس	-9.89081
▁ماهواره	-9.89081
▁مبنای	-9.89081
▁مجید	-9.89081
▁محاکمه	-9.89081
▁مدار	-9.89081
▁مراحل	-9.89081
▁ملک	-9.89081
▁موظف	-9.89081
▁مکرون	-9.89081
▁ناظران	-9.89081
▁نامیده	-9.89081
▁نخواهند	-9.89081
▁نداریم	-9.89081
▁نفری	-9.89081
▁نقدی	-9.89081
▁نوسان	-9.89081
▁هجومی	-9.89081
▁هندی	-9.89081
▁هنگ	-9.89081
▁هوش	-9.89081
▁وقوع	-9.89081
▁ویدئویی	-9.89081
▁پرسش	-9.89081
▁پرفروش	-9.89081
▁پرنده	-9.89081
▁چرخه	-9.89081
▁گلوله	-9.89081
▁گمرکی	-9.89081
▁یازده	-9.89081
▁اختصاصی	-9.93003
▁ازای	-9.93003
▁استراماچونی	-9.93003
▁اسماعیلی	-9.93003
▁امتیازی	-9.93003
▁امین	-9.93003
▁اند.به	-9.93003
▁اهداف	-9.93003
▁اگر	-9.93003
▁ایلنا	-9.93003
▁بدترین	-9.93003
▁برانکو	-9.93003
▁برانگیز	-9.93003
▁برون	-9.93003
▁تاثیرگذار	-9.93003
▁تاکسی	-9.93003
▁تبعات	-9.93003
▁تحمیل	-9.93003
▁تحول	-9.93003
▁تداوم	-9.93003
▁ترور	-9.93003
▁تروریسم	-9.93003
▁تضعیف	-9.93003
▁تعدیل	-9.93003
▁تلخ	-9.93003
▁تکان	-9.93003
▁ثمر	-9.93003
▁جدال	-9.93003
▁جرم	-9.93003
▁جوانی	-9.93003
▁حمایتی	-9.93003
▁حیاتی	-9.93003
▁خشم	-9.93003
▁خشکی	-9.93003
▁خواه	-9.93003
▁خوردن	-9.93003
▁دادستانی	-9.93003
▁دانمارک	-9.93003
▁دستگیری	-9.93003
▁دیوار	-9.93003
▁ذهن	-9.93003
▁روان	-9.93003
▁ساعات	-9.93003
▁شکنجه	-9.93003
▁عبوری	-9.93003
▁عکسی	-9.93003
▁غزنی	-9.93003
▁فردوسی	-9.93003
▁فلوریدا	-9.93003
▁قادر	-9.93003
▁مادری	-9.93003
▁ماراتن	-9.93003
▁ماهانه	-9.93003
▁ماهنامه	-9.93003
▁مخفی	-9.93003
▁مدرن	-9.93003
▁مرجان	-9.93003
▁مصوبات	-9.93003
▁معمولی	-9.93003
▁مهاجر	-9.93003
▁موبایل	-9.93003
▁نبرد	-9.93003
▁نوجوان	-9.93003
▁همسان	-9.93003
▁واژه	-9.93003
▁وبسایت	-9.93003
▁وحش	-9.93003
▁وسیع	-9.93003
▁ویدیو	-9.93003
▁پادشاه	-9.93003
▁پانزده	-9.93003
▁پذیرفته	-9.93003
▁پرتغال	-9.93003
▁پرندگان	-9.93003
▁پروانه	-9.93003
▁پلاستیکی	-9.93003
▁پنالتی	-9.93003
▁پیمان	-9.93003
▁کتابی	-9.93003
▁کند.منبع	-9.93003
▁گذارد	-9.93003
▁گذاشتن	-9.93003
▁یو	-9.93003
▁۴۳	-9.93003
▁۴۹	-9.93003
▁آباد	-9.97085
▁آزاده	-9.97085
▁آشکار	-9.97085
▁آل	-9.97085
▁آوردن	-9.97085
▁آید.	-9.97085
▁اصلاحات	-9.97085
▁اقلیت	-9.97085
▁التهاب	-9.97085
▁اندکی	-9.97085
▁اهالی	-9.97085
▁اهدای	-9.97085
▁بدنه	-9.97085
▁برج	-9.97085
▁بلژیک	-9.97085
▁بماند	-9.97085
▁بورل	-9.97085
▁بوشهر	-9.97085
▁تبلیغ	-9.97085
▁تجدید	-9.97085
▁تخصیص	-9.97085
▁تدوین	-9.97085
▁ترجیح	-9.97085
▁ترخیص	-9.97085
▁ترکیبی	-9.97085
▁تنفسی	-9.97085
▁توانستند	-9.97085
▁تگزاس	-9.97085
▁جردن	-9.97085
▁حضوری	-9.97085
▁خشک	-9.97085
▁خلاصه	-9.97085
▁دانست.	-9.97085
▁دبلیو	-9.97085
▁دهیم	-9.97085
▁راهبردی	-9.97085
▁رساندن	-9.97085
▁رود.	-9.97085
▁روسی	-9.97085
▁زنانی	-9.97085
▁زوج	-9.97085
▁زکی	-9.97085
▁ساکنان	-9.97085
▁سرنشینان	-9.97085
▁سنا	-9.97085
▁شد.با	-9.97085
▁شریفی	-9.97085
▁شعار	-9.97085
▁شمخانی	-9.97085
▁شیرین	-9.97085
▁صلاح	-9.97085
▁ظاهرا	-9.97085
▁عقیده	-9.97085
▁غذای	-9.97085
▁فارغ	-9.97085
▁فرش	-9.97085
▁فروشگاه	-9.97085
▁فیلمنامه	-9.97085
▁قابلیت	-9.97085
▁قاجار	-9.97085
▁لیگا	-9.97085
▁متخصص	-9.97085
▁متعدد	-9.97085
▁محافظه	-9.97085
▁محسن	-9.97085
▁مرزها	-9.97085
▁مشورت	-9.97085
▁مشکلی	-9.97085
▁مصوب	-9.97085
▁ملبورن	-9.97085
▁منچستریونایتد	-9.97085
▁موسوی	-9.97085
▁میانی	-9.97085
▁میدانی	-9.97085
▁نت	-9.97085
▁نوبخت	-9.97085
▁نیوزیلند	-9.97085
▁هالیوود	-9.97085
▁همیلتون	-9.97085
▁هیوندای	-9.97085
▁وب	-9.97085
▁ودیعه	-9.97085
▁ولیعهد	-9.97085
▁ویلموتس	-9.97085
▁پاک	-9.97085
▁پرافتخارترین	-9.97085
▁پوریا	-9.97085
▁کاردن	-9.97085
▁کارزار	-9.97085
▁کارلوس	-9.97085
▁کارهایی	-9.97085
▁کاسته	-9.97085
▁گردشگران	-9.97085
▁گوشه	-9.97085
▁یمانی	-9.97085
▁یوفا	-9.97085
▁۱۲۰	-9.97085
▁۲۰۰۸	-9.97085
▁۳۹	-9.97085
▁۵۵	-9.97085
▁۹۵	-9.97085
▁آبادی	-10.0134
▁آنقدر	-10.0134
▁ارایه	-10.0134
▁اردلان	-10.0134
▁اسامی	-10.0134
▁اسپرت	-10.0134
▁اشک	-10.0134
▁افکن	-10.0134
▁امن	-10.0134
▁انفرادی	-10.0134
▁اکسیژن	-10.0134
▁اینتر	-10.0134
▁باستانی	-10.0134
▁بران	-10.0134
▁بشری	-10.0134
▁بومی	-10.0134
▁بویژه	-10.0134
▁تاپ	-10.0134
▁تحقیقی	-10.0134
▁تغییری	-10.0134
▁تورمی	-10.0134
▁ثروت	-10.0134
▁خاطرات	-10.0134
▁خریداری	-10.0134
▁دائم	-10.0134
▁دادمنبع	-10.0134
▁دارم	-10.0134
▁دانند.	-10.0134
▁درخت	-10.0134
▁دسترس	-10.0134
▁رسمیت	-10.0134
▁رسید؛	-10.0134
▁رها	-10.0134
▁روسای	-10.0134
▁زوال	-10.0134
▁زود	-10.0134
▁شانه	-10.0134
▁شاهزاده	-10.0134
▁شفاف	-10.0134
▁شکاف	-10.0134
▁صادرکنندگان	-10.0134
▁عبدالناصر	-10.0134
▁عبدی	-10.0134
▁عزاداری	-10.0134
▁عفونت	-10.0134
▁غلبه	-10.0134
▁فرم	-10.0134
▁قربانی	-10.0134
▁لایه	-10.0134
▁مبادله	-10.0134
▁متناسب	-10.0134
▁مجهز	-10.0134
▁محقق	-10.0134
▁مدارک	-10.0134
▁مشکلاتی	-10.0134
▁موسسات	-10.0134
▁موضوعات	-10.0134
▁میلیاردها	-10.0134
▁نداشتند	-10.0134
▁نقص	-10.0134
▁نگار	-10.0134
▁هاوس	-10.0134
▁هستیم.	-10.0134
▁ویلیام	-10.0134
▁ژان	-10.0134
▁کارآزمایی	-10.0134
▁کرد.در	-10.0134
▁کنگ	-10.0134
▁کوچکی	-10.0134
▁گردن	-10.0134
▁گفت:	-10.0134
▁گوگل	-10.0134
▁۱۹۸۶	-10.0134
▁۲۰۲۰)	-10.0134
▁۵۲	-10.0134
▁۹۱	-10.0134
▁'	-10.0579
▁آرای	-10.0579
▁استخدام	-10.0579
▁استراحت	-10.0579
▁استناد	-10.0579
▁اشرف	-10.0579
▁الکس	-10.0579
▁انتگرال	-10.0579
▁انقراض	-10.0579
▁باختگان	-10.0579
▁بزرگداشت	-10.0579
▁بعنوان	-10.0579
▁بگیرند	-10.0579
▁تابلوی	-10.0579
▁تالاب	-10.0579
▁تایمز	-10.0579
▁تبلیغاتی	-10.0579
▁تخلف	-10.0579
▁تروریستی	-10.0579
▁تسلیحاتی	-10.0579
▁تسهیلات	-10.0579
▁تعامل	-10.0579
▁تعهد	-10.0579
▁تلفنی	-10.0579
▁تنهایی	-10.0579
▁جک	-10.0579
▁خانوارهای	-10.0579
▁ختم	-10.0579
▁خرد	-10.0579
▁خریداران	-10.0579
▁خواندن	-10.0579
▁خواهی	-10.0579
▁خودروها	-10.0579
▁خورد.	-10.0579
▁خوک	-10.0579
▁دبیرکل	-10.0579
▁راس	-10.0579
▁رسانده	-10.0579
▁روس	-10.0579
▁رویه	-10.0579
▁زلزله	-10.0579
▁زنگنه	-10.0579
▁زیان	-10.0579
▁زیرمجموعه	-10.0579
▁سرمربیگری	-10.0579
▁سلمان	-10.0579
▁سناتور	-10.0579
▁شاخه	-10.0579
▁شخص	-10.0579
▁شد.آقای	-10.0579
▁ششمین	-10.0579
▁شود.آقای	-10.0579
▁صادراتی	-10.0579
▁صعودی	-10.0579
▁ضرورت	-10.0579
▁طلایی	-10.0579
▁عادل	-10.0579
▁عذرخواهی	-10.0579
▁علیرغم	-10.0579
▁عملیاتی	-10.0579
▁غربالگری	-10.0579
▁غریب	-10.0579
▁فدرال	-10.0579
▁فر	-10.0579
▁فرآیند	-10.0579
▁فرا	-10.0579
▁فراری	-10.0579
▁فلوید	-10.0579
▁قاطع	-10.0579
▁قبادی	-10.0579
▁قریب	-10.0579
▁لاریجانی	-10.0579
▁مادران	-10.0579
▁مایک	-10.0579
▁متاسفانه	-10.0579
▁مترجم	-10.0579
▁محمدباقر	-10.0579
▁مداوم	-10.0579
▁مراسمی	-10.0579
▁مریم	-10.0579
▁مسافرت	-10.0579
▁مستقر	-10.0579
▁مشروط	-10.0579
▁معاونت	-10.0579
▁معتبرترین	-10.0579
▁ملحق	-10.0579
▁منتفی	-10.0579
▁نازی	-10.0579
▁نتانیاهو	-10.0579
▁نتوانست	-10.0579
▁نقد	-10.0579
▁نوجوانی	-10.0579
▁همراهی	-10.0579
▁وانت	-10.0579
▁واگذار	-10.0579
▁وقفه	-10.0579
▁ویدیوی	-10.0579
▁ویلیامز	-10.0579
▁پرهیز	-10.0579
▁پروتئین	-10.0579
▁پیاده	-10.0579
▁پیشنهادی	-10.0579
▁پیوند	-10.0579
▁کریکت	-10.0579
▁کشاورز	-10.0579
▁کلاب	-10.0579
▁کند.در	-10.0579
▁گذارد.	-10.0579
▁گروگان	-10.0579
▁گیرند.	-10.0579
▁یاری	-10.0579
▁یازدهم	-10.0579
▁۳۷	-10.0579
▁۷۲	-10.0579
▁.این	-10.1044
▁آفتاب	-10.1044
▁آمریکا،	-10.1044
▁استاین	-10.1044
▁استعفای	-10.1044
▁اعزام	-10.1044
▁الکترونیکی	-10.1044
▁ایم.	-10.1044
▁باتری	-10.1044
▁بدل	-10.1044
▁برابری	-10.1044
▁برزیلی	-10.1044
▁برسد.	-10.1044
▁برقی	-10.1044
▁برکناری	-10.1044
▁بشار	-10.1044
▁بشدت	-10.1044
▁بلیت	-10.1044
▁تحلیلگران	-10.1044
▁تخلفات	-10.1044
▁ترسیم	-10.1044
▁ترویج	-10.1044
▁تلفیق	-10.1044
▁تمایل	-10.1044
▁تمرکز	-10.1044
▁تور	-10.1044
▁جلسات	-10.1044
▁جنسیت	-10.1044
▁حامیان	-10.1044
▁خریده	-10.1044
▁خودروی	-10.1044
▁داشتم	-10.1044
▁دستکم	-10.1044
▁دستیابی	-10.1044
▁دشواری	-10.1044
▁ذکر	-10.1044
▁رمزارز	-10.1044
▁ریاض	-10.1044
▁زاهدان	-10.1044
▁سالمندان	-10.1044
▁سایپا	-10.1044
▁سحر	-10.1044
▁سراغ	-10.1044
▁سلطان	-10.1044
▁سلطنتی	-10.1044
▁سیاره	-10.1044
▁شاغلان	-10.1044
▁شفافیت	-10.1044
▁شمارش	-10.1044
▁شوماخر	-10.1044
▁شیخ	-10.1044
▁شیراز	-10.1044
▁صحن	-10.1044
▁صرفا	-10.1044
▁ظهر	-10.1044
▁غافلگیر	-10.1044
▁فرزندان	-10.1044
▁فلسفه	-10.1044
▁فوتبالی	-10.1044
▁فیلیپ	-10.1044
▁قراردادش	-10.1044
▁قصه	-10.1044
▁قضیه	-10.1044
▁متشکل	-10.1044
▁متمرکز	-10.1044
▁محدودیتهای	-10.1044
▁محمدعلی	-10.1044
▁محوطه	-10.1044
▁مطالعات	-10.1044
▁معترض	-10.1044
▁مقاومت	-10.1044
▁مقرر	-10.1044
▁منوچهر	-10.1044
▁موانع	-10.1044
▁موش	-10.1044
▁ناجی	-10.1044
▁نادرست	-10.1044
▁نامی	-10.1044
▁ناگهان	-10.1044
▁نشت	-10.1044
▁نشینی	-10.1044
▁نماز	-10.1044
▁نمکی	-10.1044
▁نیک	-10.1044
▁هرچه	-10.1044
▁همسایه	-10.1044
▁همگی	-10.1044
▁وسط	-10.1044
▁ولز	-10.1044
▁ون	-10.1044
▁ویدیویی	-10.1044
▁پیکر	-10.1044
▁ژنتیک	-10.1044
▁کف	-10.1044
▁کفش	-10.1044
▁کمال	-10.1044
▁کمرنگ	-10.1044
▁کن	-10.1044
▁گذشته،	-10.1044
▁گرایانه	-10.1044
▁یادآوری	-10.1044
▁۱۰۰۰	-10.1044
▁۶۵	-10.1044
▁۸۰۰	-10.1044
▁...	-10.1532
▁آمریکا؛	-10.1532
▁آگاهی	-10.1532
▁آیین	-10.1532
▁اتمام	-10.1532
▁اختلاس	-10.1532
▁استرالیایی	-10.1532
▁اشتراک	-10.1532
▁اصطلاح	-10.1532
▁اعداد	-10.1532
▁اعدامیان	-10.1532
▁انتقادها	-10.1532
▁اپلیکیشن	-10.1532
▁اید	-10.1532
▁اینستاگرامی	-10.1532
▁باشید	-10.1532
▁بخار	-10.1532
▁برعهده	-10.1532
▁بستن	-10.1532
▁بعدازظهر	-10.1532
▁بنیانگذار	-10.1532
▁بهرام	-10.1532
▁تأثیر	-10.1532
▁تحقق	-10.1532
▁تدریج	-10.1532
▁تقویم	-10.1532
▁توفیق	-10.1532
▁تکلیف	-10.1532
▁تکه	-10.1532
▁تیرماه	-10.1532
▁ثامن	-10.1532
▁جانسون	-10.1532
▁جانشان	-10.1532
▁جهانپور	-10.1532
▁جهانگیری	-10.1532
▁جین	-10.1532
▁حدی	-10.1532
▁حلقه	-10.1532
▁خبرهای	-10.1532
▁خدمت	-10.1532
▁خلاقیت	-10.1532
▁داروها	-10.1532
▁داروهای	-10.1532
▁داریم.	-10.1532
▁دانشگاهی	-10.1532
▁درگذشتمنبع	-10.1532
▁دستی	-10.1532
▁دقت	-10.1532
▁دنیامنبع	-10.1532
▁دونده	-10.1532
▁رادیویی	-10.1532
▁راز	-10.1532
▁رانی	-10.1532
▁رمزارزها	-10.1532
▁روحانی،	-10.1532
▁رودخانه	-10.1532
▁روستای	-10.1532
▁زدند	-10.1532
▁زنجیره	-10.1532
▁ساعاتی	-10.1532
▁سالها	-10.1532
▁ساویز	-10.1532
▁ستارگان	-10.1532
▁سربازان	-10.1532
▁سیف	-10.1532
▁شد.او	-10.1532
▁شده؛	-10.1532
▁شریک	-10.1532
▁شهردار	-10.1532
▁شک	-10.1532
▁شکلی	-10.1532
▁عروسک	-10.1532
▁عروسی	-10.1532
▁غیاب	-10.1532
▁فراوان	-10.1532
▁فلزی	-10.1532
▁قدمت	-10.1532
▁لایپزیگ	-10.1532
▁لقب	-10.1532
▁مازندران	-10.1532
▁مانکن	-10.1532
▁مایکروسافت	-10.1532
▁متاثر	-10.1532
▁مدیترانه	-10.1532
▁مراجع	-10.1532
▁مرخصی	-10.1532
▁مسافرتی	-10.1532
▁مشتری	-10.1532
▁مهارت	-10.1532
▁مهلت	-10.1532
▁موکول	-10.1532
▁میوه	-10.1532
▁نامزدها	-10.1532
▁نسبتا	-10.1532
▁نسبی	-10.1532
▁نشانی	-10.1532
▁نشد.	-10.1532
▁نشود.	-10.1532
▁نوید	-10.1532
▁نژادی	-10.1532
▁نگاری	-10.1532
▁وحید	-10.1532
▁وداع	-10.1532
▁وظیفه	-10.1532
▁وقایع	-10.1532
▁پارالمپیک	-10.1532
▁پاسخی	-10.1532
▁پلاک	-10.1532
▁پلنگ	-10.1532
▁پژوهشی	-10.1532
▁پیامی	-10.1532
▁پیشتاز	-10.1532
▁پیوستن	-10.1532
▁چندانی	-10.1532
▁کامیون	-10.1532
▁کرد.آقای	-10.1532
▁کش	-10.1532
▁کشیدن	-10.1532
▁کنند،	-10.1532
▁گرایی	-10.1532
▁گربه	-10.1532
▁گیاهی	-10.1532
▁۱۹۹۰	-10.1532
▁۲۰۰۳	-10.1532
▁۴۲۰۰	-10.1532
▁۶۷	-10.1532
▁آرامگاه	-10.2045
▁آسیای	-10.2045
▁آموزان	-10.2045
▁آندره	-10.2045
▁آنفلوآنزا	-10.2045
▁آهنگساز	-10.2045
▁آگهی	-10.2045
▁احتساب	-10.2045
▁احساسات	-10.2045
▁ارتفاع	-10.2045
▁اردوغان	-10.2045
▁است؟منبع	-10.2045
▁استدر	-10.2045
▁اسپوتنیک	-10.2045
▁اصناف	-10.2045
▁اعتقاد	-10.2045
▁اعضا	-10.2045
▁افتد	-10.2045
▁انتخابی	-10.2045
▁انداخت	-10.2045
▁اوکراینی	-10.2045
▁اکسید	-10.2045
▁ایفا	-10.2045
▁ایلان	-10.2045
▁بامداد	-10.2045
▁بختیاری	-10.2045
▁برتری	-10.2045
▁بندرعباس	-10.2045
▁بویایی	-10.2045
▁بگویم	-10.2045
▁تالار	-10.2045
▁تدابیر	-10.2045
▁تسلیم	-10.2045
▁تعقیب	-10.2045
▁تفحص	-10.2045
▁تلگرام	-10.2045
▁تهران،	-10.2045
▁جداول	-10.2045
▁حافظه	-10.2045
▁حامی	-10.2045
▁حاکم	-10.2045
▁حداد	-10.2045
▁حمید	-10.2045
▁حیوان	-10.2045
▁خاتمه	-10.2045
▁خالص	-10.2045
▁خرده	-10.2045
▁خستگی	-10.2045
▁خشکسالی	-10.2045
▁دارد.این	-10.2045
▁دامنه	-10.2045
▁دانستند	-10.2045
▁داوطلب	-10.2045
▁دراز	-10.2045
▁درگذشته	-10.2045
▁دشت	-10.2045
▁دموکرات	-10.2045
▁رابرت	-10.2045
▁رتکلیف	-10.2045
▁رحم	-10.2045
▁رهنورد	-10.2045
▁رکورددار	-10.2045
▁زانو	-10.2045
▁زد.	-10.2045
▁ساختن	-10.2045
▁ستایش	-10.2045
▁سرباز	-10.2045
▁سکونت	-10.2045
▁شمسی	-10.2045
▁شود؟منبع	-10.2045
▁شوک	-10.2045
▁شکار	-10.2045
▁صاحبان	-10.2045
▁صبر	-10.2045
▁طنز	-10.2045
▁ظهور	-10.2045
▁عاملان	-10.2045
▁عزیزی	-10.2045
▁علاقمندان	-10.2045
▁عموم	-10.2045
▁فرصتی	-10.2045
▁فن؛	-10.2045
▁قد	-10.2045
▁قوس	-10.2045
▁لالیگا	-10.2045
▁لحظات	-10.2045
▁لهستان	-10.2045
▁لیسبون	-10.2045
▁محافظ	-10.2045
▁مخدر	-10.2045
▁مخصوص	-10.2045
▁مرجع	-10.2045
▁مردمی	-10.2045
▁مرغداران	-10.2045
▁مسایل	-10.2045
▁مستمری	-10.2045
▁مسکونی	-10.2045
▁ملقب	-10.2045
▁مهرماه	-10.2045
▁مگاوات	-10.2045
▁ناراحت	-10.2045
▁ناکامی	-10.2045
▁نزد	-10.2045
▁نه.	-10.2045
▁نهاده	-10.2045
▁نوشتن	-10.2045
▁نکرد	-10.2045
▁هوشنگ	-10.2045
▁واکنشی	-10.2045
▁کابینه	-10.2045
▁کرد.منبع	-10.2045
▁کرده.	-10.2045
▁کشور،	-10.2045
▁کلید	-10.2045
▁کندی	-10.2045
▁کنید.	-10.2045
▁گازهای	-10.2045
▁گردد.	-10.2045
▁یکسال	-10.2045
▁یکصد	-10.2045
▁۲۰۰۹	-10.2045
▁۴۶	-10.2045
▁۵۶	-10.2045
▁۹۰۰	-10.2045
▁.او	-10.2585
▁آبادان	-10.2585
▁آیرس	-10.2585
▁ابعاد	-10.2585
▁اتحاد	-10.2585
▁احسان	-10.2585
▁احیا	-10.2585
▁ارزها	-10.2585
▁استرازنکا	-10.2585
▁افزاری	-10.2585
▁امتحان	-10.2585
▁انگار	-10.2585
▁انیس	-10.2585
▁اورژانس	-10.2585
▁ایرج	-10.2585
▁ایرلند	-10.2585
▁باستان	-10.2585
▁باشیم	-10.2585
▁بدانیم	-10.2585
▁بدر	-10.2585
▁برلین	-10.2585
▁بزند	-10.2585
▁بعید	-10.2585
▁بلاروس	-10.2585
▁بهروز	-10.2585
▁بوک	-10.2585
▁بگذارد	-10.2585
▁بیاید	-10.2585
▁تثبیت	-10.2585
▁تجلیل	-10.2585
▁تدریجی	-10.2585
▁تراشه	-10.2585
▁تغییراتی	-10.2585
▁تلقی	-10.2585
▁جبهه	-10.2585
▁جستجوی	-10.2585
▁حداکثری	-10.2585
▁حریفان	-10.2585
▁حکمتی	-10.2585
▁خاموش	-10.2585
▁خلوص	-10.2585
▁خواهید	-10.2585
▁خوشنام	-10.2585
▁دارد،	-10.2585
▁داغ	-10.2585
▁دایک	-10.2585
▁درآمدی	-10.2585
▁دورتموند	-10.2585
▁دوستان	-10.2585
▁دیدگاه	-10.2585
▁رئیسه	-10.2585
▁راموس	-10.2585
▁ربط	-10.2585
▁رستوران	-10.2585
▁رضایت	-10.2585
▁روبه	-10.2585
▁سرتیپ	-10.2585
▁سرنگون	-10.2585
▁سکته	-10.2585
▁سگ	-10.2585
▁شارژ	-10.2585
▁شد؟منبع	-10.2585
▁شریف	-10.2585
▁شناخت	-10.2585
▁شی	-10.2585
▁صالحی	-10.2585
▁ضعف	-10.2585
▁غرق	-10.2585
▁فرین	-10.2585
▁قدرتمند	-10.2585
▁لاشه	-10.2585
▁لنون	-10.2585
▁لواندوفسکی	-10.2585
▁ماشینی	-10.2585
▁مبدا	-10.2585
▁مبهم	-10.2585
▁مجانی	-10.2585
▁محجوبی	-10.2585
▁محدوده	-10.2585
▁محله	-10.2585
▁مرگبار	-10.2585
▁مرگش	-10.2585
▁مس	-10.2585
▁مشهورترین	-10.2585
▁مصطفی	-10.2585
▁مصونیت	-10.2585
▁مفاد	-10.2585
▁مفید	-10.2585
▁منتخب	-10.2585
▁منحصر	-10.2585
▁موجی	-10.2585
▁موسس	-10.2585
▁نجف	-10.2585
▁نداشتن	-10.2585
▁نشریات	-10.2585
▁هدیه	-10.2585
▁هرگونه	-10.2585
▁هشتمین	-10.2585
▁هفتمین	-10.2585
▁هماهنگ	-10.2585
▁همرسانی	-10.2585
▁همکاران	-10.2585
▁واحدهای	-10.2585
▁وحشی	-10.2585
▁وطن	-10.2585
▁ویران	-10.2585
▁ویروسی	-10.2585
▁پالایشگاهی	-10.2585
▁پستی	-10.2585
▁پنجره	-10.2585
▁چراغ	-10.2585
▁کاربری	-10.2585
▁کارشان	-10.2585
▁کرمان	-10.2585
▁کشد	-10.2585
▁کشمکش	-10.2585
▁کشی	-10.2585
▁کمتری	-10.2585
▁کنند؛	-10.2585
▁کهن	-10.2585
▁کووید۱۹	-10.2585
▁کوچکتر	-10.2585
▁کیانوش	-10.2585
▁گازی	-10.2585
▁گزارشگران	-10.2585
▁گلزن	-10.2585
▁گیاهان	-10.2585
▁یادداشت	-10.2585
▁۱۳۹۶	-10.2585
▁۲۰۱۳	-10.2585
▁۳۵۰	-10.2585
▁۷۷	-10.2585
▁،	-10.3157
▁آسمایی	-10.3157
▁آلن	-10.3157
▁ابتکار	-10.3157
▁اخلال	-10.3157
▁اردوگاه	-10.3157
▁اریک	-10.3157
▁است.دولت	-10.3157
▁اشغال	-10.3157
▁اصرار	-10.3157
▁اعتیاد	-10.3157
▁افتتاح	-10.3157
▁افشار	-10.3157
▁افکار	-10.3157
▁اقداماتی	-10.3157
▁الانبیا	-10.3157
▁انتظارات	-10.3157
▁اوباما	-10.3157
▁ایفای	-10.3157
▁باب	-10.3157
▁باراک	-10.3157
▁بارسا	-10.3157
▁بخاطر	-10.3157
▁بدهد	-10.3157
▁برادرش	-10.3157
▁برانگیخته	-10.3157
▁برود.	-10.3157
▁بعدها	-10.3157
▁بقایای	-10.3157
▁بلومبرگ	-10.3157
▁بنگلادش	-10.3157
▁بها	-10.3157
▁بهایی	-10.3157
▁بود.آقای	-10.3157
▁بود.او	-10.3157
▁بوش	-10.3157
▁بکشد	-10.3157
▁بگوییم	-10.3157
▁بگیریم	-10.3157
▁تخصصی	-10.3157
▁تخیلی	-10.3157
▁تسنیم	-10.3157
▁تصمیمات	-10.3157
▁تضمین	-10.3157
▁تعجب	-10.3157
▁تفاهم	-10.3157
▁تقابل	-10.3157
▁تلاشی	-10.3157
▁تلف	-10.3157
▁تنفس	-10.3157
▁تنگه	-10.3157
▁توخل	-10.3157
▁تیلور	-10.3157
▁ثروتمندترین	-10.3157
▁جالب	-10.3157
▁جداگانه	-10.3157
▁جزییات	-10.3157
▁جسمی	-10.3157
▁جلوپنجره	-10.3157
▁جمال	-10.3157
▁جیب	-10.3157
▁حاجی	-10.3157
▁خارا	-10.3157
▁خرابکاری	-10.3157
▁خریدهای	-10.3157
▁خودتان	-10.3157
▁خودران	-10.3157
▁خوراکی	-10.3157
▁دادسرای	-10.3157
▁دارویی	-10.3157
▁دانشکده	-10.3157
▁دانم	-10.3157
▁دردسر	-10.3157
▁درس	-10.3157
▁دروغ	-10.3157
▁دلیلی	-10.3157
▁دهقان	-10.3157
▁دهمین	-10.3157
▁دیپلمات	-10.3157
▁راحتی	-10.3157
▁رایحه	-10.3157
▁رنج	-10.3157
▁زاده،	-10.3157
▁زخم	-10.3157
▁سادات	-10.3157
▁ساسی	-10.3157
▁ساکی	-10.3157
▁سبز	-10.3157
▁سرگیری	-10.3157
▁سفینه	-10.3157
▁سویه	-10.3157
▁سکوت	-10.3157
▁سیزده	-10.3157
▁سیل	-10.3157
▁سیمای	-10.3157
▁شاپور	-10.3157
▁شاگردان	-10.3157
▁شایع	-10.3157
▁شد.به	-10.3157
▁شدندمنبع	-10.3157
▁شلوغ	-10.3157
▁شور	-10.3157
▁صحت	-10.3157
▁صحیح	-10.3157
▁صداوسیما	-10.3157
▁طرفدار	-10.3157
▁طوفان	-10.3157
▁عرض	-10.3157
▁غار	-10.3157
▁فرو	-10.3157
▁قرص	-10.3157
▁قطار	-10.3157
▁لپ	-10.3157
▁مالاریا	-10.3157
▁مامور	-10.3157
▁محاسبات	-10.3157
▁محدودیتها	-10.3157
▁مداخله	-10.3157
▁مراتب	-10.3157
▁مرتب	-10.3157
▁مستندی	-10.3157
▁مصادره	-10.3157
▁معیشتی	-10.3157
▁مفهوم	-10.3157
▁مقصر	-10.3157
▁منار	-10.3157
▁منشا	-10.3157
▁منصوب	-10.3157
▁منچسترسیتی	-10.3157
▁مکتب	-10.3157
▁میز	-10.3157
▁میلیونی	-10.3157
▁مین	-10.3157
▁ناامنی	-10.3157
▁نامدار	-10.3157
▁نرخی	-10.3157
▁نشسته	-10.3157
▁نظارتی	-10.3157
▁نوسانات	-10.3157
▁نی	-10.3157
▁ها.	-10.3157
▁هشتگ	-10.3157
▁همایش	-10.3157
▁همکارانش	-10.3157
▁همینطور	-10.3157
▁هوادار	-10.3157
▁وجه	-10.3157
▁ورودی	-10.3157
▁وزارتخانه	-10.3157
▁وزرای	-10.3157
▁وصل	-10.3157
▁پراکنده	-10.3157
▁پرتره	-10.3157
▁پرطرفدار	-10.3157
▁پوش	-10.3157
▁پوشانده	-10.3157
▁پیشرفته	-10.3157
▁چشمگیری	-10.3157
▁کارداشیان	-10.3157
▁کرده،	-10.3157
▁کرده؛	-10.3157
▁کلود	-10.3157
▁کلینیک	-10.3157
▁کمترین	-10.3157
▁کند.آقای	-10.3157
▁کند؟منبع	-10.3157
▁کیهان	-10.3157
▁گرا	-10.3157
▁گرفتار	-10.3157
▁گروگانگیری	-10.3157
▁گفتگوها	-10.3157
▁گلی	-10.3157
▁یادآور	-10.3157
▁یادداشتی	-10.3157
▁یحیی	-10.3157
▁۲۰۰۵	-10.3157
▁۳۶	-10.3157
▁۶۴	-10.3157
▁۷۳	-10.3157
▁؛	-10.3763
▁آر	-10.3763
▁آزمایشگاه	-10.3763
▁اخطار	-10.3763
▁ادای	-10.3763
▁اساسنامه	-10.3763
▁است.بیشتر	-10.3763
▁است.مقام	-10.3763
▁استخر	-10.3763
▁استراتژیک	-10.3763
▁استون	-10.3763
▁اسماعیل	-10.3763
▁اضطراب	-10.3763
▁انبار	-10.3763
▁انبوه	-10.3763
▁اندک	-10.3763
▁انصراف	-10.3763
▁انفجاری	-10.3763
▁ایاصوفیه	-10.3763
▁ایالتی	-10.3763
▁بازارها	-10.3763
▁بازمی	-10.3763
▁بافت	-10.3763
▁بدخشان	-10.3763
▁بدهند	-10.3763
▁برایتون	-10.3763
▁برف	-10.3763
▁برهنه	-10.3763
▁بریتانیا،	-10.3763
▁بلوچ	-10.3763
▁بنیادی	-10.3763
▁بودند،	-10.3763
▁تأیید	-10.3763
▁تاریک	-10.3763
▁تاک	-10.3763
▁تایلند	-10.3763
▁تتلو	-10.3763
▁تجویز	-10.3763
▁ترسناک	-10.3763
▁تعبیر	-10.3763
▁تل	-10.3763
▁توشیبا	-10.3763
▁توضیحات	-10.3763
▁تکنولوژی	-10.3763
▁جدیدترین	-10.3763
▁جنایت	-10.3763
▁جنس	-10.3763
▁حرم	-10.3763
▁حیدری	-10.3763
▁حین	-10.3763
▁خاکسپاری	-10.3763
▁خبرگان	-10.3763
▁خرسندی	-10.3763
▁خسارات	-10.3763
▁خیانت	-10.3763
▁دارا	-10.3763
▁داوطلبانه	-10.3763
▁دماوند	-10.3763
▁دهندگان	-10.3763
▁دوازده	-10.3763
▁دوحه	-10.3763
▁دوری	-10.3763
▁دوش	-10.3763
▁رایج	-10.3763
▁ربات	-10.3763
▁رشوه	-10.3763
▁روجا	-10.3763
▁رکاب	-10.3763
▁رینگ	-10.3763
▁زاهدی	-10.3763
▁زاویه	-10.3763
▁زباله	-10.3763
▁زیستگاه	-10.3763
▁سئول	-10.3763
▁سارا	-10.3763
▁سرخیو	-10.3763
▁سردبیر	-10.3763
▁سرفه	-10.3763
▁سطحی	-10.3763
▁سلف	-10.3763
▁سیامک	-10.3763
▁سینه	-10.3763
▁شدیدتر	-10.3763
▁شدیدترین	-10.3763
▁شدیدی	-10.3763
▁شناسان	-10.3763
▁شهروندی	-10.3763
▁صرفه	-10.3763
▁ضعیف	-10.3763
▁طرز	-10.3763
▁ظاهری	-10.3763
▁عقل	-10.3763
▁غم	-10.3763
▁فروپاشی	-10.3763
▁فضانورد	-10.3763
▁فعالیتهای	-10.3763
▁فقیر	-10.3763
▁فیلمبرداری	-10.3763
▁لزوم	-10.3763
▁مارتین	-10.3763
▁مبادلات	-10.3763
▁متخصصان	-10.3763
▁متعهد	-10.3763
▁مجددا	-10.3763
▁محرم	-10.3763
▁مربوطه	-10.3763
▁مرتضی	-10.3763
▁مرس	-10.3763
▁مسکو	-10.3763
▁مسیحی	-10.3763
▁مغازه	-10.3763
▁مقدس	-10.3763
▁مهاجران	-10.3763
▁مکرر	-10.3763
▁ناآرامی	-10.3763
▁ناتمام	-10.3763
▁ناشناخته	-10.3763
▁نروژ	-10.3763
▁نشیب	-10.3763
▁نشین	-10.3763
▁نمادهای	-10.3763
▁نمای	-10.3763
▁نهمین	-10.3763
▁نیازی	-10.3763
▁نیست؛	-10.3763
▁هواپیماهای	-10.3763
▁واحدی	-10.3763
▁وسیعی	-10.3763
▁ولسوالی	-10.3763
▁ویلا	-10.3763
▁پالایشی	-10.3763
▁پایش	-10.3763
▁پروازها	-10.3763
▁پسرش	-10.3763
▁پناهندگی	-10.3763
▁پوگبا	-10.3763
▁پیش،	-10.3763
▁پیولی	-10.3763
▁کارشناسی	-10.3763
▁کریستوفر	-10.3763
▁کشتار	-10.3763
▁کلام	-10.3763
▁کلیک	-10.3763
▁کنند.در	-10.3763
▁کنند.منبع	-10.3763
▁کنندمنبع	-10.3763
▁گانه	-10.3763
▁گذاشت.	-10.3763
▁گذر	-10.3763
▁گراندپری	-10.3763
▁گرمای	-10.3763
▁گزارشها	-10.3763
▁گلخانه	-10.3763
▁گلزنی	-10.3763
▁گلف	-10.3763
▁گم	-10.3763
▁گوناگون	-10.3763
▁یابد.	-10.3763
▁یر	-10.3763
▁۱۳۹۵	-10.3763
▁۱۵۰۰	-10.3763
▁۲۰۳۰	-10.3763
▁۵۹	-10.3763
▁آتالانتا	-10.4409
▁آشوری	-10.4409
▁آغوش	-10.4409
▁آفریقایی	-10.4409
▁آماری	-10.4409
▁ئی	-10.4409
▁ارزشمند	-10.4409
▁ارکستر	-10.4409
▁است.بنا	-10.4409
▁است.خانم	-10.4409
▁است.یکی	-10.4409
▁استعداد	-10.4409
▁اسحاق	-10.4409
▁اسد	-10.4409
▁اصول	-10.4409
▁اظهارنظر	-10.4409
▁اعتبارنامه	-10.4409
▁اعتراف	-10.4409
▁افشای	-10.4409
▁افکاری	-10.4409
▁ام.	-10.4409
▁امانوئل	-10.4409
▁امیرشاهی	-10.4409
▁انتقادی	-10.4409
▁اوین	-10.4409
▁ایرانی،	-10.4409
▁ایرباس	-10.4409
▁ایمان	-10.4409
▁بازخوانی	-10.4409
▁بازهم	-10.4409
▁باورنکردنی	-10.4409
▁بجای	-10.4409
▁برایم	-10.4409
▁برنز	-10.4409
▁بست	-10.4409
▁بستر	-10.4409
▁بلوکه	-10.4409
▁بودا	-10.4409
▁بولت	-10.4409
▁بوکسور	-10.4409
▁تابلو	-10.4409
▁تاسف	-10.4409
▁تحریمهای	-10.4409
▁تحصیلات	-10.4409
▁تسلیت	-10.4409
▁تعادل	-10.4409
▁تنوع	-10.4409
▁تولیدات	-10.4409
▁جاستین	-10.4409
▁جاشوا	-10.4409
▁جانی	-10.4409
▁جزئیاتی	-10.4409
▁جنسیس	-10.4409
▁جهان،	-10.4409
▁خانوادگی	-10.4409
▁خانوار	-10.4409
▁خزر	-10.4409
▁دارید	-10.4409
▁داریوش	-10.4409
▁دانشجویی	-10.4409
▁درخشش	-10.4409
▁دریابندری	-10.4409
▁دشمن	-10.4409
▁دشمنان	-10.4409
▁دلایلی	-10.4409
▁دما	-10.4409
▁دهان	-10.4409
▁دژپسند	-10.4409
▁دیدارهای	-10.4409
▁رفتارهای	-10.4409
▁رفتند	-10.4409
▁رم	-10.4409
▁روستایی	-10.4409
▁رولینگ	-10.4409
▁رویای	-10.4409
▁رکوردی	-10.4409
▁ری	-10.4409
▁ریزش	-10.4409
▁زریاب	-10.4409
▁زغال	-10.4409
▁زمستانی	-10.4409
▁زودهنگام	-10.4409
▁سئوال	-10.4409
▁سطوح	-10.4409
▁سنی	-10.4409
▁شهید	-10.4409
▁شواهدی	-10.4409
▁شود.به	-10.4409
▁شوند،	-10.4409
▁شوید	-10.4409
▁صخره	-10.4409
▁صدمه	-10.4409
▁صنفی	-10.4409
▁ضدحمله	-10.4409
▁عضلات	-10.4409
▁عقرب	-10.4409
▁علامت	-10.4409
▁فاقد	-10.4409
▁فراوانی	-10.4409
▁فرماندهان	-10.4409
▁فوتی	-10.4409
▁فیس	-10.4409
▁قطبی	-10.4409
▁قفل	-10.4409
▁قلم	-10.4409
▁قوا	-10.4409
▁لاله	-10.4409
▁مارچلو	-10.4409
▁ماهیگیری	-10.4409
▁مت	-10.4409
▁محبوبیت	-10.4409
▁محور	-10.4409
▁مدرک	-10.4409
▁مرا	-10.4409
▁مسلمان	-10.4409
▁مسیرهای	-10.4409
▁معماری	-10.4409
▁مقامهای	-10.4409
▁مناسبی	-10.4409
▁منصور	-10.4409
▁مهاجمان	-10.4409
▁مهندس	-10.4409
▁مواضع	-10.4409
▁موجودات	-10.4409
▁مکانیسم	-10.4409
▁مکتوب	-10.4409
▁ناچار	-10.4409
▁نحوی	-10.4409
▁نداشت.	-10.4409
▁نزولی	-10.4409
▁نصف	-10.4409
▁نظرات	-10.4409
▁نظرسنجی	-10.4409
▁نظم	-10.4409
▁نمایی	-10.4409
▁نوار	-10.4409
▁نکند	-10.4409
▁نیما	-10.4409
▁همانطور	-10.4409
▁همانند	-10.4409
▁والش	-10.4409
▁پائین	-10.4409
▁پادشاهی	-10.4409
▁پایدار	-10.4409
▁پردازد	-10.4409
▁پشتیبانی	-10.4409
▁پناهجویان	-10.4409
▁پیشرو	-10.4409
▁چنانچه	-10.4409
▁کالج	-10.4409
▁کامپیوتری	-10.4409
▁کردم.	-10.4409
▁کسر	-10.4409
▁کمبریج	-10.4409
▁کووید-۱۹	-10.4409
▁کیوان	-10.4409
▁گرایش	-10.4409
▁گرگ	-10.4409
▁گفتگوی	-10.4409
▁گورهای	-10.4409
▁یادبود	-10.4409
▁یونگ	-10.4409
▁۱۷۶	-10.4409
▁۱۹۷۰	-10.4409
▁۴۱	-10.4409
▁۶۲	-10.4409
▁۷۴	-10.4409
▁(	-10.5098
▁.به	-10.5098
▁آزمایشگاهی	-10.5098
▁آغداشلو	-10.5098
▁آفلاتوکسین	-10.5098
▁آمدند	-10.5098
▁آموزگار	-10.5098
▁آنچلوتی	-10.5098
▁آویو	-10.5098
▁ابزار	-10.5098
▁اتهامی	-10.5098
▁اتومبیلرانی	-10.5098
▁اثبات	-10.5098
▁اجبار	-10.5098
▁احساسی	-10.5098
▁اروپا:	-10.5098
▁ارگ	-10.5098
▁است'منبع	-10.5098
▁استراتژی	-10.5098
▁استیون	-10.5098
▁اسفندماه	-10.5098
▁افتادن	-10.5098
▁الی	-10.5098
▁اما	-10.5098
▁املاک	-10.5098
▁اواسط	-10.5098
▁اپرا	-10.5098
▁اپل	-10.5098
▁اپیدمی	-10.5098
▁بازیهای	-10.5098
▁باشیم.	-10.5098
▁ببرد	-10.5098
▁ببینند	-10.5098
▁بتوانیم	-10.5098
▁بدنی	-10.5098
▁بدین	-10.5098
▁برداشتن	-10.5098
▁بردند.	-10.5098
▁برند	-10.5098
▁بزرگتر	-10.5098
▁بلندمدت	-10.5098
▁بهاییان	-10.5098
▁بوئنوس	-10.5098
▁بود.اما	-10.5098
▁بود.به	-10.5098
▁بگیرند.	-10.5098
▁بیل	-10.5098
▁بیننده	-10.5098
▁بیژن	-10.5098
▁بیکار	-10.5098
▁تاریکی	-10.5098
▁تحریک	-10.5098
▁تحسین	-10.5098
▁تدریس	-10.5098
▁ترمیم	-10.5098
▁تریلیون	-10.5098
▁تشریح	-10.5098
▁تفریحی	-10.5098
▁تلافی	-10.5098
▁تلسکوپ	-10.5098
▁تند	-10.5098
▁تهدیدی	-10.5098
▁تولیدی	-10.5098
▁تیک	-10.5098
▁جزایر	-10.5098
▁جستجو	-10.5098
▁جنسیتی	-10.5098
▁جهانبخش	-10.5098
▁جوزف	-10.5098
▁حافظ	-10.5098
▁حومه	-10.5098
▁خران	-10.5098
▁خسته	-10.5098
▁خوانی	-10.5098
▁خوشحال	-10.5098
▁داده.	-10.5098
▁داردمنبع	-10.5098
▁داروسازی	-10.5098
▁داشت؛	-10.5098
▁داوری	-10.5098
▁درخشانی	-10.5098
▁دره	-10.5098
▁دهها	-10.5098
▁دهک	-10.5098
▁دود	-10.5098
▁دوستی	-10.5098
▁دومینیک	-10.5098
▁دینی	-10.5098
▁دیگر،	-10.5098
▁ذره	-10.5098
▁رساند.	-10.5098
▁رصد	-10.5098
▁رفاه	-10.5098
▁رنجرز	-10.5098
▁روحانی:	-10.5098
▁روزمره	-10.5098
▁روستا	-10.5098
▁رولز	-10.5098
▁زدند.	-10.5098
▁زیرساخت	-10.5098
▁ساحلی	-10.5098
▁سانتریفیوژهای	-10.5098
▁سانحه	-10.5098
▁سایبری	-10.5098
▁سختگیرانه	-10.5098
▁سریالی	-10.5098
▁سلامتی	-10.5098
▁سون	-10.5098
▁سیاستمداران	-10.5098
▁شد'منبع	-10.5098
▁شغلی	-10.5098
▁شنیدن	-10.5098
▁شیلی	-10.5098
▁شیمی	-10.5098
▁ضربات	-10.5098
▁عارف	-10.5098
▁غیرممکن	-10.5098
▁فخری	-10.5098
▁فراگیر	-10.5098
▁فرج	-10.5098
▁فرض	-10.5098
▁فریدون	-10.5098
▁فزاینده	-10.5098
▁فوریت	-10.5098
▁قسمتی	-10.5098
▁مارکز	-10.5098
▁ماریا	-10.5098
▁مایه	-10.5098
▁مبین	-10.5098
▁متقاضی	-10.5098
▁محترم	-10.5098
▁مخابرات	-10.5098
▁مختل	-10.5098
▁مدعیان	-10.5098
▁مرتکب	-10.5098
▁مردگان	-10.5098
▁مسافربری	-10.5098
▁مسلمانان	-10.5098
▁مشکات	-10.5098
▁مطبوعات	-10.5098
▁مطلوب	-10.5098
▁معیشت	-10.5098
▁مقطعی	-10.5098
▁مقیم	-10.5098
▁منطقی	-10.5098
▁منظر	-10.5098
▁مهمان	-10.5098
▁موازی	-10.5098
▁موجودی	-10.5098
▁مولوی	-10.5098
▁مکعب	-10.5098
▁مگر	-10.5098
▁میلیاردر	-10.5098
▁نابغه	-10.5098
▁ناکام	-10.5098
▁نزدیکان	-10.5098
▁نوئل	-10.5098
▁نویسندگی	-10.5098
▁نیازهای	-10.5098
▁نیسان	-10.5098
▁هرکدام	-10.5098
▁هستم	-10.5098
▁همتای	-10.5098
▁هواوی	-10.5098
▁هپاتیت	-10.5098
▁واسطه	-10.5098
▁واقعه	-10.5098
▁وحدت	-10.5098
▁وقف	-10.5098
▁پارس	-10.5098
▁پاکستانی	-10.5098
▁پدری	-10.5098
▁پررنگ	-10.5098
▁پرسی	-10.5098
▁پنجه	-10.5098
▁چربی	-10.5098
▁چهاردهم	-10.5098
▁ژن	-10.5098
▁ژوزه	-10.5098
▁کادرفنی	-10.5098
▁کارگاه	-10.5098
▁کارگردانان	-10.5098
▁کانسپت	-10.5098
▁کردستان	-10.5098
▁کرونامنبع	-10.5098
▁کریسمس	-10.5098
▁کلان	-10.5098
▁کمدین	-10.5098
▁کمربند	-10.5098
▁کمپین	-10.5098
▁کند.او	-10.5098
▁کنوانسیون	-10.5098
▁گر	-10.5098
▁گرسنگی	-10.5098
▁گرمایش	-10.5098
▁گره	-10.5098
▁گوایدو	-10.5098
▁گوگ	-10.5098
▁یورویی	-10.5098
▁یونسکو	-10.5098
▁۱۹۸۰	-10.5098
▁۱۹۹۸	-10.5098
▁۹۴	-10.5098
▁.آیت	-10.584
▁.در	-10.584
▁.منبع	-10.584
▁آذرماه	-10.584
▁آرامکو	-10.584
▁آرش	-10.584
▁آسوشیتدپرس	-10.584
▁آشام	-10.584
▁آشفته	-10.584
▁آمارها	-10.584
▁آندری	-10.584
▁آنطور	-10.584
▁آورند	-10.584
▁ابهام	-10.584
▁اثری	-10.584
▁اخباری	-10.584
▁ادب	-10.584
▁است.بانک	-10.584
▁است.محمد	-10.584
▁استودیو	-10.584
▁اسرار	-10.584
▁اسلامی،	-10.584
▁اعتنایی	-10.584
▁اعصاب	-10.584
▁اعماق	-10.584
▁افسر	-10.584
▁اقتصادهای	-10.584
▁الگوی	-10.584
▁الیزابت	-10.584
▁امضاکنندگان	-10.584
▁امی	-10.584
▁انتقادهای	-10.584
▁انصاریان	-10.584
▁انگشت	-10.584
▁اکثریت	-10.584
▁اکران	-10.584
▁بارداری	-10.584
▁بازگردانده	-10.584
▁بالغ	-10.584
▁ببینید	-10.584
▁بدانند	-10.584
▁بردند	-10.584
▁بروکسل	-10.584
▁برگشته	-10.584
▁بزرگان	-10.584
▁بهانه	-10.584
▁بوجود	-10.584
▁بودم.	-10.584
▁بودند؛	-10.584
▁بوده؛	-10.584
▁بیستمین	-10.584
▁بینیم	-10.584
▁تأکید	-10.584
▁تایگر	-10.584
▁تبادل	-10.584
▁ترانزیت	-10.584
▁ترکمنستان	-10.584
▁تغذیه	-10.584
▁تماشاچی	-10.584
▁توافقنامه	-10.584
▁توانید	-10.584
▁توده	-10.584
▁توفان	-10.584
▁تونی	-10.584
▁تکیه	-10.584
▁ثباتی	-10.584
▁جابجایی	-10.584
▁جانبه	-10.584
▁جعلی	-10.584
▁جلالی	-10.584
▁جمشید	-10.584
▁جنگی	-10.584
▁حاد	-10.584
▁حاکمیت	-10.584
▁حبیب	-10.584
▁حدس	-10.584
▁حساسیت	-10.584
▁خرس	-10.584
▁خواجه	-10.584
▁خواهر	-10.584
▁خودی	-10.584
▁خونین	-10.584
▁دائمی	-10.584
▁داد؛	-10.584
▁دادگستری	-10.584
▁داور	-10.584
▁دخترش	-10.584
▁درآمده	-10.584
▁درختان	-10.584
▁درز	-10.584
▁درستی	-10.584
▁درگذشت.او	-10.584
▁دستاورد	-10.584
▁دستکاری	-10.584
▁دعوای	-10.584
▁دقایق	-10.584
▁دقیقی	-10.584
▁دورتر	-10.584
▁دیداری	-10.584
▁ذهنی	-10.584
▁رانت	-10.584
▁راند	-10.584
▁راک	-10.584
▁رایزنی	-10.584
▁رسم	-10.584
▁رفتاری	-10.584
▁رقابتی	-10.584
▁روایتی	-10.584
▁روزگار	-10.584
▁روشی	-10.584
▁ریالی	-10.584
▁ریچارد	-10.584
▁زایی	-10.584
▁زبانی	-10.584
▁زحمت	-10.584
▁زیارت	-10.584
▁زیبا	-10.584
▁سالیوان	-10.584
▁سدان	-10.584
▁سرش	-10.584
▁سرگرمی	-10.584
▁سفره	-10.584
▁سفری	-10.584
▁سلطانی	-10.584
▁سوئز	-10.584
▁سیاوش	-10.584
▁سیزدهمین	-10.584
▁سیصد	-10.584
▁شادی	-10.584
▁شانزده	-10.584
▁شانزدهم	-10.584
▁شایعاتی	-10.584
▁شدم	-10.584
▁شرح	-10.584
▁شعبه	-10.584
▁شلاق	-10.584
▁شوداین	-10.584
▁صدد	-10.584
▁طرفی	-10.584
▁عشقی	-10.584
▁عصبی	-10.584
▁عمرانی	-10.584
▁عملکردی	-10.584
▁غرامت	-10.584
▁فسیل	-10.584
▁فضاهای	-10.584
▁فلج	-10.584
▁فوتبالیستی	-10.584
▁فیلتر	-10.584
▁فیلمساز	-10.584
▁قائدی	-10.584
▁قبال	-10.584
▁قشم	-10.584
▁قطعات	-10.584
▁لاتین	-10.584
▁لامبورگینی	-10.584
▁لوله	-10.584
▁لیست	-10.584
▁مأموران	-10.584
▁مان	-10.584
▁محض	-10.584
▁مدتها	-10.584
▁مرجانی	-10.584
▁مستقیما	-10.584
▁مشکوک	-10.584
▁مصلحت	-10.584
▁مصلی	-10.584
▁معافیت	-10.584
▁معدود	-10.584
▁معنایی	-10.584
▁معوقه	-10.584
▁مکزیک	-10.584
▁میلاد	-10.584
▁میلی	-10.584
▁میمندی	-10.584
▁میمون	-10.584
▁نابود	-10.584
▁نارسایی	-10.584
▁ناصر	-10.584
▁ناممکن	-10.584
▁ندارم	-10.584
▁ندیده	-10.584
▁نفرت	-10.584
▁نمادین	-10.584
▁نوازنده	-10.584
▁نویی	-10.584
▁نگاران	-10.584
▁نیمار	-10.584
▁نیوکاسل	-10.584
▁هستید	-10.584
▁هلی	-10.584
▁همدیگر	-10.584
▁هیأت	-10.584
▁واضح	-10.584
▁ویرجیل	-10.584
▁پانزدهم	-10.584
▁پاکبانان	-10.584
▁پراید	-10.584
▁پرستاران	-10.584
▁پلی	-10.584
▁پنسیلوانیا	-10.584
▁چاره	-10.584
▁ژنو	-10.584
▁کانادایی	-10.584
▁کتیبه	-10.584
▁کرد.به	-10.584
▁کردند.منبع	-10.584
▁کوبا	-10.584
▁کپی	-10.584
▁کیت	-10.584
▁کیلویی	-10.584
▁گذراندن	-10.584
▁گذرگاه	-10.584
▁گرد	-10.584
▁گرفتم	-10.584
▁گریز	-10.584
▁گلایه	-10.584
▁یورش	-10.584
▁یکسان	-10.584
▁۱۴۰	-10.584
▁۱۶۰	-10.584
▁۱۹۴۰	-10.584
▁۱۹۶۰	-10.584
▁۱۹۹۱	-10.584
▁۲۰۰۴	-10.584
▁۲۲۳۱	-10.584
▁۶۸	-10.584
▁۷۸	-10.584
▁۹۳	-10.584
▁(آمریکا)،	-10.664
▁(کانادا)،	-10.664
▁آرزوی	-10.664
▁آرشیو	-10.664
▁آقایان	-10.664
▁آمستردام	-10.664
▁آن،	-10.664
▁آنفیلد	-10.664
▁آنهایی	-10.664
▁آیند	-10.664
▁آینه	-10.664
▁ابلاغیه	-10.664
▁ابوالملوکی	-10.664
▁احزاب	-10.664
▁احمدشاه	-10.664
▁احکام	-10.664
▁اختیاری	-10.664
▁اخلاقی	-10.664
▁ارجاع	-10.664
▁است.بعضی	-10.664
▁است.خبرگزاری	-10.664
▁است.روز	-10.664
▁است.وزارت	-10.664
▁است.یک	-10.664
▁استقرار	-10.664
▁اسپیس	-10.664
▁اسکیت	-10.664
▁اطلاعی	-10.664
▁اعظم	-10.664
▁افزایشی	-10.664
▁الیاس	-10.664
▁امامی	-10.664
▁امیدوارم	-10.664
▁انتقالات	-10.664
▁اند.با	-10.664
▁اندام	-10.664
▁اندیشه	-10.664
▁انوشه	-10.664
▁اولدترافورد	-10.664
▁ایر	-10.664
▁ایکس	-10.664
▁باروری	-10.664
▁بازنشستگی	-10.664
▁بازنگری	-10.664
▁باشد؛	-10.664
▁باقیمانده	-10.664
▁ببر	-10.664
▁بختگان	-10.664
▁برترین	-10.664
▁برعکس	-10.664
▁برگزارکنندگان	-10.664
▁بزنند	-10.664
▁بزودی	-10.664
▁بسرعت	-10.664
▁بفتا	-10.664
▁بهاری	-10.664
▁بوئینگ	-10.664
▁بیفتد	-10.664
▁تئوری	-10.664
▁تابستانی	-10.664
▁تاکتیکی	-10.664
▁تبعید	-10.664
▁تجزیه	-10.664
▁تخلیه	-10.664
▁ترافیک	-10.664
▁تشکر	-10.664
▁تصادفی	-10.664
▁تعمیر	-10.664
▁تعهداتش	-10.664
▁تمدن	-10.664
▁توانگر	-10.664
▁توجیه	-10.664
▁تورنتو	-10.664
▁تیره	-10.664
▁ثانوی	-10.664
▁ثروتمند	-10.664
▁جاذبه	-10.664
▁جت	-10.664
▁جرایم	-10.664
▁جست	-10.664
▁جم	-10.664
▁جهاد	-10.664
▁جورجیا	-10.664
▁حامد	-10.664
▁حراجی	-10.664
▁حضرت	-10.664
▁حفاری	-10.664
▁حیدرآبادی	-10.664
▁خارق	-10.664
▁خالق	-10.664
▁خدا	-10.664
▁خطای	-10.664
▁خفیف	-10.664
▁خلیل	-10.664
▁خنثی	-10.664
▁خواند.	-10.664
▁خیر	-10.664
▁دارد.به	-10.664
▁دارد.منبع	-10.664
▁داشت.این	-10.664
▁دان	-10.664
▁دانشجو	-10.664
▁دانشجوی	-10.664
▁دایناسورها	-10.664
▁درج	-10.664
▁دستگاهی	-10.664
▁دغدغه	-10.664
▁دهد؛	-10.664
▁دهید	-10.664
▁دوازدهم	-10.664
▁دوستانش	-10.664
▁دوصدایی	-10.664
▁دوگانه	-10.664
▁دید.	-10.664
▁رایت	-10.664
▁رختکن	-10.664
▁رخداد	-10.664
▁ردیابی	-10.664
▁رسول	-10.664
▁رسیدند	-10.664
▁رشفورد	-10.664
▁رمدسیویر	-10.664
▁رنگین	-10.664
▁روال	-10.664
▁رویا	-10.664
▁رویایی	-10.664
▁رویس	-10.664
▁ریل	-10.664
▁زائران	-10.664
▁زنجان	-10.664
▁زهره	-10.664
▁زیدان	-10.664
▁سارس	-10.664
▁سازه	-10.664
▁ساعته	-10.664
▁سانتریفیوژ	-10.664
▁سده	-10.664
▁سرعتی	-10.664
▁سرنشین	-10.664
▁سیارک	-10.664
▁سیر	-10.664
▁سیزدهم	-10.664
▁سین	-10.664
▁شاهکار	-10.664
▁شایعه	-10.664
▁شبی	-10.664
▁شتم	-10.664
▁شدهمنبع	-10.664
▁شرکتی	-10.664
▁شعله	-10.664
▁شناسند	-10.664
▁شوم	-10.664
▁شیعه	-10.664
▁شیکاگو	-10.664
▁صیانت	-10.664
▁عزم	-10.664
▁عواقب	-10.664
▁غفوری	-10.664
▁غیرنفتی	-10.664
▁فردین	-10.664
▁فرهنگیان	-10.664
▁فروشنده	-10.664
▁فسیلی	-10.664
▁فضانوردان	-10.664
▁فضلی	-10.664
▁فیلترینگ	-10.664
▁قانع	-10.664
▁قبر	-10.664
▁قدمی	-10.664
▁قراردادهای	-10.664
▁قرعه	-10.664
▁قزاقستان	-10.664
▁قید	-10.664
▁لاری	-10.664
▁لاپورتا	-10.664
▁لبخند	-10.664
▁لخته	-10.664
▁لمپارد	-10.664
▁لوو	-10.664
▁لیور،	-10.664
▁مازراتی	-10.664
▁مالکان	-10.664
▁متحدان	-10.664
▁متحول	-10.664
▁مثبتی	-10.664
▁محکم	-10.664
▁مخلوف	-10.664
▁مدام	-10.664
▁مرحوم	-10.664
▁مرعشی	-10.664
▁مرمت	-10.664
▁مرکل	-10.664
▁مزرعه	-10.664
▁مشوق	-10.664
▁مطبوعاتی	-10.664
▁معلق	-10.664
▁ممانعت	-10.664
▁منزل	-10.664
▁مهرابی	-10.664
▁مواقع	-10.664
▁موستانگ	-10.664
▁مکاتب	-10.664
▁مکانی	-10.664
▁میل	-10.664
▁میلوش	-10.664
▁نادری	-10.664
▁نامگذاری	-10.664
▁ناوبری	-10.664
▁ناپدید	-10.664
▁نتفلیکس	-10.664
▁نخورده	-10.664
▁نداریم.	-10.664
▁نورد	-10.664
▁نوشیدنی	-10.664
▁نکات	-10.664
▁نکردن	-10.664
▁نیست،	-10.664
▁نیکلاس	-10.664
▁هادی	-10.664
▁هری	-10.664
▁همایون	-10.664
▁هو	-10.664
▁هیبرید	-10.664
▁ور	-10.664
▁ورشکستگی	-10.664
▁وروورت	-10.664
▁وزیرخارجه	-10.664
▁وظایف	-10.664
▁ووهان	-10.664
▁ویکتوریا	-10.664
▁پارسیان	-10.664
▁پالاس	-10.664
▁پرآوازه	-10.664
▁پستان	-10.664
▁پنگوئن	-10.664
▁پیتر	-10.664
▁پیچ	-10.664
▁کاران	-10.664
▁کاربرد	-10.664
▁کارتو	-10.664
▁کاریر	-10.664
▁کاسه	-10.664
▁کاغذ	-10.664
▁کاوازاکی	-10.664
▁کاپیتان:	-10.664
▁کتابخانه	-10.664
▁کرج	-10.664
▁کرد.او	-10.664
▁کردندمنبع	-10.664
▁کریستال	-10.664
▁کشنده	-10.664
▁کند.اما	-10.664
▁کنند.این	-10.664
▁کنکور	-10.664
▁کودتا	-10.664
▁کوهستان	-10.664
▁کیلو	-10.664
▁گابریل	-10.664
▁گذاشتند	-10.664
▁گذرانده	-10.664
▁گردآوری	-10.664
▁گردش	-10.664
▁گردشگر	-10.664
▁گرفتند.	-10.664
▁گشت	-10.664
▁گفتن	-10.664
▁گلمکانی	-10.664
▁گنجینه	-10.664
▁گوناگونی	-10.664
▁یادگیری	-10.664
▁یار	-10.664
▁یخی	-10.664
▁یهودی	-10.664
▁یوگا	-10.664
▁۱۷۰	-10.664
▁۱۹۸۲	-10.664
▁۲۰۰۱	-10.664
▁۲۰۰۷	-10.664
▁۳۰۰۰	-10.664
▁۴۷	-10.664
▁۵۱	-10.664
▁۵۳	-10.664
▁۵۴	-10.664
▁۸۲	-10.664
▁'در	-10.751
▁آثارش	-10.751
▁آرا	-10.751
▁آسیبی	-10.751
▁آشنایی	-10.751
▁آفتابی	-10.751
▁آقا	-10.751
▁آمریکاست	-10.751
▁آنتونیو	-10.751
▁آوردند	-10.751
▁اتباع	-10.751
▁اتخاذ	-10.751
▁اتلتیکو	-10.751
▁اختراع	-10.751
▁اراده	-10.751
▁ارث	-10.751
▁اردن	-10.751
▁است.برخی	-10.751
▁است.پس	-10.751
▁است.پیش	-10.751
▁است.گزارش	-10.751
▁استادان	-10.751
▁استاندارد	-10.751
▁استانی	-10.751
▁استخوان	-10.751
▁استریت	-10.751
▁استونز	-10.751
▁استیضاح	-10.751
▁اسدالله	-10.751
▁اصابت	-10.751
▁افسران	-10.751
▁افشا	-10.751
▁افشنگ	-10.751
▁اقتدار	-10.751
▁البرز	-10.751
▁الماس	-10.751
▁امان	-10.751
▁امواج	-10.751
▁امیدوارند	-10.751
▁امیدواریم	-10.751
▁انتقادات	-10.751
▁اند.آقای	-10.751
▁اند.بیشتر	-10.751
▁انداخت.	-10.751
▁اندی	-10.751
▁اچ	-10.751
▁اکس	-10.751
▁ایراد	-10.751
▁ایشان	-10.751
▁ایمن	-10.751
▁اینقدر	-10.751
▁باختری	-10.751
▁بادی	-10.751
▁بارز	-10.751
▁بازه	-10.751
▁بازگشته	-10.751
▁بالقوه	-10.751
▁باهم	-10.751
▁ببینید.	-10.751
▁بخاری	-10.751
▁بدرفتاری	-10.751
▁برادران	-10.751
▁برفی	-10.751
▁بستگی	-10.751
▁بقای	-10.751
▁بله	-10.751
▁بماند.	-10.751
▁بمب	-10.751
▁بود.با	-10.751
▁بیاورد.	-10.751
▁تاب	-10.751
▁تخفیف	-10.751
▁تصاحب	-10.751
▁تفسیر	-10.751
▁تقدیر	-10.751
▁تله	-10.751
▁تهرانمنبع	-10.751
▁توییتری	-10.751
▁جامائیکا	-10.751
▁جرگه	-10.751
▁جسمانی	-10.751
▁جعفری	-10.751
▁جف	-10.751
▁جلال	-10.751
▁جلد	-10.751
▁جمجمه	-10.751
▁جنین	-10.751
▁جواز	-10.751
▁جونیور	-10.751
▁جکسون	-10.751
▁جیپ	-10.751
▁حال،	-10.751
▁حسابی	-10.751
▁حفره	-10.751
▁حقیقی	-10.751
▁خالکوبی	-10.751
▁خبرها	-10.751
▁خرچنگ	-10.751
▁خزانه	-10.751
▁خلوت	-10.751
▁خواستم	-10.751
▁خواندند	-10.751
▁خود،	-10.751
▁داد.او	-10.751
▁دادخواهانه	-10.751
▁دامی	-10.751
▁دایناسور	-10.751
▁دختری	-10.751
▁درانی	-10.751
▁دستکش	-10.751
▁دقایقی	-10.751
▁دم	-10.751
▁دندان	-10.751
▁دنیس	-10.751
▁دهم.	-10.751
▁دوج	-10.751
▁دوستش	-10.751
▁دیفرانسیل	-10.751
▁راجرز	-10.751
▁رجایی	-10.751
▁رسان	-10.751
▁رمانی	-10.751
▁رمضان	-10.751
▁رنگی	-10.751
▁روانه	-10.751
▁روبروست	-10.751
▁روندی	-10.751
▁رژه	-10.751
▁رژیم	-10.751
▁ریخته	-10.751
▁زدایی	-10.751
▁زنگ	-10.751
▁ساترا	-10.751
▁ساختار	-10.751
▁ساشا	-10.751
▁ساقط	-10.751
▁سالیانه	-10.751
▁سانتیمتر	-10.751
▁سرنا	-10.751
▁سعادت	-10.751
▁سعدی	-10.751
▁سنای	-10.751
▁سوری	-10.751
▁سکسکه	-10.751
▁سیم	-10.751
▁سینماها	-10.751
▁سینماهای	-10.751
▁سیویک	-10.751
▁شاعران	-10.751
▁شد.اما	-10.751
▁شدند.منبع	-10.751
▁شرمن	-10.751
▁شرکای	-10.751
▁شوت	-10.751
▁شود.او	-10.751
▁شوش	-10.751
▁شکستن	-10.751
▁صریح	-10.751
▁صفحات	-10.751
▁صفرها	-10.751
▁طعم	-10.751
▁طیاب	-10.751
▁طیب	-10.751
▁عارضه	-10.751
▁عازم	-10.751
▁عالم	-10.751
▁عام	-10.751
▁عبدالرضا	-10.751
▁عددی	-10.751
▁علوی	-10.751
▁عمران	-10.751
▁غالب	-10.751
▁غیرحرفه	-10.751
▁غیرنظامی	-10.751
▁فتاحی	-10.751
▁فرزندش	-10.751
▁فرماندهی	-10.751
▁فروغ	-10.751
▁فشرده	-10.751
▁فلسطینیان	-10.751
▁فلیکس	-10.751
▁فیزیکدان	-10.751
▁فیزیکی	-10.751
▁قطری	-10.751
▁قطعیت	-10.751
▁قم	-10.751
▁قوای	-10.751
▁قومی	-10.751
▁لب	-10.751
▁لطف	-10.751
▁مازاد	-10.751
▁ماشه	-10.751
▁مباحث	-10.751
▁مخصوصا	-10.751
▁مزمن	-10.751
▁مستمر	-10.751
▁مشتقات	-10.751
▁مصرفی	-10.751
▁مصیبت	-10.751
▁مظنون	-10.751
▁معاش	-10.751
▁معیار	-10.751
▁مغلوب	-10.751
▁مفقود	-10.751
▁منابعی	-10.751
▁مناطقی	-10.751
▁مند	-10.751
▁مندان	-10.751
▁منفجر	-10.751
▁مهندسان	-10.751
▁مواجهه	-10.751
▁مورا	-10.751
▁موزیک	-10.751
▁موقعیتی	-10.751
▁مونتاژ	-10.751
▁مکلف	-10.751
▁ناقص	-10.751
▁ناقض	-10.751
▁ندادن	-10.751
▁ندانسته	-10.751
▁نسکار	-10.751
▁نقلیه	-10.751
▁نمادی	-10.751
▁نمانده	-10.751
▁نمایان	-10.751
▁نوجوانان	-10.751
▁نوزادان	-10.751
▁نوزدهم	-10.751
▁نوی	-10.751
▁نویسد	-10.751
▁نوین	-10.751
▁نژاد،	-10.751
▁نکرد.	-10.751
▁نکنند	-10.751
▁نیجریه	-10.751
▁هاست.	-10.751
▁هامر	-10.751
▁هرانا	-10.751
▁هزاره	-10.751
▁هل	-10.751
▁هویزه	-10.751
▁هیچکس	-10.751
▁وابستگی	-10.751
▁واریز	-10.751
▁ونقل	-10.751
▁ویدئوی	-10.751
▁ویکتور	-10.751
▁پارلمانی	-10.751
▁پاکسازی	-10.751
▁پدید	-10.751
▁پرسید	-10.751
▁پلامر	-10.751
▁پوستی	-10.751
▁پومپئو	-10.751
▁پویا	-10.751
▁پیرامون	-10.751
▁پیشگام	-10.751
▁پیکان	-10.751
▁چیست؟منبع	-10.751
▁کارزاری	-10.751
▁کامپیوتر	-10.751
▁کاهشی	-10.751
▁کدخدایی	-10.751
▁کرام	-10.751
▁کردند.در	-10.751
▁کردیم.	-10.751
▁کما	-10.751
▁کودتای	-10.751
▁کوپتر	-10.751
▁کین	-10.751
▁کیو	-10.751
▁کیومرث	-10.751
▁گذشتمنبع	-10.751
▁گرمی	-10.751
▁گفتگوهای	-10.751
▁گلوب	-10.751
▁گواهی	-10.751
▁یووه	-10.751
▁یگان	-10.751
▁۱۳۵۷	-10.751
▁۱۳۶۷	-10.751
▁۲۰۰۲	-10.751
▁۸۱	-10.751
▁۸۳	-10.751
▁۸۵	-10.751
▁آثاری	-10.8463
▁آذری	-10.8463
▁آرزو	-10.8463
▁آزمون	-10.8463
▁آلومینیوم	-10.8463
▁آنفلوآنزای	-10.8463
▁ابهامات	-10.8463
▁اتوبوس	-10.8463
▁احتیاط	-10.8463
▁اختیارات	-10.8463
▁ادارات	-10.8463
▁اذیت	-10.8463
▁ارسلان	-10.8463
▁ارمنستان	-10.8463
▁است.ایران	-10.8463
▁است.سازمان	-10.8463
▁است.سه	-10.8463
▁است.شیدا	-10.8463
▁است.هر	-10.8463
▁است.همزمان	-10.8463
▁است؟	-10.8463
▁استبا	-10.8463
▁استثنا	-10.8463
▁استدلال	-10.8463
▁استعمار	-10.8463
▁اسپارتاک	-10.8463
▁اشتیاق	-10.8463
▁اشنویه	-10.8463
▁اضطرار	-10.8463
▁اقبال	-10.8463
▁اقشار	-10.8463
▁المصطفی	-10.8463
▁الکترونیک	-10.8463
▁امروزه	-10.8463
▁امریکا	-10.8463
▁انتهای	-10.8463
▁انحلال	-10.8463
▁اند.بر	-10.8463
▁اندازد	-10.8463
▁اندمنبع	-10.8463
▁انقلابی	-10.8463
▁ای،	-10.8463
▁ایران.	-10.8463
▁ایسلند	-10.8463
▁باردار	-10.8463
▁بارش	-10.8463
▁بازبینی	-10.8463
▁بازگردد	-10.8463
▁بازیار	-10.8463
▁باشد.این	-10.8463
▁باشم	-10.8463
▁باقر	-10.8463
▁بالاتری	-10.8463
▁بالگرد	-10.8463
▁بانکها	-10.8463
▁ببینیم	-10.8463
▁بدوی	-10.8463
▁بردارد	-10.8463
▁برطرف	-10.8463
▁برند.	-10.8463
▁برها	-10.8463
▁برهم	-10.8463
▁بروند	-10.8463
▁برگ	-10.8463
▁بری	-10.8463
▁بشریت	-10.8463
▁بصورت	-10.8463
▁بطری	-10.8463
▁بعیدی	-10.8463
▁بلژیکی	-10.8463
▁بلیط	-10.8463
▁بنتلی	-10.8463
▁بهناز	-10.8463
▁بهنام	-10.8463
▁بود.بر	-10.8463
▁بودند.منبع	-10.8463
▁بوده.	-10.8463
▁بوروسیا	-10.8463
▁بیانگر	-10.8463
▁بیبر	-10.8463
▁تاریخچه	-10.8463
▁تان	-10.8463
▁تایتانیک	-10.8463
▁تحرک	-10.8463
▁تحقیر	-10.8463
▁تخم	-10.8463
▁تشبیه	-10.8463
▁تقدیم	-10.8463
▁تویوتا	-10.8463
▁جاهای	-10.8463
▁جایگاهی	-10.8463
▁جرائم	-10.8463
▁جزئی	-10.8463
▁جنایی	-10.8463
▁جندی	-10.8463
▁جودوی	-10.8463
▁جولی	-10.8463
▁حرکات	-10.8463
▁حکمی	-10.8463
▁خادم	-10.8463
▁خدایاری	-10.8463
▁خروجی	-10.8463
▁خریدار	-10.8463
▁خشن	-10.8463
▁خوابی	-10.8463
▁خودرایانی	-10.8463
▁خودسرانه	-10.8463
▁خویش	-10.8463
▁خیالی	-10.8463
▁دادم	-10.8463
▁دارند،	-10.8463
▁دارنده	-10.8463
▁داغستان	-10.8463
▁دانچیچ	-10.8463
▁دانیم؟منبع	-10.8463
▁دراین	-10.8463
▁درمی	-10.8463
▁درویش	-10.8463
▁دریافتند	-10.8463
▁دستوری	-10.8463
▁دنیل	-10.8463
▁دوئرنیک	-10.8463
▁دورانی	-10.8463
▁دولگوف	-10.8463
▁دیاز	-10.8463
▁دیدنی	-10.8463
▁دیدیم	-10.8463
▁دیر	-10.8463
▁دینار	-10.8463
▁رأی	-10.8463
▁رانده	-10.8463
▁رایان	-10.8463
▁رستگار	-10.8463
▁رضایی	-10.8463
▁رفتند.	-10.8463
▁رنو	-10.8463
▁روبرتو	-10.8463
▁روبروی	-10.8463
▁روشنی	-10.8463
▁رونالدینیو	-10.8463
▁ریاضی	-10.8463
▁زادگان	-10.8463
▁زادگاهش	-10.8463
▁زاناردی	-10.8463
▁زند.	-10.8463
▁زور	-10.8463
▁سابقش	-10.8463
▁ساعتی	-10.8463
▁سانتوس	-10.8463
▁سخنانی	-10.8463
▁سرتاسر	-10.8463
▁سردار	-10.8463
▁سرزده	-10.8463
▁سرمای	-10.8463
▁سرو	-10.8463
▁سرگرم	-10.8463
▁سرگشاده	-10.8463
▁سفارشی	-10.8463
▁سفرها	-10.8463
▁سلام	-10.8463
▁سنگاپور	-10.8463
▁سهل	-10.8463
▁سوارز	-10.8463
▁سوپرلیگ	-10.8463
▁سی،	-10.8463
▁سیامند	-10.8463
▁سید	-10.8463
▁سیلندر	-10.8463
▁شاهنامه	-10.8463
▁شباهت	-10.8463
▁شدند،	-10.8463
▁شرم	-10.8463
▁شستا	-10.8463
▁شمایل	-10.8463
▁شمیم	-10.8463
▁شناگر	-10.8463
▁شهرهایی	-10.8463
▁شهرک	-10.8463
▁شهریار	-10.8463
▁شوخی	-10.8463
▁شود.از	-10.8463
▁شوم.	-10.8463
▁شون	-10.8463
▁صرب	-10.8463
▁ضایعه	-10.8463
▁طارمی	-10.8463
▁طرفه	-10.8463
▁طوفانی	-10.8463
▁ظریف؛	-10.8463
▁ظن	-10.8463
▁عاشقانه	-10.8463
▁عامه	-10.8463
▁عسل	-10.8463
▁علاقمند	-10.8463
▁غارت	-10.8463
▁غلامحسین	-10.8463
▁فابیو	-10.8463
▁فرانک	-10.8463
▁فرخ	-10.8463
▁فرزین	-10.8463
▁فرستاد	-10.8463
▁فرستاد.	-10.8463
▁فطر	-10.8463
▁فلیک	-10.8463
▁فوتسال	-10.8463
▁فیلمسازان	-10.8463
▁فین	-10.8463
▁قائل	-10.8463
▁قسطی	-10.8463
▁قطعا	-10.8463
▁لاس	-10.8463
▁لبنانی	-10.8463
▁لیدی	-10.8463
▁مادی	-10.8463
▁ماریکه	-10.8463
▁مانه	-10.8463
▁ماهشهر	-10.8463
▁مبالغ	-10.8463
▁متغیر	-10.8463
▁متقاضیان	-10.8463
▁مثلث	-10.8463
▁مجاهدین	-10.8463
▁محفظه	-10.8463
▁مخفیانه	-10.8463
▁مدنظر	-10.8463
▁مزایای	-10.8463
▁مزایده	-10.8463
▁مسافت	-10.8463
▁مسترز	-10.8463
▁مستعار	-10.8463
▁مسیری	-10.8463
▁مشاوران	-10.8463
▁مشروطه	-10.8463
▁مضاعف	-10.8463
▁مطالب	-10.8463
▁مطالبی	-10.8463
▁مظاهری	-10.8463
▁معارف	-10.8463
▁معاف	-10.8463
▁معلم	-10.8463
▁معیارهای	-10.8463
▁مغزش	-10.8463
▁مقر	-10.8463
▁مقیمی	-10.8463
▁مناظره	-10.8463
▁منظم	-10.8463
▁منعکس	-10.8463
▁موافقان	-10.8463
▁مودم	-10.8463
▁موقتا	-10.8463
▁مینا	-10.8463
▁میکل	-10.8463
▁ناامن	-10.8463
▁نادران	-10.8463
▁ناشناس	-10.8463
▁نامناسب	-10.8463
▁ناپذیری	-10.8463
▁نتواند	-10.8463
▁نداشتم	-10.8463
▁نصیب	-10.8463
▁نقره	-10.8463
▁نهادینه	-10.8463
▁نوشتند	-10.8463
▁نولان	-10.8463
▁نژادپرستانه	-10.8463
▁نکنید	-10.8463
▁نیستمنبع	-10.8463
▁نیل	-10.8463
▁ه	-10.8463
▁هدفش	-10.8463
▁هستم.	-10.8463
▁هستند؛	-10.8463
▁همکار	-10.8463
▁هواشناسی	-10.8463
▁هوندا	-10.8463
▁هکرها	-10.8463
▁هیدروکسی	-10.8463
▁هیچگاه	-10.8463
▁واردی	-10.8463
▁وال	-10.8463
▁والدین	-10.8463
▁وفادار	-10.8463
▁ونیز	-10.8463
▁وودز	-10.8463
▁وگوها	-10.8463
▁ویتنام	-10.8463
▁پارسی	-10.8463
▁پذیرای	-10.8463
▁پرسیده	-10.8463
▁پروازی	-10.8463
▁پری	-10.8463
▁پمپ	-10.8463
▁پولیتزر	-10.8463
▁پوندی	-10.8463
▁پیداست	-10.8463
▁پیمانکار	-10.8463
▁پیگیر	-10.8463
▁چاله	-10.8463
▁چرنکوف	-10.8463
▁چیزبرگر	-10.8463
▁ژاکا	-10.8463
▁کادیلاک	-10.8463
▁کاربر	-10.8463
▁کارفرمایان	-10.8463
▁کاظم	-10.8463
▁کامرون	-10.8463
▁کانری	-10.8463
▁کاوانی	-10.8463
▁کاوه	-10.8463
▁کردیک	-10.8463
▁کرمانی	-10.8463
▁کرویف	-10.8463
▁کرگدن	-10.8463
▁کشت	-10.8463
▁کشتیرانی	-10.8463
▁کشمی	-10.8463
▁کشید.	-10.8463
▁کفتر	-10.8463
▁کلاهبرداری	-10.8463
▁کلمات	-10.8463
▁کلیسای	-10.8463
▁کنسولگری	-10.8463
▁کنند.به	-10.8463
▁کوسه	-10.8463
▁کولبر	-10.8463
▁کولمن	-10.8463
▁کیا	-10.8463
▁گذشت.	-10.8463
▁گرامی	-10.8463
▁گریبان	-10.8463
▁گزارش،	-10.8463
▁گفتگویی	-10.8463
▁گلدن	-10.8463
▁گودا	-10.8463
▁گودال	-10.8463
▁گوید.	-10.8463
▁گوید،	-10.8463
▁گویی	-10.8463
▁گیگز	-10.8463
▁یهودیان	-10.8463
▁یکه	-10.8463
▁۱۹۵۰	-10.8463
▁۱۹۶۷	-10.8463
▁۶۱	-10.8463
▁۶۳	-10.8463
▁۶۵۰	-10.8463
▁۸۷	-10.8463
▁۹۲	-10.8463
▁آبهای	-10.9517
▁آث	-10.9517
▁آدامس	-10.9517
▁آرمان	-10.9517
▁آسانی	-10.9517
▁آقازاده	-10.9517
▁آلزایمر	-10.9517
▁آمبولی	-10.9517
▁آمریکا:	-10.9517
▁آورند.	-10.9517
▁ابرنواختر	-10.9517
▁اتریشی	-10.9517
▁اتفاقاتی	-10.9517
▁اتیوپی	-10.9517
▁اجتناب	-10.9517
▁اجلاسی	-10.9517
▁اخیر،	-10.9517
▁اذهان	-10.9517
▁اراضی	-10.9517
▁اراک	-10.9517
▁اسباب	-10.9517
▁است.دو	-10.9517
▁است.دکتر	-10.9517
▁است.قیمت	-10.9517
▁اسلحه	-10.9517
▁اسپورت	-10.9517
▁اسکاتلندی	-10.9517
▁اشعار	-10.9517
▁اشکال	-10.9517
▁اعلامیه	-10.9517
▁افتخاری	-10.9517
▁الحسن	-10.9517
▁الزام	-10.9517
▁القرض	-10.9517
▁المستقبل	-10.9517
▁الکل	-10.9517
▁امتیازات	-10.9517
▁امروزشان	-10.9517
▁امری	-10.9517
▁امپراتوری	-10.9517
▁امیدی	-10.9517
▁امیری	-10.9517
▁انداختن	-10.9517
▁انددر	-10.9517
▁انگاره	-10.9517
▁انگیزترین	-10.9517
▁او.	-10.9517
▁اوست	-10.9517
▁اپرای	-10.9517
▁اکبریان	-10.9517
▁اکتشاف	-10.9517
▁اکتشافی	-10.9517
▁اینترپل	-10.9517
▁اینستاگرامش	-10.9517
▁اینک	-10.9517
▁ایوانکوویچ	-10.9517
▁باریک	-10.9517
▁بازمانده	-10.9517
▁بازماندگان	-10.9517
▁بازوی	-10.9517
▁باسابقه	-10.9517
▁باشد،	-10.9517
▁بالیوود	-10.9517
▁باگت	-10.9517
▁بتوانم	-10.9517
▁بدهد.	-10.9517
▁بدهکار	-10.9517
▁برآورده	-10.9517
▁بروم	-10.9517
▁برگردد.	-10.9517
▁بعدتر	-10.9517
▁بمانند	-10.9517
▁بنادر	-10.9517
▁بنزما	-10.9517
▁بنیامین	-10.9517
▁بودمنبع	-10.9517
▁بوفون	-10.9517
▁بوچانی	-10.9517
▁بوی	-10.9517
▁بگذارد.	-10.9517
▁بیروت	-10.9517
▁بیرونی	-10.9517
▁بینایی	-10.9517
▁بینید	-10.9517
▁بیورن	-10.9517
▁تابعیت	-10.9517
▁تابوت	-10.9517
▁تاجیکان	-10.9517
▁تانک	-10.9517
▁تحقیرآمیز	-10.9517
▁تحلیلگر	-10.9517
▁تراز	-10.9517
▁ترجیحی	-10.9517
▁تصدی	-10.9517
▁تعاون	-10.9517
▁تعزیری	-10.9517
▁تعویض	-10.9517
▁تماشاچیان	-10.9517
▁تمرینات	-10.9517
▁تندیس	-10.9517
▁تنگ	-10.9517
▁تهاجمی	-10.9517
▁توانستم	-10.9517
▁تونل	-10.9517
▁تکنیک	-10.9517
▁تیغ	-10.9517
▁جانوری	-10.9517
▁جاوید	-10.9517
▁جدیت	-10.9517
▁جعبه	-10.9517
▁جغرافیایی	-10.9517
▁جمعیتی	-10.9517
▁جمهوری،	-10.9517
▁جوامع	-10.9517
▁حاضران	-10.9517
▁حجاب	-10.9517
▁حدودا	-10.9517
▁حرکتی	-10.9517
▁حریم	-10.9517
▁حصول	-10.9517
▁خانمان	-10.9517
▁خبرنگاری	-10.9517
▁خراب	-10.9517
▁خریدن	-10.9517
▁خطرات	-10.9517
▁خنده	-10.9517
▁خواندمنبع	-10.9517
▁خودسوزی	-10.9517
▁خوراک	-10.9517
▁خوشحالم	-10.9517
▁خیز	-10.9517
▁دارند.منبع	-10.9517
▁داشبورد	-10.9517
▁داشتیم	-10.9517
▁دایکندی	-10.9517
▁دبیرخانه	-10.9517
▁درام	-10.9517
▁درسی	-10.9517
▁درها	-10.9517
▁دریافته	-10.9517
▁دستاوردهای	-10.9517
▁دهلی	-10.9517
▁دهیم.	-10.9517
▁دوانی	-10.9517
▁دوستداران	-10.9517
▁دگرگون	-10.9517
▁دیزنی	-10.9517
▁رئوف	-10.9517
▁رائونیچ	-10.9517
▁راد	-10.9517
▁راضی	-10.9517
▁رامش	-10.9517
▁ران	-10.9517
▁راهپیمایی	-10.9517
▁رایگان	-10.9517
▁ربیعی	-10.9517
▁رخشانه	-10.9517
▁رسن	-10.9517
▁رسی	-10.9517
▁رشید	-10.9517
▁ره	-10.9517
▁روبرت	-10.9517
▁رودبار	-10.9517
▁روزگاری	-10.9517
▁رولزرویس	-10.9517
▁رومانیایی	-10.9517
▁رویم	-10.9517
▁رکوردهای	-10.9517
▁ریز	-10.9517
▁ساری	-10.9517
▁سازمانی	-10.9517
▁سازندگان	-10.9517
▁سازندگی	-10.9517
▁ساعی	-10.9517
▁سال،	-10.9517
▁سالمرگ	-10.9517
▁سام	-10.9517
▁ساماندهی	-10.9517
▁سبد	-10.9517
▁ستون	-10.9517
▁سرشار	-10.9517
▁سرماخوردگی	-10.9517
▁سرپرستی	-10.9517
▁سرکوبی	-10.9517
▁سلتیک	-10.9517
▁سلسله	-10.9517
▁سلفی	-10.9517
▁سم	-10.9517
▁سنگر	-10.9517
▁سوئدی	-10.9517
▁سوابق	-10.9517
▁سولسشر	-10.9517
▁سومو	-10.9517
▁سکانس	-10.9517
▁سیبری	-10.9517
▁سیمونا	-10.9517
▁شانگهای	-10.9517
▁شاپی	-10.9517
▁شجاع	-10.9517
▁شجریان،	-10.9517
▁شدم.	-10.9517
▁شدند.این	-10.9517
▁شر	-10.9517
▁شطرنج	-10.9517
▁شعبانی	-10.9517
▁شهیدی	-10.9517
▁شهیدیان	-10.9517
▁شوند؛	-10.9517
▁صادقانه	-10.9517
▁صاف	-10.9517
▁صدایش	-10.9517
▁صدرنشینی	-10.9517
▁ضدعفونی	-10.9517
▁طرفدارانش	-10.9517
▁عالمی،	-10.9517
▁عتیقه	-10.9517
▁عجله	-10.9517
▁عرف	-10.9517
▁عطرساز	-10.9517
▁عطرسازی	-10.9517
▁عطسه	-10.9517
▁علایم	-10.9517
▁عمدی	-10.9517
▁عنصر	-10.9517
▁عکس؛	-10.9517
▁غافلگیری	-10.9517
▁غیربومی	-10.9517
▁فرآیندی	-10.9517
▁فرزندآوری	-10.9517
▁فرشاد	-10.9517
▁فروشندگان	-10.9517
▁فسخ	-10.9517
▁فیل	-10.9517
▁فیلیپین	-10.9517
▁قائم	-10.9517
▁قاب	-10.9517
▁قبیل	-10.9517
▁قلمداد	-10.9517
▁قوت	-10.9517
▁قوم	-10.9517
▁قیاس	-10.9517
▁لاجورد	-10.9517
▁لفظی	-10.9517
▁لو	-10.9517
▁لوفت	-10.9517
▁لوکه	-10.9517
▁ماخ	-10.9517
▁مارماهی	-10.9517
▁مارکوس	-10.9517
▁ماه)	-10.9517
▁متحدانش	-10.9517
▁متولی	-10.9517
▁مذاکراتی	-10.9517
▁مزار	-10.9517
▁مساحت	-10.9517
▁مسافری	-10.9517
▁مستثنی	-10.9517
▁مسترد	-10.9517
▁مستندساز	-10.9517
▁مصالحه	-10.9517
▁مضر	-10.9517
▁مطلبی	-10.9517
▁معادن	-10.9517
▁معاینه	-10.9517
▁معتمدی	-10.9517
▁معمای	-10.9517
▁معنا	-10.9517
▁معین	-10.9517
▁مقاصد	-10.9517
▁مقدمات	-10.9517
▁مقدمه	-10.9517
▁ملتهب	-10.9517
▁منجمد	-10.9517
▁منفرد	-10.9517
▁مهربان	-10.9517
▁مونک	-10.9517
▁مکمل	-10.9517
▁مینیاتور	-10.9517
▁میهمان	-10.9517
▁میکروب	-10.9517
▁ناتوان	-10.9517
▁ناخوشایند	-10.9517
▁نارضایتی	-10.9517
▁ناظری	-10.9517
▁نامید	-10.9517
▁ناوگان	-10.9517
▁ناکارآمدی	-10.9517
▁نتوانستند	-10.9517
▁ندهد	-10.9517
▁نزدیکتر	-10.9517
▁نظرش	-10.9517
▁نظرهای	-10.9517
▁نعمتی	-10.9517
▁نفتکشی	-10.9517
▁نمایشنامه	-10.9517
▁نمایندگانی	-10.9517
▁نهضت	-10.9517
▁نوآوری	-10.9517
▁نوایی	-10.9517
▁نوشیدن	-10.9517
▁نوظهور	-10.9517
▁نوله	-10.9517
▁نگرش	-10.9517
▁نیافته	-10.9517
▁نیست'منبع	-10.9517
▁هاروارد	-10.9517
▁هانزا	-10.9517
▁هجری	-10.9517
▁هراس	-10.9517
▁هست.	-10.9517
▁هستند،	-10.9517
▁هشتصد	-10.9517
▁همدردی	-10.9517
▁همزمان،	-10.9517
▁هموار	-10.9517
▁هنرمندی	-10.9517
▁هویتی	-10.9517
▁وحشتناک	-10.9517
▁وخامت	-10.9517
▁وریا	-10.9517
▁وزیری	-10.9517
▁وگوهای	-10.9517
▁ویدئو	-10.9517
▁پابلو	-10.9517
▁پارکر	-10.9517
▁پاسخگویی	-10.9517
▁پدافند	-10.9517
▁پرسینگ	-10.9517
▁پناهجوی	-10.9517
▁پورشه	-10.9517
▁پوچتینو	-10.9517
▁پیامگیر	-10.9517
▁پیری	-10.9517
▁پیشکسوت	-10.9517
▁پینگ	-10.9517
▁پیکولی	-10.9517
▁پیکی	-10.9517
▁چهلمین	-10.9517
▁چوب	-10.9517
▁ژنرال	-10.9517
▁ژیوادان	-10.9517
▁کادیس	-10.9517
▁کارگیری	-10.9517
▁کاظمی	-10.9517
▁کالای	-10.9517
▁کالدرون	-10.9517
▁کالینز	-10.9517
▁کج	-10.9517
▁کرایسلر	-10.9517
▁کرمانشاه	-10.9517
▁کریم	-10.9517
▁کشتن	-10.9517
▁کلارک	-10.9517
▁کلاه	-10.9517
▁کمونیست	-10.9517
▁کند.به	-10.9517
▁کنی	-10.9517
▁کهنه	-10.9517
▁کوچکترین	-10.9517
▁گاگا	-10.9517
▁گذرد.	-10.9517
▁گذرد،	-10.9517
▁گراد	-10.9517
▁گردد؛	-10.9517
▁گردند	-10.9517
▁گرفته.	-10.9517
▁گروههای	-10.9517
▁گریه	-10.9517
▁گیلان	-10.9517
▁گیم	-10.9517
▁یاوری	-10.9517
▁یکبار	-10.9517
▁۱۸۰	-10.9517
▁۱۹۰	-10.9517
▁۲۰۰۶	-10.9517
▁۳۲۰	-10.9517
▁۶۲۸	-10.9517
▁۷۶	-10.9517
▁۸۸	-10.9517
▁۸۹	-10.9517
▁'از	-11.0695
▁.حسن	-11.0695
▁آبزیان	-11.0695
▁آرامکوی	-11.0695
▁آرتتا	-11.0695
▁آرزوهای	-11.0695
▁آرسن	-11.0695
▁آزادانه	-11.0695
▁آستان	-11.0695
▁آسیا؛	-11.0695
▁آشفتگی	-11.0695
▁آلنده	-11.0695
▁آنتیفا	-11.0695
▁آوازخوان	-11.0695
▁آوردند.	-11.0695
▁آگوئرو	-11.0695
▁اتصال	-11.0695
▁اتکا	-11.0695
▁اثرات	-11.0695
▁احتیاج	-11.0695
▁اخذ	-11.0695
▁ادعاهای	-11.0695
▁ادل	-11.0695
▁ادوارد	-11.0695
▁اذعان	-11.0695
▁ارتقا	-11.0695
▁ارگان	-11.0695
▁است.بنابر	-11.0695
▁است.بهرنگ	-11.0695
▁است.رئیس	-11.0695
▁استاینر	-11.0695
▁استرس	-11.0695
▁استقامت	-11.0695
▁استقراض	-11.0695
▁استلانتیس	-11.0695
▁اسرائیل،	-11.0695
▁اسمیت	-11.0695
▁اشعه	-11.0695
▁اشیا	-11.0695
▁اصولگرایان	-11.0695
▁اصیل	-11.0695
▁اضافی	-11.0695
▁اعتراضاتی	-11.0695
▁افتتاحیه	-11.0695
▁افغانستان،	-11.0695
▁افغانستانی	-11.0695
▁افق	-11.0695
▁الهی	-11.0695
▁امرالله	-11.0695
▁امورخارجه	-11.0695
▁انتحاری	-11.0695
▁اند.یک	-11.0695
▁اندرسون	-11.0695
▁اندرکاران	-11.0695
▁اندیشکده	-11.0695
▁انگاری	-11.0695
▁انیمیشن	-11.0695
▁اولیویا	-11.0695
▁اِی	-11.0695
▁اکاذیب	-11.0695
▁ایندیانا	-11.0695
▁اینفینیتی	-11.0695
▁اینگونه	-11.0695
▁بارتومئو	-11.0695
▁بارگیری	-11.0695
▁بازگشت.	-11.0695
▁باشد.منبع	-11.0695
▁بخشنامه	-11.0695
▁بخشهایی	-11.0695
▁بدحال	-11.0695
▁برآمدن	-11.0695
▁برایتان	-11.0695
▁برایشان	-11.0695
▁برشمرده	-11.0695
▁برشنا	-11.0695
▁برگردانده	-11.0695
▁برگرفته	-11.0695
▁بس	-11.0695
▁بسیج	-11.0695
▁بغلان	-11.0695
▁بلامنازع	-11.0695
▁بلانشت	-11.0695
▁بلغارستان	-11.0695
▁بلندی	-11.0695
▁بلوز	-11.0695
▁بنده	-11.0695
▁بنزینی	-11.0695
▁بهبهان	-11.0695
▁بود.بعضی	-11.0695
▁بوده،	-11.0695
▁بوریس	-11.0695
▁بونوئل	-11.0695
▁بکشد.	-11.0695
▁بگذارند	-11.0695
▁بگویند	-11.0695
▁بگیرید.	-11.0695
▁بیم	-11.0695
▁بیگانه	-11.0695
▁بیگی	-11.0695
▁تاکتیک	-11.0695
▁تبانی	-11.0695
▁تجدیدنظر	-11.0695
▁تجدیدپذیر	-11.0695
▁تحصیلی	-11.0695
▁تخته	-11.0695
▁ترابی	-11.0695
▁ترانزیتی	-11.0695
▁ترغیب	-11.0695
▁تریاک	-11.0695
▁تسهیل	-11.0695
▁تشکل	-11.0695
▁تصاعد	-11.0695
▁تطبیق	-11.0695
▁تلاطم	-11.0695
▁تلفات	-11.0695
▁تمایلی	-11.0695
▁تناسب	-11.0695
▁تهرانی	-11.0695
▁توانستیم	-11.0695
▁تورهای	-11.0695
▁توریستی	-11.0695
▁توضیحی	-11.0695
▁تولیت	-11.0695
▁تولیدکننده	-11.0695
▁تونس	-11.0695
▁توییترش	-11.0695
▁تکامل	-11.0695
▁جابه	-11.0695
▁جامی	-11.0695
▁جایگزینی	-11.0695
▁جراحت	-11.0695
▁جلوه	-11.0695
▁جماهیر	-11.0695
▁جهانی،	-11.0695
▁جوجه	-11.0695
▁جوش	-11.0695
▁جوشقانی	-11.0695
▁جوی	-11.0695
▁جویی	-11.0695
▁جیغ	-11.0695
▁حاره	-11.0695
▁حاکیست	-11.0695
▁حتما	-11.0695
▁حریرچی	-11.0695
▁حمیدرضا	-11.0695
▁حواشی	-11.0695
▁خاور	-11.0695
▁خبرنامه	-11.0695
▁خشمگین	-11.0695
▁خطا	-11.0695
▁خطی	-11.0695
▁خلوتگر	-11.0695
▁خم	-11.0695
▁خوست	-11.0695
▁خوشحالی	-11.0695
▁خوشی	-11.0695
▁خیره	-11.0695
▁داد.به	-11.0695
▁داشت.منبع	-11.0695
▁دانستن	-11.0695
▁دانه	-11.0695
▁دایر	-11.0695
▁دربار	-11.0695
▁درمورد	-11.0695
▁درگذشتگان	-11.0695
▁دریافتی	-11.0695
▁دستیار	-11.0695
▁دمانس	-11.0695
▁دموکراتیک	-11.0695
▁دنیاست	-11.0695
▁دهد:	-11.0695
▁دهدمنبع	-11.0695
▁دوبی	-11.0695
▁دوتار	-11.0695
▁دوغارون	-11.0695
▁دکمه	-11.0695
▁دیاباته	-11.0695
▁دیدم	-11.0695
▁رادیوی	-11.0695
▁راستا	-11.0695
▁راستش	-11.0695
▁رامی	-11.0695
▁رانندگی	-11.0695
▁رجب	-11.0695
▁ردپای	-11.0695
▁رز	-11.0695
▁رزم	-11.0695
▁رشت	-11.0695
▁رشدی	-11.0695
▁رواج	-11.0695
▁روده	-11.0695
▁روزهایی	-11.0695
▁روشنایی	-11.0695
▁روشنفکران	-11.0695
▁رومن	-11.0695
▁ریاضیات	-11.0695
▁ریسک	-11.0695
▁ریو	-11.0695
▁زا	-11.0695
▁زانویش	-11.0695
▁زمزمه	-11.0695
▁سادیو	-11.0695
▁ساروج	-11.0695
▁سان	-11.0695
▁سرانه	-11.0695
▁سرعتش	-11.0695
▁سرما	-11.0695
▁سقط	-11.0695
▁سنبله	-11.0695
▁سهامدار	-11.0695
▁سهامی	-11.0695
▁سودان	-11.0695
▁سوگواری	-11.0695
▁سویی	-11.0695
▁سپیده	-11.0695
▁سیا	-11.0695
▁سیاستمدار	-11.0695
▁سیتسی	-11.0695
▁سینماگر	-11.0695
▁شاگرد	-11.0695
▁شایسته	-11.0695
▁شباهتی	-11.0695
▁شخصا	-11.0695
▁شدند؛	-11.0695
▁شدنی	-11.0695
▁شعری	-11.0695
▁شفاهی	-11.0695
▁شمس	-11.0695
▁شناختن	-11.0695
▁شنای	-11.0695
▁شود.اما	-11.0695
▁شورش	-11.0695
▁شوندمنبع	-11.0695
▁شویم.	-11.0695
▁شکننده	-11.0695
▁شگفتی	-11.0695
▁صدایی	-11.0695
▁صمیمی	-11.0695
▁صوت	-11.0695
▁صید	-11.0695
▁ضوابط	-11.0695
▁طبع	-11.0695
▁طزره	-11.0695
▁طلاها	-11.0695
▁طلبانه	-11.0695
▁طلوع	-11.0695
▁عادلانه	-11.0695
▁عالمی	-11.0695
▁عثمانی	-11.0695
▁عدالتی	-11.0695
▁عرفان	-11.0695
▁عروقی	-11.0695
▁عزیز	-11.0695
▁عزیزانشان	-11.0695
▁عضلانی	-11.0695
▁عفونی	-11.0695
▁علائمی	-11.0695
▁عکاسان	-11.0695
▁غافلگیرکننده	-11.0695
▁غالبا	-11.0695
▁غروب	-11.0695
▁غلامرضا	-11.0695
▁غلط	-11.0695
▁غیرمجاز	-11.0695
▁فالانژهای	-11.0695
▁فای	-11.0695
▁فراورده	-11.0695
▁فرایند	-11.0695
▁فرجام	-11.0695
▁فرحی	-11.0695
▁فرماندار	-11.0695
▁فرهنگ؛	-11.0695
▁فریب	-11.0695
▁فورا	-11.0695
▁فکاهی	-11.0695
▁قاتل	-11.0695
▁قدردانی	-11.0695
▁قدیم	-11.0695
▁قرض	-11.0695
▁قرمزها	-11.0695
▁قطرک	-11.0695
▁قوانینی	-11.0695
▁لامرد	-11.0695
▁لشگری	-11.0695
▁لطمه	-11.0695
▁لندروور	-11.0695
▁لگن	-11.0695
▁لیتر	-11.0695
▁مال	-11.0695
▁ماندگار	-11.0695
▁مانعی	-11.0695
▁مانور	-11.0695
▁مایحتاج	-11.0695
▁مایع	-11.0695
▁مبتنی	-11.0695
▁متحمل	-11.0695
▁متروکه	-11.0695
▁متضرر	-11.0695
▁متنوع	-11.0695
▁متکی	-11.0695
▁مجروح	-11.0695
▁محدودیتی	-11.0695
▁محرکه	-11.0695
▁محصولاتی	-11.0695
▁محمدحسین	-11.0695
▁مختلف،	-11.0695
▁مدافعان	-11.0695
▁مددی	-11.0695
▁مدرس	-11.0695
▁مدرنا	-11.0695
▁مدفوع	-11.0695
▁مدلسازی	-11.0695
▁مربیگری	-11.0695
▁مرضیه	-11.0695
▁مروی	-11.0695
▁مزارع	-11.0695
▁مسافرانی	-11.0695
▁مسبب	-11.0695
▁مسوولان	-11.0695
▁مسیح	-11.0695
▁مصدوم	-11.0695
▁مصر	-11.0695
▁مصمم	-11.0695
▁مطالبات	-11.0695
▁مطالبه	-11.0695
▁معاهدات	-11.0695
▁معاونان	-11.0695
▁معتقدیم	-11.0695
▁معلمان	-11.0695
▁معلول	-11.0695
▁معمار	-11.0695
▁معنوی	-11.0695
▁مغناطیسی	-11.0695
▁مفصل	-11.0695
▁مقبره	-11.0695
▁مقداری	-11.0695
▁مقدم	-11.0695
▁ملا	-11.0695
▁منحل	-11.0695
▁منسوخ	-11.0695
▁منصوری	-11.0695
▁منظره	-11.0695
▁مهمانان	-11.0695
▁مهمانی	-11.0695
▁موثری	-11.0695
▁موردی	-11.0695
▁مورل	-11.0695
▁موسی	-11.0695
▁موهای	-11.0695
▁مگان	-11.0695
▁میرسلیم	-11.0695
▁میلیاردرهای	-11.0695
▁ناآرام	-11.0695
▁ناصری	-11.0695
▁نامجو	-11.0695
▁نامداری،	-11.0695
▁ناهماهنگی	-11.0695
▁ناهید	-11.0695
▁ناپولی	-11.0695
▁نتایجی	-11.0695
▁نداد.	-11.0695
▁ندرت	-11.0695
▁نرفته	-11.0695
▁نرگس	-11.0695
▁نشانگر	-11.0695
▁نشدنی	-11.0695
▁نشستی	-11.0695
▁نفی	-11.0695
▁نهادی	-11.0695
▁نهایتا	-11.0695
▁نواحی	-11.0695
▁نوازندگان	-11.0695
▁نگفته	-11.0695
▁نیا	-11.0695
▁نیستند.	-11.0695
▁نیوکسل	-11.0695
▁هامنبع	-11.0695
▁هاپکینز	-11.0695
▁هرجا	-11.0695
▁هرکسی	-11.0695
▁هستندمنبع	-11.0695
▁هفتصد	-11.0695
▁هفده	-11.0695
▁هفدهم	-11.0695
▁همتی،	-11.0695
▁همخوانی	-11.0695
▁همسرم	-11.0695
▁هوادارانش	-11.0695
▁هوانوردی	-11.0695
▁واجد	-11.0695
▁وادار	-11.0695
▁واردکنندگان	-11.0695
▁وارنر	-11.0695
▁وثیقه	-11.0695
▁وزاری	-11.0695
▁وضوح	-11.0695
▁وگرنه	-11.0695
▁ویزای	-11.0695
▁پابند	-11.0695
▁پارسال،	-11.0695
▁پاریسی	-11.0695
▁پالائو	-11.0695
▁پایبند	-11.0695
▁پذیری	-11.0695
▁پربیننده	-11.0695
▁پرتغالی	-11.0695
▁پردازی	-11.0695
▁پروازهایش	-11.0695
▁پرویز	-11.0695
▁پسرم	-11.0695
▁پسند	-11.0695
▁پلاستیک	-11.0695
▁پناه	-11.0695
▁پوتین	-11.0695
▁پورتو	-11.0695
▁پیامک	-11.0695
▁پیرلو	-11.0695
▁پیرو	-11.0695
▁پیشگامان	-11.0695
▁پیشینه	-11.0695
▁پیک	-11.0695
▁چانه	-11.0695
▁چای	-11.0695
▁چمن	-11.0695
▁چوبی	-11.0695
▁چیست؟	-11.0695
▁ژورنال	-11.0695
▁ژیمناستیک	-11.0695
▁کارآفرین	-11.0695
▁کارایی	-11.0695
▁کارل	-11.0695
▁کارگرانی	-11.0695
▁کارگروه	-11.0695
▁کالابرگ	-11.0695
▁کام	-11.0695
▁کبد	-11.0695
▁کرد.یک	-11.0695
▁کرد؟منبع	-11.0695
▁کردند؛	-11.0695
▁کرونا:	-11.0695
▁کری	-11.0695
▁کلانتری	-11.0695
▁کلدی	-11.0695
▁کلر	-11.0695
▁کلورت	-11.0695
▁کمپانی	-11.0695
▁کمکی	-11.0695
▁کند'منبع	-11.0695
▁کنزو	-11.0695
▁کنند.آقای	-11.0695
▁کنند.او	-11.0695
▁کنند؟منبع	-11.0695
▁کنیم،	-11.0695
▁کودکانی	-11.0695
▁کیست	-11.0695
▁کیفری	-11.0695
▁کیمن	-11.0695
▁گرانتر	-11.0695
▁گردنبند	-11.0695
▁گردون	-11.0695
▁گریزمان	-11.0695
▁گشوده	-11.0695
▁گفته،	-11.0695
▁گلاسکو	-11.0695
▁گوی	-11.0695
▁گویند.	-11.0695
▁یاب	-11.0695
▁یابد؛	-11.0695
▁یادگار	-11.0695
▁یازدهمین	-11.0695
▁یوروویژن	-11.0695
▁یوسین	-11.0695
▁۱.۵	-11.0695
▁۱۳۵۰	-11.0695
▁۱۳۸۴	-11.0695
▁۱۳۹۰	-11.0695
▁۱۳۹۴	-11.0695
▁۱۸۵	-11.0695
▁۱۹۲۰	-11.0695
▁۱۹۳۰	-11.0695
▁۱۹۷۳	-11.0695
▁۲۰۱۹؛	-11.0695
▁۲۳۱	-11.0695
▁۴۵۰	-11.0695
▁۵:۱۵	-11.0695
▁۵۸	-11.0695
▁۷۹	-11.0695
▁۸۶	-11.0695
▁'افزایش	-11.203
▁.وی	-11.203
▁آبراموویچ	-11.203
▁آبه	-11.203
▁آریگو	-11.203
▁آشپزی	-11.203
▁آغازین	-11.203
▁آفرین	-11.203
▁آمریکامنبع	-11.203
▁آموز	-11.203
▁آنکارا	-11.203
▁آهسته	-11.203
▁آوازخوانان	-11.203
▁آپولو	-11.203
▁آیند.	-11.203
▁ابداع	-11.203
▁ابر	-11.203
▁ابرقدرت	-11.203
▁ابول	-11.203
▁ابی	-11.203
▁اتریوم	-11.203
▁اجتماع	-11.203
▁اجتماعی،	-11.203
▁احداث	-11.203
▁احسنی	-11.203
▁اختلالات	-11.203
▁ادوار	-11.203
▁اردکانیان	-11.203
▁اروپای	-11.203
▁اسبق	-11.203
▁است.امروز	-11.203
▁است.سعید	-11.203
▁است.طبق	-11.203
▁است.فرین	-11.203
▁است.وزیر	-11.203
▁است.پیشتر	-11.203
▁است.گفت	-11.203
▁استآقای	-11.203
▁استبر	-11.203
▁استر	-11.203
▁استرالیا،	-11.203
▁استکهلم	-11.203
▁اسراییل	-11.203
▁اسپانیا.	-11.203
▁اسکن	-11.203
▁اسکوبار	-11.203
▁اشتباهی	-11.203
▁اشخاص	-11.203
▁اصالت	-11.203
▁اصلاحی	-11.203
▁اظهاراتی	-11.203
▁اظهارنظری	-11.203
▁اعراب	-11.203
▁اعطای	-11.203
▁افزودن	-11.203
▁افسردگی	-11.203
▁اقامتگاه	-11.203
▁اقتصاددان	-11.203
▁اقیانوسیه	-11.203
▁التحصیل	-11.203
▁السد	-11.203
▁النصر	-11.203
▁الهدی	-11.203
▁الگوریتمی	-11.203
▁امتداد	-11.203
▁امیرحسین	-11.203
▁امیرعلی	-11.203
▁انستیتو	-11.203
▁انستیتوی	-11.203
▁انضباطی	-11.203
▁انکار	-11.203
▁انگیزی	-11.203
▁اوربیتر	-11.203
▁اوله	-11.203
▁اولی	-11.203
▁ای:	-11.203
▁ایرانایران،	-11.203
▁ایراندر	-11.203
▁ایستاد	-11.203
▁ایش	-11.203
▁باثبات	-11.203
▁باج	-11.203
▁باز؛	-11.203
▁بازتاب	-11.203
▁بازداشتی	-11.203
▁بازدهی	-11.203
▁بازدیدکنندگان	-11.203
▁بازپرداخت	-11.203
▁باشد.در	-11.203
▁باغچه	-11.203
▁بالستیک	-11.203
▁بانان	-11.203
▁بانو	-11.203
▁بانکهای	-11.203
▁باورند	-11.203
▁ببیند	-11.203
▁بتازگی	-11.203
▁بخشیدن	-11.203
▁بخواهد	-11.203
▁بخواهید	-11.203
▁بدنش	-11.203
▁برجام،	-11.203
▁برجامی	-11.203
▁برخورداری	-11.203
▁برساند	-11.203
▁برساند.	-11.203
▁برنمی	-11.203
▁برگزارکننده	-11.203
▁بریت	-11.203
▁بریتانیامنبع	-11.203
▁بزنم.	-11.203
▁بسر	-11.203
▁بفروشد	-11.203
▁بلایندرز	-11.203
▁بلک	-11.203
▁بنجامین	-11.203
▁بهینه	-11.203
▁بود.بیشتر	-11.203
▁بوزمن	-11.203
▁بوق	-11.203
▁بوقت	-11.203
▁بکشند	-11.203
▁بگیران	-11.203
▁بیافتد	-11.203
▁بیتار	-11.203
▁بیدار	-11.203
▁بینندگان	-11.203
▁تابحال	-11.203
▁تار	-11.203
▁تام	-11.203
▁تبریک	-11.203
▁تبصره	-11.203
▁تبعه	-11.203
▁تحریریه	-11.203
▁تحولی	-11.203
▁ترامپ،	-11.203
▁ترتیبات	-11.203
▁ترکی	-11.203
▁تسریع	-11.203
▁تسلط	-11.203
▁تشویقی	-11.203
▁تشییع	-11.203
▁تصفیه	-11.203
▁تصویربرداری	-11.203
▁تضاد	-11.203
▁تعدد	-11.203
▁تفاوتی	-11.203
▁تفکیک	-11.203
▁تقریبی	-11.203
▁تقوی	-11.203
▁تلویحا	-11.203
▁تندرو	-11.203
▁تنگنای	-11.203
▁تنیده	-11.203
▁توبیاس	-11.203
▁توفیقی	-11.203
▁تومان،	-11.203
▁تکنیکی	-11.203
▁جاسوس	-11.203
▁جانب	-11.203
▁جذابیت	-11.203
▁جشنی	-11.203
▁جفت	-11.203
▁جنگند	-11.203
▁جهان:	-11.203
▁جهان؛	-11.203
▁جهانمنبع	-11.203
▁جهانیان	-11.203
▁جهرمی	-11.203
▁جیمزباند	-11.203
▁جیمی	-11.203
▁حاج	-11.203
▁حالش	-11.203
▁حباب	-11.203
▁حدادی	-11.203
▁حسرت	-11.203
▁حول	-11.203
▁خالف	-11.203
▁خالقی	-11.203
▁خرند.	-11.203
▁خواستیم	-11.203
▁خوانند	-11.203
▁خورد؛	-11.203
▁خوزستان،	-11.203
▁دات	-11.203
▁داد.در	-11.203
▁داد،	-11.203
▁دادرسی	-11.203
▁دارد.او	-11.203
▁دارد؟منبع	-11.203
▁دارداین	-11.203
▁داروین	-11.203
▁دانشگر	-11.203
▁دانمارکی	-11.203
▁دانند؛	-11.203
▁دبیرستان	-11.203
▁دخل	-11.203
▁درآمد.	-11.203
▁درشت	-11.203
▁درصدد	-11.203
▁درو	-11.203
▁دریچه	-11.203
▁دزدی	-11.203
▁دستان	-11.203
▁دل،	-11.203
▁دلار،	-11.203
▁دلیلش	-11.203
▁دهد.در	-11.203
▁دهکده	-11.203
▁دهی	-11.203
▁دیدگی	-11.203
▁دیوانه	-11.203
▁دیونتی	-11.203
▁ذائقه	-11.203
▁ذیبخش	-11.203
▁ر	-11.203
▁راجع	-11.203
▁راپینو	-11.203
▁ربطی	-11.203
▁رساندند.	-11.203
▁رصدخانه	-11.203
▁رفت،	-11.203
▁رفتمنبع	-11.203
▁رقبای	-11.203
▁رهایی	-11.203
▁روانشناسی	-11.203
▁روحی	-11.203
▁رپ	-11.203
▁رکوردها	-11.203
▁زادگاه	-11.203
▁زازی	-11.203
▁زاکانی	-11.203
▁زمانه	-11.203
▁زندانیانی	-11.203
▁زننده	-11.203
▁زورف	-11.203
▁زیارتی	-11.203
▁زیرزمینی	-11.203
▁زیمبابوه	-11.203
▁زین	-11.203
▁ساختارهای	-11.203
▁سادگی	-11.203
▁سازان	-11.203
▁سازوکار	-11.203
▁سامان	-11.203
▁سایرین	-11.203
▁سجاد	-11.203
▁سرگردان	-11.203
▁سریعتر	-11.203
▁سزار	-11.203
▁سفت	-11.203
▁سفیددره	-11.203
▁سنبل	-11.203
▁سنگی	-11.203
▁سنگینی	-11.203
▁سهراب	-11.203
▁سوشانت	-11.203
▁سوق	-11.203
▁سولشر	-11.203
▁سویا	-11.203
▁سیاسی،	-11.203
▁شاعری	-11.203
▁شایعات	-11.203
▁شجریان:	-11.203
▁شد.خانم	-11.203
▁شدند.در	-11.203
▁شفیلد	-11.203
▁شنوایی	-11.203
▁شهرام	-11.203
▁شود.ایران	-11.203
▁شوق	-11.203
▁شوند.منبع	-11.203
▁شکنی	-11.203
▁شکوفایی	-11.203
▁شکوه	-11.203
▁شیفته	-11.203
▁صرفنظر	-11.203
▁صفحاتی	-11.203
▁ضریب	-11.203
▁طاقت	-11.203
▁طبیعتا	-11.203
▁طغیان	-11.203
▁طناب	-11.203
▁طیفی	-11.203
▁ظریف،	-11.203
▁عربستان،	-11.203
▁عروس	-11.203
▁عزت	-11.203
▁عصب	-11.203
▁عظیمی	-11.203
▁علل	-11.203
▁عمودی	-11.203
▁عمیقا	-11.203
▁عناصر	-11.203
▁عواملی	-11.203
▁عیسی	-11.203
▁غرور	-11.203
▁غیبت	-11.203
▁غیرعضو	-11.203
▁غیرواقعی	-11.203
▁فاتح	-11.203
▁فاضلی	-11.203
▁فتحی	-11.203
▁فحش	-11.203
▁فرامرز	-11.203
▁فرانسیس	-11.203
▁فراگیری	-11.203
▁فرسایشی	-11.203
▁فرندز	-11.203
▁فروزش،	-11.203
▁فشارها	-11.203
▁فشاری	-11.203
▁فضانوردی	-11.203
▁فضاپیمای	-11.203
▁فضل	-11.203
▁فعالی	-11.203
▁فهم	-11.203
▁فهیم	-11.203
▁فوتبال:	-11.203
▁فکرش	-11.203
▁فیات	-11.203
▁فیلمسازی	-11.203
▁قاعدتا	-11.203
▁قاعده	-11.203
▁قحطی	-11.203
▁قرائت	-11.203
▁قره	-11.203
▁قرون	-11.203
▁قند	-11.203
▁قورباغه	-11.203
▁قیمتهای	-11.203
▁لابراتوار	-11.203
▁لباسی	-11.203
▁لبخندها	-11.203
▁لحظاتی	-11.203
▁لحن	-11.203
▁لسترسیتی	-11.203
▁لطفی	-11.203
▁لمسی	-11.203
▁لوایح	-11.203
▁لوکا	-11.203
▁لویه	-11.203
▁لیبی	-11.203
▁لیسانس	-11.203
▁لیون	-11.203
▁مائوریتسیو	-11.203
▁مادرید،	-11.203
▁مار	-11.203
▁مارادونا،	-11.203
▁ماست	-11.203
▁مانش	-11.203
▁ماهها	-11.203
▁متان	-11.203
▁متصل	-11.203
▁متفرق	-11.203
▁متلاشی	-11.203
▁متنی	-11.203
▁مجامع	-11.203
▁مجتبی	-11.203
▁مجتمع	-11.203
▁مجریان	-11.203
▁محاسباتی	-11.203
▁محافل	-11.203
▁محدودی	-11.203
▁محفوظ	-11.203
▁محو	-11.203
▁مخاطب	-11.203
▁مدیربرنامه	-11.203
▁مذکور	-11.203
▁مرادی	-11.203
▁مزارشریف	-11.203
▁مستقیمی	-11.203
▁مسمومیت	-11.203
▁مسن	-11.203
▁مشتاق	-11.203
▁مشخصه	-11.203
▁معتبری	-11.203
▁معلولیت	-11.203
▁مغولستان	-11.203
▁مقامی	-11.203
▁ملاحظات	-11.203
▁مناره	-11.203
▁مناقشه	-11.203
▁منهتن	-11.203
▁مهره	-11.203
▁مهندسی	-11.203
▁مو	-11.203
▁موتورز	-11.203
▁موردش	-11.203
▁موعد	-11.203
▁موفقیتی	-11.203
▁موی	-11.203
▁مویز	-11.203
▁مکالمات	-11.203
▁مکس	-11.203
▁میادین	-11.203
▁میرزا	-11.203
▁میرضیایف	-11.203
▁میشل	-11.203
▁ناامید	-11.203
▁ناراحتی	-11.203
▁ناراضی	-11.203
▁نامبرده	-11.203
▁نانوایی	-11.203
▁نحو	-11.203
▁نداد	-11.203
▁نشدند	-11.203
▁نشستن	-11.203
▁نعلی	-11.203
▁نمود	-11.203
▁نهفته	-11.203
▁نو،	-11.203
▁نوراللهی	-11.203
▁نوردی	-11.203
▁نوشت:	-11.203
▁نوه	-11.203
▁نپال	-11.203
▁نکردند	-11.203
▁نکنیم	-11.203
▁نیازمندان	-11.203
▁نیست.به	-11.203
▁نیکولاس	-11.203
▁هاله	-11.203
▁هالپ	-11.203
▁هدست	-11.203
▁هرمز	-11.203
▁هرکس	-11.203
▁هریس	-11.203
▁هریسون	-11.203
▁هستند.منبع	-11.203
▁هستیم؛	-11.203
▁هشدارهای	-11.203
▁همبستگی	-11.203
▁هوشی	-11.203
▁هی	-11.203
▁هیولای	-11.203
▁وافغانستان	-11.203
▁وحشت	-11.203
▁ورزشکاری	-11.203
▁وزرا	-11.203
▁وزنه	-11.203
▁وصول	-11.203
▁وقفی	-11.203
▁ولد	-11.203
▁ونگر	-11.203
▁وگاس	-11.203
▁وگوی	-11.203
▁ویرانی	-11.203
▁ویرایش	-11.203
▁پاختاکور	-11.203
▁پادکست	-11.203
▁پارچه	-11.203
▁پافشاری	-11.203
▁پاهای	-11.203
▁پاکبان	-11.203
▁پذیره	-11.203
▁پراکنی	-11.203
▁پرتو	-11.203
▁پرجمعیت	-11.203
▁پردرآمدترین	-11.203
▁پرسند	-11.203
▁پستانداران	-11.203
▁پلکانی	-11.203
▁پناهنده	-11.203
▁پنجشیر	-11.203
▁پهپاد	-11.203
▁پوستان	-11.203
▁پوشان	-11.203
▁پوشیدن	-11.203
▁پولها	-11.203
▁پژو	-11.203
▁پیانو	-11.203
▁پیدایش	-11.203
▁پیوست.	-11.203
▁چشمی	-11.203
▁چمپیونشیپ	-11.203
▁چنگیز	-11.203
▁چهارراه	-11.203
▁چپمن	-11.203
▁چیزهای	-11.203
▁چیزهایی	-11.203
▁چین،	-11.203
▁چینمنبع	-11.203
▁ژئوپلیتیک	-11.203
▁ژنوم	-11.203
▁کارزارهای	-11.203
▁کارفرما	-11.203
▁کارلو	-11.203
▁کارمندانش	-11.203
▁کارهایش	-11.203
▁کارولینای	-11.203
▁کالایی	-11.203
▁کامبوج	-11.203
▁کامپیوترها	-11.203
▁کانل	-11.203
▁کرد'منبع	-11.203
▁کرد.با	-11.203
▁کرد.پس	-11.203
▁کردها	-11.203
▁کروری	-11.203
▁کرونایی	-11.203
▁کشانده	-11.203
▁کشورشان	-11.203
▁کلئوپاترا	-11.203
▁کلمه	-11.203
▁کلیت	-11.203
▁کمابیش	-11.203
▁کنشگران	-11.203
▁کنند.بیشتر	-11.203
▁کنیممنبع	-11.203
▁کومان	-11.203
▁کوچه	-11.203
▁کپسول	-11.203
▁کیسه	-11.203
▁کیفرخواست	-11.203
▁کیمیایی	-11.203
▁گال	-11.203
▁گدار	-11.203
▁گرافیکی	-11.203
▁گرفتمنبع	-11.203
▁گرفتگی	-11.203
▁گرما	-11.203
▁گریگوریان	-11.203
▁گفتم	-11.203
▁گفتند.	-11.203
▁گلدار	-11.203
▁گوهرشاد	-11.203
▁گویم	-11.203
▁گیرد،	-11.203
▁گیل	-11.203
▁یافت؛	-11.203
▁یافتمنبع	-11.203
▁یخچال	-11.203
▁یوان	-11.203
▁یوتیوب	-11.203
▁یونسی	-11.203
▁۱۱۰	-11.203
▁۱۹۵۸	-11.203
▁۱۹۷۵	-11.203
▁۱۹۸۹	-11.203
▁۱۹۹۳	-11.203
▁۱۹۹۵	-11.203
▁۱۹۹۶	-11.203
▁۱۹۹۷	-11.203
▁۲۰۲۱؛	-11.203
▁۲۰۲۳	-11.203
▁۲۸۵	-11.203
▁۹۸؛	-11.203
▁'برای	-11.3571
▁'سنگر	-11.3571
▁'یک	-11.3571
▁(آلمان)،	-11.3571
▁(آمریکا)	-11.3571
▁(استرالیا)،	-11.3571
▁(اسپانیا)،	-11.3571
▁(ایتالیا)	-11.3571
▁(یونان)،	-11.3571
▁)	-11.3571
▁آرامی	-11.3571
▁آرایشگاه	-11.3571
▁آسه	-11.3571
▁آسپرژیلوس	-11.3571
▁آشکاری	-11.3571
▁آلبر	-11.3571
▁آلمان.	-11.3571
▁آلمن	-11.3571
▁آلود	-11.3571
▁آمریکاییان	-11.3571
▁آموخته	-11.3571
▁آمیخته	-11.3571
▁آنتی	-11.3571
▁آندرسکو	-11.3571
▁آنرا	-11.3571
▁آنری	-11.3571
▁آنهم	-11.3571
▁آنگلا	-11.3571
▁آهو	-11.3571
▁آورد.او	-11.3571
▁آورده.	-11.3571
▁آپارتمان	-11.3571
▁آیس	-11.3571
▁آیفون	-11.3571
▁ابدی	-11.3571
▁ابرخشکسالی	-11.3571
▁ابوالفضل	-11.3571
▁ابولا	-11.3571
▁اتهاماتی	-11.3571
▁اجراهای	-11.3571
▁احوال	-11.3571
▁ار	-11.3571
▁ارواح	-11.3571
▁ارومیه	-11.3571
▁ازسرگیری	-11.3571
▁اساسا	-11.3571
▁است.آمریکا	-11.3571
▁است.روابط	-11.3571
▁است.سیاوش	-11.3571
▁است.شاخص	-11.3571
▁است.فدرر	-11.3571
▁است.پوریا	-11.3571
▁است.کارشناسان	-11.3571
▁است.کسری	-11.3571
▁استبه	-11.3571
▁استثنایی	-11.3571
▁استرداد	-11.3571
▁استعدادهای	-11.3571
▁استعفاهای	-11.3571
▁استفانو	-11.3571
▁استفانونس	-11.3571
▁استوزارت	-11.3571
▁استیو	-11.3571
▁اسرارآمیز	-11.3571
▁اسعدی	-11.3571
▁اسنادی	-11.3571
▁اسنپ	-11.3571
▁اسپایدرز	-11.3571
▁اسکان	-11.3571
▁اسکرین	-11.3571
▁اسید	-11.3571
▁اصطلاحا	-11.3571
▁اصلاحیه	-11.3571
▁اصولا	-11.3571
▁اعتباری	-11.3571
▁اعطا	-11.3571
▁افتاد؛	-11.3571
▁افزاید	-11.3571
▁افزودند	-11.3571
▁افزون	-11.3571
▁افغانستان:	-11.3571
▁افغانستان؛	-11.3571
▁افغانی	-11.3571
▁افول	-11.3571
▁اقتصاددانان	-11.3571
▁اقداماتش	-11.3571
▁الاجرا	-11.3571
▁الاکلنگ	-11.3571
▁الحسنه	-11.3571
▁الزامی	-11.3571
▁الکلی	-11.3571
▁امروزی	-11.3571
▁امسال،	-11.3571
▁امپراتور	-11.3571
▁امپراطوری	-11.3571
▁امیدهای	-11.3571
▁امیدوارکننده	-11.3571
▁امینی	-11.3571
▁انباشته	-11.3571
▁انتصاب	-11.3571
▁انتقام	-11.3571
▁انحصاری	-11.3571
▁اند.اما	-11.3571
▁اند.خبرگزاری	-11.3571
▁اندرکار	-11.3571
▁انسانها	-11.3571
▁انعطاف	-11.3571
▁اهمیتی	-11.3571
▁اورشلیم	-11.3571
▁اولش	-11.3571
▁اون	-11.3571
▁اویغور	-11.3571
▁اپراتورهای	-11.3571
▁اکبری	-11.3571
▁ایزنر	-11.3571
▁اینجاست	-11.3571
▁اینستکس	-11.3571
▁اینصورت	-11.3571
▁اینفانتینو	-11.3571
▁بابایی	-11.3571
▁باخ	-11.3571
▁باخت.	-11.3571
▁بارانی	-11.3571
▁بارچا	-11.3571
▁بازارهایی	-11.3571
▁بازاری	-11.3571
▁بازجویی	-11.3571
▁بازنده	-11.3571
▁بازنشر	-11.3571
▁بازیافت	-11.3571
▁بازیکنانش	-11.3571
▁باومگارتنر	-11.3571
▁باک	-11.3571
▁باکتری	-11.3571
▁بایر	-11.3571
▁ببرد.	-11.3571
▁بخشیده	-11.3571
▁بدانید	-11.3571
▁بدنم	-11.3571
▁برانگیخت.	-11.3571
▁برایانت	-11.3571
▁برجا	-11.3571
▁برجام؛	-11.3571
▁برجای	-11.3571
▁برملا	-11.3571
▁برهه	-11.3571
▁بروی	-11.3571
▁برگر	-11.3571
▁برگرداندن	-11.3571
▁برگردد	-11.3571
▁برگشتی	-11.3571
▁برگه	-11.3571
▁بریستول	-11.3571
▁بزاق	-11.3571
▁بزوس	-11.3571
▁بستگان	-11.3571
▁بسفر	-11.3571
▁بصری	-11.3571
▁بفهمد	-11.3571
▁بل	-11.3571
▁بلندترین	-11.3571
▁بمبگذاری	-11.3571
▁بناهای	-11.3571
▁بو	-11.3571
▁بود؟منبع	-11.3571
▁بوددر	-11.3571
▁بودند.این	-11.3571
▁بور	-11.3571
▁بورگارل	-11.3571
▁بوگاتی	-11.3571
▁بگذارم.	-11.3571
▁بگوید	-11.3571
▁بگیرم	-11.3571
▁بگیرید	-11.3571
▁بیانسه	-11.3571
▁بینند	-11.3571
▁بیولوژیک	-11.3571
▁تأخیر	-11.3571
▁تأسیس	-11.3571
▁تاجگردون	-11.3571
▁تاجیکی	-11.3571
▁تاکادا	-11.3571
▁تای	-11.3571
▁تبلت	-11.3571
▁تجربیات	-11.3571
▁تجمعی	-11.3571
▁تخیل	-11.3571
▁تراکم	-11.3571
▁ترددهای	-11.3571
▁ترقی	-11.3571
▁تزئین	-11.3571
▁تسلی	-11.3571
▁تسلیحات	-11.3571
▁تسویه	-11.3571
▁تشویش	-11.3571
▁تصرف	-11.3571
▁تصریح	-11.3571
▁تعارف	-11.3571
▁تمامیت	-11.3571
▁تملک	-11.3571
▁تنزل	-11.3571
▁توازن	-11.3571
▁تورنمنتی	-11.3571
▁تورین	-11.3571
▁توس	-11.3571
▁توسان	-11.3571
▁تکثیر	-11.3571
▁تیتر	-11.3571
▁تیموری	-11.3571
▁ثالث	-11.3571
▁جاغوری	-11.3571
▁جانز	-11.3571
▁جانش	-11.3571
▁جانوران	-11.3571
▁جراح	-11.3571
▁جراحان	-11.3571
▁جرج	-11.3571
▁جسم	-11.3571
▁جمعه،	-11.3571
▁جمهوریت	-11.3571
▁جناح	-11.3571
▁جنازه	-11.3571
▁جنب	-11.3571
▁جهشی	-11.3571
▁جوانا	-11.3571
▁جوخه	-11.3571
▁جور	-11.3571
▁جِزیرو	-11.3571
▁جیبش	-11.3571
▁جیبوتی	-11.3571
▁جینجی	-11.3571
▁جیک	-11.3571
▁حاتمی	-11.3571
▁حالم	-11.3571
▁حجت	-11.3571
▁حرارت	-11.3571
▁حراست	-11.3571
▁حلق	-11.3571
▁حوض	-11.3571
▁حکمت	-11.3571
▁حکمرانی	-11.3571
▁حکمیت	-11.3571
▁خاشقجی	-11.3571
▁خاشقچی	-11.3571
▁خاندان	-11.3571
▁خر	-11.3571
▁خرمشهر	-11.3571
▁خشکبار	-11.3571
▁خضریان	-11.3571
▁خطری	-11.3571
▁خفیفی	-11.3571
▁خندان	-11.3571
▁خوابیدن	-11.3571
▁خودروهایی	-11.3571
▁خودکفایی	-11.3571
▁خوشبخت	-11.3571
▁خوشبختانه	-11.3571
▁خوشبینی	-11.3571
▁خیابانی،	-11.3571
▁خیام	-11.3571
▁داد.این	-11.3571
▁داد.منبع	-11.3571
▁دادخواهی	-11.3571
▁دارد.در	-11.3571
▁داشت.در	-11.3571
▁داشتند،	-11.3571
▁دانا	-11.3571
▁دانان	-11.3571
▁دانستند.	-11.3571
▁داوید	-11.3571
▁داوینچی	-11.3571
▁دایی	-11.3571
▁دخیل	-11.3571
▁درآمدها	-11.3571
▁درآوردن	-11.3571
▁دراماتیک	-11.3571
▁دربند	-11.3571
▁درخصوص	-11.3571
▁دردسرهای	-11.3571
▁درسال	-11.3571
▁درواقع	-11.3571
▁دریانوردی	-11.3571
▁دستش	-11.3571
▁دستمزدی	-11.3571
▁دسمورژه	-11.3571
▁دفاتر	-11.3571
▁دلخواه	-11.3571
▁دمام	-11.3571
▁دهد.این	-11.3571
▁دهند.این	-11.3571
▁دهندمنبع	-11.3571
▁دوجانبه	-11.3571
▁دوخته	-11.3571
▁دورانگو	-11.3571
▁دولتش	-11.3571
▁دولتمند	-11.3571
▁دومی	-11.3571
▁دوی	-11.3571
▁دویدن	-11.3571
▁دیدارش	-11.3571
▁دیوارهای	-11.3571
▁دیواری	-11.3571
▁را.	-11.3571
▁رابعه	-11.3571
▁راندن	-11.3571
▁راههای	-11.3571
▁ربایی	-11.3571
▁ربکا	-11.3571
▁رزرو	-11.3571
▁رزماری	-11.3571
▁رزمی	-11.3571
▁رسمی،	-11.3571
▁رسیدند.	-11.3571
▁رسیده،	-11.3571
▁رضاوند	-11.3571
▁رطوبت	-11.3571
▁رغبت	-11.3571
▁رفتم	-11.3571
▁رفراندوم	-11.3571
▁رفینیتیو	-11.3571
▁رقبا	-11.3571
▁رو،	-11.3571
▁روانپزشکی	-11.3571
▁روانچی	-11.3571
▁رودکی	-11.3571
▁رومانی	-11.3571
▁رومی	-11.3571
▁روند.	-11.3571
▁روندهای	-11.3571
▁رویدادها	-11.3571
▁رویز	-11.3571
▁رکوردشکنی	-11.3571
▁رگبار	-11.3571
▁ریاستش	-11.3571
▁ریلی	-11.3571
▁زابل	-11.3571
▁زدگان	-11.3571
▁زم	-11.3571
▁زن:	-11.3571
▁زهرامنبع	-11.3571
▁زودرس	-11.3571
▁زیبای	-11.3571
▁ساخت.	-11.3571
▁ساختگی	-11.3571
▁ساسانی	-11.3571
▁سانجی	-11.3571
▁ساک	-11.3571
▁ساید	-11.3571
▁ساینس	-11.3571
▁سبکی	-11.3571
▁سبیتار	-11.3571
▁سرازیر	-11.3571
▁سربازی	-11.3571
▁سربسته	-11.3571
▁سردسته	-11.3571
▁سرسختانه	-11.3571
▁سرگذشت	-11.3571
▁سفیران	-11.3571
▁سل	-11.3571
▁سلیمان	-11.3571
▁سمرقند	-11.3571
▁سمنان	-11.3571
▁سندرم	-11.3571
▁سوئیس)،	-11.3571
▁سوت	-11.3571
▁سوزان	-11.3571
▁سومی	-11.3571
▁سوژه	-11.3571
▁سوکابومی	-11.3571
▁سوگوار	-11.3571
▁سپاه'	-11.3571
▁سکان	-11.3571
▁سی.	-11.3571
▁سیاهان	-11.3571
▁سیاهچاله	-11.3571
▁سیاهی	-11.3571
▁سیب	-11.3571
▁سیدل	-11.3571
▁سیرو	-11.3571
▁سیروس	-11.3571
▁سیگار	-11.3571
▁شاپووالوف	-11.3571
▁شخصیتی	-11.3571
▁شد.همزمان	-11.3571
▁شداین	-11.3571
▁شددر	-11.3571
▁شدرئیس	-11.3571
▁شدند.به	-11.3571
▁شرطی	-11.3571
▁شرمنده	-11.3571
▁شرکتها	-11.3571
▁شعارهایی	-11.3571
▁شفر	-11.3571
▁شفق	-11.3571
▁شمش	-11.3571
▁شناسد	-11.3571
▁شناورهای	-11.3571
▁شهادت	-11.3571
▁شهرتی	-11.3571
▁شهرکرد	-11.3571
▁شهلا	-11.3571
▁شود.بر	-11.3571
▁شوراهای	-11.3571
▁شوند.این	-11.3571
▁شوهر	-11.3571
▁شوهرش	-11.3571
▁شوکت	-11.3571
▁شکارچیان	-11.3571
▁شکافی	-11.3571
▁شکایتی	-11.3571
▁شکم	-11.3571
▁شکی	-11.3571
▁شیب	-11.3571
▁شیرجه	-11.3571
▁صحبتی	-11.3571
▁صحرا	-11.3571
▁صنف	-11.3571
▁صورتش	-11.3571
▁ضیا	-11.3571
▁طاعون	-11.3571
▁طباطبایی	-11.3571
▁طرفین	-11.3571
▁عاری	-11.3571
▁عالیشاه	-11.3571
▁عامیانه	-11.3571
▁عبارتی	-11.3571
▁عجیبی	-11.3571
▁عراق،	-11.3571
▁علیزاده	-11.3571
▁عمد	-11.3571
▁عنابی	-11.3571
▁عینی	-11.3571
▁غلات	-11.3571
▁غلیظ	-11.3571
▁غیرانسانی	-11.3571
▁غیردولتی	-11.3571
▁غیرعادی	-11.3571
▁غیرمنتظره	-11.3571
▁فال	-11.3571
▁فجر	-11.3571
▁فرانسه،	-11.3571
▁فراپادمانی	-11.3571
▁فرزندانشان	-11.3571
▁فرستادن	-11.3571
▁فرشته	-11.3571
▁فرهمند	-11.3571
▁فرهنگ،	-11.3571
▁فرهنگستان	-11.3571
▁فرودین	-11.3571
▁فروکش	-11.3571
▁فریتز	-11.3571
▁فشارهای	-11.3571
▁فقدان	-11.3571
▁فقیه	-11.3571
▁فلامینگوها	-11.3571
▁فهرستی	-11.3571
▁فورت	-11.3571
▁فورمن	-11.3571
▁فوریآمار	-11.3571
▁فونینی	-11.3571
▁فک	-11.3571
▁فیلیمو	-11.3571
▁قاطعانه	-11.3571
▁قتالی	-11.3571
▁قزاق	-11.3571
▁قصر	-11.3571
▁قفسه	-11.3571
▁قمقمه	-11.3571
▁قندهار	-11.3571
▁قهوه	-11.3571
▁قوز	-11.3571
▁قومندان	-11.3571
▁لاتزیو	-11.3571
▁لاخ	-11.3571
▁لبه	-11.3571
▁لرزه	-11.3571
▁لشکری	-11.3571
▁لغت	-11.3571
▁لنست	-11.3571
▁لهستانی	-11.3571
▁لورکوزن	-11.3571
▁لومامبا	-11.3571
▁لک	-11.3571
▁لیور	-11.3571
▁لیورپولی	-11.3571
▁ماجرایی	-11.3571
▁مارادونای	-11.3571
▁ماراکانا	-11.3571
▁مارسیال	-11.3571
▁ماری	-11.3571
▁ماساچوست	-11.3571
▁مافی	-11.3571
▁ماندند	-11.3571
▁ماندنی	-11.3571
▁مانند	-11.3571
▁مانوئل	-11.3571
▁مانوس	-11.3571
▁مانچینی	-11.3571
▁ماه،	-11.3571
▁ماهیچه	-11.3571
▁مبادرت	-11.3571
▁مبارز	-11.3571
▁مبارزات	-11.3571
▁مبارکه	-11.3571
▁مبلغی	-11.3571
▁متخلف	-11.3571
▁متخلفان	-11.3571
▁متغیرهای	-11.3571
▁متمایز	-11.3571
▁متون	-11.3571
▁مثل	-11.3571
▁مجبورند	-11.3571
▁مجرم	-11.3571
▁محاصره	-11.3571
▁محبوس	-11.3571
▁محتوی	-11.3571
▁محسوسی	-11.3571
▁محصولاتش	-11.3571
▁محوریت	-11.3571
▁محی	-11.3571
▁مخابراتی	-11.3571
▁مخابره	-11.3571
▁مختاری	-11.3571
▁مدارکی	-11.3571
▁مذهب	-11.3571
▁مراجعت	-11.3571
▁مربع	-11.3571
▁مرتفع	-11.3571
▁مردانی	-11.3571
▁مردمان	-11.3571
▁مردود	-11.3571
▁مستاجر	-11.3571
▁مستضعفان	-11.3571
▁مسموم	-11.3571
▁مشاوره	-11.3571
▁مصداق	-11.3571
▁معالجه	-11.3571
▁معطل	-11.3571
▁معطوف	-11.3571
▁معلولان	-11.3571
▁معما	-11.3571
▁معکوس	-11.3571
▁ملاحظه	-11.3571
▁ملخ	-11.3571
▁ملزم	-11.3571
▁ممنوعه	-11.3571
▁منبعی	-11.3571
▁منتسب	-11.3571
▁منتشرشده	-11.3571
▁منحصرا	-11.3571
▁منصوریان	-11.3571
▁منفجره	-11.3571
▁منقبض	-11.3571
▁منقل	-11.3571
▁منک	-11.3571
▁مهران	-11.3571
▁مهناز	-11.3571
▁موافقتنامه	-11.3571
▁مورگان	-11.3571
▁موری	-11.3571
▁موضوعاتی	-11.3571
▁مژگان	-11.3571
▁مکارمی	-11.3571
▁میدل	-11.3571
▁میلادی،	-11.3571
▁میلان،	-11.3571
▁میلیاردی	-11.3571
▁مینسک	-11.3571
▁میوند	-11.3571
▁ناامیدکننده	-11.3571
▁نارنجی،	-11.3571
▁نامعلوم	-11.3571
▁ناو	-11.3571
▁ناگزیر	-11.3571
▁نایا	-11.3571
▁نایاب	-11.3571
▁نباشند	-11.3571
▁نجیب	-11.3571
▁نخبه	-11.3571
▁ندارد.آقای	-11.3571
▁نس	-11.3571
▁نسترن	-11.3571
▁نسلی	-11.3571
▁نسیم	-11.3571
▁نهادها	-11.3571
▁نوآورانه	-11.3571
▁نورمحمدوف	-11.3571
▁نوزدهمین	-11.3571
▁نوشته:	-11.3571
▁نکند.	-11.3571
▁نکنید.	-11.3571
▁نگارش	-11.3571
▁نگیرد	-11.3571
▁نیابد	-11.3571
▁نیازمندی	-11.3571
▁نیاورد	-11.3571
▁نیستیم	-11.3571
▁نیچر	-11.3571
▁نیکل	-11.3571
▁نیکپا	-11.3571
▁نیکی	-11.3571
▁هاروی	-11.3571
▁هاسل	-11.3571
▁هاشیموتو	-11.3571
▁هالیفیلد	-11.3571
▁هانا	-11.3571
▁هجدهمین	-11.3571
▁هدفی	-11.3571
▁هروی	-11.3571
▁هستند.در	-11.3571
▁هستند.شیدا	-11.3571
▁هستند؟منبع	-11.3571
▁هلندی	-11.3571
▁هلیوس	-11.3571
▁هم،	-11.3571
▁هک	-11.3571
▁هیچکدام	-11.3571
▁واحده	-11.3571
▁واپسین	-11.3571
▁واکسنی	-11.3571
▁واگیر	-11.3571
▁وایکینگ	-11.3571
▁ورای	-11.3571
▁ورزند.	-11.3571
▁ورشو	-11.3571
▁وزنی	-11.3571
▁ومبلی	-11.3571
▁ونیزمنبع	-11.3571
▁ووس	-11.3571
▁وکلای	-11.3571
▁ویدیوهایی	-11.3571
▁ویل	-11.3571
▁پ	-11.3571
▁پابجی	-11.3571
▁پادمان	-11.3571
▁پاراگوئه	-11.3571
▁پاره	-11.3571
▁پاسگاه	-11.3571
▁پدرم	-11.3571
▁پرت	-11.3571
▁پرحاشیه	-11.3571
▁پرخطر	-11.3571
▁پرسیویرنس	-11.3571
▁پرشمار	-11.3571
▁پرهام	-11.3571
▁پروست	-11.3571
▁پریشی	-11.3571
▁پستاندار	-11.3571
▁پنجاهمین	-11.3571
▁پنس	-11.3571
▁پهنه	-11.3571
▁پوسته	-11.3571
▁پژمان	-11.3571
▁پیرانشهر	-11.3571
▁پیروی	-11.3571
▁پیشانی	-11.3571
▁پیشاپیش	-11.3571
▁پیمانکاران	-11.3571
▁پیمانکاری	-11.3571
▁پیموده	-11.3571
▁پینک	-11.3571
▁چادر	-11.3571
▁چارلز	-11.3571
▁چاق	-11.3571
▁چاپک	-11.3571
▁چراکه	-11.3571
▁چرایی	-11.3571
▁چرخش	-11.3571
▁چلسی،	-11.3571
▁چندمین	-11.3571
▁چهارشنبه،	-11.3571
▁چیدمان	-11.3571
▁چیفتن	-11.3571
▁چین؛	-11.3571
▁ژئوفیزیک	-11.3571
▁ژنشنگ	-11.3571
▁ژونگ	-11.3571
▁کاتالان	-11.3571
▁کارتر	-11.3571
▁کارم	-11.3571
▁کارون	-11.3571
▁کاسموس	-11.3571
▁کاشفان	-11.3571
▁کامیابی	-11.3571
▁کتابش	-11.3571
▁کتبی	-11.3571
▁کتی	-11.3571
▁کثیر	-11.3571
▁کدامیک	-11.3571
▁کر	-11.3571
▁کرد.بیشتر	-11.3571
▁کرددر	-11.3571
▁کردند.اما	-11.3571
▁کردند.او	-11.3571
▁کردند،	-11.3571
▁کردنشین	-11.3571
▁کریستی	-11.3571
▁کریمی،	-11.3571
▁کشاند	-11.3571
▁کشند	-11.3571
▁کلا	-11.3571
▁کلوروکوئین	-11.3571
▁کلیپ	-11.3571
▁کناری	-11.3571
▁کند؟	-11.3571
▁کنده	-11.3571
▁کنسول	-11.3571
▁کنعانی	-11.3571
▁کنندگان،	-11.3571
▁کنیا	-11.3571
▁کوله	-11.3571
▁کونته	-11.3571
▁کوید	-11.3571
▁کپک	-11.3571
▁کیریوس	-11.3571
▁کیلوولت	-11.3571
▁کینگ	-11.3571
▁کیهانی	-11.3571
▁گاردین	-11.3571
▁گارسیا	-11.3571
▁گالری	-11.3571
▁گدوت	-11.3571
▁گراند	-11.3571
▁گرث	-11.3571
▁گردیم.	-11.3571
▁گروسی،	-11.3571
▁گرینویچ	-11.3571
▁گون	-11.3571
▁گونار	-11.3571
▁گوها	-11.3571
▁گیاه	-11.3571
▁گیتار	-11.3571
▁گیرنده	-11.3571
▁یابند	-11.3571
▁یادم	-11.3571
▁یادماندنی	-11.3571
▁یاشار	-11.3571
▁یوآخیم	-11.3571
▁یودانف	-11.3571
▁یونانی	-11.3571
▁۱۰۸	-11.3571
▁۱۳۰	-11.3571
▁۱۳۴۶	-11.3571
▁۱۳۵۱	-11.3571
▁۱۳۶۰	-11.3571
▁۱۳۷	-11.3571
▁۱۴۰۰؛	-11.3571
▁۱۵۰۰۰	-11.3571
▁۱۹۰۰	-11.3571
▁۱۹۴۶	-11.3571
▁۱۹۸۴	-11.3571
▁۱۹۹۲	-11.3571
▁۲۰۵۰	-11.3571
▁۲۱۰	-11.3571
▁۲۶۲	-11.3571
▁۳۶۰	-11.3571
▁۷۱	-11.3571
▁۷۳۷	-11.3571
▁۷۵۲	-11.3571
▁۸۴	-11.3571
▁'بازداشت	-11.5395
▁'بی	-11.5395
▁'دست	-11.5395
▁'شب	-11.5395
▁'شعر	-11.5395
▁..	-11.5395
▁آبتین	-11.5395
▁آتشی	-11.5395
▁آتن	-11.5395
▁آثارشان	-11.5395
▁آدولف	-11.5395
▁آرشیوی	-11.5395
▁آرماندو	-11.5395
▁آرمسترانگ	-11.5395
▁آرنت	-11.5395
▁آزادماهی	-11.5395
▁آزمایشات	-11.5395
▁آسا	-11.5395
▁آسترازنکا	-11.5395
▁آسمانی	-11.5395
▁آلاینده	-11.5395
▁آلکس	-11.5395
▁آماتور	-11.5395
▁آمبولانس	-11.5395
▁آمریکا.	-11.5395
▁آن.	-11.5395
▁آنتالیا	-11.5395
▁آنی	-11.5395
▁آویز	-11.5395
▁آینده،	-11.5395
▁ابرستاره	-11.5395
▁ابزارهای	-11.5395
▁ابطال	-11.5395
▁اتاقش	-11.5395
▁اتلان	-11.5395
▁اجزای	-11.5395
▁اجساد	-11.5395
▁اجسام	-11.5395
▁احترامی	-11.5395
▁احمدشاملو	-11.5395
▁اختاپوس	-11.5395
▁اخترشناسان	-11.5395
▁ادا	-11.5395
▁ادعایی	-11.5395
▁ارتفاعات	-11.5395
▁ارج	-11.5395
▁اردوی	-11.5395
▁ارغندیوال	-11.5395
▁ارمجانی	-11.5395
▁اروپا،	-11.5395
▁اروپاست	-11.5395
▁ارکان	-11.5395
▁ازدحام	-11.5395
▁است'	-11.5395
▁است.احمد	-11.5395
▁است.استقلال	-11.5395
▁است.اشاره	-11.5395
▁است.افزایش	-11.5395
▁است.براساس	-11.5395
▁است.بیش	-11.5395
▁است.دفتر	-11.5395
▁است.دیروز	-11.5395
▁است.سال	-11.5395
▁است.سخنگوی	-11.5395
▁است.شمار	-11.5395
▁است.مرکز	-11.5395
▁است.مسئولان	-11.5395
▁است.چین	-11.5395
▁است.گروه	-11.5395
▁استانداری	-11.5395
▁استرالیامنبع	-11.5395
▁استرسانه	-11.5395
▁استرقابت	-11.5395
▁استف	-11.5395
▁استقلال،	-11.5395
▁استوایی	-11.5395
▁اسرع	-11.5395
▁اسکار،	-11.5395
▁اسکای	-11.5395
▁اسکورسیزی	-11.5395
▁اسیا	-11.5395
▁اشاعه	-11.5395
▁اشتباهات	-11.5395
▁اشتباهاتی	-11.5395
▁اشتهای	-11.5395
▁اصفهان،	-11.5395
▁اصلانی	-11.5395
▁اصولگرا	-11.5395
▁اصولی	-11.5395
▁اطرافیان	-11.5395
▁اعتمادی	-11.5395
▁افتادمنبع	-11.5395
▁افزارهای	-11.5395
▁افزود:	-11.5395
▁اقامتی	-11.5395
▁الاجل	-11.5395
▁الاجلی	-11.5395
▁الاحواز	-11.5395
▁الشعاع	-11.5395
▁اللهی	-11.5395
▁النضال	-11.5395
▁الوحده	-11.5395
▁الیور	-11.5395
▁اما،	-11.5395
▁امتیازهای	-11.5395
▁امرار	-11.5395
▁امضاکننده	-11.5395
▁امیرمکری	-11.5395
▁امیلیا	-11.5395
▁انبوهی	-11.5395
▁انتظاری	-11.5395
▁انتقاداتی	-11.5395
▁انتقالی	-11.5395
▁انجامیده	-11.5395
▁اند.محمد	-11.5395
▁اند؟امسال	-11.5395
▁انداختند	-11.5395
▁اندوه	-11.5395
▁انصاری	-11.5395
▁انطباق	-11.5395
▁انقطاع	-11.5395
▁او،	-11.5395
▁اوزون	-11.5395
▁اوست.	-11.5395
▁اوشن	-11.5395
▁اوهایو	-11.5395
▁اوکاناگان	-11.5395
▁اپ	-11.5395
▁اپراتور	-11.5395
▁اپراتورها	-11.5395
▁اکسل	-11.5395
▁ای'	-11.5395
▁ای.	-11.5395
▁ایان	-11.5395
▁اید.	-11.5395
▁ایران'	-11.5395
▁ایرانی-آمریکایی	-11.5395
▁ایستادند.	-11.5395
▁ایسنا،	-11.5395
▁ایلام	-11.5395
▁اینجای	-11.5395
▁اینجنیوئیتی	-11.5395
▁اینچی	-11.5395
▁ایوان	-11.5395
▁ایگ	-11.5395
▁بابک	-11.5395
▁باختند	-11.5395
▁باربی	-11.5395
▁بارسلونا:	-11.5395
▁باز:	-11.5395
▁بازاریابی	-11.5395
▁بازدیدکننده	-11.5395
▁بازگرداند	-11.5395
▁بازگو	-11.5395
▁باشند.منبع	-11.5395
▁باشید.	-11.5395
▁باطل	-11.5395
▁بالارفتن	-11.5395
▁باله	-11.5395
▁بانفوذ	-11.5395
▁بایدن،	-11.5395
▁بایست	-11.5395
▁بایستی	-11.5395
▁ببیند.	-11.5395
▁ببینند.	-11.5395
▁بخواهند	-11.5395
▁بخورد	-11.5395
▁بدرقه	-11.5395
▁بدنشان	-11.5395
▁بدهند.	-11.5395
▁بدهید	-11.5395
▁بدیل	-11.5395
▁بذرپاش	-11.5395
▁براه	-11.5395
▁برد.منبع	-11.5395
▁بردی	-11.5395
▁برماخ	-11.5395
▁برنا	-11.5395
▁برنلی	-11.5395
▁برود.این	-11.5395
▁برود؛	-11.5395
▁بروند.	-11.5395
▁برویم	-11.5395
▁برگامو	-11.5395
▁برگرداند	-11.5395
▁برگزارمی	-11.5395
▁برگشت.در	-11.5395
▁برگوین	-11.5395
▁بریتانیا.	-11.5395
▁بریج	-11.5395
▁بریجز	-11.5395
▁بریم	-11.5395
▁بزرگراه	-11.5395
▁بشردوستانه	-11.5395
▁بصره	-11.5395
▁بعضا	-11.5395
▁بفرستند	-11.5395
▁بفرستید.	-11.5395
▁بفهمیم	-11.5395
▁بقا	-11.5395
▁بلندپروازانه	-11.5395
▁بلینکن،	-11.5395
▁بم	-11.5395
▁بنای	-11.5395
▁بنظر	-11.5395
▁بنکسی	-11.5395
▁بهت	-11.5395
▁بهداشت،	-11.5395
▁بهزاد	-11.5395
▁بهم	-11.5395
▁بوتاکس	-11.5395
▁بود.پس	-11.5395
▁بودند.به	-11.5395
▁بورس؛	-11.5395
▁بورسیه	-11.5395
▁بوستون	-11.5395
▁بوسه	-11.5395
▁بوم	-11.5395
▁بوندسلیگا	-11.5395
▁بپردازد	-11.5395
▁بچگی	-11.5395
▁بکر	-11.5395
▁بکشند.	-11.5395
▁بگذارید	-11.5395
▁بیتلز	-11.5395
▁بیماریشان	-11.5395
▁بینانه	-11.5395
▁بینم	-11.5395
▁بیک	-11.5395
▁تئاتری	-11.5395
▁تابش	-11.5395
▁تبرئه	-11.5395
▁تحرکات	-11.5395
▁تحرکی	-11.5395
▁تحلیلی	-11.5395
▁تخصص	-11.5395
▁تداعی	-11.5395
▁تدفین	-11.5395
▁تربیت	-11.5395
▁ترحیم	-11.5395
▁تردیدهایی	-11.5395
▁ترکمن	-11.5395
▁ترکیه؛	-11.5395
▁تزاری	-11.5395
▁تشکیلات	-11.5395
▁تعرض	-11.5395
▁تفریح	-11.5395
▁تفنگ	-11.5395
▁تفکر	-11.5395
▁تلفیقی	-11.5395
▁تماشاگری	-11.5395
▁تماشایی	-11.5395
▁تمایز	-11.5395
▁تمکین	-11.5395
▁تندروی	-11.5395
▁تندگویان	-11.5395
▁تنسی	-11.5395
▁تنگی	-11.5395
▁تهدیدهای	-11.5395
▁تهران.	-11.5395
▁تهران؛	-11.5395
▁تهویه	-11.5395
▁توافقات	-11.5395
▁توانیر	-11.5395
▁توبه	-11.5395
▁توریست	-11.5395
▁توقع	-11.5395
▁تولدش	-11.5395
▁تولیدش	-11.5395
▁تولیدشان	-11.5395
▁تومور	-11.5395
▁تکواندو	-11.5395
▁تیموریان	-11.5395
▁ثور	-11.5395
▁جابجا	-11.5395
▁جامد	-11.5395
▁جاهایی	-11.5395
▁جاودانه	-11.5395
▁جاپلقی	-11.5395
▁جبرانی	-11.5395
▁جدل	-11.5395
▁جدولی	-11.5395
▁جدیدش	-11.5395
▁جذابی	-11.5395
▁جرح	-11.5395
▁جعل	-11.5395
▁جلیلوند	-11.5395
▁جملات	-11.5395
▁جنر	-11.5395
▁جنرال	-11.5395
▁جنیفر	-11.5395
▁جوادی	-11.5395
▁جولیا	-11.5395
▁جون	-11.5395
▁جکی	-11.5395
▁جیل	-11.5395
▁حاکمان	-11.5395
▁حدودی	-11.5395
▁حرام	-11.5395
▁حرفی	-11.5395
▁حسام	-11.5395
▁حصبه	-11.5395
▁حلی	-11.5395
▁حوادثی	-11.5395
▁حواس	-11.5395
▁حوالی	-11.5395
▁حوصله	-11.5395
▁حک	-11.5395
▁حیثیت	-11.5395
▁حیوانی	-11.5395
▁خالی'	-11.5395
▁خامس	-11.5395
▁خانوده	-11.5395
▁خبرهایی	-11.5395
▁خدماتی	-11.5395
▁خدیجه	-11.5395
▁خرندگزارش	-11.5395
▁خرید.	-11.5395
▁خصوصی،	-11.5395
▁خلاص	-11.5395
▁خوشایند	-11.5395
▁خوشنویسی	-11.5395
▁خونی	-11.5395
▁خوکی	-11.5395
▁خیر.	-11.5395
▁داد.آقای	-11.5395
▁داد؟منبع	-11.5395
▁دادند.این	-11.5395
▁داده؛	-11.5395
▁داران	-11.5395
▁دارند.در	-11.5395
▁دارند:	-11.5395
▁دارندگان	-11.5395
▁داشت.او	-11.5395
▁داشته؛	-11.5395
▁داعش	-11.5395
▁داغی	-11.5395
▁دامغان	-11.5395
▁داند.	-11.5395
▁دانشجویانی	-11.5395
▁دانلد	-11.5395
▁داودی	-11.5395
▁داوود	-11.5395
▁دبی	-11.5395
▁درآمدزایی	-11.5395
▁درآمدشان	-11.5395
▁درآورد	-11.5395
▁درآورده	-11.5395
▁دردی	-11.5395
▁درهم	-11.5395
▁درونی	-11.5395
▁درگذشت.آقای	-11.5395
▁درگذشت؛	-11.5395
▁دریبل	-11.5395
▁دز	-11.5395
▁دشتکی	-11.5395
▁دعا	-11.5395
▁دعوتش	-11.5395
▁دلار'	-11.5395
▁دلم	-11.5395
▁دمشق	-11.5395
▁دمکرات	-11.5395
▁دهد.آقای	-11.5395
▁دهد،	-11.5395
▁دهند.در	-11.5395
▁دوبلور	-11.5395
▁دورافتاده	-11.5395
▁دورهمی	-11.5395
▁دورکاری	-11.5395
▁دوندگان	-11.5395
▁دگراندیش	-11.5395
▁دگرگونی	-11.5395
▁دیجیتالی	-11.5395
▁دیده،	-11.5395
▁دیدگان	-11.5395
▁دیرتر	-11.5395
▁دیرهنگام	-11.5395
▁دیفندر	-11.5395
▁دیواره	-11.5395
▁ذاتی	-11.5395
▁ذرت	-11.5395
▁ذوالفقار	-11.5395
▁ذوالنوری	-11.5395
▁ذوق	-11.5395
▁رابین	-11.5395
▁رادیواکتیو	-11.5395
▁رازی	-11.5395
▁راسخ	-11.5395
▁راسل	-11.5395
▁رانگلر	-11.5395
▁راهنمای	-11.5395
▁راکت	-11.5395
▁راین	-11.5395
▁رحمت	-11.5395
▁رحمتی	-11.5395
▁رخنه	-11.5395
▁ردکلیف	-11.5395
▁رس	-11.5395
▁رسوایی	-11.5395
▁رسید.در	-11.5395
▁رسیم	-11.5395
▁رفسنجانی	-11.5395
▁رفقای	-11.5395
▁رقیبان	-11.5395
▁رودریگز	-11.5395
▁روزبه	-11.5395
▁روستاهای	-11.5395
▁روشنفکری	-11.5395
▁رولان	-11.5395
▁رولت	-11.5395
▁رونالد	-11.5395
▁رویت	-11.5395
▁رویکردی	-11.5395
▁رکوردهایی	-11.5395
▁ریختن	-11.5395
▁ریس	-11.5395
▁ریش	-11.5395
▁ریورا	-11.5395
▁ریوی	-11.5395
▁ریکا	-11.5395
▁ریگی	-11.5395
▁زاکربرگ	-11.5395
▁زرق	-11.5395
▁زلاتان	-11.5395
▁زن؛	-11.5395
▁زنیم	-11.5395
▁زهرای	-11.5395
▁زیباترین	-11.5395
▁زیردریایی	-11.5395
▁سئوالی	-11.5395
▁ساختمانی	-11.5395
▁سادبیز	-11.5395
▁سارقان	-11.5395
▁سازد	-11.5395
▁سازهای	-11.5395
▁سازوکارهای	-11.5395
▁سالروز	-11.5395
▁ساموئل	-11.5395
▁سانتیاگو	-11.5395
▁سانتیگراد	-11.5395
▁ساوتهمپتون	-11.5395
▁سبزوار	-11.5395
▁ستیزه	-11.5395
▁ستین	-11.5395
▁سخنران	-11.5395
▁سخنگو	-11.5395
▁سرآغاز	-11.5395
▁سرای	-11.5395
▁سرخک	-11.5395
▁سردرد	-11.5395
▁سرشناسی	-11.5395
▁سرلک	-11.5395
▁سرم	-11.5395
▁سروده	-11.5395
▁سرور	-11.5395
▁سفرش	-11.5395
▁سفیدپوست	-11.5395
▁سلب	-11.5395
▁سمانیا	-11.5395
▁سمفونیک	-11.5395
▁سموم	-11.5395
▁سمی	-11.5395
▁سندی	-11.5395
▁سهام،	-11.5395
▁سهامش	-11.5395
▁سهامهای	-11.5395
▁سهیل	-11.5395
▁سهیم	-11.5395
▁سوالاتی	-11.5395
▁سودی	-11.5395
▁سوفیا	-11.5395
▁سولار	-11.5395
▁سولو	-11.5395
▁سوگ	-11.5395
▁سپاه:	-11.5395
▁سکوها	-11.5395
▁سیاستهای	-11.5395
▁سیتی،	-11.5395
▁سیرجان	-11.5395
▁سیری	-11.5395
▁سیستماتیک	-11.5395
▁سیستمی	-11.5395
▁سیلی	-11.5395
▁سیمرغ	-11.5395
▁سیمین	-11.5395
▁سینما،	-11.5395
▁سینماگران	-11.5395
▁سینوفارم	-11.5395
▁سینگ	-11.5395
▁سیگنال	-11.5395
▁شارمین	-11.5395
▁شاعرانه	-11.5395
▁شاغلین	-11.5395
▁شامگاه	-11.5395
▁شاهرود	-11.5395
▁شبرغان	-11.5395
▁شتابی	-11.5395
▁شتر	-11.5395
▁شد.البته	-11.5395
▁شد.حالا	-11.5395
▁شد:	-11.5395
▁شدنش	-11.5395
▁شده'منبع	-11.5395
▁شدیم	-11.5395
▁شدیک	-11.5395
▁شستن	-11.5395
▁شناختی	-11.5395
▁شهرخودرو	-11.5395
▁شو	-11.5395
▁شود'منبع	-11.5395
▁شود.امسال	-11.5395
▁شود.با	-11.5395
▁شود.خانم	-11.5395
▁شود.رقابت	-11.5395
▁شود.وزارت	-11.5395
▁شود؟	-11.5395
▁شودبا	-11.5395
▁شودبه	-11.5395
▁شوکه	-11.5395
▁شکارچی	-11.5395
▁شکن	-11.5395
▁شکوفه	-11.5395
▁شیرازی	-11.5395
▁شیرنوایی	-11.5395
▁شیرینی	-11.5395
▁صافی	-11.5395
▁صحرایی	-11.5395
▁صدراعظم	-11.5395
▁صراف	-11.5395
▁صفرهای	-11.5395
▁صلاحیت،	-11.5395
▁صنعت،	-11.5395
▁ضابطه	-11.5395
▁ضمیر	-11.5395
▁طلبد	-11.5395
▁ظلم	-11.5395
▁عامدانه	-11.5395
▁عاملی	-11.5395
▁عایدی	-11.5395
▁عبارتند	-11.5395
▁عبدالسلام	-11.5395
▁عثمان	-11.5395
▁عریان	-11.5395
▁عزای	-11.5395
▁عصبانی	-11.5395
▁عضوی	-11.5395
▁عقاب	-11.5395
▁عقد	-11.5395
▁علاج	-11.5395
▁علامتی	-11.5395
▁علامه	-11.5395
▁عمرش	-11.5395
▁عموما	-11.5395
▁عنوانی	-11.5395
▁عکسها	-11.5395
▁عکسهای	-11.5395
▁عیب	-11.5395
▁عینک	-11.5395
▁غبار	-11.5395
▁غذاهای	-11.5395
▁غربت	-11.5395
▁غلام	-11.5395
▁غلامعلی	-11.5395
▁غلامی	-11.5395
▁غور	-11.5395
▁غیرضروری	-11.5395
▁فاطمه	-11.5395
▁فتنه	-11.5395
▁فحشا	-11.5395
▁فراخوان	-11.5395
▁فراکسیون	-11.5395
▁فرح	-11.5395
▁فرسا	-11.5395
▁فرسایش	-11.5395
▁فرسوده	-11.5395
▁فرق	-11.5395
▁فرنگی	-11.5395
▁فروردین،	-11.5395
▁فروند	-11.5395
▁فضایل	-11.5395
▁فلاکت	-11.5395
▁فلم	-11.5395
▁فلورنتینو	-11.5395
▁فنلاند	-11.5395
▁فواد	-11.5395
▁فوتبال،	-11.5395
▁فوتبال؛	-11.5395
▁فوربز	-11.5395
▁فولبیگ	-11.5395
▁فولکلور	-11.5395
▁فیده	-11.5395
▁فیروز	-11.5395
▁فیش	-11.5395
▁فیفا:	-11.5395
▁فینالیست	-11.5395
▁قامت	-11.5395
▁قانونگذاری	-11.5395
▁قاچاقی	-11.5395
▁قایقی	-11.5395
▁قدرتمندی	-11.5395
▁قران	-11.5395
▁قرضی	-11.5395
▁قرنطینه،	-11.5395
▁قضاوت	-11.5395
▁قفس	-11.5395
▁قلبم	-11.5395
▁قمار	-11.5395
▁قویا	-11.5395
▁قیصر	-11.5395
▁لئوپولد	-11.5395
▁لا	-11.5395
▁لاری،	-11.5395
▁لبخندی	-11.5395
▁لبرون	-11.5395
▁لقمان	-11.5395
▁لمباردی	-11.5395
▁لندن،	-11.5395
▁لوس	-11.5395
▁لوک	-11.5395
▁لوگو	-11.5395
▁لوی	-11.5395
▁لوییس	-11.5395
▁لیکرز	-11.5395
▁مأموریت	-11.5395
▁مارس،	-11.5395
▁مازوت	-11.5395
▁ماسیرو	-11.5395
▁ماشینش	-11.5395
▁مالیه	-11.5395
▁ماند.تشدید	-11.5395
▁مایا	-11.5395
▁مایباخ	-11.5395
▁مایلی	-11.5395
▁مبتلای	-11.5395
▁مبتکرانه	-11.5395
▁مبنا	-11.5395
▁متال	-11.5395
▁متعجب	-11.5395
▁متوفی	-11.5395
▁متوفیان	-11.5395
▁متیو	-11.5395
▁مجاب	-11.5395
▁مجرد	-11.5395
▁مجریه	-11.5395
▁مجوزهای	-11.5395
▁مجوزی	-11.5395
▁محابا	-11.5395
▁محافظان	-11.5395
▁محتاطانه	-11.5395
▁محتمل	-11.5395
▁محدودیتهایی	-11.5395
▁مخالفانی	-11.5395
▁مختصر	-11.5395
▁مخرب	-11.5395
▁مخزن	-11.5395
▁مدیریتی	-11.5395
▁مراقب	-11.5395
▁مراودات	-11.5395
▁مراوده	-11.5395
▁مرثیه	-11.5395
▁مردادماه	-11.5395
▁مردانه	-11.5395
▁مرده	-11.5395
▁مرسی	-11.5395
▁مرشد	-11.5395
▁مرطوب	-11.5395
▁مرموز	-11.5395
▁مروری	-11.5395
▁مرگ'	-11.5395
▁مسائلی	-11.5395
▁مسابقاتی	-11.5395
▁مساعد	-11.5395
▁مسری	-11.5395
▁مسلحانه	-11.5395
▁مشت	-11.5395
▁مشترکی	-11.5395
▁مشتریانش	-11.5395
▁مشخصات	-11.5395
▁مشروع	-11.5395
▁مصادف	-11.5395
▁مصدومان	-11.5395
▁مصور	-11.5395
▁مضاعفی	-11.5395
▁مضمون	-11.5395
▁مطلق	-11.5395
▁مطهر	-11.5395
▁معالج	-11.5395
▁معدنچی	-11.5395
▁مفهومی	-11.5395
▁مقاوم	-11.5395
▁مقاومتی	-11.5395
▁مقتدرانه	-11.5395
▁مقصود	-11.5395
▁مقطع	-11.5395
▁مقیاس	-11.5395
▁ملازم	-11.5395
▁ملودی	-11.5395
▁مملکت	-11.5395
▁ممکن،	-11.5395
▁ممی	-11.5395
▁ممیز	-11.5395
▁ممیزی	-11.5395
▁منازل	-11.5395
▁منحرف	-11.5395
▁مندنی	-11.5395
▁منسجم	-11.5395
▁منشأ	-11.5395
▁منصرف	-11.5395
▁منطبق	-11.5395
▁منظومه	-11.5395
▁منهای	-11.5395
▁منوط	-11.5395
▁منوچین	-11.5395
▁منکر	-11.5395
▁منگل	-11.5395
▁مهاجمی	-11.5395
▁مهدوی	-11.5395
▁مهیج	-11.5395
▁مواج	-11.5395
▁موازین	-11.5395
▁موتورهای	-11.5395
▁موجوداتی	-11.5395
▁موریس	-11.5395
▁موریکونه	-11.5395
▁موشه	-11.5395
▁موفقی	-11.5395
▁موقتی	-11.5395
▁مولد	-11.5395
▁مومبای	-11.5395
▁موکلش	-11.5395
▁مچ	-11.5395
▁مکالمه	-11.5395
▁مکانیزم	-11.5395
▁مگنیتو	-11.5395
▁میخانه	-11.5395
▁میزانی	-11.5395
▁میسر	-11.5395
▁میلیونها	-11.5395
▁میهن	-11.5395
▁میچام	-11.5395
▁میکروبی	-11.5395
▁نا	-11.5395
▁نابویایی	-11.5395
▁ناتوانی	-11.5395
▁ناصرالدین	-11.5395
▁نامساعد	-11.5395
▁نامشان	-11.5395
▁نامشخص	-11.5395
▁نامشروع	-11.5395
▁ناهموار	-11.5395
▁ناچیز	-11.5395
▁ناکافی	-11.5395
▁ناگفته	-11.5395
▁نایت	-11.5395
▁نایتلی	-11.5395
▁نبشته	-11.5395
▁نبوغ	-11.5395
▁نبی	-11.5395
▁نجوا	-11.5395
▁نجومی	-11.5395
▁نخواهیم	-11.5395
▁نر	-11.5395
▁نرسید	-11.5395
▁نسب	-11.5395
▁نشدمنبع	-11.5395
▁نشست.	-11.5395
▁نشوند.	-11.5395
▁نظرم	-11.5395
▁نظمی	-11.5395
▁نظنز	-11.5395
▁نمک	-11.5395
▁ننگ	-11.5395
▁نهصد	-11.5395
▁نورستان	-11.5395
▁نورماگومدوف	-11.5395
▁نوزاد	-11.5395
▁نوزده	-11.5395
▁نوسازی	-11.5395
▁نوشابه	-11.5395
▁نوک	-11.5395
▁نویسان	-11.5395
▁نکنیدمنبع	-11.5395
▁نگذاشته	-11.5395
▁نیر	-11.5395
▁نیمایی	-11.5395
▁نیو	-11.5395
▁نیوتن	-11.5395
▁نیوز	-11.5395
▁نیومکزیکو	-11.5395
▁هئیت	-11.5395
▁هارد	-11.5395
▁هاشمی،	-11.5395
▁هاویلند	-11.5395
▁هایم	-11.5395
▁هجدهم	-11.5395
▁هرمزگان	-11.5395
▁هریرود	-11.5395
▁هستند.این	-11.5395
▁هستی	-11.5395
▁هشدارها	-11.5395
▁هفته،	-11.5395
▁هفدهمین	-11.5395
▁همدان	-11.5395
▁همسایگان	-11.5395
▁همکارانم	-11.5395
▁هندرسون	-11.5395
▁هنرنمایی	-11.5395
▁هوشیاری	-11.5395
▁هولم	-11.5395
▁هکتار	-11.5395
▁هیپی	-11.5395
▁هیچوقت	-11.5395
▁واتفورد	-11.5395
▁والاس	-11.5395
▁وجوی	-11.5395
▁وجیهه	-11.5395
▁وسطی	-11.5395
▁وسواس	-11.5395
▁وفا	-11.5395
▁وفاداری	-11.5395
▁ولوو	-11.5395
▁وندی	-11.5395
▁وولوز	-11.5395
▁وکارها	-11.5395
▁ویدیوهای	-11.5395
▁ویلت	-11.5395
▁ویلسون	-11.5395
▁پاتر	-11.5395
▁پادشاهان	-11.5395
▁پاریس،	-11.5395
▁پالادیوم	-11.5395
▁پالایش	-11.5395
▁پاهایش	-11.5395
▁پایبندی	-11.5395
▁پایداری	-11.5395
▁پدربزرگ	-11.5395
▁پدیدار	-11.5395
▁پرایس	-11.5395
▁پرحادثه	-11.5395
▁پرداختی	-11.5395
▁پردازد.	-11.5395
▁پرز	-11.5395
▁پرستار	-11.5395
▁پرستانه	-11.5395
▁پرسنل	-11.5395
▁پرسپولیس،	-11.5395
▁پرطرفدارترین	-11.5395
▁پرفسور	-11.5395
▁پرو	-11.5395
▁پریده	-11.5395
▁پستال	-11.5395
▁پسری	-11.5395
▁پشتوانه	-11.5395
▁پشتیبان	-11.5395
▁پهلوان	-11.5395
▁پوستر	-11.5395
▁پولهای	-11.5395
▁پژوهشهای	-11.5395
▁پیشبرد	-11.5395
▁پیشبینی	-11.5395
▁چالشی	-11.5395
▁چرنوبیل	-11.5395
▁چهارده	-11.5395
▁چین:	-11.5395
▁ژسوس	-11.5395
▁کابل؛	-11.5395
▁کار،	-11.5395
▁کارائیب	-11.5395
▁کارند	-11.5395
▁کارگزار	-11.5395
▁کاستن	-11.5395
▁کاسینگا	-11.5395
▁کالبد	-11.5395
▁کالبدشکافی	-11.5395
▁کامالا	-11.5395
▁کان	-11.5395
▁کاپیتانی	-11.5395
▁کبیری	-11.5395
▁کت	-11.5395
▁کتک	-11.5395
▁کجاست	-11.5395
▁کد	-11.5395
▁کرد.افغانستان	-11.5395
▁کرد.خانواده	-11.5395
▁کرد.دو	-11.5395
▁کردبه	-11.5395
▁کردمهدی	-11.5395
▁کردند.این	-11.5395
▁کردهمنبع	-11.5395
▁کردهیک	-11.5395
▁کردی	-11.5395
▁کروات	-11.5395
▁کروز	-11.5395
▁کریس	-11.5395
▁کفایت	-11.5395
▁کلامی	-11.5395
▁کلت	-11.5395
▁کلروکین	-11.5395
▁کلمبیایی	-11.5395
▁کلیسا	-11.5395
▁کلیوی	-11.5395
▁کمیاب	-11.5395
▁کنارش	-11.5395
▁کند.تیم	-11.5395
▁کند.پیش	-11.5395
▁کنش	-11.5395
▁کنممنبع	-11.5395
▁کنند.پرهام	-11.5395
▁کنندگانی	-11.5395
▁کنندگی	-11.5395
▁کنیایی	-11.5395
▁کنید؛	-11.5395
▁کنیمآیت	-11.5395
▁کهکشانی	-11.5395
▁کوبی	-11.5395
▁کوتاه،	-11.5395
▁کودکانه	-11.5395
▁کوشنر	-11.5395
▁کولاک	-11.5395
▁کوهستانی	-11.5395
▁کوهن	-11.5395
▁کوهنورد	-11.5395
▁کوپا	-11.5395
▁کیارا	-11.5395
▁گاراژ	-11.5395
▁گارد	-11.5395
▁گاروس	-11.5395
▁گامی	-11.5395
▁گدامحمد	-11.5395
▁گذراند	-11.5395
▁گرانقیمت	-11.5395
▁گراهام	-11.5395
▁گرجستانی	-11.5395
▁گردهم	-11.5395
▁گرفت.منبع	-11.5395
▁گرمازدگی	-11.5395
▁گریم	-11.5395
▁گزیده	-11.5395
▁گلرخ	-11.5395
▁گله	-11.5395
▁گناه	-11.5395
▁گناهی	-11.5395
▁گهر	-11.5395
▁گوستاو	-11.5395
▁گوشتی	-11.5395
▁گوهای	-11.5395
▁گویا	-11.5395
▁گویای	-11.5395
▁گوید:	-11.5395
▁گوییم	-11.5395
▁گپ	-11.5395
▁گیلبرت	-11.5395
▁یادی	-11.5395
▁یاسر	-11.5395
▁یاسمین	-11.5395
▁یانگ	-11.5395
▁ید	-11.5395
▁یوردی	-11.5395
▁یک؛	-11.5395
▁یکجانبه	-11.5395
▁یکدست	-11.5395
▁یکسانی	-11.5395
▁۱۰۱	-11.5395
▁۱۰۲	-11.5395
▁۱۰۹	-11.5395
▁۱۱۵	-11.5395
▁۱۲۳	-11.5395
▁۱۲۵	-11.5395
▁۱۲۹۹	-11.5395
▁۱۳۳۹	-11.5395
▁۱۳۴۰	-11.5395
▁۱۳۸۸	-11.5395
▁۱۳۹۲	-11.5395
▁۱۳۹۳	-11.5395
▁۱۷۴	-11.5395
▁۱۹۳	-11.5395
▁۱۹۳۸	-11.5395
▁۱۹۴۱	-11.5395
▁۱۹۶۲	-11.5395
▁۱۹۶۳	-11.5395
▁۱۹۶۵	-11.5395
▁۱۹۶۶	-11.5395
▁۱۹۶۸	-11.5395
▁۱۹۶۹	-11.5395
▁۱۹۹۹	-11.5395
▁۲۰۲۰؛	-11.5395
▁۲۰۵	-11.5395
▁۲۲۴	-11.5395
▁۲۴۰	-11.5395
▁۲۵۰۰	-11.5395
▁۲۶۰۰	-11.5395
▁۲۹۰	-11.5395
▁۶۶	-11.5395
▁۶۹	-11.5395
▁۷۵۰	-11.5395
▁'احتمال	-11.7626
▁'اسپوتنیک	-11.7626
▁'تیراندازی	-11.7626
▁'روز	-11.7626
▁'صربیناتور'	-11.7626
▁'منتفی	-11.7626
▁'می	-11.7626
▁'میدان	-11.7626
▁'نظرسنجی'جواد	-11.7626
▁'نگرانی	-11.7626
▁'وخیم	-11.7626
▁(در	-11.7626
▁(دهم	-11.7626
▁-به	-11.7626
▁.آنها	-11.7626
▁.از	-11.7626
▁.اکنون	-11.7626
▁.با	-11.7626
▁.بر	-11.7626
▁.شورای	-11.7626
▁.موسسه	-11.7626
▁.پیش	-11.7626
▁آئودی	-11.7626
▁آئین	-11.7626
▁آبادان،	-11.7626
▁آبراه	-11.7626
▁آتشفشان	-11.7626
▁آتلانتیک	-11.7626
▁آرایی	-11.7626
▁آرسی	-11.7626
▁آرنج	-11.7626
▁آرژانتین،	-11.7626
▁آرگیل	-11.7626
▁آزادگان،	-11.7626
▁آزاردهنده	-11.7626
▁آزاردیدگان	-11.7626
▁آستین	-11.7626
▁آسوده	-11.7626
▁آصف	-11.7626
▁آغازی	-11.7626
▁آف	-11.7626
▁آفرود	-11.7626
▁آفرینی	-11.7626
▁آقابابایی	-11.7626
▁آقایی	-11.7626
▁آلایندگی	-11.7626
▁آلبرت	-11.7626
▁آلبومش	-11.7626
▁آلت	-11.7626
▁آلدرین	-11.7626
▁آلودی	-11.7626
▁آمدند.	-11.7626
▁آمریکا-	-11.7626
▁آمریکاست.	-11.7626
▁آمریکایی،	-11.7626
▁آمفتامین	-11.7626
▁آموختن	-11.7626
▁آموس	-11.7626
▁آمونیت	-11.7626
▁آمپول	-11.7626
▁آمیزی	-11.7626
▁آنا	-11.7626
▁آنتوان	-11.7626
▁آنجایی	-11.7626
▁آندریا	-11.7626
▁آنفولانزای	-11.7626
▁آنها:	-11.7626
▁آنها،	-11.7626
▁آنچنان	-11.7626
▁آهنگی	-11.7626
▁آهنین	-11.7626
▁آو	-11.7626
▁آوردمنبع	-11.7626
▁آوینی	-11.7626
▁آپ	-11.7626
▁آپارتمانش	-11.7626
▁آپوفِس	-11.7626
▁آکسفام	-11.7626
▁آگاهانه	-11.7626
▁آیدین	-11.7626
▁آیشمن	-11.7626
▁آینده؛	-11.7626
▁آیینی	-11.7626
▁ا	-11.7626
▁ائتلاف	-11.7626
▁ابراهیمی	-11.7626
▁ابزاری	-11.7626
▁ابن	-11.7626
▁اتاقی	-11.7626
▁اتانازی	-11.7626
▁اتفاقا	-11.7626
▁اتمسفر	-11.7626
▁اتوبوسی	-11.7626
▁اثربخشی	-11.7626
▁اثرگذار	-11.7626
▁اجاق	-11.7626
▁اجرام	-11.7626
▁اجماع	-11.7626
▁احتکار	-11.7626
▁اخطارهای	-11.7626
▁ادعاهایی	-11.7626
▁ادلب	-11.7626
▁ادواردو	-11.7626
▁ادینسون	-11.7626
▁ارتکاب	-11.7626
▁ارز،	-11.7626
▁ارز؛	-11.7626
▁ارزشی	-11.7626
▁ارطغرل	-11.7626
▁ارقامی	-11.7626
▁ارل	-11.7626
▁اروپا.	-11.7626
▁ازمیر	-11.7626
▁است...	-11.7626
▁است.آرامکو	-11.7626
▁است.آمار	-11.7626
▁است.آیت	-11.7626
▁است.ارزش	-11.7626
▁است.اطلاعات	-11.7626
▁است.اعضای	-11.7626
▁است.انتشار	-11.7626
▁است.باران	-11.7626
▁است.تهران	-11.7626
▁است.جراح	-11.7626
▁است.جراحش	-11.7626
▁است.جسد	-11.7626
▁است.حدود	-11.7626
▁است.دونالد	-11.7626
▁است.رکود	-11.7626
▁است.ریچارد	-11.7626
▁است.سیما	-11.7626
▁است.شرکت	-11.7626
▁است.طی	-11.7626
▁است.مارک	-11.7626
▁است.منابع	-11.7626
▁است.منظور	-11.7626
▁است.نتایج	-11.7626
▁است.هفته	-11.7626
▁است.ولی	-11.7626
▁است.پروفسور	-11.7626
▁است.کاوه	-11.7626
▁است.کشورهای	-11.7626
▁است.کنگره	-11.7626
▁است.گفتگو	-11.7626
▁استاو	-11.7626
▁استایران	-11.7626
▁استحکام	-11.7626
▁استرئیس	-11.7626
▁استرا	-11.7626
▁استرالیا؛	-11.7626
▁استشرکت	-11.7626
▁استقلال:	-11.7626
▁استقلالو	-11.7626
▁استقیمت	-11.7626
▁استلیونل	-11.7626
▁استمسابقات	-11.7626
▁استوار	-11.7626
▁استوقتی	-11.7626
▁استیاسنی	-11.7626
▁استیک	-11.7626
▁اسرائیل:	-11.7626
▁اسرائیل؛	-11.7626
▁اسمارسون	-11.7626
▁اسکورت	-11.7626
▁اسکورون	-11.7626
▁اشاراتی	-11.7626
▁اشکالات	-11.7626
▁اصغر	-11.7626
▁اطلاق	-11.7626
▁اعاده	-11.7626
▁اعترافات	-11.7626
▁اعزامی	-11.7626
▁اعلامی	-11.7626
▁اعم	-11.7626
▁افتاد،	-11.7626
▁افتخارات	-11.7626
▁افتی	-11.7626
▁افعانستان	-11.7626
▁افکنی	-11.7626
▁اقتباس	-11.7626
▁اقتباسی	-11.7626
▁اقتصادی،	-11.7626
▁اقسام	-11.7626
▁اقیانوسی	-11.7626
▁الارض	-11.7626
▁الدینی	-11.7626
▁الزامات	-11.7626
▁الظاهر	-11.7626
▁العمر	-11.7626
▁الف	-11.7626
▁الهذلول	-11.7626
▁الوزرایی	-11.7626
▁الکساندر	-11.7626
▁امباپه	-11.7626
▁امبر	-11.7626
▁امدادی	-11.7626
▁امروز،	-11.7626
▁امپریال	-11.7626
▁امکانش	-11.7626
▁انبارگردانی	-11.7626
▁انتشارات	-11.7626
▁انتظارش	-11.7626
▁انتقادهایی	-11.7626
▁انحصار	-11.7626
▁اند.آنتونی	-11.7626
▁اند.از	-11.7626
▁اند.افزایش	-11.7626
▁اند.او	-11.7626
▁اند.فرین	-11.7626
▁اند.فعالان	-11.7626
▁انداختند.	-11.7626
▁اندازد.	-11.7626
▁اندازند.	-11.7626
▁اندرو	-11.7626
▁اندومبله	-11.7626
▁انزوا	-11.7626
▁انسولین	-11.7626
▁انصاف	-11.7626
▁انعکاس	-11.7626
▁انیو	-11.7626
▁اهتمام	-11.7626
▁اهلی	-11.7626
▁اهواز،	-11.7626
▁اوارق	-11.7626
▁اوارنیوم	-11.7626
▁اوجی	-11.7626
▁اوریون	-11.7626
▁اوزبیکی	-11.7626
▁اوسیک	-11.7626
▁اولا	-11.7626
▁اولیانف	-11.7626
▁اونس	-11.7626
▁اوکادو	-11.7626
▁اِولین	-11.7626
▁اپس	-11.7626
▁اپلیکیشنی	-11.7626
▁اپیزود	-11.7626
▁اکبرزاده	-11.7626
▁اکتشافات	-11.7626
▁اکراه	-11.7626
▁اکسیدکربن	-11.7626
▁اکلستون	-11.7626
▁ایت	-11.7626
▁ایرلاین	-11.7626
▁ایرلندی	-11.7626
▁ایرنا،	-11.7626
▁ایزدی	-11.7626
▁ایلون	-11.7626
▁این،	-11.7626
▁اینترمیلان	-11.7626
▁ایوانیسویچ	-11.7626
▁ایکون	-11.7626
▁ایی	-11.7626
▁باثبات'	-11.7626
▁باختند.	-11.7626
▁بادام	-11.7626
▁بارور	-11.7626
▁بارگذاری	-11.7626
▁بازار،	-11.7626
▁بازرگان	-11.7626
▁بازل	-11.7626
▁بازنمایی	-11.7626
▁بازهای	-11.7626
▁بازو	-11.7626
▁بازگرداند.	-11.7626
▁بازی.	-11.7626
▁باشد.اما	-11.7626
▁باشم.	-11.7626
▁بالاحصار	-11.7626
▁بالاست	-11.7626
▁بالاست؟منبع	-11.7626
▁بام	-11.7626
▁باول	-11.7626
▁باچان	-11.7626
▁ببازد	-11.7626
▁ببرند.	-11.7626
▁ببری	-11.7626
▁ببندند.	-11.7626
▁ببینم	-11.7626
▁بحری	-11.7626
▁بخرد	-11.7626
▁بخوانند	-11.7626
▁بخوانید.	-11.7626
▁بخوانیدمنبع	-11.7626
▁بخواهیم	-11.7626
▁بدان	-11.7626
▁بداند	-11.7626
▁بدانیممنبع	-11.7626
▁بدرالزمان	-11.7626
▁بدنام	-11.7626
▁بدهم	-11.7626
▁بدویا	-11.7626
▁بدیهی	-11.7626
▁برآمده	-11.7626
▁برآوردهای	-11.7626
▁برانگیزترین	-11.7626
▁برایان	-11.7626
▁برتر؛	-11.7626
▁برتن	-11.7626
▁برجاممنبع	-11.7626
▁برجی	-11.7626
▁برخاست	-11.7626
▁برخوردهای	-11.7626
▁برد،	-11.7626
▁بردمنبع	-11.7626
▁بردیک	-11.7626
▁برغم	-11.7626
▁برقی،	-11.7626
▁برنابئو	-11.7626
▁برنامک	-11.7626
▁برنتفورد	-11.7626
▁برندن	-11.7626
▁برنگشته	-11.7626
▁برونئی	-11.7626
▁برونو	-11.7626
▁بروژ	-11.7626
▁بروید	-11.7626
▁برکت	-11.7626
▁برگردند	-11.7626
▁برگردیم	-11.7626
▁برگشتمنبع	-11.7626
▁بریتز	-11.7626
▁بریتیش	-11.7626
▁بزرگسال	-11.7626
▁بزرگسالان	-11.7626
▁بسادگی	-11.7626
▁بسازد.	-11.7626
▁بست.	-11.7626
▁بستند	-11.7626
▁بستکبال	-11.7626
▁بسختی	-11.7626
▁بسنده	-11.7626
▁بشکند.	-11.7626
▁بفروشند	-11.7626
▁بلاتکلیفی	-11.7626
▁بلافصل	-11.7626
▁بلندپایه	-11.7626
▁بلنیکن	-11.7626
▁بلوچستان،	-11.7626
▁بلیدرانر	-11.7626
▁بلیکن	-11.7626
▁بمراتب	-11.7626
▁بمیرد.	-11.7626
▁بنام	-11.7626
▁بناها	-11.7626
▁بنتکه	-11.7626
▁بنشیند	-11.7626
▁بنگاه	-11.7626
▁بنین	-11.7626
▁بهرامی	-11.7626
▁بواسطه	-11.7626
▁بوتاس	-11.7626
▁بود.افزایش	-11.7626
▁بود.البته	-11.7626
▁بود.خانم	-11.7626
▁بود.خبرگزاری	-11.7626
▁بود.فرج	-11.7626
▁بود.مقام	-11.7626
▁بود.منظور	-11.7626
▁بود.کارگران	-11.7626
▁بود.یک	-11.7626
▁بود:	-11.7626
▁بودند.آرامکو	-11.7626
▁بودند.در	-11.7626
▁بودید	-11.7626
▁بودیم.	-11.7626
▁بوزمن،	-11.7626
▁بوفالو	-11.7626
▁بوفالوها	-11.7626
▁بوفالوی	-11.7626
▁بوقچی	-11.7626
▁بوقی	-11.7626
▁بولداگ	-11.7626
▁بولز	-11.7626
▁بومیان	-11.7626
▁بپردازد.	-11.7626
▁بک	-11.7626
▁بکارگیری	-11.7626
▁بکتاش	-11.7626
▁بکند	-11.7626
▁بگیر	-11.7626
▁بیاندازد	-11.7626
▁بیاید.	-11.7626
▁بیتل	-11.7626
▁بیرانوند	-11.7626
▁بیراهه	-11.7626
▁بیشترشان	-11.7626
▁بیضایی	-11.7626
▁بیفتد.	-11.7626
▁بیند	-11.7626
▁بینید.	-11.7626
▁بیکاران	-11.7626
▁بیکارشدگان	-11.7626
▁بیگم	-11.7626
▁تابلوهای	-11.7626
▁تابو	-11.7626
▁تاثیرات	-11.7626
▁تاجدین	-11.7626
▁تازی	-11.7626
▁تاکسیرانی	-11.7626
▁تباری	-11.7626
▁تبریزی	-11.7626
▁تبعیت	-11.7626
▁تبلیغی	-11.7626
▁تجاری-سیاسی	-11.7626
▁تجدد	-11.7626
▁تجسم	-11.7626
▁تجسمی	-11.7626
▁تجمعات	-11.7626
▁تحیت	-11.7626
▁تختی	-11.7626
▁تدابیری	-11.7626
▁تذکر	-11.7626
▁تراست	-11.7626
▁تراشیده	-11.7626
▁ترافیکی	-11.7626
▁ترانس	-11.7626
▁تراژیک	-11.7626
▁تربت	-11.7626
▁ترتیب،	-11.7626
▁ترسد.	-11.7626
▁ترشح	-11.7626
▁تروریست	-11.7626
▁ترکیه،	-11.7626
▁تسخیر	-11.7626
▁تصورش	-11.7626
▁تطابق	-11.7626
▁تظاهر	-11.7626
▁تظاهرکنندگان	-11.7626
▁تعبیه	-11.7626
▁تعلل	-11.7626
▁تفاضل	-11.7626
▁تفکیکی	-11.7626
▁تقلا	-11.7626
▁تقلبی	-11.7626
▁تقوی،	-11.7626
▁تلگرامی	-11.7626
▁تماسی	-11.7626
▁تمجید	-11.7626
▁تمیز	-11.7626
▁تندی	-11.7626
▁تنه	-11.7626
▁تنی	-11.7626
▁ته	-11.7626
▁تهران:	-11.7626
▁تهی	-11.7626
▁توئیتر	-11.7626
▁توئیتی	-11.7626
▁تواضع	-11.7626
▁توافق،	-11.7626
▁توالی	-11.7626
▁توانمندی	-11.7626
▁توجیهی	-11.7626
▁توضیحاتی	-11.7626
▁توفندها	-11.7626
▁توقعات	-11.7626
▁تونسی	-11.7626
▁تپندگان	-11.7626
▁تکاملی	-11.7626
▁تکاوری	-11.7626
▁تیری	-11.7626
▁تیلدا	-11.7626
▁تیم؛	-11.7626
▁ثابتی	-11.7626
▁ثروتمندان	-11.7626
▁جادوی	-11.7626
▁جادویی	-11.7626
▁جاسازی	-11.7626
▁جامپائولو	-11.7626
▁جانشینی	-11.7626
▁جانور	-11.7626
▁جاه	-11.7626
▁جداسازی	-11.7626
▁جدانشدنی	-11.7626
▁جدیدمنبع	-11.7626
▁جرارد	-11.7626
▁جزای	-11.7626
▁جسارت	-11.7626
▁جغرافیای	-11.7626
▁جفتش	-11.7626
▁جمعیتش	-11.7626
▁جمل	-11.7626
▁جمهورها	-11.7626
▁جنایتی	-11.7626
▁جنوبی؛	-11.7626
▁جنی	-11.7626
▁جهان'	-11.7626
▁جوانب	-11.7626
▁جوری	-11.7626
▁جوزپ	-11.7626
▁جوشی	-11.7626
▁جونگ	-11.7626
▁جوهانسون	-11.7626
▁جگوار	-11.7626
▁جید	-11.7626
▁جیلانی	-11.7626
▁حاضرین	-11.7626
▁حبابی	-11.7626
▁حتا	-11.7626
▁حدیث	-11.7626
▁حرمت	-11.7626
▁حریفش	-11.7626
▁حریفی	-11.7626
▁حزبی	-11.7626
▁حسب	-11.7626
▁حشرات	-11.7626
▁حضورشان	-11.7626
▁حفاظتی	-11.7626
▁حقوقدان	-11.7626
▁حناچی	-11.7626
▁حیاط	-11.7626
▁خال	-11.7626
▁خاموشی	-11.7626
▁خانوارها	-11.7626
▁خاوری	-11.7626
▁خاویر	-11.7626
▁خبرداده	-11.7626
▁خجالت	-11.7626
▁خرابی	-11.7626
▁خردسال	-11.7626
▁خردسالش	-11.7626
▁خشنود	-11.7626
▁خصوصا	-11.7626
▁خصوصیات	-11.7626
▁خطاطی	-11.7626
▁خطاهای	-11.7626
▁خطایی	-11.7626
▁خطوطی	-11.7626
▁خلال	-11.7626
▁خلبان	-11.7626
▁خنک	-11.7626
▁خواری	-11.7626
▁خوانندگی	-11.7626
▁خواهتد	-11.7626
▁خودرو،	-11.7626
▁خودمان	-11.7626
▁خودمختار	-11.7626
▁خودکار	-11.7626
▁خوردنی	-11.7626
▁خوردهای	-11.7626
▁خیال	-11.7626
▁خیام،	-11.7626
▁د	-11.7626
▁داخله	-11.7626
▁داد.جوکوویچ	-11.7626
▁داد.رسیدن	-11.7626
▁داداین	-11.7626
▁دادخواست	-11.7626
▁دادم.	-11.7626
▁دادند.جاوید	-11.7626
▁دادند؛	-11.7626
▁دادیم	-11.7626
▁دارن	-11.7626
▁دارند.از	-11.7626
▁دارند؛	-11.7626
▁دارندمنبع	-11.7626
▁داروهایی	-11.7626
▁دارید.	-11.7626
▁داشتمنبع	-11.7626
▁داشتن'	-11.7626
▁داشتنی	-11.7626
▁داشته.	-11.7626
▁داشته،	-11.7626
▁داشتیم.	-11.7626
▁دالر	-11.7626
▁داماد	-11.7626
▁دامبو	-11.7626
▁دانستم	-11.7626
▁دانستمنبع	-11.7626
▁دانیل	-11.7626
▁داگ	-11.7626
▁دایملر	-11.7626
▁داینابوک	-11.7626
▁دبیرستانی	-11.7626
▁دختربچه	-11.7626
▁دراویش	-11.7626
▁درحالیکه	-11.7626
▁درسا	-11.7626
▁درنیامده	-11.7626
▁درِ	-11.7626
▁درگاه	-11.7626
▁دزفول،	-11.7626
▁دستمزدهای	-11.7626
▁دفترچه	-11.7626
▁دفع	-11.7626
▁دقتی	-11.7626
▁دلتا	-11.7626
▁دلتای	-11.7626
▁دلنشین	-11.7626
▁دلو	-11.7626
▁دماغه	-11.7626
▁دموکراسی	-11.7626
▁دن	-11.7626
▁دنبالش	-11.7626
▁دنباله	-11.7626
▁دهانی	-11.7626
▁دهد.اما	-11.7626
▁دهد.منبع	-11.7626
▁دهقانی	-11.7626
▁دوآ	-11.7626
▁دوئل	-11.7626
▁دوبله	-11.7626
▁دوتابعیتی	-11.7626
▁دوزسنج	-11.7626
▁دولتها	-11.7626
▁دولتهای	-11.7626
▁دوهفته	-11.7626
▁دوک	-11.7626
▁دکترا	-11.7626
▁دیافراگم	-11.7626
▁دیالیز	-11.7626
▁دیدبان	-11.7626
▁دیدند.	-11.7626
▁دیزل	-11.7626
▁دیسک	-11.7626
▁دیو	-11.7626
▁دیگر.	-11.7626
▁دیگرهم	-11.7626
▁ذات	-11.7626
▁ذهنش	-11.7626
▁ذی	-11.7626
▁ذیربط	-11.7626
▁ذیل	-11.7626
▁رئیسان	-11.7626
▁رئیسی،	-11.7626
▁راتکلیف	-11.7626
▁راث	-11.7626
▁راجپوت	-11.7626
▁رازآلود	-11.7626
▁رافا	-11.7626
▁رامهرمز،	-11.7626
▁راوی	-11.7626
▁راکسی	-11.7626
▁رایانه	-11.7626
▁رایدر	-11.7626
▁ربابه	-11.7626
▁رجوع	-11.7626
▁رحمانه	-11.7626
▁رحیم	-11.7626
▁رخدادهای	-11.7626
▁رسالت	-11.7626
▁رساندمنبع	-11.7626
▁رسد،	-11.7626
▁رفت؛	-11.7626
▁رفتم.	-11.7626
▁رفتهمنبع	-11.7626
▁رقابتش	-11.7626
▁رقیق	-11.7626
▁رنسانس	-11.7626
▁رهاسازی	-11.7626
▁روباز	-11.7626
▁روبروست.	-11.7626
▁روبین	-11.7626
▁روحیه	-11.7626
▁رودی	-11.7626
▁روز،	-11.7626
▁روزافزون	-11.7626
▁روزمزد	-11.7626
▁روسادا	-11.7626
▁روسیه،	-11.7626
▁رون	-11.7626
▁رونان	-11.7626
▁رووانیمی	-11.7626
▁رویال	-11.7626
▁رویان	-11.7626
▁رویترز:	-11.7626
▁رکسانا	-11.7626
▁ریتوناویر	-11.7626
▁رید	-11.7626
▁ریزرو	-11.7626
▁رینت	-11.7626
▁ز	-11.7626
▁زاد،	-11.7626
▁زادروز	-11.7626
▁زار	-11.7626
▁زاناردی،	-11.7626
▁زانوی	-11.7626
▁زایمان	-11.7626
▁زحماتشان	-11.7626
▁زدمنبع	-11.7626
▁زده؛	-11.7626
▁زن،	-11.7626
▁زندگیش	-11.7626
▁زندگینامه	-11.7626
▁زوایای	-11.7626
▁زوم	-11.7626
▁زی	-11.7626
▁زیاده	-11.7626
▁زیراتمی	-11.7626
▁زینب	-11.7626
▁سادات،	-11.7626
▁ساز،	-11.7626
▁سازمانها	-11.7626
▁ساسان	-11.7626
▁ساطع	-11.7626
▁سال؛	-11.7626
▁سالار	-11.7626
▁سالهاست	-11.7626
▁سامانی	-11.7626
▁ساندرلند	-11.7626
▁ست.آقای	-11.7626
▁سحرگاه	-11.7626
▁سخاوتمندانه	-11.7626
▁سختگیری	-11.7626
▁سخنگویان	-11.7626
▁سرامیک	-11.7626
▁سرتاسری	-11.7626
▁سردرگم	-11.7626
▁سردرگمی	-11.7626
▁سرزنش	-11.7626
▁سرشان	-11.7626
▁سرطانی	-11.7626
▁سرلشکر	-11.7626
▁سرلوحه	-11.7626
▁سرپوشیده	-11.7626
▁سرگرفته	-11.7626
▁سریعا	-11.7626
▁سعد	-11.7626
▁سلامی	-11.7626
▁سلبریتی	-11.7626
▁سلیقه	-11.7626
▁سناریو	-11.7626
▁سنجی	-11.7626
▁سنوات	-11.7626
▁سهمی	-11.7626
▁سهولت	-11.7626
▁سواران	-11.7626
▁سوانح	-11.7626
▁سودآور	-11.7626
▁سوراخ	-11.7626
▁سوریه،	-11.7626
▁سوزاندن	-11.7626
▁سولیوان	-11.7626
▁سوپرمارکت	-11.7626
▁سوگند	-11.7626
▁سوییس	-11.7626
▁سپر	-11.7626
▁سپردن	-11.7626
▁سکولار	-11.7626
▁سی؛	-11.7626
▁سیارات	-11.7626
▁سیاهپوست	-11.7626
▁سیتروئن	-11.7626
▁سیرشا	-11.7626
▁سیریاتل	-11.7626
▁سیما،	-11.7626
▁سیناتی	-11.7626
▁سینماگرانی	-11.7626
▁سیگاری	-11.7626
▁شابلون	-11.7626
▁شادگان،	-11.7626
▁شارپنتیر	-11.7626
▁شاعر،	-11.7626
▁شالیزار	-11.7626
▁شاهدان	-11.7626
▁شاهرخ	-11.7626
▁شاهکارهای	-11.7626
▁شاکی	-11.7626
▁شایان	-11.7626
▁شبهه	-11.7626
▁شجاعیان	-11.7626
▁شجریان؛	-11.7626
▁شجریاندر	-11.7626
▁شد.ایران	-11.7626
▁شد.حدود	-11.7626
▁شد.مقام	-11.7626
▁شد.پس	-11.7626
▁شدایران،	-11.7626
▁شدبا	-11.7626
▁شدسازمان	-11.7626
▁شدمعاون	-11.7626
▁شدند.فرامرز	-11.7626
▁شده'به	-11.7626
▁شدواکنش	-11.7626
▁شراب	-11.7626
▁شراف	-11.7626
▁شراکت	-11.7626
▁شرت	-11.7626
▁شریدار	-11.7626
▁شعب	-11.7626
▁شغال	-11.7626
▁شلوار	-11.7626
▁شمول	-11.7626
▁شن	-11.7626
▁شناسنامه	-11.7626
▁شنویم	-11.7626
▁شهره	-11.7626
▁شهریورماه	-11.7626
▁شهزاده	-11.7626
▁شوالیه	-11.7626
▁شوخ	-11.7626
▁شود.بعضی	-11.7626
▁شود.دکتر	-11.7626
▁شود.دیروز	-11.7626
▁شود.رئیس	-11.7626
▁شود.سایت	-11.7626
▁شود.صندوق	-11.7626
▁شوددر	-11.7626
▁شودرسانه	-11.7626
▁شورشیان	-11.7626
▁شوشتر،	-11.7626
▁شومینه	-11.7626
▁شوند.در	-11.7626
▁شوند؟منبع	-11.7626
▁شوهرم	-11.7626
▁شکات	-11.7626
▁شکست.	-11.7626
▁شکسپیر	-11.7626
▁شیادی	-11.7626
▁صالح،	-11.7626
▁صداهای	-11.7626
▁صراحت	-11.7626
▁صفوف	-11.7626
▁صلیب	-11.7626
▁صورت،	-11.7626
▁صیاد	-11.7626
▁ضایعات	-11.7626
▁ضربان	-11.7626
▁ضرری	-11.7626
▁طبقات	-11.7626
▁طراحان	-11.7626
▁طراز	-11.7626
▁طرفداری	-11.7626
▁طرق	-11.7626
▁طفره	-11.7626
▁ظالمانه	-11.7626
▁عاجل	-11.7626
▁عادلایران،	-11.7626
▁عبادی	-11.7626
▁عباسعلی	-11.7626
▁عدل	-11.7626
▁عذاب	-11.7626
▁عربستان؛	-11.7626
▁عزا	-11.7626
▁عزل	-11.7626
▁عصبانیت	-11.7626
▁عطفی	-11.7626
▁علما	-11.7626
▁علمیه	-11.7626
▁عمری	-11.7626
▁عمومیت	-11.7626
▁عناوین	-11.7626
▁عنایت	-11.7626
▁عنقا	-11.7626
▁عهد	-11.7626
▁عید،	-11.7626
▁غارهای	-11.7626
▁غدیر	-11.7626
▁غذاخوری	-11.7626
▁غوری	-11.7626
▁غیرعلنی	-11.7626
▁فارست	-11.7626
▁فازهای	-11.7626
▁فاسد	-11.7626
▁فاصل	-11.7626
▁فانتری	-11.7626
▁فایده	-11.7626
▁فایلی	-11.7626
▁فجرسپاسی	-11.7626
▁فدائیان	-11.7626
▁فدایی	-11.7626
▁فدرالیسم	-11.7626
▁فرارسیدن	-11.7626
▁فراموشی	-11.7626
▁فردای	-11.7626
▁فرزندانش	-11.7626
▁فرستادمنبع	-11.7626
▁فرستد.	-11.7626
▁فرضیه	-11.7626
▁فرقی	-11.7626
▁فرناندز	-11.7626
▁فرنود	-11.7626
▁فرنوش	-11.7626
▁فرهیختگان	-11.7626
▁فروزش	-11.7626
▁فروشد	-11.7626
▁فرکانس	-11.7626
▁فرگوس	-11.7626
▁فریدلینگ	-11.7626
▁فریدمن	-11.7626
▁فستیوال	-11.7626
▁فضاپیمایی	-11.7626
▁فضولاتشان	-11.7626
▁فعالیتش	-11.7626
▁فعل	-11.7626
▁فقیرنشین	-11.7626
▁فلامینگو	-11.7626
▁فلزات	-11.7626
▁فلورانس	-11.7626
▁فلک	-11.7626
▁فن:	-11.7626
▁فواصل	-11.7626
▁فوتسی	-11.7626
▁فوریتی	-11.7626
▁فونت	-11.7626
▁فی	-11.7626
▁فیروزآبادی	-11.7626
▁فیروزه	-11.7626
▁فیصل	-11.7626
▁فیفا؛	-11.7626
▁فیورنتینا	-11.7626
▁فیگو	-11.7626
▁قائمشهر	-11.7626
▁قادرند	-11.7626
▁قادری	-11.7626
▁قارچ	-11.7626
▁قاشق	-11.7626
▁قبای	-11.7626
▁قبرس	-11.7626
▁قبرستانی	-11.7626
▁قدرتهای	-11.7626
▁قدرتی	-11.7626
▁قدش	-11.7626
▁قدعلم	-11.7626
▁قرآن	-11.7626
▁قراردادهایی	-11.7626
▁قربان	-11.7626
▁قرصی	-11.7626
▁قرمز،	-11.7626
▁قشر	-11.7626
▁قعر	-11.7626
▁قلمی	-11.7626
▁قندوز	-11.7626
▁قندچی	-11.7626
▁قهریه	-11.7626
▁قوانج	-11.7626
▁قوطی	-11.7626
▁لابی	-11.7626
▁لاجوردی	-11.7626
▁لاشنی	-11.7626
▁لافرته	-11.7626
▁لبریز	-11.7626
▁لجین	-11.7626
▁لحم	-11.7626
▁لخت	-11.7626
▁لرز	-11.7626
▁لسلی	-11.7626
▁لندرکینگ	-11.7626
▁لنز	-11.7626
▁لنگر	-11.7626
▁له	-11.7626
▁لوئیجی	-11.7626
▁لوتارو	-11.7626
▁لوپیناویر	-11.7626
▁لوکاس	-11.7626
▁لگار	-11.7626
▁لیبریا	-11.7626
▁لیلی	-11.7626
▁لیموزین	-11.7626
▁لین	-11.7626
▁لیپا	-11.7626
▁مابقی	-11.7626
▁مابین	-11.7626
▁ماتم	-11.7626
▁مادام	-11.7626
▁مادربزرگ	-11.7626
▁مادرشان	-11.7626
▁مارادونا؛	-11.7626
▁مارشال	-11.7626
▁ماروتو	-11.7626
▁مارچ	-11.7626
▁مارکی	-11.7626
▁مارین	-11.7626
▁ماساژ	-11.7626
▁ماست.	-11.7626
▁ماقبل	-11.7626
▁مالباختگان	-11.7626
▁مالزی	-11.7626
▁مالکانه	-11.7626
▁مالیاتی،	-11.7626
▁ماندگاری	-11.7626
▁مانسل	-11.7626
▁ماهان	-11.7626
▁ماهیت	-11.7626
▁ماهیگیران	-11.7626
▁مبادی	-11.7626
▁مبارک	-11.7626
▁مبحث	-11.7626
▁متئو	-11.7626
▁متصور	-11.7626
▁متقابل	-11.7626
▁متمایل	-11.7626
▁متنوعش	-11.7626
▁متواری	-11.7626
▁متیوز	-11.7626
▁مثلوثی	-11.7626
▁مجادله	-11.7626
▁مجارستان	-11.7626
▁مجاورت	-11.7626
▁مجرمانه	-11.7626
▁مجزا	-11.7626
▁مجلات	-11.7626
▁مجلس.	-11.7626
▁مجلل	-11.7626
▁محال	-11.7626
▁محبی	-11.7626
▁محتویات	-11.7626
▁محرز	-11.7626
▁محسوس	-11.7626
▁محصص	-11.7626
▁محمد،	-11.7626
▁محمدی،	-11.7626
▁محک	-11.7626
▁محکومیتش	-11.7626
▁مخاطبانش	-11.7626
▁مخالفتی	-11.7626
▁مختاری،	-11.7626
▁مختص	-11.7626
▁مخوف	-11.7626
▁مداری	-11.7626
▁مدرنیسم	-11.7626
▁مدلی	-11.7626
▁مدیرانی	-11.7626
▁مدیرمسئول	-11.7626
▁مدیسون	-11.7626
▁مذاکراتش	-11.7626
▁مراکش	-11.7626
▁مرج	-11.7626
▁مردخای	-11.7626
▁مرز،	-11.7626
▁مرسوم	-11.7626
▁مرگمنبع	-11.7626
▁مریض	-11.7626
▁مزایا	-11.7626
▁مزد	-11.7626
▁مسئولیتی	-11.7626
▁مسالمت	-11.7626
▁مستحق	-11.7626
▁مستحکم	-11.7626
▁مستنکفین	-11.7626
▁مسخره	-11.7626
▁مسی،	-11.7626
▁مسیرها	-11.7626
▁مشاهدات	-11.7626
▁مشتاقان	-11.7626
▁مشروب	-11.7626
▁مشروعیت	-11.7626
▁مشمولین	-11.7626
▁مشهوری	-11.7626
▁مصائب	-11.7626
▁مصارف	-11.7626
▁مصون	-11.7626
▁مضامین	-11.7626
▁مضحک	-11.7626
▁مطبوع	-11.7626
▁معارفه	-11.7626
▁معاملاتی	-11.7626
▁معایب	-11.7626
▁معترضین	-11.7626
▁معتقدم	-11.7626
▁معدودی	-11.7626
▁معرف	-11.7626
▁معروفترین	-11.7626
▁معظم	-11.7626
▁معقول	-11.7626
▁معنادار	-11.7626
▁معناست	-11.7626
▁معیاری	-11.7626
▁مغول	-11.7626
▁مفاصل	-11.7626
▁مقادیر	-11.7626
▁مقصدی	-11.7626
▁ملکی	-11.7626
▁مملو	-11.7626
▁منجیل	-11.7626
▁مندس	-11.7626
▁منزله	-11.7626
▁منسوب	-11.7626
▁منطقه،	-11.7626
▁منعقد	-11.7626
▁منفور	-11.7626
▁منقرض	-11.7626
▁منقضی	-11.7626
▁موادی	-11.7626
▁موازات	-11.7626
▁موانعی	-11.7626
▁مور	-11.7626
▁موسیقی،	-11.7626
▁موضعی	-11.7626
▁مولانا	-11.7626
▁مولر	-11.7626
▁مولف	-11.7626
▁مولوی،	-11.7626
▁مون	-11.7626
▁مکزیکوسیتی	-11.7626
▁میانمار	-11.7626
▁میخائیل	-11.7626
▁میرجاوه	-11.7626
▁میرود.	-11.7626
▁میزبانش	-11.7626
▁میزی	-11.7626
▁میشائیل	-11.7626
▁میشیگان	-11.7626
▁میلادی)	-11.7626
▁میلر	-11.7626
▁میلیچ	-11.7626
▁میناری	-11.7626
▁میکائل	-11.7626
▁ن	-11.7626
▁ناامیدی	-11.7626
▁نابرابر	-11.7626
▁نابسامان	-11.7626
▁ناخشنودی	-11.7626
▁نادال،	-11.7626
▁نازک	-11.7626
▁ناسازگار	-11.7626
▁ناسیونالیستی	-11.7626
▁ناشده؛	-11.7626
▁ناشر	-11.7626
▁ناعادلانه	-11.7626
▁ناقضین	-11.7626
▁ناقلان	-11.7626
▁ناله	-11.7626
▁نامت	-11.7626
▁نامند	-11.7626
▁ناهار	-11.7626
▁ناوشکن	-11.7626
▁ناک	-11.7626
▁نایک	-11.7626
▁نبرده	-11.7626
▁نبردهای	-11.7626
▁نبردی	-11.7626
▁نبودن	-11.7626
▁نتانیاهو،	-11.7626
▁نتوانستم	-11.7626
▁نجفی	-11.7626
▁نخبگان	-11.7626
▁ندارید	-11.7626
▁ندهد.	-11.7626
▁نرسید.	-11.7626
▁نروژی	-11.7626
▁نزده	-11.7626
▁نزدیکترین	-11.7626
▁نشد.او	-11.7626
▁نشد.در	-11.7626
▁نشود،	-11.7626
▁نشیند	-11.7626
▁نصرت	-11.7626
▁نظاره	-11.7626
▁نظری	-11.7626
▁نعمت	-11.7626
▁نفت؛	-11.7626
▁نمایشگاهی	-11.7626
▁نموده	-11.7626
▁ننگرهار	-11.7626
▁ننگین	-11.7626
▁نهال	-11.7626
▁نوا	-11.7626
▁نورانی	-11.7626
▁نورث	-11.7626
▁نوشتم	-11.7626
▁نولتی	-11.7626
▁نویر	-11.7626
▁نویسنده،	-11.7626
▁نویسندگانی	-11.7626
▁نپذیرفته	-11.7626
▁نژادیان	-11.7626
▁نکشید	-11.7626
▁نگاتیو	-11.7626
▁نگذاشت	-11.7626
▁نگرانند	-11.7626
▁نگرفت	-11.7626
▁نگهداشتن	-11.7626
▁نیابتی	-11.7626
▁نیافت	-11.7626
▁نیافت.	-11.7626
▁نیافتن	-11.7626
▁نیت	-11.7626
▁نیرومند	-11.7626
▁نیروهایش	-11.7626
▁نیست.این	-11.7626
▁نیست.در	-11.7626
▁نیستم	-11.7626
▁نیستم.	-11.7626
▁نیشابور	-11.7626
▁نیشگون	-11.7626
▁نیلی	-11.7626
▁نیمروز	-11.7626
▁نیویورکی	-11.7626
▁ها'	-11.7626
▁هاآرتص	-11.7626
▁هاربین	-11.7626
▁هالپ،	-11.7626
▁هامون	-11.7626
▁هایپر	-11.7626
▁هتلداران	-11.7626
▁هدر	-11.7626
▁هدفگذاری	-11.7626
▁هربار	-11.7626
▁هرج	-11.7626
▁هرل	-11.7626
▁هرچقدر	-11.7626
▁هزرا	-11.7626
▁هستند.آقای	-11.7626
▁هستند.اما	-11.7626
▁هستند.بر	-11.7626
▁هستند.به	-11.7626
▁هستند.سازمان	-11.7626
▁هشتادمین	-11.7626
▁هشداردهنده	-11.7626
▁هشداری	-11.7626
▁همانجا	-11.7626
▁همتایان	-11.7626
▁همدانی	-11.7626
▁همسایگی	-11.7626
▁همسران	-11.7626
▁همسری	-11.7626
▁همفکری	-11.7626
▁همهمه	-11.7626
▁همپشایر	-11.7626
▁همکاریهای	-11.7626
▁همیشه.	-11.7626
▁هند،	-11.7626
▁هنرمندانی	-11.7626
▁هنکاک	-11.7626
▁هنکس	-11.7626
▁هنگفت	-11.7626
▁هنگفتی	-11.7626
▁هوافضای	-11.7626
▁هواپیماها	-11.7626
▁هوستون	-11.7626
▁هول	-11.7626
▁هولناک	-11.7626
▁هژمون	-11.7626
▁هیئتی	-11.7626
▁هیل	-11.7626
▁هیوستون	-11.7626
▁هیچگونه	-11.7626
▁وار	-11.7626
▁وارتان	-11.7626
▁وارث	-11.7626
▁وارن	-11.7626
▁واریاسیون	-11.7626
▁والتری	-11.7626
▁والنسیا	-11.7626
▁وانمود	-11.7626
▁وانگ	-11.7626
▁واژگون	-11.7626
▁واکسن،	-11.7626
▁واکنش،	-11.7626
▁وبا	-11.7626
▁وتو	-11.7626
▁وجو	-11.7626
▁وجوش	-11.7626
▁ورزد	-11.7626
▁ورق	-11.7626
▁وسایط	-11.7626
▁ول	-11.7626
▁ولادیمیر	-11.7626
▁ولایات	-11.7626
▁ولت	-11.7626
▁ولتا	-11.7626
▁ونزوئلایی	-11.7626
▁ونیز،	-11.7626
▁وود	-11.7626
▁ووشو	-11.7626
▁وگویی	-11.7626
▁وی'	-11.7626
▁ویرانگر	-11.7626
▁وینسلت	-11.7626
▁پائولو	-11.7626
▁پابرجاست	-11.7626
▁پادمانی	-11.7626
▁پارتی	-11.7626
▁پارو	-11.7626
▁پارکینسون	-11.7626
▁پاستور	-11.7626
