ی	-2.71036
ه	-3.40966
</s>	0
<unk>	0
.	-3.86171
▁	-3.96578
ان	-4.1946
ت	-4.20086
م	-4.27957
ر	-4.31101
د	-4.35747
ل	-4.38767
ن	-4.40585
ا	-4.43296
▁است	-4.45017
ش	-4.45148
▁می	-4.61761
ب	-4.69306
س	-4.69654
ز	-4.7994
و	-4.83192
ک	-4.96756
▁های	-4.98662
▁ایران	-5.03359
ع	-5.10532
ق	-5.17366
ند	-5.21246
ات	-5.24935
ف	-5.27979
ور	-5.29367
▁ن	-5.33673
ار	-5.34203
▁بر	-5.35497
▁ا	-5.39823
▁ت	-5.40338
▁سال	-5.43625
خ	-5.4401
▁م	-5.4548
ال	-5.46009
▁شده	-5.4806
،	-5.50552
ج	-5.51706
▁ها	-5.54433
▁یک	-5.54622
▁بود	-5.55218
▁شد	-5.57205
ح	-5.58937
▁آ	-5.61919
▁ع	-5.63686
ست	-5.64217
▁ای	-5.67148
▁س	-5.68484
▁و	-5.69553
ام	-5.69636
ین	-5.72853
▁ش	-5.72916
▁ج	-5.74092
▁ف	-5.75417
▁دو	-5.79572
ص	-5.79908
▁ب	-5.82429
ون	-5.83185
▁تصویر	-5.83359
▁کرد	-5.83913
▁ر	-5.85666
▁کرده	-5.85952
های	-5.87517
اد	-5.88877
▁ح	-5.92237
▁در	-5.93011
پ	-5.9469
ده	-5.98228
ری	-5.99065
منبع	-6.01227
▁خ	-6.01287
گ	-6.04463
ط	-6.04776
ای	-6.06053
▁کار	-6.07313
▁خود	-6.07801
▁شود	-6.0889
▁گفته	-6.14874
▁فر	-6.19869
▁بی	-6.19943
▁کند	-6.21057
گر	-6.2286
؛	-6.22997
▁اند	-6.231
یت	-6.23844
▁روز	-6.24772
▁سر	-6.25405
▁پ	-6.25458
▁پیش	-6.25951
اب	-6.26218
ید	-6.26916
اس	-6.27172
▁با	-6.27312
غ	-6.27843
بر	-6.28512
▁ق	-6.29314
از	-6.29689
در	-6.30544
▁کرونا	-6.3066
▁به	-6.31069
تر	-6.31184
▁دست	-6.34752
▁د	-6.34754
▁ماه	-6.37431
▁کشور	-6.39816
چ	-6.40551
دی	-6.44435
ول	-6.46629
مان	-6.4685
ما	-6.46889
▁آمریکا	-6.47052
نگ	-6.47436
ود	-6.48109
▁گزارش	-6.48448
ض	-6.48646
را	-6.4969
▁سو	-6.5031
▁رو	-6.51435
▁یا	-6.52702
▁گفت	-6.53018
ها	-6.53301
▁ص	-6.53333
وی	-6.54065
۰	-6.54865
نا	-6.55933
گاه	-6.59511
▁را	-6.59727
▁بازی	-6.60674
▁فوتبال	-6.60726
لا	-6.612
▁کنند	-6.61418
▁مو	-6.61503
▁ک	-6.62191
▁دیگر	-6.6747
لی	-6.68253
▁دولت	-6.68344
▁هر	-6.6869
▁پا	-6.69073
وا	-6.6915
▁تیم	-6.6991
▁تر	-6.70321
ایی	-6.70532
▁هم	-6.7143
▁داد	-6.7208
ظ	-6.72423
▁مر	-6.72565
▁مع	-6.73789
▁دارد	-6.73915
▁نا	-6.74485
▁دهد	-6.74641
با	-6.74733
دا	-6.75666
▁اعلام	-6.76825
▁بار	-6.77298
▁نو	-6.77598
یم	-6.77987
▁بین	-6.78068
اف	-6.78223
▁گ	-6.78741
▁شرکت	-6.78792
گی	-6.79977
▁قرار	-6.80314
خت	-6.8071
▁پر	-6.81483
یک	-6.8302
می	-6.83575
رو	-6.83761
▁هزار	-6.84214
▁چ	-6.84688
ث	-6.86153
▁پس	-6.86335
▁مش	-6.86566
▁نام	-6.86773
▁داده	-6.86947
ذ	-6.87244
دار	-6.87343
او	-6.87543
▁باز	-6.87832
▁ط	-6.8807
▁تو	-6.8838
▁شهر	-6.90322
▁رئیس	-6.91107
▁مس	-6.91394
▁آن	-6.9146
▁مت	-6.91721
▁سه	-6.91725
▁جهان	-6.92449
▁دی	-6.93956
نی	-6.94377
یر	-6.94831
▁خواهد	-6.95432
▁۲	-6.96972
▁من	-6.98423
▁گذشته	-6.98515
▁آقای	-6.99
▁ام	-6.99057
▁مح	-6.99463
▁داشت	-6.99722
▁سا	-6.99946
انه	-7.00198
▁مج	-7.00493
ستان	-7.01329
▁او	-7.01377
آ	-7.01457
▁سی	-7.01546
▁گوید	-7.01925
▁کل	-7.02133
▁اس	-7.0252
▁نفت	-7.03174
اک	-7.03449
▁رسید	-7.04693
این	-7.05497
▁بعد	-7.0554
▁۳	-7.05668
▁ل	-7.0596
▁چند	-7.06541
وم	-7.06834
لو	-7.06955
▁روی	-7.07142
▁درباره	-7.07781
▁لیگ	-7.0827
مین	-7.0951
ترین	-7.09723
فا	-7.09799
▁پی	-7.09988
▁تهران	-7.10486
▁درصد	-7.10729
▁باید	-7.12231
▁بازار	-7.12342
▁کا	-7.12622
▁آنها	-7.1308
کار	-7.13384
۸	-7.14173
▁جدید	-7.14244
بی	-7.14463
▁دلیل	-7.14472
کن	-7.14663
▁نفر	-7.1468
▁افزایش	-7.1521
▁ارز	-7.15375
▁اروپا	-7.15459
▁قیمت	-7.15592
▁میلیون	-7.1647
▁از	-7.16614
▁حال	-7.16862
گو	-7.16926
اج	-7.17571
اری	-7.17699
▁چهار	-7.17884
۲	-7.18143
▁خبر	-7.18296
'	-7.188
▁زمان	-7.19311
کل	-7.19415
فت	-7.19539
▁'	-7.20272
۱	-7.20407
۹	-7.21284
▁کن	-7.21304
▁افغانستان	-7.223
▁سازمان	-7.22571
▁گر	-7.23026
▁فیلم	-7.23245
سی	-7.23688
شنبه	-7.23901
▁شب	-7.23979
▁علی	-7.24146
▁نظر	-7.24475
▁کم	-7.24594
▁۴	-7.2484
▁بیشتر	-7.25038
:	-7.25559
▁بزرگ	-7.25836
۵	-7.26066
▁هفته	-7.26244
▁بد	-7.26418
▁بوده	-7.26841
رسی	-7.2701
▁اول	-7.27243
▁اخیر	-7.2738
کس	-7.27622
▁ویروس	-7.27652
▁دلار	-7.28528
▁نیست	-7.28687
▁تا	-7.28717
به	-7.28772
▁ملی	-7.28796
▁بریتانیا	-7.29357
▁کو	-7.29632
اق	-7.29789
▁جهانی	-7.29947
▁بخش	-7.301
▁نمی	-7.304
▁برگزار	-7.30656
له	-7.30715
▁۱۹	-7.30948
گان	-7.31111
▁گرفت	-7.31275
▁خوا	-7.31528
▁ورزش	-7.3168
▁جو	-7.32214
▁همه	-7.32352
▁جمهوری	-7.32492
▁رفت	-7.3251
▁عنوان	-7.32863
▁ترین	-7.33876
▁مورد	-7.33983
فر	-7.33996
▁ال	-7.34151
وش	-7.34151
▁مد	-7.34273
▁هستند	-7.34356
۶	-7.35038
▁اش	-7.35085
▁تولید	-7.35123
▁گل	-7.35577
نده	-7.35667
مند	-7.35947
▁وزارت	-7.36334
▁کس	-7.36476
▁دار	-7.36604
وز	-7.36639
▁راه	-7.36976
▁مجلس	-7.37277
زه	-7.3786
▁امروز	-7.38425
▁گرفته	-7.38732
کر	-7.38871
▁بالا	-7.38896
▁بن	-7.39312
ران	-7.3935
▁زن	-7.40093
▁بیش	-7.40185
۴	-7.40768
▁گو	-7.40871
▁کردند	-7.40935
من	-7.41542
▁آغاز	-7.41866
قط	-7.42154
▁تح	-7.42416
▁۹	-7.4273
▁بانک	-7.42933
رس	-7.43221
▁کاهش	-7.43226
▁شدن	-7.4359
۷	-7.43592
▁مقابل	-7.43835
▁چین	-7.43955
▁یکی	-7.44323
▁وزیر	-7.44512
▁هو	-7.45247
▁نیز	-7.45664
▁بودند	-7.45887
▁کر	-7.46116
▁اساس	-7.46181
▁قبل	-7.4645
▁نشان	-7.47647
▁جای	-7.47907
وس	-7.48967
داد	-7.49194
▁غ	-7.49277
▁صد	-7.49345
▁تع	-7.49484
▁همچنین	-7.4992
▁پایان	-7.50412
▁حدود	-7.50705
▁تحریم	-7.51232
▁زمین	-7.5125
کو	-7.51385
۳	-7.5166
▁گروه	-7.52165
▁یافت	-7.52172
▁حضور	-7.52485
▁صورت	-7.52503
▁باشگاه	-7.52668
▁انجام	-7.53027
▁آب	-7.53533
سا	-7.53563
▁شیو	-7.54362
▁برنامه	-7.544
▁ساخت	-7.54518
▁محمد	-7.5535
▁پنج	-7.55432
▁داشته	-7.56667
پر	-7.57008
▁باشد	-7.58303
▁اف	-7.5851
نامه	-7.5853
▁رسان	-7.5855
▁مدیر	-7.59966
▁اقتصادی	-7.60344
▁مل	-7.60898
▁وارد	-7.61233
▁اولین	-7.61362
▁مقام	-7.6163
▁۵	-7.61775
▁منتشر	-7.61949
▁۶	-7.62441
▁توافق	-7.62548
که	-7.62981
▁حقوق	-7.63148
▁تومان	-7.63757
▁هنر	-7.64196
▁بل	-7.64577
▁تب	-7.64656
▁واکسن	-7.64974
▁شورا	-7.65144
▁۱۳	-7.65385
شان	-7.65705
▁تاریخ	-7.66009
▁غیر	-7.66676
▁جام	-7.66788
گیری	-7.66791
▁استفاده	-7.67259
▁زد	-7.67384
دامه	-7.67839
▁جمله	-7.67892
▁فصل	-7.68122
▁میلیارد	-7.68304
داری	-7.688
▁دا	-7.69727
▁تغییر	-7.69796
▁تمام	-7.70091
سازی	-7.70157
▁جمع	-7.7072
▁مردم	-7.70942
▁وجود	-7.72197
▁شوند	-7.72269
گیر	-7.72538
؟	-7.72629
▁زندگی	-7.72631
دو	-7.72784
▁سن	-7.72795
آقای	-7.72957
▁خواست	-7.73187
▁۲۰۱	-7.73498
▁آمد	-7.73511
▁خارج	-7.73601
▁همین	-7.74122
▁بو	-7.74138
پی	-7.74191
▁پو	-7.74753
▁نزدیک	-7.74864
▁توان	-7.75364
▁سابق	-7.75564
▁آزاد	-7.75802
▁مسابقه	-7.76229
▁مسابقات	-7.76458
▁زا	-7.76614
دن	-7.77029
▁المللی	-7.77381
۰۰	-7.77545
▁دارند	-7.78053
▁فروش	-7.78457
روز	-7.7959
▁۷	-7.79595
▁نشد	-7.79964
▁جان	-7.80008
▁خودرو	-7.80181
▁تنها	-7.80507
▁ده	-7.80732
▁اع	-7.8088
وار	-7.81303
▁انتخابات	-7.81432
گذار	-7.81544
▁گیری	-7.81664
جو	-7.8195
▁اقدام	-7.83104
▁ض	-7.84199
▁زنان	-7.8424
▁شرایط	-7.84587
▁امنیت	-7.84852
▁مالی	-7.84918
▁۱۰	-7.85326
رضا	-7.85805
▁دنیا	-7.85864
▁وقت	-7.8617
▁شمار	-7.86244
▁ماشین	-7.86351
▁زیاد	-7.86354
▁اعتراض	-7.86599
▁اقتصاد	-7.87659
▁مهم	-7.88013
▁خانه	-7.88068
▁طور	-7.88292
▁میان	-7.88464
▁حالی	-7.89035
صد	-7.89077
▁تواند	-7.89408
▁برتر	-7.89455
▁آینده	-7.895
نو	-7.89628
▁فعالیت	-7.89644
▁مرد	-7.89763
▁اسلامی	-7.8996
اکنون	-7.90641
▁شدند	-7.90733
▁بیماری	-7.90764
▁تلاش	-7.90773
▁یو	-7.91132
عث	-7.91197
▁هیچ	-7.91713
▁ما	-7.91858
▁فضا	-7.9215
ثبت	-7.92392
▁قهرمان	-7.92551
▁کشورهای	-7.92975
▁اجتماعی	-7.93163
▁تصمیم	-7.93163
▁افراد	-7.93176
▁مق	-7.93471
▁پول	-7.93594
▁موج	-7.93839
▁وضعیت	-7.93981
▁امسال	-7.93995
زا	-7.94137
▁بورس	-7.94436
▁بسیار	-7.94493
▁بسیاری	-7.94573
▁دوران	-7.94576
▁برای	-7.95267
▁نرخ	-7.95439
▁مسئول	-7.95636
▁روحانی	-7.95638
▁مختلف	-7.96474
▁خارجه	-7.96944
▁زندان	-7.97361
▁کردن	-7.97676
▁آلمان	-7.9791
بار	-7.98018
▁خط	-7.98166
▁مار	-7.98438
▁زیر	-7.98587
▁سفر	-7.98636
▁دور	-7.9933
▁گویند	-7.99401
▁هنو	-7.99583
▁مدت	-7.99893
▁ولی	-8.00354
▁خانواده	-8.0048
▁طرح	-8.00496
▁کمک	-8.00522
▁احتمال	-8.00773
▁ان	-8.00888
▁جنوب	-8.01074
▁ریاست	-8.0166
▁مرکزی	-8.01663
▁تازه	-8.0195
▁سرمایه	-8.02548
▁مجموع	-8.02844
▁شکست	-8.02882
▁نخست	-8.03168
توسط	-8.03241
▁سهام	-8.03472
▁برابر	-8.03527
▁۲۰	-8.03675
▁حالا	-8.0369
▁واقع	-8.0375
▁اجرای	-8.04287
▁اثر	-8.04374
▁قانون	-8.04682
▁خرید	-8.04843
▁درآمد	-8.04959
▁هی	-8.05006
▁قهرمانی	-8.05457
▁منبع	-8.0573
▁برخ	-8.05939
▁محل	-8.05963
▁سینما	-8.06521
▁ماند	-8.06674
▁برجام	-8.06829
▁توجه	-8.06853
▁دوره	-8.07197
▁همراه	-8.07454
▁پیدا	-8.0755
▁کی	-8.0784
▁آمار	-8.07865
ستاد	-8.07934
▁مرکز	-8.08389
▁موسیقی	-8.08692
▁که	-8.08849
▁شروع	-8.09336
▁۸	-8.09444
▁درگذشت	-8.09647
▁بعضی	-8.09648
▁دهه	-8.09892
▁اطلاعات	-8.09932
▁عکس	-8.09937
▁اصلی	-8.10299
▁قطع	-8.10321
▁کامل	-8.10572
▁کمی	-8.10602
▁تحقیق	-8.10612
▁پرسپولیس	-8.10935
▁عمل	-8.11536
▁حت	-8.11711
▁رسمی	-8.11941
▁منطقه	-8.1224
▁شاه	-8.12356
▁نظام	-8.12576
▁بست	-8.12657
▁هفت	-8.12763
▁این	-8.12888
▁آخر	-8.13003
▁اشار	-8.13422
▁نمایش	-8.13899
وند	-8.13953
▁اجا	-8.14127
▁بهداشت	-8.14231
▁رقابت	-8.14231
▁افت	-8.1465
▁گرد	-8.14878
▁دهند	-8.14892
▁قو	-8.15129
▁داخل	-8.15258
▁هسته	-8.15266
▁اینک	-8.15878
▁انگلیس	-8.1592
▁نقش	-8.16035
▁استقلال	-8.16605
▁کنار	-8.16953
▁لو	-8.1708
▁کمتر	-8.17093
▁جمهور	-8.17457
▁خر	-8.17678
▁نهاد	-8.17872
▁آژانس	-8.17985
▁دانش	-8.19402
تیج	-8.1954
▁جنگ	-8.1985
▁نیم	-8.20157
▁موضوع	-8.2045
▁واکنش	-8.2045
▁آمریکایی	-8.20453
▁فرهنگ	-8.20492
▁نوشته	-8.20528
▁حاضر	-8.20807
▁مراسم	-8.20821
▁میلادی	-8.20829
▁طرف	-8.20834
▁حمله	-8.20853
▁نیاز	-8.21054
▁لا	-8.2116
▁کتاب	-8.21542
▁نیمه	-8.21745
▁مک	-8.21794
▁رهبر	-8.21966
▁خاطر	-8.22249
▁حمایت	-8.22254
سیون	-8.22601
▁انتشار	-8.22977
▁بازیکن	-8.23032
▁عرض	-8.23371
▁سیاست	-8.23374
▁فعال	-8.23449
▁گذاشت	-8.23711
▁تک	-8.23779
▁دنبال	-8.24081
▁فرانسه	-8.24084
▁عراق	-8.24477
▁فدراسیون	-8.24599
▁ممکن	-8.24843
▁همکاری	-8.25224
▁مست	-8.25308
▁اتفاق	-8.2557
▁نگران	-8.25641
▁تعداد	-8.2571
▁هواپیما	-8.25946
▁سیاسی	-8.26012
▁پرداخت	-8.26703
▁خام	-8.27144
▁گذاری	-8.27673
▁عربستان	-8.27847
▁شناس	-8.27905
▁دریافت	-8.27927
▁دانشگاه	-8.27997
▁بودجه	-8.28051
▁کنیم	-8.28085
▁دقیق	-8.28619
▁ترامپ	-8.28623
▁مرگ	-8.28676
▁نکرد	-8.28714
▁بشر	-8.28883
▁اسرائیل	-8.30177
▁سپاه	-8.30179
▁آورد	-8.30893
▁آزمایش	-8.30966
▁۲۰۲۰	-8.30966
▁اتحاد	-8.30967
▁خبرگزا	-8.30968
▁کشتی	-8.30973
▁پیروز	-8.31536
▁الله	-8.32122
▁ابتدا	-8.32163
▁پرونده	-8.32174
▁نامزد	-8.32248
▁نهایی	-8.32253
▁بدو	-8.32277
▁جلو	-8.32744
▁خطر	-8.33043
▁کالا	-8.33191
▁قهرمانان	-8.33223
▁انرژی	-8.33371
▁ویژه	-8.33371
▁ندارد	-8.33403
▁ترکیه	-8.33786
▁مبارز	-8.33798
▁ساعت	-8.33815
▁محدودیت	-8.3394
▁رسد	-8.33989
▁دریا	-8.34059
▁دیدار	-8.341
▁آسیا	-8.34287
علی	-8.34428
ندگان	-8.34626
▁بازیکنان	-8.35082
▁رد	-8.35234
▁بازداشت	-8.35421
▁احمد	-8.35423
▁چنین	-8.36281
▁تاثیر	-8.36671
▁هشدار	-8.36674
▁توانست	-8.36955
▁مربوط	-8.37091
▁قابل	-8.37113
▁انداز	-8.37168
-	-8.37512
▁هدف	-8.3753
▁مادر	-8.37654
▁رشد	-8.37729
▁نمایند	-8.37876
ِ	-8.37936
▁طریق	-8.37945
▁ابتلا	-8.38363
▁پرواز	-8.38804
▁زبان	-8.39229
▁افتاد	-8.39232
▁خصوص	-8.39649
▁چیز	-8.39925
▁مذاکرات	-8.40776
▁تایید	-8.41064
▁تعطیل	-8.41393
▁۱۵	-8.41397
▁قرارداد	-8.42146
▁چشم	-8.42843
▁انتقاد	-8.43166
▁متهم	-8.43196
▁۲۰۰	-8.43525
▁مبتلا	-8.43615
▁مشخص	-8.43621
▁موفق	-8.43633
▁خواهند	-8.43671
▁اتمی	-8.43772
▁هشت	-8.44115
▁چرا	-8.44566
▁فاصله	-8.44972
▁محمو	-8.45105
▁ایجاد	-8.4545
▁عضو	-8.45454
▁میزان	-8.45592
▁تلویزیون	-8.45887
▁آثار	-8.45898
▁مربی	-8.46259
▁بیمارستان	-8.46811
▁صادرات	-8.46811
▁نداشت	-8.46812
▁معاون	-8.46839
▁کشته	-8.4728
▁لیورپول	-8.47744
▁بازگشت	-8.47744
▁انسان	-8.47793
▁حکم	-8.47876
▁نسبت	-8.48216
▁جریان	-8.48296
▁سرمربی	-8.48685
)	-8.49159
▁لغو	-8.49167
کنندگان	-8.49265
▁دانست	-8.49705
▁حرف	-8.49725
▁دوبار	-8.49766
▁انتخاب	-8.50049
(	-8.50113
▁حذف	-8.50121
▁داستان	-8.50354
▁رکورد	-8.51078
▁اتهام	-8.51089
▁اعضای	-8.51564
▁نبود	-8.51603
▁۲۵	-8.51899
▁پلیس	-8.52071
▁نمایندگان	-8.52132
▁خیل	-8.52737
▁شناخت	-8.53037
▁روسیه	-8.53069
▁غرب	-8.53088
اخر	-8.53381
▁دادگاه	-8.53394
▁بیانیه	-8.53566
▁نژاد	-8.54526
▁ارتباط	-8.55028
▁سخنگوی	-8.55028
▁پژوهش	-8.55028
▁صندوق	-8.55029
▁حکومت	-8.56041
▁متحده	-8.56047
▁۱۲	-8.56557
▁لندن	-8.56596
▁امتیاز	-8.57065
▁سطح	-8.57596
▁کابل	-8.57652
▁خوب	-8.57729
▁المپیک	-8.58098
▁همزمان	-8.58107
▁نشست	-8.58211
▁خورد	-8.58447
▁انتقال	-8.58619
▁مخالف	-8.58619
▁محکوم	-8.58627
▁عمومی	-8.59144
▁ایتالیا	-8.59669
▁شخص	-8.59693
▁نوشت	-8.59693
▁تماشا	-8.60199
▁۵۰	-8.60469
▁قرنطینه	-8.60729
▁گسترده	-8.6073
▁نقل	-8.61473
▁پزشکی	-8.62342
▁انقلاب	-8.62342
▁دختر	-8.62393
▁کشید	-8.62395
▁فشار	-8.63003
▁شامل	-8.63143
ستاره	-8.63463
▁موارد	-8.63532
▁تورم	-8.63777
أ	-8.63982
▁مطرح	-8.64534
▁امکان	-8.64596
▁چهر	-8.6536
▁جلسه	-8.65655
▁قدرت	-8.65683
▁اجرا	-8.66364
▁ظریف	-8.66775
▁نقاش	-8.67917
▁کوچک	-8.68494
▁شمال	-8.68678
▁صنعت	-8.69069
▁پاسخ	-8.69107
▁ارائه	-8.69649
▁منابع	-8.69656
▁تنیس	-8.69695
▁۲۰۱۹	-8.70429
▁پشت	-8.70433
▁انتظار	-8.70822
▁معرف	-8.70877
▁خانم	-8.71275
▁اظهار	-8.71414
▁متوقف	-8.72009
▁امضا	-8.72628
▁۱۴۰۰	-8.72641
▁۱۱	-8.73217
▁کووید	-8.73228
▁اسفند	-8.73833
▁فینال	-8.73856
▁رقم	-8.74001
▁اطلاع	-8.74494
نشین	-8.74951
▁چگون	-8.75063
▁ضرب	-8.75123
▁ممنوع	-8.75326
▁دفاع	-8.75664
▁موسس	-8.75747
▁منچستر	-8.76278
▁نیروهای	-8.76279
▁ورود	-8.77093
▁قضایی	-8.77535
▁حساب	-8.77575
▁الکتریکی	-8.78165
▁فروردین	-8.78165
▁دونالد	-8.78167
▁رانند	-8.78489
▁بشک	-8.78708
▁مصاحبه	-8.78802
▁۱۷	-8.78807
▁سیستم	-8.78844
▁زود	-8.78984
▁همچن	-8.79048
▁واحد	-8.79445
▁طراح	-8.79447
▁گیرد	-8.79539
▁قرن	-8.79649
▁طولانی	-8.80089
▁مسافر	-8.80122
▁تصوی	-8.80665
▁بتوان	-8.80748
▁برخورد	-8.80846
▁تشکیل	-8.81391
▁مصوب	-8.82051
▁حسین	-8.82151
▁بحران	-8.82718
▁بارسلونا	-8.83378
▁هنگام	-8.8338
▁خروج	-8.83392
▁روبرو	-8.83408
▁جامعه	-8.83443
▁باشند	-8.83498
▁سیاه	-8.84356
▁اختلاف	-8.84725
▁کنترل	-8.84738
▁افزود	-8.85411
▁تجاری	-8.85419
▁مالک	-8.85536
▁تجرب	-8.86095
▁شاخص	-8.8678
▁بنزین	-8.86795
▁اختیار	-8.87475
▁نیروی	-8.87505
▁سراسر	-8.88235
وابط	-8.88252
▁صحبت	-8.89587
▁ترکیب	-8.89591
▁میزبان	-8.89596
▁گذر	-8.89618
▁ماسک	-8.89649
▁پروژه	-8.90301
▁پذیر	-8.91023
▁معمول	-8.91047
▁طبق	-8.91061
▁متفاوت	-8.91745
▁کارشناس	-8.91746
▁آوریل	-8.91757
حمل	-8.91861
▁عامل	-8.91876
▁امیدوار	-8.92476
▁خبرنگار	-8.93215
▁ترتیب	-8.9322
▁محدود	-8.93678
▁شهروندان	-8.93955
▁اعدام	-8.93972
▁غذا	-8.93997
▁۱۴	-8.95413
▁مشترک	-8.95461
▁بگیرد	-8.95464
▁ادبی	-8.9557
▁قرمز	-8.96209
▁خورشید	-8.9697
▁۱۸	-8.96979
▁احیا	-8.97008
▁اسپانیا	-8.97739
▁کارگردان	-8.9774
▁آسیب	-8.97778
محمد	-8.98187
▁خوانند	-8.98286
▁ژاپن	-8.98514
▁سقوط	-8.98515
▁شجریان	-8.98515
▁پارسال	-8.98518
▁تاکید	-8.98536
▁صفح	-8.98537
▁درخواست	-8.99296
▁کیلومتر	-8.99296
▁نویسنده	-8.99296
▁دلایل	-8.99298
▁کوتاه	-8.99299
▁مارادونا	-9.00083
▁تقریبا	-9.00083
▁هواداران	-9.00083
▁نتایج	-9.00084
▁نگهبان	-9.00877
▁لازم	-9.00929
▁شاید	-9.01053
▁یونایتد	-9.01677
▁انفجار	-9.02483
▁استرالیا	-9.02488
▁۱۶	-9.02491
▁تهدید	-9.02491
▁گذشت	-9.03284
▁تقاضا	-9.03296
▁شکایت	-9.03297
▁معروف	-9.03302
▁قوانین	-9.04132
▁جدول	-9.0419
▁جشنواره	-9.04942
حفظ	-9.05703
▁انگیز	-9.0579
▁توضیح	-9.06616
▁مرتبط	-9.06616
▁محصول	-9.07467
▁بخوانید	-9.08318
▁فهرست	-9.08323
▁نظیر	-9.08328
▁همیشه	-9.08345
ژ	-9.89938
ئ	-9.89948
