{
  "src_word2id": {
    "<pad>": 0,
    "<s>": 1,
    "</s>": 2,
    "<unk>": 3,
    "ی": 4,
    "ه": 5,
    ".": 6,
    "▁": 7,
    "ان": 8,
    "ت": 9,
    "م": 10,
    "ر": 11,
    "د": 12,
    "ل": 13,
    "ن": 14,
    "ا": 15,
    "▁است": 16,
    "ش": 17,
    "▁می": 18,
    "ب": 19,
    "س": 20,
    "ز": 21,
    "و": 22,
    "ک": 23,
    "▁های": 24,
    "▁ایران": 25,
    "ع": 26,
    "ق": 27,
    "ند": 28,
    "ات": 29,
    "ف": 30,
    "ور": 31,
    "▁ن": 32,
    "ار": 33,
    "▁بر": 34,
    "▁ا": 35,
    "▁ت": 36,
    "▁سال": 37,
    "خ": 38,
    "▁م": 39,
    "ال": 40,
    "▁شده": 41,
    "،": 42,
    "ج": 43,
    "▁ها": 44,
    "▁یک": 45,
    "▁بود": 46,
    "▁شد": 47,
    "ح": 48,
    "▁آ": 49,
    "▁ع": 50,
    "ست": 51,
    "▁ای": 52,
    "▁س": 53,
    "▁و": 54,
    "ام": 55,
    "ین": 56,
    "▁ش": 57,
    "▁ج": 58,
    "▁ف": 59,
    "▁دو": 60,
    "ص": 61,
    "▁ب": 62,
    "ون": 63,
    "▁تصویر": 64,
    "▁کرد": 65,
    "▁ر": 66,
    "▁کرده": 67,
    "های": 68,
    "اد": 69,
    "▁ح": 70,
    "▁در": 71,
    "پ": 72,
    "ده": 73,
    "ری": 74,
    "منبع": 75,
    "▁خ": 76,
    "گ": 77,
    "ط": 78,
    "ای": 79,
    "▁کار": 80,
    "▁خود": 81,
    "▁شود": 82,
    "▁گفته": 83,
    "▁فر": 84,
    "▁بی": 85,
    "▁کند": 86,
    "گر": 87,
    "؛": 88,
    "▁اند": 89,
    "یت": 90,
    "▁روز": 91,
    "▁سر": 92,
    "▁پ": 93,
    "▁پیش": 94,
    "اب": 95,
    "ید": 96,
    "اس": 97,
    "▁با": 98,
    "غ": 99,
    "بر": 100,
    "▁ق": 101,
    "از": 102,
    "در": 103,
    "▁کرونا": 104,
    "▁به": 105,
    "تر": 106,
    "▁دست": 107,
    "▁د": 108,
    "▁ماه": 109,
    "▁کشور": 110,
    "چ": 111,
    "دی": 112,
    "ول": 113,
    "مان": 114,
    "ما": 115,
    "▁آمریکا": 116,
    "نگ": 117,
    "ود": 118,
    "▁گزارش": 119,
    "ض": 120,
    "را": 121,
    "▁سو": 122,
    "▁رو": 123,
    "▁یا": 124,
    "▁گفت": 125,
    "ها": 126,
    "▁ص": 127,
    "وی": 128,
    "۰": 129,
    "نا": 130,
    "گاه": 131,
    "▁را": 132,
    "▁بازی": 133,
    "▁فوتبال": 134,
    "لا": 135,
    "▁کنند": 136,
    "▁مو": 137,
    "▁ک": 138,
    "▁دیگر": 139,
    "لی": 140,
    "▁دولت": 141,
    "▁هر": 142,
    "▁پا": 143,
    "وا": 144,
    "▁تیم": 145,
    "▁تر": 146,
    "ایی": 147,
    "▁هم": 148,
    "▁داد": 149,
    "ظ": 150,
    "▁مر": 151,
    "▁مع": 152,
    "▁دارد": 153,
    "▁نا": 154,
    "▁دهد": 155,
    "با": 156,
    "دا": 157,
    "▁اعلام": 158,
    "▁بار": 159,
    "▁نو": 160,
    "یم": 161,
    "▁بین": 162,
    "اف": 163,
    "▁گ": 164,
    "▁شرکت": 165,
    "گی": 166,
    "▁قرار": 167,
    "خت": 168,
    "▁پر": 169,
    "یک": 170,
    "می": 171,
    "رو": 172,
    "▁هزار": 173,
    "▁چ": 174,
    "ث": 175,
    "▁پس": 176,
    "▁مش": 177,
    "▁نام": 178,
    "▁داده": 179,
    "ذ": 180,
    "دار": 181,
    "او": 182,
    "▁باز": 183,
    "▁ط": 184,
    "▁تو": 185,
    "▁شهر": 186,
    "▁رئیس": 187,
    "▁مس": 188,
    "▁آن": 189,
    "▁مت": 190,
    "▁سه": 191,
    "▁جهان": 192,
    "▁دی": 193,
    "نی": 194,
    "یر": 195,
    "▁خواهد": 196,
    "▁۲": 197,
    "▁من": 198,
    "▁گذشته": 199,
    "▁آقای": 200,
    "▁ام": 201,
    "▁مح": 202,
    "▁داشت": 203,
    "▁سا": 204,
    "انه": 205,
    "▁مج": 206,
    "ستان": 207,
    "▁او": 208,
    "آ": 209,
    "▁سی": 210,
    "▁گوید": 211,
    "▁کل": 212,
    "▁اس": 213,
    "▁نفت": 214,
    "اک": 215,
    "▁رسید": 216,
    "این": 217,
    "▁بعد": 218,
    "▁۳": 219,
    "▁ل": 220,
    "▁چند": 221,
    "وم": 222,
    "لو": 223,
    "▁روی": 224,
    "▁درباره": 225,
    "▁لیگ": 226,
    "مین": 227,
    "ترین": 228,
    "فا": 229,
    "▁پی": 230,
    "▁تهران": 231,
    "▁درصد": 232,
    "▁باید": 233,
    "▁بازار": 234,
    "▁کا": 235,
    "▁آنها": 236,
    "کار": 237,
    "۸": 238,
    "▁جدید": 239,
    "بی": 240,
    "▁دلیل": 241,
    "کن": 242,
    "▁نفر": 243,
    "▁افزایش": 244,
    "▁ارز": 245,
    "▁اروپا": 246,
    "▁قیمت": 247,
    "▁میلیون": 248,
    "▁از": 249,
    "▁حال": 250,
    "گو": 251,
    "اج": 252,
    "اری": 253,
    "▁چهار": 254,
    "۲": 255,
    "▁خبر": 256,
    "'": 257,
    "▁زمان": 258,
    "کل": 259,
    "فت": 260,
    "▁'": 261,
    "۱": 262,
    "۹": 263,
    "▁کن": 264,
    "▁افغانستان": 265,
    "▁سازمان": 266,
    "▁گر": 267,
    "▁فیلم": 268,
    "سی": 269,
    "شنبه": 270,
    "▁شب": 271,
    "▁علی": 272,
    "▁نظر": 273,
    "▁کم": 274,
    "▁۴": 275,
    "▁بیشتر": 276,
    ":": 277,
    "▁بزرگ": 278,
    "۵": 279,
    "▁هفته": 280,
    "▁بد": 281,
    "▁بوده": 282,
    "رسی": 283,
    "▁اول": 284,
    "▁اخیر": 285,
    "کس": 286,
    "▁ویروس": 287,
    "▁دلار": 288,
    "▁نیست": 289,
    "▁تا": 290,
    "به": 291,
    "▁ملی": 292,
    "▁بریتانیا": 293,
    "▁کو": 294,
    "اق": 295,
    "▁جهانی": 296,
    "▁بخش": 297,
    "▁نمی": 298,
    "▁برگزار": 299,
    "له": 300,
    "▁۱۹": 301,
    "گان": 302,
    "▁گرفت": 303,
    "▁خوا": 304,
    "▁ورزش": 305,
    "▁جو": 306,
    "▁همه": 307,
    "▁جمهوری": 308,
    "▁رفت": 309,
    "▁عنوان": 310,
    "▁ترین": 311,
    "▁مورد": 312,
    "فر": 313,
    "▁ال": 314,
    "وش": 315,
    "▁مد": 316,
    "▁هستند": 317,
    "۶": 318,
    "▁اش": 319,
    "▁تولید": 320,
    "▁گل": 321,
    "نده": 322,
    "مند": 323,
    "▁وزارت": 324,
    "▁کس": 325,
    "▁دار": 326,
    "وز": 327,
    "▁راه": 328,
    "▁مجلس": 329,
    "زه": 330,
    "▁امروز": 331,
    "▁گرفته": 332,
    "کر": 333,
    "▁بالا": 334,
    "▁بن": 335,
    "ران": 336,
    "▁زن": 337,
    "▁بیش": 338,
    "۴": 339,
    "▁گو": 340,
    "▁کردند": 341,
    "من": 342,
    "▁آغاز": 343,
    "قط": 344,
    "▁تح": 345,
    "▁۹": 346,
    "▁بانک": 347,
    "رس": 348,
    "▁کاهش": 349,
    "▁شدن": 350,
    "۷": 351,
    "▁مقابل": 352,
    "▁چین": 353,
    "▁یکی": 354,
    "▁وزیر": 355,
    "▁هو": 356,
    "▁نیز": 357,
    "▁بودند": 358,
    "▁کر": 359,
    "▁اساس": 360,
    "▁قبل": 361,
    "▁نشان": 362,
    "▁جای": 363,
    "وس": 364,
    "داد": 365,
    "▁غ": 366,
    "▁صد": 367,
    "▁تع": 368,
    "▁همچنین": 369,
    "▁پایان": 370,
    "▁حدود": 371,
    "▁تحریم": 372,
    "▁زمین": 373,
    "کو": 374,
    "۳": 375,
    "▁گروه": 376,
    "▁یافت": 377,
    "▁حضور": 378,
    "▁صورت": 379,
    "▁باشگاه": 380,
    "▁انجام": 381,
    "▁آب": 382,
    "سا": 383,
    "▁شیو": 384,
    "▁برنامه": 385,
    "▁ساخت": 386,
    "▁محمد": 387,
    "▁پنج": 388,
    "▁داشته": 389,
    "پر": 390,
    "▁باشد": 391,
    "▁اف": 392,
    "نامه": 393,
    "▁رسان": 394,
    "▁مدیر": 395,
    "▁اقتصادی": 396,
    "▁مل": 397,
    "▁وارد": 398,
    "▁اولین": 399,
    "▁مقام": 400,
    "▁۵": 401,
    "▁منتشر": 402,
    "▁۶": 403,
    "▁توافق": 404,
    "که": 405,
    "▁حقوق": 406,
    "▁تومان": 407,
    "▁هنر": 408,
    "▁بل": 409,
    "▁تب": 410,
    "▁واکسن": 411,
    "▁شورا": 412,
    "▁۱۳": 413,
    "شان": 414,
    "▁تاریخ": 415,
    "▁غیر": 416,
    "▁جام": 417,
    "گیری": 418,
    "▁استفاده": 419,
    "▁زد": 420,
    "دامه": 421,
    "▁جمله": 422,
    "▁فصل": 423,
    "▁میلیارد": 424,
    "داری": 425,
    "▁دا": 426,
    "▁تغییر": 427,
    "▁تمام": 428,
    "سازی": 429,
    "▁جمع": 430,
    "▁مردم": 431,
    "▁وجود": 432,
    "▁شوند": 433,
    "گیر": 434,
    "؟": 435,
    "▁زندگی": 436,
    "دو": 437,
    "▁سن": 438,
    "آقای": 439,
    "▁خواست": 440,
    "▁۲۰۱": 441,
    "▁آمد": 442,
    "▁خارج": 443,
    "▁همین": 444,
    "▁بو": 445,
    "پی": 446,
    "▁پو": 447,
    "▁نزدیک": 448,
    "▁توان": 449,
    "▁سابق": 450,
    "▁آزاد": 451,
    "▁مسابقه": 452,
    "▁مسابقات": 453,
    "▁زا": 454,
    "دن": 455,
    "▁المللی": 456,
    "۰۰": 457,
    "▁دارند": 458,
    "▁فروش": 459,
    "روز": 460,
    "▁۷": 461,
    "▁نشد": 462,
    "▁جان": 463,
    "▁خودرو": 464,
    "▁تنها": 465,
    "▁ده": 466,
    "▁اع": 467,
    "وار": 468,
    "▁انتخابات": 469,
    "گذار": 470,
    "▁گیری": 471,
    "جو": 472,
    "▁اقدام": 473,
    "▁ض": 474,
    "▁زنان": 475,
    "▁شرایط": 476,
    "▁امنیت": 477,
    "▁مالی": 478,
    "▁۱۰": 479,
    "رضا": 480,
    "▁دنیا": 481,
    "▁وقت": 482,
    "▁شمار": 483,
    "▁ماشین": 484,
    "▁زیاد": 485,
    "▁اعتراض": 486,
    "▁اقتصاد": 487,
    "▁مهم": 488,
    "▁خانه": 489,
    "▁طور": 490,
    "▁میان": 491,
    "▁حالی": 492,
    "صد": 493,
    "▁تواند": 494,
    "▁برتر": 495,
    "▁آینده": 496,
    "نو": 497,
    "▁فعالیت": 498,
    "▁مرد": 499,
    "▁اسلامی": 500,
    "اکنون": 501,
    "▁شدند": 502,
    "▁بیماری": 503,
    "▁تلاش": 504,
    "▁یو": 505,
    "عث": 506,
    "▁هیچ": 507,
    "▁ما": 508,
    "▁فضا": 509,
    "ثبت": 510,
    "▁قهرمان": 511,
    "▁کشورهای": 512,
    "▁اجتماعی": 513,
    "▁تصمیم": 514,
    "▁افراد": 515,
    "▁مق": 516,
    "▁پول": 517,
    "▁موج": 518,
    "▁وضعیت": 519,
    "▁امسال": 520,
    "زا": 521,
    "▁بورس": 522,
    "▁بسیار": 523,
    "▁بسیاری": 524,
    "▁دوران": 525,
    "▁برای": 526,
    "▁نرخ": 527,
    "▁مسئول": 528,
    "▁روحانی": 529,
    "▁مختلف": 530,
    "▁خارجه": 531,
    "▁زندان": 532,
    "▁کردن": 533,
    "▁آلمان": 534,
    "بار": 535,
    "▁خط": 536,
    "▁مار": 537,
    "▁زیر": 538,
    "▁سفر": 539,
    "▁دور": 540,
    "▁گویند": 541,
    "▁هنو": 542,
    "▁مدت": 543,
    "▁ولی": 544,
    "▁خانواده": 545,
    "▁طرح": 546,
    "▁کمک": 547,
    "▁احتمال": 548,
    "▁ان": 549,
    "▁جنوب": 550,
    "▁ریاست": 551,
    "▁مرکزی": 552,
    "▁تازه": 553,
    "▁سرمایه": 554,
    "▁مجموع": 555,
    "▁شکست": 556,
    "▁نخست": 557,
    "توسط": 558,
    "▁سهام": 559,
    "▁برابر": 560,
    "▁۲۰": 561,
    "▁حالا": 562,
    "▁واقع": 563,
    "▁اجرای": 564,
    "▁اثر": 565,
    "▁قانون": 566,
    "▁خرید": 567,
    "▁درآمد": 568,
    "▁هی": 569,
    "▁قهرمانی": 570,
    "▁منبع": 571,
    "▁برخ": 572,
    "▁محل": 573,
    "▁سینما": 574,
    "▁ماند": 575,
    "▁برجام": 576,
    "▁توجه": 577,
    "▁دوره": 578,
    "▁همراه": 579,
    "▁پیدا": 580,
    "▁کی": 581,
    "▁آمار": 582,
    "ستاد": 583,
    "▁مرکز": 584,
    "▁موسیقی": 585,
    "▁که": 586,
    "▁شروع": 587,
    "▁۸": 588,
    "▁درگذشت": 589,
    "▁بعضی": 590,
    "▁دهه": 591,
    "▁اطلاعات": 592,
    "▁عکس": 593,
    "▁اصلی": 594,
    "▁قطع": 595,
    "▁کامل": 596,
    "▁کمی": 597,
    "▁تحقیق": 598,
    "▁پرسپولیس": 599,
    "▁عمل": 600,
    "▁حت": 601,
    "▁رسمی": 602,
    "▁منطقه": 603,
    "▁شاه": 604,
    "▁نظام": 605,
    "▁بست": 606,
    "▁هفت": 607,
    "▁این": 608,
    "▁آخر": 609,
    "▁اشار": 610,
    "▁نمایش": 611,
    "وند": 612,
    "▁اجا": 613,
    "▁بهداشت": 614,
    "▁رقابت": 615,
    "▁افت": 616,
    "▁گرد": 617,
    "▁دهند": 618,
    "▁قو": 619,
    "▁داخل": 620,
    "▁هسته": 621,
    "▁اینک": 622,
    "▁انگلیس": 623,
    "▁نقش": 624,
    "▁استقلال": 625,
    "▁کنار": 626,
    "▁لو": 627,
    "▁کمتر": 628,
    "▁جمهور": 629,
    "▁خر": 630,
    "▁نهاد": 631,
    "▁آژانس": 632,
    "▁دانش": 633,
    "تیج": 634,
    "▁جنگ": 635,
    "▁نیم": 636,
    "▁موضوع": 637,
    "▁واکنش": 638,
    "▁آمریکایی": 639,
    "▁فرهنگ": 640,
    "▁نوشته": 641,
    "▁حاضر": 642,
    "▁مراسم": 643,
    "▁میلادی": 644,
    "▁طرف": 645,
    "▁حمله": 646,
    "▁نیاز": 647,
    "▁لا": 648,
    "▁کتاب": 649,
    "▁نیمه": 650,
    "▁مک": 651,
    "▁رهبر": 652,
    "▁خاطر": 653,
    "▁حمایت": 654,
    "سیون": 655,
    "▁انتشار": 656,
    "▁بازیکن": 657,
    "▁عرض": 658,
    "▁سیاست": 659,
    "▁فعال": 660,
    "▁گذاشت": 661,
    "▁تک": 662,
    "▁دنبال": 663,
    "▁فرانسه": 664,
    "▁عراق": 665,
    "▁فدراسیون": 666,
    "▁ممکن": 667,
    "▁همکاری": 668,
    "▁مست": 669,
    "▁اتفاق": 670,
    "▁نگران": 671,
    "▁تعداد": 672,
    "▁هواپیما": 673,
    "▁سیاسی": 674,
    "▁پرداخت": 675,
    "▁خام": 676,
    "▁گذاری": 677,
    "▁عربستان": 678,
    "▁شناس": 679,
    "▁دریافت": 680,
    "▁دانشگاه": 681,
    "▁بودجه": 682,
    "▁کنیم": 683,
    "▁دقیق": 684,
    "▁ترامپ": 685,
    "▁مرگ": 686,
    "▁نکرد": 687,
    "▁بشر": 688,
    "▁اسرائیل": 689,
    "▁سپاه": 690,
    "▁آورد": 691,
    "▁آزمایش": 692,
    "▁۲۰۲۰": 693,
    "▁اتحاد": 694,
    "▁خبرگزا": 695,
    "▁کشتی": 696,
    "▁پیروز": 697,
    "▁الله": 698,
    "▁ابتدا": 699,
    "▁پرونده": 700,
    "▁نامزد": 701,
    "▁نهایی": 702,
    "▁بدو": 703,
    "▁جلو": 704,
    "▁خطر": 705,
    "▁کالا": 706,
    "▁قهرمانان": 707,
    "▁انرژی": 708,
    "▁ویژه": 709,
    "▁ندارد": 710,
    "▁ترکیه": 711,
    "▁مبارز": 712,
    "▁ساعت": 713,
    "▁محدودیت": 714,
    "▁رسد": 715,
    "▁دریا": 716,
    "▁دیدار": 717,
    "▁آسیا": 718,
    "علی": 719,
    "ندگان": 720,
    "▁بازیکنان": 721,
    "▁رد": 722,
    "▁بازداشت": 723,
    "▁احمد": 724,
    "▁چنین": 725,
    "▁تاثیر": 726,
    "▁هشدار": 727,
    "▁توانست": 728,
    "▁مربوط": 729,
    "▁قابل": 730,
    "▁انداز": 731,
    "-": 732,
    "▁هدف": 733,
    "▁مادر": 734,
    "▁رشد": 735,
    "▁نمایند": 736,
    "ِ": 737,
    "▁طریق": 738,
    "▁ابتلا": 739,
    "▁پرواز": 740,
    "▁زبان": 741,
    "▁افتاد": 742,
    "▁خصوص": 743,
    "▁چیز": 744,
    "▁مذاکرات": 745,
    "▁تایید": 746,
    "▁تعطیل": 747,
    "▁۱۵": 748,
    "▁قرارداد": 749,
    "▁چشم": 750,
    "▁انتقاد": 751,
    "▁متهم": 752,
    "▁۲۰۰": 753,
    "▁مبتلا": 754,
    "▁مشخص": 755,
    "▁موفق": 756,
    "▁خواهند": 757,
    "▁اتمی": 758,
    "▁هشت": 759,
    "▁چرا": 760,
    "▁فاصله": 761,
    "▁محمو": 762,
    "▁ایجاد": 763,
    "▁عضو": 764,
    "▁میزان": 765,
    "▁تلویزیون": 766,
    "▁آثار": 767,
    "▁مربی": 768,
    "▁بیمارستان": 769,
    "▁صادرات": 770,
    "▁نداشت": 771,
    "▁معاون": 772,
    "▁کشته": 773,
    "▁لیورپول": 774,
    "▁بازگشت": 775,
    "▁انسان": 776,
    "▁حکم": 777,
    "▁نسبت": 778,
    "▁جریان": 779,
    "▁سرمربی": 780,
    ")": 781,
    "▁لغو": 782,
    "کنندگان": 783,
    "▁دانست": 784,
    "▁حرف": 785,
    "▁دوبار": 786,
    "▁انتخاب": 787,
    "(": 788,
    "▁حذف": 789,
    "▁داستان": 790,
    "▁رکورد": 791,
    "▁اتهام": 792,
    "▁اعضای": 793,
    "▁نبود": 794,
    "▁۲۵": 795,
    "▁پلیس": 796,
    "▁نمایندگان": 797,
    "▁خیل": 798,
    "▁شناخت": 799,
    "▁روسیه": 800,
    "▁غرب": 801,
    "اخر": 802,
    "▁دادگاه": 803,
    "▁بیانیه": 804,
    "▁نژاد": 805,
    "▁ارتباط": 806,
    "▁سخنگوی": 807,
    "▁پژوهش": 808,
    "▁صندوق": 809,
    "▁حکومت": 810,
    "▁متحده": 811,
    "▁۱۲": 812,
    "▁لندن": 813,
    "▁امتیاز": 814,
    "▁سطح": 815,
    "▁کابل": 816,
    "▁خوب": 817,
    "▁المپیک": 818,
    "▁همزمان": 819,
    "▁نشست": 820,
    "▁خورد": 821,
    "▁انتقال": 822,
    "▁مخالف": 823,
    "▁محکوم": 824,
    "▁عمومی": 825,
    "▁ایتالیا": 826,
    "▁شخص": 827,
    "▁نوشت": 828,
    "▁تماشا": 829,
    "▁۵۰": 830,
    "▁قرنطینه": 831,
    "▁گسترده": 832,
    "▁نقل": 833,
    "▁پزشکی": 834,
    "▁انقلاب": 835,
    "▁دختر": 836,
    "▁کشید": 837,
    "▁فشار": 838,
    "▁شامل": 839,
    "ستاره": 840,
    "▁موارد": 841,
    "▁تورم": 842,
    "أ": 843,
    "▁مطرح": 844,
    "▁امکان": 845,
    "▁چهر": 846,
    "▁جلسه": 847,
    "▁قدرت": 848,
    "▁اجرا": 849,
    "▁ظریف": 850,
    "▁نقاش": 851,
    "▁کوچک": 852,
    "▁شمال": 853,
    "▁صنعت": 854,
    "▁پاسخ": 855,
    "▁ارائه": 856,
    "▁منابع": 857,
    "▁تنیس": 858,
    "▁۲۰۱۹": 859,
    "▁پشت": 860,
    "▁انتظار": 861,
    "▁معرف": 862,
    "▁خانم": 863,
    "▁اظهار": 864,
    "▁متوقف": 865,
    "▁امضا": 866,
    "▁۱۴۰۰": 867,
    "▁۱۱": 868,
    "▁کووید": 869,
    "▁اسفند": 870,
    "▁فینال": 871,
    "▁رقم": 872,
    "▁اطلاع": 873,
    "نشین": 874,
    "▁چگون": 875,
    "▁ضرب": 876,
    "▁ممنوع": 877,
    "▁دفاع": 878,
    "▁موسس": 879,
    "▁منچستر": 880,
    "▁نیروهای": 881,
    "▁ورود": 882,
    "▁قضایی": 883,
    "▁حساب": 884,
    "▁الکتریکی": 885,
    "▁فروردین": 886,
    "▁دونالد": 887,
    "▁رانند": 888,
    "▁بشک": 889,
    "▁مصاحبه": 890,
    "▁۱۷": 891,
    "▁سیستم": 892,
    "▁زود": 893,
    "▁همچن": 894,
    "▁واحد": 895,
    "▁طراح": 896,
    "▁گیرد": 897,
    "▁قرن": 898,
    "▁طولانی": 899,
    "▁مسافر": 900,
    "▁تصوی": 901,
    "▁بتوان": 902,
    "▁برخورد": 903,
    "▁تشکیل": 904,
    "▁مصوب": 905,
    "▁حسین": 906,
    "▁بحران": 907,
    "▁بارسلونا": 908,
    "▁هنگام": 909,
    "▁خروج": 910,
    "▁روبرو": 911,
    "▁جامعه": 912,
    "▁باشند": 913,
    "▁سیاه": 914,
    "▁اختلاف": 915,
    "▁کنترل": 916,
    "▁افزود": 917,
    "▁تجاری": 918,
    "▁مالک": 919,
    "▁تجرب": 920,
    "▁شاخص": 921,
    "▁بنزین": 922,
    "▁اختیار": 923,
    "▁نیروی": 924,
    "▁سراسر": 925,
    "وابط": 926,
    "▁صحبت": 927,
    "▁ترکیب": 928,
    "▁میزبان": 929,
    "▁گذر": 930,
    "▁ماسک": 931,
    "▁پروژه": 932,
    "▁پذیر": 933,
    "▁معمول": 934,
    "▁طبق": 935,
    "▁متفاوت": 936,
    "▁کارشناس": 937,
    "▁آوریل": 938,
    "حمل": 939,
    "▁عامل": 940,
    "▁امیدوار": 941,
    "▁خبرنگار": 942,
    "▁ترتیب": 943,
    "▁محدود": 944,
    "▁شهروندان": 945,
    "▁اعدام": 946,
    "▁غذا": 947,
    "▁۱۴": 948,
    "▁مشترک": 949,
    "▁بگیرد": 950,
    "▁ادبی": 951,
    "▁قرمز": 952,
    "▁خورشید": 953,
    "▁۱۸": 954,
    "▁احیا": 955,
    "▁اسپانیا": 956,
    "▁کارگردان": 957,
    "▁آسیب": 958,
    "محمد": 959,
    "▁خوانند": 960,
    "▁ژاپن": 961,
    "▁سقوط": 962,
    "▁شجریان": 963,
    "▁پارسال": 964,
    "▁تاکید": 965,
    "▁صفح": 966,
    "▁درخواست": 967,
    "▁کیلومتر": 968,
    "▁نویسنده": 969,
    "▁دلایل": 970,
    "▁کوتاه": 971,
    "▁مارادونا": 972,
    "▁تقریبا": 973,
    "▁هواداران": 974,
    "▁نتایج": 975,
    "▁نگهبان": 976,
    "▁لازم": 977,
    "▁شاید": 978,
    "▁یونایتد": 979,
    "▁انفجار": 980,
    "▁استرالیا": 981,
    "▁۱۶": 982,
    "▁تهدید": 983,
    "▁گذشت": 984,
    "▁تقاضا": 985,
    "▁شکایت": 986,
    "▁معروف": 987,
    "▁قوانین": 988,
    "▁جدول": 989,
    "▁جشنواره": 990,
    "حفظ": 991,
    "▁انگیز": 992,
    "▁توضیح": 993,
    "▁مرتبط": 994,
    "▁محصول": 995,
    "▁بخوانید": 996,
    "▁فهرست": 997,
    "▁نظیر": 998,
    "ژ": 999,
    "ئ": 1000
  }
}