ی	-3.18964
.	-3.43637
</s>	0
<unk>	0
ه	-3.74461
▁است	-4.09686
▁می	-4.21704
▁	-4.43825
▁های	-4.6187
▁ایران	-4.6669
▁شده	-5.01664
،	-5.06554
▁سال	-5.14729
▁بود	-5.20217
▁یک	-5.2207
▁ها	-5.23551
▁شد	-5.29318
▁تصویر	-5.41176
▁کرده	-5.42114
▁ای	-5.45034
ان	-5.48965
▁کرد	-5.50521
منبع	-5.59925
▁شود	-5.65077
▁گفته	-5.67703
▁بر	-5.70403
▁خود	-5.77456
▁کند	-5.77667
▁دو	-5.78581
؛	-5.79216
ش	-5.796
▁اند	-5.85077
▁کرونا	-5.87315
ت	-5.96281
▁ماه	-6.02412
▁در	-6.03044
▁کشور	-6.03052
▁پیش	-6.06383
▁آمریکا	-6.08279
ین	-6.08756
▁روز	-6.1028
▁گزارش	-6.10608
▁بی	-6.2562
▁فوتبال	-6.26367
▁دارد	-6.26818
م	-6.28146
▁کار	-6.29311
▁گفت	-6.31668
▁ا	-6.31745
▁دهد	-6.3182
▁به	-6.32227
▁تیم	-6.34334
▁کنند	-6.35028
▁اعلام	-6.35365
▁و	-6.3572
▁بازی	-6.36723
▁قرار	-6.37305
▁دیگر	-6.38797
▁م	-6.39251
▁شرکت	-6.40169
▁داده	-6.41021
▁دولت	-6.41836
▁هزار	-6.42547
ن	-6.42662
▁رئیس	-6.44809
▁دست	-6.46138
▁با	-6.48144
▁یا	-6.49189
▁خواهد	-6.49523
▁گذشته	-6.51753
▁سه	-6.52423
▁بین	-6.52637
▁جهان	-6.52771
▁آقای	-6.54293
▁هر	-6.55536
▁پس	-6.56231
▁گوید	-6.58858
▁بار	-6.60094
در	-6.6363
▁درصد	-6.65089
▁درباره	-6.67431
▁میلیون	-6.68244
▁آنها	-6.6827
▁تهران	-6.69551
▁نفر	-6.69678
▁دلیل	-6.69803
ند	-6.71889
▁چند	-6.7199
▁افزایش	-6.72416
▁'	-6.72925
▁لیگ	-6.74058
▁افغانستان	-6.74302
'	-6.7458
این	-6.75561
▁داد	-6.75596
▁بعد	-6.76268
▁هفته	-6.76301
▁از	-6.76912
های	-6.78005
و	-6.78726
▁جدید	-6.78808
س	-6.79138
▁ملی	-6.795
▁بازار	-6.80284
▁حال	-6.80453
:	-6.80961
▁بوده	-6.81933
ا	-6.82249
▁قیمت	-6.83163
▁نام	-6.83611
▁خبر	-6.8406
ب	-6.84151
▁سازمان	-6.84522
ات	-6.84634
▁دلار	-6.85191
▁ویروس	-6.85421
▁جمهوری	-6.85648
▁فیلم	-6.85726
▁نمی	-6.85855
▁همه	-6.86165
▁یکی	-6.86495
▁باید	-6.87401
▁جهانی	-6.88397
▁برگزار	-6.88702
▁نفت	-6.88971
▁نظر	-6.89326
▁بیش	-6.90013
▁ترین	-6.90364
▁گرفته	-6.90525
▁تولید	-6.90916
▁هستند	-6.91729
▁مورد	-6.91737
▁مجلس	-6.92653
▁امروز	-6.93158
▁عنوان	-6.93743
ل	-6.93747
▁شدن	-6.94331
▁کاهش	-6.94813
▁علی	-6.9512
▁روی	-6.95247
▁چین	-6.95984
▁نیست	-6.96015
▁سر	-6.97588
▁ف	-6.97593
▁وزیر	-6.9772
▁بیشتر	-6.97776
▁شب	-6.9779
▁اخیر	-6.99155
د	-6.99346
▁بریتانیا	-6.99879
▁داشت	-7.00163
▁کردند	-7.00513
▁آغاز	-7.00758
▁وزارت	-7.012
▁بودند	-7.0217
▁را	-7.02309
▁سی	-7.02361
▁اروپا	-7.03726
▁حدود	-7.04194
▁نیز	-7.04631
▁نشان	-7.06245
▁مقابل	-7.07077
▁راه	-7.07179
▁باشگاه	-7.07629
ترین	-7.0779
▁بانک	-7.0829
▁اقتصادی	-7.08834
▁تر	-7.08893
▁بزرگ	-7.09923
به	-7.10415
▁تحریم	-7.11306
▁برنامه	-7.11624
▁داشته	-7.11637
▁آن	-7.11962
▁باشد	-7.12148
▁همچنین	-7.12234
▁حضور	-7.1319
▁پایان	-7.13203
▁اساس	-7.13397
ر	-7.1342
▁انجام	-7.14959
▁ت	-7.15011
▁زمان	-7.15113
که	-7.15362
▁اولین	-7.15997
▁اش	-7.17019
▁توافق	-7.18272
▁منتشر	-7.18461
▁صورت	-7.19219
▁باز	-7.20203
▁شیوع	-7.20313
▁اول	-7.20823
▁شهر	-7.20976
▁واکسن	-7.21684
له	-7.21713
▁بخش	-7.2342
▁شوند	-7.23558
او	-7.24788
▁مردم	-7.24902
دامه	-7.25188
▁جمله	-7.25454
▁استفاده	-7.25899
▁میان	-7.26464
ز	-7.27903
▁ایرانی	-7.27992
ری	-7.28575
▁میلیارد	-7.29159
▁گل	-7.29251
▁وجود	-7.29362
▁کم	-7.294
گی	-7.29471
آقای	-7.29683
▁رسید	-7.30425
▁تومان	-7.30847
▁ارز	-7.31276
▁شورا	-7.31547
▁دارند	-7.33192
▁مسابقه	-7.33843
▁همین	-7.33981
؟	-7.34058
▁المللی	-7.34761
▁فصل	-7.348
▁گروه	-7.35694
▁زندگی	-7.3572
▁حقوق	-7.35919
▁خواست	-7.36597
▁ب	-7.3701
▁مسابقات	-7.37373
▁دی	-7.38397
▁چهار	-7.38666
▁شدند	-7.38713
▁مقام	-7.39387
▁آینده	-7.39435
▁تمام	-7.3959
▁تنها	-7.39905
▁نرخ	-7.41017
▁اسلامی	-7.4108
▁وضعیت	-7.42025
▁گیری	-7.42515
▁محمد	-7.42745
▁خانه	-7.43675
▁ماشین	-7.44284
▁اقتصاد	-7.44338
انه	-7.44814
▁افراد	-7.45314
بدون	-7.45457
▁هایی	-7.45598
▁انتخابات	-7.45644
▁امسال	-7.45905
▁وقت	-7.45957
▁گرفت	-7.46554
▁برتر	-7.46626
▁غیر	-7.47078
▁کردن	-7.47219
▁دوران	-7.4725
نه	-7.47251
▁س	-7.47453
▁زنان	-7.47523
▁بیماری	-7.47745
▁خارجه	-7.47793
عث	-7.47928
▁توان	-7.48031
▁قبل	-7.48296
▁شرایط	-7.48468
ار	-7.4903
▁حالی	-7.49903
▁کمی	-7.50157
▁۲۰	-7.50384
▁پ	-7.51002
▁هیچ	-7.51159
▁روحانی	-7.5117
▁زیاد	-7.51173
▁فعالیت	-7.51204
▁بسیاری	-7.51577
▁اجتماعی	-7.51814
ها	-7.52069
▁تلاش	-7.5231
▁نزدیک	-7.52602
▁وارد	-7.5288
▁جام	-7.52931
▁تواند	-7.52946
شان	-7.53343
▁گویند	-7.53952
▁نه	-7.54154
▁منبع	-7.54194
▁ن	-7.54358
▁طور	-7.54408
یت	-7.54536
▁طرح	-7.54554
▁تازه	-7.55011
▁نخست	-7.55401
▁کمک	-7.55727
▁بسیار	-7.559
▁حالا	-7.56009
▁کشورهای	-7.5633
▁مهم	-7.56577
▁ولی	-7.56788
▁فروش	-7.57079
▁مختلف	-7.57099
▁خانواده	-7.57149
▁جان	-7.57242
▁تغییر	-7.5742
▁مدت	-7.57421
▁سوی	-7.57518
▁مرکزی	-7.58264
▁اطلاعات	-7.58336
نوز	-7.58725
▁پنج	-7.58957
▁ساله	-7.58982
▁زن	-7.58992
▁تصمیم	-7.59383
▁بورس	-7.5947
▁تاریخ	-7.59879
▁رسان	-7.59988
▁همراه	-7.60056
▁زمین	-7.60164
▁پی	-7.60642
▁منطقه	-7.60781
▁بالا	-7.61042
قط	-7.61387
▁دوره	-7.62162
▁۱۹	-7.62519
▁خودرو	-7.62614
▁قهرمان	-7.62951
▁سرمایه	-7.63161
▁برای	-7.63342
▁دهه	-7.63506
▁رسمی	-7.63776
▁اثر	-7.64019
▁درگذشت	-7.6436
▁موسیقی	-7.64362
▁حت	-7.64537
▁بعضی	-7.64565
▁مرکز	-7.64746
▁پرسپولیس	-7.65017
▁ریاست	-7.66237
گان	-7.66783
ق	-7.67239
▁اشار	-7.67978
▁آخر	-7.68216
نامه	-7.68427
▁شکست	-7.68881
▁آمار	-7.69101
▁نوشته	-7.6973
▁قهرمانی	-7.69902
▁اصلی	-7.69973
▁کر	-7.70123
▁نقش	-7.70183
▁که	-7.70364
▁حمله	-7.70404
▁پیدا	-7.70441
▁دوم	-7.70491
▁برجام	-7.70493
▁مراسم	-7.70889
▁اینک	-7.71044
▁برابر	-7.71146
▁ه	-7.71249
▁کنار	-7.71502
▁بررسی	-7.71529
▁رقابت	-7.71543
▁۱۰	-7.7172
▁شروع	-7.71839
▁میلادی	-7.71954
با	-7.72168
ست	-7.72172
▁عکس	-7.72216
▁جمهور	-7.72268
یک	-7.72285
▁آمریکایی	-7.72379
▁فدراسیون	-7.72418
▁دانشگاه	-7.72863
▁پر	-7.72968
ثبت	-7.734
▁زیر	-7.73541
▁پول	-7.73887
▁برخ	-7.742
▁اعتراض	-7.74225
▁یافته	-7.74449
▁رسیده	-7.74476
▁رفت	-7.74953
بر	-7.75038
▁ویژ	-7.75135
▁هسته	-7.75137
▁ساعت	-7.75257
▁سفر	-7.75367
ور	-7.75893
▁آزاد	-7.76074
▁کشتی	-7.76272
▁حاضر	-7.77003
▁کل	-7.77267
▁دنیا	-7.77525
▁صد	-7.77934
▁نتیج	-7.78116
▁۵	-7.78531
▁استان	-7.7886
▁سیاسی	-7.79146
▁۴	-7.79861
▁مالی	-7.80009
▁موضوع	-7.80532
▁دور	-7.80672
▁الله	-7.80739
▁ممکن	-7.81093
▁پرداخت	-7.81183
▁کمتر	-7.81218
▁توجه	-7.81301
▁همکاری	-7.81598
▁ندارد	-7.81731
▁کنیم	-7.81791
▁نشده	-7.81846
▁رد	-7.81943
▁سابق	-7.8199
▁کتاب	-7.82005
▁سهام	-7.82092
▁واکنش	-7.82157
توسط	-7.82326
▁شش	-7.82943
▁هم	-7.83138
▁طی	-7.83314
▁ش	-7.83444
▁گذاری	-7.83503
▁دنبال	-7.83631
▁شنبه	-7.83636
▁سیاست	-7.84
▁بازیکن	-7.84379
▁دریافت	-7.84778
▁او	-7.85275
▁عراق	-7.8552
▁حمایت	-7.85538
▁آژانس	-7.8556
▁ده	-7.85671
▁عرض	-7.86316
▁جایزه	-7.86326
▁هدف	-7.8636
▁خام	-7.86362
▁رشد	-7.87567
▁ترکیه	-7.87659
▁ترامپ	-7.87882
اکنون	-7.87925
▁بودجه	-7.87949
▁استقلال	-7.8796
ک	-7.88119
▁۲	-7.8813
▁۲۰۲۰	-7.88298
▁خرید	-7.8852
▁آب	-7.88705
▁انتشار	-7.88722
▁فرانسه	-7.89097
▁آی	-7.89678
۸	-7.89809
▁ر	-7.89944
▁دهند	-7.90004
▁آلمان	-7.90313
▁این	-7.90466
▁سازی	-7.90497
▁تعطیل	-7.90689
▁متهم	-7.90707
▁آمده	-7.90751
▁زبان	-7.91144
نی	-7.91297
▁رسد	-7.91524
ایی	-7.91545
▁خبرگزا	-7.91599
▁انرژی	-7.91943
▁ام	-7.92087
▁نامه	-7.92142
▁نیمه	-7.92143
▁اج	-7.92662
▁پیروز	-7.92841
▁یافت	-7.93459
▁عربستان	-7.94019
▁نا	-7.94062
▁همان	-7.94367
▁چنین	-7.94452
▁بازداشت	-7.94459
▁مذاکرات	-7.94511
روز	-7.94926
رونده	-7.9498
▁طر	-7.95149
▁رو	-7.95158
▁نیاز	-7.95215
)	-7.9527
▁بهداشت	-7.95483
▁شمار	-7.95996
▁مدیر	-7.96161
▁نیم	-7.96165
▁اجرای	-7.96385
▁اتحاد	-7.96661
▁لیورپول	-7.96672
▁روند	-7.96725
▁هشدار	-7.96854
▁تبدیل	-7.96991
▁تایید	-7.97011
▁سوم	-7.97353
▁تلویزیون	-7.97439
▁خارجی	-7.97586
▁حسن	-7.97716
▁محل	-7.97771
▁صادرات	-7.97777
▁میزان	-7.97934
ازه	-7.98093
▁هفت	-7.98296
▁قهرمانان	-7.98889
▁ورزش	-7.99067
▁خارج	-7.99355
▁دیدار	-7.99599
▁قابل	-7.99804
▁آزمایش	-8.00031
▁دیده	-8.00076
▁خط	-8.00106
▁(	-8.00121
▁کشته	-8.00323
یق	-8.00374
ون	-8.00418
ِ	-8.00523
▁ایجاد	-8.00542
▁بازیکنان	-8.00577
سیون	-8.00854
▁خواهند	-8.01005
▁دادگاه	-8.01187
▁مجموعه	-8.01285
▁اقدام	-8.01323
▁مربوط	-8.01884
▁نهایی	-8.01954
▁مشخص	-8.02251
▁جریان	-8.02342
▁جنوبی	-8.02425
گیری	-8.02657
▁بازگشت	-8.02742
▁اسرائیل	-8.02869
▁زندان	-8.03448
▁۳	-8.03491
▁مبارز	-8.03729
▁عضو	-8.03763
از	-8.03769
▁قانون	-8.03796
کسب	-8.03951
▁مرگ	-8.04347
▁خیل	-8.04624
▁سرمربی	-8.04667
▁لغ	-8.05637
▁مدل	-8.0567
▁بشر	-8.06708
▁زمانی	-8.06745
▁فاصله	-8.0675
▁کس	-8.06776
▁حکم	-8.06851
▁روسیه	-8.06863
▁برد	-8.06929
▁انتخاب	-8.06954
▁زده	-8.06995
▁امنیت	-8.07277
▁خطر	-8.07508
▁حکومت	-8.07512
▁دولتی	-8.07549
▁مرد	-8.07678
▁ابتلا	-8.07753
▁رود	-8.08289
▁صنعت	-8.085
▁دوبار	-8.08552
▁چرا	-8.0856
▁سخت	-8.08784
▁ارتباط	-8.08959
▁داستان	-8.09008
▁ارزش	-8.09269
▁انگلیس	-8.09289
▁رهبر	-8.09447
▁بست	-8.09494
▁دقیق	-8.09867
▁بیمارستان	-8.09944
▁اتمی	-8.09998
▁نقل	-8.10014
▁خاطر	-8.10028
▁سن	-8.10222
▁نمایش	-8.10387
▁نمایند	-8.10465
▁نگاه	-8.10553
▁جلو	-8.10605
▁زمینه	-8.10862
▁محدودیت	-8.11326
▁تعداد	-8.11447
▁پلیس	-8.1158
▁کابل	-8.11947
▁درآمد	-8.11967
▁اعضای	-8.12474
▁عمومی	-8.12565
▁سو	-8.12577
ول	-8.12668
▁کننده	-8.1278
▁۳۰	-8.12963
▁نمایندگان	-8.13083
▁۶	-8.13183
▁سخنگوی	-8.13233
▁ساخته	-8.13255
▁تو	-8.13717
▁نسبت	-8.13891
▁تاثیر	-8.1437
▁آثار	-8.14561
▁ساخت	-8.14818
▁لندن	-8.15007
▁طرف	-8.15092
▁منابع	-8.15111
▁شکل	-8.15165
▁امنیتی	-8.15259
▁بیانیه	-8.15573
▁قرارداد	-8.16385
▁آ	-8.16668
▁ترک	-8.16748
▁معاون	-8.16774
▁همزمان	-8.1686
▁رکورد	-8.16961
▁کامل	-8.17017
▁کووید	-8.17108
▁آسیا	-8.1727
▁شناخت	-8.17337
▁طول	-8.17637
▁سپاه	-8.17794
▁جنگ	-8.17915
▁تع	-8.17945
▁امتیاز	-8.18061
▁جاری	-8.18243
▁انسان	-8.18379
▁بالای	-8.18442
▁پخ	-8.18906
▁سطح	-8.19261
▁گاز	-8.19341
مین	-8.19481
▁پزشکی	-8.19548
▁جلس	-8.19698
▁نظامی	-8.20005
▁روزهای	-8.2003
▁کودکان	-8.20054
▁هوای	-8.20131
▁انقلاب	-8.20341
▁قرنطینه	-8.20378
▁رای	-8.20657
ف	-8.20943
▁نیروهای	-8.21558
▁۲۵	-8.21678
▁سالگی	-8.21826
▁افت	-8.21944
▁توانست	-8.21946
▁عالی	-8.22005
▁المپیک	-8.22016
▁تحت	-8.22568
یم	-8.22582
▁تنیس	-8.23161
▁صندوق	-8.2378
▁جو	-8.24013
▁نشست	-8.24151
▁چهر	-8.24174
▁مطرح	-8.24261
▁دیگری	-8.24489
▁معرف	-8.24824
▁بخشی	-8.24873
▁دانست	-8.24905
▁انتظار	-8.24919
▁سابقه	-8.25078
▁نامزد	-8.25241
▁برق	-8.2535
▁داخل	-8.25365
▁گسترده	-8.25409
▁متحده	-8.25556
▁شدت	-8.25957
▁چ	-8.26201
▁قو	-8.26281
▁مصاحبه	-8.26584
▁هز	-8.27026
-	-8.27102
▁مرح	-8.27174
▁بحران	-8.27174
▁جدی	-8.27224
▁شدید	-8.27652
▁نکرده	-8.27792
ج	-8.27905
▁برنده	-8.28048
▁ج	-8.28072
ینه	-8.28159
▁انتقال	-8.28232
▁خوب	-8.2833
▁ظریف	-8.28341
▁بایدن	-8.28353
▁۲۰۰	-8.28451
▁جا	-8.28592
▁نگرانی	-8.28667
▁رفته	-8.29055
▁آیا	-8.29389
▁فشار	-8.29394
▁کسان	-8.29485
چه	-8.29962
تر	-8.30046
▁فعال	-8.30192
اما	-8.3041
ستاد	-8.30449
▁تصوی	-8.30607
▁متوقف	-8.30751
▁۲۰۱۹	-8.30791
▁گرفتن	-8.30992
▁انتقاد	-8.31054
▁فن	-8.3114
▁امور	-8.31432
▁ال	-8.3164
▁حساب	-8.31676
▁گذاشته	-8.32022
▁اتفاق	-8.32065
▁فرهنگ	-8.32182
▁۷	-8.32209
▁اتهام	-8.32485
▁اسفند	-8.32566
▁پاسخ	-8.32608
▁گیرد	-8.32609
▁دستگاه	-8.32754
▁پیشین	-8.32959
▁کشید	-8.32969
▁ایتالیا	-8.33075
▁قطع	-8.33183
▁ارائه	-8.33187
▁حرکت	-8.33206
▁جامعه	-8.3321
▁موسس	-8.33289
▁آمد	-8.33521
▁هند	-8.33593
▁۱۲	-8.33603
▁بد	-8.33719
▁نوشت	-8.33729
الات	-8.33739
▁نوع	-8.33863
▁قدرت	-8.33909
▁مشکلات	-8.33914
▁دونالد	-8.33914
▁فارسی	-8.33947
▁موج	-8.34424
▁بشک	-8.34472
▁دسترس	-8.34719
▁سینما	-8.34799
▁دستور	-8.34819
▁چهارم	-8.34842
▁اف	-8.34888
▁جای	-8.35126
▁طراح	-8.35142
▁فکر	-8.35448
▁خودش	-8.3545
۲	-8.35632
▁وی	-8.35666
▁فروردین	-8.3571
▁فینال	-8.35713
▁فضای	-8.35819
▁نفتی	-8.36055
▁آنچ	-8.36104
▁تن	-8.36192
▁محکوم	-8.36286
▁باشند	-8.36357
▁۱۴۰۰	-8.36419
▁سایر	-8.36425
▁۱	-8.36473
▁مرغ	-8.36565
▁تورم	-8.36805
▁همچن	-8.36842
▁داشتند	-8.36864
▁روزنامه	-8.36895
▁چشم	-8.36946
▁محدود	-8.36978
▁عد	-8.37356
▁اجرا	-8.37452
▁مانده	-8.37499
▁خانم	-8.37523
▁بلند	-8.37532
▁الکتریکی	-8.37688
▁قرن	-8.37695
▁ملل	-8.37706
▁۹	-8.37941
▁آزادی	-8.38069
▁مشکل	-8.38212
▁رقم	-8.38305
▁۱۵	-8.38321
▁یع	-8.38435
▁ورزشی	-8.38441
▁جمعیت	-8.38542
▁جنوب	-8.38868
▁دوشنبه	-8.38969
▁نو	-8.39423
▁غنی	-8.39626
▁بهتر	-8.39866
▁ورود	-8.40325
▁هنگام	-8.40337
▁مصوب	-8.40363
گاه	-8.40809
▁معاملات	-8.41026
▁دادن	-8.41161
▁امضا	-8.41316
▁احتمال	-8.41407
▁آسیب	-8.41633
▁محیط	-8.41637
▁پای	-8.41674
▁تک	-8.41824
▁چگون	-8.42322
▁آبان	-8.42348
▁خروج	-8.42352
ید	-8.42508
۴	-8.42587
▁بینی	-8.42843
▁مسئولان	-8.42863
▁ورزشگاه	-8.43066
ال	-8.43368
▁پشت	-8.43662
ً	-8.43688
▁رشت	-8.43918
▁۱۳	-8.44118
▁تشکیل	-8.44268
▁باقی	-8.44398
▁ناشی	-8.44407
▁دفاع	-8.44453
۵	-8.44621
▁دار	-8.44779
ده	-8.44839
▁جمعه	-8.44878
▁۵۰	-8.44935
▁شهرهای	-8.45044
▁فرهنگی	-8.45068
▁شجریان	-8.45082
▁انفجار	-8.45086
▁اسکار	-8.45135
▁آوریل	-8.4514
▁تجاری	-8.45173
▁شان	-8.452
▁سیاه	-8.45231
▁واحد	-8.45539
▁۲۰۱	-8.45653
▁شامل	-8.45675
ویه	-8.45697
▁بتوان	-8.45747
▁تجرب	-8.45835
▁نهاد	-8.45885
▁محلی	-8.46026
▁تاکید	-8.46501
▁کنید	-8.46517
▁بارسلونا	-8.46518
▁شما	-8.46814
▁کارگران	-8.46885
▁ممنوع	-8.47041
▁اختیار	-8.47109
▁اروپایی	-8.47195
▁طولانی	-8.47232
▁یاد	-8.47252
▁علت	-8.47306
▁شاخص	-8.47408
▁قبلی	-8.47416
گر	-8.47716
۰۰	-8.47918
▁سیستم	-8.47978
▁شکایت	-8.47978
▁لای	-8.48123
▁ح	-8.48228
▁مربی	-8.48265
▁تاریخی	-8.48378
▁بودن	-8.48479
▁امکان	-8.48549
▁ترکیب	-8.48723
▁نبود	-8.48869
▁کوچک	-8.49235
▁متفاوت	-8.49387
▁نویسنده	-8.49436
وز	-8.50109
▁آتش	-8.50143
▁کنم	-8.5026
▁نیروی	-8.50515
▁درمان	-8.50657
▁۱۱	-8.5067
▁احتمالا	-8.50694
حه	-8.50842
▁ترتیب	-8.50859
▁صحبت	-8.50982
▁ضرب	-8.51017
▁مبتلا	-8.51594
▁مرتبط	-8.51607
حفظ	-8.5162
▁چپ	-8.51635
▁دادند	-8.51662
▁مسیر	-8.51692
▁شهروندان	-8.51842
▁ژان	-8.51875
▁۲۲	-8.52209
▁تحقیق	-8.52251
▁روبرو	-8.52315
▁لازم	-8.52361
سازی	-8.52369
▁د	-8.52371
▁قوانین	-8.52375
▁واردات	-8.52661
▁اولیه	-8.52719
▁نظام	-8.52823
ره	-8.5289
▁هنر	-8.52922
▁ونزوئلا	-8.5312
▁آستان	-8.53125
▁ماسک	-8.53212
▁حذف	-8.53626
▁نخواه	-8.53757
▁مشترک	-8.53879
▁کنترل	-8.53893
▁پروژه	-8.53911
▁مواد	-8.53914
▁درخواست	-8.53937
▁بیرون	-8.53939
▁داخلی	-8.53947
▁تامین	-8.53956
▁مسی	-8.54036
▁تحقیقات	-8.54076
▁عباس	-8.54116
▁پایین	-8.54153
▁ابتدای	-8.54245
ته	-8.54307
▁گذشت	-8.54376
▁قرمز	-8.54401
▁حل	-8.54499
▁سقوط	-8.54681
▁فرد	-8.54686
▁سوخت	-8.54694
▁شماری	-8.55279
▁۸	-8.55645
▁خوانده	-8.55706
▁ستار	-8.55872
▁میزبان	-8.55925
▁موارد	-8.56076
▁توسعه	-8.56219
▁نقاشی	-8.56258
▁خون	-8.56348
▁گو	-8.56357
رفع	-8.56422
پس	-8.5655
▁سنت	-8.56595
▁عمل	-8.56765
▁شاهد	-8.56783
▁هرات	-8.57022
▁یکشنبه	-8.5703
▁گون	-8.57102
اخر	-8.57117
نگ	-8.57122
▁افتاد	-8.57509
▁فهرست	-8.57791
▁بگیرد	-8.57795
▁نتایج	-8.57849
▁وین	-8.5788
دی	-8.57996
▁۴۰	-8.58163
▁نژاد	-8.58515
▁رییس	-8.58622
▁سمت	-8.58645
▁متر	-8.58685
▁مسئول	-8.58705
▁سرعت	-8.58742
▁آورد	-8.58935
▁اخیرا	-8.59255
▁طلا	-8.59277
▁چهارشنبه	-8.59395
▁مارادونا	-8.59486
▁شاید	-8.59584
یین	-8.59787
▁ان	-8.59894
▁هوا	-8.5995
▁همیشه	-8.59997
▁نظیر	-8.60205
▁نگهبان	-8.60206
▁زود	-8.60235
▁عامل	-8.6028
▁روابط	-8.6031
▁طبق	-8.60327
▁بالاتر	-8.6036
▁بندی	-8.60651
▁اختلاف	-8.60936
▁هشت	-8.60968
▁سریال	-8.61062
▁زاده	-8.61306
▁سلامت	-8.61875
▁سراسر	-8.6189
▁کلی	-8.61897
▁علاو	-8.62016
▁شمال	-8.62024
بی	-8.62123
▁۱۴	-8.62219
براز	-8.6222
▁برده	-8.62316
▁کارخان	-8.62468
▁تجارت	-8.62697
▁اتاق	-8.62711
▁جز	-8.62774
▁آماده	-8.62788
▁صفر	-8.62797
▁محمود	-8.63029
▁مارس	-8.6342
▁فعالان	-8.6353
▁تقریبا	-8.63545
▁کوتاه	-8.6356
▁دلایل	-8.63602
▁یورو	-8.63762
▁سوار	-8.63787
▁تهی	-8.64029
▁صادر	-8.64111
▁معروف	-8.64378
▁ولایت	-8.64378
▁۲۰۲۱	-8.64392
▁پارسال	-8.64395
▁جشنواره	-8.6443
▁بارها	-8.64472
▁اس	-8.64481
▁هایش	-8.64793
▁قانونی	-8.64848
▁هنری	-8.65032
▁حادثه	-8.65306
▁مصرف	-8.65363
▁اقدامات	-8.65429
▁قطر	-8.65553
▁زد	-8.65558
▁قصد	-8.65573
▁۶۰	-8.65615
▁رفتن	-8.65696
▁کارگردان	-8.65795
▁پور	-8.65881
▁ندارند	-8.66089
▁بخوانید	-8.6609
▁اوپک	-8.66176
▁تاج	-8.66204
▁بدن	-8.66234
▁کالا	-8.66267
▁تاکنون	-8.66344
▁احمد	-8.66578
▁رسیدن	-8.66748
▁فوت	-8.66944
▁مشهور	-8.66964
▁جمع	-8.67059
▁اداره	-8.67098
▁۹۸	-8.67177
▁رمان	-8.67182
▁ک	-8.67183
▁غرب	-8.67284
▁شناسا	-8.67647
▁مهر	-8.67847
▁اعدام	-8.67853
▁ع	-8.67983
▁هواپیمایی	-8.68048
▁واقع	-8.681
▁رنگ	-8.68405
▁۱۶	-8.68724
▁مشابه	-8.68772
▁حد	-8.68963
▁صفح	-8.69131
نمایی	-8.69317
▁هواداران	-8.69423
▁پیشنهاد	-8.69467
▁نقطه	-8.69617
▁بنزین	-8.6976
▁دارایی	-8.69802
▁مجازی	-8.69869
▁تابستان	-8.69963
▁گروهی	-8.69966
▁کیلومتر	-8.70008
▁کنندگان	-8.70078
▁پرواز	-8.70373
▁حق	-8.70413
▁مناطق	-8.70514
▁سیتی	-8.70749
مان	-8.7079
▁بیست	-8.71049
▁پیام	-8.71342
▁خوزستان	-8.71424
▁رعایت	-8.7143
▁عملیات	-8.71492
▁سود	-8.71618
▁فرم	-8.71649
▁کاملا	-8.71652
▁ماند	-8.71692
▁اندازه	-8.7194
▁خصوصی	-8.72257
▁موفق	-8.72284
▁قلب	-8.72341
▁چاپ	-8.72477
▁سایت	-8.72618
▁سوریه	-8.72663
▁زیست	-8.72823
▁حرفه	-8.72925
▁تهدید	-8.72952
▁انگیز	-8.73213
▁احیا	-8.73271
▁نظارت	-8.73273
▁عدالت	-8.73281
▁فساد	-8.73295
▁ایمن	-8.73322
وق	-8.73393
▁مت	-8.73416
▁نهادهای	-8.73683
▁کشورها	-8.73686
▁زنده	-8.73702
▁اطلاع	-8.73732
▁مالیات	-8.73736
اساس	-8.73941
▁کاخ	-8.74231
▁فرصت	-8.74242
▁پاریس	-8.74262
▁توییتر	-8.74368
علی	-8.74368
▁جهش	-8.74373
▁برسد	-8.74403
۶	-8.74488
▁پدر	-8.74548
▁عمده	-8.74572
▁مرز	-8.74788
▁محمو	-8.75061
▁توصیف	-8.75163
▁اینترنت	-8.75164
▁رکود	-8.75186
▁بریتانیایی	-8.75191
▁کشف	-8.75191
▁حوزه	-8.75201
▁یونایتد	-8.75209
▁اعتراضات	-8.75455
▁جنسی	-8.75642
▁کودک	-8.75661
▁نگران	-8.75706
▁کنون	-8.75879
▁بایرن	-8.76112
▁نسل	-8.76119
▁۱۸	-8.76126
▁مجوز	-8.76128
▁جدول	-8.76128
▁خواهان	-8.7618
ایران	-8.7626
▁آید	-8.76486
▁علمی	-8.76515
طور	-8.76613
▁تا	-8.76792
وی	-8.77037
▁حزب	-8.77059
▁سفید	-8.77071
لی	-8.7719
▁بازیگر	-8.77601
▁مذاکر	-8.77925
▁خالی	-8.77988
▁افغان	-8.78031
▁رابطه	-8.7806
▁عملکرد	-8.78063
▁چیزی	-8.78093
▁پژوهش	-8.78835
▁استرالیا	-8.78943
ع	-8.78967
▁کارگر	-8.78994
▁توپ	-8.79074
عده	-8.7911
▁تصاویر	-8.79137
▁۱۷	-8.79264
▁روش	-8.79471
▁سعید	-8.79561
▁دهم	-8.79762
▁۹۰	-8.79768
▁گفتگو	-8.79801
▁عبور	-8.79866
▁میدان	-8.79883
▁خودروساز	-8.79897
▁صدا	-8.79958
▁مواجه	-8.79958
▁۵۰۰	-8.79994
▁موافقت	-8.80097
▁فدرر	-8.80165
▁سنگین	-8.80241
▁تغییرات	-8.80383
▁فضایی	-8.80497
▁دومین	-8.8052
▁بزرگترین	-8.80562
ح	-8.80575
محمد	-8.80704
▁مجموع	-8.8074
▁پایتخت	-8.81
▁سنگ	-8.81148
▁مک	-8.81233
فورد	-8.81369
▁سریع	-8.81395
▁جوان	-8.81423
▁بیکار	-8.81616
▁گذار	-8.81859
خانه	-8.81875
▁چیز	-8.81946
▁مجدد	-8.82011
▁باخت	-8.82223
▁تی	-8.82245
▁روشن	-8.82308
▁پنجم	-8.82336
۷	-8.82366
▁سکه	-8.82487
▁ایالت	-8.82512
▁مهدی	-8.82647
▁درست	-8.82805
▁ژوئن	-8.8303
▁مشغول	-8.83031
▁سرطان	-8.831
▁نفتکش	-8.8312
▁بیشتری	-8.83131
▁حب	-8.83147
▁نشد	-8.83202
▁دختر	-8.83361
▁خواند	-8.83513
۱	-8.83925
▁برخورد	-8.84044
▁رانند	-8.84058
▁تاجیکستان	-8.84063
▁مقایس	-8.84063
▁مقررات	-8.84084
▁موفقیت	-8.84134
▁مردان	-8.84144
▁امام	-8.84205
▁خواننده	-8.84337
▁کدام	-8.84343
▁صدای	-8.84484
▁لو	-8.84679
▁رساند	-8.84909
▁توضیح	-8.84993
▁جدا	-8.85018
▁مجبور	-8.85104
▁آرژانتین	-8.85123
▁جشن	-8.85124
▁حسین	-8.85165
▁فرمانده	-8.85174
▁-	-8.85174
▁سخنران	-8.85178
▁چلسی	-8.85238
▁مانع	-8.85285
▁مدیریت	-8.85332
▁پروازهای	-8.85412
▁۲۴	-8.85726
نجر	-8.86062
▁ملت	-8.86097
▁اضاف	-8.86152
▁تجمع	-8.86155
▁افتاده	-8.86187
▁گاه	-8.8625
دو	-8.86309
▁بهار	-8.86363
سی	-8.86497
اس	-8.86529
▁دریا	-8.86607
▁حرف	-8.86707
عمال	-8.86965
ای	-8.87051
▁قطعی	-8.87102
▁منتقل	-8.8722
▁خاک	-8.87227
▁اظهارات	-8.8732
ممنوعیت	-8.87471
▁کاری	-8.87598
ام	-8.87633
▁۲۸	-8.87917
وم	-8.87957
▁پیشتر	-8.88052
▁تشخیص	-8.88295
▁روزانه	-8.88325
▁ارتش	-8.8835
▁ساختمان	-8.88352
▁سفیر	-8.88368
▁دفتر	-8.88415
▁بهمن	-8.88429
▁تاتنهام	-8.88434
▁مل	-8.88613
▁مه	-8.88706
چند	-8.88796
▁من	-8.88927
▁برداشت	-8.8895
▁احمدی	-8.89068
▁تقوی	-8.89205
▁خصوص	-8.89273
یر	-8.89355
▁پل	-8.8936
▁قضایی	-8.89361
▁واکسین	-8.89382
▁ارشد	-8.89415
▁دبیر	-8.89425
▁مجله	-8.89467
▁نشری	-8.90155
▁بن	-8.90229
▁رخ	-8.90238
▁دکتر	-8.90263
▁شاه	-8.90437
▁اسپانیا	-8.90441
▁یو	-8.90452
▁نقاط	-8.90481
▁بهبود	-8.9051
▁۱۰۰	-8.90542
عودی	-8.90628
▁گذاشت	-8.91154
▁خبرنگار	-8.91224
▁بنا	-8.91236
وایل	-8.91241
▁مالک	-8.91245
▁بیت	-8.91485
▁دوچرخه	-8.91592
▁انگلستان	-8.91594
▁گردد	-8.91623
▁یابد	-8.91645
▁آورده	-8.91818
▁واقعی	-8.92122
▁بازارهای	-8.92209
▁امیدوار	-8.92484
▁کن	-8.92646
▁حداقل	-8.92715
▁دچار	-8.92716
▁مرداد	-8.92781
▁امیر	-8.92817
▁بحث	-8.92851
▁قدیمی	-8.9308
▁منف	-8.93332
▁هنرمند	-8.93445
پ	-8.9349
▁ریز	-8.93624
▁اوت	-8.93694
▁بستر	-8.93851
▁ظرف	-8.93852
▁سرشناس	-8.93858
▁ظاهر	-8.93861
▁چه	-8.93948
▁وزن	-8.93959
▁زدن	-8.94023
▁درآمدها	-8.94039
▁نوری	-8.94045
تبه	-8.94171
▁دنیای	-8.94346
▁زندانی	-8.94358
▁سوئیس	-8.94366
▁اجرایی	-8.947
اوری	-8.94789
▁تورنمنت	-8.95001
▁امید	-8.95003
▁دوربین	-8.9502
▁خورد	-8.95033
▁گمرک	-8.95065
▁محمدرضا	-8.95141
▁مد	-8.95247
▁دوست	-8.95539
اب	-8.95579
▁دل	-8.95622
▁درواز	-8.95626
▁حریف	-8.95786
▁مسکن	-8.96167
▁فراهم	-8.96171
▁علاقه	-8.96186
▁پاسداران	-8.96201
▁نمو	-8.96243
▁بال	-8.96766
▁ابتدا	-8.96882
▁صبح	-8.97363
▁۱۳۹۹	-8.97375
▁عرب	-8.97379
▁نویس	-8.97398
▁دانند	-8.97399
▁۲۳	-8.97435
▁انگلیسی	-8.97738
▁آموزش	-8.98034
▁عهد	-8.98097
▁رضا	-8.98101
▁ناز	-8.98159
▁وابست	-8.98532
▁قتل	-8.98533
▁کانال	-8.98561
▁اوراق	-8.98583
▁جنجال	-8.98626
▁رفتار	-8.98695
▁موجب	-8.98734
▁شرق	-8.98804
▁موجود	-8.9899
▁بهداشتی	-8.99202
▁ژاپن	-8.99237
▁مادر	-8.99244
▁مغز	-8.994
۳	-8.99426
بیشتر	-8.99659
▁وضع	-8.99695
▁فرانسوی	-8.99758
▁تزریق	-8.99773
▁دانشمندان	-9.00207
▁سینمایی	-9.00247
▁کارشناسان	-9.00257
▁زنی	-9.00689
▁معتقد	-9.00955
ریمه	-9.00959
▁معتبر	-9.00963
▁منچستر	-9.00975
▁واشنگتن	-9.00978
▁هدایت	-9.00993
▁کوین	-9.01
▁بحرین	-9.01
▁طبیع	-9.01049
▁پوند	-9.01054
▁فعلی	-9.01077
▁آوری	-9.01173
▁مثبت	-9.0156
▁۷۰	-9.01592
▁شخصی	-9.01645
▁صعود	-9.01774
▁نهایت	-9.02083
▁خرداد	-9.02196
▁مادرید	-9.02241
▁فیفا	-9.0226
▁معادل	-9.02265
▁شخصیت	-9.02461
▁کنونی	-9.02558
▁بیمار	-9.02747
▁صدر	-9.02772
▁خودروهای	-9.02827
کنندگان	-9.03018
▁پوست	-9.0328
▁روایت	-9.03335
▁مستقیم	-9.03339
▁فنی	-9.03397
▁صاحب	-9.0344
▁نشود	-9.0344
▁آلبوم	-9.03449
▁مبتلایان	-9.03468
▁راست	-9.03514
۹	-9.03641
▁خوش	-9.03828
▁قبلا	-9.04008
▁ارزی	-9.04027
▁دختران	-9.04033
▁مقامات	-9.04078
▁فارس	-9.04433
▁فر	-9.04574
▁دین	-9.04589
▁ارسال	-9.04709
▁خانگی	-9.04759
▁ما	-9.04774
▁معمولا	-9.04805
▁مخالفت	-9.04896
نیوم	-9.04901
▁کارهای	-9.04921
▁پرو	-9.0527
▁پذیر	-9.05323
▁فوریه	-9.05392
دار	-9.05518
▁دید	-9.05665
▁برزیل	-9.05711
▁معامل	-9.05906
▁قدم	-9.05931
▁طالبان	-9.06072
▁آلمانی	-9.06075
▁تعدادی	-9.06194
شب	-9.06375
▁هستیم	-9.06479
▁دریای	-9.06711
▁نداشته	-9.06856
▁۹۹	-9.06872
▁گرفتند	-9.06907
▁شعر	-9.07272
▁خدمات	-9.07365
▁۱۳۹	-9.07373
▁کاربران	-9.07447
▁چندان	-9.07722
▁ارزها	-9.07844
▁اورا	-9.07986
▁سرخ	-9.08027
▁صحنه	-9.08055
▁اصلاح	-9.08233
▁حمل	-9.08294
▁اقیانوس	-9.08506
▁العاده	-9.08603
▁متعل	-9.08605
▁موقعیت	-9.08634
▁پالایشگاه	-9.08697
▁قضائیه	-9.08715
▁مهار	-9.08919
▁افزوده	-9.09078
داری	-9.09151
▁گستر	-9.09253
▁جمعی	-9.0927
▁پا	-9.09304
▁هاست	-9.09643
▁محصولات	-9.09733
▁زاد	-9.09847
▁مطالع	-9.09918
▁زاغری	-9.09935
▁مدیرعامل	-9.09961
▁ضد	-9.10016
نقض	-9.10017
▁دانش	-9.10039
▁داریم	-9.10077
▁سینمای	-9.10153
▁عق	-9.10234
▁۲۱	-9.10475
▁بنابر	-9.10783
▁تقاضا	-9.11267
غلب	-9.11285
▁مونیخ	-9.11288
▁هوشمند	-9.11291
▁قاچاق	-9.11296
▁کمبود	-9.11333
▁گیرند	-9.11443
▁ماهه	-9.1147
▁جدیدی	-9.11616
▁درگیری	-9.11736
▁زندانیان	-9.11839
یست	-9.11899
▁۳۵	-9.11991
اسیون	-9.12006
ازگی	-9.12027
▁معنای	-9.12294
▁مستند	-9.12508
▁احساس	-9.12585
▁بدهی	-9.12604
▁نقدینگی	-9.12657
▁اردیبهشت	-9.12666
▁لباس	-9.12673
▁چالش	-9.1269
▁قسمت	-9.12716
▁جایی	-9.12754
اسی	-9.12779
حسین	-9.12832
توجه	-9.12835
▁مخالفان	-9.12977
۰	-9.12992
▁بیماران	-9.13124
تا	-9.13279
▁استاد	-9.13477
▁سند	-9.13536
▁زخمی	-9.13695
▁شهروند	-9.13751
▁هیا	-9.13875
▁هست	-9.13917
▁سامان	-9.13917
▁استقبال	-9.14046
▁ژوئیه	-9.14046
▁جزئیات	-9.14083
▁رونالدو	-9.14109
▁جوایز	-9.14123
مقام	-9.14132
▁رویترز	-9.14141
▁آهنگ	-9.1417
▁تصور	-9.14205
▁عادی	-9.14211
▁گوش	-9.14312
▁ایم	-9.14346
▁علیرضا	-9.14441
▁دیوان	-9.14482
▁مرزی	-9.14531
▁بازرگانی	-9.14712
خلق	-9.14868
▁بنز	-9.15384
▁نداشت	-9.15413
▁مدیران	-9.15444
▁کارکنان	-9.15454
▁عجیب	-9.15459
▁چیست	-9.1549
▁سفارت	-9.15498
▁۳۰۰	-9.1555
▁نویسندگان	-9.15578
▁مجری	-9.15579
▁معترضان	-9.15602
▁موتور	-9.1574
▁مسافران	-9.15777
▁آبی	-9.15822
▁خورشیدی	-9.15985
▁تخم	-9.16168
هرگز	-9.16208
▁کشورش	-9.16558
▁ساز	-9.1667
▁توصی	-9.16856
▁صلح	-9.16883
▁موزه	-9.16892
▁سوپر	-9.16895
▁سیستان	-9.16931
قیف	-9.16947
▁تخریب	-9.16962
▁تلفن	-9.16981
▁کی	-9.17006
رضا	-9.1702
▁تومانی	-9.17098
وزارت	-9.17121
▁مکان	-9.1726
▁گران	-9.17361
▁۲۶	-9.17472
▁ملک	-9.17721
نس	-9.17752
▁کافی	-9.17763
▁غربی	-9.17869
▁اینستاگرام	-9.18017
▁حسینی	-9.18261
▁حفاظت	-9.18332
▁پاکستان	-9.18335
▁آمازون	-9.18342
▁صنایع	-9.18342
▁جودو	-9.18343
▁میلان	-9.18344
▁فرهاد	-9.18432
▁ناظر	-9.18575
▁درگیر	-9.18728
▁واقعیت	-9.18835
▁برمی	-9.18897
▁مشا	-9.18945
▁همسر	-9.19065
▁لی	-9.19491
▁تیر	-9.19546
▁لحظ	-9.19762
▁اشتباه	-9.19766
▁حاصل	-9.19805
▁سیما	-9.19808
▁مبلغ	-9.19813
▁نگهداری	-9.19814
▁عوامل	-9.19836
▁مدافع	-9.19836
▁گر	-9.1987
▁نیویورک	-9.19885
▁دارو	-9.19988
▁نور	-9.20025
دولت	-9.2011
نین	-9.20243
▁پیشرفت	-9.20373
▁ق	-9.20579
▁۸۰	-9.208
▁مر	-9.20862
یابی	-9.20909
▁اسرائیلی	-9.21121
▁راهی	-9.2117
کش	-9.21199
▁ارقام	-9.21295
▁تحویل	-9.21295
▁بهادار	-9.21303
▁تقاضای	-9.21327
▁کالاهای	-9.21351
▁پروتکل	-9.21378
▁وکیل	-9.21397
▁ماموران	-9.21398
▁برقرار	-9.21494
من	-9.21559
▁صوتی	-9.21651
▁نشر	-9.21687
▁دریایی	-9.21812
▁اع	-9.21838
▁داشتن	-9.21975
▁فردا	-9.22107
▁کشاورز	-9.2235
▁خورده	-9.22371
کل	-9.22504
▁آهن	-9.22688
▁نتوانست	-9.22818
▁اهمیت	-9.22821
▁رئال	-9.22857
▁تأ	-9.22859
▁نگه	-9.22871
▁مجید	-9.22875
▁صراف	-9.2288
▁حاشیه	-9.22914
▁خواهیم	-9.22931
▁انجمن	-9.22951
▁اوج	-9.22997
فدراسیون	-9.23134
▁ورزشکاران	-9.23198
▁متوسط	-9.235
▁صف	-9.23571
سون	-9.23592
▁چک	-9.2376
▁مو	-9.2391
▁ست	-9.23988
▁عین	-9.24056
▁آرام	-9.2415
▁بازنشستگ	-9.24186
▁صرف	-9.24345
▁تعویق	-9.24349
▁بلوچستان	-9.2435
▁برجسته	-9.2435
وس	-9.24353
▁آزار	-9.24354
▁آسمان	-9.24359
▁مسدود	-9.24359
▁متعدد	-9.2436
▁ریال	-9.24367
▁توقف	-9.24369
▁مراجع	-9.24371
▁احتمالی	-9.24433
▁تیراندازی	-9.24602
▁روزها	-9.24637
▁برود	-9.24643
قدر	-9.24987
▁فوری	-9.25376
▁فرزند	-9.2555
▁کارشناس	-9.25634
▁ترس	-9.25808
▁قالیباف	-9.25911
▁مراقب	-9.25915
▁سراوان	-9.25915
▁نجات	-9.25915
▁مدعی	-9.25916
▁تمدید	-9.25922
▁پلاس	-9.25928
▁پست	-9.25929
▁پنجشنبه	-9.25945
▁محرم	-9.25954
▁نادال	-9.25962
▁تماس	-9.25964
▁گلستان	-9.25981
▁ادبیات	-9.26014
▁دشوار	-9.261
▁چهل	-9.26132
▁الدین	-9.26235
▁مارک	-9.26545
قانونی	-9.26582
▁شک	-9.26757
▁گرم	-9.26762
▁نگار	-9.26931
نده	-9.26984
▁مهاجم	-9.27074
▁مناسب	-9.27243
▁کردم	-9.27407
▁سلطنت	-9.27499
تنظیم	-9.27499
▁افتخار	-9.27499
▁جذب	-9.27502
▁توکیو	-9.27504
▁کارها	-9.27506
▁آنلاین	-9.27529
▁امارات	-9.2757
▁ایسنا	-9.27576
▁اخراج	-9.27614
▁رافائل	-9.27666
برای	-9.28076
▁تمامی	-9.2808
▁پژوهشگران	-9.28096
▁فضا	-9.28102
رکت	-9.28271
کس	-9.2839
▁مج	-9.28436
▁حج	-9.28893
ستاره	-9.29007
▁کردیم	-9.29034
▁اختصاص	-9.29111
▁نحو	-9.29112
▁اخبار	-9.29124
▁زا	-9.29131
▁لوکس	-9.2915
▁فایل	-9.2916
▁سوال	-9.29207
▁تخت	-9.2923
▁کلوپ	-9.29308
▁اتفاقات	-9.29484
گرد	-9.29517
تان	-9.29634
▁داور	-9.29664
▁جنگل	-9.29688
▁حذفی	-9.297
▁شبانه	-9.29811
گ	-9.29836
امبر	-9.29903
سال	-9.29933
▁اصل	-9.30025
▁مربیان	-9.30046
▁شناس	-9.3021
▁ورزشکار	-9.30437
▁موشک	-9.30504
▁خان	-9.30566
▁غذا	-9.30589
▁توییت	-9.30606
▁۳۱	-9.30663
▁ناگهان	-9.30751
▁مشمول	-9.30751
▁نوبل	-9.30763
▁نوامبر	-9.30774
▁اسطوره	-9.30782
▁سبک	-9.30804
▁موقت	-9.30849
▁جایگاه	-9.30851
▁مطابق	-9.30931
▁ساکن	-9.30981
لان	-9.31057
▁بندر	-9.31068
▁آل	-9.3109
▁داند	-9.31135
خبرگزا	-9.31244
▁سهم	-9.31255
▁هواپیما	-9.31439
▁هی	-9.3191
▁دما	-9.32169
▁محبوب	-9.32247
▁طبیعت	-9.32291
▁محروم	-9.32353
▁اکتبر	-9.3242
▁مسلح	-9.32429
▁کنسرت	-9.32441
▁غذای	-9.32446
▁۲۰۱۷	-9.32461
▁همتی	-9.32465
▁خیریه	-9.32482
▁نارنجی	-9.32522
▁بازگرداند	-9.32539
▁ماجرا	-9.32578
گری	-9.32738
▁مدرسه	-9.32806
▁باره	-9.32834
وید	-9.32908
▁بو	-9.33223
نا	-9.33253
▁پرس	-9.33432
▁خورشید	-9.33529
▁ادبی	-9.33575
▁۴۲	-9.33677
▁سپاهان	-9.3373
▁۲۹	-9.33863
▁باور	-9.34063
▁دعوت	-9.34112
▁ویمبلدون	-9.34112
▁کاپیتان	-9.34112
▁ثابت	-9.34112
▁مسئ	-9.34114
▁اجاره	-9.34118
▁معرض	-9.3412
▁ماده	-9.34152
▁عصر	-9.34167
▁هموار	-9.34232
▁پارک	-9.34258
▁یکدیگر	-9.34269
جواد	-9.34316
▁راجر	-9.3437
▁زند	-9.34571
سازمان	-9.34625
▁عبدال	-9.34665
▁اندازی	-9.34987
▁برگشت	-9.34993
▁حیات	-9.35193
▁سد	-9.35325
▁حس	-9.35335
▁اسب	-9.35413
▁دام	-9.3549
▁سعی	-9.35753
▁شمالی	-9.35819
▁توزیع	-9.35836
▁دیجیتال	-9.35836
▁بقیه	-9.35837
▁هنرپیشه	-9.35837
▁مسائل	-9.35838
▁ساحل	-9.35872
▁گام	-9.35877
▁عید	-9.3589
لاک	-9.35894
▁سپت	-9.36051
کو	-9.36231
▁مواردی	-9.36246
▁هنرمندان	-9.36489
▁پزشک	-9.36512
رنگ	-9.36517
▁اطلاعی	-9.36526
▁افزود	-9.3654
▁تعهدات	-9.36776
▁تئاتر	-9.36856
وع	-9.36894
▁فرار	-9.36898
▁اساسی	-9.36903
▁سهمی	-9.36935
▁بند	-9.37094
ما	-9.37103
▁رحمان	-9.37188
▁مالکی	-9.37564
تیم	-9.37571
▁اصفهان	-9.37591
▁مراکز	-9.37591
▁خسارت	-9.37592
▁ثانی	-9.37615
▁۱۳۹۷	-9.37627
جا	-9.37644
▁فراموش	-9.37646
▁فرا	-9.37659
▁مایک	-9.37674
▁منتظر	-9.37689
▁خدم	-9.37699
▁مشاور	-9.37721
▁طرفداران	-9.37748
▁کلاس	-9.37778
▁پاس	-9.37868
▁فوتبالیست	-9.37878
▁گیر	-9.37948
رئیس	-9.38163
▁بوی	-9.38214
▁تست	-9.38295
▁درجه	-9.38336
▁نزدیکی	-9.38438
▁شاعر	-9.385
▁مخالف	-9.38585
▁چرخ	-9.38757
▁مجاز	-9.38794
▁آفریقا	-9.38833
▁خیابان	-9.38877
▁آذر	-9.38903
کار	-9.3894
▁بعدا	-9.39163
▁جه	-9.39198
▁تحصیل	-9.39268
▁رویکرد	-9.39271
▁مشاهد	-9.39297
علوم	-9.39321
▁نداریم	-9.39377
▁بوکس	-9.39395
▁رسما	-9.3941
▁پرتاب	-9.39419
▁گذرد	-9.39463
افسانه	-9.39523
▁پسر	-9.39635
▁لیون	-9.397
▁لس	-9.39917
خانم	-9.40009
▁مسافر	-9.40106
▁موسو	-9.40328
▁سای	-9.40338
یا	-9.40342
▁وگو	-9.40608
▁داروی	-9.40631
▁بعدی	-9.40665
▁استعفا	-9.40685
▁دستگیر	-9.4073
▁آور	-9.41016
ود	-9.41064
▁اتومبیل	-9.41195
▁تاخیر	-9.41197
▁ایستگاه	-9.41215
▁سرپرست	-9.41251
▁اهل	-9.4126
▁ضمن	-9.41303
▁تاسیسات	-9.41315
▁نیازمند	-9.41557
▁ض	-9.41925
یکی	-9.41966
۱۹	-9.41988
▁متحد	-9.42107
▁بلا	-9.4212
▁برادر	-9.42315
باید	-9.42321
▁فرستاده	-9.42692
▁بازگش	-9.42718
پیش	-9.42873
▁تمرین	-9.42935
▁عمیق	-9.4296
▁اعتبار	-9.43046
▁قبول	-9.43048
▁هویت	-9.43093
▁جیمز	-9.43103
▁آکادمی	-9.43177
ینگ	-9.43202
▁سخنان	-9.43414
را	-9.43642
▁شیو	-9.43783
▁گفتند	-9.43939
آ	-9.44019
▁پدید	-9.44258
▁بیان	-9.44323
هر	-9.44342
▁رقیب	-9.44484
▁رادیو	-9.44592
▁عکاسی	-9.44611
▁محسو	-9.44649
ازم	-9.44854
ساوی	-9.44858
سیم	-9.44885
▁مشهد	-9.44933
ضاع	-9.44947
▁قار	-9.44961
▁تکرار	-9.44969
▁شغل	-9.44973
▁شهریور	-9.44981
▁پنجاه	-9.4499
▁حکام	-9.45021
وال	-9.45042
▁دوستان	-9.4505
▁گذارد	-9.45104
▁باب	-9.45153
▁قربانیان	-9.45157
▁قضاییه	-9.45268
اک	-9.45318
▁هواپیمای	-9.4542
▁عدد	-9.45428
▁وام	-9.45619
گزارش	-9.45664
▁خاص	-9.45852
حمل	-9.45857
تمام	-9.45975
▁کسر	-9.45981
▁دارای	-9.46072
▁شبی	-9.46077
▁فرود	-9.46261
▁خ	-9.46391
اپی	-9.46415
▁قوی	-9.465
▁قاسم	-9.46504
▁عا	-9.46625
▁محافظ	-9.46718
▁جذاب	-9.46787
▁حوادث	-9.46856
▁خشونت	-9.46856
▁اجلاس	-9.46857
ذیب	-9.46859
▁بان	-9.46861
▁حاکی	-9.46863
▁متولد	-9.46876
▁مریخ	-9.469
▁عرص	-9.46917
▁فروخت	-9.46924
داد	-9.46924
▁یوونتوس	-9.4694
▁ملایی	-9.46988
▁هماهنگ	-9.47012
ظ	-9.47145
▁فردی	-9.47147
▁منتقدان	-9.47211
▁آمیز	-9.47231
▁آر	-9.47234
▁همسرش	-9.47261
▁ز	-9.47272
▁دیدن	-9.47348
▁توانسته	-9.47389
▁نادر	-9.47452
▁نهم	-9.47498
▁ترجم	-9.47556
▁خبرنگاران	-9.47667
▁بهای	-9.47888
▁ریش	-9.48174
بار	-9.48239
▁دامن	-9.48258
...	-9.48313
▁سرای	-9.48348
▁معدن	-9.4844
▁۳۲	-9.48665
▁مار	-9.48674
▁دستمزد	-9.48711
▁اطراف	-9.48817
▁اسکاتلند	-9.48818
▁چنان	-9.4882
▁موضع	-9.48822
▁برآورد	-9.48826
▁فرودگاه	-9.48843
▁صلاحیت	-9.4885
▁آلودگی	-9.48868
▁ابراهیم	-9.48927
▁نرم	-9.49033
▁اتریش	-9.49087
▁اسکی	-9.49092
▁خلی	-9.49285
▁کوه	-9.49495
▁جی	-9.49496
▁گرانی	-9.49545
ناصر	-9.49573
عهد	-9.49781
▁درک	-9.49844
▁هرچ	-9.49933
▁جلوی	-9.49957
▁همچ	-9.4998
▁جراح	-9.50314
▁شناسی	-9.50405
▁مان	-9.50533
▁متن	-9.50629
▁۴۰۰	-9.5068
▁الملل	-9.50766
▁پدرش	-9.50778
▁بهتری	-9.50812
گون	-9.50824
▁حراج	-9.50824
▁الهام	-9.50834
▁واگذار	-9.50917
▁پایگاه	-9.50923
▁حملات	-9.50983
ص	-9.5099
▁بنیاد	-9.51146
▁قول	-9.51253
▁سلیمانی	-9.51383
شیدا	-9.51507
▁شیر	-9.51574
▁جوانان	-9.5168
صد	-9.51753
▁موثر	-9.51986
▁مس	-9.51993
▁پیوست	-9.52199
▁حامل	-9.5258
▁انداخته	-9.52835
▁بلینکن	-9.52858
▁مصنوعی	-9.52858
▁شصت	-9.52858
▁زمستان	-9.52859
▁متوالی	-9.52861
▁قالب	-9.52867
▁تعلیق	-9.5287
▁خطرناک	-9.52872
▁ماموریت	-9.5288
▁نفس	-9.52885
▁ایرنا	-9.529
▁تسلا	-9.52901
▁نقاش	-9.52908
مه	-9.52909
▁فیسبوک	-9.52922
▁متخصص	-9.52922
▁آرسنال	-9.52925
▁تبلیغات	-9.52932
▁۲۰۱۵	-9.52938
▁بازرس	-9.52941
▁شوم	-9.52943
▁ناسا	-9.53145
جمع	-9.53308
▁پزشکان	-9.53348
▁ایتالیایی	-9.53417
▁کنگ	-9.53722
بنابر	-9.53747
▁دوز	-9.53806
▁توانای	-9.54064
رسدس	-9.54529
▁آماد	-9.54735
▁اظهار	-9.54831
فسور	-9.54889
▁شاغل	-9.54941
▁تنفس	-9.54941
▁تشویق	-9.54948
▁تولد	-9.5495
▁قطب	-9.54972
▁بگیرند	-9.54977
▁شهرستان	-9.54998
▁ساعات	-9.55033
▁میراث	-9.5506
▁انداز	-9.55137
▁دادستان	-9.55174
▁مشتریان	-9.55201
▁کارمندان	-9.55285
▁نشین	-9.55301
سا	-9.55345
▁جانب	-9.55354
▁اوپ	-9.55625
▁رهبری	-9.55647
▁سوزی	-9.55686
بط	-9.55715
▁چا	-9.55847
لیک	-9.55874
زاده	-9.55906
▁نامش	-9.55921
▁نکرد	-9.5645
▁نیستند	-9.56579
▁سا	-9.56838
▁مبن	-9.56935
▁دیوار	-9.56976
تصاب	-9.57054
▁اضطرار	-9.57069
▁ژافره	-9.57069
▁نطنز	-9.57069
▁سرنگون	-9.57069
▁جبران	-9.5707
▁شفاف	-9.57076
▁آنجلس	-9.57081
▁رمز	-9.57121
▁اطمینان	-9.57136
▁ماراتن	-9.57136
▁آشنا	-9.57168
▁کانادا	-9.57202
▁رانندگان	-9.57209
▁شهرسازی	-9.57282
▁حداکثر	-9.5742
▁هوش	-9.57424
▁کالاها	-9.57447
حسن	-9.57542
▁نبوده	-9.5763
▁معن	-9.57636
▁شهرت	-9.57719
چی	-9.57862
▁هفتم	-9.57971
لو	-9.58004
▁رها	-9.58038
ئو	-9.5832
▁گری	-9.58403
▁۱۵۰	-9.58619
یات	-9.58824
▁مادرش	-9.58862
▁میانه	-9.5889
▁روانی	-9.58933
▁حالت	-9.59006
▁فولک	-9.59121
▁صدرنشین	-9.59247
▁ازدواج	-9.59284
▁ناپذیر	-9.59293
▁آواز	-9.59322
▁جر	-9.5935
▁تحولات	-9.59358
▁جسد	-9.59381
▁نفوذ	-9.59392
▁هشتم	-9.59462
▁ل	-9.59508
▁۲۷	-9.59523
▁محمدی	-9.59562
▁اسپانیایی	-9.59579
▁نامداری	-9.59604
▁امیدواری	-9.59697
▁جنسیت	-9.59874
▁نامید	-9.59929
بانک	-9.60271
▁شرکتهای	-9.60291
▁تری	-9.603
وف	-9.60624
هفته	-9.60668
▁وق	-9.60733
▁ادار	-9.60829
▁درون	-9.60859
▁جاد	-9.6101
▁بودم	-9.61188
سم	-9.61261
می	-9.61417
▁آکسفورد	-9.61465
▁ثبات	-9.61465
▁فعلا	-9.61465
▁کالیفرنیا	-9.61465
▁تردد	-9.61466
▁بدهد	-9.61473
▁ردیف	-9.61492
▁مقصد	-9.61498
▁عشق	-9.61508
▁پادشاه	-9.61515
▁کادر	-9.61527
▁فولاد	-9.61536
▁عکاس	-9.61591
▁باغ	-9.61621
▁اسناد	-9.61655
▁لبنان	-9.61697
▁سرکوب	-9.61703
▁کلیه	-9.61761
▁ساده	-9.61825
▁خاتم	-9.61826
۱۶	-9.61845
▁تماشاگران	-9.61916
▁محصول	-9.61955
▁نوروز	-9.6201
▁اکبر	-9.62076
▁روان	-9.62207
▁گردشگری	-9.62393
▁پیگیری	-9.62409
▁چشمگیر	-9.62412
همزمان	-9.62526
▁نداده	-9.62554
▁گ	-9.62635
▁کیلومتری	-9.62735
▁ذخ	-9.62768
لا	-9.62768
کا	-9.63293
▁قطعه	-9.63306
▁تماشاگر	-9.63389
▁ضرور	-9.63566
▁اید	-9.63607
▁تاسیس	-9.63631
▁رویداد	-9.63675
▁انتظامی	-9.63738
▁زهرا	-9.63738
▁ژرمن	-9.63739
▁اهواز	-9.63739
▁کیلوگرم	-9.63739
▁برخوردار	-9.63742
▁دسامبر	-9.63781
▁پکن	-9.63781
هم	-9.63802
▁علنی	-9.6382
▁پاک	-9.63867
▁جوکوویچ	-9.63874
▁مسعود	-9.63875
▁مهاجرت	-9.63877
▁گزین	-9.63954
▁جامع	-9.64016
▁نمایندگی	-9.64102
▁معمول	-9.6415
▁۳۳	-9.64213
▁دسته	-9.64221
▁آم	-9.64393
▁بچ	-9.64677
۹۷	-9.64812
▁کال	-9.64914
▁خاصی	-9.64984
▁درمانی	-9.65071
مدال	-9.65226
▁اور	-9.65372
▁سخن	-9.65499
▁مدرن	-9.65502
▁شرقی	-9.65567
▁امر	-9.65573
▁۷۰۰	-9.65657
▁مور	-9.65925
▁ذهن	-9.66023
▁هیئت	-9.66063
▁چارچوب	-9.66063
▁روغن	-9.66063
▁جلب	-9.66064
▁گشت	-9.66068
▁تراکتور	-9.66068
▁مسجد	-9.66078
▁اوکراین	-9.6608
▁شگفت	-9.6608
واع	-9.66084
▁زاهد	-9.66085
▁کجا	-9.6609
▁خفاش	-9.66114
▁گشایش	-9.66134
▁تفاوت	-9.66137
▁خودکشی	-9.66157
▁یمن	-9.66157
▁سوئد	-9.66159
▁ویدیوی	-9.66191
▁کارزار	-9.66215
▁مجازات	-9.66221
▁وقف	-9.66344
▁پیچیده	-9.66438
▁آمدن	-9.66481
▁ابلاغ	-9.66572
▁دقیقا	-9.66586
▁مطلب	-9.66619
▁آنتونی	-9.66679
▁فرمان	-9.66951
▁یافتن	-9.67004
▁کارت	-9.67122
▁نود	-9.67181
▁برداری	-9.67187
▁اص	-9.67227
▁کلید	-9.67419
▁کف	-9.67464
▁قر	-9.67596
▁شهرداری	-9.67619
▁پاری	-9.67771
▁نوجوان	-9.67883
جی	-9.67968
▁نوروزی	-9.68025
▁سری	-9.68054
▁انداخت	-9.68164
وئل	-9.68444
▁خراسان	-9.68444
▁مورینیو	-9.68444
▁تعریف	-9.68444
▁واگن	-9.68445
▁پارلمان	-9.68461
▁تبعیض	-9.6849
▁هفتاد	-9.68491
▁مقدار	-9.68491
▁شویم	-9.68495
▁بخت	-9.68503
▁لحا	-9.68505
▁مدنی	-9.68543
▁معلوم	-9.68563
▁دهنده	-9.68605
▁حقوقی	-9.68693
▁اسماعیل	-9.68698
ران	-9.68705
▁نیمک	-9.68734
▁پن	-9.68743
▁واقعا	-9.68743
▁خواب	-9.68769
▁عملا	-9.68781
▁مسافرت	-9.68784
▁طلای	-9.68839
آن	-9.6886
▁خودروسازی	-9.68932
▁شاملو	-9.68942
▁مناسبت	-9.68966
▁زنند	-9.68971
▁اتهامات	-9.68999
نیک	-9.69045
▁کیو	-9.69134
رانی	-9.69178
▁محققان	-9.69215
▁نماد	-9.69231
▁تق	-9.69378
گین	-9.69389
▁پهلوی	-9.69451
ابت	-9.69607
▁اسکن	-9.69639
سعید	-9.69665
▁برج	-9.69739
▁اتفاقی	-9.69992
▁رویا	-9.70063
شرکت	-9.70135
▁خاتمی	-9.70489
رز	-9.70496
▁فراوان	-9.70552
▁راحت	-9.70578
انجام	-9.70609
▁مدار	-9.7066
اگر	-9.70778
▁اعتماد	-9.70883
▁علائم	-9.70884
▁عمدتا	-9.70888
▁تبریز	-9.70889
▁فیوری	-9.70891
▁کانون	-9.70895
▁ذر	-9.70897
▁آسان	-9.70898
▁دستورالعمل	-9.70902
▁نسخ	-9.70906
▁خطیب	-9.70915
▁هتل	-9.70918
▁تجهیزات	-9.70962
▁حقیقت	-9.70975
▁میناوند	-9.70987
شورای	-9.7099
▁تابلو	-9.71018
الب	-9.71029
▁دهیم	-9.71113
▁منظور	-9.71143
▁محکومیت	-9.71152
▁سالها	-9.7138
▁دان	-9.7147
خواهی	-9.71517
▁گوشت	-9.71519
رون	-9.71524
▁ایست	-9.71555
▁استاندار	-9.71664
رگن	-9.71741
▁بهر	-9.71797
ژه	-9.71797
▁ایستاده	-9.71884
▁نشدن	-9.71925
بعضی	-9.72169
شدید	-9.72189
▁ویدئوی	-9.72546
احض	-9.72558
▁تپ	-9.72573
▁ششم	-9.72708
ترانه	-9.72758
▁عمر	-9.72876
خراج	-9.7335
▁الحاق	-9.73383
▁حکایت	-9.73383
▁عذر	-9.73384
▁دائم	-9.73389
▁تحلیل	-9.73402
▁خمینی	-9.73416
▁خلاف	-9.73438
▁جواب	-9.73441
▁توجهی	-9.7349
▁ابر	-9.73516
▁کنفرانس	-9.73534
▁اختلال	-9.73575
▁خیر	-9.73581
▁پوشش	-9.73584
رد	-9.73597
ریم	-9.73623
ط	-9.73634
ض	-9.73655
▁بیستم	-9.73659
▁اندک	-9.73688
▁مذهبی	-9.73894
▁جک	-9.74118
▁باند	-9.74169
▁تبار	-9.74218
رسان	-9.74222
قرار	-9.74385
▁داوطلبان	-9.74397
▁ژاپنی	-9.74432
▁بازیگران	-9.74488
▁وال	-9.74512
▁سازند	-9.74551
حدود	-9.74563
ویز	-9.74686
▁بردن	-9.74725
دکتر	-9.74729
وزیر	-9.74818
کته	-9.75134
رو	-9.75232
▁مرا	-9.75348
مند	-9.75406
▁تل	-9.75512
فر	-9.75712
▁دیپلما	-9.75725
▁عطر	-9.75834
▁منع	-9.75897
▁عبارت	-9.75948
▁نصب	-9.75948
▁معاف	-9.75951
▁استانبول	-9.75954
▁خطوط	-9.75955
▁پنهان	-9.75956
▁رونق	-9.75957
▁مثال	-9.75957
▁بخار	-9.75963
▁غافلگیر	-9.75973
▁گواردیولا	-9.75996
▁بهشت	-9.76012
▁دیپلماتیک	-9.76041
▁سانسور	-9.76059
▁مرور	-9.76083
▁ذو	-9.76155
▁لستر	-9.76161
▁خبرساز	-9.76175
▁فرماندار	-9.76201
▁باستان	-9.76214
وند	-9.76261
▁۴۵	-9.76264
سل	-9.76308
جسم	-9.76313
▁غلام	-9.76391
▁شانس	-9.76472
▁ری	-9.76687
▁جزیر	-9.76702
دل	-9.76703
▁کریمی	-9.76823
لند	-9.76828
اق	-9.76955
ماه	-9.76964
▁حاکم	-9.77007
آمریکا	-9.77193
▁برند	-9.77215
▁برون	-9.77298
تن	-9.77398
▁سپر	-9.77435
▁اجباری	-9.77469
▁بازدید	-9.77623
▁سفرهای	-9.77777
لر	-9.77783
▁سل	-9.77882
▁شهری	-9.77979
▁طلب	-9.77997
▁مالیاتی	-9.7803
یده	-9.78127
▁فرو	-9.78239
▁بدتر	-9.78391
▁محاسب	-9.78472
آزادسازی	-9.78527
ث	-9.78569
▁مشاغل	-9.78579
▁معاصر	-9.78579
▁نباشد	-9.78579
▁برگزید	-9.78579
▁کهکشان	-9.7858
▁احترام	-9.7858
▁کلمبیا	-9.78598
▁باشیم	-9.78599
▁اندونزی	-9.78599
▁فراتر	-9.78617
▁مرجان	-9.78626
▁صادرکنندگان	-9.78647
▁نوسان	-9.78664
▁سرنوشت	-9.78676
▁خطاب	-9.78686
▁مدیرکل	-9.78691
▁خاورمیانه	-9.78697
▁خرد	-9.78721
▁۳۴	-9.78816
▁فراز	-9.78831
▁صادقی	-9.78839
▁زدند	-9.79174
دن	-9.7941
آی	-9.79601
یو	-9.79713
▁بردند	-9.79761
▁خشک	-9.79863
بو	-9.80053
▁میر	-9.80114
اجع	-9.80726
▁۰	-9.80862
چ	-9.81138
▁نامزدهای	-9.81161
خالت	-9.812
▁بسکتبال	-9.81282
▁تصادف	-9.81282
▁عوارض	-9.81282
▁پرچم	-9.81282
▁پیامدهای	-9.81282
▁بماند	-9.81283
▁اولویت	-9.81283
▁جستجو	-9.81284
▁شواهد	-9.81301
▁وسیع	-9.81301
▁برکنار	-9.81306
▁وانت	-9.81312
▁ناکام	-9.81316
▁پتروش	-9.81328
▁دانیم	-9.81329
▁حیوانات	-9.8133
▁پرتغال	-9.81335
▁۲۰۱۱	-9.81346
▁کیفیت	-9.81349
▁فایزر	-9.81367
▁تکمیل	-9.81367
▁جانسون	-9.81378
▁فاش	-9.81398
▁خاوران	-9.81424
▁مسئولیت	-9.81504
▁شنیده	-9.81518
▁ایفا	-9.81586
▁فروشگاه	-9.81588
▁کام	-9.81626
▁فقر	-9.81649
حال	-9.81748
▁عادل	-9.82013
▁رویدادهای	-9.82074
▁تب	-9.82078
وریس	-9.82149
▁اکثر	-9.82342
▁بیمه	-9.82408
▁هو	-9.82518
▁اعما	-9.82693
▁هلند	-9.8272
▁درحال	-9.8273
یره	-9.82763
▁ماجرای	-9.82764
قیمت	-9.82848
▁باد	-9.82988
▁وایلد	-9.83317
وار	-9.8333
کن	-9.8335
وخیم	-9.83354
▁یخ	-9.83364
اکان	-9.83379
▁پاپ	-9.83583
▁موافق	-9.83805
▁مطمئن	-9.83956
▁حساس	-9.84055
▁برگزیت	-9.8406
▁جایگزین	-9.84061
▁تجدید	-9.84062
▁بگذارد	-9.84065
▁هیجان	-9.84071
▁دایک	-9.84071
▁ویلموتس	-9.84079
▁تاثیرگذار	-9.84109
▁پرورش	-9.84118
▁مستقل	-9.84122
▁جانشین	-9.84123
▁بنیان	-9.84128
▁مخاطبان	-9.8416
▁محرومیت	-9.84169
▁آرایش	-9.84171
▁تدریج	-9.84182
▁امشب	-9.8423
▁همکاران	-9.84232
▁مخفی	-9.84245
صمی	-9.84344
یون	-9.84469
▁امکانات	-9.84478
▁تبع	-9.84536
▁سپرده	-9.84553
▁آلوده	-9.84717
غ	-9.84903
گفته	-9.85019
▁گزارشگر	-9.85242
۱۴	-9.85443
طی	-9.85445
▁عظیم	-9.85464
غول	-9.85469
▁نیرو	-9.85562
▁علم	-9.85661
▁سلطان	-9.85766
▁درحالی	-9.85822
▁صالح	-9.86041
بری	-9.8612
▁دفاعی	-9.86458
امی	-9.86587
▁پژوهشگر	-9.86638
▁گوشی	-9.86788
▁راز	-9.86837
▁گنج	-9.86848
▁شوک	-9.86874
احل	-9.86899
▁آذربایجان	-9.86917
▁استراماچونی	-9.86917
▁اقلام	-9.86917
▁هالیوود	-9.86917
▁گورستان	-9.86921
▁هاشمی	-9.86922
▁بدهند	-9.8693
▁برانگیز	-9.86932
▁یادداشت	-9.86936
▁اسدی	-9.86948
▁منافع	-9.86971
▁اورتون	-9.86978
▁مقدمات	-9.86981
نوبت	-9.87018
▁اقدامی	-9.87019
▁سهامداران	-9.87033
▁دانشجویان	-9.87039
▁سالن	-9.87064
▁اینتر	-9.87096
▁بطور	-9.87119
▁یادآور	-9.87138
▁اصلا	-9.87261
▁آگاه	-9.87322
▁جرم	-9.8735
▁رم	-9.87403
▁آرامش	-9.87494
▁یازده	-9.87533
سبب	-9.8754
▁بازرسان	-9.87591
▁ماندن	-9.87817
بین	-9.8783
▁شعب	-9.87865
▁نبرد	-9.87916
▁رحمانی	-9.87973
▁فرستاد	-9.88097
▁قیمتها	-9.88125
▁۷۵	-9.88139
▁آمارها	-9.88169
▁تائ	-9.88288
▁وحش	-9.88334
ستان	-9.88418
آزمایی	-9.8862
▁انت	-9.88689
▁اقلیم	-9.88794
▁رسیدند	-9.88834
قف	-9.88989
اد	-9.89407
غم	-9.89446
▁تردید	-9.8971
▁تبلیغ	-9.8975
▁عاشق	-9.89795
▁مشروط	-9.89858
▁عمق	-9.89858
▁اماکن	-9.89861
▁سانتی	-9.89886
▁۹۶	-9.89902
▁قایق	-9.89953
▁شرط	-9.89966
▁کاوشگر	-9.89989
▁راستا	-9.89995
▁نمایشگاه	-9.90037
▁۴۸	-9.90115
▁قد	-9.90131
▁برندگان	-9.90172
▁برنت	-9.90176
▁سوالات	-9.90201
▁جاسوس	-9.9032
▁پیوسته	-9.90352
تون	-9.90361
▁پو	-9.9059
▁اسم	-9.90663
▁۵۷	-9.90747
▁زیرا	-9.90821
▁دونده	-9.90865
▁حامی	-9.91043
▁۱۹۸	-9.91185
فت	-9.91204
▁ارد	-9.91432
▁سفارش	-9.91493
▁نابودی	-9.91539
جو	-9.91691
دست	-9.91775
قب	-9.91817
▁دیگران	-9.91844
▁درخشان	-9.91894
دا	-9.91968
▁آسیای	-9.91968
سر	-9.92059
▁۹۵	-9.92077
پور	-9.92163
وقت	-9.92165
است	-9.92235
▁بودیم	-9.92567
▁شهرها	-9.92699
▁کارمند	-9.92721
▁کلاسیک	-9.9273
▁موقع	-9.92836
▁شیری	-9.92847
▁فیزیک	-9.92883
▁رستوران	-9.92888
▁سلاح	-9.92888
▁قلع	-9.92888
▁بغداد	-9.92889
▁گوناگون	-9.9289
▁مستمر	-9.9289
▁سرقت	-9.92891
▁شکنجه	-9.92891
▁سایپا	-9.92892
▁آشکار	-9.92892
▁انگار	-9.92897
▁نفع	-9.92903
▁هافبک	-9.9291
▁ارشاد	-9.92928
▁کریستیان	-9.92961
▁منچسترسیتی	-9.9299
▁شتاب	-9.92997
▁خواهم	-9.93
▁کشد	-9.93005
▁تماشای	-9.93085
▁تج	-9.93086
ناف	-9.93144
▁عبدالله	-9.9316
▁ماهوار	-9.93162
▁تجا	-9.93209
▁اردو	-9.93223
▁ضرر	-9.93387
▁جدایی	-9.93399
▁حمید	-9.93443
▁ادعای	-9.93468
▁فان	-9.93557
▁دانستند	-9.93565
▁سالم	-9.93607
▁ریه	-9.93719
▁طلبان	-9.93725
▁سرد	-9.93838
یشه	-9.94004
▁مقال	-9.94055
اع	-9.94383
سه	-9.94552
۲۰۱۲	-9.94608
مون	-9.94634
باقر	-9.94749
▁جسم	-9.94751
افزایش	-9.948
۱۸	-9.94806
پیشتر	-9.94837
▁۳۹	-9.94994
رس	-9.95118
▁روس	-9.95143
▁پارسی	-9.95146
▁هجوم	-9.95164
پی	-9.95247
شویی	-9.95291
فرین	-9.95663
▁فیلیپ	-9.95799
▁عروس	-9.95968
▁خداحافظ	-9.96013
▁غیرمستقیم	-9.96013
▁قاجار	-9.96013
▁آفتاب	-9.96013
▁موانع	-9.96013
▁بلژیک	-9.96014
▁غزنی	-9.96018
▁اولسان	-9.96021
▁کربن	-9.96025
▁قوا	-9.96033
▁سلمان	-9.96035
▁نیروگاه	-9.96038
▁تعرف	-9.96042
▁اقامت	-9.96051
▁پاییز	-9.9609
▁هشتاد	-9.96093
▁۲۵۰	-9.96103
▁سبز	-9.96121
▁بیاید	-9.96141
▁قله	-9.96185
زن	-9.96282
▁ضرورت	-9.9637
▁خریدار	-9.96409
▁استادیوم	-9.96429
▁محافظت	-9.96434
▁تحول	-9.9645
▁آزمایشگاه	-9.96466
▁مکانی	-9.96579
▁سرود	-9.96725
▁قدس	-9.96762
▁نگرفته	-9.96901
▁یاری	-9.97023
▁ون	-9.97084
▁نماز	-9.97118
▁نمای	-9.97234
▁جم	-9.97423
▁نیک	-9.97425
▁آموزشی	-9.97494
▁یاران	-9.97554
▁تای	-9.97861
▁۴۹	-9.97868
عبدال	-9.97931
▁مند	-9.97945
فاصله	-9.98387
▁یازدهم	-9.98626
هزار	-9.98844
▁طلایی	-9.99004
▁۶۰۰	-9.99013
▁آفریقای	-9.99023
داشت	-9.99084
▁سراسری	-9.99109
▁افزار	-9.99157
▁رضوی	-9.99239
▁پانصد	-9.99239
▁دانمارک	-9.99243
▁فردوسی	-9.99245
ادورو	-9.99245
▁وسایل	-9.99246
▁مطبوعات	-9.99251
▁آدم	-9.99255
▁پرفروش	-9.99256
▁تلخ	-9.99265
▁مسکونی	-9.99266
▁کانری	-9.9927
▁سلول	-9.99279
▁اشرف	-9.99335
راضی	-9.99409
▁ویران	-9.99473
▁مساوی	-9.99542
▁عادت	-9.9955
▁نداشتند	-9.99575
▁شکاف	-9.99605
▁اوبر	-9.99622
▁تحلیلگر	-9.99623
▁روب	-9.99625
▁آتی	-9.99685
▁عبوری	-9.99729
ماهی	-9.99792
▁بدر	-9.99798
▁گذراند	-9.9987
▁خاطرات	-10.0002
▁وست	-10.0015
▁مسئولین	-10.0018
▁شناور	-10.002
▁خوانندگ	-10.002
▁موضوعات	-10.0021
قابل	-10.0026
▁همیش	-10.0029
▁تور	-10.0046
▁۶۵	-10.0064
رویی	-10.0071
▁ابتلای	-10.0083
▁حافظ	-10.0083
▁گرا	-10.0098
▁جورج	-10.0109
▁خوان	-10.0118
غان	-10.0118
▁گرد	-10.0121
سخنگوی	-10.0136
رسمی	-10.0138
▁پیشگیری	-10.0146
امروز	-10.015
▁۴۴	-10.0165
رت	-10.0181
▁کمال	-10.0184
▁سین	-10.0192
▁خاطره	-10.0201
▁بابا	-10.0203
▁قدر	-10.0204
وثی	-10.0211
▁دانشمند	-10.0217
▁مشتری	-10.0219
صاف	-10.0231
خره	-10.0232
▁مطالب	-10.0247
▁دبلیو	-10.0257
▁گرنداسلم	-10.0257
▁واژه	-10.0258
▁تظاهرات	-10.0258
▁باشید	-10.0259
▁پادتن	-10.026
▁حیدر	-10.026
▁راهبرد	-10.0261
▁بلیت	-10.0263
▁جنبش	-10.0263
▁مدارک	-10.0265
▁هیوندای	-10.0268
▁غار	-10.0274
▁شورو	-10.0294
▁امین	-10.0321
شهر	-10.0323
▁فرزندان	-10.0325
وت	-10.033
▁محمدجواد	-10.0335
▁ضعیف	-10.0335
▁فاز	-10.0336
▁مسال	-10.034
التی	-10.0355
▁کاربر	-10.0383
▁درد	-10.0397
▁آندر	-10.0403
▁کیم	-10.0409
▁رفتند	-10.0414
▁باران	-10.0417
▁ذخا	-10.0418
جان	-10.0426
بیش	-10.0437
▁برایش	-10.0443
▁نرسیده	-10.0452
▁گرب	-10.0456
▁هنرها	-10.0458
▁تس	-10.0458
▁سوئیسی	-10.0461
▁داوطلب	-10.0466
▁طوری	-10.0476
افغانستان	-10.0482
▁سپ	-10.0486
▁عفو	-10.0495
▁محدودیتهای	-10.0496
▁ادعا	-10.0524
لف	-10.0537
▁رهبران	-10.055
▁رویای	-10.0559
بون	-10.0562
باران	-10.057
ذ	-10.0586
ستون	-10.0587
بهار	-10.0593
▁راند	-10.0602
▁انفرادی	-10.0602
▁سامسونگ	-10.0602
▁تروریسم	-10.0602
▁فریاد	-10.0602
▁دهقان	-10.0602
▁خلاص	-10.0602
▁کیلو	-10.0604
▁قادر	-10.0604
▁مخابرات	-10.0604
▁مقاومت	-10.0604
▁بوندس	-10.0605
▁رمزارزها	-10.0605
▁بزند	-10.0606
▁مسلمان	-10.0607
▁تعهد	-10.0609
▁عراقچی	-10.0609
▁صمت	-10.0609
▁صند	-10.0611
▁لوئی	-10.0613
▁غر	-10.0615
▁ایرانیان	-10.0616
▁تمایل	-10.0617
▁ربات	-10.0618
▁۱۳۷	-10.0622
▁خشم	-10.0624
▁فیل	-10.0626
▁ظاهرا	-10.0636
▁خانوارهای	-10.0637
▁داری	-10.065
▁فقیر	-10.0655
زی	-10.0658
▁دیر	-10.0673
خرج	-10.0685
▁لیس	-10.0686
▁موش	-10.0692
▁دارم	-10.07
▁درهای	-10.0719
▁سنا	-10.0732
▁استخوان	-10.0746
▁حلق	-10.0748
▁گم	-10.075
▁حضورش	-10.0759
▁شاهزاد	-10.078
▁تف	-10.081
▁انبار	-10.0812
▁اسلام	-10.0841
اینها	-10.0843
بخش	-10.0849
گه	-10.0852
رداد	-10.0852
تو	-10.0856
۵۰	-10.0861
▁سیل	-10.0862
▁گمان	-10.0864
بسیاری	-10.0878
▁لب	-10.0884
▁ژنتیکی	-10.0887
▁لاش	-10.0888
اوش	-10.0892
▁دف	-10.0896
مجموعه	-10.0905
کم	-10.0912
▁منتقد	-10.0918
▁محقق	-10.0928
بل	-10.0929
گانه	-10.0933
خت	-10.0936
▁خوشحال	-10.0941
▁تاجیک	-10.0942
▁عموم	-10.0949
وض	-10.0949
▁تاکسی	-10.0957
▁الکترونیک	-10.0959
▁تدابیر	-10.0959
▁فرآیند	-10.0959
▁موبایل	-10.0959
خیص	-10.0959
▁پیراهن	-10.0959
▁مترجم	-10.0959
▁روزگار	-10.0959
▁خلو	-10.0959
▁ثامن	-10.096
▁گروسی	-10.096
▁زرد	-10.096
▁پلاستیک	-10.0963
▁قدرتمند	-10.0964
▁همسایه	-10.0966
▁عمان	-10.0967
▁نژادپرست	-10.0972
▁نمایشگر	-10.0975
▁ربط	-10.0991
نادیده	-10.1005
▁سران	-10.1015
▁کریست	-10.1015
▁پرده	-10.1017
▁برقی	-10.1023
▁پرسش	-10.1026
▁جلسات	-10.1039
▁جیب	-10.1039
▁۳۸	-10.1039
بنا	-10.1047
▁پذیرفته	-10.105
▁مبادل	-10.1055
▁گذر	-10.1058
▁زیبایی	-10.1062
▁خیابانی	-10.1072
▁باخته	-10.1095
نر	-10.1099
▁فراری	-10.1106
▁دراز	-10.1112
▁پیست	-10.1115
▁صورتی	-10.1116
▁خودم	-10.1121
▁سیار	-10.1121
داع	-10.1126
▁فکری	-10.113
▁دوام	-10.1134
پنج	-10.1137
▁جعل	-10.1149
▁کاسته	-10.1155
کسی	-10.1191
لینی	-10.1201
▁۱۳۵	-10.1207
▁تکان	-10.1233
▁اگر	-10.1237
میم	-10.124
پرو	-10.1252
▁گروگان	-10.1259
▁پیک	-10.1262
اقات	-10.1266
▁ریاض	-10.1271
▁قص	-10.1273
▁روح	-10.1282
انکو	-10.1283
▁صادق	-10.1295
▁مطل	-10.1316
▁۵۵	-10.1319
▁شیرین	-10.132
▁سرباز	-10.1329
▁امتحان	-10.133
▁تسلیحات	-10.133
▁تگزاس	-10.133
▁شمخانی	-10.133
▁لذت	-10.133
▁نتانیاهو	-10.133
▁نکنید	-10.133
▁بعید	-10.133
▁منحصر	-10.133
▁انبوه	-10.133
▁ناحیه	-10.133
▁سئوال	-10.133
▁دادگستری	-10.133
▁خوراک	-10.133
▁قلم	-10.133
▁اقلی	-10.133
▁بامیان	-10.133
▁ترجیح	-10.133
▁کریکت	-10.1332
▁ارتفاع	-10.1332
▁اپلیکیشن	-10.1332
▁طوفان	-10.1332
▁مصدومیت	-10.1333
▁زوج	-10.1334
▁زنگنه	-10.1335
یفه	-10.1337
▁عفونت	-10.1338
▁ولز	-10.1338
▁مزار	-10.1339
▁سرزمین	-10.1339
▁وبسایت	-10.1341
▁گردن	-10.1342
▁مدارس	-10.1347
▁کیهان	-10.1349
▁کرام	-10.1349
▁آگ	-10.135
▁ایلنا	-10.1351
▁نقدی	-10.1354
▁کاردن	-10.1356
▁صرفا	-10.1356
▁پپ	-10.1358
▁مطالعات	-10.136
▁خودروها	-10.1366
▁محتوای	-10.1371
▁جدال	-10.1383
▁افتد	-10.1392
▁محسن	-10.1394
▁خواندن	-10.1398
▁عام	-10.1403
▁عملی	-10.1404
▁۱۹۹	-10.1405
▁وظ	-10.1406
▁فراگیر	-10.1407
▁احت	-10.144
▁امان	-10.1443
تنش	-10.1447
یرت	-10.1448
▁همای	-10.1453
▁روسی	-10.1458
▁نامدار	-10.146
یخ	-10.1461
اج	-10.1467
▁بازیگری	-10.1469
▁قربانی	-10.1477
وات	-10.1515
▁خواستند	-10.1527
پوری	-10.153
پل	-10.1538
تیپ	-10.1547
▁عزیزی	-10.1554
▁بران	-10.1555
▁جوانی	-10.1572
شده	-10.1579
یمی	-10.1584
▁امن	-10.1592
▁۳۷	-10.16
▁۶۷	-10.1601
▁رغ	-10.1606
وا	-10.161
واد	-10.1612
سکی	-10.1622
▁پانزده	-10.163
ایب	-10.1633
▁گریز	-10.1645
▁پروان	-10.1653
▁بلخ	-10.1665
▁ویدیو	-10.168
▁نقد	-10.1682
▁تماشا	-10.1687
▁پوش	-10.1691
▁روستا	-10.1697
▁پرند	-10.1699
▁تاب	-10.1702
▁شایع	-10.1707
التهاب	-10.1709
زیگ	-10.1711
▁رقص	-10.1711
▁هیأت	-10.1714
▁پرافتخار	-10.1714
▁ولسوال	-10.1714
▁برساند	-10.1714
▁بکشد	-10.1714
▁ازبکستان	-10.1714
حص	-10.1714
▁پیاده	-10.1714
▁طنز	-10.1715
▁یوفا	-10.1715
▁همسان	-10.1716
▁پردازد	-10.1716
▁متقاضی	-10.1717
▁علامت	-10.1718
▁اشتغال	-10.1722
▁نادرست	-10.1723
▁فیلتر	-10.1724
▁ببرد	-10.1724
▁غریب	-10.1728
▁صلاح	-10.173
▁گردشگران	-10.1731
▁پیمان	-10.1734
▁اضطراب	-10.1736
▁احساسات	-10.1745
▁طیف	-10.1747
▁ط	-10.175
اول	-10.1758
▁اختلافات	-10.1766
▁ساختار	-10.1767
▁هستم	-10.1767
▁استخر	-10.177
▁منته	-10.1772
▁کت	-10.1776
▁آوردند	-10.1782
▁زیان	-10.1783
رنج	-10.179
▁پوشید	-10.1797
▁بوش	-10.1801
▁منشا	-10.1802
ارد	-10.1807
▁تمرکز	-10.1823
▁نزد	-10.1832
▁یکصد	-10.1833
▁پرسید	-10.1839
▁ور	-10.1849
▁ثروتمند	-10.1863
▁تنگ	-10.1876
▁آزمایی	-10.1879
▁مغزی	-10.1882
فیه	-10.1895
▁بوک	-10.1902
▁روسا	-10.1903
▁بقای	-10.1903
▁۵۶	-10.1909
▁فرش	-10.1928
▁کاس	-10.194
▁۳۶	-10.1948
▁دلاری	-10.1948
هالی	-10.1948
▁تخیل	-10.1951
▁عزاداری	-10.1975
▁برگ	-10.1977
▁بدی	-10.1982
ندگان	-10.1984
خالص	-10.1989
عباس	-10.1992
محمود	-10.1993
▁سید	-10.1994
امسال	-10.1996
▁والی	-10.2001
▁آیند	-10.2003
▁فیلمساز	-10.2005
عکس	-10.2016
▁سون	-10.2019
▁افکن	-10.2032
ستگی	-10.2033
▁فو	-10.206
جه	-10.2079
▁میلیاردها	-10.2089
▁بهرام	-10.2096
▁درخت	-10.2099
▁سان	-10.2101
▁اهدا	-10.2104
▁تخلف	-10.2105
▁متاسف	-10.2107
▁مهندس	-10.2109
▁شعار	-10.2113
▁بلاروس	-10.2114
▁خانوادگی	-10.2114
▁غربالگری	-10.2114
▁والیبال	-10.2114
▁اعزام	-10.2114
▁قاضی	-10.2114
▁تفریح	-10.2114
▁مقصر	-10.2114
▁راموس	-10.2114
▁ناامن	-10.2114
▁زلزله	-10.2114
▁دقایق	-10.2114
▁تلگرام	-10.2115
▁۲۰۲۲	-10.2116
▁برانگیخت	-10.2116
▁۱۹۸۶	-10.2116
▁اهداف	-10.2117
▁خاموش	-10.2117
▁رسول	-10.2118
▁نقص	-10.2119
▁صبر	-10.2119
▁جمال	-10.2119
▁طبری	-10.2119
▁تقدی	-10.212
▁شیراز	-10.2121
▁دادسرا	-10.2122
▁مصون	-10.2122
▁بیلسا	-10.2123
▁اصطلاح	-10.2123
▁رنو	-10.2125
مت	-10.2127
▁تفاهم	-10.2127
▁نان	-10.2127
▁کمرنگ	-10.213
▁محاسبات	-10.2131
▁گفتگوها	-10.2134
▁نکردن	-10.2135
▁آنقدر	-10.2136
لک	-10.2139
▁سرنشینان	-10.2141
▁ترسیم	-10.2144
▁تاک	-10.2146
▁راستی	-10.2146
▁توماس	-10.2147
▁اصلاحات	-10.2148
▁معمار	-10.2155
▁شدم	-10.2162
▁همیلتون	-10.2168
▁مون	-10.2172
▁استرالیایی	-10.2185
▁رادیوی	-10.219
کاری	-10.2194
▁۵۲	-10.2198
▁مرس	-10.2201
▁شاهین	-10.2201
▁گلو	-10.2214
▁خوردن	-10.2216
وستهم	-10.2219
بورن	-10.2228
▁اطل	-10.2231
▁قاطع	-10.2251
▁استعداد	-10.2262
▁صادراتی	-10.2264
▁اقلیمی	-10.2283
▁راک	-10.2285
▁گمانه	-10.2302
▁صحن	-10.2303
▁اسد	-10.2332
▁نرسید	-10.236
▁۷۷	-10.2362
خ	-10.2367
▁اموا	-10.2378
▁کهن	-10.239
فق	-10.2398
▁مای	-10.2404
طبق	-10.2409
آنها	-10.242
▁جلالی	-10.2429
▁منج	-10.2432
▁ات	-10.2432
برخ	-10.2445
▁۱۳۸	-10.2446
وریا	-10.2452
▁ویل	-10.2461
▁مهاجر	-10.2463
▁محور	-10.2463
▁۱۲۰	-10.2472
▁ارزان	-10.2472
▁ساک	-10.2473
یل	-10.2489
▁معترض	-10.2489
▁ارا	-10.2495
▁لیگا	-10.25
کی	-10.2501
▁ابزار	-10.251
آوری	-10.2513
داوم	-10.2516
▁مع	-10.2518
▁زیبا	-10.2519
نت	-10.2524
وایی	-10.2527
▁پیوند	-10.2529
راحل	-10.2531
طئ	-10.2531
▁الانبیا	-10.2531
▁بنگلادش	-10.2531
▁تأثیر	-10.2531
▁تحمیل	-10.2531
▁موظف	-10.2531
▁پروتئین	-10.2531
▁کنسول	-10.2531
▁بازگردد	-10.2531
▁تعدیل	-10.2531
▁مفید	-10.2531
▁بامداد	-10.2531
▁تدوین	-10.2531
▁اخلال	-10.2531
▁لهستان	-10.2531
▁نکند	-10.2531
▁ارمنستان	-10.2531
▁بنیانگذار	-10.2532
▁قریب	-10.2532
▁سراغ	-10.2532
ژانس	-10.2532
▁بخصوص	-10.2532
▁تلفیق	-10.2533
▁استرازنکا	-10.2534
▁مفهوم	-10.2534
▁ابعاد	-10.2534
▁لمس	-10.2535
▁دیگو	-10.2536
▁کارگزار	-10.2537
▁شریک	-10.2537
▁دموکرات	-10.2539
▁اهدای	-10.254
▁جهاد	-10.254
▁عروسک	-10.254
▁مبادلات	-10.2543
▁منتف	-10.2545
▁آشفت	-10.2545
▁اعضا	-10.2549
▁لیدز	-10.2555
▁تایسون	-10.2557
نو	-10.2558
▁کتی	-10.2561
▁هنگ	-10.2567
▁آبادی	-10.2568
▁تایم	-10.2569
▁عطرساز	-10.2575
▁بینند	-10.2576
▁پایدار	-10.2576
▁بها	-10.2576
▁نوی	-10.2588
▁خریداران	-10.2589
▁پیکر	-10.2589
▁تروی	-10.2592
▁مبنای	-10.2596
▁صادرکنند	-10.2597
▁کارش	-10.2597
عداد	-10.2613
▁ص	-10.2626
▁مصاد	-10.2643
ممکن	-10.2644
▁سگ	-10.2653
۳۰	-10.2662
شار	-10.2667
▁ماهها	-10.2678
▁خبرهای	-10.2684
▁زانو	-10.2694
▁شی	-10.2696
▁کش	-10.2717
▁جن	-10.2727
▁سیف	-10.2736
▁بستن	-10.2739
خیلی	-10.2748
▁موشکی	-10.2754
▁غ	-10.2759
▁خشکی	-10.2763
▁اسپی	-10.2771
▁ایرلند	-10.279
شاهی	-10.2806
▁نظریه	-10.2817
▁توانم	-10.2823
راه	-10.2826
مال	-10.2829
شاخص	-10.2844
فیلم	-10.2846
ظهر	-10.2848
احمد	-10.2852
▁تاپ	-10.2859
▁لق	-10.287
▁روستایی	-10.2879
لت	-10.289
▁دود	-10.2894
▁اوست	-10.2902
▁خال	-10.2905
▁کلا	-10.2915
انکن	-10.2932
مرکز	-10.2932
▁نسب	-10.2942
▁اظهارنظر	-10.2947
▁سحر	-10.2961
▁شا	-10.2961
▁۹۱	-10.2962
▁ببینید	-10.2966
▁تخصص	-10.2966
▁نساجی	-10.2966
▁نوبخت	-10.2966
خصیص	-10.2966
▁صنف	-10.2966
▁لالیگا	-10.2966
▁دروغ	-10.2966
▁بدانیم	-10.2966
▁وسط	-10.2966
▁اکسیژن	-10.2966
▁اسپرت	-10.2966
▁رابرت	-10.2966
▁تایلند	-10.2967
▁تکلیف	-10.2967
▁عرف	-10.2968
▁دقت	-10.2969
▁مهرماه	-10.2969
▁نیوزیلند	-10.2969
▁نشت	-10.2969
▁مقطع	-10.2969
▁تسلیت	-10.2972
▁بشار	-10.2973
▁دعوا	-10.2974
▁مارتین	-10.2974
▁سلف	-10.2979
▁ایراد	-10.298
▁۴۳	-10.2981
▁آموزان	-10.2987
▁افتتاح	-10.2988
▁مکرون	-10.2989
تلاف	-10.299
ختم	-10.2992
▁آورند	-10.2996
▁شکار	-10.2998
▁دانم	-10.3
▁کشند	-10.3002
▁یونان	-10.3002
▁مهاجران	-10.301
▁دستیابی	-10.3014
▁داشتم	-10.3028
▁بریت	-10.3033
▁جنبه	-10.3035
نظر	-10.3036
▁قوس	-10.3056
▁زک	-10.3061
▁انتقالات	-10.3067
▁ترور	-10.307
▁شه	-10.307
▁اصول	-10.3072
▁ناصر	-10.3074
ناد	-10.308
▁ایام	-10.3112
▁ظهر	-10.3113
نز	-10.312
▁گور	-10.3124
دگی	-10.3129
▁ادا	-10.3136
▁هاوس	-10.3138
▁مادری	-10.3158
▁رنج	-10.317
▁کاست	-10.3171
▁حا	-10.3187
▁سم	-10.319
مار	-10.3191
▁زیستی	-10.3201
شیر	-10.3201
▁بس	-10.3207
موند	-10.3225
▁اوین	-10.3242
نیم	-10.3252
▁افشا	-10.3254
▁دستگیری	-10.3255
۲۵	-10.3261
▁باتر	-10.3267
لیگ	-10.3278
وان	-10.3286
دانشمندان	-10.3298
لیورپول	-10.3299
پلیس	-10.3299
کدام	-10.3301
شیوع	-10.3302
نواک	-10.3309
گروه	-10.3315
اولین	-10.3331
روی	-10.3343
▁داروهای	-10.3347
۳۱	-10.3348
▁آیین	-10.3364
غال	-10.3378
کننده	-10.3379
▁حداکثری	-10.3388
▁ناو	-10.339
▁سینماها	-10.3401
▁داغ	-10.342
▁مرخص	-10.342
▁منتخب	-10.342
▁ثمر	-10.342
▁تعامل	-10.342
▁دوپینگ	-10.342
▁بروکسل	-10.342
▁سکونت	-10.342
▁شوهر	-10.342
▁متاثر	-10.3421
▁ناچار	-10.3421
▁ونیز	-10.3421
▁نکنند	-10.3421
▁تماشاچی	-10.3421
▁کابین	-10.3421
▁لنون	-10.3421
▁یمانی	-10.3421
▁استراتژیک	-10.3424
▁چراغ	-10.3425
▁خرند	-10.3426
▁ویلیامز	-10.3427
▁مرزهای	-10.3427
▁شور	-10.3428
▁بیروت	-10.3429
▁منچستریونایتد	-10.3429
▁۲۰۰۳	-10.343
▁کشاند	-10.343
▁ناجی	-10.3431
▁معارف	-10.3431
▁شاگردان	-10.3435
▁برخلاف	-10.3437
▁محبوبیت	-10.3438
نام	-10.3445
▁شنا	-10.3449
▁عج	-10.3451
جونز	-10.3454
▁کوچکی	-10.3454
▁آبادان	-10.346
▁خدا	-10.3469
▁ویکتور	-10.347
▁سربازان	-10.3472
▁پوشاند	-10.3475
عادل	-10.3483
▁گذاشتن	-10.3485
سیویر	-10.3487
▁تروریستی	-10.3491
▁پراکند	-10.3492
▁ایوان	-10.3494
یحی	-10.3498
▁رساندن	-10.3499
▁مرزها	-10.35
▁بازماند	-10.3502
▁گفتگوی	-10.3503
▁سرو	-10.3526
▁۴۶	-10.3526
▁فلیک	-10.3533
▁قراردادش	-10.3536
▁کاشی	-10.3548
▁موسوی	-10.3552
▁نمکی	-10.3553
▁زور	-10.3562
▁هجومی	-10.3572
▁حیاتی	-10.361
▁دوحه	-10.3623
▁بومی	-10.364
▁سیزدهم	-10.364
▁هل	-10.3647
▁قض	-10.3656
تمرکز	-10.3668
سو	-10.3686
بچه	-10.3691
▁شمسی	-10.37
بادی	-10.3703
▁سیزده	-10.3711
▁کشت	-10.3717
عه	-10.3726
▁بهایی	-10.3732
▁گلزنی	-10.3742
▁پوری	-10.375
وپن	-10.3766
مراسم	-10.3775
عنوان	-10.3775
ناک	-10.3776
بعد	-10.3792
حالا	-10.3795
▁کشی	-10.381
▁تند	-10.3812
ایح	-10.3831
▁ایمان	-10.3831
▁اندیش	-10.3832
▁قم	-10.3846
▁۷۳	-10.3882
▁مستق	-10.3885
لحق	-10.3887
▁تعقیب	-10.3896
▁ثروت	-10.3896
▁دژپسند	-10.3896
▁شلوغ	-10.3896
▁فلوریدا	-10.3896
▁مایکروسافت	-10.3896
▁رفاه	-10.3896
▁انقراض	-10.3897
▁محاکم	-10.3897
▁مکرر	-10.3897
▁یوگا	-10.3897
▁مقدم	-10.3897
▁بندرعباس	-10.3897
▁سردبیر	-10.3898
▁قطار	-10.3898
▁خوشنام	-10.3898
▁ساویز	-10.3898
▁بگیریم	-10.3899
▁کارلوس	-10.3899
▁ناپدید	-10.3899
▁شاخ	-10.39
▁بزوس	-10.3902
▁متناسب	-10.3904
▁بزنند	-10.3904
▁جاشوا	-10.3907
▁پرندگان	-10.3908
▁سادات	-10.3909
▁تخلفات	-10.3913
▁اریک	-10.3914
▁پولی	-10.3915
▁بجا	-10.3915
▁طرفدار	-10.3916
تاسف	-10.3919
▁سازد	-10.3928
▁پیوستن	-10.3928
▁تقابل	-10.3929
▁لحظات	-10.3932
▁ازای	-10.3934
▁رسانی	-10.3938
▁وزارتخانه	-10.3941
▁دهک	-10.3949
▁نیوک	-10.395
▁بوق	-10.395
▁گردند	-10.3952
▁نجف	-10.3955
▁فتح	-10.396
▁۱۵۰۰	-10.3967
▁افکار	-10.3968
▁روزمر	-10.397
▁کردستان	-10.3971
▁آباد	-10.3971
▁نژادی	-10.3972
▁کشم	-10.3981
جیره	-10.3985
▁آوردن	-10.3997
▁وسی	-10.4003
▁کول	-10.4023
▁استعفای	-10.4037
▁تاز	-10.4037
▁پستان	-10.4054
▁بیل	-10.4056
▁کشیدن	-10.4064
▁مادران	-10.4068
▁مهمان	-10.4085
▁بل	-10.4092
▁مرم	-10.4097
▁برادرش	-10.4106
▁گال	-10.4108
▁نداد	-10.4118
▁خودروی	-10.4142
۹۰	-10.4154
مر	-10.4187
▁بدل	-10.4198
یژن	-10.4204
▁آرا	-10.4223
▁کنیا	-10.4223
▁رصد	-10.4232
صورت	-10.4248
ئر	-10.425
▁جین	-10.4262
ساب	-10.4264
ارغ	-10.4266
▁تار	-10.427
اتحاد	-10.4276
▁معمولی	-10.4297
تب	-10.4301
▁اما	-10.4303
▁رحم	-10.4311
▁متشک	-10.4319
کینگ	-10.4329
کوبی	-10.434
▁گیاه	-10.4353
▁اختلا	-10.4377
▁دردسر	-10.4386
▁مقرر	-10.4395
▁آنفلوآنزا	-10.4396
▁تجلیل	-10.4396
▁حرکات	-10.4396
▁استراحت	-10.4396
▁ذکر	-10.4396
▁مشورت	-10.4396
▁لزوم	-10.4396
▁بکشند	-10.4396
▁مشکوک	-10.4396
▁دانشکد	-10.4397
▁مقیم	-10.4397
▁خیانت	-10.4397
▁بمانند	-10.4398
▁کامیون	-10.4398
▁ویلیام	-10.4399
▁تعجب	-10.44
▁بوشهر	-10.44
اصو	-10.44
▁فرونشست	-10.44
▁خوک	-10.44
▁متعهد	-10.4401
▁حجاب	-10.4402
▁انتقادهای	-10.4402
▁الحسن	-10.4402
▁۲۰۳۰	-10.4403
▁زنجان	-10.4404
▁۱۳۹۵	-10.4404
▁آهنگساز	-10.4406
▁بلومبرگ	-10.4406
فاد	-10.4406
▁کمپین	-10.4408
▁ویزا	-10.4408
▁مرگبار	-10.4409
انا	-10.441
▁ژوز	-10.4412
▁شوید	-10.4413
وه	-10.4417
▁بورل	-10.4419
▁سیاستمداران	-10.4421
▁پناهجویان	-10.4421
▁اسپوت	-10.4426
▁روبروست	-10.4427
▁اندازد	-10.4428
▁فروشند	-10.4429
▁ستارگان	-10.4431
▁رانندگی	-10.4431
▁کارگروه	-10.4436
▁وحید	-10.4438
نزا	-10.4444
تیکو	-10.4444
▁لیور	-10.4447
▁ظه	-10.4448
کرد	-10.4451
▁سالمندان	-10.4454
▁توفیق	-10.4464
▁ریچارد	-10.4465
▁بازنشست	-10.4466
▁شون	-10.4476
▁گزارشگران	-10.449
▁تقویم	-10.449
▁تام	-10.4493
▁ژنتیک	-10.45
▁طرز	-10.4501
▁یکسان	-10.4505
▁نسبتا	-10.4509
▁کاوا	-10.451
▁عبدی	-10.4521
اری	-10.4527
▁ببر	-10.4531
▁نوشتن	-10.4534
▁انتقادها	-10.4545
▁ویلا	-10.4552
▁حاجی	-10.4554
▁پرهی	-10.4561
حتی	-10.4562
▁حریفان	-10.4584
▁۱۹۴	-10.4585
▁نیا	-10.4589
عی	-10.4599
▁ماهیگیر	-10.4608
▁نیو	-10.4612
▁صالحی	-10.4634
ایع	-10.4638
گاهی	-10.4644
▁گانه	-10.4646
▁شاعران	-10.466
▁علیر	-10.468
▁همگ	-10.4683
دان	-10.4685
▁خارا	-10.4688
۲۳	-10.4689
تیک	-10.47
▁شریفی	-10.4703
▁آوی	-10.4707
▁شدیدتر	-10.4709
▁پلی	-10.4719
▁یکسال	-10.4722
▁الکس	-10.4731
▁تالا	-10.4748
▁رس	-10.477
فا	-10.4784
رق	-10.4787
۶۰	-10.4788
واسط	-10.4799
▁میز	-10.4799
امیر	-10.4799
ضعیف	-10.4799
پژوهشگران	-10.48
استفاده	-10.4801
منستان	-10.4805
مسئولان	-10.4811
شاید	-10.4812
دادگاه	-10.4815
▁۸۰۰	-10.4821
شدت	-10.4821
قص	-10.4821
▁آقا	-10.4831
▁اکس	-10.4834
▁تثب	-10.4835
▁اشک	-10.484
▁درس	-10.4847
آخری	-10.4856
خمین	-10.4861
▁رنجر	-10.4867
▁ناراحت	-10.4869
خاطر	-10.4876
وستا	-10.4877
اطم	-10.4879
▁فضانورد	-10.4883
گذاری	-10.4884
▁گوگ	-10.4899
▁زبا	-10.4904
▁کمربند	-10.491
▁جالب	-10.4914
▁فلز	-10.4915
▁مخصوص	-10.4917
▁مسکو	-10.4921
▁استراتژی	-10.4922
▁اعتقاد	-10.4923
▁فلسفه	-10.4923
▁پرطرفدار	-10.4923
▁ابتکار	-10.4923
▁یهودی	-10.4923
▁برگردد	-10.4923
▁تضمین	-10.4923
▁ستایش	-10.4923
▁منفجر	-10.4923
▁مسایل	-10.4923
▁بختیار	-10.4924
▁مکتب	-10.4925
▁دماوند	-10.4925
▁نروژ	-10.4925
▁بگوییم	-10.4925
▁مواضع	-10.4925
▁ویرجی	-10.4925
▁ببینند	-10.4926
▁فرگوسن	-10.4926
▁فجر	-10.4926
▁دایناسور	-10.4926
▁اعتیاد	-10.4926
▁عنکبوت	-10.4926
▁نظم	-10.4928
▁منزل	-10.4928
▁کشتار	-10.4929
آبادی	-10.4931
▁ذی	-10.4932
▁همرسان	-10.4933
▁خرسند	-10.4933
▁حرم	-10.4933
▁منوچ	-10.4933
▁ضایع	-10.4934
▁کلود	-10.4935
▁اسلم	-10.4936
▁کادی	-10.4936
▁شایعات	-10.4938
کر	-10.494
▁تالار	-10.494
▁انصاریان	-10.4944
▁۶۴	-10.4947
▁کرمان	-10.495
▁ارج	-10.495
نیا	-10.4952
هدیه	-10.4957
▁کاربرد	-10.4957
▁دشمنان	-10.4961
▁گرند	-10.497
▁رایج	-10.497
یف	-10.4978
▁۵۹	-10.4988
▁گلف	-10.4992
▁الیز	-10.4995
▁ادعاهای	-10.5001
▁وب	-10.5007
▁جانور	-10.5008
▁کلام	-10.5015
▁خواه	-10.5017
▁فرید	-10.5025
ایر	-10.5025
▁حکمتی	-10.5029
▁قدمت	-10.5033
▁سفی	-10.5034
▁عقید	-10.5039
▁شخص	-10.5042
▁خند	-10.5045
▁حداد	-10.5049
شنگ	-10.5051
▁تاریک	-10.5051
▁جلال	-10.5057
▁دوازده	-10.5059
▁زخم	-10.5059
▁وزرای	-10.5062
▁روستای	-10.5071
▁سیام	-10.5072
▁داروها	-10.5074
سیا	-10.5078
▁جنس	-10.5078
▁یکبار	-10.508
▁اسکو	-10.5086
▁گرگ	-10.5088
▁فای	-10.5095
▁جرد	-10.5098
▁نامزدها	-10.5112
▁ادب	-10.5113
بهم	-10.5115
▁اق	-10.5117
▁آفریقایی	-10.5128
▁ساختن	-10.5128
زم	-10.5135
گل	-10.5139
ناتور	-10.514
▁گرمای	-10.5146
شاه	-10.5155
▁خودران	-10.5165
▁پسرش	-10.5175
▁آفرین	-10.5177
▁بروند	-10.5177
لوله	-10.5179
▁غم	-10.5183
▁کما	-10.5184
▁انجامید	-10.5202
شمار	-10.5206
▁لا	-10.5231
تل	-10.5236
▁منطق	-10.5241
▁یکم	-10.5243
▁تیل	-10.5244
▁شع	-10.5245
▁ار	-10.526
▁ناب	-10.5262
▁دهان	-10.5266
▁دوج	-10.5266
رن	-10.5273
مجانی	-10.5277
هام	-10.5278
پر	-10.5279
برگ	-10.5284
▁بمب	-10.5332
▁کمدی	-10.5336
لاق	-10.5341
▁شناسان	-10.5345
لق	-10.5351
▁کنو	-10.5353
▁۹۰۰	-10.5355
آنتونی	-10.5356
استقلال	-10.5357
علیرضا	-10.5363
مدت	-10.5378
▁ملا	-10.5391
خارجه	-10.5407
▁ماز	-10.541
▁مگا	-10.5411
چهار	-10.5412
▁راس	-10.546
مهدی	-10.5465
حقق	-10.5465
▁فرج	-10.5466
سپاری	-10.5468
▁لرز	-10.5474
▁مغ	-10.5474
ساسی	-10.5475
▁شاهکار	-10.5475
اقد	-10.5477
▁تحقیر	-10.5478
▁دریابندری	-10.5478
▁رتکلیف	-10.5478
▁معدود	-10.5478
▁وحدت	-10.5478
▁کارداشیان	-10.5478
▁مازندران	-10.5478
▁محوطه	-10.5478
▁اشتراک	-10.5478
▁مجاهد	-10.5478
▁بیفتد	-10.5478
▁فلوید	-10.5478
▁سیگار	-10.5478
▁وصل	-10.5478
مالاریا	-10.5478
▁تعزیری	-10.5478
▁خادم	-10.5478
▁ورشکست	-10.5478
▁روشنفکر	-10.5478
▁ماندگار	-10.5479
▁ببیند	-10.5479
▁مرجع	-10.5479
▁پیشتاز	-10.5479
▁ناامید	-10.5479
▁بلوچ	-10.5479
▁زغال	-10.5479
▁پشتیبان	-10.548
▁کوهستان	-10.548
▁مبدا	-10.548
▁آشوری	-10.5481
▁تعبیر	-10.5483
▁سایبری	-10.5483
▁کپی	-10.5483
▁۱۳۹۶	-10.5485
▁ارزشمند	-10.5486
نظرسنجی	-10.5486
▁تنوع	-10.5486
▁ترافیک	-10.5489
▁تسلیم	-10.5489
جانب	-10.549
▁کین	-10.549
▁ابوال	-10.5491
▁دیدگاه	-10.5491
تکب	-10.5496
▁کیانوش	-10.5497
▁تیرماه	-10.5499
▁پلاک	-10.55
▁اذ	-10.5503
▁پیرلو	-10.5504
▁آرامکو	-10.5507
▁وجه	-10.5507
▁جنایت	-10.5508
یچ	-10.551
▁دارید	-10.5515
تراشه	-10.5516
▁همینطور	-10.5518
▁پناهندگ	-10.5525
▁دارا	-10.5528
▁نوید	-10.553
▁موجودات	-10.553
مرث	-10.553
▁۵۳	-10.5532
▁دیپلمات	-10.5534
▁کاظم	-10.5539
▁لاری	-10.554
▁نداشتن	-10.5541
▁اتل	-10.5543
▁صفحات	-10.5548
▁فرانک	-10.5555
اش	-10.556
▁رضایی	-10.5561
▁جبه	-10.5564
▁پرسی	-10.5573
▁مصطف	-10.5576
نک	-10.5585
▁شیلی	-10.5586
▁رزم	-10.5586
ائی	-10.559
▁مطهری	-10.5592
▁دم	-10.5597
▁لیست	-10.5599
▁کا	-10.561
▁واسط	-10.5612
▁۷۲	-10.5613
▁قراردادهای	-10.5615
▁آمدند	-10.5616
مول	-10.5616
▁شانزدهم	-10.5617
▁افشار	-10.5618
▁۶۲	-10.5619
▁۱۳۶	-10.562
▁مغاز	-10.5625
▁مسیرهای	-10.5634
▁کلان	-10.5652
▁دخترش	-10.5653
▁نیش	-10.5671
▁تصمیمات	-10.569
▁صعودی	-10.5692
▁اکرا	-10.5703
▁الزام	-10.5707
▁تورمی	-10.5708
▁گرایان	-10.5713
▁۴۱	-10.5715
▁پالا	-10.5726
۲۰	-10.5726
خواهد	-10.5729
خواهید	-10.5738
▁خوا	-10.5748
▁مری	-10.5757
▁کارگردانان	-10.5764
▁شل	-10.5767
▁شر	-10.5788
ناز	-10.5798
▁بارداری	-10.5807
کمیت	-10.5817
▁۷۸	-10.5835
الله	-10.5854
▁ردیاب	-10.5855
▁پار	-10.5858
▁سام	-10.5879
▁نمود	-10.5884
▁بانکها	-10.5896
خل	-10.5899
▁گرفتم	-10.59
▁دربار	-10.5905
▁کاغذ	-10.5906
دیگر	-10.5908
▁نظرات	-10.591
▁مرغدار	-10.5915
▁شانه	-10.5917
شماری	-10.5918
حض	-10.5922
الدین	-10.5928
ابی	-10.593
۱۵	-10.594
ونگ	-10.5942
بازار	-10.5942
▁نت	-10.5942
محققان	-10.5944
معاون	-10.5945
منابع	-10.5945
رقابت	-10.5946
▁سرا	-10.5949
▁تیک	-10.5955
▁قش	-10.5972
درصد	-10.5985
ولی	-10.5986
برنامه	-10.5998
▁تون	-10.6021
▁مامور	-10.6023
▁دشمن	-10.6025
▁پیمانکار	-10.6028
وش	-10.603
▁معیار	-10.6052
گبا	-10.6054
▁حیوان	-10.6056
▁عکسی	-10.6063
▁رمزارز	-10.6065
▁بدخشان	-10.6066
▁صداوسیما	-10.6066
▁برآمد	-10.6066
▁فروپاشی	-10.6066
▁خزر	-10.6067
▁نشیب	-10.6067
▁پارالمپیک	-10.6067
▁تتلو	-10.6067
▁ثانوی	-10.6067
▁گشود	-10.6067
▁آسوشیتدپرس	-10.6067
ضعف	-10.6067
▁مدیترانه	-10.6067
▁قزاقستان	-10.6067
▁تبادل	-10.6067
گراندپری	-10.6067
▁فسیل	-10.6067
▁خرابکار	-10.6067
▁آپارتمان	-10.6067
▁ترسناک	-10.6068
▁مختل	-10.6068
▁بگویم	-10.6068
▁آرشیو	-10.6068
▁توفان	-10.6068
▁مولوی	-10.6068
▁عزم	-10.6069
▁غیاب	-10.6069
▁بگیرید	-10.6069
▁چوب	-10.6069
▁سرویس	-10.6069
▁پراید	-10.6069
▁اکسید	-10.607
دربند	-10.607
▁تندرو	-10.6071
▁لامبورگینی	-10.6071
▁مزرعه	-10.6071
کور	-10.6071
▁خزان	-10.6071
▁لبخند	-10.6072
▁مارچ	-10.6072
▁قرص	-10.6073
▁تبعید	-10.6073
▁اردوگاه	-10.6073
▁هشتگ	-10.6073
▁ودیعه	-10.6075
▁اعطا	-10.6075
▁زادگاه	-10.6077
▁دستاوردهای	-10.6077
▁شیمی	-10.6078
رشد	-10.6079
▁نکات	-10.608
▁زیستگاه	-10.6081
▁گوگل	-10.6082
▁تسهیلات	-10.6084
▁فیس	-10.6084
▁حباب	-10.6085
▁فتاح	-10.6086
▁۲۰۰۴	-10.6089
▁مداوم	-10.6091
▁عصب	-10.6091
▁غالب	-10.6092
▁مرتب	-10.6095
زاک	-10.61
▁علاقمندان	-10.61
▁تحصیلات	-10.6103
▁بالاتری	-10.6108
اشا	-10.6112
فصل	-10.6115
▁شام	-10.6115
▁شناسند	-10.6119
▁گارد	-10.6123
▁خواهر	-10.6128
▁گار	-10.613
▁توضیحات	-10.613
▁کیفر	-10.6132
▁بزرگتر	-10.6139
▁نکردند	-10.6143
▁دلال	-10.6146
▁ضربات	-10.6156
▁حو	-10.6161
▁آرش	-10.6161
▁قرض	-10.6166
▁هکرها	-10.6168
▁عمران	-10.6169
▁افسر	-10.6173
▁نوزدهم	-10.6181
لاتین	-10.6184
▁دورت	-10.6186
▁۱۹۳	-10.6197
گفت	-10.6197
▁داشتیم	-10.62
▁انتقادات	-10.6203
گیر	-10.6209
▁الگوی	-10.6214
نصف	-10.6218
▁هواپیماهای	-10.623
▁مهاجمان	-10.6241
▁ایستاد	-10.6242
کت	-10.6242
▁صدم	-10.6242
▁ناآرامی	-10.6245
▁پیشرو	-10.625
یقه	-10.6252
▁ویدئو	-10.6256
▁کلاهبردار	-10.626
▁ران	-10.6284
▁معنا	-10.6294
▁سختگیر	-10.6297
▁گلزن	-10.6308
▁لوکا	-10.6309
لم	-10.6314
راتی	-10.6315
▁دانشجویی	-10.6323
▁وحشی	-10.6327
▁۷۴	-10.6333
دم	-10.6339
برداری	-10.6351
▁منصوری	-10.6359
▁حدی	-10.6363
نوش	-10.6367
▁تعهداتش	-10.637
▁برجا	-10.6373
▁سیر	-10.6374
وفر	-10.6379
▁بدین	-10.6382
۷۰	-10.6403
▁جف	-10.6405
▁وار	-10.6405
▁یور	-10.6408
روج	-10.6413
قدس	-10.6421
▁شرمن	-10.6428
▁برداشتن	-10.6431
أ	-10.6434
▁کامپیوتری	-10.6438
▁عمد	-10.6454
▁پیشرفته	-10.6465
▁بینیم	-10.6485
اتور	-10.6497
جایی	-10.6501
دام	-10.6501
لقی	-10.6513
▁پارس	-10.6514
▁خطای	-10.6524
وجود	-10.6556
آمیز	-10.6569
محمدجواد	-10.6574
▁تلف	-10.6577
فعالان	-10.6579
زده	-10.6581
مارک	-10.6607
▁هوادار	-10.6615
سرعت	-10.6626
▁آزمو	-10.6628
▁پناه	-10.6642
▁شنیدن	-10.6649
▁مرگش	-10.6649
▁سرنشین	-10.6658
▁تعل	-10.6662
▁صفرها	-10.6663
سیتی	-10.6677
▁اخطار	-10.6678
▁صح	-10.6678
▁ژنو	-10.6679
لور	-10.668
▁ابهام	-10.668
▁قاب	-10.6681
▁ارگ	-10.6683
▁اعتراف	-10.6684
▁مصدوم	-10.6685
▁آتالانتا	-10.6691
▁اتوبوس	-10.6691
▁زحمت	-10.6691
▁غرامت	-10.6691
▁معالج	-10.6691
▁ناقض	-10.6691
▁خسارات	-10.6692
▁شباهت	-10.6692
▁ندارم	-10.6692
▁وحشتناک	-10.6692
▁نوازنده	-10.6692
▁بازارها	-10.6692
▁تمدن	-10.6692
▁نزول	-10.6692
▁سوگوار	-10.6692
▁ناشناخت	-10.6692
▁درآورد	-10.6692
▁داغستان	-10.6692
▁بپردازد	-10.6692
▁جابجا	-10.6693
▁آوازخوان	-10.6693
▁توجیه	-10.6693
▁احتیاط	-10.6693
▁سعد	-10.6693
▁مصلحت	-10.6693
▁تغذیه	-10.6694
▁پیشکسوت	-10.6694
▁توریست	-10.6694
▁خلاقیت	-10.6694
▁متنوع	-10.6694
▁گردانند	-10.6695
▁ضدحمل	-10.6695
▁صحیح	-10.6696
▁بردارد	-10.6697
▁۱۹۴۰	-10.6698
▁پایبند	-10.6698
مسی	-10.6699
▁سکوت	-10.6702
▁موازی	-10.6703
وطن	-10.6703
▁شط	-10.6703
▁هستید	-10.6704
▁کریسمس	-10.6704
یویا	-10.6705
▁عاشقانه	-10.6707
▁یوو	-10.6707
▁لحن	-10.6708
▁والدین	-10.6711
▁جزییات	-10.6712
▁بنکسی	-10.6715
سخ	-10.6721
▁وجو	-10.6722
ژ	-10.6725
▁۱۹۷	-10.6726
▁سارا	-10.6727
▁خران	-10.6729
▁گرمایش	-10.673
تنها	-10.6736
▁پال	-10.6738
▁چهاردهم	-10.674
صخره	-10.6743
▁کوهن	-10.675
▁وای	-10.6763
▁هفدهم	-10.6772
▁نوار	-10.6774
▁کوچکتر	-10.6794
▁پرآ	-10.6797
لندر	-10.6806
▁موک	-10.6817
▁قطعات	-10.6822
▁شغلی	-10.6822
▁نرفت	-10.6825
▁رسم	-10.6827
▁نورد	-10.683
▁پرتر	-10.6832
▁استون	-10.6841
▁بم	-10.6842
▁بورگ	-10.6844
▁نوجوانان	-10.6848
▁کرو	-10.6848
▁برزیلی	-10.6851
چون	-10.6856
▁کو	-10.6857
▁اح	-10.6861
▁۹۴	-10.6861
ایدو	-10.6862
▁پاهای	-10.6874
باز	-10.6874
وارد	-10.6882
کره	-10.6888
▁ریزش	-10.6891
▁خالص	-10.6894
▁چیزهای	-10.6904
▁جهانگیری	-10.6907
اژ	-10.6909
▁یافتند	-10.6914
آمار	-10.6919
▁سیم	-10.6928
▁بلوک	-10.6928
▁شهید	-10.6932
زیه	-10.6934
بازی	-10.6935
▁گرای	-10.6938
▁شهریار	-10.6943
▁صدد	-10.6946
▁بارور	-10.6959
▁کوبا	-10.6966
▁پروازها	-10.6983
▁سلطانی	-10.6997
▁وا	-10.7013
▁میرزا	-10.7018
▁کودتای	-10.7023
عشی	-10.7023
▁بشری	-10.7025
▁۶۸	-10.7027
اسل	-10.7032
▁۱۹۶۰	-10.7045
▁قومی	-10.7079
▁زی	-10.708
▁زو	-10.7082
▁انیس	-10.7111
▁طب	-10.713
▁مح	-10.7131
▁مست	-10.7148
▁۳۵۰	-10.7148
▁کیت	-10.7148
▁هلی	-10.7159
مندان	-10.7163
▁نوآور	-10.7173
یلیون	-10.7182
چین	-10.7183
▁درج	-10.7184
درفتار	-10.7192
▁بانو	-10.7194
اف	-10.7197
فن	-10.7202
▁گویی	-10.7215
غه	-10.7228
خانواده	-10.7237
حمید	-10.7237
تولید	-10.7237
اقتصاد	-10.7237
چرا	-10.724
علاو	-10.724
▁۸۵	-10.7246
ازاد	-10.7253
▁۱۹۰	-10.7262
▁ذهنی	-10.7263
▁اکبری	-10.7264
▁آرای	-10.7265
▁شاپو	-10.7268
▁درخش	-10.7275
▁ماس	-10.7279
رهبر	-10.728
▁اله	-10.7285
▁خشن	-10.7293
بند	-10.7295
▁همتای	-10.7314
▁۱۷۰	-10.7315
▁آگاهی	-10.7329
▁ایر	-10.7334
▁بناها	-10.7343
▁تعمیر	-10.7348
▁همجنس	-10.7348
▁مصل	-10.7357
مکعب	-10.7357
▁مشکات	-10.7357
▁اسرار	-10.7358
▁آغداشلو	-10.7358
▁بفروشد	-10.7358
▁مغناطیس	-10.7358
▁واضح	-10.7358
▁کانسپت	-10.7358
▁گلمکانی	-10.7358
▁یونسکو	-10.7358
▁استخدام	-10.7358
▁اصرار	-10.7358
▁محترم	-10.7358
▁نامناسب	-10.7358
▁اقتدار	-10.7358
▁بیاورد	-10.7358
▁اوباما	-10.7358
▁نیسان	-10.7358
▁قبال	-10.7358
▁پوتین	-10.7358
▁جلد	-10.7358
▁لگن	-10.7359
▁یادبود	-10.7359
▁زیارت	-10.7359
▁ندهد	-10.7359
▁خوست	-10.7359
▁انحصار	-10.736
▁حقیق	-10.736
▁شرح	-10.736
▁سارس	-10.736
▁مداخل	-10.7361
▁آرمان	-10.7362
▁ماشه	-10.7363
▁مخدر	-10.7363
▁ایرباس	-10.7363
▁مرتضی	-10.7363
▁مدرک	-10.7363
لاند	-10.7364
▁تشری	-10.7364
▁هشتصد	-10.7365
رگس	-10.7366
▁غلط	-10.7366
▁محکم	-10.7369
▁کوب	-10.737
▁تکنولوژی	-10.7371
▁اسنپ	-10.7371
▁اخلاق	-10.7372
▁زهره	-10.7372
▁حساسیت	-10.7374
▁حتما	-10.7385
▁پیچ	-10.739
▁ادارات	-10.7394
▁مواقع	-10.7394
▁رضایت	-10.7397
انصراف	-10.7406
▁دهید	-10.7406
▁کیست	-10.7406
▁معاد	-10.7408
▁روال	-10.7414
▁مستقیما	-10.742
▁احسا	-10.7422
▁برایم	-10.7425
▁رفتارهای	-10.743
▁کج	-10.7435
▁گذارند	-10.7444
▁بافت	-10.7446
▁دنیاست	-10.7448
▁دهندگان	-10.7448
▁گذاشتند	-10.745
▁جست	-10.7451
▁خواهی	-10.7461
▁شوخی	-10.7465
▁گفتگوهای	-10.7476
▁فوریت	-10.7478
▁چار	-10.748
▁۷۶	-10.7502
▁ایرج	-10.7512
▁رش	-10.7523
جد	-10.7526
▁سوری	-10.7528
▁بازخوان	-10.7532
▁پانزدهم	-10.7535
رسون	-10.7538
▁کلر	-10.7539
▁دیدارهای	-10.7549
۴۰	-10.7553
مانده	-10.7555
▁همانند	-10.7567
▁گوهر	-10.757
ترا	-10.7575
رالله	-10.758
▁کامپیوتر	-10.7587
▁نگر	-10.7607
▁استثنا	-10.761
پتون	-10.7613
▁فیلمبردار	-10.7618
▁واحدها	-10.7625
▁نهاده	-10.7626
▁همکار	-10.7628
خبر	-10.7633
▁میلیاردر	-10.7634
▁شادی	-10.7641
▁عزیز	-10.7644
▁برگشته	-10.7645
واک	-10.765
▁شمس	-10.7654
بینی	-10.7655
▁شاپ	-10.7659
▁اجبار	-10.7665
▁معیشتی	-10.7682
نکور	-10.7686
ویچ	-10.7693
▁شهردار	-10.7694
ونیست	-10.7695
وکی	-10.7705
▁رز	-10.7706
ابلو	-10.7714
▁شریف	-10.7723
▁دادخواه	-10.7742
▁یار	-10.7755
▁مقر	-10.7765
▁تحریمها	-10.7773
▁جیل	-10.7783
▁جوز	-10.7787
▁مهل	-10.7793
قه	-10.7795
▁هندی	-10.7796
▁سانتریفیوژ	-10.7797
▁شهیدی	-10.7809
▁۱۷۶	-10.7812
▁ریخت	-10.7814
▁۸۲	-10.7816
لین	-10.7817
▁مالکان	-10.7822
۴۶	-10.7823
▁فین	-10.7831
▁قف	-10.7835
▁منظر	-10.7846
▁آمریکاست	-10.7853
▁استاندارد	-10.7855
▁بارز	-10.7861
خواست	-10.7893
کوویچ	-10.7893
مدیر	-10.7895
▁شبه	-10.7913
▁عمو	-10.7922
▁گذراندن	-10.7927
مرگ	-10.7933
تحول	-10.7937
مصطف	-10.7948
غلام	-10.795
ناظر	-10.795
اخیرا	-10.7951
فدرر	-10.7951
انتظار	-10.7951
صندوق	-10.7951
کارشناسان	-10.7952
نمایندگان	-10.7954
همچنین	-10.7954
▁سطو	-10.7959
▁مال	-10.7961
هدف	-10.7963
▁پرت	-10.7967
دور	-10.7968
▁بنیادی	-10.7972
عارف	-10.7974
▁آثارش	-10.7988
▁گزارشها	-10.8
مپ	-10.8004
▁سکت	-10.8038
▁دنی	-10.8048
زار	-10.8052
کارآمد	-10.8053
▁معلم	-10.8054
▁خانوار	-10.8056
احی	-10.8057
▁مکزیک	-10.8058
▁دستاورد	-10.806
▁مأمور	-10.8066
▁خراب	-10.8066
▁مصر	-10.807
▁فریب	-10.807
▁آبراموویچ	-10.8072
▁تفکیک	-10.8072
▁زریاب	-10.8072
▁فزاینده	-10.8072
▁زیرساخت	-10.8072
▁فطر	-10.8072
▁یخچال	-10.8073
▁خفیف	-10.8073
▁آمبول	-10.8073
▁نیجر	-10.8073
▁کالبد	-10.8073
▁آسمایی	-10.8073
▁مطلوب	-10.8073
▁مظاهری	-10.8073
▁بازنگری	-10.8073
▁مثلث	-10.8073
▁لاریجان	-10.8073
▁آشام	-10.8073
▁مسافت	-10.8073
▁شرکا	-10.8073
▁هرمز	-10.8073
▁راپینو	-10.8074
▁پنگوئن	-10.8074
▁دشت	-10.8074
جیمزباند	-10.8074
▁حسرت	-10.8075
فینیتی	-10.8075
▁مراود	-10.8075
▁ترانزیت	-10.8075
▁باشم	-10.8077
▁طعم	-10.8077
▁امواج	-10.8077
▁اکتشاف	-10.8078
▁غیرنظامی	-10.8078
▁سالیوان	-10.8078
▁مخلو	-10.8079
▁تکنیک	-10.808
▁فیروز	-10.8083
مایک	-10.8084
نشین	-10.8084
▁۱۴۰	-10.8085
▁الکل	-10.8085
▁گابریل	-10.8087
▁جغرافیای	-10.8091
▁بوکسور	-10.8091
▁۲۰۰۱	-10.8091
▁جیپ	-10.8092
غیب	-10.8096
ابق	-10.8098
▁تئو	-10.8102
▁مایع	-10.8105
طرف	-10.8108
▁سیبری	-10.8109
▁گرایش	-10.8111
ساله	-10.8112
▁برلین	-10.8113
▁شیع	-10.8115
▁کرایس	-10.8119
▁شناسد	-10.8121
هنورد	-10.8123
▁کرج	-10.8131
▁نویسد	-10.8131
▁آلن	-10.8134
▁ندیده	-10.814
▁ساترا	-10.814
▁نمایشنامه	-10.8144
▁حفر	-10.8145
▁گیل	-10.8148
▁کاوه	-10.8155
▁معاین	-10.816
▁گلوب	-10.8166
▁ماست	-10.8172
▁بدوی	-10.8206
▁فدرا	-10.8212
بانی	-10.8212
▁نق	-10.8216
▁افتادن	-10.8223
بیشترین	-10.8225
نم	-10.8225
▁بگیر	-10.8225
▁جاهای	-10.8233
مانع	-10.8235
وازه	-10.8237
▁مزایای	-10.8245
▁منار	-10.8286
▁کارفرمای	-10.8287
▁نمادهای	-10.8296
▁گرفتار	-10.8312
▁مدتها	-10.8318
▁مندان	-10.8318
▁بول	-10.8338
ولت	-10.835
▁۱۳۴	-10.8354
▁آرزوی	-10.8355
▁ضر	-10.8357
▁درخشانی	-10.8362
▁بودا	-10.8366
عان	-10.8379
▁۶۱	-10.838
▁اتکا	-10.8387
خیم	-10.839
▁استودیو	-10.8391
▁ماری	-10.8392
▁عالم	-10.8393
▁زم	-10.8394
▁پژو	-10.8397
▁رکوردهای	-10.8402
▁فرض	-10.8411
الت	-10.8419
ظن	-10.8421
▁نابود	-10.8422
▁مسیحی	-10.8423
یسون	-10.8426
لاله	-10.8432
▁تابو	-10.8459
یع	-10.8462
یانت	-10.8484
▁ماریا	-10.8484
راب	-10.8512
دوست	-10.8522
▁ژو	-10.8556
▁چشمان	-10.8575
برید	-10.858
▁اعتراضی	-10.8586
▁کینگ	-10.8588
▁جنی	-10.8593
▁سرف	-10.8596
شتم	-10.8615
▁شهرک	-10.8618
▁کاف	-10.8652
ولا	-10.8665
▁لوا	-10.8679
▁انتها	-10.8679
▁۸۹	-10.8685
کسر	-10.8693
▁متیو	-10.8702
▁مضر	-10.8702
گفتگو	-10.8705
▁فروشی	-10.8706
قرض	-10.8717
پرسپولیس	-10.872
موسس	-10.872
باشگاه	-10.872
دونالد	-10.872
مجلس	-10.8726
داران	-10.8729
▁کروناست	-10.8732
فرج	-10.8735
▁لوف	-10.8738
تلاش	-10.8739
دهنده	-10.874
هکرها	-10.875
صالح	-10.8758
الکس	-10.877
▁کان	-10.878
کمی	-10.8794
▁انگشت	-10.8795
▁نوزاد	-10.8799
فون	-10.8802
▁دوید	-10.8807
پا	-10.8808
▁آشنای	-10.8808
روزنامه	-10.8809
لژی	-10.881
تال	-10.8812
▁ریل	-10.8813
۱۰	-10.8814
▁داو	-10.8817
تعداد	-10.8831
▁فرزندش	-10.8835
▁نویسندگ	-10.8837
▁کولبر	-10.8837
▁باورنکردنی	-10.8842
▁تخفیف	-10.8842
▁خرچنگ	-10.8842
▁دگرگون	-10.8842
▁سرتاسر	-10.8842
▁نصیب	-10.8842
▁نوشیدن	-10.8842
▁اپیدمی	-10.8842
▁مستضعفان	-10.8842
خاذ	-10.8842
▁بفتا	-10.8842
▁انباشت	-10.8842
▁برشمرد	-10.8842
▁قسط	-10.8842
▁تضاد	-10.8842
▁بنتلی	-10.8842
▁شارژ	-10.8842
ناشناس	-10.8842
▁عواقب	-10.8842
▁متوفی	-10.8842
▁جرایم	-10.8842
▁ارتقا	-10.8842
▁غیبت	-10.8842
▁آموزگار	-10.8842
▁خیال	-10.8842
▁واریز	-10.8842
موث	-10.8842
▁زودهنگام	-10.8843
▁قبر	-10.8843
▁ریورا	-10.8843
▁مکمل	-10.8843
▁گلایه	-10.8843
▁کولمن	-10.8843
▁پردرآمد	-10.8844
▁بگذارند	-10.8844
▁بزن	-10.8844
▁فرایند	-10.8845
نفتی	-10.8845
▁۱۹۸۰	-10.8845
▁فخر	-10.8846
▁تبریک	-10.8847
▁آنفیلد	-10.8847
▁گواهی	-10.8847
▁ناتوان	-10.8847
▁انستیتو	-10.8847
▁کلینیک	-10.8849
▁۱۹۷۰	-10.885
انس	-10.885
▁قائم	-10.8853
▁معاش	-10.8853
▁سیارک	-10.8855
▁نژادپرستانه	-10.8858
ریت	-10.8859
سیلوا	-10.886
▁مخصوصا	-10.886
▁شکوف	-10.8861
▁روبرت	-10.8861
▁شستا	-10.8861
▁ببرند	-10.8861
▁گودال	-10.8862
▁پررنگ	-10.8863
▁تیموری	-10.8866
▁رونالدینیو	-10.8867
▁قبرس	-10.8868
▁دندان	-10.8868
▁تحرک	-10.8869
▁هیچکس	-10.887
▁پائی	-10.8874
۱۳	-10.8876
▁میهمان	-10.8878
▁حراست	-10.8878
▁حبیب	-10.8882
▁ساری	-10.8889
▁آنتی	-10.8889
ستانگ	-10.889
▁گناه	-10.8891
▁متروکه	-10.8891
▁انداختن	-10.8893
▁مغول	-10.8895
▁ساسانی	-10.8896
▁رانت	-10.8896
▁خلوت	-10.8898
▁فضانوردان	-10.8905
▁کانادایی	-10.8906
▁مثل	-10.8909
▁گرسنگ	-10.8911
▁پیتر	-10.8919
▁مردگان	-10.8923
▁غفوری	-10.8931
▁نخ	-10.8932
▁۸۳	-10.8932
▁سپید	-10.8932
▁معوقه	-10.8932
▁نیکلا	-10.8933
خون	-10.8933
ویل	-10.8941
▁باختند	-10.8943
▁فرق	-10.8946
کیو	-10.8948
جیب	-10.8949
قات	-10.895
▁رساندند	-10.8957
▁خواندند	-10.896
▁کیا	-10.897
ریک	-10.8984
▁جنای	-10.899
▁گروگانگیر	-10.8994
▁پیرو	-10.8996
مل	-10.9
▁نمانده	-10.9001
▁یگان	-10.9007
زا	-10.9007
▁اوار	-10.9029
▁ایندی	-10.9033
▁خطرات	-10.9047
▁خار	-10.9054
▁بازوی	-10.9064
▁پرتو	-10.908
لس	-10.9082
▁وگوی	-10.9095
یلی	-10.9114
▁بیگ	-10.9122
▁اینجا	-10.9128
لینگ	-10.913
▁رول	-10.9134
بالغ	-10.9139
ربی	-10.9147
▁تاکتیکی	-10.9147
▁معل	-10.9148
▁استرس	-10.9153
مد	-10.916
▁رنگین	-10.9163
▁باقر	-10.9169
نج	-10.9178
همه	-10.9196
▁دادم	-10.9201
▁فول	-10.9202
امضاکنندگان	-10.9222
▁بلو	-10.9223
▁نیت	-10.9228
▁کلم	-10.9229
ژیم	-10.9238
▁کودتا	-10.9245
▁جوش	-10.9249
▁روم	-10.9249
▁قربان	-10.9252
شما	-10.9252
گو	-10.9264
▁ژی	-10.9272
▁خالق	-10.9277
شد	-10.9285
▁موجودی	-10.9306
کید	-10.9306
گیل	-10.9309
▁هرکس	-10.9315
سن	-10.9323
▁بون	-10.9328
یید	-10.9333
گا	-10.9355
▁۶۵۰	-10.9356
▁میلو	-10.937
رخ	-10.9373
شوه	-10.9376
▁مقا	-10.9377
زنی	-10.9387
▁خل	-10.9389
کول	-10.9391
▁تیره	-10.9403
ملک	-10.9419
قرب	-10.9429
رات	-10.9462
برد	-10.9468
صول	-10.9471
▁سوگ	-10.9477
▁تاریکی	-10.9482
▁ابلاغی	-10.9492
▁جوی	-10.9492
▁نیما	-10.9492
سوس	-10.9495
▁۵۱	-10.951
▁۵۸	-10.9513
یکون	-10.952
▁انگل	-10.9524
▁نیافت	-10.954
پذیر	-10.954
▁نظرهای	-10.9546
دخت	-10.9549
▁گازی	-10.9549
کانادا	-10.9553
راجر	-10.9554
واکنش	-10.9554
کاهش	-10.9556
رسی	-10.9578
وح	-10.9591
▁متحدان	-10.9594
ادا	-10.96
کرونا	-10.9602
▁خبرها	-10.9605
▁همر	-10.961
آمریکایی	-10.961
جن	-10.9614
رمد	-10.9615
▁انوش	-10.9631
▁علاقمند	-10.9633
هز	-10.9633
▁افتتاحی	-10.9633
سئول	-10.964
باط	-10.9646
▁آموز	-10.965
▁منصو	-10.9653
پول	-10.9654
جهان	-10.9659
▁ندانست	-10.9661
▁مشوق	-10.9661
▁سلام	-10.9662
▁رخداد	-10.9664
▁دوش	-10.9664
▁اشکال	-10.9667
بست	-10.967
▁رئوف	-10.9675
▁آلومینیوم	-10.9675
▁اتیوپی	-10.9675
▁اوربیتر	-10.9675
▁جامائیکا	-10.9675
▁جهرمی	-10.9675
▁دانچیچ	-10.9675
▁رمضان	-10.9675
▁شیکاگو	-10.9675
▁لاجورد	-10.9675
▁مصیبت	-10.9675
▁الاجل	-10.9675
▁ربیعی	-10.9675
▁ملاحظ	-10.9675
رطوب	-10.9675
▁الماس	-10.9675
▁امتداد	-10.9675
▁بشردوستانه	-10.9675
▁هوندا	-10.9675
▁گریبان	-10.9675
▁فحش	-10.9675
▁ووهان	-10.9675
▁اتصال	-10.9675
▁گیگز	-10.9675
▁خاشقچی	-10.9675
▁کدخدای	-10.9676
▁خیام	-10.9676
▁فروزش	-10.9676
▁جواهر	-10.9676
▁قاتل	-10.9676
▁وودز	-10.9677
▁استفانو	-10.9678
▁آث	-10.9678
▁وفادار	-10.9679
▁دبیرستان	-10.9679
▁اسپورت	-10.968
ستردا	-10.9681
▁ژیمناست	-10.9681
▁دورانگو	-10.9682
▁گرامی	-10.9683
▁فروغ	-10.9683
▁عقاب	-10.9683
▁جناح	-10.9684
▁دایر	-10.9684
▁شیفت	-10.9684
▁تخل	-10.9685
▁اذیت	-10.9685
بپرس	-10.9686
▁نگرفت	-10.9686
▁کلمات	-10.9687
هرانا	-10.9688
▁تلفات	-10.969
▁۱۹۹۸	-10.9691
▁تدری	-10.9691
▁ترابی	-10.9693
▁اقبال	-10.9694
▁۲۰۰۶	-10.9699
▁درآمدزا	-10.97
▁لخت	-10.9702
▁نهفته	-10.9702
▁شمایل	-10.9704
▁ویدیوهای	-10.9705
عارض	-10.9705
▁قفس	-10.9705
▁حضرت	-10.9706
▁زنگ	-10.9707
▁پرستاران	-10.9708
▁۴۷	-10.9711
▁اسحاق	-10.9714
▁صریح	-10.9714
▁رائو	-10.9717
▁اخ	-10.9718
▁جنر	-10.9718
▁کالای	-10.9718
▁تیتر	-10.9719
▁جفت	-10.972
واشی	-10.9723
▁فابی	-10.9727
▁مستندساز	-10.9728
▁انداختند	-10.9731
▁سبد	-10.9732
▁کارتو	-10.9734
اهید	-10.9735
▁خلیل	-10.9735
▁ولد	-10.9736
▁جولیان	-10.9739
ازما	-10.974
▁ماهشهر	-10.974
▁ولت	-10.974
▁فیلیپین	-10.9741
▁قند	-10.9742
▁گردون	-10.9746
▁موهای	-10.9748
▁رژه	-10.975
خط	-10.9759
▁پناهجوی	-10.9769
▁هامر	-10.9774
▁سالیانه	-10.9774
▁۱۳۳	-10.9778
▁پویا	-10.9778
▁متخلفان	-10.978
▁افق	-10.9784
▁سکسک	-10.9785
▁نداشتم	-10.9793
▁پذیرای	-10.9794
▁ادوارد	-10.9809
▁شعبان	-10.981
▁اصولگرای	-10.9812
▁نشدند	-10.9815
▁دیدم	-10.9817
▁ادل	-10.9826
▁فهمید	-10.9841
ارمی	-10.9845
▁پسرم	-10.9846
▁ماخ	-10.9857
▁اینستاگرامش	-10.9865
▁نوشتند	-10.9867
▁نگارش	-10.9868
▁تراز	-10.9873
لال	-10.9873
▁سردار	-10.9876
روح	-10.9877
اند	-10.988
▁اراد	-10.9887
وخامت	-10.9888
▁مونت	-10.9889
▁آندری	-10.989
▁اچ	-10.9892
▁خوار	-10.9893
▁نزدیکان	-10.9896
▁اندام	-10.9899
▁گرین	-10.99
الیاس	-10.9923
▁حفا	-10.993
کین	-10.9937
رایش	-10.9941
▁بدنش	-10.9953
▁قرمزها	-10.9957
▁کوس	-10.9973
▁بدنی	-10.9977
تشکر	-10.9979
▁ولا	-10.998
▁ژن	-10.9992
▁وث	-10.9995
▁عزادار	-10.9999
▁سرب	-11.0013
▁طیب	-11.0014
کام	-11.0021
▁بینید	-11.0029
گرا	-11.0035
▁سرگرمی	-11.0052
▁گرانتر	-11.0057
▁تان	-11.0071
یوب	-11.0077
▁شمارش	-11.0079
▁پرید	-11.008
آور	-11.0085
▁شجاع	-11.0099
خته	-11.0104
▁۸۶	-11.0108
▁ریوی	-11.0112
۶۳	-11.0113
▁خالقی	-11.0129
۹۸	-11.0132
لیون	-11.0135
▁دانشجو	-11.015
ویک	-11.0152
▁نی	-11.0152
▁۸۸	-11.0153
▁معیشت	-11.0154
▁تونس	-11.0156
▁شرم	-11.0158
▁عل	-11.0161
▁مض	-11.0164
▁هول	-11.0169
▁منصور	-11.0171
▁مسیح	-11.0171
▁ژ	-11.0175
▁بت	-11.0183
زاب	-11.0188
▁گوی	-11.0199
وب	-11.0209
سله	-11.0233
▁بور	-11.0234
▁نمادی	-11.0235
▁گرما	-11.0238
▁رجب	-11.0245
▁فرهنگیان	-11.0248
▁خر	-11.0251
باب	-11.0253
▁ثروتمندتر	-11.0257
▁باردار	-11.0258
جرد	-11.0269
▁محدودیتها	-11.0269
فتن	-11.0272
ائل	-11.0272
▁بازیار	-11.0279
▁اسپ	-11.028
▁باریک	-11.0291
▁دن	-11.0304
کسل	-11.0309
▁رایان	-11.0314
▁مول	-11.0316
▁گرمی	-11.0317
▁راد	-11.0318
شته	-11.0324
▁مهمتر	-11.033
گراد	-11.0333
رای	-11.0336
▁۱۸۰	-11.034
رینگ	-11.0343
وندی	-11.0346
▁دوازدهم	-11.0349
▁رج	-11.0357
▁شانزده	-11.0361
سابقه	-11.0364
▁وات	-11.037
۱۷	-11.0376
▁خریده	-11.039
نقل	-11.0391
خوان	-11.0395
▁پستی	-11.0399
▁تفسیر	-11.0404
۹۹	-11.0406
▁۱۶۰	-11.0416
خورده	-11.0416
▁گودا	-11.043
▁راکت	-11.0431
طبی	-11.0446
▁پراکن	-11.0446
خودرو	-11.0449
▁فرانسیس	-11.045
▁بله	-11.0451
ریچارد	-11.046
همیلتون	-11.046
تاتنهام	-11.0462
تصاویر	-11.0462
روابط	-11.0463
انتشار	-11.0463
تصمیم	-11.0463
▁افکاری	-11.0463
چلسی	-11.0464
▁غرو	-11.0467
▁بیدار	-11.0469
سلیم	-11.047
▁متخلف	-11.0477
بومی	-11.0479
اراک	-11.0484
▁اسل	-11.0497
اکبر	-11.0501
موج	-11.0502
▁دیوی	-11.0507
▁کاران	-11.052
▁تندی	-11.0531
پار	-11.0534
اید	-11.0536
▁محا	-11.0542
▁گویا	-11.0542
رود	-11.0556
▁سوئ	-11.0563
جمه	-11.0566
▁پهپاد	-11.0569
▁ثا	-11.0572
نگره	-11.0579
مادر	-11.0579
دغدغه	-11.0584
▁اسراییل	-11.0584
▁المستقبل	-11.0584
▁الگوریتم	-11.0584
▁تصاحب	-11.0584
▁تهاجم	-11.0584
▁جاپلقی	-11.0584
▁خنثی	-11.0584
▁زاناردی	-11.0584
▁ضوابط	-11.0584
▁پولیتزر	-11.0584
▁ژئوپلیتیک	-11.0584
▁کرگدن	-11.0584
▁بسازد	-11.0584
▁بذر	-11.0584
▁مضاعف	-11.0584
▁محتوی	-11.0584
▁اختراع	-11.0584
▁تکامل	-11.0584
▁البرز	-11.0584
▁بخرد	-11.0584
▁برنگشت	-11.0584
▁نعمت	-11.0584
▁فلج	-11.0584
▁لامرد	-11.0584
▁مائوریتس	-11.0584
▁اشنویه	-11.0584
▁آرتتا	-11.0585
▁سنگاپور	-11.0585
▁اعتنا	-11.0585
▁مسترز	-11.0585
▁پاراگوئه	-11.0585
▁قبیل	-11.0585
یضا	-11.0586
پچو	-11.0586
▁دوستداران	-11.0586
▁۱۹۷۳	-11.0586
▁بنجام	-11.0586
▁تنگنا	-11.0586
▁علوی	-11.0587
▁صمیم	-11.0587
▁برسند	-11.0587
▁کرمانشاه	-11.0587
▁یادگار	-11.0588
▁وادار	-11.0588
▁محفظه	-11.0589
▁شفا	-11.059
▁شکوه	-11.059
▁نوازندگان	-11.059
▁بتهوون	-11.0591
▁تویوتا	-11.0591
▁سردرگم	-11.0591
▁نابسامان	-11.0591
▁متکی	-11.0591
▁صراحت	-11.0591
▁ایسلند	-11.0591
▁۱۹۲۰	-11.0592
▁مبارک	-11.0593
صداق	-11.0593
▁اقامتگاه	-11.0593
▁عصبانی	-11.0593
▁۱۳۵۰	-11.0594
▁کفتر	-11.0594
گشاد	-11.0595
▁ژنرا	-11.0595
ایتون	-11.0596
▁سنبل	-11.0597
▁مشت	-11.0598
▁شوت	-11.0598
▁سولو	-11.0601
▁پردازند	-11.0602
▁آلزایمر	-11.0603
▁جمشید	-11.0603
▁فیزیکدان	-11.0604
▁مبالغ	-11.0604
▁حاد	-11.0605
ائیل	-11.0605
▁سازندگان	-11.0605
▁۱۳۰	-11.0608
▁ندادن	-11.0609
▁لیتر	-11.0611
▁سازندگی	-11.0611
▁دیدیم	-11.0612
▁لاس	-11.0612
ارا	-11.0614
▁وکلا	-11.0615
▁اقتصاددان	-11.0615
▁داریوش	-11.0616
▁تص	-11.0618
▁قائل	-11.0619
▁بالگرد	-11.0623
▁مهندسی	-11.0626
▁بیورن	-11.0629
▁خالد	-11.0632
▁همخوان	-11.0633
▁رحمت	-11.0634
▁اپل	-11.0636
▁ناوگان	-11.0637
▁گردید	-11.0639
▁گیلان	-11.064
▁خیز	-11.0641
▁تمرینات	-11.0641
▁غل	-11.0647
▁هیولای	-11.0649
▁افسران	-11.0653
▁اپراتورها	-11.0658
▁عقل	-11.0664
▁آموخت	-11.0664
▁گیاهان	-11.0665
▁معیارهای	-11.0668
▁گردش	-11.0674
گت	-11.0678
ارث	-11.0679
▁محرک	-11.0682
لوب	-11.0684
▁درختان	-11.0686
شیپ	-11.0687
▁تابعیت	-11.069
رکاب	-11.0692
▁اد	-11.0698
متر	-11.0704
لفظ	-11.0704
▁راهنمای	-11.0711
بورس	-11.0724
▁نیاورد	-11.0726
▁جعفری	-11.0727
درون	-11.0733
افت	-11.0736
▁درز	-11.0741
▁برف	-11.0744
زادگان	-11.0761
▁نست	-11.0767
تاج	-11.077
▁محصولاتش	-11.0775
▁رومانی	-11.0778
▁۱۹۵	-11.078
▁دژ	-11.0785
پرها	-11.0789
▁گوف	-11.0793
▁ژاک	-11.0796
▁تهدیدهای	-11.0823
زره	-11.0824
▁۱۹۶	-11.0831
▁برهم	-11.0833
▁گفتن	-11.0836
رین	-11.0843
▁برپا	-11.0846
▁دادیم	-11.0858
▁ایکس	-11.0858
شنا	-11.0859
▁فضلی	-11.0864
▁آذری	-11.0868
▁پذیری	-11.087
▁بیم	-11.0871
▁روحی	-11.0874
▁سرش	-11.0879
سایت	-11.0885
▁جوج	-11.0886
▁خوانی	-11.0895
▁جنگند	-11.0896
▁دویچ	-11.0897
بیل	-11.0907
▁روزبه	-11.091
▁کد	-11.0914
▁ریخته	-11.092
▁ریو	-11.0927
بریتی	-11.093
▁فقی	-11.0945
▁سانتریفیوژها	-11.095
▁ول	-11.0953
▁مدد	-11.0955
▁سنج	-11.0958
نویس	-11.0968
▁نوین	-11.0972
ذب	-11.0987
غا	-11.0989
یخته	-11.099
واقع	-11.0991
▁گدا	-11.0992
وفون	-11.0995
تری	-11.1022
اران	-11.1025
▁قوت	-11.103
ژان	-11.1031
▁دول	-11.1031
▁راب	-11.1034
▁۸۷	-11.1034
▁استادان	-11.1036
▁وظایف	-11.1045
نور	-11.1061
▁لیو	-11.1063
روسیا	-11.1067
ظه	-11.1074
سام	-11.1079
▁دینی	-11.1081
لتیک	-11.1083
▁تش	-11.1089
خواه	-11.1094
▁درو	-11.1096
▁بازرگان	-11.1097
لقو	-11.1099
ویش	-11.1099
لوت	-11.1103
دنظر	-11.1104
▁هلندی	-11.1105
▁گردشگر	-11.1122
▁شکستن	-11.1123
▁مظ	-11.1129
▁کلاه	-11.1131
فرنو	-11.1135
بع	-11.1137
▁دزد	-11.1138
▁زایی	-11.1139
یاط	-11.114
گذشت	-11.1143
▁دوستانش	-11.1147
تورهای	-11.115
▁سرگرم	-11.1154
کانا	-11.1157
▁پریش	-11.1166
▁پهلو	-11.1168
▁میلاد	-11.1169
▁نیل	-11.1169
گرفته	-11.1183
جک	-11.1186
▁۹۳	-11.1186
برگر	-11.1194
▁گره	-11.1208
پانی	-11.1213
▁امپرا	-11.1218
▁۸۱	-11.1226
▁پیری	-11.1232
رایان	-11.1234
اتیو	-11.1282
▁سرما	-11.1285
سنگ	-11.1326
▁یوت	-11.1333
هادی	-11.1338
▁دوگان	-11.1342
▁خوانند	-11.1343
▁مدرس	-11.1351
▁مطلبی	-11.1381
سفر	-11.14
▁کلور	-11.1406
اور	-11.1409
▁۶۳	-11.1423
▁یاب	-11.1427
▁آلود	-11.1432
▁کنی	-11.1433
▁اکا	-11.1435
▁کشمی	-11.1439
طرح	-11.1446
راق	-11.1448
▁فتحی	-11.1449
لای	-11.1449
بفرستید	-11.1453
۲۴	-11.146
ضرر	-11.1461
اسپانیا	-11.1462
مارادونا	-11.1462
تحقیقات	-11.1462
آلمان	-11.1462
کارگران	-11.1463
اطلاعات	-11.1463
آغاز	-11.1463
اعلام	-11.1463
کلوپ	-11.1463
نخست	-11.1465
گوف	-11.1466
بحث	-11.1468
بررسی	-11.1469
▁مجرم	-11.147
اتریش	-11.147
۴۹	-11.1474
نتیج	-11.1476
▁میلی	-11.1479
▁منجم	-11.1484
▁پیشگام	-11.1489
▁بوس	-11.15
هشدار	-11.1503
لمپ	-11.1503
▁پناهند	-11.1508
▁فهم	-11.154
▁سیاستمدار	-11.1542
آر	-11.1559
▁دراین	-11.156
پای	-11.1566
▁ابداع	-11.157
▁انصاری	-11.1576
ائم	-11.1581
▁پالایش	-11.1583
▁آشپز	-11.1584
▁انیمیشن	-11.1584
▁بلانشت	-11.1584
▁راهپیمایی	-11.1584
▁پدافند	-11.1584
▁پومپئو	-11.1584
▁پیرامون	-11.1584
▁تلویح	-11.1584
▁پلامر	-11.1584
▁منظم	-11.1584
▁ببینیم	-11.1584
▁کادرفنی	-11.1584
▁نجوا	-11.1584
▁فکاهی	-11.1584
▁برگردیم	-11.1584
▁ابرنواختر	-11.1584
▁مسموم	-11.1584
▁جونیور	-11.1584
▁پاکبان	-11.1584
▁حرارت	-11.1584
▁عنصر	-11.1584
▁قضاوت	-11.1584
▁بسیج	-11.1585
▁خدایاری	-11.1585
حق	-11.1585
▁تعاون	-11.1585
▁آژیر	-11.1585
▁موعد	-11.1585
▁بدانند	-11.1585
▁مسترد	-11.1585
▁بدهکار	-11.1585
▁فشرد	-11.1585
▁رخشانه	-11.1586
▁پیکولی	-11.1586
▁ذات	-11.1586
▁بنشیند	-11.1586
▁ندهند	-11.1586
ژورنال	-11.1586
▁دعا	-11.1586
▁اجساد	-11.1587
▁کلارک	-11.1587
▁بیافتد	-11.1587
▁علایم	-11.1587
▁خرس	-11.1588
خانقا	-11.1588
▁نشوند	-11.1588
▁مستعار	-11.1589
▁بهبهان	-11.1589
▁رشید	-11.1589
ینز	-11.1589
تناب	-11.159
▁نارضای	-11.159
▁ابولا	-11.159
▁سادگی	-11.1591
▁منفرد	-11.1591
▁صید	-11.1591
▁احکام	-11.1592
▁حوض	-11.1592
▁اثبات	-11.1592
▁خوشبخت	-11.1592
▁تصدی	-11.1592
▁کیلوولت	-11.1592
فلاتو	-11.1594
▁شناگر	-11.1594
▁بهزاد	-11.1594
▁دانشجوی	-11.1596
▁عسل	-11.1596
▁مانور	-11.1596
▁شکننده	-11.1596
▁تنیده	-11.1596
▁بزو	-11.1597
صدایی	-11.1598
▁وگاس	-11.1598
▁۱۳۹۰	-11.1599
▁امریکا	-11.1599
حصار	-11.1602
▁پوشان	-11.1604
▁تعویض	-11.1605
▁کوپتر	-11.1605
▁آغوش	-11.1605
▁خرمشهر	-11.1605
▁کنزو	-11.1607
▁کادیس	-11.1607
▁سرگرفت	-11.1611
▁استقراض	-11.1613
▁سرشار	-11.1615
▁طاق	-11.1616
▁رسن	-11.1617
ذل	-11.1619
▁کلیپ	-11.162
▁گردنبند	-11.1621
▁اسمیت	-11.1621
مانیا	-11.1623
▁پاد	-11.1627
▁گاو	-11.1628
تانیک	-11.1628
▁استقامت	-11.1632
▁جزایر	-11.1632
جاد	-11.1635
▁شایست	-11.1636
▁کریر	-11.1639
▁خوشحالم	-11.164
واز	-11.164
▁طل	-11.1644
▁گدار	-11.1645
ادیو	-11.1647
▁آلبر	-11.1648
▁نیکل	-11.1651
▁گویم	-11.1656
▁شورش	-11.1657
▁تلک	-11.1664
رل	-11.1668
▁زلا	-11.1673
▁پیامک	-11.1674
▁نیمروز	-11.1675
▁وحشت	-11.1679
▁پیشگامان	-11.168
▁مهمانان	-11.1683
▁زید	-11.1683
▁انگیزترین	-11.1683
▁متول	-11.1692
باع	-11.17
▁مانند	-11.1705
▁نکو	-11.1705
۲۹	-11.1708
▁رایزن	-11.1709
▁بصر	-11.1718
▁مهد	-11.1728
▁بوئنو	-11.1731
▁قطعا	-11.1751
▁شیوا	-11.1758
بیگ	-11.1765
▁نیکولا	-11.1782
اندر	-11.1782
▁اون	-11.1793
▁جولی	-11.1793
خان	-11.1795
▁منح	-11.1796
▁برگردانده	-11.1799
▁امتیازات	-11.1806
▁گریه	-11.1817
▁پیر	-11.1829
▁حام	-11.1834
▁پردازی	-11.1835
دالله	-11.1837
▁سنگر	-11.1839
▁لندرو	-11.1846
▁۴۵۰	-11.185
▁آرزوهای	-11.1859
▁شکن	-11.1861
▁رامی	-11.1863
▁دهلی	-11.1868
نیف	-11.1872
▁خد	-11.1872
ارسل	-11.1882
▁مینیاتور	-11.189
▁سازان	-11.1907
▁آبهای	-11.1915
هرابی	-11.1921
▁متحدانش	-11.1932
▁مولان	-11.1934
اپ	-11.1946
صیل	-11.1946
نگیز	-11.1979
▁صاف	-11.1987
▁خریدن	-11.1992
▁سهیم	-11.2004
گذار	-11.2005
▁بازگو	-11.2006
▁کلاین	-11.2017
ارل	-11.2019
سرین	-11.2023
▁بروم	-11.2041
▁چارل	-11.2046
نیچ	-11.2067
▁پروازهایش	-11.2071
▁پرستار	-11.2078
ادی	-11.2105
▁لاب	-11.2112
▁صدایش	-11.2114
▁هشدارهای	-11.2114
▁فردین	-11.2114
▁برفی	-11.2123
تازه	-11.213
آفرین	-11.2144
▁مگ	-11.2162
▁جور	-11.2168
کنیم	-11.217
▁بقا	-11.2178
▁مباد	-11.218
وظ	-11.2181
▁رفتم	-11.2187
یوس	-11.2195
▁کمتری	-11.2217
▁بگذاری	-11.2223
▁بفهم	-11.2225
▁خلا	-11.2227
اکثریت	-11.2227
▁بوتا	-11.2243
تصور	-11.2243
▁تاکتیک	-11.2263
اسکو	-11.2267
▁آرزو	-11.2268
▁قطرک	-11.227
فرانسی	-11.2278
▁اجتماع	-11.2279
یتا	-11.228
▁تم	-11.2284
نش	-11.2286
▁وگوها	-11.2291
▁تشی	-11.2291
لانتی	-11.2297
▁تابستانی	-11.2312
▁هن	-11.232
تانک	-11.2335
۹۱	-11.2337
▁دال	-11.2352
▁رنگی	-11.2361
▁پسران	-11.2364
لاب	-11.2376
وپ	-11.2388
▁سمی	-11.2396
سالار	-11.2419
زلی	-11.242
▁عزیزان	-11.2424
بیه	-11.2427
▁بک	-11.243
▁حدادی	-11.2448
نفر	-11.2457
دیمیر	-11.2468
▁سفرها	-11.2468
ولان	-11.247
▁بطر	-11.247
۶۲	-11.2477
وام	-11.2477
▁خواستم	-11.2483
یامک	-11.2491
فرید	-11.2509
سوم	-11.2539
شر	-11.2541
▁مصرفی	-11.2561
صره	-11.2561
ظاهر	-11.2563
منازع	-11.2566
مجتب	-11.2567
تابعیت	-11.2568
شریف	-11.257
کاظم	-11.257
تحلیلگر	-11.2572
منظور	-11.2572
اسماعیل	-11.2573
رافائل	-11.2573
استرالیا	-11.2573
دفتر	-11.2573
اعضای	-11.2574
(	-11.2574
مذاکرات	-11.2574
مسابقات	-11.2574
تصویر	-11.2574
عادی	-11.2575
سوزی	-11.2575
▁لبنانی	-11.2575
ویکتور	-11.2578
کاوه	-11.2578
مطابق	-11.2579
اداره	-11.2579
سته	-11.2582
عفون	-11.2589
تهران	-11.2589
دلال	-11.2593
▁توس	-11.2593
▁۳۲۰	-11.2601
قصد	-11.2606
جمعیت	-11.2607
پاش	-11.261
باد	-11.2612
وویچ	-11.2617
رگ	-11.2622
▁پذیرفت	-11.2625
▁کیف	-11.2627
▁مینا	-11.2629
▁۱۱۰	-11.2632
ائو	-11.2633
نوردی	-11.265
▁خانمان	-11.2669
▁عزا	-11.2671
▁خویش	-11.2671
▁منه	-11.2673
▁مزای	-11.2677
▁تسهیل	-11.2684
▁جع	-11.2689
▁مخاطب	-11.2689
▁پوچتینو	-11.2695
▁آکسفام	-11.2695
▁بوچانی	-11.2695
▁تزئین	-11.2695
▁تلسکوپ	-11.2695
▁رفسنجان	-11.2695
▁لومامبا	-11.2695
▁مقصود	-11.2695
▁یادماندنی	-11.2695
▁تدفین	-11.2695
▁طغیان	-11.2695
▁اسپایدر	-11.2695
▁تأسیس	-11.2695
▁مستثن	-11.2695
▁طناب	-11.2695
▁بلغارستان	-11.2695
▁دفاتر	-11.2695
▁کومله	-11.2695
▁فرستد	-11.2695
▁مطیع	-11.2695
▁هامبورگ	-11.2695
▁پرایس	-11.2695
▁متمایز	-11.2695
▁کانتینر	-11.2695
▁مصم	-11.2695
▁ارکستر	-11.2695
▁مرضیه	-11.2695
▁نیچر	-11.2695
▁زاکانی	-11.2695
▁توازن	-11.2695
▁فرنود	-11.2695
نیروی	-11.2695
▁تقلب	-11.2696
▁لشگر	-11.2696
▁آنکارا	-11.2696
▁اتومات	-11.2696
تمع	-11.2696
▁مخرب	-11.2696
▁نابرابر	-11.2696
▁قاعدتا	-11.2696
▁اعصاب	-11.2696
▁سرماخورد	-11.2696
▁ذیبخش	-11.2696
▁اسعد	-11.2696
▁دردناک	-11.2696
گارت	-11.2697
▁هلمند	-11.2697
▁تبلت	-11.2697
▁شکارچی	-11.2697
▁جرارد	-11.2697
▁کلانتری	-11.2697
▁پیانو	-11.2698
▁محاف	-11.2698
▁گردهم	-11.27
▁محف	-11.27
▁گهر	-11.2701
▁بازتاب	-11.2701
▁تربیت	-11.2702
▁ریسک	-11.2702
رومن	-11.2702
▁ربای	-11.2704
▁سیگنال	-11.2704
▁هجر	-11.2704
جوبی	-11.2705
▁ناچیز	-11.2705
▁سازوکارهای	-11.2705
▁برگردند	-11.2706
ومبل	-11.2707
▁منکر	-11.2707
▁کوبید	-11.2707
▁تفکر	-11.2708
▁بکند	-11.2708
▁دلتا	-11.2708
▁درخشید	-11.2709
▁مساعد	-11.2709
▁ریاضیات	-11.2709
▁کاندیدا	-11.271
▁آرایشگاه	-11.271
▁انتصاب	-11.271
قندهار	-11.271
▁جاستین	-11.2711
▁انکار	-11.2712
دترا	-11.2712
▁سیدنی	-11.2712
▁بغلان	-11.2714
▁بخواهد	-11.2714
▁دانشگر	-11.2715
▁هک	-11.2715
▁ریختن	-11.2715
▁دوتار	-11.2716
▁اخترشناس	-11.2719
▁کمپ	-11.2719
▁۸۴	-11.2721
▁ناقل	-11.2721
▁موسیقیدان	-11.2723
▁پارکور	-11.2726
▁حریم	-11.2729
▁ابزارهای	-11.273
▁اندرکاران	-11.2734
▁شعارهای	-11.2734
▁معلولان	-11.2734
▁مطالبات	-11.2734
▁کشتند	-11.2736
▁گوییم	-11.2736
▁درشت	-11.2736
▁یابند	-11.2738
▁نامجو	-11.274
▁منک	-11.2741
▁۱۸۸	-11.2742
▁سفت	-11.2745
▁جون	-11.2745
▁مورف	-11.2748
▁کثیر	-11.2749
▁معلومات	-11.275
▁سولار	-11.2751
ونتی	-11.2751
جل	-11.276
▁پرکار	-11.2762
▁موکل	-11.2762
▁فاضل	-11.2764
▁مسبب	-11.2767
▁کیمن	-11.2768
▁سکوها	-11.2769
لث	-11.277
▁نامعلوم	-11.277
▁بیانسه	-11.277
▁فراور	-11.2771
▁اعظم	-11.2772
▁پستاندار	-11.2772
علت	-11.2773
تناسب	-11.2779
مرد	-11.2784
▁اشتباهات	-11.2785
▁کتک	-11.2785
اشی	-11.2786
▁ننگ	-11.279
▁کشتن	-11.2791
بخشی	-11.2793
▁دوندگان	-11.2794
رده	-11.2796
▁ساید	-11.2797
جوزپ	-11.2799
▁پادمان	-11.2812
▁پینگ	-11.2813
▁ابو	-11.2815
بینند	-11.2819
نسوخ	-11.2823
▁مجتب	-11.2829
▁معتمدی	-11.2829
اچو	-11.2831
▁علما	-11.2833
▁عکسها	-11.2843
▁آرم	-11.2847
▁اشیا	-11.285
▁صبا	-11.2852
امو	-11.2855
▁آسا	-11.2859
▁گزینش	-11.286
▁گرفتیم	-11.2862
▁پیداست	-11.2863
اصل	-11.2864
ایت	-11.2868
▁سوزاند	-11.2875
▁پود	-11.2876
▁محسوس	-11.2882
▁سهامدار	-11.2888
فین	-11.2894
▁چرخش	-11.2908
▁هولم	-11.291
▁بازجوی	-11.2915
▁عکاسان	-11.2925
▁ممیز	-11.2929
▁پارچ	-11.2929
▁کیس	-11.2932
خیر	-11.2939
▁محب	-11.2944
۲۸	-11.2944
▁سرمای	-11.2968
▁اک	-11.2969
▁اصلاحی	-11.297
▁کور	-11.2971
جیغ	-11.2977
زیان	-11.3001
فره	-11.3003
▁موت	-11.3009
▁ساختند	-11.301
▁زانوی	-11.3021
نولد	-11.3028
▁گوها	-11.3029
شایر	-11.303
یگو	-11.303
▁فرشت	-11.3038
سپی	-11.3047
ارت	-11.305
▁زدای	-11.3056
▁کاریر	-11.3056
▁ناک	-11.3063
دوستان	-11.3075
▁لوی	-11.3086
۴۲	-11.309
▁۶۹	-11.3098
▁لطفی	-11.3101
▁معمای	-11.3115
کان	-11.3117
▁ورا	-11.3122
▁هوادارانش	-11.3126
▁لور	-11.3126
▁راستش	-11.3131
۰۰۰	-11.3136
▁سومو	-11.3139
▁هراس	-11.3144
▁پوک	-11.3146
ورت	-11.3153
▁کوش	-11.3166
▁آنهاست	-11.317
عل	-11.3171
وتو	-11.3172
رژی	-11.3178
▁گز	-11.3187
تور	-11.3191
▁عفون	-11.3195
▁فرز	-11.3199
ادت	-11.3203
▁موتورها	-11.3236
▁میلیاردرها	-11.3236
▁وگوهای	-11.324
زیر	-11.3243
شت	-11.3259
نیوز	-11.3265
ایش	-11.3282
وط	-11.3298
ادین	-11.33
لبان	-11.3301
▁عظیمی	-11.3307
▁اینچ	-11.3337
فروش	-11.3339
چمن	-11.334
▁الی	-11.3343
انجی	-11.336
▁نر	-11.3361
پزشک	-11.3374
▁عار	-11.3385
▁نوای	-11.3397
رتر	-11.3402
▁معما	-11.3406
▁درها	-11.3419
▁آنا	-11.3423
▁کارتون	-11.3423
جیل	-11.3424
زین	-11.3432
▁سازه	-11.3436
▁دبی	-11.344
▁قی	-11.3449
میشل	-11.345
▁خاور	-11.345
ورا	-11.3458
▁متص	-11.346
▁فق	-11.3461
الیز	-11.3471
أی	-11.3485
ومی	-11.3493
▁فرح	-11.3498
▁فضاپیما	-11.3501
▁نمازی	-11.3502
▁مسیری	-11.3504
▁خوابی	-11.3507
▁کلیسا	-11.3514
▁بخشهای	-11.3519
رف	-11.3528
▁لطف	-11.3532
▁چال	-11.3534
جام	-11.3541
▁قدیم	-11.3543
▁دات	-11.3544
▁جند	-11.3557
دین	-11.356
مجموع	-11.3581
▁پهن	-11.3583
▁مبا	-11.3585
▁اسک	-11.3596
ورانه	-11.3607
▁دکترا	-11.3617
▁فلا	-11.3643
عمل	-11.3649
گن	-11.3651
▁کون	-11.3654
▁کریس	-11.3655
▁دیوانه	-11.3657
گزار	-11.3672
▁کریم	-11.3677
▁نشدنی	-11.3681
▁برنا	-11.3693
فیلد	-11.3698
▁سیا	-11.3704
▁نماند	-11.3711
▁برآوردها	-11.3735
بالا	-11.374
انزا	-11.3744
▁نامم	-11.3747
▁۱۸۵	-11.3748
▁۷۹	-11.3752
▁هیل	-11.3754
▁بوم	-11.3756
ژیک	-11.3757
برگزار	-11.3763
▁پوشیدن	-11.3764
▁۳۸۰	-11.377
▁تولی	-11.3774
▁داران	-11.3785
نون	-11.3786
▁آپ	-11.3797
فرگوس	-11.3806
انتخابات	-11.3807
▁نما	-11.3809
زمان	-11.3812
فضل	-11.3815
فع	-11.3815
پادمان	-11.3822
حداکثر	-11.3823
انجمن	-11.3823
حادثه	-11.3823
رکورد	-11.3824
عضو	-11.3824
عادت	-11.3824
جراح	-11.3824
نقاشی	-11.3824
موسیقی	-11.3825
ابتدا	-11.3826
جامع	-11.3828
▁بادی	-11.3829
ترکیه	-11.383
مورد	-11.3833
سنگر	-11.3833
داستان	-11.3833
رحیم	-11.3837
کمتر	-11.3839
نشست	-11.3841
پیروز	-11.3842
▁جس	-11.3854
نمود	-11.3855
▁لک	-11.3856
▁چی	-11.3865
پرس	-11.3872
افشاری	-11.3881
نمایند	-11.3885
▁لیر	-11.3889
آیا	-11.3889
▁رسی	-11.389
عطا	-11.3896
▁یزد	-11.3899
▁معلول	-11.39
▁کوهنورد	-11.39
▁فور	-11.39
▁اندرکار	-11.3902
دختر	-11.3904
▁شاگرد	-11.3906
دلایل	-11.3921
▁ماتی	-11.3921
دوران	-11.3924
نقش	-11.3929
▁متغیر	-11.3932
▁جزئی	-11.3934
▁بوفالو	-11.3936
▁پژ	-11.394
▁عضلا	-11.3941
۲۱	-11.3942
▁کانگورو	-11.3945
▁ارواح	-11.3945
▁اصغر	-11.3945
▁انتقام	-11.3945
▁اوگوپوگو	-11.3945
▁ذوالنور	-11.3945
▁سرلشکر	-11.3945
▁مقتدر	-11.3945
▁نباشند	-11.3945
▁اقتباس	-11.3945
▁جوامع	-11.3945
▁سیاهپوست	-11.3945
▁فیلسوف	-11.3945
▁مناقش	-11.3945
▁گدوت	-11.3945
▁بیاورند	-11.3945
▁رولزرویس	-11.3945
▁تجدد	-11.3945
▁ویتنام	-11.3945
▁برسانند	-11.3945
▁رغبت	-11.3945
تصاعد	-11.3945
▁سیستماتیک	-11.3945
▁مکالم	-11.3945
▁درآید	-11.3945
▁هیدرو	-11.3945
▁معاهد	-11.3945
▁ماراکانا	-11.3945
▁بدانید	-11.3945
▁ناپولی	-11.3945
▁ترشح	-11.3946
▁مونتاژ	-11.3946
▁ژنشنگ	-11.3946
▁بگویند	-11.3946
▁باثبات	-11.3946
▁پرشور	-11.3946
▁النصر	-11.3946
▁واگیر	-11.3946
▁واجد	-11.3946
▁کانت	-11.3946
▁عروق	-11.3946
▁فرسایش	-11.3946
▁کفایت	-11.3946
▁طلسم	-11.3946
▁خاشق	-11.3946
▁فرسود	-11.3946
▁افزاید	-11.3947
▁سینماگر	-11.3947
▁دسمو	-11.3947
▁مشروب	-11.3947
▁آبتین	-11.3947
▁۱۹۷۹	-11.3948
▁آلایند	-11.3949
▁گسل	-11.3949
▁فیصل	-11.3949
▁فرنگی	-11.3949
▁مذک	-11.3949
▁مختاری	-11.395
▁اضافی	-11.395
▁پرجمعیت	-11.3951
▁ساوت	-11.3951
▁جملات	-11.3951
▁گرافیک	-11.3951
▁تصرف	-11.3952
▁معلولیت	-11.3952
رقیز	-11.3953
▁مردادماه	-11.3953
▁داش	-11.3953
▁قدردان	-11.3953
▁بلید	-11.3953
▁سانتو	-11.3954
▁قرائت	-11.3954
▁الاکلنگ	-11.3955
▁خردسال	-11.3955
▁اشعار	-11.3955
▁ونگر	-11.3956
یچک	-11.3956
▁چسب	-11.3956
▁۷۵۲	-11.3957
▁فورب	-11.3957
▁کاشف	-11.3957
▁گرگور	-11.3957
▁پابند	-11.3958
▁تعلیم	-11.3959
▁مولف	-11.3959
▁اشت	-11.3959
▁سفیددره	-11.3959
▁نایا	-11.396
▁نورمحمد	-11.396
مزمن	-11.3961
▁بخواهید	-11.3961
▁نامشخص	-11.3962
▁مسن	-11.3963
خضر	-11.3964
▁کاتال	-11.3964
گاس	-11.3965
▁پاسگاه	-11.3965
▁ورزند	-11.3967
▁دادخواست	-11.3968
▁سانتا	-11.397
▁دپ	-11.3971
▁گیلبرت	-11.3972
▁فرندز	-11.3972
▁شانگ	-11.3972
▁فلزات	-11.3973
▁شخصا	-11.3973
▁اشخاص	-11.3973
▁القا	-11.3977
▁ایستادند	-11.3977
▁دردسرهای	-11.3979
▁بلک	-11.3982
▁عت	-11.3984
▁کارولین	-11.3987
حرفه	-11.3988
▁طاهر	-11.3991
▁فهیم	-11.3991
▁سور	-11.3991
▁حکیم	-11.3992
▁پینک	-11.3993
اطبا	-11.3999
محسن	-11.4
▁لوپ	-11.4001
تک	-11.4001
▁ملکشا	-11.4002
▁استیو	-11.4003
▁لط	-11.4007
▁کامران	-11.4008
▁دیابت	-11.4011
▁مادی	-11.4011
زو	-11.4018
▁نوزادان	-11.4019
▁سرگردان	-11.4022
▁معین	-11.4022
▁پروست	-11.4024
▁پاسدار	-11.4024
▁دیرتر	-11.4025
▁کویت	-11.403
▁موریس	-11.403
▁انح	-11.4032
▁نبی	-11.4035
▁هوشیاری	-11.4038
▁داود	-11.404
علم	-11.4042
▁تح	-11.4055
▁بازنده	-11.4055
نوس	-11.4055
قدرت	-11.4055
▁هرجا	-11.4056
▁گیم	-11.4057
▁آلت	-11.4058
شکاف	-11.406
گرنه	-11.4064
▁نهایتا	-11.407
شدن	-11.4071
پائولو	-11.4078
سیما	-11.408
رهای	-11.4082
یزه	-11.4089
▁تجمعات	-11.4089
روژ	-11.409
▁امری	-11.4091
▁دا	-11.4092
▁منازع	-11.4094
▁عثمانی	-11.4099
▁نگذاشته	-11.4101
خن	-11.4109
▁نیوز	-11.4112
▁چید	-11.4112
▁مایل	-11.4122
▁جراحت	-11.4126
▁تحریر	-11.4128
▁ریاضی	-11.4138
▁هجدهم	-11.4143
▁درسی	-11.4144
▁فرزندانش	-11.4147
کسین	-11.4149
▁دایی	-11.415
▁دیدند	-11.4153
▁بازده	-11.4156
▁اختیارات	-11.4158
▁مستع	-11.4159
قیاس	-11.416
▁افزودن	-11.4164
۱۹۶۵	-11.4167
شش	-11.4168
خزن	-11.4175
▁دیوارهای	-11.4177
▁ماندند	-11.418
▁سیمون	-11.4185
ماد	-11.4186
▁نخب	-11.4192
▁بشریت	-11.4195
▁ریگ	-11.4197
▁احتیا	-11.4209
جر	-11.4213
▁موسی	-11.4224
فته	-11.4226
▁صحرای	-11.4227
▁پوستر	-11.4233
حصول	-11.4235
▁بروید	-11.4236
▁کلیت	-11.4245
▁برگرداند	-11.4248
▁الع	-11.426
▁لین	-11.4263
▁نیستیم	-11.4264
پاتی	-11.4265
▁پرز	-11.4266
▁مسافری	-11.4267
▁بانان	-11.427
فرانس	-11.4282
قبل	-11.4282
▁پاسخگوی	-11.4284
▁حول	-11.4295
▁مرادی	-11.4296
جیک	-11.4296
▁یوسی	-11.43
▁داروین	-11.4304
ونا	-11.4305
▁تبر	-11.4308
▁تورب	-11.4313
▁خش	-11.4318
▁اروپاست	-11.4322
▁نیافته	-11.4349
▁۵۴	-11.435
۲۷	-11.4358
تیس	-11.4362
▁ترکی	-11.4364
فی	-11.4366
سپاس	-11.4367
▁قان	-11.4373
شیا	-11.4375
▁مرت	-11.4379
▁الس	-11.4385
▁آز	-11.4386
ملو	-11.4398
▁سکان	-11.4399
▁فضاپیمای	-11.441
وتی	-11.4414
▁شناختن	-11.4415
▁برگزارکنند	-11.4419
▁منظره	-11.442
▁پاش	-11.4422
▁نوا	-11.4423
▁ملته	-11.4425
ادل	-11.4437
▁مارکو	-11.4438
فان	-11.444
▁مردن	-11.4446
▁همب	-11.4453
▁کلیسای	-11.4457
زمه	-11.446
▁ناصری	-11.446
کافی	-11.4475
▁تپند	-11.4483
▁ایرلندی	-11.4491
دلیل	-11.4492
▁بزرگان	-11.4507
چل	-11.4525
▁وض	-11.4532
بد	-11.4533
سالی	-11.4542
▁جورجی	-11.4555
شک	-11.4571
▁کارل	-11.4572
▁عاج	-11.459
▁باج	-11.4598
طل	-11.46
▁بایر	-11.4607
▁فرخ	-11.4618
▁جانش	-11.4624
▁لوو	-11.4625
▁فشارهای	-11.4641
گویان	-11.4646
▁بخشید	-11.4647
▁کیلی	-11.4654
▁بخوان	-11.4663
درهای	-11.4675
▁حسابدار	-11.4685
▁سیرو	-11.4714
ینا	-11.4721
دانه	-11.4726
توری	-11.4743
ودن	-11.4746
پژوه	-11.4749
▁عط	-11.4751
▁کارند	-11.4754
▁پیت	-11.4755
▁بگ	-11.4756
تاکنون	-11.4761
ویژ	-11.4765
▁برگرداندن	-11.4777
کری	-11.4795
یتسی	-11.4806
▁استرا	-11.4807
▁نتوان	-11.4831
رشاد	-11.4831
سکار	-11.4838
پراتور	-11.484
برآورد	-11.4846
▁قاطعان	-11.4877
▁کاش	-11.4905
یسی	-11.4906
ئیه	-11.4906
▁دک	-11.4914
▁سپرد	-11.4915
لز	-11.4916
▁بلندپرواز	-11.4919
▁میکروب	-11.4922
خو	-11.4926
▁رقبا	-11.4928
▁پیگیر	-11.4932
▁اپرا	-11.4937
▁سریعتر	-11.494
▁کارفرما	-11.4942
▁ناآرام	-11.4945
▁امپر	-11.4947
▁نمک	-11.4949
▁کمیاب	-11.4949
کات	-11.495
▁قوم	-11.4951
▁سرور	-11.4956
▁شاد	-11.4956
▁خم	-11.4971
▁سلیمان	-11.4983
▁سک	-11.4989
▁کلک	-11.4992
▁هروی	-11.5044
▁فورا	-11.505
▁تیز	-11.5059
▁آوا	-11.5062
▁فشارها	-11.5078
▁نوک	-11.508
▁فرستادن	-11.5081
اتل	-11.5088
▁فضل	-11.509
▁درآمده	-11.51
▁کوچ	-11.51
گروهی	-11.5101
شناسی	-11.5102
▁۹۲	-11.5103
زمینی	-11.5108
میر	-11.5115
▁درصدد	-11.5115
▁معاونان	-11.5121
بیز	-11.5123
الوح	-11.5127
۲۲	-11.5132
رسیدن	-11.5133
▁گلد	-11.5133
▁اشع	-11.5133
▁نزدیکتر	-11.515
فشار	-11.5161
▁پیچید	-11.5174
▁کوئ	-11.518
سلط	-11.5188
▁مغزش	-11.519
▁شنو	-11.5216
یافته	-11.5216
بورگ	-11.522
امین	-11.5225
بریتانیا	-11.5233
ارزش	-11.5233
آلود	-11.5237
بورد	-11.524
▁مشتاق	-11.524
انتخاب	-11.5241
کوئین	-11.5242
▁ارت	-11.5243
کجاست	-11.5243
پرداخت	-11.5246
دوغا	-11.5248
عکاس	-11.5249
توماس	-11.525
ماخ	-11.5251
قاسم	-11.5251
هماهنگ	-11.5252
جنجال	-11.5252
هواداران	-11.5252
نتایج	-11.5252
ویروس	-11.5252
دانشگاه	-11.5252
حقوق	-11.5255
مرغ	-11.5255
آژانس	-11.5255
اسناد	-11.5256
فیروز	-11.5257
شروع	-11.5257
اوپک	-11.5258
تحریم	-11.5259
سریع	-11.526
حساب	-11.5262
کشتی	-11.5264
حضور	-11.5264
۱۴۰۰	-11.5265
میدان	-11.5267
حام	-11.5268
محمدرضا	-11.5269
رفتن	-11.5271
ادیوم	-11.5271
آبی	-11.5272
درگذشت	-11.5274
بن	-11.5278
زندگی	-11.5288
ینچی	-11.5293
شوند	-11.5296
▁قائ	-11.53
▁۲۹۰	-11.5301
۱۱	-11.5307
وحید	-11.532
▁استبا	-11.5323
لئوپا	-11.5324
صال	-11.5328
خوشایند	-11.533
لخ	-11.5339
▁درام	-11.5342
▁گوا	-11.5343
هیج	-11.5348
روند	-11.5351
▁اقام	-11.5353
افزون	-11.5354
▁سازوکار	-11.5361
زیو	-11.5367
تفلی	-11.5369
▁آرسن	-11.5373
▁موزیک	-11.5374
▁قزاق	-11.5374
▁التحصیل	-11.5374
▁اویغور	-11.5374
▁دموکراسی	-11.5374
▁رادیواکتیو	-11.5374
▁سخاوتمند	-11.5374
▁سرگذاشت	-11.5374
▁مالباخت	-11.5374
▁محتاط	-11.5374
▁محتمل	-11.5374
▁ناگزیر	-11.5374
▁نیفتاد	-11.5374
▁انقطاع	-11.5374
▁بفروشند	-11.5374
▁اوقاف	-11.5374
▁رفراند	-11.5374
▁مستاجر	-11.5374
▁مکتوب	-11.5374
▁بوزمن	-11.5374
▁انزوا	-11.5374
▁باشکوه	-11.5374
▁نقیض	-11.5374
▁وروورت	-11.5374
▁بازنگشت	-11.5374
▁بالیوود	-11.5374
▁غلیظ	-11.5374
▁فرناند	-11.5374
▁فرمانروای	-11.5374
▁لشکر	-11.5374
▁کارائیب	-11.5374
▁قتالی	-11.5374
▁ندارید	-11.5374
▁پیمود	-11.5374
▁گاگا	-11.5374
▁استعمار	-11.5374
▁کمبریج	-11.5374
▁رزیدن	-11.5374
▁جلیل	-11.5374
▁تورنتو	-11.5374
نتسب	-11.5374
▁عزت	-11.5374
▁ماهرویان	-11.5374
▁کوشنر	-11.5374
▁اسرارآمیز	-11.5374
▁دروغگو	-11.5374
▁سازگار	-11.5374
▁چرم	-11.5375
▁هالپ	-11.5375
▁خاکستر	-11.5375
▁یونسی	-11.5375
▁فونینی	-11.5375
▁اردکان	-11.5375
▁سانتیگراد	-11.5375
▁مجلات	-11.5375
▁جاسک	-11.5375
▁جادوگر	-11.5375
▁ایلام	-11.5375
▁پدربزرگ	-11.5375
▁کرمانپور	-11.5375
▁رفیق	-11.5375
کاراکاس	-11.5375
▁مارسیال	-11.5376
▁کنشگر	-11.5376
▁تجدیدنظر	-11.5376
▁هواشناسی	-11.5376
▁شاهرود	-11.5376
▁اصالت	-11.5376
▁مجاور	-11.5377
▁ظالمانه	-11.5377
▁خشمگین	-11.5377
▁بکاهند	-11.5377
▁بپردازند	-11.5377
▁مادام	-11.5377
ارومیه	-11.5377
▁میدهد	-11.5377
▁ابدی	-11.5378
▁خلاق	-11.5378
▁داوود	-11.5378
▁لوگو	-11.5378
ارتاک	-11.5378
ذائ	-11.5378
▁چپگرا	-11.5378
▁خلوتگر	-11.5378
▁مافی	-11.5379
▁روانچی	-11.5379
▁تقلا	-11.5379
▁بگوید	-11.538
▁خاندان	-11.538
▁بیندازند	-11.538
▁بگذارم	-11.538
▁احصا	-11.538
▁احوال	-11.538
▁مرموز	-11.5381
▁ملوان	-11.5381
▁نابینا	-11.5381
▁صفوف	-11.5381
▁ویلسون	-11.5381
▁۱۹۶۷	-11.5381
▁۱۹۶۸	-11.5382
▁کاسپی	-11.5382
▁اجزا	-11.5382
▁گنبد	-11.5382
▁مبت	-11.5385
▁ببریم	-11.5385
▁نورماگومدوف	-11.5385
▁سولشر	-11.5385
▁بایستند	-11.5386
▁ائ	-11.5387
▁مساحت	-11.5387
▁برویم	-11.5388
▁مختصر	-11.5388
▁ناشر	-11.5388
▁ناشده	-11.539
▁امیدوارکننده	-11.539
▁متقابل	-11.5391
▁گردیم	-11.5391
▁رولز	-11.5392
▁دستیاران	-11.5392
▁ترقی	-11.5393
▁زالی	-11.5394
▁جرج	-11.5394
▁راشد	-11.5394
▁بورات	-11.5395
▁گپ	-11.5397
▁برایانت	-11.5397
▁خودمختار	-11.5397
▁مأموریت	-11.5399
▁شمش	-11.5401
▁ابهامات	-11.5401
▁لیدی	-11.5402
▁اجداد	-11.5404
▁فستیوال	-11.5405
▁برونته	-11.5406
▁لاپورتا	-11.5406
▁بدهم	-11.5406
▁بیتل	-11.5407
▁ثور	-11.5407
▁فلامینگوها	-11.5407
▁نامگذاری	-11.5408
▁سانچ	-11.5408
▁بزرگسالان	-11.5409
▁کمربندهای	-11.541
▁توبین	-11.541
▁لات	-11.5412
▁نصر	-11.5412
▁والتر	-11.5412
▁بگیرم	-11.5414
یامده	-11.5416
▁حسگرها	-11.5416
▁دریانورد	-11.5416
▁هاپک	-11.5421
▁سرخک	-11.5422
لستون	-11.5424
نعیم	-11.5425
▁تناقض	-11.5425
▁خانود	-11.5426
▁رسند	-11.5427
▁آندرس	-11.5428
▁جذابیت	-11.5429
▁تجسم	-11.543
▁سینو	-11.543
▁توتال	-11.5431
▁آشو	-11.5431
▁۱۰۹	-11.5431
▁زوم	-11.5433
▁توسان	-11.5435
▁جودوکا	-11.5435
▁قاعد	-11.5438
▁اکثرا	-11.5438
▁گریخت	-11.5438
شاد	-11.5445
بابو	-11.5446
▁علیزاده	-11.5449
▁آری	-11.5449
▁بازدیدکنند	-11.5452
▁دانل	-11.5453
▁نماید	-11.5454
▁توبی	-11.5455
▁کشورهاست	-11.5456
▁آف	-11.5459
▁حوال	-11.5461
▁بکار	-11.5463
▁گیت	-11.5465
▁فراخواند	-11.547
▁تشوی	-11.547
ایشگاه	-11.547
▁ترسد	-11.5473
▁قصر	-11.5474
▁عینک	-11.5481
▁چاق	-11.5484
▁قبض	-11.5486
▁پیمانکاران	-11.5487
▁ناراحتی	-11.5488
▁تحر	-11.5488
▁مزد	-11.5496
▁برنز	-11.5503
▁کامیاب	-11.5503
ارک	-11.5503
▁رخدادهای	-11.5504
وود	-11.5504
▁فیش	-11.5505
▁بوهای	-11.5505
▁خسرو	-11.5509
▁دیا	-11.551
الیف	-11.5511
▁شاکی	-11.5514
▁آگوست	-11.5523
▁رون	-11.5525
▁سناریوها	-11.5531
▁کلینت	-11.5531
▁بستگان	-11.5533
▁اثرگذار	-11.5535
▁شعرهای	-11.5535
▁کجاست	-11.5539
▁کانتر	-11.5542
اتح	-11.5551
▁سازهای	-11.5555
▁بدنشان	-11.5558
یونان	-11.5559
▁بکت	-11.5562
▁کاپل	-11.5567
ماجرای	-11.5568
▁بفرستید	-11.5568
▁فک	-11.5573
▁پژوهشهای	-11.5577
کسیون	-11.5578
ماری	-11.5587
▁ریلی	-11.5589
▁راوی	-11.5592
▁قوز	-11.5595
▁ساد	-11.5603
▁اغ	-11.5616
▁تشکیلات	-11.563
▁جادوی	-11.5636
ریوس	-11.5637
▁پیامبر	-11.5645
▁گیران	-11.5645
▁دیسک	-11.5645
دایی	-11.5647
قهرمانی	-11.5648
نگرانی	-11.5651
اشته	-11.5651
▁لینک	-11.566
وادا	-11.5662
▁حجت	-11.5667
▁کورت	-11.567
ثر	-11.5675
▁رودر	-11.569
▁دنیل	-11.5691
▁کورو	-11.5694
▁یوسفی	-11.5697
▁تراک	-11.5697
▁نفی	-11.5702
دند	-11.5703
▁شیب	-11.5704
لزم	-11.5706
خور	-11.5711
▁سروده	-11.572
ریتز	-11.5724
▁درسال	-11.5735
کسان	-11.5739
راجع	-11.574
▁درمی	-11.5742
▁فال	-11.575
▁بنده	-11.5765
▁مشخصات	-11.5766
▁برآورده	-11.5773
▁نیستم	-11.5777
▁شدیم	-11.5781
مور	-11.5785
۹۳	-11.5795
پزشکی	-11.5796
هفتصد	-11.5799
▁بگو	-11.5802
پو	-11.5802
▁برگر	-11.5807
▁شکنی	-11.5809
روا	-11.5819
▁گرجستانی	-11.5819
▁سفرش	-11.5826
▁رخت	-11.5828
ارو	-11.583
▁بریتانیاست	-11.5832
رام	-11.5833
▁سردست	-11.5837
برده	-11.5838
▁رویاهای	-11.584
▁رقبای	-11.5844
▁شرعی	-11.5852
واقعی	-11.5856
▁دیدگ	-11.5858
وسی	-11.5858
▁خدای	-11.5858
دارا	-11.5859
▁دانستن	-11.5862
فرجام	-11.5866
▁برخاست	-11.5876
▁باختری	-11.5886
موتو	-11.5887
لسون	-11.5893
لیچ	-11.5909
▁فا	-11.591
نسک	-11.5923
۸۹	-11.5925
سارت	-11.5931
▁پلک	-11.5935
ایل	-11.594
▁لیب	-11.5943
تواند	-11.5944
▁سندر	-11.5945
▁نازل	-11.595
▁یابی	-11.5951
▁شار	-11.596
▁دانا	-11.5968
گاتی	-11.5973
▁اتری	-11.5973
پولو	-11.5982
▁دلو	-11.5985
آنچ	-11.6003
وژان	-11.6014
▁نوآوران	-11.6016
ائب	-11.6025
ایان	-11.6049
گردانده	-11.6054
بیست	-11.6064
▁ورز	-11.6069
▁جنگی	-11.6086
▁سکو	-11.6087
ناس	-11.6111
▁خوابیدن	-11.6117
▁بخشد	-11.6118
▁آس	-11.615
اشار	-11.6161
▁اقسا	-11.6162
▁رویز	-11.6163
▁لوک	-11.6171
کاران	-11.6186
ریش	-11.6193
شون	-11.6196
▁مایا	-11.6241
▁لیپ	-11.6257
خالف	-11.6263
▁شدایران	-11.6288
▁سرم	-11.6297
▁عالمی	-11.6298
▁یخی	-11.6305
▁فرضی	-11.6306
▁آش	-11.6308
بازد	-11.6319
▁نب	-11.6325
▁میهن	-11.6328
اویر	-11.6329
▁دارداین	-11.6329
▁دادرس	-11.6331
راد	-11.6332
▁اب	-11.6353
زائ	-11.6358
اندن	-11.6361
▁۷۵۰	-11.6366
▁ذهنش	-11.6373
تاد	-11.6374
زیرو	-11.6387
▁نگفت	-11.6395
▁دیو	-11.6412
▁بنگا	-11.6416
عت	-11.6423
▁شوی	-11.643
یانگ	-11.6443
▁پاب	-11.6457
▁رانگل	-11.6457
▁مسا	-11.6458
▁شهریاری	-11.6459
قهرمان	-11.6472
آباد	-11.6491
صف	-11.6495
▁بایست	-11.6506
وتر	-11.651
▁پرداز	-11.6523
▁حاج	-11.6527
▁ماریان	-11.6535
▁گرجستان	-11.6539
▁۶۶	-11.6558
▁کیمی	-11.6562
▁عبد	-11.6569
▁جد	-11.6571
▁خوشی	-11.6577
▁حریر	-11.6577
مپیون	-11.6588
▁پاسخگو	-11.6602
وگو	-11.6603
▁زیبای	-11.6607
دفو	-11.661
گستر	-11.6612
▁آرزوها	-11.6612
▁تحری	-11.6616
کست	-11.6621
▁بعض	-11.6624
▁صوت	-11.6636
سانس	-11.664
▁زای	-11.6641
لسک	-11.6642
باخ	-11.6646
ویر	-11.6648
تاب	-11.6648
▁نمادها	-11.6652
چشم	-11.6653
▁باخ	-11.6661
▁رویدادها	-11.6666
▁نیافتن	-11.6667
▁کلیو	-11.6669
▁استانداری	-11.6681
▁الگو	-11.6685
▁ترا	-11.6686
سانی	-11.6687
▁مراد	-11.6701
جویی	-11.6708
رمان	-11.673
▁۴۲۰	-11.6733
نتینو	-11.6736
▁یوآ	-11.6748
▁باختر	-11.675
▁مهیا	-11.6759
ریکا	-11.6766
▁رپ	-11.6772
کاک	-11.6776
سوری	-11.6785
گور	-11.6802
▁تقی	-11.6803
▁نهادها	-11.6804
▁جنب	-11.6813
▁۲۱۰	-11.6831
▁جعفر	-11.6833
▁حرا	-11.6836
شنبه	-11.6843
▁مقد	-11.6844
▁سوزان	-11.6858
▁نجفی	-11.6859
صرف	-11.6878
خصوص	-11.688
▁سوز	-11.688
ریحان	-11.6887
مزد	-11.6892
ارتی	-11.6893
نژاد	-11.6897
فور	-11.69
ریان	-11.6902
خوانی	-11.6905
بزرگ	-11.6907
نفوذ	-11.6913
قبض	-11.6914
درآمد	-11.6914
دنیل	-11.6916
یونایتد	-11.6917
منتقدان	-11.6918
آکادمی	-11.6918
حاشیه	-11.6918
رویترز	-11.6918
مطالع	-11.6919
پالایشگاه	-11.6919
سرطان	-11.6919
جشنواره	-11.6919
ترکیب	-11.6919
شکایت	-11.6919
دقیق	-11.6919
فرهاد	-11.6919
قرنطینه	-11.692
پاسخ	-11.692
میلیارد	-11.692
سپاه	-11.692
تجرب	-11.692
هنگام	-11.692
بازداشت	-11.692
ایتالیا	-11.6921
احسا	-11.6921
وضعیت	-11.6922
وزرای	-11.6923
تنیس	-11.6924
محل	-11.6924
دادستان	-11.6924
لستر	-11.6924
کشورهای	-11.6925
بزرگترین	-11.6928
چال	-11.6928
شکی	-11.6929
سیستم	-11.6929
سیزدهم	-11.6932
▁نشا	-11.6937
مدیریت	-11.6937
خطر	-11.6937
میلان	-11.6938
۶۱	-11.6941
وکیل	-11.6943
▁پشتو	-11.6948
▁فراخوان	-11.6953
سود	-11.6953
▁دیپلم	-11.6954
داگ	-11.6955
مهم	-11.6955
گردون	-11.6957
نرخ	-11.6962
دوج	-11.6963
مالک	-11.6966
▁۲۰۵	-11.6969
▁لندر	-11.6975
میلیون	-11.6976
رژه	-11.6979
▁بسر	-11.6984
گرفتن	-11.6987
مردان	-11.6989
▁سپه	-11.699
▁اصطلاحا	-11.7
ربط	-11.7001
▁تسلی	-11.7009
▁تفنگ	-11.7019
▁قبای	-11.7023
▁اندرو	-11.7027
▁تقریب	-11.703
▁خطا	-11.703
▁مخابر	-11.7033
حث	-11.7034
نمای	-11.7036
تروئ	-11.704
یونیسف	-11.704
▁احداث	-11.704
▁اختاپوس	-11.704
▁اورشلیم	-11.704
▁اکسیدکربن	-11.704
▁بیرمنگ	-11.704
▁بیضائی	-11.704
▁تمایز	-11.704
▁جگوار	-11.704
▁دگراندیش	-11.704
▁زاکربرگ	-11.704
▁سزاوار	-11.704
▁غواص	-11.704
▁فلسفی	-11.704
▁لابراتوار	-11.704
▁متقلب	-11.704
▁چرنکوف	-11.704
▁ژئوفیزیک	-11.704
▁کامبوج	-11.704
▁گوسفند	-11.704
▁الارض	-11.704
▁حروف	-11.704
▁ضابط	-11.704
▁ناپایدار	-11.704
▁تشریفات	-11.704
▁متوازن	-11.704
▁ظلم	-11.704
▁نافذ	-11.704
▁هنجار	-11.704
آزادی	-11.7041
▁اوزیل	-11.7041
▁بیانداز	-11.7041
▁جانباخت	-11.7041
▁موازات	-11.7041
▁واعظ	-11.7041
▁زیراتمی	-11.7041
▁بولونیا	-11.7041
▁میچام	-11.7041
▁نزاع	-11.7041
▁سرسخت	-11.7041
▁اکرم	-11.7041
▁آهسته	-11.7041
▁مجلل	-11.7041
▁تدارک	-11.7041
▁اوزون	-11.7041
▁لاوروف	-11.7041
▁پرسنل	-11.7041
▁مبتکر	-11.7041
▁عناب	-11.7041
▁اهرم	-11.7041
▁باچان	-11.7041
▁شروط	-11.7041
رالزمان	-11.7041
▁نیکزاد	-11.7041
▁فرهیخت	-11.7041
▁صربستان	-11.7041
▁جاودان	-11.7041
▁فلاکت	-11.7041
▁توقع	-11.7041
▁تسخیر	-11.7041
▁ازبک	-11.7041
▁کوپر	-11.7041
▁غذاخور	-11.7042
▁فلسطینیان	-11.7042
▁لاتکس	-11.7042
▁هریرود	-11.7042
▁ارمجانی	-11.7042
▁موازن	-11.7042
▁حاتم	-11.7042
▁همفکر	-11.7042
▁فورمن	-11.7042
▁دشتکی	-11.7042
▁شلوار	-11.7042
▁منفعت	-11.7042
▁مغایر	-11.7042
▁حیثیت	-11.7042
▁بلندپایه	-11.7042
▁کنسر	-11.7042
▁نوشتارها	-11.7043
▁مجادل	-11.7043
▁ناخشنود	-11.7043
▁بمیرد	-11.7043
▁اینفانتی	-11.7043
▁تربت	-11.7043
▁هنگفت	-11.7043
▁کبد	-11.7044
خوش	-11.7044
▁کبیری	-11.7044
▁نپال	-11.7044
▁دلنشین	-11.7044
▁یدک	-11.7044
▁نکشید	-11.7044
▁دوبلور	-11.7044
▁قبرستان	-11.7044
▁ربود	-11.7044
▁تومور	-11.7044
▁الاجراست	-11.7045
▁ژائو	-11.7045
▁شنویم	-11.7045
▁چوپ	-11.7045
▁دامغان	-11.7046
▁بخواهند	-11.7046
▁انحراف	-11.7046
▁عضلانی	-11.7047
▁واپس	-11.7047
▁سرپوش	-11.7047
▁نثر	-11.7048
▁عبادی	-11.7048
▁رینت	-11.7048
▁هندرسون	-11.7048
▁مراکش	-11.7048
▁هیپی	-11.7049
▁طبع	-11.7049
▁مخوف	-11.7049
▁پابرجاست	-11.705
▁چشید	-11.705
یوئیت	-11.705
تالیا	-11.7051
▁کوپا	-11.7051
▁نیابد	-11.7052
▁۱۹۹۴	-11.7052
▁آزاردید	-11.7052
▁چسباند	-11.7053
▁برلوسکونی	-11.7054
▁سحابی	-11.7054
▁عبدالسلام	-11.7054
▁قورباغه	-11.7054
▁قیصر	-11.7054
ژگان	-11.7054
▁خطاهای	-11.7054
▁۱۳۶۰	-11.7055
▁صفاری	-11.7055
▁نورالله	-11.7055
▁بپذیر	-11.7056
▁رکوردشکن	-11.7056
▁پرشمار	-11.7056
سورها	-11.7057
▁همسو	-11.7058
▁آمونی	-11.7058
▁انرو	-11.7058
▁متغیرهای	-11.7058
▁مرکل	-11.7059
▁آبراه	-11.706
▁سوفی	-11.706
▁کوشید	-11.7061
▁مارلی	-11.7062
▁پاشید	-11.7062
وبیل	-11.7062
قبره	-11.7062
▁چرن	-11.7062
▁شیاد	-11.7062
▁رودکی	-11.7065
▁یقین	-11.7065
جماع	-11.7067
▁۱۷۳	-11.7067
▁چای	-11.7067
▁تحرکات	-11.7067
مقامات	-11.7068
▁وزار	-11.707
▁مجال	-11.7071
▁ژرف	-11.7071
▁کوید	-11.7071
▁تعمیرات	-11.7071
▁پرستون	-11.7071
فلیک	-11.7072
▁شراب	-11.7072
▁معنادار	-11.7074
▁تزار	-11.7074
▁پردازش	-11.7075
▁ماهیچه	-11.7076
فارم	-11.7076
▁منقل	-11.7076
نمی	-11.7076
▁همسایگان	-11.7077
▁بکر	-11.7078
▁صرب	-11.7079
▁ناسیونالیس	-11.7079
▁آنگل	-11.708
▁بشنوید	-11.708
▁خویشتن	-11.708
کتری	-11.7083
▁زینب	-11.7085
▁گا	-11.7087
▁تعرض	-11.7088
▁آویز	-11.7088
▁خوشبین	-11.709
▁ستیز	-11.7092
▁زادروز	-11.7092
▁بارتو	-11.7093
▁عطف	-11.7094
▁شجاعت	-11.7096
▁هوشی	-11.7097
▁توئیتر	-11.7098
▁امضاکنند	-11.7099
گوگوش	-11.7101
▁آتن	-11.7101
▁توسل	-11.7102
حور	-11.7107
اندی	-11.7107
▁ندادند	-11.7107
▁کاتل	-11.7108
▁۲۴۸	-11.7108
▁درخشند	-11.7115
▁ازسر	-11.7118
▁۲۵۰۰	-11.7119
گردانی	-11.7123
سران	-11.7125
▁شوق	-11.7126
مهربان	-11.7131
▁اسید	-11.7132
▁آلک	-11.7132
▁رباب	-11.7133
▁چتر	-11.7134
▁یولیا	-11.7135
▁متال	-11.7135
مشق	-11.7137
▁پارکر	-11.7137
نزل	-11.7137
▁چهارده	-11.7142
▁یاسر	-11.7143
▁بازیافت	-11.7143
▁رویس	-11.7143
▁ورق	-11.7149
▁شرت	-11.7153
▁دستمزدها	-11.7154
▁اندازند	-11.7155
▁عمیقا	-11.7156
▁کلوز	-11.7159
▁همتایان	-11.716
تجمع	-11.7161
▁کساد	-11.7161
سازند	-11.7169
▁بدهید	-11.7172
سپیر	-11.7174
▁فروند	-11.7176
الیود	-11.7178
▁یونه	-11.718
▁کامپیوترها	-11.7181
▁دیاب	-11.7183
▁تورین	-11.7183
▁براه	-11.7185
▁اقیانوسیه	-11.7185
کوس	-11.7186
▁غذاهای	-11.7188
بیت	-11.7188
▁اتلان	-11.7191
▁افزودند	-11.7191
▁ارگان	-11.7192
۶۷	-11.7194
مرز	-11.7195
نوشت	-11.7197
▁بهرامی	-11.7199
▁مشتاقان	-11.7202
جویان	-11.7203
▁داگ	-11.7204
▁معط	-11.7205
آقازاده	-11.7223
ینگا	-11.7224
▁افع	-11.7233
▁سیلی	-11.7234
تعلل	-11.7237
▁گراند	-11.7239
ونز	-11.724
▁دلم	-11.724
▁جوانا	-11.7246
▁ارو	-11.7251
▁پوز	-11.7253
▁نجومی	-11.7255
▁بیگان	-11.7264
فرانسه	-11.7264
▁پترو	-11.7268
▁روبین	-11.7277
▁۱۲۸	-11.7283
▁راهکار	-11.7285
▁هاروی	-11.7287
طاع	-11.729
▁چادر	-11.7297
اثر	-11.7299
▁آرین	-11.7301
▁اظهارنظرهای	-11.7309
پانز	-11.7311
▁بدنم	-11.7314
▁درهم	-11.7326
وکین	-11.7328
▁بندهای	-11.7335
تینگ	-11.7338
▁احرا	-11.7345
▁جود	-11.7347
▁گول	-11.7347
اشک	-11.7354
اتنگ	-11.737
▁ممی	-11.7371
▁جزای	-11.7381
خه	-11.7384
▁نوردی	-11.7385
سید	-11.7389
گوئر	-11.7401
خر	-11.7407
عطوف	-11.7414
خی	-11.7415
▁پهنه	-11.7422
▁محوری	-11.7428
▁افکند	-11.7432
اض	-11.7433
▁بنیا	-11.7434
▁کوئین	-11.7449
▁عطار	-11.7449
داده	-11.7451
▁حض	-11.7463
بول	-11.7463
▁کشیدند	-11.7471
▁سیمین	-11.7474
▁رقیبان	-11.7479
بور	-11.7486
ایف	-11.7493
▁باربی	-11.7505
راماتیک	-11.7514
نازنی	-11.7517
▁غوری	-11.7518
▁ضیا	-11.7522
▁قاسمی	-11.7528
▁نشستن	-11.7541
▁بخشیده	-11.7542
▁کیان	-11.7544
▁اشتها	-11.7546
▁سالمند	-11.7557
▁نانو	-11.7559
▁جیمی	-11.7563
▁نزدیکانش	-11.7567
▁کنش	-11.7573
▁یانگ	-11.7576
▁بستند	-11.7583
▁زنیم	-11.7593
▁۱۷۴	-11.76
▁زین	-11.7601
▁نهادی	-11.7602
▁اپرای	-11.7605
▁بلندپروازی	-11.7606
▁میکروبی	-11.7606
▁همسران	-11.7615
ودی	-11.7623
▁لن	-11.7645
تیر	-11.7654
درنا	-11.7664
▁سوت	-11.7687
▁علا	-11.7698
▁کاپ	-11.7707
▁خاوری	-11.7713
▁آلم	-11.773
یگز	-11.7736
ینکی	-11.7738
▁نع	-11.7751
▁کوری	-11.7755
ناتان	-11.7772
▁وول	-11.7779
▁دزدی	-11.7785
دوزی	-11.7794
▁ایرانسل	-11.7797
▁حواس	-11.7799
پک	-11.7802
آمارها	-11.7809
قای	-11.7815
▁کلت	-11.7834
▁هیو	-11.784
▁ماجراجو	-11.7846
۹۶	-11.7859
▁رایانه	-11.7867
والی	-11.7873
بیح	-11.7884
▁اپ	-11.7886
رعلی	-11.79
▁سفارشی	-11.7904
مزه	-11.7934
▁عینی	-11.7936
▁رجبی	-11.797
▁پولهای	-11.7975
▁شجاعی	-11.7975
▁تولیدکنند	-11.7979
▁تشک	-11.7982
▁آرن	-11.7989
▁منفور	-11.799
▁دیف	-11.7995
▁اوس	-11.8001
▁لیز	-11.8005
▁مخ	-11.8012
ملا	-11.8016
ولو	-11.8019
▁مث	-11.8019
▁نیرومند	-11.8048
▁اسلو	-11.8064
ذو	-11.8076
▁اسما	-11.8082
لون	-11.8093
پدیده	-11.8112
▁گذاریم	-11.8131
▁شاهدان	-11.8141
▁اتکای	-11.816
▁استودیوی	-11.8174
بعه	-11.8204
▁ایگ	-11.8217
باسی	-11.8229
▁انسانها	-11.8245
پرسینگ	-11.8252
حرف	-11.8252
▁استثنای	-11.827
لات	-11.8278
▁عمرش	-11.8278
▁شارل	-11.8288
▁چنگ	-11.8307
▁دلش	-11.8316
▁نزده	-11.8317
راندن	-11.8319
امید	-11.8322
خوانده	-11.8322
▁محی	-11.8345
▁نبردها	-11.836
هوش	-11.836
▁آرمی	-11.8373
یابان	-11.838
رانگ	-11.8381
۸۱	-11.8392
▁نیاب	-11.8411
▁مینیاتوری	-11.8425
توت	-11.8437
۳۳	-11.8458
مایه	-11.8459
▁بیو	-11.8465
ماجرا	-11.8467
متن	-11.8472
فمن	-11.8492
▁فلم	-11.8501
قانون	-11.8501
میزان	-11.851
گزا	-11.8529
▁مسخ	-11.8531
تقبل	-11.8532
▁ادین	-11.8534
کانس	-11.8539
▁ضم	-11.854
▁افسرد	-11.8543
▁مخاط	-11.8551
سرع	-11.856
صله	-11.8561
ورس	-11.8561
▁شغلها	-11.8562
میلیا	-11.8563
▁کلن	-11.8565
لیور	-11.8587
▁یوسف	-11.8593
اندا	-11.8593
گنجی	-11.8604
راست	-11.8605
▁غور	-11.8609
▁صحرا	-11.8609
▁مطهر	-11.8613
فرد	-11.8618
▁مذهب	-11.862
▁محبو	-11.8624
▁رومانیا	-11.8625
▁سخنگو	-11.8626
▁مزایا	-11.8631
▁گفتم	-11.8635
سلطان	-11.864
دانی	-11.8644
۳۶۰	-11.8644
▁نوزده	-11.8644
زاد	-11.8652
فاصل	-11.8659
▁آمر	-11.8661
▁خف	-11.8677
رانر	-11.8684
▁هواپیماها	-11.8692
▁نات	-11.8696
ولد	-11.8698
▁فاین	-11.8704
▁ادوار	-11.871
▁یادم	-11.8712
گرانی	-11.872
▁هرد	-11.8727
▁بارش	-11.8743
▁چیزها	-11.8743
ترک	-11.8746
▁ازد	-11.8747
▁صحبتها	-11.8748
▁توفیقی	-11.8753
دستان	-11.8755
▁باکر	-11.8756
▁دوک	-11.8762
▁اسکا	-11.877
سجم	-11.8773
زبان	-11.878
▁نگذاشت	-11.8787
▁معوق	-11.8802
▁۳۳۰	-11.8807
▁بیک	-11.881
کستر	-11.8813
▁سناریو	-11.8818
▁سیریا	-11.8819
▁منسو	-11.8821
گوین	-11.8822
سرجی	-11.8825
▁چش	-11.8825
▁بازن	-11.8845
▁آریا	-11.8846
۵۳	-11.8851
لیتو	-11.8857
▁مصو	-11.8859
حکم	-11.8859
▁رکوردها	-11.8862
ستیک	-11.8865
▁صداها	-11.8873
بنیا	-11.8879
▁بنام	-11.8882
کلیف	-11.8884
صلاح	-11.8884
رزرو	-11.8888
▁روما	-11.8892
▁ندا	-11.8893
مکزیکو	-11.8895
▁اپراتور	-11.8903
اعتراض	-11.8905
کلاس	-11.8906
انسون	-11.8912
▁هشدارها	-11.8913
بیانسه	-11.8913
فاضل	-11.8913
اسب	-11.8913
آموز	-11.8914
مشخص	-11.8915
اضطراب	-11.8917
اسپوت	-11.8917
خروج	-11.8918
ابراهیم	-11.8918
مناسبت	-11.8918
مسعود	-11.8918
منتظر	-11.8918
ایلنا	-11.8918
اتفاقات	-11.8918
تیراندازی	-11.8918
جسد	-11.8918
نیویورک	-11.8919
پروتکل	-11.8919
تخریب	-11.8919
نظار	-11.8919
گمرک	-11.8919
احتمال	-11.8919
▁فلی	-11.8919
نزدیک	-11.8919
صنعت	-11.8919
موضوع	-11.8919
جوایز	-11.8919
جنوب	-11.8919
تابستان	-11.8919
جوکوویچ	-11.892
۲۰۲۰	-11.892
فرمانده	-11.8921
جایزه	-11.8921
تایسون	-11.8921
درحالی	-11.8923
لیدز	-11.8923
اعظم	-11.8923
فیفا	-11.8924
عزیز	-11.8926
کنفرانس	-11.8926
اتهامات	-11.8927
هموار	-11.8928
▁اشتباهی	-11.8928
هجوم	-11.8929
مسئول	-11.8929
خیز	-11.8933
سنج	-11.8934
▁ماهر	-11.8937
نژادپرست	-11.8943
سبد	-11.8943
طالبان	-11.8944
▁ویز	-11.8945
اندرو	-11.8946
ایند	-11.8949
لیگا	-11.8952
▁لح	-11.8968
فرق	-11.8972
▁توئیت	-11.8973
▁نامند	-11.8973
کشته	-11.8974
▁شنای	-11.8975
▁شهنا	-11.8979
▁محو	-11.8983
رول	-11.8986
▁کوک	-11.8986
ناتالی	-11.8986
▁فلامینگو	-11.8992
▁همسایگ	-11.8996
رویا	-11.8996
لوگ	-11.9001
همکاری	-11.9012
پایان	-11.9021
ولوژی	-11.9022
▁۲۴۰	-11.9023
▁ترفند	-11.9026
رگبار	-11.9026
زیستی	-11.9028
دنبال	-11.9029
زیت	-11.9037
▁الاجرا	-11.904
گوئه	-11.904
فراگ	-11.904
▁ابتذال	-11.904
▁اسکورسیزی	-11.904
▁اوزبیک	-11.904
▁بفرستد	-11.904
▁بفرستند	-11.904
▁بپیوندد	-11.904
▁تشعشع	-11.904
▁حناچی	-11.904
▁زحمات	-11.904
▁سمرقند	-11.904
▁عبدالرحم	-11.904
▁عناوین	-11.904
▁فیزیولوژی	-11.904
▁مارگاریتا	-11.904
▁مجارستان	-11.904
▁مفاهیم	-11.904
▁منظوم	-11.904
▁ناسازگار	-11.904
▁نباشید	-11.904
▁هیدروژن	-11.904
▁پلتفرم	-11.904
▁کوکائین	-11.904
▁سولیوان	-11.904
▁متضاد	-11.904
▁مشروعیت	-11.904
▁معضل	-11.904
▁ننگرهار	-11.904
▁زوایا	-11.904
▁عنایت	-11.904
▁۲۰۳۵	-11.904
▁افراط	-11.904
▁عنابستانی	-11.904
▁هورمون	-11.904
▁بکنید	-11.904
▁شریعت	-11.904
▁تذکر	-11.904
▁غزنوی	-11.904
▁همجوار	-11.904
▁کابوس	-11.904
▁مقادیر	-11.904
▁وسواس	-11.904
▁پرتوافشانی	-11.904
▁جوابگوی	-11.9041
▁اتمسفر	-11.9041
▁ببینم	-11.9041
▁بیضایی	-11.9041
▁ملموس	-11.9041
▁برنامک	-11.9041
▁سغد	-11.9041
▁خودکفا	-11.9041
▁تمهید	-11.9041
▁دوقلو	-11.9041
▁بیانجامد	-11.9041
▁چابک	-11.9041
▁ایرلاین	-11.9041
▁بنکدارپور	-11.9041
▁پغمان	-11.9041
▁بشود	-11.9041
▁تجسس	-11.9041
▁وجدان	-11.9041
▁بکشم	-11.9041
ماگال	-11.9041
▁فرستند	-11.9041
▁اولیانوف	-11.9041
▁ویولن	-11.9041
▁ناخودآگاه	-11.9041
▁تنگاتنگ	-11.9041
▁فراهانی	-11.9041
▁بخورد	-11.9041
▁پوینت	-11.9041
▁بانکوک	-11.9041
▁دیزل	-11.9041
▁نکونام	-11.9041
▁بازدارند	-11.9041
▁لطیف	-11.9041
▁ارژن	-11.9042
▁فعالیتش	-11.9042
▁سمنان	-11.9042
▁حماس	-11.9042
▁آپوف	-11.9042
▁طارمی	-11.9042
▁فواید	-11.9042
▁بلوغ	-11.9042
▁برنگرداند	-11.9042
▁هادی	-11.9042
▁کبود	-11.9043
ناگلزم	-11.9043
▁هنکس	-11.9043
▁اسکلت	-11.9043
▁کریگ	-11.9043
▁بارچا	-11.9043
▁آنچنان	-11.9043
▁غمگین	-11.9043
▁زشت	-11.9043
▁شادمان	-11.9043
▁تمجید	-11.9044
▁بسپارد	-11.9044
▁تایوان	-11.9044
▁زراعت	-11.9044
ورلد	-11.9044
▁انعکاس	-11.9044
▁آصف	-11.9045
▁بزاق	-11.9045
▁گوریل	-11.9045
زامبی	-11.9045
▁کذب	-11.9045
▁حشر	-11.9045
▁آلبانی	-11.9045
▁۱۳۲	-11.9046
▁مجزا	-11.9046
▁میشود	-11.9046
▁آفرید	-11.9047
▁نصیر	-11.9047
▁۱۹۶۶	-11.9047
آنگولا	-11.9047
▁گاف	-11.9048
▁نگهداشت	-11.9048
▁رکسا	-11.9048
▁شادگان	-11.9048
▁توفندها	-11.9049
▁منحنی	-11.905
▁آموس	-11.9051
▁بارکلی	-11.9051
▁بنویسم	-11.9052
▁کلکسیون	-11.9053
▁لیمو	-11.9053
▁دلسوز	-11.9054
▁۱۹۹۵	-11.9055
تعدد	-11.9055
مختار	-11.9056
▁جهنم	-11.9056
▁خطاط	-11.9056
▁صیادان	-11.9056
▁سیب	-11.9056
▁نوابی	-11.9056
▁لنز	-11.9056
▁کاردوس	-11.9057
▁لافرته	-11.9057
▁شایان	-11.9057
▁ماوریک	-11.9057
▁آنتوان	-11.9058
▁راهکارهای	-11.9058
▁الاه	-11.9058
▁گوترش	-11.9059
▁نخواست	-11.9059
رگوت	-11.9059
▁چفرین	-11.9061
▁فرسا	-11.9061
▁بخوانند	-11.9061
▁آوینی	-11.9062
شیتز	-11.9062
▁ایزد	-11.9063
▁لرزید	-11.9063
اطع	-11.9063
رساز	-11.9063
▁لبخندها	-11.9063
▁سرزن	-11.9063
متاز	-11.9063
▁آغ	-11.9065
▁سمع	-11.9065
تامی	-11.9066
▁دانید	-11.9066
سوار	-11.9066
▁چندرایان	-11.907
▁مقیاس	-11.9071
▁بدود	-11.9073
▁نزن	-11.9073
▁وکارها	-11.9073
▁رجیس	-11.9074
▁قمار	-11.9074
ولوو	-11.9076
▁سفیدپوستان	-11.9076
چنین	-11.9077
▁کاترین	-11.9077
سترون	-11.9078
▁ابول	-11.9078
کردن	-11.9079
نیتو	-11.908
▁جویانه	-11.9081
▁اعترافات	-11.9081
▁بدیع	-11.9082
▁اشکالات	-11.9082
▁زودرس	-11.9082
▁امداد	-11.9083
▁بنفش	-11.9086
▁کوثر	-11.9087
▁وارث	-11.9087
▁شاهکارهای	-11.9092
▁فراگرفت	-11.9093
▁اسکات	-11.9093
افتاده	-11.9094
▁بیگم	-11.9095
▁الن	-11.9096
انیس	-11.9097
▁بریج	-11.9097
▁پربار	-11.9098
▁قهر	-11.9102
رونا	-11.9102
▁شگرد	-11.9106
رسید	-11.9106
آفرینی	-11.9107
قو	-11.9107
صنوف	-11.911
▁کروات	-11.911
▁گاردن	-11.9113
▁گوستا	-11.9115
▁بهائی	-11.9116
غما	-11.912
▁ترکمان	-11.9122
غذیه	-11.9122
▁افشاگر	-11.9123
▁گرون	-11.9123
▁نوپا	-11.9124
▁بیکارشد	-11.9125
کیت	-11.9126
▁یوهان	-11.9129
خرید	-11.9131
▁دالان	-11.9132
قطع	-11.9133
زنان	-11.9135
شواری	-11.9136
▁سواد	-11.9138
▁ویرانگر	-11.9138
▁محص	-11.9141
نشأ	-11.9142
▁اژدها	-11.9143
▁ربکا	-11.9146
▁دماغ	-11.9148
▁رازهای	-11.915
صیر	-11.915
▁چانگ	-11.915
▁همدان	-11.9151
▁تردیدهای	-11.9152
رضی	-11.9154
▁کشیم	-11.9155
▁فوب	-11.9156
پرستانه	-11.9158
▁درصورت	-11.9159
اسکورت	-11.916
▁نازک	-11.916
▁سینماگران	-11.9161
▁سنجی	-11.9166
مسابقه	-11.9167
▁کولبران	-11.9168
وشو	-11.9178
▁چرخید	-11.9181
▁هادرون	-11.9181
▁معلمان	-11.9183
وشن	-11.9184
▁مشاهدات	-11.9187
پولیس	-11.9189
اتکلیف	-11.9193
▁سهراب	-11.9198
ایم	-11.9205
▁کوما	-11.9209
▁نیر	-11.9212
▁رویکردهای	-11.9213
▁دز	-11.9214
▁برگشتند	-11.9214
لار	-11.9217
▁بلاتکلیفی	-11.9219
▁یادش	-11.9221
▁وزرا	-11.9231
▁ساندر	-11.9233
▁محبوبش	-11.9233
▁شیل	-11.9236
گرم	-11.9236
▁کانل	-11.9245
▁ایرانایران	-11.9251
▁ابط	-11.9253
▁ورش	-11.9255
▁میلیچ	-11.9256
▁۱۳۱	-11.926
▁والن	-11.926
▁قانونگذار	-11.9265
▁کارلو	-11.9266
▁همهمه	-11.9267
▁بریز	-11.9267
▁وایت	-11.927
▁دوهزار	-11.9277
گز	-11.9278
▁آو	-11.9282
▁سوییس	-11.9282
▁خا	-11.9292
▁بازنش	-11.9295
▁افزارهای	-11.9296
اندیش	-11.9299
▁امیدهای	-11.9301
▁رحیمی	-11.9306
ستراز	-11.9312
▁تاجیکان	-11.9324
وشیرو	-11.9325
▁مورخ	-11.9338
▁فراوانش	-11.9348
▁اینست	-11.9362
نوی	-11.9364
کوه	-11.9368
▁لوور	-11.937
▁دوبل	-11.9371
▁دخ	-11.9376
▁یورد	-11.9378
▁آزادگان	-11.938
▁بلخی	-11.938
ندرت	-11.9383
▁اکت	-11.9384
اکس	-11.9387
حاملگی	-11.9392
▁نظ	-11.9397
▁تعبی	-11.94
الین	-11.94
نگوی	-11.9401
▁لغز	-11.9406
یلد	-11.9413
یبریا	-11.9427
▁سلیم	-11.943
▁وتو	-11.9434
اسیرو	-11.9434
▁میرود	-11.9436
▁شست	-11.9437
▁افتادند	-11.9452
▁اورک	-11.9453
▁بریم	-11.9455
شکل	-11.9455
گارد	-11.9458
استان	-11.9463
▁نبودند	-11.9467
▁کنگو	-11.9471
▁هامون	-11.9474
دون	-11.9475
معدنچی	-11.9475
دوش	-11.9477
▁خودکار	-11.9479
▁لوس	-11.9487
▁رگی	-11.949
▁هایپر	-11.9491
▁کرای	-11.9503
۵۸	-11.9507
▁شیرینی	-11.9521
▁پرور	-11.9526
▁همگان	-11.9553
▁جراحان	-11.9558
▁یوآن	-11.956
▁تاثیرات	-11.9561
▁ساچ	-11.9561
▁کوو	-11.9564
▁اسکان	-11.957
▁اعم	-11.9582
▁۲۰۲	-11.9584
▁زدم	-11.9586
▁لوکه	-11.959
▁آک	-11.9597
▁امیرم	-11.9597
فروشی	-11.9601
▁کیش	-11.9603
▁سودجو	-11.9607
عیار	-11.9611
▁خور	-11.9619
قاد	-11.9626
▁پورتو	-11.9628
▁شناختند	-11.9633
▁حریری	-11.9637
▁همپ	-11.9638
▁نبودن	-11.9643
▁عطا	-11.9648
▁نایاب	-11.965
یکپا	-11.9653
لیز	-11.9653
تار	-11.9664
ساتبی	-11.9667
دیده	-11.9693
عد	-11.9706
کلت	-11.971
▁بازگشتند	-11.9711
یاس	-11.9712
▁صلیبی	-11.9714
▁فیزیوتراپ	-11.9719
▁کشاورزان	-11.9732
▁پاتر	-11.9737
روزهای	-11.9743
▁فلور	-11.9747
یتونا	-11.9759
نشان	-11.9776
زمانی	-11.9828
▁کمالی	-11.9833
▁فروشد	-11.9837
رفت	-11.9846
ساعد	-11.986
▁رادو	-11.9863
▁فرحی	-11.9863
▁دانستم	-11.9865
جات	-11.9865
▁مقدا	-11.9868
طبا	-11.9871
▁کارم	-11.9879
▁فتو	-11.9894
▁خاوی	-11.9898
▁مسج	-11.9921
▁فرمین	-11.9928
یلو	-11.9934
لنگر	-11.9944
▁آرت	-11.9998
▁حکمت	-12.0001
▁امیل	-12.0002
مایش	-12.0014
▁شکستند	-12.0021
▁میزبانش	-12.0043
▁فاکس	-12.0046
رمند	-12.0053
▁استوایی	-12.0076
▁ادینبور	-12.0087
▁استانهای	-12.0097
▁محر	-12.0101
▁تز	-12.0105
▁اورگ	-12.011
▁اینج	-12.0123
▁نیلی	-12.0129
▁بایستی	-12.0134
▁افزا	-12.0164
۴۴	-12.0165
میرا	-12.0174
پایه	-12.0179
▁برایان	-12.0192
وفق	-12.0218
▁شرکتها	-12.0219
▁تونسی	-12.0223
ناپس	-12.0239
نزو	-12.0244
▁ژیل	-12.0255
▁دوسال	-12.0259
▁وظایفش	-12.028
▁موس	-12.0287
ژی	-12.0294
بود	-12.031
کمپ	-12.032
▁عدل	-12.0327
▁شیرها	-12.0333
▁صدایی	-12.0341
▁احتمالات	-12.0357
▁الف	-12.0359
▁لویی	-12.0374
▁جوری	-12.0378
نیمه	-12.0397
▁غد	-12.0427
پالا	-12.0453
ساز	-12.0462
▁حواسش	-12.0464
باف	-12.047
▁الزاما	-12.0493
▁بخو	-12.0493
ارجه	-12.0498
روث	-12.0499
بندی	-12.051
زیا	-12.0519
مراه	-12.0523
خواهند	-12.0546
سنا	-12.0551
▁هرسال	-12.057
۳۹	-12.0595
▁نف	-12.0596
▁ماسی	-12.0611
ذا	-12.0625
وستون	-12.0633
▁فاک	-12.0641
▁قای	-12.0655
ینک	-12.0656
▁استوار	-12.067
۸۵	-12.0672
▁نواخت	-12.0676
▁دویدن	-12.0677
اردو	-12.0678
▁الکسا	-12.068
▁برخاستن	-12.0716
نتر	-12.0716
کیا	-12.0718
▁شرع	-12.0721
▁صلیب	-12.0738
▁حف	-12.074
پروم	-12.074
الا	-12.0773
دالر	-12.0788
آلبرت	-12.0789
▁جنگید	-12.0795
▁کیپ	-12.0799
میخ	-12.0805
اپیش	-12.0805
گسترد	-12.0808
قوی	-12.0811
راحتی	-12.0834
▁وزر	-12.084
▁العم	-12.0842
▁محصولش	-12.0852
فاق	-12.0855
▁غای	-12.0856
▁طو	-12.0863
۳۷	-12.0866
▁خوابید	-12.0871
▁دیک	-12.0876
▁بروی	-12.0888
عریض	-12.0918
نتو	-12.0934
▁پاتری	-12.0934
▁کردید	-12.0935
خانی	-12.0942
وما	-12.0951
لوح	-12.0954
▁عس	-12.0976
نوم	-12.0978
▁اط	-12.1011
خواهیم	-12.1012
▁لنگ	-12.1014
غلو	-12.1028
لیت	-12.1031
▁نط	-12.1058
وشکن	-12.1086
▁نرسیدن	-12.1106
دیدار	-12.1106
▁اصولگرا	-12.1108
▁پناهجو	-12.111
▁شوخ	-12.1111
▁۱۲۶	-12.1112
جاسوسی	-12.112
▁۷۱	-12.1127
یشکر	-12.1129
▁نیاورده	-12.1129
▁نبو	-12.1133
▁تروریست	-12.1135
▁۲۶۰	-12.1155
ریض	-12.1157
▁گود	-12.1168
▁دستورها	-12.1168
وقف	-12.1175
نفت	-12.1176
▁نیروها	-12.1186
▁هفده	-12.1195
▁الکسی	-12.1196
▁خو	-12.12
▁سوکا	-12.1204
خارج	-12.1211
صراف	-12.1239
▁پیشگیر	-12.1243
▁شنید	-12.1244
▁تویی	-12.1252
▁فلورا	-12.126
ناوب	-12.1271
▁غیران	-12.128
مگان	-12.1284
امور	-12.1295
▁افشاری	-12.1299
▁قضائی	-12.1303
▁مواج	-12.1311
▁ندید	-12.1313
دونا	-12.1317
▁جادو	-12.1322
▁انگ	-12.1324
▁سکس	-12.1325
ورال	-12.1336
اجرای	-12.1337
گذران	-12.1345
تورم	-12.1358
پدر	-12.1362
خبرنگار	-12.1372
فعال	-12.1375
▁انع	-12.1395
▁جمل	-12.1396
نهادهای	-12.1404
سارا	-12.1404
حکام	-12.1406
ربکا	-12.1406
کریس	-12.1411
توییت	-12.1412
سولار	-12.1413
اسحاق	-12.1414
تحرک	-12.1415
ذخا	-12.1416
پائی	-12.1416
بیورن	-12.1416
آرامکو	-12.1416
حبیب	-12.1416
چاق	-12.1416
پیرلو	-12.1417
کثیر	-12.1418
کاوشگر	-12.1418
پذیرفته	-12.1418
اختلال	-12.1418
غوری	-12.1418
یوونتوس	-12.1418
صریح	-12.1419
سوئیس	-12.1419
رونالدو	-12.1419
اظهارات	-12.1419
لحظ	-12.1419
قسمت	-12.1419
فرصت	-12.1419
فضای	-12.1419
صادرات	-12.1419
اسرائیل	-12.1419
سقوط	-12.1419
رکود	-12.1419
بحران	-12.1419
ساعات	-12.1419
عربستان	-12.1419
آزمایش	-12.1419
محدودیت	-12.1419
توافق	-12.1419
شرایط	-12.1419
متوقف	-12.142
مشاور	-12.142
افراد	-12.142
جمهوری	-12.142
▁کوتاهتر	-12.142
تاریخ	-12.142
ربات	-12.142
مستند	-12.1421
ورزشگاه	-12.1421
ماشین	-12.1421
انتقادات	-12.1421
شایست	-12.1422
کاملا	-12.1422
بازدید	-12.1423
پهن	-12.1423
ساعت	-12.1424
درباره	-12.1425
فولک	-12.1425
مکرون	-12.1425
▁صفا	-12.1426
فعالیت	-12.1427
جنسی	-12.1428
امارات	-12.1429
کیهان	-12.143
مرح	-12.143
ضمن	-12.1431
انتقالات	-12.1433
کتاب	-12.1434
بیماری	-12.1434
راکت	-12.1435
گمش	-12.1438
دیوان	-12.1441
اقدام	-12.1448
ساکن	-12.1452
قبلا	-12.1452
نشری	-12.1452
بازیکنان	-12.1453
خودروهای	-12.1459
سینما	-12.146
کریست	-12.1462
الگو	-12.1464
خبرنگاران	-12.1465
▁طاه	-12.1467
▁دوور	-12.1468
نهاد	-12.1469
ناوگان	-12.147
پیچ	-12.1471
مردم	-12.1471
پوش	-12.1474
برداشت	-12.1475
واگذار	-12.1476
حک	-12.1476
درخواست	-12.1477
کشف	-12.1478
سیاسی	-12.1478
▁جولیا	-12.1478
باستان	-12.1484
رییس	-12.1488
▁الاح	-12.149
واقعیت	-12.149
عبدالله	-12.1492
فرام	-12.1492
▁بغل	-12.1508
▁واژگ	-12.151
موارد	-12.151
جنگ	-12.1513
▁هموطن	-12.1513
اتهام	-12.1515
تقی	-12.1516
▁سفیدپوست	-12.1517
سیاست	-12.1518
عصب	-12.1518
نازل	-12.1518
ندگرن	-12.1521
سترازنکا	-12.1522
▁ژر	-12.1524
▁مکاتب	-12.1528
▁مطبوع	-12.153
عظم	-12.1531
لگرام	-12.1532
▁چاو	-12.1533
▁گرافی	-12.1538
▁فلسطین	-12.1539
سالم	-12.154
▁الشع	-12.154
▁انقباض	-12.154
▁بلایندرز	-12.154
▁بوئین	-12.154
▁بورکینافاسو	-12.154
▁ترائوره	-12.154
▁تماشگر	-12.154
▁دزفول	-12.154
▁دگرباش	-12.154
▁رامهرمز	-12.154
▁رستگار	-12.154
▁زرتشت	-12.154
▁سرخپوشان	-12.154
▁سریلانکا	-12.154
▁سوسیالیست	-12.154
▁طنزپرداز	-12.154
▁غیاث	-12.154
▁غیرعمد	-12.154
▁غیرمجاز	-12.154
▁قیراط	-12.154
▁محتکر	-12.154
▁مرتضوی	-12.154
▁مصائب	-12.154
▁ناآشنا	-12.154
▁هولدینگ	-12.154
▁هژمون	-12.154
▁ولاسکز	-12.154
▁پرسورینس	-12.154
▁پرینسخرا	-12.154
▁پورنوگرافی	-12.154
معجزه	-12.154
▁بشنوند	-12.154
▁سوراخ	-12.154
▁قراداد	-12.154
▁قزوین	-12.154
▁ویسکانس	-12.154
▁سارقان	-12.154
▁سوبرانا	-12.154
▁مشهود	-12.154
▁مقاطع	-12.154
▁گلاسگو	-12.154
▁شیطان	-12.154
▁قعر	-12.154
▁مغانلو	-12.154
▁نذری	-12.154
▁هزارتومان	-12.154
▁سانفرانسیسکو	-12.154
▁خودخواهانه	-12.154
▁وسعت	-12.154
الشهدا	-12.1541
▁مقبول	-12.1541
▁نگیرد	-12.1541
▁انسداد	-12.1541
▁بپرسید	-12.1541
▁شئون	-12.1541
▁اساتید	-12.1541
▁بازوبند	-12.1541
▁بیاموز	-12.1541
▁برسانیم	-12.1541
▁فرخزاد	-12.1541
▁برلیناله	-12.1541
▁سوینتن	-12.1541
▁عواطف	-12.1541
▁بازگردم	-12.1541
▁هکتار	-12.1541
▁ارنست	-12.1541
▁کوواکس	-12.1541
▁جانبازان	-12.1541
▁سانتیاگو	-12.1541
▁یوردانس	-12.1541
▁عبرت	-12.1541
▁لوکزامبورگ	-12.1541
▁سرامیک	-12.1541
▁عابران	-12.1541
▁نوترینو	-12.1541
▁جماعت	-12.1541
▁آسپر	-12.1541
▁ستمگر	-12.1541
▁شمع	-12.1541
▁ناخدا	-12.1541
▁گزاف	-12.1541
ستراح	-12.1541
▁تراشید	-12.1541
▁انهدام	-12.1541
▁گوارش	-12.1541
▁اوتیسم	-12.1541
▁تمیز	-12.1541
▁خمیس	-12.1541
▁عزل	-12.1542
▁هیلتون	-12.1542
▁آسایشگاه	-12.1542
▁باروک	-12.1542
▁همینگوی	-12.1542
▁رستم	-12.1542
▁تظاهرکنندگان	-12.1542
▁لرزاند	-12.1542
▁دلهره	-12.1542
▁شوشتر	-12.1542
اسکار	-12.1543
▁سمنزا	-12.1543
▁مادربزرگ	-12.1543
▁دیلن	-12.1543
▁هیوستون	-12.1543
حشمت	-12.1543
ارنوک	-12.1543
▁پرمخاط	-12.1543
▁بیاییم	-12.1544
▁فرازمینی	-12.1544
▁مالزی	-12.1544
▁ایرویز	-12.1544
▁معذ	-12.1544
▁الخروج	-12.1544
▁بنرهای	-12.1544
▁تخار	-12.1545
▁بسط	-12.1545
▁موزیکال	-12.1545
▁گمارد	-12.1545
▁غیرمعمول	-12.1545
▁فیض	-12.1545
▁ماورا	-12.1545
▁صداقت	-12.1545
▁آقاخان	-12.1545
▁آتلانتا	-12.1546
▁الفبا	-12.1546
▁گیج	-12.1546
▁مکوندی	-12.1547
▁پترولی	-12.1547
اسرای	-12.1547
▁محصور	-12.1547
▁سیندمی	-12.1547
▁پنداشت	-12.1547
طغ	-12.1547
▁الاصل	-12.1547
▁شیرجه	-12.1547
▁نافرجام	-12.1548
▁زهیر	-12.1548
▁بنویسد	-12.1548
▁مشکاتیان	-12.1548
▁امیدورا	-12.1549
▁مترمکعب	-12.1549
▁روانشناس	-12.1549
▁دفعات	-12.1549
▁کانتونا	-12.1549
▁زیردریا	-12.155
▁معابد	-12.155
▁بیولوژیک	-12.1551
▁روباه	-12.1551
▁اتمر	-12.1551
▁چریک	-12.1552
▁برچید	-12.1552
▁ترفتال	-12.1552
▁ستیزانه	-12.1553
▁خص	-12.1553
▁ربع	-12.1553
▁سهمگین	-12.1553
▁دایم	-12.1553
▁۱۳۸۶	-12.1554
▁معصوم	-12.1554
▁کالینگ	-12.1554
▁بامیه	-12.1554
▁صنا	-12.1555
▁مولایی	-12.1555
ارپن	-12.1555
▁خرنامه	-12.1557
▁خورند	-12.1557
▁دهشت	-12.1558
▁دارالا	-12.1558
▁باغبان	-12.1558
▁بیولوژی	-12.1559
▁عوا	-12.1559
▁بازپرس	-12.1559
▁آنجل	-12.1559
▁۱۹۴۴	-12.156
▁سموم	-12.156
▁بوفالوران	-12.1561
▁تنبل	-12.1562
▁تباه	-12.1562
▁عذاب	-12.1563
▁خجالت	-12.1563
برمی	-12.1563
▁الگوهای	-12.1563
بنوی	-12.1563
▁لارن	-12.1565
▁هورن	-12.1565
▁ونچ	-12.1566
▁مرورگر	-12.1566
▁میناری	-12.1566
▁مصادیق	-12.1566
▁برازند	-12.1567
▁قلمرو	-12.1568
▁گرانبها	-12.1569
▁مرج	-12.1569
▁فرشید	-12.1569
▁ایرایی	-12.157
▁شهباز	-12.157
▁نبست	-12.1571
▁سحرگاه	-12.1571
ارزپاشی	-12.1572
سوخت	-12.1574
▁قبایل	-12.1575
▁مهیب	-12.1575
▁پرالتهاب	-12.1577
▁خرابکارانه	-12.1577
▁ایفل	-12.1577
▁۲۶۶	-12.1578
▁۲۳۹	-12.1578
دانف	-12.1579
▁غزل	-12.158
▁زیربنا	-12.158
▁ماریو	-12.158
▁تابع	-12.1581
▁فونت	-12.1584
▁ویسل	-12.1584
▁جبار	-12.1585
▁قلی	-12.1586
لومین	-12.1587
▁هموطنان	-12.1587
▁روزافزون	-12.1588
▁علام	-12.1591
▁همجنسگرا	-12.1591
▁لج	-12.1591
اختا	-12.1592
شاهزاد	-12.1592
▁اغما	-12.1593
▁خندد	-12.1594
▁خوانید	-12.1595
▁۱۹۱۸	-12.1596
▁خوابگاه	-12.1597
▁آندریاس	-12.1597
▁وسائ	-12.1597
سانسور	-12.1598
▁۱۶۶	-12.1599
▁اوساکا	-12.1601
▁مفسد	-12.1601
▁هالووین	-12.1601
▁اخطارهای	-12.1602
▁بغ	-12.1603
▁نمودار	-12.1603
▁مطلق	-12.1604
▁ویدئوهای	-12.1604
▁خرم	-12.1605
▁سندگرن	-12.1608
▁منکین	-12.1608
صمد	-12.1609
▁شوکور	-12.161
▁۱۷۵	-12.161
▁فوتسی	-12.1612
▁کارهایش	-12.1614
▁علیشاهی	-12.1614
کبیر	-12.1615
هالیفیلد	-12.1619
▁کورس	-12.1619
▁ریختند	-12.162
نفوس	-12.162
▁نداشتیم	-12.162
دخیل	-12.1622
▁مرزبان	-12.1626
▁مبد	-12.1626
▁فض	-12.1627
مداری	-12.1627
▁وفن	-12.1628
عات	-12.1632
▁کورین	-12.1632
▁پیوندند	-12.1633
▁هولو	-12.1635
▁۲۱۶	-12.1635
▁وفا	-12.1636
▁درمانگاه	-12.1638
▁پائیز	-12.1639
▁ژنوم	-12.1639
▁چهارصد	-12.164
نالد	-12.164
▁لارو	-12.164
انجیر	-12.1641
▁یزدان	-12.1642
▁جویا	-12.1642
▁قامت	-12.1643
مام	-12.1644
▁کتابخوان	-12.1644
▁یونیو	-12.1645
ولاتش	-12.1645
▁مگو	-12.1646
▁۱۵۵	-12.1646
▁قضای	-12.1646
ملامت	-12.1649
▁صل	-12.1649
▁لئوپ	-12.165
عاب	-12.1651
▁پاور	-12.1661
▁وانگ	-12.1663
▁پارکین	-12.1664
شهرت	-12.1665
▁نگذشته	-12.1666
▁۱۲۲	-12.1667
▁نورال	-12.167
▁اندیشید	-12.1673
▁رسیم	-12.1674
▁روبات	-12.1683
گرایی	-12.1686
مونت	-12.1687
▁متاسفم	-12.1688
کشید	-12.1694
▁شنیدنش	-12.1694
▁بینم	-12.1697
▁رکس	-12.1698
▁حوت	-12.1699
▁توانمند	-12.1706
▁انگشتان	-12.1709
▁دستفروش	-12.171
▁۲۰۷	-12.1716
عاده	-12.1717
▁موزی	-12.1719
▁گذراندم	-12.1723
فشان	-12.1724
▁مطمئنا	-12.1727
▁مخا	-12.173
▁خب	-12.173
▁وصدا	-12.1733
▁لوح	-12.1733
اپور	-12.1737
▁پتر	-12.1737
▁طلاق	-12.174
سوال	-12.1744
▁خفا	-12.1744
▁سیاستگذار	-12.1755
▁بلد	-12.1757
▁مخالفند	-12.1762
▁مشق	-12.1762
▁کلاسیکو	-12.1763
نیاز	-12.1764
▁پذیرد	-12.1771
بندهای	-12.1772
▁اوتار	-12.1773
▁جاست	-12.1775
▁بزرگسال	-12.1777
▁ماجراهای	-12.1778
▁پناهندگان	-12.1792
▁متما	-12.1794
▁ترسند	-12.1795
▁آبیار	-12.1795
▁رایکو	-12.1801
▁هوادارن	-12.1802
▁خوشایند	-12.1802
▁قبرهای	-12.1804
چشمه	-12.1808
نتس	-12.1808
یرشا	-12.1816
▁فرگوس	-12.1824
▁حک	-12.1827
تص	-12.1833
▁جلوست	-12.1834
مانند	-12.1849
ستحق	-12.1853
▁صدیق	-12.1857
▁مجرمان	-12.1861
▁آمل	-12.1873
خسار	-12.1874
▁بایس	-12.1895
عود	-12.1896
▁ناخ	-12.1902
▁پشتکار	-12.1903
▁تایی	-12.1913
▁رن	-12.1917
▁تهدیدات	-12.1919
هرزاد	-12.192
▁پرتلا	-12.1921
▁موید	-12.1922
▁تاس	-12.1925
▁خصوصا	-12.1929
▁قا	-12.1931
خشنود	-12.1934
▁باشی	-12.1951
تمایل	-12.1956
▁خصوصیات	-12.1962
▁کشا	-12.1965
▁طبقات	-12.1974
▁درسا	-12.1978
▁پدرو	-12.198
۱۹۶۴	-12.1985
▁جیو	-12.1986
▁بدهیم	-12.1988
▁هرج	-12.1996
▁السلط	-12.1998
▁نتوا	-12.2021
رباب	-12.2023
▁منش	-12.2025
▁آنف	-12.2026
روید	-12.2027
ئوس	-12.204
▁بالاست	-12.204
گذرانند	-12.2042
▁چون	-12.2043
▁نبوی	-12.2045
▁فون	-12.2045
▁ژا	-12.2053
تابلو	-12.2054
سمن	-12.2057
▁ترسم	-12.2058
فسر	-12.2061
غو	-12.2063
انح	-12.2075
گرمی	-12.2075
▁کوچه	-12.2079
▁مسیریاب	-12.208
▁پرد	-12.2088
▁دیرین	-12.209
دال	-12.2093
کادی	-12.2096
▁وود	-12.211
▁عر	-12.2111
انستان	-12.2112
▁روست	-12.2114
تقابل	-12.2114
گذشته	-12.2137
▁نشدم	-12.214
▁اودی	-12.2143
▁مارسل	-12.2147
▁قمر	-12.2161
▁بلندهای	-12.2171
▁جده	-12.2172
موت	-12.2185
شنود	-12.2185
ورهم	-12.2185
مقا	-12.2186
▁گنجان	-12.221
شمن	-12.2223
▁پولدار	-12.2233
▁ترکمن	-12.2239
▁گرانش	-12.225
▁ویچ	-12.2252
▁رامین	-12.2255
▁فریم	-12.2258
▁فیو	-12.2262
▁هاستل	-12.2266
▁آمری	-12.229
▁لوب	-12.2304
▁پونت	-12.231
▁راهیاب	-12.234
راث	-12.2343
▁ترساند	-12.2347
حریف	-12.2361
▁ارغ	-12.237
▁راهور	-12.2372
▁سکوی	-12.2378
رپر	-12.2385
▁بیند	-12.2413
بندند	-12.2434
الیس	-12.2436
▁پاپو	-12.245
▁قضا	-12.246
▁خطرهای	-12.246
▁بخ	-12.2486
ادزه	-12.249
▁تریک	-12.2497
▁سوپ	-12.2498
▁درانی	-12.2506
▁استانداردها	-12.2539
ندر	-12.2542
▁گزی	-12.2561
هشتم	-12.2564
تیو	-12.2583
▁وکا	-12.2602
رمو	-12.2612
▁بینداز	-12.2613
▁ترها	-12.2616
▁جووان	-12.2626
لمن	-12.2656
▁مالت	-12.267
ائز	-12.2679
یرجان	-12.2684
▁کارول	-12.2685
پال	-12.2695
▁رق	-12.2706
العمل	-12.2734
▁سوک	-12.2737
انتری	-12.2743
▁پروس	-12.2769
تراپ	-12.277
▁فرودست	-12.2771
▁لاین	-12.2773
▁تئاترها	-12.2799
جروم	-12.281
▁انبارها	-12.2812
▁عمرم	-12.2817
▁موثرتر	-12.2828
▁گذرانی	-12.283
▁مضا	-12.2854
▁دبیل	-12.2857
دهم	-12.2857
▁ویلر	-12.287
▁وارن	-12.288
▁کتا	-12.2889
▁آق	-12.289
▁کانا	-12.2932
اپار	-12.2959
ضراب	-12.2962
▁بدنساز	-12.2973
▁چیپ	-12.2978
▁رزو	-12.2982
ادری	-12.3005
▁بیکاران	-12.3013
▁چت	-12.3063
▁۱۸۴	-12.3066
دوگا	-12.3081
▁گلشی	-12.3084
ورود	-12.3091
ارگ	-12.31
▁گرداند	-12.3109
▁مارین	-12.3141
▁گذرا	-12.3149
▁دریاها	-12.3156
▁آسو	-12.3158
▁حقوقدان	-12.3177
▁لایک	-12.3215
▁کیک	-12.322
▁تغییرهای	-12.3221
وگند	-12.3228
▁غیرمت	-12.3234
▁۱۲۵	-12.3252
▁پرداختن	-12.3253
سارو	-12.3272
کولبر	-12.3273
نچ	-12.3282
▁پارسا	-12.3322
▁ابرها	-12.3323
وردی	-12.3377
نگل	-12.3401
▁گذران	-12.3417
تاکس	-12.3489
سرگ	-12.3499
الیزا	-12.3521
مایند	-12.3592
ساط	-12.3617
▁ماهیان	-12.3659
▁رکن	-12.3661
فتند	-12.3709
هرام	-12.3727
غفو	-12.3744
▁فیزیوتراپی	-12.3766
سالگی	-12.3793
▁وینس	-12.3808
▁شناورها	-12.3819
ناوند	-12.3922
▁بورد	-12.3936
طم	-12.395
▁تمل	-12.3955
انزلی	-12.3956
▁جهانبخ	-12.3962
▁هریس	-12.3981
دینامیک	-12.399
خواند	-12.3995
ارج	-12.4015
نورد	-12.4029
سپورت	-12.4035
▁رویاها	-12.4058
وانا	-12.4067
▁بپی	-12.4073
۶۸	-12.4082
عرض	-12.4103
▁نرفتن	-12.4115
حضرت	-12.4133
فلورای	-12.4143
▁صو	-12.4163
▁سب	-12.4164
▁فرما	-12.4174
رگاه	-12.4199
▁گرو	-12.4229
صدای	-12.4234
قویا	-12.4234
▁معا	-12.425
گوپ	-12.428
▁هجده	-12.431
زبور	-12.432
تراز	-12.4327
کنند	-12.433
بسیار	-12.4332
آقا	-12.4336
رآواز	-12.4342
حسا	-12.4349
▁پاها	-12.4353
▁مومی	-12.4356
نگران	-12.437
خامن	-12.4378
▁اتم	-12.4382
وانگ	-12.4404
▁۴۸۰	-12.4406
▁نجوم	-12.4422
▁معتمد	-12.4435
▁عثمان	-12.4436
▁غفور	-12.4446
▁محتوا	-12.4452
▁تیرانداز	-12.4457
▁اظهارنظرها	-12.4479
یکایی	-12.4482
▁فقرا	-12.4485
آلبر	-12.4497
▁ادعاها	-12.4522
قامت	-12.4546
▁دیوارها	-12.4551
▁گرسن	-12.4559
ضیا	-12.4569
▁۶۲۰	-12.4578
ارکان	-12.4586
چیزی	-12.4599
فرمانی	-12.4599
روش	-12.4604
کوب	-12.4605
دروس	-12.4618
▁رف	-12.4623
دلیلش	-12.4634
▁تجار	-12.4638
اگرا	-12.4653
▁آغازکرد	-12.467
طالب	-12.4679
▁تیفو	-12.4686
پیر	-12.4688
۴۰۰	-12.4696
بورک	-12.4697
اغر	-12.4706
بازیکن	-12.471
▁هچ	-12.4711
▁تهدیدها	-12.4718
▁ناخوش	-12.4721
نخ	-12.4725
مسلم	-12.4735
تفاوت	-12.4735
داخل	-12.4738
انتقال	-12.4741
جعفر	-12.4742
وکلا	-12.4743
وصدا	-12.4744
دبیر	-12.4744
تناقض	-12.4744
کلیسای	-12.4745
انصاری	-12.4747
آلن	-12.4748
بالگرد	-12.4748
خالق	-12.4748
معمول	-12.4748
سیدن	-12.4748
رونالدینیو	-12.4748
داقبال	-12.4748
جزییات	-12.4749
فتاح	-12.475
نشدنی	-12.475
کیانوش	-12.475
عطرساز	-12.4751
تفاهم	-12.4751
آشفت	-12.4751
غریب	-12.4751
بنکسی	-12.4751
مهندس	-12.4751
لوئی	-12.4751
منتف	-12.4751
هیوندای	-12.4751
تیرماه	-12.4751
منچسترسیتی	-12.4752
فایزر	-12.4752
توتال	-12.4752
تجهیزات	-12.4752
تکمیل	-12.4752
خودکشی	-12.4752
وبسایت	-12.4752
فولاد	-12.4752
آذر	-12.4752
آرسنال	-12.4752
شاملو	-12.4752
فیسبوک	-12.4752
متخصص	-12.4752
خورشید	-12.4752
ضرور	-12.4752
عرص	-12.4752
سرپرست	-12.4752
عصر	-12.4752
رئال	-12.4752
سفارت	-12.4752
برزیل	-12.4752
بحرین	-12.4753
جیمز	-12.4753
تزریق	-12.4753
المپیک	-12.4753
برخورد	-12.4753
فراموش	-12.4753
تدریج	-12.4753
امضا	-12.4753
اطمینان	-12.4753
فساد	-12.4753
سفیر	-12.4753
خودروساز	-12.4753
بارسلونا	-12.4753
صحبت	-12.4753
ماراتن	-12.4753
خیابان	-12.4753
مصاحبه	-12.4753
سرنوشت	-12.4753
ظریف	-12.4753
واحد	-12.4753
سرمربی	-12.4753
تلویزیون	-12.4753
ورزش	-12.4753
حمایت	-12.4753
رابطه	-12.4753
کمبود	-12.4753
صعود	-12.4753
برخلاف	-12.4754
شعر	-12.4754
سبک	-12.4754
عملکرد	-12.4754
خالی	-12.4754
سبز	-12.4754
بودجه	-12.4754
ساترا	-12.4754
نویسندگان	-12.4754
شرط	-12.4754
جمله	-12.4755
سریال	-12.4755
آتش	-12.4755
چاپ	-12.4755
پیکر	-12.4755
مجله	-12.4755
حذف	-12.4756
بیانیه	-12.4756
ایسنا	-12.4756
مجری	-12.4756
تماس	-12.4756
هدایت	-12.4756
خدم	-12.4757
ساخته	-12.4757
هفتم	-12.4757
عملیات	-12.4757
داریوش	-12.4758
حکیم	-12.476
پیدا	-12.476
خواننده	-12.476
کاخ	-12.476
جدید	-12.4761
مثل	-12.4762
رجب	-12.4762
نکا	-12.4764
معمولا	-12.4765
تایید	-12.4766
توییتر	-12.4766
قرارداد	-12.4767
علنی	-12.4768
جدال	-12.4769
استیل	-12.477
جدول	-12.4771
واکسن	-12.4773
جنگل	-12.4773
پشت	-12.4774
نادال	-12.4777
چای	-12.4777
شمالی	-12.4777
ریزش	-12.478
درمانی	-12.4783
ژیل	-12.4788
فراز	-12.479
زاق	-12.4791
ارزها	-12.4791
▁مسیرها	-12.4794
مصرف	-12.4801
ناسا	-12.4801
کریک	-12.4802
بشر	-12.4803
کمک	-12.4803
بریتانیایی	-12.4804
امشب	-12.4805
زارها	-12.4807
گیرش	-12.4807
شاهد	-12.4811
▁متروک	-12.4812
▁بحر	-12.4814
کنار	-12.4815
بدهی	-12.4816
گذراند	-12.4819
کاوا	-12.4822
مرور	-12.4823
▁نگو	-12.4827
چار	-12.4832
دافع	-12.4835
▁گنا	-12.4839
▁رحیم	-12.4839
تراتو	-12.4842
بازارهای	-12.4844
ریخت	-12.4845
طابق	-12.4845
▁اپلیکیش	-12.4846
▁قرائ	-12.4847
ئیت	-12.4849
رافی	-12.4853
طفی	-12.4853
ئیل	-12.4854
▁مقاوم	-12.4856
شکست	-12.4856
پوشانی	-12.4856
▁آرنو	-12.4857
دگار	-12.4858
واضع	-12.4858
▁آپار	-12.4859
▁الکترود	-12.4859
▁محدو	-12.486
▁برگردان	-12.486
حبو	-12.4863
یکصد	-12.4864
▁ظالم	-12.4866
اراگوئه	-12.4869
▁فدا	-12.487
ستاگرام	-12.487
▁تظاهر	-12.4871
ویتز	-12.4871
پارتمان	-12.4871
▁طع	-12.4872
کوبا	-12.4872
خوف	-12.4872
▁نباشیم	-12.4874
▁ابرکامپیوترها	-12.4874
▁الکترومغناطیس	-12.4874
▁انسولین	-12.4874
▁بشناسد	-12.4874
▁تمسخر	-12.4874
▁خاستگاه	-12.4874
▁خرگوش	-12.4874
▁روئی	-12.4874
▁سولوویوف	-12.4874
▁غوغای	-12.4874
▁متعاقب	-12.4874
▁مخترع	-12.4874
▁مقتض	-12.4874
▁ناپلئون	-12.4874
▁ولگردها	-12.4874
▁ومعرف	-12.4874
▁چهارچوب	-12.4874
▁ژئوپلتیک	-12.4874
▁گاسکوئین	-12.4874
▁گردآمد	-12.4874
▁الاسلام	-12.4874
▁امثال	-12.4874
▁تکواندو	-12.4874
▁ریاکاری	-12.4874
▁فاحش	-12.4874
▁همقطاران	-12.4874
▁اسپانسر	-12.4874
▁العالم	-12.4874
▁متذکر	-12.4874
▁مزاح	-12.4874
▁وبیتکو	-12.4874
▁ناظمی	-12.4874
▁نردبان	-12.4874
▁بااستعداد	-12.4874
▁بکشاند	-12.4874
▁شرمسار	-12.4874
▁وبلاگ	-12.4874
▁اکونومی	-12.4874
▁خویشاوند	-12.4874
▁غفار	-12.4874
▁استنشاق	-12.4874
▁پلاکاردها	-12.4874
▁اتوبان	-12.4874
▁صحافی	-12.4874
▁نگشته	-12.4874
▁سربگیرند	-12.4874
▁اگنس	-12.4874
▁کربلا	-12.4874
▁گسست	-12.4874
▁آلمادو	-12.4874
▁بمانید	-12.4874
▁قاپید	-12.4874
▁تشابه	-12.4874
▁پولانسکی	-12.4874
▁عقوبت	-12.4874
▁فینچر	-12.4874
▁عنف	-12.4874
▁وصیت	-12.4874
▁سفال	-12.4874
▁سمنگان	-12.4874
▁روایات	-12.4874
▁هورایزن	-12.4874
▁فاسد	-12.4874
▁ابلهان	-12.4874
▁درنوردید	-12.4874
تیاگو	-12.4874
ناملموس	-12.4874
▁مانیتور	-12.4874
▁جوانبخت	-12.4874
▁گمپرت	-12.4874
▁اوکلاه	-12.4874
▁نیفتند	-12.4874
حرمسرا	-12.4874
▁حیفا	-12.4875
▁سیدابراهیم	-12.4875
▁سمفونی	-12.4875
▁کوانت	-12.4875
▁گلیزر	-12.4875
▁پردیس	-12.4875
▁بیابند	-12.4875
▁فورهند	-12.4875
▁آلترن	-12.4875
▁۱۹۱۲	-12.4875
▁رهنوش	-12.4875
▁بنویس	-12.4875
▁اسنوبرد	-12.4875
▁ایرانشناس	-12.4875
▁معبد	-12.4875
▁اوباش	-12.4875
▁متهیا	-12.4876
▁غنای	-12.4876
▁۵۳ساله	-12.4876
▁میکردند	-12.4876
ضلع	-12.4876
▁گنجایش	-12.4876
▁مقل	-12.4876
▁بیایید	-12.4876
▁گاندو	-12.4876
▁بخواب	-12.4877
▁کانتون	-12.4877
▁موتورسوار	-12.4877
▁نومید	-12.4877
▁طومار	-12.4877
▁مهدیخانی	-12.4877
▁داکا	-12.4877
کشور	-12.4877
▁بردارم	-12.4877
▁تلاقی	-12.4877
▁کلمبو	-12.4877
▁مرزبندی	-12.4877
▁ضدویروس	-12.4877
▁کالینز	-12.4877
▁رادارها	-12.4877
▁خیاط	-12.4877
لجستیک	-12.4877
▁هتلداران	-12.4878
▁بیندازید	-12.4878
▁توکلی	-12.4878
▁رادیکا	-12.4878
▁بازوهای	-12.4878
▁آلفرد	-12.4878
▁تبهکار	-12.4878
▁مقننه	-12.4878
مویرگی	-12.4878
▁مدعا	-12.4879
▁گرکان	-12.4879
▁اپوز	-12.4879
▁فروزان	-12.4879
▁آندریا	-12.488
▁ببخشد	-12.488
▁بگریزد	-12.488
▁بکاهد	-12.488
▁ترمز	-12.488
▁الاغ	-12.488
▁واداشته	-12.488
▁ایروان	-12.4881
▁حکاک	-12.4881
▁وولف	-12.4881
▁پنهانکاری	-12.4881
▁منشور	-12.4881
▁مائور	-12.4881
▁قدیس	-12.4882
▁غص	-12.4882
▁بکنند	-12.4882
▁بنشینند	-12.4882
ماگو	-12.4884
▁زمام	-12.4884
▁نوازد	-12.4884
▁فرازمند	-12.4885
▁فرمایش	-12.4885
وتنبرگ	-12.4885
▁استیشن	-12.4885
▁پرنفوذ	-12.4885
▁فدریک	-12.4886
▁ولیحی	-12.4886
دومین	-12.4886
▁متأسف	-12.4886
▁کاکس	-12.4886
▁قرآن	-12.4886
▁لئون	-12.4886
▁پسندید	-12.4886
▁بصیر	-12.4888
▁۱۳۸۰	-12.4888
▁بندپی	-12.4888
▁سرمست	-12.4888
▁الکترودهای	-12.4888
کورا	-12.4889
▁بزنید	-12.4889
عاش	-12.4889
فاخر	-12.489
بنز	-12.489
▁کوارت	-12.4891
▁سنجاب	-12.4891
▁نپرداخت	-12.4891
▁مکاتبات	-12.4891
▁دستگیرزاده	-12.4892
▁شمرد	-12.4892
ارتش	-12.4892
▁کاونت	-12.4893
▁شرافت	-12.4893
▁نیمرخ	-12.4894
▁بزنیم	-12.4894
دندان	-12.4895
▁۱۹۳۹	-12.4895
▁عوام	-12.4896
▁حشرات	-12.4896
▁عرق	-12.4897
▁معاند	-12.4897
▁نوگرا	-12.4897
▁مبنا	-12.4898
▁شفی	-12.4898
▁قلو	-12.4898
کاب	-12.4899
▁ترفندهای	-12.49
▁میکند	-12.49
ثمی	-12.49
▁انریک	-12.49
▁کاوش	-12.49
▁ضمیر	-12.4901
▁محک	-12.4901
▁حادتر	-12.4901
پپ	-12.4901
▁ستود	-12.4903
▁آنالیز	-12.4903
صفر	-12.4904
▁نرود	-12.4904
دورا	-12.4904
▁دمید	-12.4905
▁افراز	-12.4905
قیاف	-12.4905
▁شنیدم	-12.4905
▁پالیس	-12.4905
▁رهن	-12.4906
▁مگاصیص	-12.4906
▁نامطلوب	-12.4906
▁ملایم	-12.4907
▁کولون	-12.4908
▁بروکلی	-12.4908
▁همدم	-12.4908
۹۸۰	-12.491
▁هنرپیشگ	-12.491
▁گریختند	-12.4911
▁شوش	-12.4911
فرشی	-12.4912
سایر	-12.4914
▁بوسد	-12.4914
▁پراوی	-12.4914
▁همنوا	-12.4915
نوسان	-12.4915
▁نوشتاری	-12.4916
شهرهای	-12.4916
▁کراش	-12.4916
▁سالوادور	-12.4919
▁فتوا	-12.492
▁دایان	-12.4921
▁شهرنشین	-12.4921
▁هملت	-12.4921
▁پوسترهای	-12.4922
▁گیگاب	-12.4922
▁آپارت	-12.4923
▁خونبار	-12.4924
▁فغان	-12.4924
▁اولترا	-12.4925
گمانه	-12.4927
▁تازیان	-12.4927
▁نویسند	-12.4928
▁کشمیر	-12.4929
▁اوصاف	-12.493
پرت	-12.4931
▁سلب	-12.4932
▁فالک	-12.4932
پابلیک	-12.4932
▁کوکو	-12.4932
▁تقلی	-12.4932
▁مانورهای	-12.4933
روژن	-12.4935
▁پهپادهای	-12.4935
▁جنایات	-12.4936
▁درخشد	-12.4936
▁رقصیدن	-12.4937
▁کبری	-12.4937
ستحکم	-12.4938
▁فاصل	-12.4938
▁لاور	-12.4939
▁ندانستند	-12.494
▁مشوقهای	-12.4941
اتاق	-12.4941
▁واژگان	-12.4943
▁لودو	-12.4943
زیچ	-12.4943
▁پاکیز	-12.4945
گات	-12.4945
حیط	-12.4946
▁هدفمند	-12.4947
▁دفع	-12.4948
▁لومب	-12.4948
▁تاکسیران	-12.4948
▁همدل	-12.4949
▁کورن	-12.4952
▁رافا	-12.4953
▁اینترف	-12.4954
زخ	-12.4954
▁ابزارک	-12.4956
رسد	-12.4957
▁خاش	-12.4961
▁درانتخابات	-12.4961
▁پنتاگون	-12.4962
▁دیوارنگار	-12.4962
▁اکولوژی	-12.4962
▁مفتو	-12.4962
▁باربارا	-12.4963
▁پردازیم	-12.4964
▁مولد	-12.4965
▁خیرخواه	-12.4968
▁اوستر	-12.4971
▁مسلم	-12.4971
▁نونو	-12.4973
▁پرفسور	-12.4973
▁بشویی	-12.4974
▁تحص	-12.4975
▁لمب	-12.4975
▁اکستر	-12.4976
▁بساط	-12.4977
▁برسید	-12.4977
▁کوکا	-12.4977
بلنک	-12.4978
آمدتر	-12.4978
▁ایمیل	-12.4979
▁ناراحتند	-12.4979
▁غز	-12.498
▁جالبند	-12.498
▁ناباور	-12.4981
هاوس	-12.4981
▁داس	-12.4982
▁مرک	-12.4983
حفاظ	-12.4984
امرویل	-12.4985
▁بیدگ	-12.4988
▁طالب	-12.4988
▁پرماجرا	-12.4991
▁۱۲۷	-12.4991
▁حوز	-12.4997
▁دستیار	-12.4998
▁سودده	-12.5
▁لیلا	-12.5002
اکمل	-12.5003
▁ایستادن	-12.5004
▁منصف	-12.5007
▁تاخت	-12.501
▁بادام	-12.5014
▁خوانیم	-12.5017
وارس	-12.5017
▁نزدند	-12.5018
▁سالخورد	-12.5018
ریتا	-12.5019
مدیران	-12.502
▁شنوند	-12.5022
▁هرچیز	-12.5024
▁نقدهای	-12.5024
▁تض	-12.5025
خواهر	-12.5029
بندها	-12.5032
▁آرمانگرا	-12.5036
▁نیکو	-12.5041
لاخ	-12.5047
▁ندادم	-12.505
سگ	-12.505
▁دلخو	-12.5053
▁کوهنوردان	-12.5054
▁الط	-12.5056
▁۶۱۲	-12.5061
▁زدیم	-12.5067
گردند	-12.5072
▁فرمانیه	-12.5072
▁دوتای	-12.5075
▁آوردیم	-12.508
زیاد	-12.5083
▁گوتر	-12.5085
▁جزیرو	-12.5086
▁رک	-12.5087
▁درمیان	-12.509
▁مکید	-12.5091
گشایش	-12.5091
گزین	-12.5095
چس	-12.51
▁درگذشتمحمد	-12.5103
▁جلا	-12.5105
▁پوسید	-12.5111
▁فرآور	-12.5113
▁نظار	-12.5124
▁برخوردارند	-12.5125
▁پریان	-12.5133
تیچ	-12.5134
▁زل	-12.5135
▁دزدید	-12.5137
▁زهی	-12.5137
▁دفاعیات	-12.5137
▁آوار	-12.514
▁برنج	-12.5149
▁چغا	-12.5152
▁مالدار	-12.5157
▁آغازکرده	-12.5165
▁بلیک	-12.5167
▁چول	-12.5169
▁بسا	-12.5171
▁دق	-12.5172
▁فیروزجا	-12.5183
▁دوروت	-12.5185
▁فلین	-12.5187
▁پولها	-12.5188
▁وایلر	-12.5195
▁جوانتر	-12.5198
ترونیک	-12.52
▁اجراست	-12.521
▁نشرات	-12.5214
▁مکزیکو	-12.5219
▁زیرپا	-12.5221
▁روایتگر	-12.5222
▁بلندق	-12.5224
اقت	-12.5224
▁سلط	-12.5228
▁بردیم	-12.5232
اوران	-12.5236
▁آمریکااست	-12.5243
▁پنس	-12.5245
ارتوم	-12.5246
▁پیوستند	-12.5246
▁ویو	-12.5263
▁اولیان	-12.5275
▁بدق	-12.5278
▁بالدار	-12.5285
▁نواز	-12.5291
▁آورید	-12.5297
▁چرخاند	-12.53
اگون	-12.5303
▁جهانگرد	-12.531
پسون	-12.5312
سماع	-12.5313
حانی	-12.5313
کنم	-12.5316
نهام	-12.532
شقان	-12.532
▁گیرا	-12.5327
اوج	-12.533
▁مستندهای	-12.5335
▁پودر	-12.5342
▁درازا	-12.5346
▁لگو	-12.5355
عمر	-12.5367
یدز	-12.5374
نگو	-12.5375
▁گیرم	-12.5379
▁جوانب	-12.538
▁تریست	-12.5393
وجیه	-12.5396
ردین	-12.5414
امیلی	-12.5417
▁چشمک	-12.5425
▁روپر	-12.5428
▁رزمند	-12.5428
▁مستن	-12.543
▁پهنا	-12.5431
▁نگارم	-12.5437
زندگان	-12.5448
▁ساند	-12.5452
▁کشو	-12.5456
ریتانی	-12.5457
▁معای	-12.5461
▁عصا	-12.5466
▁مواجهند	-12.5468
ماینر	-12.5473
سکان	-12.5476
▁خوردند	-12.5491
▁گرج	-12.5496
▁هیپستر	-12.5511
مگ	-12.5536
▁اض	-12.5537
▁بفهمی	-12.5538
▁فوتو	-12.5547
چهل	-12.5593
▁فاخر	-12.5598
▁همدست	-12.56
▁پیشنهادهای	-12.5618
حذ	-12.562
بریز	-12.5641
ستاران	-12.5657
▁بلن	-12.5664
▁حائ	-12.567
تورباز	-12.5673
▁کریک	-12.5675
سکین	-12.5677
یوآ	-12.5687
▁ریچ	-12.5697
▁سرکو	-12.5701
▁آوریم	-12.5715
▁کریستین	-12.5716
▁باختن	-12.5729
اسک	-12.5759
اچ	-12.5778
ورانگو	-12.5782
استیتس	-12.5791
رفتار	-12.5798
وبل	-12.5848
دیف	-12.5848
جزایر	-12.586
شرف	-12.5871
▁بپیچ	-12.5876
جیح	-12.5881
بدین	-12.5884
قایق	-12.5902
درینو	-12.5906
نورلند	-12.5922
▁۶۳۰	-12.5927
▁نائ	-12.5937
تلر	-12.5965
توپ	-12.5994
موش	-12.603
واچ	-12.6059
▁اکسپو	-12.607
▁مارکان	-12.6078
▁کتابدار	-12.6078
ناعت	-12.6096
▁کولا	-12.6097
▁عزیزانم	-12.6114
گویید	-12.6115
▁کولاک	-12.6127
واکس	-12.6131
▁درعی	-12.6138
فهیم	-12.6148
راکتور	-12.6152
چر	-12.6178
۷۱۰	-12.619
▁یوور	-12.6202
▁۱۵سال	-12.6204
نواختر	-12.6221
گرفت	-12.6236
▁کنج	-12.6239
▁آزمود	-12.6246
▁کارتن	-12.6254
یابد	-12.6325
نقا	-12.6336
▁۱۸۹	-12.6339
▁نخوان	-12.6356
▁بگویی	-12.6366
الیات	-12.6368
▁بازدیدها	-12.6375
▁کورم	-12.6385
انشناخت	-12.6433
▁طبل	-12.6437
▁جیم	-12.6471
رستان	-12.6488
ایکون	-12.6553
▁موتورس	-12.6564
▁ورن	-12.6581
▁مصا	-12.6638
بیا	-12.6668
▁بگذار	-12.6701
▁شاک	-12.6754
▁حیا	-12.6786
▁وکار	-12.6805
▁حدید	-12.6818
نیرو	-12.6825
▁پولاد	-12.6825
▁نیرومندتر	-12.6943
نواز	-12.699
موم	-12.6992
رج	-12.6992
ناوال	-12.7035
▁مثا	-12.7053
فهمد	-12.7104
۶۶	-12.7174
تژیک	-12.7177
▁بلوم	-12.7207
▁جفا	-12.7223
▁یورک	-12.7324
دئو	-12.7326
▁ذهنم	-12.7346
انگلر	-12.7351
▁ویرا	-12.7422
▁کینگز	-12.7552
آخ	-12.7556
گوید	-12.7585
اسکا	-12.7634
وانیم	-12.7639
شناخت	-12.7657
▁صب	-12.7674
▁السی	-12.7674
فاشی	-12.7725
▁هادس	-12.7989
اتریو	-12.7994
وئر	-12.8135
استفان	-12.8217
▁لورن	-12.8221
تیلن	-12.8237
▁انف	-12.8264
▁الجز	-12.8289
▁جنگیدن	-12.8403
راپ	-12.8407
خامت	-12.8416
عابد	-12.8458
▁غیربورسی	-12.8486
فکر	-12.85
▁آرکا	-12.8583
▁آلیس	-12.8626
اونت	-12.8649
استفن	-12.8661
دسیمون	-12.8746
▁فهمیدن	-12.8783
پنجاه	-12.8823
ماتیک	-12.8831
▁نیکول	-12.8833
پینو	-12.8839
▁خرو	-12.8848
▁هیپستره	-12.8913
میرز	-12.8927
زیتو	-12.8944
▁استروئید	-12.8948
▁چیزور	-12.897
تنبور	-12.8981
ئ	-15.1143
