{
  "src_word2id": {
    "<pad>": 0,
    "<s>": 1,
    "</s>": 2,
    "<unk>": 3,
    "ی": 4,
    ".": 5,
    "ه": 6,
    "▁است": 7,
    "▁می": 8,
    "▁": 9,
    "▁های": 10,
    "▁ایران": 11,
    "▁شده": 12,
    "،": 13,
    "▁سال": 14,
    "▁بود": 15,
    "▁یک": 16,
    "▁ها": 17,
    "▁شد": 18,
    "▁تصویر": 19,
    "▁کرده": 20,
    "▁ای": 21,
    "ان": 22,
    "▁کرد": 23,
    "منبع": 24,
    "▁شود": 25,
    "▁گفته": 26,
    "▁بر": 27,
    "▁خود": 28,
    "▁کند": 29,
    "▁دو": 30,
    "؛": 31,
    "ش": 32,
    "▁اند": 33,
    "▁کرونا": 34,
    "ت": 35,
    "▁ماه": 36,
    "▁در": 37,
    "▁کشور": 38,
    "▁پیش": 39,
    "▁آمریکا": 40,
    "ین": 41,
    "▁روز": 42,
    "▁گزارش": 43,
    "▁بی": 44,
    "▁فوتبال": 45,
    "▁دارد": 46,
    "م": 47,
    "▁کار": 48,
    "▁گفت": 49,
    "▁ا": 50,
    "▁دهد": 51,
    "▁به": 52,
    "▁تیم": 53,
    "▁کنند": 54,
    "▁اعلام": 55,
    "▁و": 56,
    "▁بازی": 57,
    "▁قرار": 58,
    "▁دیگر": 59,
    "▁م": 60,
    "▁شرکت": 61,
    "▁داده": 62,
    "▁دولت": 63,
    "▁هزار": 64,
    "ن": 65,
    "▁رئیس": 66,
    "▁دست": 67,
    "▁با": 68,
    "▁یا": 69,
    "▁خواهد": 70,
    "▁گذشته": 71,
    "▁سه": 72,
    "▁بین": 73,
    "▁جهان": 74,
    "▁آقای": 75,
    "▁هر": 76,
    "▁پس": 77,
    "▁گوید": 78,
    "▁بار": 79,
    "در": 80,
    "▁درصد": 81,
    "▁درباره": 82,
    "▁میلیون": 83,
    "▁آنها": 84,
    "▁تهران": 85,
    "▁نفر": 86,
    "▁دلیل": 87,
    "ند": 88,
    "▁چند": 89,
    "▁افزایش": 90,
    "▁'": 91,
    "▁لیگ": 92,
    "▁افغانستان": 93,
    "'": 94,
    "این": 95,
    "▁داد": 96,
    "▁بعد": 97,
    "▁هفته": 98,
    "▁از": 99,
    "های": 100,
    "و": 101,
    "▁جدید": 102,
    "س": 103,
    "▁ملی": 104,
    "▁بازار": 105,
    "▁حال": 106,
    ":": 107,
    "▁بوده": 108,
    "ا": 109,
    "▁قیمت": 110,
    "▁نام": 111,
    "▁خبر": 112,
    "ب": 113,
    "▁سازمان": 114,
    "ات": 115,
    "▁دلار": 116,
    "▁ویروس": 117,
    "▁جمهوری": 118,
    "▁فیلم": 119,
    "▁نمی": 120,
    "▁همه": 121,
    "▁یکی": 122,
    "▁باید": 123,
    "▁جهانی": 124,
    "▁برگزار": 125,
    "▁نفت": 126,
    "▁نظر": 127,
    "▁بیش": 128,
    "▁ترین": 129,
    "▁گرفته": 130,
    "▁تولید": 131,
    "▁هستند": 132,
    "▁مورد": 133,
    "▁مجلس": 134,
    "▁امروز": 135,
    "▁عنوان": 136,
    "ل": 137,
    "▁شدن": 138,
    "▁کاهش": 139,
    "▁علی": 140,
    "▁روی": 141,
    "▁چین": 142,
    "▁نیست": 143,
    "▁سر": 144,
    "▁ف": 145,
    "▁وزیر": 146,
    "▁بیشتر": 147,
    "▁شب": 148,
    "▁اخیر": 149,
    "د": 150,
    "▁بریتانیا": 151,
    "▁داشت": 152,
    "▁کردند": 153,
    "▁آغاز": 154,
    "▁وزارت": 155,
    "▁بودند": 156,
    "▁را": 157,
    "▁سی": 158,
    "▁اروپا": 159,
    "▁حدود": 160,
    "▁نیز": 161,
    "▁نشان": 162,
    "▁مقابل": 163,
    "▁راه": 164,
    "▁باشگاه": 165,
    "ترین": 166,
    "▁بانک": 167,
    "▁اقتصادی": 168,
    "▁تر": 169,
    "▁بزرگ": 170,
    "به": 171,
    "▁تحریم": 172,
    "▁برنامه": 173,
    "▁داشته": 174,
    "▁آن": 175,
    "▁باشد": 176,
    "▁همچنین": 177,
    "▁حضور": 178,
    "▁پایان": 179,
    "▁اساس": 180,
    "ر": 181,
    "▁انجام": 182,
    "▁ت": 183,
    "▁زمان": 184,
    "که": 185,
    "▁اولین": 186,
    "▁اش": 187,
    "▁توافق": 188,
    "▁منتشر": 189,
    "▁صورت": 190,
    "▁باز": 191,
    "▁شیوع": 192,
    "▁اول": 193,
    "▁شهر": 194,
    "▁واکسن": 195,
    "له": 196,
    "▁بخش": 197,
    "▁شوند": 198,
    "او": 199,
    "▁مردم": 200,
    "دامه": 201,
    "▁جمله": 202,
    "▁استفاده": 203,
    "▁میان": 204,
    "ز": 205,
    "▁ایرانی": 206,
    "ری": 207,
    "▁میلیارد": 208,
    "▁گل": 209,
    "▁وجود": 210,
    "▁کم": 211,
    "گی": 212,
    "آقای": 213,
    "▁رسید": 214,
    "▁تومان": 215,
    "▁ارز": 216,
    "▁شورا": 217,
    "▁دارند": 218,
    "▁مسابقه": 219,
    "▁همین": 220,
    "؟": 221,
    "▁المللی": 222,
    "▁فصل": 223,
    "▁گروه": 224,
    "▁زندگی": 225,
    "▁حقوق": 226,
    "▁خواست": 227,
    "▁ب": 228,
    "▁مسابقات": 229,
    "▁دی": 230,
    "▁چهار": 231,
    "▁شدند": 232,
    "▁مقام": 233,
    "▁آینده": 234,
    "▁تمام": 235,
    "▁تنها": 236,
    "▁نرخ": 237,
    "▁اسلامی": 238,
    "▁وضعیت": 239,
    "▁گیری": 240,
    "▁محمد": 241,
    "▁خانه": 242,
    "▁ماشین": 243,
    "▁اقتصاد": 244,
    "انه": 245,
    "▁افراد": 246,
    "بدون": 247,
    "▁هایی": 248,
    "▁انتخابات": 249,
    "▁امسال": 250,
    "▁وقت": 251,
    "▁گرفت": 252,
    "▁برتر": 253,
    "▁غیر": 254,
    "▁کردن": 255,
    "▁دوران": 256,
    "نه": 257,
    "▁س": 258,
    "▁زنان": 259,
    "▁بیماری": 260,
    "▁خارجه": 261,
    "عث": 262,
    "▁توان": 263,
    "▁قبل": 264,
    "▁شرایط": 265,
    "ار": 266,
    "▁حالی": 267,
    "▁کمی": 268,
    "▁۲۰": 269,
    "▁پ": 270,
    "▁هیچ": 271,
    "▁روحانی": 272,
    "▁زیاد": 273,
    "▁فعالیت": 274,
    "▁بسیاری": 275,
    "▁اجتماعی": 276,
    "ها": 277,
    "▁تلاش": 278,
    "▁نزدیک": 279,
    "▁وارد": 280,
    "▁جام": 281,
    "▁تواند": 282,
    "شان": 283,
    "▁گویند": 284,
    "▁نه": 285,
    "▁منبع": 286,
    "▁ن": 287,
    "▁طور": 288,
    "یت": 289,
    "▁طرح": 290,
    "▁تازه": 291,
    "▁نخست": 292,
    "▁کمک": 293,
    "▁بسیار": 294,
    "▁حالا": 295,
    "▁کشورهای": 296,
    "▁مهم": 297,
    "▁ولی": 298,
    "▁فروش": 299,
    "▁مختلف": 300,
    "▁خانواده": 301,
    "▁جان": 302,
    "▁تغییر": 303,
    "▁مدت": 304,
    "▁سوی": 305,
    "▁مرکزی": 306,
    "▁اطلاعات": 307,
    "نوز": 308,
    "▁پنج": 309,
    "▁ساله": 310,
    "▁زن": 311,
    "▁تصمیم": 312,
    "▁بورس": 313,
    "▁تاریخ": 314,
    "▁رسان": 315,
    "▁همراه": 316,
    "▁زمین": 317,
    "▁پی": 318,
    "▁منطقه": 319,
    "▁بالا": 320,
    "قط": 321,
    "▁دوره": 322,
    "▁۱۹": 323,
    "▁خودرو": 324,
    "▁قهرمان": 325,
    "▁سرمایه": 326,
    "▁برای": 327,
    "▁دهه": 328,
    "▁رسمی": 329,
    "▁اثر": 330,
    "▁درگذشت": 331,
    "▁موسیقی": 332,
    "▁حت": 333,
    "▁بعضی": 334,
    "▁مرکز": 335,
    "▁پرسپولیس": 336,
    "▁ریاست": 337,
    "گان": 338,
    "ق": 339,
    "▁اشار": 340,
    "▁آخر": 341,
    "نامه": 342,
    "▁شکست": 343,
    "▁آمار": 344,
    "▁نوشته": 345,
    "▁قهرمانی": 346,
    "▁اصلی": 347,
    "▁کر": 348,
    "▁نقش": 349,
    "▁که": 350,
    "▁حمله": 351,
    "▁پیدا": 352,
    "▁دوم": 353,
    "▁برجام": 354,
    "▁مراسم": 355,
    "▁اینک": 356,
    "▁برابر": 357,
    "▁ه": 358,
    "▁کنار": 359,
    "▁بررسی": 360,
    "▁رقابت": 361,
    "▁۱۰": 362,
    "▁شروع": 363,
    "▁میلادی": 364,
    "با": 365,
    "ست": 366,
    "▁عکس": 367,
    "▁جمهور": 368,
    "یک": 369,
    "▁آمریکایی": 370,
    "▁فدراسیون": 371,
    "▁دانشگاه": 372,
    "▁پر": 373,
    "ثبت": 374,
    "▁زیر": 375,
    "▁پول": 376,
    "▁برخ": 377,
    "▁اعتراض": 378,
    "▁یافته": 379,
    "▁رسیده": 380,
    "▁رفت": 381,
    "بر": 382,
    "▁ویژ": 383,
    "▁هسته": 384,
    "▁ساعت": 385,
    "▁سفر": 386,
    "ور": 387,
    "▁آزاد": 388,
    "▁کشتی": 389,
    "▁حاضر": 390,
    "▁کل": 391,
    "▁دنیا": 392,
    "▁صد": 393,
    "▁نتیج": 394,
    "▁۵": 395,
    "▁استان": 396,
    "▁سیاسی": 397,
    "▁۴": 398,
    "▁مالی": 399,
    "▁موضوع": 400,
    "▁دور": 401,
    "▁الله": 402,
    "▁ممکن": 403,
    "▁پرداخت": 404,
    "▁کمتر": 405,
    "▁توجه": 406,
    "▁همکاری": 407,
    "▁ندارد": 408,
    "▁کنیم": 409,
    "▁نشده": 410,
    "▁رد": 411,
    "▁سابق": 412,
    "▁کتاب": 413,
    "▁سهام": 414,
    "▁واکنش": 415,
    "توسط": 416,
    "▁شش": 417,
    "▁هم": 418,
    "▁طی": 419,
    "▁ش": 420,
    "▁گذاری": 421,
    "▁دنبال": 422,
    "▁شنبه": 423,
    "▁سیاست": 424,
    "▁بازیکن": 425,
    "▁دریافت": 426,
    "▁او": 427,
    "▁عراق": 428,
    "▁حمایت": 429,
    "▁آژانس": 430,
    "▁ده": 431,
    "▁عرض": 432,
    "▁جایزه": 433,
    "▁هدف": 434,
    "▁خام": 435,
    "▁رشد": 436,
    "▁ترکیه": 437,
    "▁ترامپ": 438,
    "اکنون": 439,
    "▁بودجه": 440,
    "▁استقلال": 441,
    "ک": 442,
    "▁۲": 443,
    "▁۲۰۲۰": 444,
    "▁خرید": 445,
    "▁آب": 446,
    "▁انتشار": 447,
    "▁فرانسه": 448,
    "▁آی": 449,
    "۸": 450,
    "▁ر": 451,
    "▁دهند": 452,
    "▁آلمان": 453,
    "▁این": 454,
    "▁سازی": 455,
    "▁تعطیل": 456,
    "▁متهم": 457,
    "▁آمده": 458,
    "▁زبان": 459,
    "نی": 460,
    "▁رسد": 461,
    "ایی": 462,
    "▁خبرگزا": 463,
    "▁انرژی": 464,
    "▁ام": 465,
    "▁نامه": 466,
    "▁نیمه": 467,
    "▁اج": 468,
    "▁پیروز": 469,
    "▁یافت": 470,
    "▁عربستان": 471,
    "▁نا": 472,
    "▁همان": 473,
    "▁چنین": 474,
    "▁بازداشت": 475,
    "▁مذاکرات": 476,
    "روز": 477,
    "رونده": 478,
    "▁طر": 479,
    "▁رو": 480,
    "▁نیاز": 481,
    ")": 482,
    "▁بهداشت": 483,
    "▁شمار": 484,
    "▁مدیر": 485,
    "▁نیم": 486,
    "▁اجرای": 487,
    "▁اتحاد": 488,
    "▁لیورپول": 489,
    "▁روند": 490,
    "▁هشدار": 491,
    "▁تبدیل": 492,
    "▁تایید": 493,
    "▁سوم": 494,
    "▁تلویزیون": 495,
    "▁خارجی": 496,
    "▁حسن": 497,
    "▁محل": 498,
    "▁صادرات": 499,
    "▁میزان": 500,
    "ازه": 501,
    "▁هفت": 502,
    "▁قهرمانان": 503,
    "▁ورزش": 504,
    "▁خارج": 505,
    "▁دیدار": 506,
    "▁قابل": 507,
    "▁آزمایش": 508,
    "▁دیده": 509,
    "▁خط": 510,
    "▁(": 511,
    "▁کشته": 512,
    "یق": 513,
    "ون": 514,
    "ِ": 515,
    "▁ایجاد": 516,
    "▁بازیکنان": 517,
    "سیون": 518,
    "▁خواهند": 519,
    "▁دادگاه": 520,
    "▁مجموعه": 521,
    "▁اقدام": 522,
    "▁مربوط": 523,
    "▁نهایی": 524,
    "▁مشخص": 525,
    "▁جریان": 526,
    "▁جنوبی": 527,
    "گیری": 528,
    "▁بازگشت": 529,
    "▁اسرائیل": 530,
    "▁زندان": 531,
    "▁۳": 532,
    "▁مبارز": 533,
    "▁عضو": 534,
    "از": 535,
    "▁قانون": 536,
    "کسب": 537,
    "▁مرگ": 538,
    "▁خیل": 539,
    "▁سرمربی": 540,
    "▁لغ": 541,
    "▁مدل": 542,
    "▁بشر": 543,
    "▁زمانی": 544,
    "▁فاصله": 545,
    "▁کس": 546,
    "▁حکم": 547,
    "▁روسیه": 548,
    "▁برد": 549,
    "▁انتخاب": 550,
    "▁زده": 551,
    "▁امنیت": 552,
    "▁خطر": 553,
    "▁حکومت": 554,
    "▁دولتی": 555,
    "▁مرد": 556,
    "▁ابتلا": 557,
    "▁رود": 558,
    "▁صنعت": 559,
    "▁دوبار": 560,
    "▁چرا": 561,
    "▁سخت": 562,
    "▁ارتباط": 563,
    "▁داستان": 564,
    "▁ارزش": 565,
    "▁انگلیس": 566,
    "▁رهبر": 567,
    "▁بست": 568,
    "▁دقیق": 569,
    "▁بیمارستان": 570,
    "▁اتمی": 571,
    "▁نقل": 572,
    "▁خاطر": 573,
    "▁سن": 574,
    "▁نمایش": 575,
    "▁نمایند": 576,
    "▁نگاه": 577,
    "▁جلو": 578,
    "▁زمینه": 579,
    "▁محدودیت": 580,
    "▁تعداد": 581,
    "▁پلیس": 582,
    "▁کابل": 583,
    "▁درآمد": 584,
    "▁اعضای": 585,
    "▁عمومی": 586,
    "▁سو": 587,
    "ول": 588,
    "▁کننده": 589,
    "▁۳۰": 590,
    "▁نمایندگان": 591,
    "▁۶": 592,
    "▁سخنگوی": 593,
    "▁ساخته": 594,
    "▁تو": 595,
    "▁نسبت": 596,
    "▁تاثیر": 597,
    "▁آثار": 598,
    "▁ساخت": 599,
    "▁لندن": 600,
    "▁طرف": 601,
    "▁منابع": 602,
    "▁شکل": 603,
    "▁امنیتی": 604,
    "▁بیانیه": 605,
    "▁قرارداد": 606,
    "▁آ": 607,
    "▁ترک": 608,
    "▁معاون": 609,
    "▁همزمان": 610,
    "▁رکورد": 611,
    "▁کامل": 612,
    "▁کووید": 613,
    "▁آسیا": 614,
    "▁شناخت": 615,
    "▁طول": 616,
    "▁سپاه": 617,
    "▁جنگ": 618,
    "▁تع": 619,
    "▁امتیاز": 620,
    "▁جاری": 621,
    "▁انسان": 622,
    "▁بالای": 623,
    "▁پخ": 624,
    "▁سطح": 625,
    "▁گاز": 626,
    "مین": 627,
    "▁پزشکی": 628,
    "▁جلس": 629,
    "▁نظامی": 630,
    "▁روزهای": 631,
    "▁کودکان": 632,
    "▁هوای": 633,
    "▁انقلاب": 634,
    "▁قرنطینه": 635,
    "▁رای": 636,
    "ف": 637,
    "▁نیروهای": 638,
    "▁۲۵": 639,
    "▁سالگی": 640,
    "▁افت": 641,
    "▁توانست": 642,
    "▁عالی": 643,
    "▁المپیک": 644,
    "▁تحت": 645,
    "یم": 646,
    "▁تنیس": 647,
    "▁صندوق": 648,
    "▁جو": 649,
    "▁نشست": 650,
    "▁چهر": 651,
    "▁مطرح": 652,
    "▁دیگری": 653,
    "▁معرف": 654,
    "▁بخشی": 655,
    "▁دانست": 656,
    "▁انتظار": 657,
    "▁سابقه": 658,
    "▁نامزد": 659,
    "▁برق": 660,
    "▁داخل": 661,
    "▁گسترده": 662,
    "▁متحده": 663,
    "▁شدت": 664,
    "▁چ": 665,
    "▁قو": 666,
    "▁مصاحبه": 667,
    "▁هز": 668,
    "-": 669,
    "▁مرح": 670,
    "▁بحران": 671,
    "▁جدی": 672,
    "▁شدید": 673,
    "▁نکرده": 674,
    "ج": 675,
    "▁برنده": 676,
    "▁ج": 677,
    "ینه": 678,
    "▁انتقال": 679,
    "▁خوب": 680,
    "▁ظریف": 681,
    "▁بایدن": 682,
    "▁۲۰۰": 683,
    "▁جا": 684,
    "▁نگرانی": 685,
    "▁رفته": 686,
    "▁آیا": 687,
    "▁فشار": 688,
    "▁کسان": 689,
    "چه": 690,
    "تر": 691,
    "▁فعال": 692,
    "اما": 693,
    "ستاد": 694,
    "▁تصوی": 695,
    "▁متوقف": 696,
    "▁۲۰۱۹": 697,
    "▁گرفتن": 698,
    "▁انتقاد": 699,
    "▁فن": 700,
    "▁امور": 701,
    "▁ال": 702,
    "▁حساب": 703,
    "▁گذاشته": 704,
    "▁اتفاق": 705,
    "▁فرهنگ": 706,
    "▁۷": 707,
    "▁اتهام": 708,
    "▁اسفند": 709,
    "▁پاسخ": 710,
    "▁گیرد": 711,
    "▁دستگاه": 712,
    "▁پیشین": 713,
    "▁کشید": 714,
    "▁ایتالیا": 715,
    "▁قطع": 716,
    "▁ارائه": 717,
    "▁حرکت": 718,
    "▁جامعه": 719,
    "▁موسس": 720,
    "▁آمد": 721,
    "▁هند": 722,
    "▁۱۲": 723,
    "▁بد": 724,
    "▁نوشت": 725,
    "الات": 726,
    "▁نوع": 727,
    "▁قدرت": 728,
    "▁مشکلات": 729,
    "▁دونالد": 730,
    "▁فارسی": 731,
    "▁موج": 732,
    "▁بشک": 733,
    "▁دسترس": 734,
    "▁سینما": 735,
    "▁دستور": 736,
    "▁چهارم": 737,
    "▁اف": 738,
    "▁جای": 739,
    "▁طراح": 740,
    "▁فکر": 741,
    "▁خودش": 742,
    "۲": 743,
    "▁وی": 744,
    "▁فروردین": 745,
    "▁فینال": 746,
    "▁فضای": 747,
    "▁نفتی": 748,
    "▁آنچ": 749,
    "▁تن": 750,
    "▁محکوم": 751,
    "▁باشند": 752,
    "▁۱۴۰۰": 753,
    "▁سایر": 754,
    "▁۱": 755,
    "▁مرغ": 756,
    "▁تورم": 757,
    "▁همچن": 758,
    "▁داشتند": 759,
    "▁روزنامه": 760,
    "▁چشم": 761,
    "▁محدود": 762,
    "▁عد": 763,
    "▁اجرا": 764,
    "▁مانده": 765,
    "▁خانم": 766,
    "▁بلند": 767,
    "▁الکتریکی": 768,
    "▁قرن": 769,
    "▁ملل": 770,
    "▁۹": 771,
    "▁آزادی": 772,
    "▁مشکل": 773,
    "▁رقم": 774,
    "▁۱۵": 775,
    "▁یع": 776,
    "▁ورزشی": 777,
    "▁جمعیت": 778,
    "▁جنوب": 779,
    "▁دوشنبه": 780,
    "▁نو": 781,
    "▁غنی": 782,
    "▁بهتر": 783,
    "▁ورود": 784,
    "▁هنگام": 785,
    "▁مصوب": 786,
    "گاه": 787,
    "▁معاملات": 788,
    "▁دادن": 789,
    "▁امضا": 790,
    "▁احتمال": 791,
    "▁آسیب": 792,
    "▁محیط": 793,
    "▁پای": 794,
    "▁تک": 795,
    "▁چگون": 796,
    "▁آبان": 797,
    "▁خروج": 798,
    "ید": 799,
    "۴": 800,
    "▁بینی": 801,
    "▁مسئولان": 802,
    "▁ورزشگاه": 803,
    "ال": 804,
    "▁پشت": 805,
    "ً": 806,
    "▁رشت": 807,
    "▁۱۳": 808,
    "▁تشکیل": 809,
    "▁باقی": 810,
    "▁ناشی": 811,
    "▁دفاع": 812,
    "۵": 813,
    "▁دار": 814,
    "ده": 815,
    "▁جمعه": 816,
    "▁۵۰": 817,
    "▁شهرهای": 818,
    "▁فرهنگی": 819,
    "▁شجریان": 820,
    "▁انفجار": 821,
    "▁اسکار": 822,
    "▁آوریل": 823,
    "▁تجاری": 824,
    "▁شان": 825,
    "▁سیاه": 826,
    "▁واحد": 827,
    "▁۲۰۱": 828,
    "▁شامل": 829,
    "ویه": 830,
    "▁بتوان": 831,
    "▁تجرب": 832,
    "▁نهاد": 833,
    "▁محلی": 834,
    "▁تاکید": 835,
    "▁کنید": 836,
    "▁بارسلونا": 837,
    "▁شما": 838,
    "▁کارگران": 839,
    "▁ممنوع": 840,
    "▁اختیار": 841,
    "▁اروپایی": 842,
    "▁طولانی": 843,
    "▁یاد": 844,
    "▁علت": 845,
    "▁شاخص": 846,
    "▁قبلی": 847,
    "گر": 848,
    "۰۰": 849,
    "▁سیستم": 850,
    "▁شکایت": 851,
    "▁لای": 852,
    "▁ح": 853,
    "▁مربی": 854,
    "▁تاریخی": 855,
    "▁بودن": 856,
    "▁امکان": 857,
    "▁ترکیب": 858,
    "▁نبود": 859,
    "▁کوچک": 860,
    "▁متفاوت": 861,
    "▁نویسنده": 862,
    "وز": 863,
    "▁آتش": 864,
    "▁کنم": 865,
    "▁نیروی": 866,
    "▁درمان": 867,
    "▁۱۱": 868,
    "▁احتمالا": 869,
    "حه": 870,
    "▁ترتیب": 871,
    "▁صحبت": 872,
    "▁ضرب": 873,
    "▁مبتلا": 874,
    "▁مرتبط": 875,
    "حفظ": 876,
    "▁چپ": 877,
    "▁دادند": 878,
    "▁مسیر": 879,
    "▁شهروندان": 880,
    "▁ژان": 881,
    "▁۲۲": 882,
    "▁تحقیق": 883,
    "▁روبرو": 884,
    "▁لازم": 885,
    "سازی": 886,
    "▁د": 887,
    "▁قوانین": 888,
    "▁واردات": 889,
    "▁اولیه": 890,
    "▁نظام": 891,
    "ره": 892,
    "▁هنر": 893,
    "▁ونزوئلا": 894,
    "▁آستان": 895,
    "▁ماسک": 896,
    "▁حذف": 897,
    "▁نخواه": 898,
    "▁مشترک": 899,
    "▁کنترل": 900,
    "▁پروژه": 901,
    "▁مواد": 902,
    "▁درخواست": 903,
    "▁بیرون": 904,
    "▁داخلی": 905,
    "▁تامین": 906,
    "▁مسی": 907,
    "▁تحقیقات": 908,
    "▁عباس": 909,
    "▁پایین": 910,
    "▁ابتدای": 911,
    "ته": 912,
    "▁گذشت": 913,
    "▁قرمز": 914,
    "▁حل": 915,
    "▁سقوط": 916,
    "▁فرد": 917,
    "▁سوخت": 918,
    "▁شماری": 919,
    "▁۸": 920,
    "▁خوانده": 921,
    "▁ستار": 922,
    "▁میزبان": 923,
    "▁موارد": 924,
    "▁توسعه": 925,
    "▁نقاشی": 926,
    "▁خون": 927,
    "▁گو": 928,
    "رفع": 929,
    "پس": 930,
    "▁سنت": 931,
    "▁عمل": 932,
    "▁شاهد": 933,
    "▁هرات": 934,
    "▁یکشنبه": 935,
    "▁گون": 936,
    "اخر": 937,
    "نگ": 938,
    "▁افتاد": 939,
    "▁فهرست": 940,
    "▁بگیرد": 941,
    "▁نتایج": 942,
    "▁وین": 943,
    "دی": 944,
    "▁۴۰": 945,
    "▁نژاد": 946,
    "▁رییس": 947,
    "▁سمت": 948,
    "▁متر": 949,
    "▁مسئول": 950,
    "▁سرعت": 951,
    "▁آورد": 952,
    "▁اخیرا": 953,
    "▁طلا": 954,
    "▁چهارشنبه": 955,
    "▁مارادونا": 956,
    "▁شاید": 957,
    "یین": 958,
    "▁ان": 959,
    "▁هوا": 960,
    "▁همیشه": 961,
    "▁نظیر": 962,
    "▁نگهبان": 963,
    "▁زود": 964,
    "▁عامل": 965,
    "▁روابط": 966,
    "▁طبق": 967,
    "▁بالاتر": 968,
    "▁بندی": 969,
    "▁اختلاف": 970,
    "▁هشت": 971,
    "▁سریال": 972,
    "▁زاده": 973,
    "▁سلامت": 974,
    "▁سراسر": 975,
    "▁کلی": 976,
    "▁علاو": 977,
    "▁شمال": 978,
    "بی": 979,
    "▁۱۴": 980,
    "براز": 981,
    "▁برده": 982,
    "▁کارخان": 983,
    "▁تجارت": 984,
    "▁اتاق": 985,
    "▁جز": 986,
    "▁آماده": 987,
    "▁صفر": 988,
    "▁محمود": 989,
    "▁مارس": 990,
    "▁فعالان": 991,
    "▁تقریبا": 992,
    "▁کوتاه": 993,
    "▁دلایل": 994,
    "▁یورو": 995,
    "▁سوار": 996,
    "▁تهی": 997,
    "▁صادر": 998,
    "▁معروف": 999,
    "▁ولایت": 1000,
    "▁۲۰۲۱": 1001,
    "▁پارسال": 1002,
    "▁جشنواره": 1003,
    "▁بارها": 1004,
    "▁اس": 1005,
    "▁هایش": 1006,
    "▁قانونی": 1007,
    "▁هنری": 1008,
    "▁حادثه": 1009,
    "▁مصرف": 1010,
    "▁اقدامات": 1011,
    "▁قطر": 1012,
    "▁زد": 1013,
    "▁قصد": 1014,
    "▁۶۰": 1015,
    "▁رفتن": 1016,
    "▁کارگردان": 1017,
    "▁پور": 1018,
    "▁ندارند": 1019,
    "▁بخوانید": 1020,
    "▁اوپک": 1021,
    "▁تاج": 1022,
    "▁بدن": 1023,
    "▁کالا": 1024,
    "▁تاکنون": 1025,
    "▁احمد": 1026,
    "▁رسیدن": 1027,
    "▁فوت": 1028,
    "▁مشهور": 1029,
    "▁جمع": 1030,
    "▁اداره": 1031,
    "▁۹۸": 1032,
    "▁رمان": 1033,
    "▁ک": 1034,
    "▁غرب": 1035,
    "▁شناسا": 1036,
    "▁مهر": 1037,
    "▁اعدام": 1038,
    "▁ع": 1039,
    "▁هواپیمایی": 1040,
    "▁واقع": 1041,
    "▁رنگ": 1042,
    "▁۱۶": 1043,
    "▁مشابه": 1044,
    "▁حد": 1045,
    "▁صفح": 1046,
    "نمایی": 1047,
    "▁هواداران": 1048,
    "▁پیشنهاد": 1049,
    "▁نقطه": 1050,
    "▁بنزین": 1051,
    "▁دارایی": 1052,
    "▁مجازی": 1053,
    "▁تابستان": 1054,
    "▁گروهی": 1055,
    "▁کیلومتر": 1056,
    "▁کنندگان": 1057,
    "▁پرواز": 1058,
    "▁حق": 1059,
    "▁مناطق": 1060,
    "▁سیتی": 1061,
    "مان": 1062,
    "▁بیست": 1063,
    "▁پیام": 1064,
    "▁خوزستان": 1065,
    "▁رعایت": 1066,
    "▁عملیات": 1067,
    "▁سود": 1068,
    "▁فرم": 1069,
    "▁کاملا": 1070,
    "▁ماند": 1071,
    "▁اندازه": 1072,
    "▁خصوصی": 1073,
    "▁موفق": 1074,
    "▁قلب": 1075,
    "▁چاپ": 1076,
    "▁سایت": 1077,
    "▁سوریه": 1078,
    "▁زیست": 1079,
    "▁حرفه": 1080,
    "▁تهدید": 1081,
    "▁انگیز": 1082,
    "▁احیا": 1083,
    "▁نظارت": 1084,
    "▁عدالت": 1085,
    "▁فساد": 1086,
    "▁ایمن": 1087,
    "وق": 1088,
    "▁مت": 1089,
    "▁نهادهای": 1090,
    "▁کشورها": 1091,
    "▁زنده": 1092,
    "▁اطلاع": 1093,
    "▁مالیات": 1094,
    "اساس": 1095,
    "▁کاخ": 1096,
    "▁فرصت": 1097,
    "▁پاریس": 1098,
    "▁توییتر": 1099,
    "علی": 1100,
    "▁جهش": 1101,
    "▁برسد": 1102,
    "۶": 1103,
    "▁پدر": 1104,
    "▁عمده": 1105,
    "▁مرز": 1106,
    "▁محمو": 1107,
    "▁توصیف": 1108,
    "▁اینترنت": 1109,
    "▁رکود": 1110,
    "▁بریتانیایی": 1111,
    "▁کشف": 1112,
    "▁حوزه": 1113,
    "▁یونایتد": 1114,
    "▁اعتراضات": 1115,
    "▁جنسی": 1116,
    "▁کودک": 1117,
    "▁نگران": 1118,
    "▁کنون": 1119,
    "▁بایرن": 1120,
    "▁نسل": 1121,
    "▁۱۸": 1122,
    "▁مجوز": 1123,
    "▁جدول": 1124,
    "▁خواهان": 1125,
    "ایران": 1126,
    "▁آید": 1127,
    "▁علمی": 1128,
    "طور": 1129,
    "▁تا": 1130,
    "وی": 1131,
    "▁حزب": 1132,
    "▁سفید": 1133,
    "لی": 1134,
    "▁بازیگر": 1135,
    "▁مذاکر": 1136,
    "▁خالی": 1137,
    "▁افغان": 1138,
    "▁رابطه": 1139,
    "▁عملکرد": 1140,
    "▁چیزی": 1141,
    "▁پژوهش": 1142,
    "▁استرالیا": 1143,
    "ع": 1144,
    "▁کارگر": 1145,
    "▁توپ": 1146,
    "عده": 1147,
    "▁تصاویر": 1148,
    "▁۱۷": 1149,
    "▁روش": 1150,
    "▁سعید": 1151,
    "▁دهم": 1152,
    "▁۹۰": 1153,
    "▁گفتگو": 1154,
    "▁عبور": 1155,
    "▁میدان": 1156,
    "▁خودروساز": 1157,
    "▁صدا": 1158,
    "▁مواجه": 1159,
    "▁۵۰۰": 1160,
    "▁موافقت": 1161,
    "▁فدرر": 1162,
    "▁سنگین": 1163,
    "▁تغییرات": 1164,
    "▁فضایی": 1165,
    "▁دومین": 1166,
    "▁بزرگترین": 1167,
    "ح": 1168,
    "محمد": 1169,
    "▁مجموع": 1170,
    "▁پایتخت": 1171,
    "▁سنگ": 1172,
    "▁مک": 1173,
    "فورد": 1174,
    "▁سریع": 1175,
    "▁جوان": 1176,
    "▁بیکار": 1177,
    "▁گذار": 1178,
    "خانه": 1179,
    "▁چیز": 1180,
    "▁مجدد": 1181,
    "▁باخت": 1182,
    "▁تی": 1183,
    "▁روشن": 1184,
    "▁پنجم": 1185,
    "۷": 1186,
    "▁سکه": 1187,
    "▁ایالت": 1188,
    "▁مهدی": 1189,
    "▁درست": 1190,
    "▁ژوئن": 1191,
    "▁مشغول": 1192,
    "▁سرطان": 1193,
    "▁نفتکش": 1194,
    "▁بیشتری": 1195,
    "▁حب": 1196,
    "▁نشد": 1197,
    "▁دختر": 1198,
    "▁خواند": 1199,
    "۱": 1200,
    "▁برخورد": 1201,
    "▁رانند": 1202,
    "▁تاجیکستان": 1203,
    "▁مقایس": 1204,
    "▁مقررات": 1205,
    "▁موفقیت": 1206,
    "▁مردان": 1207,
    "▁امام": 1208,
    "▁خواننده": 1209,
    "▁کدام": 1210,
    "▁صدای": 1211,
    "▁لو": 1212,
    "▁رساند": 1213,
    "▁توضیح": 1214,
    "▁جدا": 1215,
    "▁مجبور": 1216,
    "▁آرژانتین": 1217,
    "▁جشن": 1218,
    "▁حسین": 1219,
    "▁فرمانده": 1220,
    "▁-": 1221,
    "▁سخنران": 1222,
    "▁چلسی": 1223,
    "▁مانع": 1224,
    "▁مدیریت": 1225,
    "▁پروازهای": 1226,
    "▁۲۴": 1227,
    "نجر": 1228,
    "▁ملت": 1229,
    "▁اضاف": 1230,
    "▁تجمع": 1231,
    "▁افتاده": 1232,
    "▁گاه": 1233,
    "دو": 1234,
    "▁بهار": 1235,
    "سی": 1236,
    "اس": 1237,
    "▁دریا": 1238,
    "▁حرف": 1239,
    "عمال": 1240,
    "ای": 1241,
    "▁قطعی": 1242,
    "▁منتقل": 1243,
    "▁خاک": 1244,
    "▁اظهارات": 1245,
    "ممنوعیت": 1246,
    "▁کاری": 1247,
    "ام": 1248,
    "▁۲۸": 1249,
    "وم": 1250,
    "▁پیشتر": 1251,
    "▁تشخیص": 1252,
    "▁روزانه": 1253,
    "▁ارتش": 1254,
    "▁ساختمان": 1255,
    "▁سفیر": 1256,
    "▁دفتر": 1257,
    "▁بهمن": 1258,
    "▁تاتنهام": 1259,
    "▁مل": 1260,
    "▁مه": 1261,
    "چند": 1262,
    "▁من": 1263,
    "▁برداشت": 1264,
    "▁احمدی": 1265,
    "▁تقوی": 1266,
    "▁خصوص": 1267,
    "یر": 1268,
    "▁پل": 1269,
    "▁قضایی": 1270,
    "▁واکسین": 1271,
    "▁ارشد": 1272,
    "▁دبیر": 1273,
    "▁مجله": 1274,
    "▁نشری": 1275,
    "▁بن": 1276,
    "▁رخ": 1277,
    "▁دکتر": 1278,
    "▁شاه": 1279,
    "▁اسپانیا": 1280,
    "▁یو": 1281,
    "▁نقاط": 1282,
    "▁بهبود": 1283,
    "▁۱۰۰": 1284,
    "عودی": 1285,
    "▁گذاشت": 1286,
    "▁خبرنگار": 1287,
    "▁بنا": 1288,
    "وایل": 1289,
    "▁مالک": 1290,
    "▁بیت": 1291,
    "▁دوچرخه": 1292,
    "▁انگلستان": 1293,
    "▁گردد": 1294,
    "▁یابد": 1295,
    "▁آورده": 1296,
    "▁واقعی": 1297,
    "▁بازارهای": 1298,
    "▁امیدوار": 1299,
    "▁کن": 1300,
    "▁حداقل": 1301,
    "▁دچار": 1302,
    "▁مرداد": 1303,
    "▁امیر": 1304,
    "▁بحث": 1305,
    "▁قدیمی": 1306,
    "▁منف": 1307,
    "▁هنرمند": 1308,
    "پ": 1309,
    "▁ریز": 1310,
    "▁اوت": 1311,
    "▁بستر": 1312,
    "▁ظرف": 1313,
    "▁سرشناس": 1314,
    "▁ظاهر": 1315,
    "▁چه": 1316,
    "▁وزن": 1317,
    "▁زدن": 1318,
    "▁درآمدها": 1319,
    "▁نوری": 1320,
    "تبه": 1321,
    "▁دنیای": 1322,
    "▁زندانی": 1323,
    "▁سوئیس": 1324,
    "▁اجرایی": 1325,
    "اوری": 1326,
    "▁تورنمنت": 1327,
    "▁امید": 1328,
    "▁دوربین": 1329,
    "▁خورد": 1330,
    "▁گمرک": 1331,
    "▁محمدرضا": 1332,
    "▁مد": 1333,
    "▁دوست": 1334,
    "اب": 1335,
    "▁دل": 1336,
    "▁درواز": 1337,
    "▁حریف": 1338,
    "▁مسکن": 1339,
    "▁فراهم": 1340,
    "▁علاقه": 1341,
    "▁پاسداران": 1342,
    "▁نمو": 1343,
    "▁بال": 1344,
    "▁ابتدا": 1345,
    "▁صبح": 1346,
    "▁۱۳۹۹": 1347,
    "▁عرب": 1348,
    "▁نویس": 1349,
    "▁دانند": 1350,
    "▁۲۳": 1351,
    "▁انگلیسی": 1352,
    "▁آموزش": 1353,
    "▁عهد": 1354,
    "▁رضا": 1355,
    "▁ناز": 1356,
    "▁وابست": 1357,
    "▁قتل": 1358,
    "▁کانال": 1359,
    "▁اوراق": 1360,
    "▁جنجال": 1361,
    "▁رفتار": 1362,
    "▁موجب": 1363,
    "▁شرق": 1364,
    "▁موجود": 1365,
    "▁بهداشتی": 1366,
    "▁ژاپن": 1367,
    "▁مادر": 1368,
    "▁مغز": 1369,
    "۳": 1370,
    "بیشتر": 1371,
    "▁وضع": 1372,
    "▁فرانسوی": 1373,
    "▁تزریق": 1374,
    "▁دانشمندان": 1375,
    "▁سینمایی": 1376,
    "▁کارشناسان": 1377,
    "▁زنی": 1378,
    "▁معتقد": 1379,
    "ریمه": 1380,
    "▁معتبر": 1381,
    "▁منچستر": 1382,
    "▁واشنگتن": 1383,
    "▁هدایت": 1384,
    "▁کوین": 1385,
    "▁بحرین": 1386,
    "▁طبیع": 1387,
    "▁پوند": 1388,
    "▁فعلی": 1389,
    "▁آوری": 1390,
    "▁مثبت": 1391,
    "▁۷۰": 1392,
    "▁شخصی": 1393,
    "▁صعود": 1394,
    "▁نهایت": 1395,
    "▁خرداد": 1396,
    "▁مادرید": 1397,
    "▁فیفا": 1398,
    "▁معادل": 1399,
    "▁شخصیت": 1400,
    "▁کنونی": 1401,
    "▁بیمار": 1402,
    "▁صدر": 1403,
    "▁خودروهای": 1404,
    "کنندگان": 1405,
    "▁پوست": 1406,
    "▁روایت": 1407,
    "▁مستقیم": 1408,
    "▁فنی": 1409,
    "▁صاحب": 1410,
    "▁نشود": 1411,
    "▁آلبوم": 1412,
    "▁مبتلایان": 1413,
    "▁راست": 1414,
    "۹": 1415,
    "▁خوش": 1416,
    "▁قبلا": 1417,
    "▁ارزی": 1418,
    "▁دختران": 1419,
    "▁مقامات": 1420,
    "▁فارس": 1421,
    "▁فر": 1422,
    "▁دین": 1423,
    "▁ارسال": 1424,
    "▁خانگی": 1425,
    "▁ما": 1426,
    "▁معمولا": 1427,
    "▁مخالفت": 1428,
    "نیوم": 1429,
    "▁کارهای": 1430,
    "▁پرو": 1431,
    "▁پذیر": 1432,
    "▁فوریه": 1433,
    "دار": 1434,
    "▁دید": 1435,
    "▁برزیل": 1436,
    "▁معامل": 1437,
    "▁قدم": 1438,
    "▁طالبان": 1439,
    "▁آلمانی": 1440,
    "▁تعدادی": 1441,
    "شب": 1442,
    "▁هستیم": 1443,
    "▁دریای": 1444,
    "▁نداشته": 1445,
    "▁۹۹": 1446,
    "▁گرفتند": 1447,
    "▁شعر": 1448,
    "▁خدمات": 1449,
    "▁۱۳۹": 1450,
    "▁کاربران": 1451,
    "▁چندان": 1452,
    "▁ارزها": 1453,
    "▁اورا": 1454,
    "▁سرخ": 1455,
    "▁صحنه": 1456,
    "▁اصلاح": 1457,
    "▁حمل": 1458,
    "▁اقیانوس": 1459,
    "▁العاده": 1460,
    "▁متعل": 1461,
    "▁موقعیت": 1462,
    "▁پالایشگاه": 1463,
    "▁قضائیه": 1464,
    "▁مهار": 1465,
    "▁افزوده": 1466,
    "داری": 1467,
    "▁گستر": 1468,
    "▁جمعی": 1469,
    "▁پا": 1470,
    "▁هاست": 1471,
    "▁محصولات": 1472,
    "▁زاد": 1473,
    "▁مطالع": 1474,
    "▁زاغری": 1475,
    "▁مدیرعامل": 1476,
    "▁ضد": 1477,
    "نقض": 1478,
    "▁دانش": 1479,
    "▁داریم": 1480,
    "▁سینمای": 1481,
    "▁عق": 1482,
    "▁۲۱": 1483,
    "▁بنابر": 1484,
    "▁تقاضا": 1485,
    "غلب": 1486,
    "▁مونیخ": 1487,
    "▁هوشمند": 1488,
    "▁قاچاق": 1489,
    "▁کمبود": 1490,
    "▁گیرند": 1491,
    "▁ماهه": 1492,
    "▁جدیدی": 1493,
    "▁درگیری": 1494,
    "▁زندانیان": 1495,
    "یست": 1496,
    "▁۳۵": 1497,
    "اسیون": 1498,
    "ازگی": 1499,
    "▁معنای": 1500,
    "▁مستند": 1501,
    "▁احساس": 1502,
    "▁بدهی": 1503,
    "▁نقدینگی": 1504,
    "▁اردیبهشت": 1505,
    "▁لباس": 1506,
    "▁چالش": 1507,
    "▁قسمت": 1508,
    "▁جایی": 1509,
    "اسی": 1510,
    "حسین": 1511,
    "توجه": 1512,
    "▁مخالفان": 1513,
    "۰": 1514,
    "▁بیماران": 1515,
    "تا": 1516,
    "▁استاد": 1517,
    "▁سند": 1518,
    "▁زخمی": 1519,
    "▁شهروند": 1520,
    "▁هیا": 1521,
    "▁هست": 1522,
    "▁سامان": 1523,
    "▁استقبال": 1524,
    "▁ژوئیه": 1525,
    "▁جزئیات": 1526,
    "▁رونالدو": 1527,
    "▁جوایز": 1528,
    "مقام": 1529,
    "▁رویترز": 1530,
    "▁آهنگ": 1531,
    "▁تصور": 1532,
    "▁عادی": 1533,
    "▁گوش": 1534,
    "▁ایم": 1535,
    "▁علیرضا": 1536,
    "▁دیوان": 1537,
    "▁مرزی": 1538,
    "▁بازرگانی": 1539,
    "خلق": 1540,
    "▁بنز": 1541,
    "▁نداشت": 1542,
    "▁مدیران": 1543,
    "▁کارکنان": 1544,
    "▁عجیب": 1545,
    "▁چیست": 1546,
    "▁سفارت": 1547,
    "▁۳۰۰": 1548,
    "▁نویسندگان": 1549,
    "▁مجری": 1550,
    "▁معترضان": 1551,
    "▁موتور": 1552,
    "▁مسافران": 1553,
    "▁آبی": 1554,
    "▁خورشیدی": 1555,
    "▁تخم": 1556,
    "هرگز": 1557,
    "▁کشورش": 1558,
    "▁ساز": 1559,
    "▁توصی": 1560,
    "▁صلح": 1561,
    "▁موزه": 1562,
    "▁سوپر": 1563,
    "▁سیستان": 1564,
    "قیف": 1565,
    "▁تخریب": 1566,
    "▁تلفن": 1567,
    "▁کی": 1568,
    "رضا": 1569,
    "▁تومانی": 1570,
    "وزارت": 1571,
    "▁مکان": 1572,
    "▁گران": 1573,
    "▁۲۶": 1574,
    "▁ملک": 1575,
    "نس": 1576,
    "▁کافی": 1577,
    "▁غربی": 1578,
    "▁اینستاگرام": 1579,
    "▁حسینی": 1580,
    "▁حفاظت": 1581,
    "▁پاکستان": 1582,
    "▁آمازون": 1583,
    "▁صنایع": 1584,
    "▁جودو": 1585,
    "▁میلان": 1586,
    "▁فرهاد": 1587,
    "▁ناظر": 1588,
    "▁درگیر": 1589,
    "▁واقعیت": 1590,
    "▁برمی": 1591,
    "▁مشا": 1592,
    "▁همسر": 1593,
    "▁لی": 1594,
    "▁تیر": 1595,
    "▁لحظ": 1596,
    "▁اشتباه": 1597,
    "▁حاصل": 1598,
    "▁سیما": 1599,
    "▁مبلغ": 1600,
    "▁نگهداری": 1601,
    "▁عوامل": 1602,
    "▁مدافع": 1603,
    "▁گر": 1604,
    "▁نیویورک": 1605,
    "▁دارو": 1606,
    "▁نور": 1607,
    "دولت": 1608,
    "نین": 1609,
    "▁پیشرفت": 1610,
    "▁ق": 1611,
    "▁۸۰": 1612,
    "▁مر": 1613,
    "یابی": 1614,
    "▁اسرائیلی": 1615,
    "▁راهی": 1616,
    "کش": 1617,
    "▁ارقام": 1618,
    "▁تحویل": 1619,
    "▁بهادار": 1620,
    "▁تقاضای": 1621,
    "▁کالاهای": 1622,
    "▁پروتکل": 1623,
    "▁وکیل": 1624,
    "▁ماموران": 1625,
    "▁برقرار": 1626,
    "من": 1627,
    "▁صوتی": 1628,
    "▁نشر": 1629,
    "▁دریایی": 1630,
    "▁اع": 1631,
    "▁داشتن": 1632,
    "▁فردا": 1633,
    "▁کشاورز": 1634,
    "▁خورده": 1635,
    "کل": 1636,
    "▁آهن": 1637,
    "▁نتوانست": 1638,
    "▁اهمیت": 1639,
    "▁رئال": 1640,
    "▁تأ": 1641,
    "▁نگه": 1642,
    "▁مجید": 1643,
    "▁صراف": 1644,
    "▁حاشیه": 1645,
    "▁خواهیم": 1646,
    "▁انجمن": 1647,
    "▁اوج": 1648,
    "فدراسیون": 1649,
    "▁ورزشکاران": 1650,
    "▁متوسط": 1651,
    "▁صف": 1652,
    "سون": 1653,
    "▁چک": 1654,
    "▁مو": 1655,
    "▁ست": 1656,
    "▁عین": 1657,
    "▁آرام": 1658,
    "▁بازنشستگ": 1659,
    "▁صرف": 1660,
    "▁تعویق": 1661,
    "▁بلوچستان": 1662,
    "▁برجسته": 1663,
    "وس": 1664,
    "▁آزار": 1665,
    "▁آسمان": 1666,
    "▁مسدود": 1667,
    "▁متعدد": 1668,
    "▁ریال": 1669,
    "▁توقف": 1670,
    "▁مراجع": 1671,
    "▁احتمالی": 1672,
    "▁تیراندازی": 1673,
    "▁روزها": 1674,
    "▁برود": 1675,
    "قدر": 1676,
    "▁فوری": 1677,
    "▁فرزند": 1678,
    "▁کارشناس": 1679,
    "▁ترس": 1680,
    "▁قالیباف": 1681,
    "▁مراقب": 1682,
    "▁سراوان": 1683,
    "▁نجات": 1684,
    "▁مدعی": 1685,
    "▁تمدید": 1686,
    "▁پلاس": 1687,
    "▁پست": 1688,
    "▁پنجشنبه": 1689,
    "▁محرم": 1690,
    "▁نادال": 1691,
    "▁تماس": 1692,
    "▁گلستان": 1693,
    "▁ادبیات": 1694,
    "▁دشوار": 1695,
    "▁چهل": 1696,
    "▁الدین": 1697,
    "▁مارک": 1698,
    "قانونی": 1699,
    "▁شک": 1700,
    "▁گرم": 1701,
    "▁نگار": 1702,
    "نده": 1703,
    "▁مهاجم": 1704,
    "▁مناسب": 1705,
    "▁کردم": 1706,
    "▁سلطنت": 1707,
    "تنظیم": 1708,
    "▁افتخار": 1709,
    "▁جذب": 1710,
    "▁توکیو": 1711,
    "▁کارها": 1712,
    "▁آنلاین": 1713,
    "▁امارات": 1714,
    "▁ایسنا": 1715,
    "▁اخراج": 1716,
    "▁رافائل": 1717,
    "برای": 1718,
    "▁تمامی": 1719,
    "▁پژوهشگران": 1720,
    "▁فضا": 1721,
    "رکت": 1722,
    "کس": 1723,
    "▁مج": 1724,
    "▁حج": 1725,
    "ستاره": 1726,
    "▁کردیم": 1727,
    "▁اختصاص": 1728,
    "▁نحو": 1729,
    "▁اخبار": 1730,
    "▁زا": 1731,
    "▁لوکس": 1732,
    "▁فایل": 1733,
    "▁سوال": 1734,
    "▁تخت": 1735,
    "▁کلوپ": 1736,
    "▁اتفاقات": 1737,
    "گرد": 1738,
    "تان": 1739,
    "▁داور": 1740,
    "▁جنگل": 1741,
    "▁حذفی": 1742,
    "▁شبانه": 1743,
    "گ": 1744,
    "امبر": 1745,
    "سال": 1746,
    "▁اصل": 1747,
    "▁مربیان": 1748,
    "▁شناس": 1749,
    "▁ورزشکار": 1750,
    "▁موشک": 1751,
    "▁خان": 1752,
    "▁غذا": 1753,
    "▁توییت": 1754,
    "▁۳۱": 1755,
    "▁ناگهان": 1756,
    "▁مشمول": 1757,
    "▁نوبل": 1758,
    "▁نوامبر": 1759,
    "▁اسطوره": 1760,
    "▁سبک": 1761,
    "▁موقت": 1762,
    "▁جایگاه": 1763,
    "▁مطابق": 1764,
    "▁ساکن": 1765,
    "لان": 1766,
    "▁بندر": 1767,
    "▁آل": 1768,
    "▁داند": 1769,
    "خبرگزا": 1770,
    "▁سهم": 1771,
    "▁هواپیما": 1772,
    "▁هی": 1773,
    "▁دما": 1774,
    "▁محبوب": 1775,
    "▁طبیعت": 1776,
    "▁محروم": 1777,
    "▁اکتبر": 1778,
    "▁مسلح": 1779,
    "▁کنسرت": 1780,
    "▁غذای": 1781,
    "▁۲۰۱۷": 1782,
    "▁همتی": 1783,
    "▁خیریه": 1784,
    "▁نارنجی": 1785,
    "▁بازگرداند": 1786,
    "▁ماجرا": 1787,
    "گری": 1788,
    "▁مدرسه": 1789,
    "▁باره": 1790,
    "وید": 1791,
    "▁بو": 1792,
    "نا": 1793,
    "▁پرس": 1794,
    "▁خورشید": 1795,
    "▁ادبی": 1796,
    "▁۴۲": 1797,
    "▁سپاهان": 1798,
    "▁۲۹": 1799,
    "▁باور": 1800,
    "▁دعوت": 1801,
    "▁ویمبلدون": 1802,
    "▁کاپیتان": 1803,
    "▁ثابت": 1804,
    "▁مسئ": 1805,
    "▁اجاره": 1806,
    "▁معرض": 1807,
    "▁ماده": 1808,
    "▁عصر": 1809,
    "▁هموار": 1810,
    "▁پارک": 1811,
    "▁یکدیگر": 1812,
    "جواد": 1813,
    "▁راجر": 1814,
    "▁زند": 1815,
    "سازمان": 1816,
    "▁عبدال": 1817,
    "▁اندازی": 1818,
    "▁برگشت": 1819,
    "▁حیات": 1820,
    "▁سد": 1821,
    "▁حس": 1822,
    "▁اسب": 1823,
    "▁دام": 1824,
    "▁سعی": 1825,
    "▁شمالی": 1826,
    "▁توزیع": 1827,
    "▁دیجیتال": 1828,
    "▁بقیه": 1829,
    "▁هنرپیشه": 1830,
    "▁مسائل": 1831,
    "▁ساحل": 1832,
    "▁گام": 1833,
    "▁عید": 1834,
    "لاک": 1835,
    "▁سپت": 1836,
    "کو": 1837,
    "▁مواردی": 1838,
    "▁هنرمندان": 1839,
    "▁پزشک": 1840,
    "رنگ": 1841,
    "▁اطلاعی": 1842,
    "▁افزود": 1843,
    "▁تعهدات": 1844,
    "▁تئاتر": 1845,
    "وع": 1846,
    "▁فرار": 1847,
    "▁اساسی": 1848,
    "▁سهمی": 1849,
    "▁بند": 1850,
    "ما": 1851,
    "▁رحمان": 1852,
    "▁مالکی": 1853,
    "تیم": 1854,
    "▁اصفهان": 1855,
    "▁مراکز": 1856,
    "▁خسارت": 1857,
    "▁ثانی": 1858,
    "▁۱۳۹۷": 1859,
    "جا": 1860,
    "▁فراموش": 1861,
    "▁فرا": 1862,
    "▁مایک": 1863,
    "▁منتظر": 1864,
    "▁خدم": 1865,
    "▁مشاور": 1866,
    "▁طرفداران": 1867,
    "▁کلاس": 1868,
    "▁پاس": 1869,
    "▁فوتبالیست": 1870,
    "▁گیر": 1871,
    "رئیس": 1872,
    "▁بوی": 1873,
    "▁تست": 1874,
    "▁درجه": 1875,
    "▁نزدیکی": 1876,
    "▁شاعر": 1877,
    "▁مخالف": 1878,
    "▁چرخ": 1879,
    "▁مجاز": 1880,
    "▁آفریقا": 1881,
    "▁خیابان": 1882,
    "▁آذر": 1883,
    "کار": 1884,
    "▁بعدا": 1885,
    "▁جه": 1886,
    "▁تحصیل": 1887,
    "▁رویکرد": 1888,
    "▁مشاهد": 1889,
    "علوم": 1890,
    "▁نداریم": 1891,
    "▁بوکس": 1892,
    "▁رسما": 1893,
    "▁پرتاب": 1894,
    "▁گذرد": 1895,
    "افسانه": 1896,
    "▁پسر": 1897,
    "▁لیون": 1898,
    "▁لس": 1899,
    "خانم": 1900,
    "▁مسافر": 1901,
    "▁موسو": 1902,
    "▁سای": 1903,
    "یا": 1904,
    "▁وگو": 1905,
    "▁داروی": 1906,
    "▁بعدی": 1907,
    "▁استعفا": 1908,
    "▁دستگیر": 1909,
    "▁آور": 1910,
    "ود": 1911,
    "▁اتومبیل": 1912,
    "▁تاخیر": 1913,
    "▁ایستگاه": 1914,
    "▁سرپرست": 1915,
    "▁اهل": 1916,
    "▁ضمن": 1917,
    "▁تاسیسات": 1918,
    "▁نیازمند": 1919,
    "▁ض": 1920,
    "یکی": 1921,
    "۱۹": 1922,
    "▁متحد": 1923,
    "▁بلا": 1924,
    "▁برادر": 1925,
    "باید": 1926,
    "▁فرستاده": 1927,
    "▁بازگش": 1928,
    "پیش": 1929,
    "▁تمرین": 1930,
    "▁عمیق": 1931,
    "▁اعتبار": 1932,
    "▁قبول": 1933,
    "▁هویت": 1934,
    "▁جیمز": 1935,
    "▁آکادمی": 1936,
    "ینگ": 1937,
    "▁سخنان": 1938,
    "را": 1939,
    "▁شیو": 1940,
    "▁گفتند": 1941,
    "آ": 1942,
    "▁پدید": 1943,
    "▁بیان": 1944,
    "هر": 1945,
    "▁رقیب": 1946,
    "▁رادیو": 1947,
    "▁عکاسی": 1948,
    "▁محسو": 1949,
    "ازم": 1950,
    "ساوی": 1951,
    "سیم": 1952,
    "▁مشهد": 1953,
    "ضاع": 1954,
    "▁قار": 1955,
    "▁تکرار": 1956,
    "▁شغل": 1957,
    "▁شهریور": 1958,
    "▁پنجاه": 1959,
    "▁حکام": 1960,
    "وال": 1961,
    "▁دوستان": 1962,
    "▁گذارد": 1963,
    "▁باب": 1964,
    "▁قربانیان": 1965,
    "▁قضاییه": 1966,
    "اک": 1967,
    "▁هواپیمای": 1968,
    "▁عدد": 1969,
    "▁وام": 1970,
    "گزارش": 1971,
    "▁خاص": 1972,
    "حمل": 1973,
    "تمام": 1974,
    "▁کسر": 1975,
    "▁دارای": 1976,
    "▁شبی": 1977,
    "▁فرود": 1978,
    "▁خ": 1979,
    "اپی": 1980,
    "▁قوی": 1981,
    "▁قاسم": 1982,
    "▁عا": 1983,
    "▁محافظ": 1984,
    "▁جذاب": 1985,
    "▁حوادث": 1986,
    "▁خشونت": 1987,
    "▁اجلاس": 1988,
    "ذیب": 1989,
    "▁بان": 1990,
    "▁حاکی": 1991,
    "▁متولد": 1992,
    "▁مریخ": 1993,
    "▁عرص": 1994,
    "▁فروخت": 1995,
    "داد": 1996,
    "▁یوونتوس": 1997,
    "▁ملایی": 1998,
    "▁هماهنگ": 1999,
    "ظ": 2000,
    "▁فردی": 2001,
    "▁منتقدان": 2002,
    "▁آمیز": 2003,
    "▁آر": 2004,
    "▁همسرش": 2005,
    "▁ز": 2006,
    "▁دیدن": 2007,
    "▁توانسته": 2008,
    "▁نادر": 2009,
    "▁نهم": 2010,
    "▁ترجم": 2011,
    "▁خبرنگاران": 2012,
    "▁بهای": 2013,
    "▁ریش": 2014,
    "بار": 2015,
    "▁دامن": 2016,
    "...": 2017,
    "▁سرای": 2018,
    "▁معدن": 2019,
    "▁۳۲": 2020,
    "▁مار": 2021,
    "▁دستمزد": 2022,
    "▁اطراف": 2023,
    "▁اسکاتلند": 2024,
    "▁چنان": 2025,
    "▁موضع": 2026,
    "▁برآورد": 2027,
    "▁فرودگاه": 2028,
    "▁صلاحیت": 2029,
    "▁آلودگی": 2030,
    "▁ابراهیم": 2031,
    "▁نرم": 2032,
    "▁اتریش": 2033,
    "▁اسکی": 2034,
    "▁خلی": 2035,
    "▁کوه": 2036,
    "▁جی": 2037,
    "▁گرانی": 2038,
    "ناصر": 2039,
    "عهد": 2040,
    "▁درک": 2041,
    "▁هرچ": 2042,
    "▁جلوی": 2043,
    "▁همچ": 2044,
    "▁جراح": 2045,
    "▁شناسی": 2046,
    "▁مان": 2047,
    "▁متن": 2048,
    "▁۴۰۰": 2049,
    "▁الملل": 2050,
    "▁پدرش": 2051,
    "▁بهتری": 2052,
    "گون": 2053,
    "▁حراج": 2054,
    "▁الهام": 2055,
    "▁واگذار": 2056,
    "▁پایگاه": 2057,
    "▁حملات": 2058,
    "ص": 2059,
    "▁بنیاد": 2060,
    "▁قول": 2061,
    "▁سلیمانی": 2062,
    "شیدا": 2063,
    "▁شیر": 2064,
    "▁جوانان": 2065,
    "صد": 2066,
    "▁موثر": 2067,
    "▁مس": 2068,
    "▁پیوست": 2069,
    "▁حامل": 2070,
    "▁انداخته": 2071,
    "▁بلینکن": 2072,
    "▁مصنوعی": 2073,
    "▁شصت": 2074,
    "▁زمستان": 2075,
    "▁متوالی": 2076,
    "▁قالب": 2077,
    "▁تعلیق": 2078,
    "▁خطرناک": 2079,
    "▁ماموریت": 2080,
    "▁نفس": 2081,
    "▁ایرنا": 2082,
    "▁تسلا": 2083,
    "▁نقاش": 2084,
    "مه": 2085,
    "▁فیسبوک": 2086,
    "▁متخصص": 2087,
    "▁آرسنال": 2088,
    "▁تبلیغات": 2089,
    "▁۲۰۱۵": 2090,
    "▁بازرس": 2091,
    "▁شوم": 2092,
    "▁ناسا": 2093,
    "جمع": 2094,
    "▁پزشکان": 2095,
    "▁ایتالیایی": 2096,
    "▁کنگ": 2097,
    "بنابر": 2098,
    "▁دوز": 2099,
    "▁توانای": 2100,
    "رسدس": 2101,
    "▁آماد": 2102,
    "▁اظهار": 2103,
    "فسور": 2104,
    "▁شاغل": 2105,
    "▁تنفس": 2106,
    "▁تشویق": 2107,
    "▁تولد": 2108,
    "▁قطب": 2109,
    "▁بگیرند": 2110,
    "▁شهرستان": 2111,
    "▁ساعات": 2112,
    "▁میراث": 2113,
    "▁انداز": 2114,
    "▁دادستان": 2115,
    "▁مشتریان": 2116,
    "▁کارمندان": 2117,
    "▁نشین": 2118,
    "سا": 2119,
    "▁جانب": 2120,
    "▁اوپ": 2121,
    "▁رهبری": 2122,
    "▁سوزی": 2123,
    "بط": 2124,
    "▁چا": 2125,
    "لیک": 2126,
    "زاده": 2127,
    "▁نامش": 2128,
    "▁نکرد": 2129,
    "▁نیستند": 2130,
    "▁سا": 2131,
    "▁مبن": 2132,
    "▁دیوار": 2133,
    "تصاب": 2134,
    "▁اضطرار": 2135,
    "▁ژافره": 2136,
    "▁نطنز": 2137,
    "▁سرنگون": 2138,
    "▁جبران": 2139,
    "▁شفاف": 2140,
    "▁آنجلس": 2141,
    "▁رمز": 2142,
    "▁اطمینان": 2143,
    "▁ماراتن": 2144,
    "▁آشنا": 2145,
    "▁کانادا": 2146,
    "▁رانندگان": 2147,
    "▁شهرسازی": 2148,
    "▁حداکثر": 2149,
    "▁هوش": 2150,
    "▁کالاها": 2151,
    "حسن": 2152,
    "▁نبوده": 2153,
    "▁معن": 2154,
    "▁شهرت": 2155,
    "چی": 2156,
    "▁هفتم": 2157,
    "لو": 2158,
    "▁رها": 2159,
    "ئو": 2160,
    "▁گری": 2161,
    "▁۱۵۰": 2162,
    "یات": 2163,
    "▁مادرش": 2164,
    "▁میانه": 2165,
    "▁روانی": 2166,
    "▁حالت": 2167,
    "▁فولک": 2168,
    "▁صدرنشین": 2169,
    "▁ازدواج": 2170,
    "▁ناپذیر": 2171,
    "▁آواز": 2172,
    "▁جر": 2173,
    "▁تحولات": 2174,
    "▁جسد": 2175,
    "▁نفوذ": 2176,
    "▁هشتم": 2177,
    "▁ل": 2178,
    "▁۲۷": 2179,
    "▁محمدی": 2180,
    "▁اسپانیایی": 2181,
    "▁نامداری": 2182,
    "▁امیدواری": 2183,
    "▁جنسیت": 2184,
    "▁نامید": 2185,
    "بانک": 2186,
    "▁شرکتهای": 2187,
    "▁تری": 2188,
    "وف": 2189,
    "هفته": 2190,
    "▁وق": 2191,
    "▁ادار": 2192,
    "▁درون": 2193,
    "▁جاد": 2194,
    "▁بودم": 2195,
    "سم": 2196,
    "می": 2197,
    "▁آکسفورد": 2198,
    "▁ثبات": 2199,
    "▁فعلا": 2200,
    "▁کالیفرنیا": 2201,
    "▁تردد": 2202,
    "▁بدهد": 2203,
    "▁ردیف": 2204,
    "▁مقصد": 2205,
    "▁عشق": 2206,
    "▁پادشاه": 2207,
    "▁کادر": 2208,
    "▁فولاد": 2209,
    "▁عکاس": 2210,
    "▁باغ": 2211,
    "▁اسناد": 2212,
    "▁لبنان": 2213,
    "▁سرکوب": 2214,
    "▁کلیه": 2215,
    "▁ساده": 2216,
    "▁خاتم": 2217,
    "۱۶": 2218,
    "▁تماشاگران": 2219,
    "▁محصول": 2220,
    "▁نوروز": 2221,
    "▁اکبر": 2222,
    "▁روان": 2223,
    "▁گردشگری": 2224,
    "▁پیگیری": 2225,
    "▁چشمگیر": 2226,
    "همزمان": 2227,
    "▁نداده": 2228,
    "▁گ": 2229,
    "▁کیلومتری": 2230,
    "▁ذخ": 2231,
    "لا": 2232,
    "کا": 2233,
    "▁قطعه": 2234,
    "▁تماشاگر": 2235,
    "▁ضرور": 2236,
    "▁اید": 2237,
    "▁تاسیس": 2238,
    "▁رویداد": 2239,
    "▁انتظامی": 2240,
    "▁زهرا": 2241,
    "▁ژرمن": 2242,
    "▁اهواز": 2243,
    "▁کیلوگرم": 2244,
    "▁برخوردار": 2245,
    "▁دسامبر": 2246,
    "▁پکن": 2247,
    "هم": 2248,
    "▁علنی": 2249,
    "▁پاک": 2250,
    "▁جوکوویچ": 2251,
    "▁مسعود": 2252,
    "▁مهاجرت": 2253,
    "▁گزین": 2254,
    "▁جامع": 2255,
    "▁نمایندگی": 2256,
    "▁معمول": 2257,
    "▁۳۳": 2258,
    "▁دسته": 2259,
    "▁آم": 2260,
    "▁بچ": 2261,
    "۹۷": 2262,
    "▁کال": 2263,
    "▁خاصی": 2264,
    "▁درمانی": 2265,
    "مدال": 2266,
    "▁اور": 2267,
    "▁سخن": 2268,
    "▁مدرن": 2269,
    "▁شرقی": 2270,
    "▁امر": 2271,
    "▁۷۰۰": 2272,
    "▁مور": 2273,
    "▁ذهن": 2274,
    "▁هیئت": 2275,
    "▁چارچوب": 2276,
    "▁روغن": 2277,
    "▁جلب": 2278,
    "▁گشت": 2279,
    "▁تراکتور": 2280,
    "▁مسجد": 2281,
    "▁اوکراین": 2282,
    "▁شگفت": 2283,
    "واع": 2284,
    "▁زاهد": 2285,
    "▁کجا": 2286,
    "▁خفاش": 2287,
    "▁گشایش": 2288,
    "▁تفاوت": 2289,
    "▁خودکشی": 2290,
    "▁یمن": 2291,
    "▁سوئد": 2292,
    "▁ویدیوی": 2293,
    "▁کارزار": 2294,
    "▁مجازات": 2295,
    "▁وقف": 2296,
    "▁پیچیده": 2297,
    "▁آمدن": 2298,
    "▁ابلاغ": 2299,
    "▁دقیقا": 2300,
    "▁مطلب": 2301,
    "▁آنتونی": 2302,
    "▁فرمان": 2303,
    "▁یافتن": 2304,
    "▁کارت": 2305,
    "▁نود": 2306,
    "▁برداری": 2307,
    "▁اص": 2308,
    "▁کلید": 2309,
    "▁کف": 2310,
    "▁قر": 2311,
    "▁شهرداری": 2312,
    "▁پاری": 2313,
    "▁نوجوان": 2314,
    "جی": 2315,
    "▁نوروزی": 2316,
    "▁سری": 2317,
    "▁انداخت": 2318,
    "وئل": 2319,
    "▁خراسان": 2320,
    "▁مورینیو": 2321,
    "▁تعریف": 2322,
    "▁واگن": 2323,
    "▁پارلمان": 2324,
    "▁تبعیض": 2325,
    "▁هفتاد": 2326,
    "▁مقدار": 2327,
    "▁شویم": 2328,
    "▁بخت": 2329,
    "▁لحا": 2330,
    "▁مدنی": 2331,
    "▁معلوم": 2332,
    "▁دهنده": 2333,
    "▁حقوقی": 2334,
    "▁اسماعیل": 2335,
    "ران": 2336,
    "▁نیمک": 2337,
    "▁پن": 2338,
    "▁واقعا": 2339,
    "▁خواب": 2340,
    "▁عملا": 2341,
    "▁مسافرت": 2342,
    "▁طلای": 2343,
    "آن": 2344,
    "▁خودروسازی": 2345,
    "▁شاملو": 2346,
    "▁مناسبت": 2347,
    "▁زنند": 2348,
    "▁اتهامات": 2349,
    "نیک": 2350,
    "▁کیو": 2351,
    "رانی": 2352,
    "▁محققان": 2353,
    "▁نماد": 2354,
    "▁تق": 2355,
    "گین": 2356,
    "▁پهلوی": 2357,
    "ابت": 2358,
    "▁اسکن": 2359,
    "سعید": 2360,
    "▁برج": 2361,
    "▁اتفاقی": 2362,
    "▁رویا": 2363,
    "شرکت": 2364,
    "▁خاتمی": 2365,
    "رز": 2366,
    "▁فراوان": 2367,
    "▁راحت": 2368,
    "انجام": 2369,
    "▁مدار": 2370,
    "اگر": 2371,
    "▁اعتماد": 2372,
    "▁علائم": 2373,
    "▁عمدتا": 2374,
    "▁تبریز": 2375,
    "▁فیوری": 2376,
    "▁کانون": 2377,
    "▁ذر": 2378,
    "▁آسان": 2379,
    "▁دستورالعمل": 2380,
    "▁نسخ": 2381,
    "▁خطیب": 2382,
    "▁هتل": 2383,
    "▁تجهیزات": 2384,
    "▁حقیقت": 2385,
    "▁میناوند": 2386,
    "شورای": 2387,
    "▁تابلو": 2388,
    "الب": 2389,
    "▁دهیم": 2390,
    "▁منظور": 2391,
    "▁محکومیت": 2392,
    "▁سالها": 2393,
    "▁دان": 2394,
    "خواهی": 2395,
    "▁گوشت": 2396,
    "رون": 2397,
    "▁ایست": 2398,
    "▁استاندار": 2399,
    "رگن": 2400,
    "▁بهر": 2401,
    "ژه": 2402,
    "▁ایستاده": 2403,
    "▁نشدن": 2404,
    "بعضی": 2405,
    "شدید": 2406,
    "▁ویدئوی": 2407,
    "احض": 2408,
    "▁تپ": 2409,
    "▁ششم": 2410,
    "ترانه": 2411,
    "▁عمر": 2412,
    "خراج": 2413,
    "▁الحاق": 2414,
    "▁حکایت": 2415,
    "▁عذر": 2416,
    "▁دائم": 2417,
    "▁تحلیل": 2418,
    "▁خمینی": 2419,
    "▁خلاف": 2420,
    "▁جواب": 2421,
    "▁توجهی": 2422,
    "▁ابر": 2423,
    "▁کنفرانس": 2424,
    "▁اختلال": 2425,
    "▁خیر": 2426,
    "▁پوشش": 2427,
    "رد": 2428,
    "ریم": 2429,
    "ط": 2430,
    "ض": 2431,
    "▁بیستم": 2432,
    "▁اندک": 2433,
    "▁مذهبی": 2434,
    "▁جک": 2435,
    "▁باند": 2436,
    "▁تبار": 2437,
    "رسان": 2438,
    "قرار": 2439,
    "▁داوطلبان": 2440,
    "▁ژاپنی": 2441,
    "▁بازیگران": 2442,
    "▁وال": 2443,
    "▁سازند": 2444,
    "حدود": 2445,
    "ویز": 2446,
    "▁بردن": 2447,
    "دکتر": 2448,
    "وزیر": 2449,
    "کته": 2450,
    "رو": 2451,
    "▁مرا": 2452,
    "مند": 2453,
    "▁تل": 2454,
    "فر": 2455,
    "▁دیپلما": 2456,
    "▁عطر": 2457,
    "▁منع": 2458,
    "▁عبارت": 2459,
    "▁نصب": 2460,
    "▁معاف": 2461,
    "▁استانبول": 2462,
    "▁خطوط": 2463,
    "▁پنهان": 2464,
    "▁رونق": 2465,
    "▁مثال": 2466,
    "▁بخار": 2467,
    "▁غافلگیر": 2468,
    "▁گواردیولا": 2469,
    "▁بهشت": 2470,
    "▁دیپلماتیک": 2471,
    "▁سانسور": 2472,
    "▁مرور": 2473,
    "▁ذو": 2474,
    "▁لستر": 2475,
    "▁خبرساز": 2476,
    "▁فرماندار": 2477,
    "▁باستان": 2478,
    "وند": 2479,
    "▁۴۵": 2480,
    "سل": 2481,
    "جسم": 2482,
    "▁غلام": 2483,
    "▁شانس": 2484,
    "▁ری": 2485,
    "▁جزیر": 2486,
    "دل": 2487,
    "▁کریمی": 2488,
    "لند": 2489,
    "اق": 2490,
    "ماه": 2491,
    "▁حاکم": 2492,
    "آمریکا": 2493,
    "▁برند": 2494,
    "▁برون": 2495,
    "تن": 2496,
    "▁سپر": 2497,
    "▁اجباری": 2498,
    "▁بازدید": 2499,
    "▁سفرهای": 2500,
    "لر": 2501,
    "▁سل": 2502,
    "▁شهری": 2503,
    "▁طلب": 2504,
    "▁مالیاتی": 2505,
    "یده": 2506,
    "▁فرو": 2507,
    "▁بدتر": 2508,
    "▁محاسب": 2509,
    "آزادسازی": 2510,
    "ث": 2511,
    "▁مشاغل": 2512,
    "▁معاصر": 2513,
    "▁نباشد": 2514,
    "▁برگزید": 2515,
    "▁کهکشان": 2516,
    "▁احترام": 2517,
    "▁کلمبیا": 2518,
    "▁باشیم": 2519,
    "▁اندونزی": 2520,
    "▁فراتر": 2521,
    "▁مرجان": 2522,
    "▁صادرکنندگان": 2523,
    "▁نوسان": 2524,
    "▁سرنوشت": 2525,
    "▁خطاب": 2526,
    "▁مدیرکل": 2527,
    "▁خاورمیانه": 2528,
    "▁خرد": 2529,
    "▁۳۴": 2530,
    "▁فراز": 2531,
    "▁صادقی": 2532,
    "▁زدند": 2533,
    "دن": 2534,
    "آی": 2535,
    "یو": 2536,
    "▁بردند": 2537,
    "▁خشک": 2538,
    "بو": 2539,
    "▁میر": 2540,
    "اجع": 2541,
    "▁۰": 2542,
    "چ": 2543,
    "▁نامزدهای": 2544,
    "خالت": 2545,
    "▁بسکتبال": 2546,
    "▁تصادف": 2547,
    "▁عوارض": 2548,
    "▁پرچم": 2549,
    "▁پیامدهای": 2550,
    "▁بماند": 2551,
    "▁اولویت": 2552,
    "▁جستجو": 2553,
    "▁شواهد": 2554,
    "▁وسیع": 2555,
    "▁برکنار": 2556,
    "▁وانت": 2557,
    "▁ناکام": 2558,
    "▁پتروش": 2559,
    "▁دانیم": 2560,
    "▁حیوانات": 2561,
    "▁پرتغال": 2562,
    "▁۲۰۱۱": 2563,
    "▁کیفیت": 2564,
    "▁فایزر": 2565,
    "▁تکمیل": 2566,
    "▁جانسون": 2567,
    "▁فاش": 2568,
    "▁خاوران": 2569,
    "▁مسئولیت": 2570,
    "▁شنیده": 2571,
    "▁ایفا": 2572,
    "▁فروشگاه": 2573,
    "▁کام": 2574,
    "▁فقر": 2575,
    "حال": 2576,
    "▁عادل": 2577,
    "▁رویدادهای": 2578,
    "▁تب": 2579,
    "وریس": 2580,
    "▁اکثر": 2581,
    "▁بیمه": 2582,
    "▁هو": 2583,
    "▁اعما": 2584,
    "▁هلند": 2585,
    "▁درحال": 2586,
    "یره": 2587,
    "▁ماجرای": 2588,
    "قیمت": 2589,
    "▁باد": 2590,
    "▁وایلد": 2591,
    "وار": 2592,
    "کن": 2593,
    "وخیم": 2594,
    "▁یخ": 2595,
    "اکان": 2596,
    "▁پاپ": 2597,
    "▁موافق": 2598,
    "▁مطمئن": 2599,
    "▁حساس": 2600,
    "▁برگزیت": 2601,
    "▁جایگزین": 2602,
    "▁تجدید": 2603,
    "▁بگذارد": 2604,
    "▁هیجان": 2605,
    "▁دایک": 2606,
    "▁ویلموتس": 2607,
    "▁تاثیرگذار": 2608,
    "▁پرورش": 2609,
    "▁مستقل": 2610,
    "▁جانشین": 2611,
    "▁بنیان": 2612,
    "▁مخاطبان": 2613,
    "▁محرومیت": 2614,
    "▁آرایش": 2615,
    "▁تدریج": 2616,
    "▁امشب": 2617,
    "▁همکاران": 2618,
    "▁مخفی": 2619,
    "صمی": 2620,
    "یون": 2621,
    "▁امکانات": 2622,
    "▁تبع": 2623,
    "▁سپرده": 2624,
    "▁آلوده": 2625,
    "غ": 2626,
    "گفته": 2627,
    "▁گزارشگر": 2628,
    "۱۴": 2629,
    "طی": 2630,
    "▁عظیم": 2631,
    "غول": 2632,
    "▁نیرو": 2633,
    "▁علم": 2634,
    "▁سلطان": 2635,
    "▁درحالی": 2636,
    "▁صالح": 2637,
    "بری": 2638,
    "▁دفاعی": 2639,
    "امی": 2640,
    "▁پژوهشگر": 2641,
    "▁گوشی": 2642,
    "▁راز": 2643,
    "▁گنج": 2644,
    "▁شوک": 2645,
    "احل": 2646,
    "▁آذربایجان": 2647,
    "▁استراماچونی": 2648,
    "▁اقلام": 2649,
    "▁هالیوود": 2650,
    "▁گورستان": 2651,
    "▁هاشمی": 2652,
    "▁بدهند": 2653,
    "▁برانگیز": 2654,
    "▁یادداشت": 2655,
    "▁اسدی": 2656,
    "▁منافع": 2657,
    "▁اورتون": 2658,
    "▁مقدمات": 2659,
    "نوبت": 2660,
    "▁اقدامی": 2661,
    "▁سهامداران": 2662,
    "▁دانشجویان": 2663,
    "▁سالن": 2664,
    "▁اینتر": 2665,
    "▁بطور": 2666,
    "▁یادآور": 2667,
    "▁اصلا": 2668,
    "▁آگاه": 2669,
    "▁جرم": 2670,
    "▁رم": 2671,
    "▁آرامش": 2672,
    "▁یازده": 2673,
    "سبب": 2674,
    "▁بازرسان": 2675,
    "▁ماندن": 2676,
    "بین": 2677,
    "▁شعب": 2678,
    "▁نبرد": 2679,
    "▁رحمانی": 2680,
    "▁فرستاد": 2681,
    "▁قیمتها": 2682,
    "▁۷۵": 2683,
    "▁آمارها": 2684,
    "▁تائ": 2685,
    "▁وحش": 2686,
    "ستان": 2687,
    "آزمایی": 2688,
    "▁انت": 2689,
    "▁اقلیم": 2690,
    "▁رسیدند": 2691,
    "قف": 2692,
    "اد": 2693,
    "غم": 2694,
    "▁تردید": 2695,
    "▁تبلیغ": 2696,
    "▁عاشق": 2697,
    "▁مشروط": 2698,
    "▁عمق": 2699,
    "▁اماکن": 2700,
    "▁سانتی": 2701,
    "▁۹۶": 2702,
    "▁قایق": 2703,
    "▁شرط": 2704,
    "▁کاوشگر": 2705,
    "▁راستا": 2706,
    "▁نمایشگاه": 2707,
    "▁۴۸": 2708,
    "▁قد": 2709,
    "▁برندگان": 2710,
    "▁برنت": 2711,
    "▁سوالات": 2712,
    "▁جاسوس": 2713,
    "▁پیوسته": 2714,
    "تون": 2715,
    "▁پو": 2716,
    "▁اسم": 2717,
    "▁۵۷": 2718,
    "▁زیرا": 2719,
    "▁دونده": 2720,
    "▁حامی": 2721,
    "▁۱۹۸": 2722,
    "فت": 2723,
    "▁ارد": 2724,
    "▁سفارش": 2725,
    "▁نابودی": 2726,
    "جو": 2727,
    "دست": 2728,
    "قب": 2729,
    "▁دیگران": 2730,
    "▁درخشان": 2731,
    "دا": 2732,
    "▁آسیای": 2733,
    "سر": 2734,
    "▁۹۵": 2735,
    "پور": 2736,
    "وقت": 2737,
    "است": 2738,
    "▁بودیم": 2739,
    "▁شهرها": 2740,
    "▁کارمند": 2741,
    "▁کلاسیک": 2742,
    "▁موقع": 2743,
    "▁شیری": 2744,
    "▁فیزیک": 2745,
    "▁رستوران": 2746,
    "▁سلاح": 2747,
    "▁قلع": 2748,
    "▁بغداد": 2749,
    "▁گوناگون": 2750,
    "▁مستمر": 2751,
    "▁سرقت": 2752,
    "▁شکنجه": 2753,
    "▁سایپا": 2754,
    "▁آشکار": 2755,
    "▁انگار": 2756,
    "▁نفع": 2757,
    "▁هافبک": 2758,
    "▁ارشاد": 2759,
    "▁کریستیان": 2760,
    "▁منچسترسیتی": 2761,
    "▁شتاب": 2762,
    "▁خواهم": 2763,
    "▁کشد": 2764,
    "▁تماشای": 2765,
    "▁تج": 2766,
    "ناف": 2767,
    "▁عبدالله": 2768,
    "▁ماهوار": 2769,
    "▁تجا": 2770,
    "▁اردو": 2771,
    "▁ضرر": 2772,
    "▁جدایی": 2773,
    "▁حمید": 2774,
    "▁ادعای": 2775,
    "▁فان": 2776,
    "▁دانستند": 2777,
    "▁سالم": 2778,
    "▁ریه": 2779,
    "▁طلبان": 2780,
    "▁سرد": 2781,
    "یشه": 2782,
    "▁مقال": 2783,
    "اع": 2784,
    "سه": 2785,
    "۲۰۱۲": 2786,
    "مون": 2787,
    "باقر": 2788,
    "▁جسم": 2789,
    "افزایش": 2790,
    "۱۸": 2791,
    "پیشتر": 2792,
    "▁۳۹": 2793,
    "رس": 2794,
    "▁روس": 2795,
    "▁پارسی": 2796,
    "▁هجوم": 2797,
    "پی": 2798,
    "شویی": 2799,
    "فرین": 2800,
    "▁فیلیپ": 2801,
    "▁عروس": 2802,
    "▁خداحافظ": 2803,
    "▁غیرمستقیم": 2804,
    "▁قاجار": 2805,
    "▁آفتاب": 2806,
    "▁موانع": 2807,
    "▁بلژیک": 2808,
    "▁غزنی": 2809,
    "▁اولسان": 2810,
    "▁کربن": 2811,
    "▁قوا": 2812,
    "▁سلمان": 2813,
    "▁نیروگاه": 2814,
    "▁تعرف": 2815,
    "▁اقامت": 2816,
    "▁پاییز": 2817,
    "▁هشتاد": 2818,
    "▁۲۵۰": 2819,
    "▁سبز": 2820,
    "▁بیاید": 2821,
    "▁قله": 2822,
    "زن": 2823,
    "▁ضرورت": 2824,
    "▁خریدار": 2825,
    "▁استادیوم": 2826,
    "▁محافظت": 2827,
    "▁تحول": 2828,
    "▁آزمایشگاه": 2829,
    "▁مکانی": 2830,
    "▁سرود": 2831,
    "▁قدس": 2832,
    "▁نگرفته": 2833,
    "▁یاری": 2834,
    "▁ون": 2835,
    "▁نماز": 2836,
    "▁نمای": 2837,
    "▁جم": 2838,
    "▁نیک": 2839,
    "▁آموزشی": 2840,
    "▁یاران": 2841,
    "▁تای": 2842,
    "▁۴۹": 2843,
    "عبدال": 2844,
    "▁مند": 2845,
    "فاصله": 2846,
    "▁یازدهم": 2847,
    "هزار": 2848,
    "▁طلایی": 2849,
    "▁۶۰۰": 2850,
    "▁آفریقای": 2851,
    "داشت": 2852,
    "▁سراسری": 2853,
    "▁افزار": 2854,
    "▁رضوی": 2855,
    "▁پانصد": 2856,
    "▁دانمارک": 2857,
    "▁فردوسی": 2858,
    "ادورو": 2859,
    "▁وسایل": 2860,
    "▁مطبوعات": 2861,
    "▁آدم": 2862,
    "▁پرفروش": 2863,
    "▁تلخ": 2864,
    "▁مسکونی": 2865,
    "▁کانری": 2866,
    "▁سلول": 2867,
    "▁اشرف": 2868,
    "راضی": 2869,
    "▁ویران": 2870,
    "▁مساوی": 2871,
    "▁عادت": 2872,
    "▁نداشتند": 2873,
    "▁شکاف": 2874,
    "▁اوبر": 2875,
    "▁تحلیلگر": 2876,
    "▁روب": 2877,
    "▁آتی": 2878,
    "▁عبوری": 2879,
    "ماهی": 2880,
    "▁بدر": 2881,
    "▁گذراند": 2882,
    "▁خاطرات": 2883,
    "▁وست": 2884,
    "▁مسئولین": 2885,
    "▁شناور": 2886,
    "▁خوانندگ": 2887,
    "▁موضوعات": 2888,
    "قابل": 2889,
    "▁همیش": 2890,
    "▁تور": 2891,
    "▁۶۵": 2892,
    "رویی": 2893,
    "▁ابتلای": 2894,
    "▁حافظ": 2895,
    "▁گرا": 2896,
    "▁جورج": 2897,
    "▁خوان": 2898,
    "غان": 2899,
    "▁گرد": 2900,
    "سخنگوی": 2901,
    "رسمی": 2902,
    "▁پیشگیری": 2903,
    "امروز": 2904,
    "▁۴۴": 2905,
    "رت": 2906,
    "▁کمال": 2907,
    "▁سین": 2908,
    "▁خاطره": 2909,
    "▁بابا": 2910,
    "▁قدر": 2911,
    "وثی": 2912,
    "▁دانشمند": 2913,
    "▁مشتری": 2914,
    "صاف": 2915,
    "خره": 2916,
    "▁مطالب": 2917,
    "▁دبلیو": 2918,
    "▁گرنداسلم": 2919,
    "▁واژه": 2920,
    "▁تظاهرات": 2921,
    "▁باشید": 2922,
    "▁پادتن": 2923,
    "▁حیدر": 2924,
    "▁راهبرد": 2925,
    "▁بلیت": 2926,
    "▁جنبش": 2927,
    "▁مدارک": 2928,
    "▁هیوندای": 2929,
    "▁غار": 2930,
    "▁شورو": 2931,
    "▁امین": 2932,
    "شهر": 2933,
    "▁فرزندان": 2934,
    "وت": 2935,
    "▁محمدجواد": 2936,
    "▁ضعیف": 2937,
    "▁فاز": 2938,
    "▁مسال": 2939,
    "التی": 2940,
    "▁کاربر": 2941,
    "▁درد": 2942,
    "▁آندر": 2943,
    "▁کیم": 2944,
    "▁رفتند": 2945,
    "▁باران": 2946,
    "▁ذخا": 2947,
    "جان": 2948,
    "بیش": 2949,
    "▁برایش": 2950,
    "▁نرسیده": 2951,
    "▁گرب": 2952,
    "▁هنرها": 2953,
    "▁تس": 2954,
    "▁سوئیسی": 2955,
    "▁داوطلب": 2956,
    "▁طوری": 2957,
    "افغانستان": 2958,
    "▁سپ": 2959,
    "▁عفو": 2960,
    "▁محدودیتهای": 2961,
    "▁ادعا": 2962,
    "لف": 2963,
    "▁رهبران": 2964,
    "▁رویای": 2965,
    "بون": 2966,
    "باران": 2967,
    "ذ": 2968,
    "ستون": 2969,
    "بهار": 2970,
    "▁راند": 2971,
    "▁انفرادی": 2972,
    "▁سامسونگ": 2973,
    "▁تروریسم": 2974,
    "▁فریاد": 2975,
    "▁دهقان": 2976,
    "▁خلاص": 2977,
    "▁کیلو": 2978,
    "▁قادر": 2979,
    "▁مخابرات": 2980,
    "▁مقاومت": 2981,
    "▁بوندس": 2982,
    "▁رمزارزها": 2983,
    "▁بزند": 2984,
    "▁مسلمان": 2985,
    "▁تعهد": 2986,
    "▁عراقچی": 2987,
    "▁صمت": 2988,
    "▁صند": 2989,
    "▁لوئی": 2990,
    "▁غر": 2991,
    "▁ایرانیان": 2992,
    "▁تمایل": 2993,
    "▁ربات": 2994,
    "▁۱۳۷": 2995,
    "▁خشم": 2996,
    "▁فیل": 2997,
    "▁ظاهرا": 2998,
    "▁خانوارهای": 2999,
    "▁داری": 3000,
    "▁فقیر": 3001,
    "زی": 3002,
    "▁دیر": 3003,
    "خرج": 3004,
    "▁لیس": 3005,
    "▁موش": 3006,
    "▁دارم": 3007,
    "▁درهای": 3008,
    "▁سنا": 3009,
    "▁استخوان": 3010,
    "▁حلق": 3011,
    "▁گم": 3012,
    "▁حضورش": 3013,
    "▁شاهزاد": 3014,
    "▁تف": 3015,
    "▁انبار": 3016,
    "▁اسلام": 3017,
    "اینها": 3018,
    "بخش": 3019,
    "گه": 3020,
    "رداد": 3021,
    "تو": 3022,
    "۵۰": 3023,
    "▁سیل": 3024,
    "▁گمان": 3025,
    "بسیاری": 3026,
    "▁لب": 3027,
    "▁ژنتیکی": 3028,
    "▁لاش": 3029,
    "اوش": 3030,
    "▁دف": 3031,
    "مجموعه": 3032,
    "کم": 3033,
    "▁منتقد": 3034,
    "▁محقق": 3035,
    "بل": 3036,
    "گانه": 3037,
    "خت": 3038,
    "▁خوشحال": 3039,
    "▁تاجیک": 3040,
    "▁عموم": 3041,
    "وض": 3042,
    "▁تاکسی": 3043,
    "▁الکترونیک": 3044,
    "▁تدابیر": 3045,
    "▁فرآیند": 3046,
    "▁موبایل": 3047,
    "خیص": 3048,
    "▁پیراهن": 3049,
    "▁مترجم": 3050,
    "▁روزگار": 3051,
    "▁خلو": 3052,
    "▁ثامن": 3053,
    "▁گروسی": 3054,
    "▁زرد": 3055,
    "▁پلاستیک": 3056,
    "▁قدرتمند": 3057,
    "▁همسایه": 3058,
    "▁عمان": 3059,
    "▁نژادپرست": 3060,
    "▁نمایشگر": 3061,
    "▁ربط": 3062,
    "نادیده": 3063,
    "▁سران": 3064,
    "▁کریست": 3065,
    "▁پرده": 3066,
    "▁برقی": 3067,
    "▁پرسش": 3068,
    "▁جلسات": 3069,
    "▁جیب": 3070,
    "▁۳۸": 3071,
    "بنا": 3072,
    "▁پذیرفته": 3073,
    "▁مبادل": 3074,
    "▁گذر": 3075,
    "▁زیبایی": 3076,
    "▁خیابانی": 3077,
    "▁باخته": 3078,
    "نر": 3079,
    "▁فراری": 3080,
    "▁دراز": 3081,
    "▁پیست": 3082,
    "▁صورتی": 3083,
    "▁خودم": 3084,
    "▁سیار": 3085,
    "داع": 3086,
    "▁فکری": 3087,
    "▁دوام": 3088,
    "پنج": 3089,
    "▁جعل": 3090,
    "▁کاسته": 3091,
    "کسی": 3092,
    "لینی": 3093,
    "▁۱۳۵": 3094,
    "▁تکان": 3095,
    "▁اگر": 3096,
    "میم": 3097,
    "پرو": 3098,
    "▁گروگان": 3099,
    "▁پیک": 3100,
    "اقات": 3101,
    "▁ریاض": 3102,
    "▁قص": 3103,
    "▁روح": 3104,
    "انکو": 3105,
    "▁صادق": 3106,
    "▁مطل": 3107,
    "▁۵۵": 3108,
    "▁شیرین": 3109,
    "▁سرباز": 3110,
    "▁امتحان": 3111,
    "▁تسلیحات": 3112,
    "▁تگزاس": 3113,
    "▁شمخانی": 3114,
    "▁لذت": 3115,
    "▁نتانیاهو": 3116,
    "▁نکنید": 3117,
    "▁بعید": 3118,
    "▁منحصر": 3119,
    "▁انبوه": 3120,
    "▁ناحیه": 3121,
    "▁سئوال": 3122,
    "▁دادگستری": 3123,
    "▁خوراک": 3124,
    "▁قلم": 3125,
    "▁اقلی": 3126,
    "▁بامیان": 3127,
    "▁ترجیح": 3128,
    "▁کریکت": 3129,
    "▁ارتفاع": 3130,
    "▁اپلیکیشن": 3131,
    "▁طوفان": 3132,
    "▁مصدومیت": 3133,
    "▁زوج": 3134,
    "▁زنگنه": 3135,
    "یفه": 3136,
    "▁عفونت": 3137,
    "▁ولز": 3138,
    "▁مزار": 3139,
    "▁سرزمین": 3140,
    "▁وبسایت": 3141,
    "▁گردن": 3142,
    "▁مدارس": 3143,
    "▁کیهان": 3144,
    "▁کرام": 3145,
    "▁آگ": 3146,
    "▁ایلنا": 3147,
    "▁نقدی": 3148,
    "▁کاردن": 3149,
    "▁صرفا": 3150,
    "▁پپ": 3151,
    "▁مطالعات": 3152,
    "▁خودروها": 3153,
    "▁محتوای": 3154,
    "▁جدال": 3155,
    "▁افتد": 3156,
    "▁محسن": 3157,
    "▁خواندن": 3158,
    "▁عام": 3159,
    "▁عملی": 3160,
    "▁۱۹۹": 3161,
    "▁وظ": 3162,
    "▁فراگیر": 3163,
    "▁احت": 3164,
    "▁امان": 3165,
    "تنش": 3166,
    "یرت": 3167,
    "▁همای": 3168,
    "▁روسی": 3169,
    "▁نامدار": 3170,
    "یخ": 3171,
    "اج": 3172,
    "▁بازیگری": 3173,
    "▁قربانی": 3174,
    "وات": 3175,
    "▁خواستند": 3176,
    "پوری": 3177,
    "پل": 3178,
    "تیپ": 3179,
    "▁عزیزی": 3180,
    "▁بران": 3181,
    "▁جوانی": 3182,
    "شده": 3183,
    "یمی": 3184,
    "▁امن": 3185,
    "▁۳۷": 3186,
    "▁۶۷": 3187,
    "▁رغ": 3188,
    "وا": 3189,
    "واد": 3190,
    "سکی": 3191,
    "▁پانزده": 3192,
    "ایب": 3193,
    "▁گریز": 3194,
    "▁پروان": 3195,
    "▁بلخ": 3196,
    "▁ویدیو": 3197,
    "▁نقد": 3198,
    "▁تماشا": 3199,
    "▁پوش": 3200,
    "▁روستا": 3201,
    "▁پرند": 3202,
    "▁تاب": 3203,
    "▁شایع": 3204,
    "التهاب": 3205,
    "زیگ": 3206,
    "▁رقص": 3207,
    "▁هیأت": 3208,
    "▁پرافتخار": 3209,
    "▁ولسوال": 3210,
    "▁برساند": 3211,
    "▁بکشد": 3212,
    "▁ازبکستان": 3213,
    "حص": 3214,
    "▁پیاده": 3215,
    "▁طنز": 3216,
    "▁یوفا": 3217,
    "▁همسان": 3218,
    "▁پردازد": 3219,
    "▁متقاضی": 3220,
    "▁علامت": 3221,
    "▁اشتغال": 3222,
    "▁نادرست": 3223,
    "▁فیلتر": 3224,
    "▁ببرد": 3225,
    "▁غریب": 3226,
    "▁صلاح": 3227,
    "▁گردشگران": 3228,
    "▁پیمان": 3229,
    "▁اضطراب": 3230,
    "▁احساسات": 3231,
    "▁طیف": 3232,
    "▁ط": 3233,
    "اول": 3234,
    "▁اختلافات": 3235,
    "▁ساختار": 3236,
    "▁هستم": 3237,
    "▁استخر": 3238,
    "▁منته": 3239,
    "▁کت": 3240,
    "▁آوردند": 3241,
    "▁زیان": 3242,
    "رنج": 3243,
    "▁پوشید": 3244,
    "▁بوش": 3245,
    "▁منشا": 3246,
    "ارد": 3247,
    "▁تمرکز": 3248,
    "▁نزد": 3249,
    "▁یکصد": 3250,
    "▁پرسید": 3251,
    "▁ور": 3252,
    "▁ثروتمند": 3253,
    "▁تنگ": 3254,
    "▁آزمایی": 3255,
    "▁مغزی": 3256,
    "فیه": 3257,
    "▁بوک": 3258,
    "▁روسا": 3259,
    "▁بقای": 3260,
    "▁۵۶": 3261,
    "▁فرش": 3262,
    "▁کاس": 3263,
    "▁۳۶": 3264,
    "▁دلاری": 3265,
    "هالی": 3266,
    "▁تخیل": 3267,
    "▁عزاداری": 3268,
    "▁برگ": 3269,
    "▁بدی": 3270,
    "ندگان": 3271,
    "خالص": 3272,
    "عباس": 3273,
    "محمود": 3274,
    "▁سید": 3275,
    "امسال": 3276,
    "▁والی": 3277,
    "▁آیند": 3278,
    "▁فیلمساز": 3279,
    "عکس": 3280,
    "▁سون": 3281,
    "▁افکن": 3282,
    "ستگی": 3283,
    "▁فو": 3284,
    "جه": 3285,
    "▁میلیاردها": 3286,
    "▁بهرام": 3287,
    "▁درخت": 3288,
    "▁سان": 3289,
    "▁اهدا": 3290,
    "▁تخلف": 3291,
    "▁متاسف": 3292,
    "▁مهندس": 3293,
    "▁شعار": 3294,
    "▁بلاروس": 3295,
    "▁خانوادگی": 3296,
    "▁غربالگری": 3297,
    "▁والیبال": 3298,
    "▁اعزام": 3299,
    "▁قاضی": 3300,
    "▁تفریح": 3301,
    "▁مقصر": 3302,
    "▁راموس": 3303,
    "▁ناامن": 3304,
    "▁زلزله": 3305,
    "▁دقایق": 3306,
    "▁تلگرام": 3307,
    "▁۲۰۲۲": 3308,
    "▁برانگیخت": 3309,
    "▁۱۹۸۶": 3310,
    "▁اهداف": 3311,
    "▁خاموش": 3312,
    "▁رسول": 3313,
    "▁نقص": 3314,
    "▁صبر": 3315,
    "▁جمال": 3316,
    "▁طبری": 3317,
    "▁تقدی": 3318,
    "▁شیراز": 3319,
    "▁دادسرا": 3320,
    "▁مصون": 3321,
    "▁بیلسا": 3322,
    "▁اصطلاح": 3323,
    "▁رنو": 3324,
    "مت": 3325,
    "▁تفاهم": 3326,
    "▁نان": 3327,
    "▁کمرنگ": 3328,
    "▁محاسبات": 3329,
    "▁گفتگوها": 3330,
    "▁نکردن": 3331,
    "▁آنقدر": 3332,
    "لک": 3333,
    "▁سرنشینان": 3334,
    "▁ترسیم": 3335,
    "▁تاک": 3336,
    "▁راستی": 3337,
    "▁توماس": 3338,
    "▁اصلاحات": 3339,
    "▁معمار": 3340,
    "▁شدم": 3341,
    "▁همیلتون": 3342,
    "▁مون": 3343,
    "▁استرالیایی": 3344,
    "▁رادیوی": 3345,
    "کاری": 3346,
    "▁۵۲": 3347,
    "▁مرس": 3348,
    "▁شاهین": 3349,
    "▁گلو": 3350,
    "▁خوردن": 3351,
    "وستهم": 3352,
    "بورن": 3353,
    "▁اطل": 3354,
    "▁قاطع": 3355,
    "▁استعداد": 3356,
    "▁صادراتی": 3357,
    "▁اقلیمی": 3358,
    "▁راک": 3359,
    "▁گمانه": 3360,
    "▁صحن": 3361,
    "▁اسد": 3362,
    "▁نرسید": 3363,
    "▁۷۷": 3364,
    "خ": 3365,
    "▁اموا": 3366,
    "▁کهن": 3367,
    "فق": 3368,
    "▁مای": 3369,
    "طبق": 3370,
    "آنها": 3371,
    "▁جلالی": 3372,
    "▁منج": 3373,
    "▁ات": 3374,
    "برخ": 3375,
    "▁۱۳۸": 3376,
    "وریا": 3377,
    "▁ویل": 3378,
    "▁مهاجر": 3379,
    "▁محور": 3380,
    "▁۱۲۰": 3381,
    "▁ارزان": 3382,
    "▁ساک": 3383,
    "یل": 3384,
    "▁معترض": 3385,
    "▁ارا": 3386,
    "▁لیگا": 3387,
    "کی": 3388,
    "▁ابزار": 3389,
    "آوری": 3390,
    "داوم": 3391,
    "▁مع": 3392,
    "▁زیبا": 3393,
    "نت": 3394,
    "وایی": 3395,
    "▁پیوند": 3396,
    "راحل": 3397,
    "طئ": 3398,
    "▁الانبیا": 3399,
    "▁بنگلادش": 3400,
    "▁تأثیر": 3401,
    "▁تحمیل": 3402,
    "▁موظف": 3403,
    "▁پروتئین": 3404,
    "▁کنسول": 3405,
    "▁بازگردد": 3406,
    "▁تعدیل": 3407,
    "▁مفید": 3408,
    "▁بامداد": 3409,
    "▁تدوین": 3410,
    "▁اخلال": 3411,
    "▁لهستان": 3412,
    "▁نکند": 3413,
    "▁ارمنستان": 3414,
    "▁بنیانگذار": 3415,
    "▁قریب": 3416,
    "▁سراغ": 3417,
    "ژانس": 3418,
    "▁بخصوص": 3419,
    "▁تلفیق": 3420,
    "▁استرازنکا": 3421,
    "▁مفهوم": 3422,
    "▁ابعاد": 3423,
    "▁لمس": 3424,
    "▁دیگو": 3425,
    "▁کارگزار": 3426,
    "▁شریک": 3427,
    "▁دموکرات": 3428,
    "▁اهدای": 3429,
    "▁جهاد": 3430,
    "▁عروسک": 3431,
    "▁مبادلات": 3432,
    "▁منتف": 3433,
    "▁آشفت": 3434,
    "▁اعضا": 3435,
    "▁لیدز": 3436,
    "▁تایسون": 3437,
    "نو": 3438,
    "▁کتی": 3439,
    "▁هنگ": 3440,
    "▁آبادی": 3441,
    "▁تایم": 3442,
    "▁عطرساز": 3443,
    "▁بینند": 3444,
    "▁پایدار": 3445,
    "▁بها": 3446,
    "▁نوی": 3447,
    "▁خریداران": 3448,
    "▁پیکر": 3449,
    "▁تروی": 3450,
    "▁مبنای": 3451,
    "▁صادرکنند": 3452,
    "▁کارش": 3453,
    "عداد": 3454,
    "▁ص": 3455,
    "▁مصاد": 3456,
    "ممکن": 3457,
    "▁سگ": 3458,
    "۳۰": 3459,
    "شار": 3460,
    "▁ماهها": 3461,
    "▁خبرهای": 3462,
    "▁زانو": 3463,
    "▁شی": 3464,
    "▁کش": 3465,
    "▁جن": 3466,
    "▁سیف": 3467,
    "▁بستن": 3468,
    "خیلی": 3469,
    "▁موشکی": 3470,
    "▁غ": 3471,
    "▁خشکی": 3472,
    "▁اسپی": 3473,
    "▁ایرلند": 3474,
    "شاهی": 3475,
    "▁نظریه": 3476,
    "▁توانم": 3477,
    "راه": 3478,
    "مال": 3479,
    "شاخص": 3480,
    "فیلم": 3481,
    "ظهر": 3482,
    "احمد": 3483,
    "▁تاپ": 3484,
    "▁لق": 3485,
    "▁روستایی": 3486,
    "لت": 3487,
    "▁دود": 3488,
    "▁اوست": 3489,
    "▁خال": 3490,
    "▁کلا": 3491,
    "انکن": 3492,
    "مرکز": 3493,
    "▁نسب": 3494,
    "▁اظهارنظر": 3495,
    "▁سحر": 3496,
    "▁شا": 3497,
    "▁۹۱": 3498,
    "▁ببینید": 3499,
    "▁تخصص": 3500,
    "▁نساجی": 3501,
    "▁نوبخت": 3502,
    "خصیص": 3503,
    "▁صنف": 3504,
    "▁لالیگا": 3505,
    "▁دروغ": 3506,
    "▁بدانیم": 3507,
    "▁وسط": 3508,
    "▁اکسیژن": 3509,
    "▁اسپرت": 3510,
    "▁رابرت": 3511,
    "▁تایلند": 3512,
    "▁تکلیف": 3513,
    "▁عرف": 3514,
    "▁دقت": 3515,
    "▁مهرماه": 3516,
    "▁نیوزیلند": 3517,
    "▁نشت": 3518,
    "▁مقطع": 3519,
    "▁تسلیت": 3520,
    "▁بشار": 3521,
    "▁دعوا": 3522,
    "▁مارتین": 3523,
    "▁سلف": 3524,
    "▁ایراد": 3525,
    "▁۴۳": 3526,
    "▁آموزان": 3527,
    "▁افتتاح": 3528,
    "▁مکرون": 3529,
    "تلاف": 3530,
    "ختم": 3531,
    "▁آورند": 3532,
    "▁شکار": 3533,
    "▁دانم": 3534,
    "▁کشند": 3535,
    "▁یونان": 3536,
    "▁مهاجران": 3537,
    "▁دستیابی": 3538,
    "▁داشتم": 3539,
    "▁بریت": 3540,
    "▁جنبه": 3541,
    "نظر": 3542,
    "▁قوس": 3543,
    "▁زک": 3544,
    "▁انتقالات": 3545,
    "▁ترور": 3546,
    "▁شه": 3547,
    "▁اصول": 3548,
    "▁ناصر": 3549,
    "ناد": 3550,
    "▁ایام": 3551,
    "▁ظهر": 3552,
    "نز": 3553,
    "▁گور": 3554,
    "دگی": 3555,
    "▁ادا": 3556,
    "▁هاوس": 3557,
    "▁مادری": 3558,
    "▁رنج": 3559,
    "▁کاست": 3560,
    "▁حا": 3561,
    "▁سم": 3562,
    "مار": 3563,
    "▁زیستی": 3564,
    "شیر": 3565,
    "▁بس": 3566,
    "موند": 3567,
    "▁اوین": 3568,
    "نیم": 3569,
    "▁افشا": 3570,
    "▁دستگیری": 3571,
    "۲۵": 3572,
    "▁باتر": 3573,
    "لیگ": 3574,
    "وان": 3575,
    "دانشمندان": 3576,
    "لیورپول": 3577,
    "پلیس": 3578,
    "کدام": 3579,
    "شیوع": 3580,
    "نواک": 3581,
    "گروه": 3582,
    "اولین": 3583,
    "روی": 3584,
    "▁داروهای": 3585,
    "۳۱": 3586,
    "▁آیین": 3587,
    "غال": 3588,
    "کننده": 3589,
    "▁حداکثری": 3590,
    "▁ناو": 3591,
    "▁سینماها": 3592,
    "▁داغ": 3593,
    "▁مرخص": 3594,
    "▁منتخب": 3595,
    "▁ثمر": 3596,
    "▁تعامل": 3597,
    "▁دوپینگ": 3598,
    "▁بروکسل": 3599,
    "▁سکونت": 3600,
    "▁شوهر": 3601,
    "▁متاثر": 3602,
    "▁ناچار": 3603,
    "▁ونیز": 3604,
    "▁نکنند": 3605,
    "▁تماشاچی": 3606,
    "▁کابین": 3607,
    "▁لنون": 3608,
    "▁یمانی": 3609,
    "▁استراتژیک": 3610,
    "▁چراغ": 3611,
    "▁خرند": 3612,
    "▁ویلیامز": 3613,
    "▁مرزهای": 3614,
    "▁شور": 3615,
    "▁بیروت": 3616,
    "▁منچستریونایتد": 3617,
    "▁۲۰۰۳": 3618,
    "▁کشاند": 3619,
    "▁ناجی": 3620,
    "▁معارف": 3621,
    "▁شاگردان": 3622,
    "▁برخلاف": 3623,
    "▁محبوبیت": 3624,
    "نام": 3625,
    "▁شنا": 3626,
    "▁عج": 3627,
    "جونز": 3628,
    "▁کوچکی": 3629,
    "▁آبادان": 3630,
    "▁خدا": 3631,
    "▁ویکتور": 3632,
    "▁سربازان": 3633,
    "▁پوشاند": 3634,
    "عادل": 3635,
    "▁گذاشتن": 3636,
    "سیویر": 3637,
    "▁تروریستی": 3638,
    "▁پراکند": 3639,
    "▁ایوان": 3640,
    "یحی": 3641,
    "▁رساندن": 3642,
    "▁مرزها": 3643,
    "▁بازماند": 3644,
    "▁گفتگوی": 3645,
    "▁سرو": 3646,
    "▁۴۶": 3647,
    "▁فلیک": 3648,
    "▁قراردادش": 3649,
    "▁کاشی": 3650,
    "▁موسوی": 3651,
    "▁نمکی": 3652,
    "▁زور": 3653,
    "▁هجومی": 3654,
    "▁حیاتی": 3655,
    "▁دوحه": 3656,
    "▁بومی": 3657,
    "▁سیزدهم": 3658,
    "▁هل": 3659,
    "▁قض": 3660,
    "تمرکز": 3661,
    "سو": 3662,
    "بچه": 3663,
    "▁شمسی": 3664,
    "بادی": 3665,
    "▁سیزده": 3666,
    "▁کشت": 3667,
    "عه": 3668,
    "▁بهایی": 3669,
    "▁گلزنی": 3670,
    "▁پوری": 3671,
    "وپن": 3672,
    "مراسم": 3673,
    "عنوان": 3674,
    "ناک": 3675,
    "بعد": 3676,
    "حالا": 3677,
    "▁کشی": 3678,
    "▁تند": 3679,
    "ایح": 3680,
    "▁ایمان": 3681,
    "▁اندیش": 3682,
    "▁قم": 3683,
    "▁۷۳": 3684,
    "▁مستق": 3685,
    "لحق": 3686,
    "▁تعقیب": 3687,
    "▁ثروت": 3688,
    "▁دژپسند": 3689,
    "▁شلوغ": 3690,
    "▁فلوریدا": 3691,
    "▁مایکروسافت": 3692,
    "▁رفاه": 3693,
    "▁انقراض": 3694,
    "▁محاکم": 3695,
    "▁مکرر": 3696,
    "▁یوگا": 3697,
    "▁مقدم": 3698,
    "▁بندرعباس": 3699,
    "▁سردبیر": 3700,
    "▁قطار": 3701,
    "▁خوشنام": 3702,
    "▁ساویز": 3703,
    "▁بگیریم": 3704,
    "▁کارلوس": 3705,
    "▁ناپدید": 3706,
    "▁شاخ": 3707,
    "▁بزوس": 3708,
    "▁متناسب": 3709,
    "▁بزنند": 3710,
    "▁جاشوا": 3711,
    "▁پرندگان": 3712,
    "▁سادات": 3713,
    "▁تخلفات": 3714,
    "▁اریک": 3715,
    "▁پولی": 3716,
    "▁بجا": 3717,
    "▁طرفدار": 3718,
    "تاسف": 3719,
    "▁سازد": 3720,
    "▁پیوستن": 3721,
    "▁تقابل": 3722,
    "▁لحظات": 3723,
    "▁ازای": 3724,
    "▁رسانی": 3725,
    "▁وزارتخانه": 3726,
    "▁دهک": 3727,
    "▁نیوک": 3728,
    "▁بوق": 3729,
    "▁گردند": 3730,
    "▁نجف": 3731,
    "▁فتح": 3732,
    "▁۱۵۰۰": 3733,
    "▁افکار": 3734,
    "▁روزمر": 3735,
    "▁کردستان": 3736,
    "▁آباد": 3737,
    "▁نژادی": 3738,
    "▁کشم": 3739,
    "جیره": 3740,
    "▁آوردن": 3741,
    "▁وسی": 3742,
    "▁کول": 3743,
    "▁استعفای": 3744,
    "▁تاز": 3745,
    "▁پستان": 3746,
    "▁بیل": 3747,
    "▁کشیدن": 3748,
    "▁مادران": 3749,
    "▁مهمان": 3750,
    "▁بل": 3751,
    "▁مرم": 3752,
    "▁برادرش": 3753,
    "▁گال": 3754,
    "▁نداد": 3755,
    "▁خودروی": 3756,
    "۹۰": 3757,
    "مر": 3758,
    "▁بدل": 3759,
    "یژن": 3760,
    "▁آرا": 3761,
    "▁کنیا": 3762,
    "▁رصد": 3763,
    "صورت": 3764,
    "ئر": 3765,
    "▁جین": 3766,
    "ساب": 3767,
    "ارغ": 3768,
    "▁تار": 3769,
    "اتحاد": 3770,
    "▁معمولی": 3771,
    "تب": 3772,
    "▁اما": 3773,
    "▁رحم": 3774,
    "▁متشک": 3775,
    "کینگ": 3776,
    "کوبی": 3777,
    "▁گیاه": 3778,
    "▁اختلا": 3779,
    "▁دردسر": 3780,
    "▁مقرر": 3781,
    "▁آنفلوآنزا": 3782,
    "▁تجلیل": 3783,
    "▁حرکات": 3784,
    "▁استراحت": 3785,
    "▁ذکر": 3786,
    "▁مشورت": 3787,
    "▁لزوم": 3788,
    "▁بکشند": 3789,
    "▁مشکوک": 3790,
    "▁دانشکد": 3791,
    "▁مقیم": 3792,
    "▁خیانت": 3793,
    "▁بمانند": 3794,
    "▁کامیون": 3795,
    "▁ویلیام": 3796,
    "▁تعجب": 3797,
    "▁بوشهر": 3798,
    "اصو": 3799,
    "▁فرونشست": 3800,
    "▁خوک": 3801,
    "▁متعهد": 3802,
    "▁حجاب": 3803,
    "▁انتقادهای": 3804,
    "▁الحسن": 3805,
    "▁۲۰۳۰": 3806,
    "▁زنجان": 3807,
    "▁۱۳۹۵": 3808,
    "▁آهنگساز": 3809,
    "▁بلومبرگ": 3810,
    "فاد": 3811,
    "▁کمپین": 3812,
    "▁ویزا": 3813,
    "▁مرگبار": 3814,
    "انا": 3815,
    "▁ژوز": 3816,
    "▁شوید": 3817,
    "وه": 3818,
    "▁بورل": 3819,
    "▁سیاستمداران": 3820,
    "▁پناهجویان": 3821,
    "▁اسپوت": 3822,
    "▁روبروست": 3823,
    "▁اندازد": 3824,
    "▁فروشند": 3825,
    "▁ستارگان": 3826,
    "▁رانندگی": 3827,
    "▁کارگروه": 3828,
    "▁وحید": 3829,
    "نزا": 3830,
    "تیکو": 3831,
    "▁لیور": 3832,
    "▁ظه": 3833,
    "کرد": 3834,
    "▁سالمندان": 3835,
    "▁توفیق": 3836,
    "▁ریچارد": 3837,
    "▁بازنشست": 3838,
    "▁شون": 3839,
    "▁گزارشگران": 3840,
    "▁تقویم": 3841,
    "▁تام": 3842,
    "▁ژنتیک": 3843,
    "▁طرز": 3844,
    "▁یکسان": 3845,
    "▁نسبتا": 3846,
    "▁کاوا": 3847,
    "▁عبدی": 3848,
    "اری": 3849,
    "▁ببر": 3850,
    "▁نوشتن": 3851,
    "▁انتقادها": 3852,
    "▁ویلا": 3853,
    "▁حاجی": 3854,
    "▁پرهی": 3855,
    "حتی": 3856,
    "▁حریفان": 3857,
    "▁۱۹۴": 3858,
    "▁نیا": 3859,
    "عی": 3860,
    "▁ماهیگیر": 3861,
    "▁نیو": 3862,
    "▁صالحی": 3863,
    "ایع": 3864,
    "گاهی": 3865,
    "▁گانه": 3866,
    "▁شاعران": 3867,
    "▁علیر": 3868,
    "▁همگ": 3869,
    "دان": 3870,
    "▁خارا": 3871,
    "۲۳": 3872,
    "تیک": 3873,
    "▁شریفی": 3874,
    "▁آوی": 3875,
    "▁شدیدتر": 3876,
    "▁پلی": 3877,
    "▁یکسال": 3878,
    "▁الکس": 3879,
    "▁تالا": 3880,
    "▁رس": 3881,
    "فا": 3882,
    "رق": 3883,
    "۶۰": 3884,
    "واسط": 3885,
    "▁میز": 3886,
    "امیر": 3887,
    "ضعیف": 3888,
    "پژوهشگران": 3889,
    "استفاده": 3890,
    "منستان": 3891,
    "مسئولان": 3892,
    "شاید": 3893,
    "دادگاه": 3894,
    "▁۸۰۰": 3895,
    "شدت": 3896,
    "قص": 3897,
    "▁آقا": 3898,
    "▁اکس": 3899,
    "▁تثب": 3900,
    "▁اشک": 3901,
    "▁درس": 3902,
    "آخری": 3903,
    "خمین": 3904,
    "▁رنجر": 3905,
    "▁ناراحت": 3906,
    "خاطر": 3907,
    "وستا": 3908,
    "اطم": 3909,
    "▁فضانورد": 3910,
    "گذاری": 3911,
    "▁گوگ": 3912,
    "▁زبا": 3913,
    "▁کمربند": 3914,
    "▁جالب": 3915,
    "▁فلز": 3916,
    "▁مخصوص": 3917,
    "▁مسکو": 3918,
    "▁استراتژی": 3919,
    "▁اعتقاد": 3920,
    "▁فلسفه": 3921,
    "▁پرطرفدار": 3922,
    "▁ابتکار": 3923,
    "▁یهودی": 3924,
    "▁برگردد": 3925,
    "▁تضمین": 3926,
    "▁ستایش": 3927,
    "▁منفجر": 3928,
    "▁مسایل": 3929,
    "▁بختیار": 3930,
    "▁مکتب": 3931,
    "▁دماوند": 3932,
    "▁نروژ": 3933,
    "▁بگوییم": 3934,
    "▁مواضع": 3935,
    "▁ویرجی": 3936,
    "▁ببینند": 3937,
    "▁فرگوسن": 3938,
    "▁فجر": 3939,
    "▁دایناسور": 3940,
    "▁اعتیاد": 3941,
    "▁عنکبوت": 3942,
    "▁نظم": 3943,
    "▁منزل": 3944,
    "▁کشتار": 3945,
    "آبادی": 3946,
    "▁ذی": 3947,
    "▁همرسان": 3948,
    "▁خرسند": 3949,
    "▁حرم": 3950,
    "▁منوچ": 3951,
    "▁ضایع": 3952,
    "▁کلود": 3953,
    "▁اسلم": 3954,
    "▁کادی": 3955,
    "▁شایعات": 3956,
    "کر": 3957,
    "▁تالار": 3958,
    "▁انصاریان": 3959,
    "▁۶۴": 3960,
    "▁کرمان": 3961,
    "▁ارج": 3962,
    "نیا": 3963,
    "هدیه": 3964,
    "▁کاربرد": 3965,
    "▁دشمنان": 3966,
    "▁گرند": 3967,
    "▁رایج": 3968,
    "یف": 3969,
    "▁۵۹": 3970,
    "▁گلف": 3971,
    "▁الیز": 3972,
    "▁ادعاهای": 3973,
    "▁وب": 3974,
    "▁جانور": 3975,
    "▁کلام": 3976,
    "▁خواه": 3977,
    "▁فرید": 3978,
    "ایر": 3979,
    "▁حکمتی": 3980,
    "▁قدمت": 3981,
    "▁سفی": 3982,
    "▁عقید": 3983,
    "▁شخص": 3984,
    "▁خند": 3985,
    "▁حداد": 3986,
    "شنگ": 3987,
    "▁تاریک": 3988,
    "▁جلال": 3989,
    "▁دوازده": 3990,
    "▁زخم": 3991,
    "▁وزرای": 3992,
    "▁روستای": 3993,
    "▁سیام": 3994,
    "▁داروها": 3995,
    "سیا": 3996,
    "▁جنس": 3997,
    "▁یکبار": 3998,
    "▁اسکو": 3999,
    "▁گرگ": 4000,
    "▁فای": 4001,
    "▁جرد": 4002,
    "▁نامزدها": 4003,
    "▁ادب": 4004,
    "بهم": 4005,
    "▁اق": 4006,
    "▁آفریقایی": 4007,
    "▁ساختن": 4008,
    "زم": 4009,
    "گل": 4010,
    "ناتور": 4011,
    "▁گرمای": 4012,
    "شاه": 4013,
    "▁خودران": 4014,
    "▁پسرش": 4015,
    "▁آفرین": 4016,
    "▁بروند": 4017,
    "لوله": 4018,
    "▁غم": 4019,
    "▁کما": 4020,
    "▁انجامید": 4021,
    "شمار": 4022,
    "▁لا": 4023,
    "تل": 4024,
    "▁منطق": 4025,
    "▁یکم": 4026,
    "▁تیل": 4027,
    "▁شع": 4028,
    "▁ار": 4029,
    "▁ناب": 4030,
    "▁دهان": 4031,
    "▁دوج": 4032,
    "رن": 4033,
    "مجانی": 4034,
    "هام": 4035,
    "پر": 4036,
    "برگ": 4037,
    "▁بمب": 4038,
    "▁کمدی": 4039,
    "لاق": 4040,
    "▁شناسان": 4041,
    "لق": 4042,
    "▁کنو": 4043,
    "▁۹۰۰": 4044,
    "آنتونی": 4045,
    "استقلال": 4046,
    "علیرضا": 4047,
    "مدت": 4048,
    "▁ملا": 4049,
    "خارجه": 4050,
    "▁ماز": 4051,
    "▁مگا": 4052,
    "چهار": 4053,
    "▁راس": 4054,
    "مهدی": 4055,
    "حقق": 4056,
    "▁فرج": 4057,
    "سپاری": 4058,
    "▁لرز": 4059,
    "▁مغ": 4060,
    "ساسی": 4061,
    "▁شاهکار": 4062,
    "اقد": 4063,
    "▁تحقیر": 4064,
    "▁دریابندری": 4065,
    "▁رتکلیف": 4066,
    "▁معدود": 4067,
    "▁وحدت": 4068,
    "▁کارداشیان": 4069,
    "▁مازندران": 4070,
    "▁محوطه": 4071,
    "▁اشتراک": 4072,
    "▁مجاهد": 4073,
    "▁بیفتد": 4074,
    "▁فلوید": 4075,
    "▁سیگار": 4076,
    "▁وصل": 4077,
    "مالاریا": 4078,
    "▁تعزیری": 4079,
    "▁خادم": 4080,
    "▁ورشکست": 4081,
    "▁روشنفکر": 4082,
    "▁ماندگار": 4083,
    "▁ببیند": 4084,
    "▁مرجع": 4085,
    "▁پیشتاز": 4086,
    "▁ناامید": 4087,
    "▁بلوچ": 4088,
    "▁زغال": 4089,
    "▁پشتیبان": 4090,
    "▁کوهستان": 4091,
    "▁مبدا": 4092,
    "▁آشوری": 4093,
    "▁تعبیر": 4094,
    "▁سایبری": 4095,
    "▁کپی": 4096,
    "▁۱۳۹۶": 4097,
    "▁ارزشمند": 4098,
    "نظرسنجی": 4099,
    "▁تنوع": 4100,
    "▁ترافیک": 4101,
    "▁تسلیم": 4102,
    "جانب": 4103,
    "▁کین": 4104,
    "▁ابوال": 4105,
    "▁دیدگاه": 4106,
    "تکب": 4107,
    "▁کیانوش": 4108,
    "▁تیرماه": 4109,
    "▁پلاک": 4110,
    "▁اذ": 4111,
    "▁پیرلو": 4112,
    "▁آرامکو": 4113,
    "▁وجه": 4114,
    "▁جنایت": 4115,
    "یچ": 4116,
    "▁دارید": 4117,
    "تراشه": 4118,
    "▁همینطور": 4119,
    "▁پناهندگ": 4120,
    "▁دارا": 4121,
    "▁نوید": 4122,
    "▁موجودات": 4123,
    "مرث": 4124,
    "▁۵۳": 4125,
    "▁دیپلمات": 4126,
    "▁کاظم": 4127,
    "▁لاری": 4128,
    "▁نداشتن": 4129,
    "▁اتل": 4130,
    "▁صفحات": 4131,
    "▁فرانک": 4132,
    "اش": 4133,
    "▁رضایی": 4134,
    "▁جبه": 4135,
    "▁پرسی": 4136,
    "▁مصطف": 4137,
    "نک": 4138,
    "▁شیلی": 4139,
    "▁رزم": 4140,
    "ائی": 4141,
    "▁مطهری": 4142,
    "▁دم": 4143,
    "▁لیست": 4144,
    "▁کا": 4145,
    "▁واسط": 4146,
    "▁۷۲": 4147,
    "▁قراردادهای": 4148,
    "▁آمدند": 4149,
    "مول": 4150,
    "▁شانزدهم": 4151,
    "▁افشار": 4152,
    "▁۶۲": 4153,
    "▁۱۳۶": 4154,
    "▁مغاز": 4155,
    "▁مسیرهای": 4156,
    "▁کلان": 4157,
    "▁دخترش": 4158,
    "▁نیش": 4159,
    "▁تصمیمات": 4160,
    "▁صعودی": 4161,
    "▁اکرا": 4162,
    "▁الزام": 4163,
    "▁تورمی": 4164,
    "▁گرایان": 4165,
    "▁۴۱": 4166,
    "▁پالا": 4167,
    "۲۰": 4168,
    "خواهد": 4169,
    "خواهید": 4170,
    "▁خوا": 4171,
    "▁مری": 4172,
    "▁کارگردانان": 4173,
    "▁شل": 4174,
    "▁شر": 4175,
    "ناز": 4176,
    "▁بارداری": 4177,
    "کمیت": 4178,
    "▁۷۸": 4179,
    "الله": 4180,
    "▁ردیاب": 4181,
    "▁پار": 4182,
    "▁سام": 4183,
    "▁نمود": 4184,
    "▁بانکها": 4185,
    "خل": 4186,
    "▁گرفتم": 4187,
    "▁دربار": 4188,
    "▁کاغذ": 4189,
    "دیگر": 4190,
    "▁نظرات": 4191,
    "▁مرغدار": 4192,
    "▁شانه": 4193,
    "شماری": 4194,
    "حض": 4195,
    "الدین": 4196,
    "ابی": 4197,
    "۱۵": 4198,
    "ونگ": 4199,
    "بازار": 4200,
    "▁نت": 4201,
    "محققان": 4202,
    "معاون": 4203,
    "منابع": 4204,
    "رقابت": 4205,
    "▁سرا": 4206,
    "▁تیک": 4207,
    "▁قش": 4208,
    "درصد": 4209,
    "ولی": 4210,
    "برنامه": 4211,
    "▁تون": 4212,
    "▁مامور": 4213,
    "▁دشمن": 4214,
    "▁پیمانکار": 4215,
    "وش": 4216,
    "▁معیار": 4217,
    "گبا": 4218,
    "▁حیوان": 4219,
    "▁عکسی": 4220,
    "▁رمزارز": 4221,
    "▁بدخشان": 4222,
    "▁صداوسیما": 4223,
    "▁برآمد": 4224,
    "▁فروپاشی": 4225,
    "▁خزر": 4226,
    "▁نشیب": 4227,
    "▁پارالمپیک": 4228,
    "▁تتلو": 4229,
    "▁ثانوی": 4230,
    "▁گشود": 4231,
    "▁آسوشیتدپرس": 4232,
    "ضعف": 4233,
    "▁مدیترانه": 4234,
    "▁قزاقستان": 4235,
    "▁تبادل": 4236,
    "گراندپری": 4237,
    "▁فسیل": 4238,
    "▁خرابکار": 4239,
    "▁آپارتمان": 4240,
    "▁ترسناک": 4241,
    "▁مختل": 4242,
    "▁بگویم": 4243,
    "▁آرشیو": 4244,
    "▁توفان": 4245,
    "▁مولوی": 4246,
    "▁عزم": 4247,
    "▁غیاب": 4248,
    "▁بگیرید": 4249,
    "▁چوب": 4250,
    "▁سرویس": 4251,
    "▁پراید": 4252,
    "▁اکسید": 4253,
    "دربند": 4254,
    "▁تندرو": 4255,
    "▁لامبورگینی": 4256,
    "▁مزرعه": 4257,
    "کور": 4258,
    "▁خزان": 4259,
    "▁لبخند": 4260,
    "▁مارچ": 4261,
    "▁قرص": 4262,
    "▁تبعید": 4263,
    "▁اردوگاه": 4264,
    "▁هشتگ": 4265,
    "▁ودیعه": 4266,
    "▁اعطا": 4267,
    "▁زادگاه": 4268,
    "▁دستاوردهای": 4269,
    "▁شیمی": 4270,
    "رشد": 4271,
    "▁نکات": 4272,
    "▁زیستگاه": 4273,
    "▁گوگل": 4274,
    "▁تسهیلات": 4275,
    "▁فیس": 4276,
    "▁حباب": 4277,
    "▁فتاح": 4278,
    "▁۲۰۰۴": 4279,
    "▁مداوم": 4280,
    "▁عصب": 4281,
    "▁غالب": 4282,
    "▁مرتب": 4283,
    "زاک": 4284,
    "▁علاقمندان": 4285,
    "▁تحصیلات": 4286,
    "▁بالاتری": 4287,
    "اشا": 4288,
    "فصل": 4289,
    "▁شام": 4290,
    "▁شناسند": 4291,
    "▁گارد": 4292,
    "▁خواهر": 4293,
    "▁گار": 4294,
    "▁توضیحات": 4295,
    "▁کیفر": 4296,
    "▁بزرگتر": 4297,
    "▁نکردند": 4298,
    "▁دلال": 4299,
    "▁ضربات": 4300,
    "▁حو": 4301,
    "▁آرش": 4302,
    "▁قرض": 4303,
    "▁هکرها": 4304,
    "▁عمران": 4305,
    "▁افسر": 4306,
    "▁نوزدهم": 4307,
    "لاتین": 4308,
    "▁دورت": 4309,
    "▁۱۹۳": 4310,
    "گفت": 4311,
    "▁داشتیم": 4312,
    "▁انتقادات": 4313,
    "گیر": 4314,
    "▁الگوی": 4315,
    "نصف": 4316,
    "▁هواپیماهای": 4317,
    "▁مهاجمان": 4318,
    "▁ایستاد": 4319,
    "کت": 4320,
    "▁صدم": 4321,
    "▁ناآرامی": 4322,
    "▁پیشرو": 4323,
    "یقه": 4324,
    "▁ویدئو": 4325,
    "▁کلاهبردار": 4326,
    "▁ران": 4327,
    "▁معنا": 4328,
    "▁سختگیر": 4329,
    "▁گلزن": 4330,
    "▁لوکا": 4331,
    "لم": 4332,
    "راتی": 4333,
    "▁دانشجویی": 4334,
    "▁وحشی": 4335,
    "▁۷۴": 4336,
    "دم": 4337,
    "برداری": 4338,
    "▁منصوری": 4339,
    "▁حدی": 4340,
    "نوش": 4341,
    "▁تعهداتش": 4342,
    "▁برجا": 4343,
    "▁سیر": 4344,
    "وفر": 4345,
    "▁بدین": 4346,
    "۷۰": 4347,
    "▁جف": 4348,
    "▁وار": 4349,
    "▁یور": 4350,
    "روج": 4351,
    "قدس": 4352,
    "▁شرمن": 4353,
    "▁برداشتن": 4354,
    "أ": 4355,
    "▁کامپیوتری": 4356,
    "▁عمد": 4357,
    "▁پیشرفته": 4358,
    "▁بینیم": 4359,
    "اتور": 4360,
    "جایی": 4361,
    "دام": 4362,
    "لقی": 4363,
    "▁پارس": 4364,
    "▁خطای": 4365,
    "وجود": 4366,
    "آمیز": 4367,
    "محمدجواد": 4368,
    "▁تلف": 4369,
    "فعالان": 4370,
    "زده": 4371,
    "مارک": 4372,
    "▁هوادار": 4373,
    "سرعت": 4374,
    "▁آزمو": 4375,
    "▁پناه": 4376,
    "▁شنیدن": 4377,
    "▁مرگش": 4378,
    "▁سرنشین": 4379,
    "▁تعل": 4380,
    "▁صفرها": 4381,
    "سیتی": 4382,
    "▁اخطار": 4383,
    "▁صح": 4384,
    "▁ژنو": 4385,
    "لور": 4386,
    "▁ابهام": 4387,
    "▁قاب": 4388,
    "▁ارگ": 4389,
    "▁اعتراف": 4390,
    "▁مصدوم": 4391,
    "▁آتالانتا": 4392,
    "▁اتوبوس": 4393,
    "▁زحمت": 4394,
    "▁غرامت": 4395,
    "▁معالج": 4396,
    "▁ناقض": 4397,
    "▁خسارات": 4398,
    "▁شباهت": 4399,
    "▁ندارم": 4400,
    "▁وحشتناک": 4401,
    "▁نوازنده": 4402,
    "▁بازارها": 4403,
    "▁تمدن": 4404,
    "▁نزول": 4405,
    "▁سوگوار": 4406,
    "▁ناشناخت": 4407,
    "▁درآورد": 4408,
    "▁داغستان": 4409,
    "▁بپردازد": 4410,
    "▁جابجا": 4411,
    "▁آوازخوان": 4412,
    "▁توجیه": 4413,
    "▁احتیاط": 4414,
    "▁سعد": 4415,
    "▁مصلحت": 4416,
    "▁تغذیه": 4417,
    "▁پیشکسوت": 4418,
    "▁توریست": 4419,
    "▁خلاقیت": 4420,
    "▁متنوع": 4421,
    "▁گردانند": 4422,
    "▁ضدحمل": 4423,
    "▁صحیح": 4424,
    "▁بردارد": 4425,
    "▁۱۹۴۰": 4426,
    "▁پایبند": 4427,
    "مسی": 4428,
    "▁سکوت": 4429,
    "▁موازی": 4430,
    "وطن": 4431,
    "▁شط": 4432,
    "▁هستید": 4433,
    "▁کریسمس": 4434,
    "یویا": 4435,
    "▁عاشقانه": 4436,
    "▁یوو": 4437,
    "▁لحن": 4438,
    "▁والدین": 4439,
    "▁جزییات": 4440,
    "▁بنکسی": 4441,
    "سخ": 4442,
    "▁وجو": 4443,
    "ژ": 4444,
    "▁۱۹۷": 4445,
    "▁سارا": 4446,
    "▁خران": 4447,
    "▁گرمایش": 4448,
    "تنها": 4449,
    "▁پال": 4450,
    "▁چهاردهم": 4451,
    "صخره": 4452,
    "▁کوهن": 4453,
    "▁وای": 4454,
    "▁هفدهم": 4455,
    "▁نوار": 4456,
    "▁کوچکتر": 4457,
    "▁پرآ": 4458,
    "لندر": 4459,
    "▁موک": 4460,
    "▁قطعات": 4461,
    "▁شغلی": 4462,
    "▁نرفت": 4463,
    "▁رسم": 4464,
    "▁نورد": 4465,
    "▁پرتر": 4466,
    "▁استون": 4467,
    "▁بم": 4468,
    "▁بورگ": 4469,
    "▁نوجوانان": 4470,
    "▁کرو": 4471,
    "▁برزیلی": 4472,
    "چون": 4473,
    "▁کو": 4474,
    "▁اح": 4475,
    "▁۹۴": 4476,
    "ایدو": 4477,
    "▁پاهای": 4478,
    "باز": 4479,
    "وارد": 4480,
    "کره": 4481,
    "▁ریزش": 4482,
    "▁خالص": 4483,
    "▁چیزهای": 4484,
    "▁جهانگیری": 4485,
    "اژ": 4486,
    "▁یافتند": 4487,
    "آمار": 4488,
    "▁سیم": 4489,
    "▁بلوک": 4490,
    "▁شهید": 4491,
    "زیه": 4492,
    "بازی": 4493,
    "▁گرای": 4494,
    "▁شهریار": 4495,
    "▁صدد": 4496,
    "▁بارور": 4497,
    "▁کوبا": 4498,
    "▁پروازها": 4499,
    "▁سلطانی": 4500,
    "▁وا": 4501,
    "▁میرزا": 4502,
    "▁کودتای": 4503,
    "عشی": 4504,
    "▁بشری": 4505,
    "▁۶۸": 4506,
    "اسل": 4507,
    "▁۱۹۶۰": 4508,
    "▁قومی": 4509,
    "▁زی": 4510,
    "▁زو": 4511,
    "▁انیس": 4512,
    "▁طب": 4513,
    "▁مح": 4514,
    "▁مست": 4515,
    "▁۳۵۰": 4516,
    "▁کیت": 4517,
    "▁هلی": 4518,
    "مندان": 4519,
    "▁نوآور": 4520,
    "یلیون": 4521,
    "چین": 4522,
    "▁درج": 4523,
    "درفتار": 4524,
    "▁بانو": 4525,
    "اف": 4526,
    "فن": 4527,
    "▁گویی": 4528,
    "غه": 4529,
    "خانواده": 4530,
    "حمید": 4531,
    "تولید": 4532,
    "اقتصاد": 4533,
    "چرا": 4534,
    "علاو": 4535,
    "▁۸۵": 4536,
    "ازاد": 4537,
    "▁۱۹۰": 4538,
    "▁ذهنی": 4539,
    "▁اکبری": 4540,
    "▁آرای": 4541,
    "▁شاپو": 4542,
    "▁درخش": 4543,
    "▁ماس": 4544,
    "رهبر": 4545,
    "▁اله": 4546,
    "▁خشن": 4547,
    "بند": 4548,
    "▁همتای": 4549,
    "▁۱۷۰": 4550,
    "▁آگاهی": 4551,
    "▁ایر": 4552,
    "▁بناها": 4553,
    "▁تعمیر": 4554,
    "▁همجنس": 4555,
    "▁مصل": 4556,
    "مکعب": 4557,
    "▁مشکات": 4558,
    "▁اسرار": 4559,
    "▁آغداشلو": 4560,
    "▁بفروشد": 4561,
    "▁مغناطیس": 4562,
    "▁واضح": 4563,
    "▁کانسپت": 4564,
    "▁گلمکانی": 4565,
    "▁یونسکو": 4566,
    "▁استخدام": 4567,
    "▁اصرار": 4568,
    "▁محترم": 4569,
    "▁نامناسب": 4570,
    "▁اقتدار": 4571,
    "▁بیاورد": 4572,
    "▁اوباما": 4573,
    "▁نیسان": 4574,
    "▁قبال": 4575,
    "▁پوتین": 4576,
    "▁جلد": 4577,
    "▁لگن": 4578,
    "▁یادبود": 4579,
    "▁زیارت": 4580,
    "▁ندهد": 4581,
    "▁خوست": 4582,
    "▁انحصار": 4583,
    "▁حقیق": 4584,
    "▁شرح": 4585,
    "▁سارس": 4586,
    "▁مداخل": 4587,
    "▁آرمان": 4588,
    "▁ماشه": 4589,
    "▁مخدر": 4590,
    "▁ایرباس": 4591,
    "▁مرتضی": 4592,
    "▁مدرک": 4593,
    "لاند": 4594,
    "▁تشری": 4595,
    "▁هشتصد": 4596,
    "رگس": 4597,
    "▁غلط": 4598,
    "▁محکم": 4599,
    "▁کوب": 4600,
    "▁تکنولوژی": 4601,
    "▁اسنپ": 4602,
    "▁اخلاق": 4603,
    "▁زهره": 4604,
    "▁حساسیت": 4605,
    "▁حتما": 4606,
    "▁پیچ": 4607,
    "▁ادارات": 4608,
    "▁مواقع": 4609,
    "▁رضایت": 4610,
    "انصراف": 4611,
    "▁دهید": 4612,
    "▁کیست": 4613,
    "▁معاد": 4614,
    "▁روال": 4615,
    "▁مستقیما": 4616,
    "▁احسا": 4617,
    "▁برایم": 4618,
    "▁رفتارهای": 4619,
    "▁کج": 4620,
    "▁گذارند": 4621,
    "▁بافت": 4622,
    "▁دنیاست": 4623,
    "▁دهندگان": 4624,
    "▁گذاشتند": 4625,
    "▁جست": 4626,
    "▁خواهی": 4627,
    "▁شوخی": 4628,
    "▁گفتگوهای": 4629,
    "▁فوریت": 4630,
    "▁چار": 4631,
    "▁۷۶": 4632,
    "▁ایرج": 4633,
    "▁رش": 4634,
    "جد": 4635,
    "▁سوری": 4636,
    "▁بازخوان": 4637,
    "▁پانزدهم": 4638,
    "رسون": 4639,
    "▁کلر": 4640,
    "▁دیدارهای": 4641,
    "۴۰": 4642,
    "مانده": 4643,
    "▁همانند": 4644,
    "▁گوهر": 4645,
    "ترا": 4646,
    "رالله": 4647,
    "▁کامپیوتر": 4648,
    "▁نگر": 4649,
    "▁استثنا": 4650,
    "پتون": 4651,
    "▁فیلمبردار": 4652,
    "▁واحدها": 4653,
    "▁نهاده": 4654,
    "▁همکار": 4655,
    "خبر": 4656,
    "▁میلیاردر": 4657,
    "▁شادی": 4658,
    "▁عزیز": 4659,
    "▁برگشته": 4660,
    "واک": 4661,
    "▁شمس": 4662,
    "بینی": 4663,
    "▁شاپ": 4664,
    "▁اجبار": 4665,
    "▁معیشتی": 4666,
    "نکور": 4667,
    "ویچ": 4668,
    "▁شهردار": 4669,
    "ونیست": 4670,
    "وکی": 4671,
    "▁رز": 4672,
    "ابلو": 4673,
    "▁شریف": 4674,
    "▁دادخواه": 4675,
    "▁یار": 4676,
    "▁مقر": 4677,
    "▁تحریمها": 4678,
    "▁جیل": 4679,
    "▁جوز": 4680,
    "▁مهل": 4681,
    "قه": 4682,
    "▁هندی": 4683,
    "▁سانتریفیوژ": 4684,
    "▁شهیدی": 4685,
    "▁۱۷۶": 4686,
    "▁ریخت": 4687,
    "▁۸۲": 4688,
    "لین": 4689,
    "▁مالکان": 4690,
    "۴۶": 4691,
    "▁فین": 4692,
    "▁قف": 4693,
    "▁منظر": 4694,
    "▁آمریکاست": 4695,
    "▁استاندارد": 4696,
    "▁بارز": 4697,
    "خواست": 4698,
    "کوویچ": 4699,
    "مدیر": 4700,
    "▁شبه": 4701,
    "▁عمو": 4702,
    "▁گذراندن": 4703,
    "مرگ": 4704,
    "تحول": 4705,
    "مصطف": 4706,
    "غلام": 4707,
    "ناظر": 4708,
    "اخیرا": 4709,
    "فدرر": 4710,
    "انتظار": 4711,
    "صندوق": 4712,
    "کارشناسان": 4713,
    "نمایندگان": 4714,
    "همچنین": 4715,
    "▁سطو": 4716,
    "▁مال": 4717,
    "هدف": 4718,
    "▁پرت": 4719,
    "دور": 4720,
    "▁بنیادی": 4721,
    "عارف": 4722,
    "▁آثارش": 4723,
    "▁گزارشها": 4724,
    "مپ": 4725,
    "▁سکت": 4726,
    "▁دنی": 4727,
    "زار": 4728,
    "کارآمد": 4729,
    "▁معلم": 4730,
    "▁خانوار": 4731,
    "احی": 4732,
    "▁مکزیک": 4733,
    "▁دستاورد": 4734,
    "▁مأمور": 4735,
    "▁خراب": 4736,
    "▁مصر": 4737,
    "▁فریب": 4738,
    "▁آبراموویچ": 4739,
    "▁تفکیک": 4740,
    "▁زریاب": 4741,
    "▁فزاینده": 4742,
    "▁زیرساخت": 4743,
    "▁فطر": 4744,
    "▁یخچال": 4745,
    "▁خفیف": 4746,
    "▁آمبول": 4747,
    "▁نیجر": 4748,
    "▁کالبد": 4749,
    "▁آسمایی": 4750,
    "▁مطلوب": 4751,
    "▁مظاهری": 4752,
    "▁بازنگری": 4753,
    "▁مثلث": 4754,
    "▁لاریجان": 4755,
    "▁آشام": 4756,
    "▁مسافت": 4757,
    "▁شرکا": 4758,
    "▁هرمز": 4759,
    "▁راپینو": 4760,
    "▁پنگوئن": 4761,
    "▁دشت": 4762,
    "جیمزباند": 4763,
    "▁حسرت": 4764,
    "فینیتی": 4765,
    "▁مراود": 4766,
    "▁ترانزیت": 4767,
    "▁باشم": 4768,
    "▁طعم": 4769,
    "▁امواج": 4770,
    "▁اکتشاف": 4771,
    "▁غیرنظامی": 4772,
    "▁سالیوان": 4773,
    "▁مخلو": 4774,
    "▁تکنیک": 4775,
    "▁فیروز": 4776,
    "مایک": 4777,
    "نشین": 4778,
    "▁۱۴۰": 4779,
    "▁الکل": 4780,
    "▁گابریل": 4781,
    "▁جغرافیای": 4782,
    "▁بوکسور": 4783,
    "▁۲۰۰۱": 4784,
    "▁جیپ": 4785,
    "غیب": 4786,
    "ابق": 4787,
    "▁تئو": 4788,
    "▁مایع": 4789,
    "طرف": 4790,
    "▁سیبری": 4791,
    "▁گرایش": 4792,
    "ساله": 4793,
    "▁برلین": 4794,
    "▁شیع": 4795,
    "▁کرایس": 4796,
    "▁شناسد": 4797,
    "هنورد": 4798,
    "▁کرج": 4799,
    "▁نویسد": 4800,
    "▁آلن": 4801,
    "▁ندیده": 4802,
    "▁ساترا": 4803,
    "▁نمایشنامه": 4804,
    "▁حفر": 4805,
    "▁گیل": 4806,
    "▁کاوه": 4807,
    "▁معاین": 4808,
    "▁گلوب": 4809,
    "▁ماست": 4810,
    "▁بدوی": 4811,
    "▁فدرا": 4812,
    "بانی": 4813,
    "▁نق": 4814,
    "▁افتادن": 4815,
    "بیشترین": 4816,
    "نم": 4817,
    "▁بگیر": 4818,
    "▁جاهای": 4819,
    "مانع": 4820,
    "وازه": 4821,
    "▁مزایای": 4822,
    "▁منار": 4823,
    "▁کارفرمای": 4824,
    "▁نمادهای": 4825,
    "▁گرفتار": 4826,
    "▁مدتها": 4827,
    "▁مندان": 4828,
    "▁بول": 4829,
    "ولت": 4830,
    "▁۱۳۴": 4831,
    "▁آرزوی": 4832,
    "▁ضر": 4833,
    "▁درخشانی": 4834,
    "▁بودا": 4835,
    "عان": 4836,
    "▁۶۱": 4837,
    "▁اتکا": 4838,
    "خیم": 4839,
    "▁استودیو": 4840,
    "▁ماری": 4841,
    "▁عالم": 4842,
    "▁زم": 4843,
    "▁پژو": 4844,
    "▁رکوردهای": 4845,
    "▁فرض": 4846,
    "الت": 4847,
    "ظن": 4848,
    "▁نابود": 4849,
    "▁مسیحی": 4850,
    "یسون": 4851,
    "لاله": 4852,
    "▁تابو": 4853,
    "یع": 4854,
    "یانت": 4855,
    "▁ماریا": 4856,
    "راب": 4857,
    "دوست": 4858,
    "▁ژو": 4859,
    "▁چشمان": 4860,
    "برید": 4861,
    "▁اعتراضی": 4862,
    "▁کینگ": 4863,
    "▁جنی": 4864,
    "▁سرف": 4865,
    "شتم": 4866,
    "▁شهرک": 4867,
    "▁کاف": 4868,
    "ولا": 4869,
    "▁لوا": 4870,
    "▁انتها": 4871,
    "▁۸۹": 4872,
    "کسر": 4873,
    "▁متیو": 4874,
    "▁مضر": 4875,
    "گفتگو": 4876,
    "▁فروشی": 4877,
    "قرض": 4878,
    "پرسپولیس": 4879,
    "موسس": 4880,
    "باشگاه": 4881,
    "دونالد": 4882,
    "مجلس": 4883,
    "داران": 4884,
    "▁کروناست": 4885,
    "فرج": 4886,
    "▁لوف": 4887,
    "تلاش": 4888,
    "دهنده": 4889,
    "هکرها": 4890,
    "صالح": 4891,
    "الکس": 4892,
    "▁کان": 4893,
    "کمی": 4894,
    "▁انگشت": 4895,
    "▁نوزاد": 4896,
    "فون": 4897,
    "▁دوید": 4898,
    "پا": 4899,
    "▁آشنای": 4900,
    "روزنامه": 4901,
    "لژی": 4902,
    "تال": 4903,
    "▁ریل": 4904,
    "۱۰": 4905,
    "▁داو": 4906,
    "تعداد": 4907,
    "▁فرزندش": 4908,
    "▁نویسندگ": 4909,
    "▁کولبر": 4910,
    "▁باورنکردنی": 4911,
    "▁تخفیف": 4912,
    "▁خرچنگ": 4913,
    "▁دگرگون": 4914,
    "▁سرتاسر": 4915,
    "▁نصیب": 4916,
    "▁نوشیدن": 4917,
    "▁اپیدمی": 4918,
    "▁مستضعفان": 4919,
    "خاذ": 4920,
    "▁بفتا": 4921,
    "▁انباشت": 4922,
    "▁برشمرد": 4923,
    "▁قسط": 4924,
    "▁تضاد": 4925,
    "▁بنتلی": 4926,
    "▁شارژ": 4927,
    "ناشناس": 4928,
    "▁عواقب": 4929,
    "▁متوفی": 4930,
    "▁جرایم": 4931,
    "▁ارتقا": 4932,
    "▁غیبت": 4933,
    "▁آموزگار": 4934,
    "▁خیال": 4935,
    "▁واریز": 4936,
    "موث": 4937,
    "▁زودهنگام": 4938,
    "▁قبر": 4939,
    "▁ریورا": 4940,
    "▁مکمل": 4941,
    "▁گلایه": 4942,
    "▁کولمن": 4943,
    "▁پردرآمد": 4944,
    "▁بگذارند": 4945,
    "▁بزن": 4946,
    "▁فرایند": 4947,
    "نفتی": 4948,
    "▁۱۹۸۰": 4949,
    "▁فخر": 4950,
    "▁تبریک": 4951,
    "▁آنفیلد": 4952,
    "▁گواهی": 4953,
    "▁ناتوان": 4954,
    "▁انستیتو": 4955,
    "▁کلینیک": 4956,
    "▁۱۹۷۰": 4957,
    "انس": 4958,
    "▁قائم": 4959,
    "▁معاش": 4960,
    "▁سیارک": 4961,
    "▁نژادپرستانه": 4962,
    "ریت": 4963,
    "سیلوا": 4964,
    "▁مخصوصا": 4965,
    "▁شکوف": 4966,
    "▁روبرت": 4967,
    "▁شستا": 4968,
    "▁ببرند": 4969,
    "▁گودال": 4970,
    "▁پررنگ": 4971,
    "▁تیموری": 4972,
    "▁رونالدینیو": 4973,
    "▁قبرس": 4974,
    "▁دندان": 4975,
    "▁تحرک": 4976,
    "▁هیچکس": 4977,
    "▁پائی": 4978,
    "۱۳": 4979,
    "▁میهمان": 4980,
    "▁حراست": 4981,
    "▁حبیب": 4982,
    "▁ساری": 4983,
    "▁آنتی": 4984,
    "ستانگ": 4985,
    "▁گناه": 4986,
    "▁متروکه": 4987,
    "▁انداختن": 4988,
    "▁مغول": 4989,
    "▁ساسانی": 4990,
    "▁رانت": 4991,
    "▁خلوت": 4992,
    "▁فضانوردان": 4993,
    "▁کانادایی": 4994,
    "▁مثل": 4995,
    "▁گرسنگ": 4996,
    "▁پیتر": 4997,
    "▁مردگان": 4998,
    "▁غفوری": 4999,
    "▁نخ": 5000,
    "▁۸۳": 5001,
    "▁سپید": 5002,
    "▁معوقه": 5003,
    "▁نیکلا": 5004,
    "خون": 5005,
    "ویل": 5006,
    "▁باختند": 5007,
    "▁فرق": 5008,
    "کیو": 5009,
    "جیب": 5010,
    "قات": 5011,
    "▁رساندند": 5012,
    "▁خواندند": 5013,
    "▁کیا": 5014,
    "ریک": 5015,
    "▁جنای": 5016,
    "▁گروگانگیر": 5017,
    "▁پیرو": 5018,
    "مل": 5019,
    "▁نمانده": 5020,
    "▁یگان": 5021,
    "زا": 5022,
    "▁اوار": 5023,
    "▁ایندی": 5024,
    "▁خطرات": 5025,
    "▁خار": 5026,
    "▁بازوی": 5027,
    "▁پرتو": 5028,
    "لس": 5029,
    "▁وگوی": 5030,
    "یلی": 5031,
    "▁بیگ": 5032,
    "▁اینجا": 5033,
    "لینگ": 5034,
    "▁رول": 5035,
    "بالغ": 5036,
    "ربی": 5037,
    "▁تاکتیکی": 5038,
    "▁معل": 5039,
    "▁استرس": 5040,
    "مد": 5041,
    "▁رنگین": 5042,
    "▁باقر": 5043,
    "نج": 5044,
    "همه": 5045,
    "▁دادم": 5046,
    "▁فول": 5047,
    "امضاکنندگان": 5048,
    "▁بلو": 5049,
    "▁نیت": 5050,
    "▁کلم": 5051,
    "ژیم": 5052,
    "▁کودتا": 5053,
    "▁جوش": 5054,
    "▁روم": 5055,
    "▁قربان": 5056,
    "شما": 5057,
    "گو": 5058,
    "▁ژی": 5059,
    "▁خالق": 5060,
    "شد": 5061,
    "▁موجودی": 5062,
    "کید": 5063,
    "گیل": 5064,
    "▁هرکس": 5065,
    "سن": 5066,
    "▁بون": 5067,
    "یید": 5068,
    "گا": 5069,
    "▁۶۵۰": 5070,
    "▁میلو": 5071,
    "رخ": 5072,
    "شوه": 5073,
    "▁مقا": 5074,
    "زنی": 5075,
    "▁خل": 5076,
    "کول": 5077,
    "▁تیره": 5078,
    "ملک": 5079,
    "قرب": 5080,
    "رات": 5081,
    "برد": 5082,
    "صول": 5083,
    "▁سوگ": 5084,
    "▁تاریکی": 5085,
    "▁ابلاغی": 5086,
    "▁جوی": 5087,
    "▁نیما": 5088,
    "سوس": 5089,
    "▁۵۱": 5090,
    "▁۵۸": 5091,
    "یکون": 5092,
    "▁انگل": 5093,
    "▁نیافت": 5094,
    "پذیر": 5095,
    "▁نظرهای": 5096,
    "دخت": 5097,
    "▁گازی": 5098,
    "کانادا": 5099,
    "راجر": 5100,
    "واکنش": 5101,
    "کاهش": 5102,
    "رسی": 5103,
    "وح": 5104,
    "▁متحدان": 5105,
    "ادا": 5106,
    "کرونا": 5107,
    "▁خبرها": 5108,
    "▁همر": 5109,
    "آمریکایی": 5110,
    "جن": 5111,
    "رمد": 5112,
    "▁انوش": 5113,
    "▁علاقمند": 5114,
    "هز": 5115,
    "▁افتتاحی": 5116,
    "سئول": 5117,
    "باط": 5118,
    "▁آموز": 5119,
    "▁منصو": 5120,
    "پول": 5121,
    "جهان": 5122,
    "▁ندانست": 5123,
    "▁مشوق": 5124,
    "▁سلام": 5125,
    "▁رخداد": 5126,
    "▁دوش": 5127,
    "▁اشکال": 5128,
    "بست": 5129,
    "▁رئوف": 5130,
    "▁آلومینیوم": 5131,
    "▁اتیوپی": 5132,
    "▁اوربیتر": 5133,
    "▁جامائیکا": 5134,
    "▁جهرمی": 5135,
    "▁دانچیچ": 5136,
    "▁رمضان": 5137,
    "▁شیکاگو": 5138,
    "▁لاجورد": 5139,
    "▁مصیبت": 5140,
    "▁الاجل": 5141,
    "▁ربیعی": 5142,
    "▁ملاحظ": 5143,
    "رطوب": 5144,
    "▁الماس": 5145,
    "▁امتداد": 5146,
    "▁بشردوستانه": 5147,
    "▁هوندا": 5148,
    "▁گریبان": 5149,
    "▁فحش": 5150,
    "▁ووهان": 5151,
    "▁اتصال": 5152,
    "▁گیگز": 5153,
    "▁خاشقچی": 5154,
    "▁کدخدای": 5155,
    "▁خیام": 5156,
    "▁فروزش": 5157,
    "▁جواهر": 5158,
    "▁قاتل": 5159,
    "▁وودز": 5160,
    "▁استفانو": 5161,
    "▁آث": 5162,
    "▁وفادار": 5163,
    "▁دبیرستان": 5164,
    "▁اسپورت": 5165,
    "ستردا": 5166,
    "▁ژیمناست": 5167,
    "▁دورانگو": 5168,
    "▁گرامی": 5169,
    "▁فروغ": 5170,
    "▁عقاب": 5171,
    "▁جناح": 5172,
    "▁دایر": 5173,
    "▁شیفت": 5174,
    "▁تخل": 5175,
    "▁اذیت": 5176,
    "بپرس": 5177,
    "▁نگرفت": 5178,
    "▁کلمات": 5179,
    "هرانا": 5180,
    "▁تلفات": 5181,
    "▁۱۹۹۸": 5182,
    "▁تدری": 5183,
    "▁ترابی": 5184,
    "▁اقبال": 5185,
    "▁۲۰۰۶": 5186,
    "▁درآمدزا": 5187,
    "▁لخت": 5188,
    "▁نهفته": 5189,
    "▁شمایل": 5190,
    "▁ویدیوهای": 5191,
    "عارض": 5192,
    "▁قفس": 5193,
    "▁حضرت": 5194,
    "▁زنگ": 5195,
    "▁پرستاران": 5196,
    "▁۴۷": 5197,
    "▁اسحاق": 5198,
    "▁صریح": 5199,
    "▁رائو": 5200,
    "▁اخ": 5201,
    "▁جنر": 5202,
    "▁کالای": 5203,
    "▁تیتر": 5204,
    "▁جفت": 5205,
    "واشی": 5206,
    "▁فابی": 5207,
    "▁مستندساز": 5208,
    "▁انداختند": 5209,
    "▁سبد": 5210,
    "▁کارتو": 5211,
    "اهید": 5212,
    "▁خلیل": 5213,
    "▁ولد": 5214,
    "▁جولیان": 5215,
    "ازما": 5216,
    "▁ماهشهر": 5217,
    "▁ولت": 5218,
    "▁فیلیپین": 5219,
    "▁قند": 5220,
    "▁گردون": 5221,
    "▁موهای": 5222,
    "▁رژه": 5223,
    "خط": 5224,
    "▁پناهجوی": 5225,
    "▁هامر": 5226,
    "▁سالیانه": 5227,
    "▁۱۳۳": 5228,
    "▁پویا": 5229,
    "▁متخلفان": 5230,
    "▁افق": 5231,
    "▁سکسک": 5232,
    "▁نداشتم": 5233,
    "▁پذیرای": 5234,
    "▁ادوارد": 5235,
    "▁شعبان": 5236,
    "▁اصولگرای": 5237,
    "▁نشدند": 5238,
    "▁دیدم": 5239,
    "▁ادل": 5240,
    "▁فهمید": 5241,
    "ارمی": 5242,
    "▁پسرم": 5243,
    "▁ماخ": 5244,
    "▁اینستاگرامش": 5245,
    "▁نوشتند": 5246,
    "▁نگارش": 5247,
    "▁تراز": 5248,
    "لال": 5249,
    "▁سردار": 5250,
    "روح": 5251,
    "اند": 5252,
    "▁اراد": 5253,
    "وخامت": 5254,
    "▁مونت": 5255,
    "▁آندری": 5256,
    "▁اچ": 5257,
    "▁خوار": 5258,
    "▁نزدیکان": 5259,
    "▁اندام": 5260,
    "▁گرین": 5261,
    "الیاس": 5262,
    "▁حفا": 5263,
    "کین": 5264,
    "رایش": 5265,
    "▁بدنش": 5266,
    "▁قرمزها": 5267,
    "▁کوس": 5268,
    "▁بدنی": 5269,
    "تشکر": 5270,
    "▁ولا": 5271,
    "▁ژن": 5272,
    "▁وث": 5273,
    "▁عزادار": 5274,
    "▁سرب": 5275,
    "▁طیب": 5276,
    "کام": 5277,
    "▁بینید": 5278,
    "گرا": 5279,
    "▁سرگرمی": 5280,
    "▁گرانتر": 5281,
    "▁تان": 5282,
    "یوب": 5283,
    "▁شمارش": 5284,
    "▁پرید": 5285,
    "آور": 5286,
    "▁شجاع": 5287,
    "خته": 5288,
    "▁۸۶": 5289,
    "▁ریوی": 5290,
    "۶۳": 5291,
    "▁خالقی": 5292,
    "۹۸": 5293,
    "لیون": 5294,
    "▁دانشجو": 5295,
    "ویک": 5296,
    "▁نی": 5297,
    "▁۸۸": 5298,
    "▁معیشت": 5299,
    "▁تونس": 5300,
    "▁شرم": 5301,
    "▁عل": 5302,
    "▁مض": 5303,
    "▁هول": 5304,
    "▁منصور": 5305,
    "▁مسیح": 5306,
    "▁ژ": 5307,
    "▁بت": 5308,
    "زاب": 5309,
    "▁گوی": 5310,
    "وب": 5311,
    "سله": 5312,
    "▁بور": 5313,
    "▁نمادی": 5314,
    "▁گرما": 5315,
    "▁رجب": 5316,
    "▁فرهنگیان": 5317,
    "▁خر": 5318,
    "باب": 5319,
    "▁ثروتمندتر": 5320,
    "▁باردار": 5321,
    "جرد": 5322,
    "▁محدودیتها": 5323,
    "فتن": 5324,
    "ائل": 5325,
    "▁بازیار": 5326,
    "▁اسپ": 5327,
    "▁باریک": 5328,
    "▁دن": 5329,
    "کسل": 5330,
    "▁رایان": 5331,
    "▁مول": 5332,
    "▁گرمی": 5333,
    "▁راد": 5334,
    "شته": 5335,
    "▁مهمتر": 5336,
    "گراد": 5337,
    "رای": 5338,
    "▁۱۸۰": 5339,
    "رینگ": 5340,
    "وندی": 5341,
    "▁دوازدهم": 5342,
    "▁رج": 5343,
    "▁شانزده": 5344,
    "سابقه": 5345,
    "▁وات": 5346,
    "۱۷": 5347,
    "▁خریده": 5348,
    "نقل": 5349,
    "خوان": 5350,
    "▁پستی": 5351,
    "▁تفسیر": 5352,
    "۹۹": 5353,
    "▁۱۶۰": 5354,
    "خورده": 5355,
    "▁گودا": 5356,
    "▁راکت": 5357,
    "طبی": 5358,
    "▁پراکن": 5359,
    "خودرو": 5360,
    "▁فرانسیس": 5361,
    "▁بله": 5362,
    "ریچارد": 5363,
    "همیلتون": 5364,
    "تاتنهام": 5365,
    "تصاویر": 5366,
    "روابط": 5367,
    "انتشار": 5368,
    "تصمیم": 5369,
    "▁افکاری": 5370,
    "چلسی": 5371,
    "▁غرو": 5372,
    "▁بیدار": 5373,
    "سلیم": 5374,
    "▁متخلف": 5375,
    "بومی": 5376,
    "اراک": 5377,
    "▁اسل": 5378,
    "اکبر": 5379,
    "موج": 5380,
    "▁دیوی": 5381,
    "▁کاران": 5382,
    "▁تندی": 5383,
    "پار": 5384,
    "اید": 5385,
    "▁محا": 5386,
    "▁گویا": 5387,
    "رود": 5388,
    "▁سوئ": 5389,
    "جمه": 5390,
    "▁پهپاد": 5391,
    "▁ثا": 5392,
    "نگره": 5393,
    "مادر": 5394,
    "دغدغه": 5395,
    "▁اسراییل": 5396,
    "▁المستقبل": 5397,
    "▁الگوریتم": 5398,
    "▁تصاحب": 5399,
    "▁تهاجم": 5400,
    "▁جاپلقی": 5401,
    "▁خنثی": 5402,
    "▁زاناردی": 5403,
    "▁ضوابط": 5404,
    "▁پولیتزر": 5405,
    "▁ژئوپلیتیک": 5406,
    "▁کرگدن": 5407,
    "▁بسازد": 5408,
    "▁بذر": 5409,
    "▁مضاعف": 5410,
    "▁محتوی": 5411,
    "▁اختراع": 5412,
    "▁تکامل": 5413,
    "▁البرز": 5414,
    "▁بخرد": 5415,
    "▁برنگشت": 5416,
    "▁نعمت": 5417,
    "▁فلج": 5418,
    "▁لامرد": 5419,
    "▁مائوریتس": 5420,
    "▁اشنویه": 5421,
    "▁آرتتا": 5422,
    "▁سنگاپور": 5423,
    "▁اعتنا": 5424,
    "▁مسترز": 5425,
    "▁پاراگوئه": 5426,
    "▁قبیل": 5427,
    "یضا": 5428,
    "پچو": 5429,
    "▁دوستداران": 5430,
    "▁۱۹۷۳": 5431,
    "▁بنجام": 5432,
    "▁تنگنا": 5433,
    "▁علوی": 5434,
    "▁صمیم": 5435,
    "▁برسند": 5436,
    "▁کرمانشاه": 5437,
    "▁یادگار": 5438,
    "▁وادار": 5439,
    "▁محفظه": 5440,
    "▁شفا": 5441,
    "▁شکوه": 5442,
    "▁نوازندگان": 5443,
    "▁بتهوون": 5444,
    "▁تویوتا": 5445,
    "▁سردرگم": 5446,
    "▁نابسامان": 5447,
    "▁متکی": 5448,
    "▁صراحت": 5449,
    "▁ایسلند": 5450,
    "▁۱۹۲۰": 5451,
    "▁مبارک": 5452,
    "صداق": 5453,
    "▁اقامتگاه": 5454,
    "▁عصبانی": 5455,
    "▁۱۳۵۰": 5456,
    "▁کفتر": 5457,
    "گشاد": 5458,
    "▁ژنرا": 5459,
    "ایتون": 5460,
    "▁سنبل": 5461,
    "▁مشت": 5462,
    "▁شوت": 5463,
    "▁سولو": 5464,
    "▁پردازند": 5465,
    "▁آلزایمر": 5466,
    "▁جمشید": 5467,
    "▁فیزیکدان": 5468,
    "▁مبالغ": 5469,
    "▁حاد": 5470,
    "ائیل": 5471,
    "▁سازندگان": 5472,
    "▁۱۳۰": 5473,
    "▁ندادن": 5474,
    "▁لیتر": 5475,
    "▁سازندگی": 5476,
    "▁دیدیم": 5477,
    "▁لاس": 5478,
    "ارا": 5479,
    "▁وکلا": 5480,
    "▁اقتصاددان": 5481,
    "▁داریوش": 5482,
    "▁تص": 5483,
    "▁قائل": 5484,
    "▁بالگرد": 5485,
    "▁مهندسی": 5486,
    "▁بیورن": 5487,
    "▁خالد": 5488,
    "▁همخوان": 5489,
    "▁رحمت": 5490,
    "▁اپل": 5491,
    "▁ناوگان": 5492,
    "▁گردید": 5493,
    "▁گیلان": 5494,
    "▁خیز": 5495,
    "▁تمرینات": 5496,
    "▁غل": 5497,
    "▁هیولای": 5498,
    "▁افسران": 5499,
    "▁اپراتورها": 5500,
    "▁عقل": 5501,
    "▁آموخت": 5502,
    "▁گیاهان": 5503,
    "▁معیارهای": 5504,
    "▁گردش": 5505,
    "گت": 5506,
    "ارث": 5507,
    "▁محرک": 5508,
    "لوب": 5509,
    "▁درختان": 5510,
    "شیپ": 5511,
    "▁تابعیت": 5512,
    "رکاب": 5513,
    "▁اد": 5514,
    "متر": 5515,
    "لفظ": 5516,
    "▁راهنمای": 5517,
    "بورس": 5518,
    "▁نیاورد": 5519,
    "▁جعفری": 5520,
    "درون": 5521,
    "افت": 5522,
    "▁درز": 5523,
    "▁برف": 5524,
    "زادگان": 5525,
    "▁نست": 5526,
    "تاج": 5527,
    "▁محصولاتش": 5528,
    "▁رومانی": 5529,
    "▁۱۹۵": 5530,
    "▁دژ": 5531,
    "پرها": 5532,
    "▁گوف": 5533,
    "▁ژاک": 5534,
    "▁تهدیدهای": 5535,
    "زره": 5536,
    "▁۱۹۶": 5537,
    "▁برهم": 5538,
    "▁گفتن": 5539,
    "رین": 5540,
    "▁برپا": 5541,
    "▁دادیم": 5542,
    "▁ایکس": 5543,
    "شنا": 5544,
    "▁فضلی": 5545,
    "▁آذری": 5546,
    "▁پذیری": 5547,
    "▁بیم": 5548,
    "▁روحی": 5549,
    "▁سرش": 5550,
    "سایت": 5551,
    "▁جوج": 5552,
    "▁خوانی": 5553,
    "▁جنگند": 5554,
    "▁دویچ": 5555,
    "بیل": 5556,
    "▁روزبه": 5557,
    "▁کد": 5558,
    "▁ریخته": 5559,
    "▁ریو": 5560,
    "بریتی": 5561,
    "▁فقی": 5562,
    "▁سانتریفیوژها": 5563,
    "▁ول": 5564,
    "▁مدد": 5565,
    "▁سنج": 5566,
    "نویس": 5567,
    "▁نوین": 5568,
    "ذب": 5569,
    "غا": 5570,
    "یخته": 5571,
    "واقع": 5572,
    "▁گدا": 5573,
    "وفون": 5574,
    "تری": 5575,
    "اران": 5576,
    "▁قوت": 5577,
    "ژان": 5578,
    "▁دول": 5579,
    "▁راب": 5580,
    "▁۸۷": 5581,
    "▁استادان": 5582,
    "▁وظایف": 5583,
    "نور": 5584,
    "▁لیو": 5585,
    "روسیا": 5586,
    "ظه": 5587,
    "سام": 5588,
    "▁دینی": 5589,
    "لتیک": 5590,
    "▁تش": 5591,
    "خواه": 5592,
    "▁درو": 5593,
    "▁بازرگان": 5594,
    "لقو": 5595,
    "ویش": 5596,
    "لوت": 5597,
    "دنظر": 5598,
    "▁هلندی": 5599,
    "▁گردشگر": 5600,
    "▁شکستن": 5601,
    "▁مظ": 5602,
    "▁کلاه": 5603,
    "فرنو": 5604,
    "بع": 5605,
    "▁دزد": 5606,
    "▁زایی": 5607,
    "یاط": 5608,
    "گذشت": 5609,
    "▁دوستانش": 5610,
    "تورهای": 5611,
    "▁سرگرم": 5612,
    "کانا": 5613,
    "▁پریش": 5614,
    "▁پهلو": 5615,
    "▁میلاد": 5616,
    "▁نیل": 5617,
    "گرفته": 5618,
    "جک": 5619,
    "▁۹۳": 5620,
    "برگر": 5621,
    "▁گره": 5622,
    "پانی": 5623,
    "▁امپرا": 5624,
    "▁۸۱": 5625,
    "▁پیری": 5626,
    "رایان": 5627,
    "اتیو": 5628,
    "▁سرما": 5629,
    "سنگ": 5630,
    "▁یوت": 5631,
    "هادی": 5632,
    "▁دوگان": 5633,
    "▁خوانند": 5634,
    "▁مدرس": 5635,
    "▁مطلبی": 5636,
    "سفر": 5637,
    "▁کلور": 5638,
    "اور": 5639,
    "▁۶۳": 5640,
    "▁یاب": 5641,
    "▁آلود": 5642,
    "▁کنی": 5643,
    "▁اکا": 5644,
    "▁کشمی": 5645,
    "طرح": 5646,
    "راق": 5647,
    "▁فتحی": 5648,
    "لای": 5649,
    "بفرستید": 5650,
    "۲۴": 5651,
    "ضرر": 5652,
    "اسپانیا": 5653,
    "مارادونا": 5654,
    "تحقیقات": 5655,
    "آلمان": 5656,
    "کارگران": 5657,
    "اطلاعات": 5658,
    "آغاز": 5659,
    "اعلام": 5660,
    "کلوپ": 5661,
    "نخست": 5662,
    "گوف": 5663,
    "بحث": 5664,
    "بررسی": 5665,
    "▁مجرم": 5666,
    "اتریش": 5667,
    "۴۹": 5668,
    "نتیج": 5669,
    "▁میلی": 5670,
    "▁منجم": 5671,
    "▁پیشگام": 5672,
    "▁بوس": 5673,
    "هشدار": 5674,
    "لمپ": 5675,
    "▁پناهند": 5676,
    "▁فهم": 5677,
    "▁سیاستمدار": 5678,
    "آر": 5679,
    "▁دراین": 5680,
    "پای": 5681,
    "▁ابداع": 5682,
    "▁انصاری": 5683,
    "ائم": 5684,
    "▁پالایش": 5685,
    "▁آشپز": 5686,
    "▁انیمیشن": 5687,
    "▁بلانشت": 5688,
    "▁راهپیمایی": 5689,
    "▁پدافند": 5690,
    "▁پومپئو": 5691,
    "▁پیرامون": 5692,
    "▁تلویح": 5693,
    "▁پلامر": 5694,
    "▁منظم": 5695,
    "▁ببینیم": 5696,
    "▁کادرفنی": 5697,
    "▁نجوا": 5698,
    "▁فکاهی": 5699,
    "▁برگردیم": 5700,
    "▁ابرنواختر": 5701,
    "▁مسموم": 5702,
    "▁جونیور": 5703,
    "▁پاکبان": 5704,
    "▁حرارت": 5705,
    "▁عنصر": 5706,
    "▁قضاوت": 5707,
    "▁بسیج": 5708,
    "▁خدایاری": 5709,
    "حق": 5710,
    "▁تعاون": 5711,
    "▁آژیر": 5712,
    "▁موعد": 5713,
    "▁بدانند": 5714,
    "▁مسترد": 5715,
    "▁بدهکار": 5716,
    "▁فشرد": 5717,
    "▁رخشانه": 5718,
    "▁پیکولی": 5719,
    "▁ذات": 5720,
    "▁بنشیند": 5721,
    "▁ندهند": 5722,
    "ژورنال": 5723,
    "▁دعا": 5724,
    "▁اجساد": 5725,
    "▁کلارک": 5726,
    "▁بیافتد": 5727,
    "▁علایم": 5728,
    "▁خرس": 5729,
    "خانقا": 5730,
    "▁نشوند": 5731,
    "▁مستعار": 5732,
    "▁بهبهان": 5733,
    "▁رشید": 5734,
    "ینز": 5735,
    "تناب": 5736,
    "▁نارضای": 5737,
    "▁ابولا": 5738,
    "▁سادگی": 5739,
    "▁منفرد": 5740,
    "▁صید": 5741,
    "▁احکام": 5742,
    "▁حوض": 5743,
    "▁اثبات": 5744,
    "▁خوشبخت": 5745,
    "▁تصدی": 5746,
    "▁کیلوولت": 5747,
    "فلاتو": 5748,
    "▁شناگر": 5749,
    "▁بهزاد": 5750,
    "▁دانشجوی": 5751,
    "▁عسل": 5752,
    "▁مانور": 5753,
    "▁شکننده": 5754,
    "▁تنیده": 5755,
    "▁بزو": 5756,
    "صدایی": 5757,
    "▁وگاس": 5758,
    "▁۱۳۹۰": 5759,
    "▁امریکا": 5760,
    "حصار": 5761,
    "▁پوشان": 5762,
    "▁تعویض": 5763,
    "▁کوپتر": 5764,
    "▁آغوش": 5765,
    "▁خرمشهر": 5766,
    "▁کنزو": 5767,
    "▁کادیس": 5768,
    "▁سرگرفت": 5769,
    "▁استقراض": 5770,
    "▁سرشار": 5771,
    "▁طاق": 5772,
    "▁رسن": 5773,
    "ذل": 5774,
    "▁کلیپ": 5775,
    "▁گردنبند": 5776,
    "▁اسمیت": 5777,
    "مانیا": 5778,
    "▁پاد": 5779,
    "▁گاو": 5780,
    "تانیک": 5781,
    "▁استقامت": 5782,
    "▁جزایر": 5783,
    "جاد": 5784,
    "▁شایست": 5785,
    "▁کریر": 5786,
    "▁خوشحالم": 5787,
    "واز": 5788,
    "▁طل": 5789,
    "▁گدار": 5790,
    "ادیو": 5791,
    "▁آلبر": 5792,
    "▁نیکل": 5793,
    "▁گویم": 5794,
    "▁شورش": 5795,
    "▁تلک": 5796,
    "رل": 5797,
    "▁زلا": 5798,
    "▁پیامک": 5799,
    "▁نیمروز": 5800,
    "▁وحشت": 5801,
    "▁پیشگامان": 5802,
    "▁مهمانان": 5803,
    "▁زید": 5804,
    "▁انگیزترین": 5805,
    "▁متول": 5806,
    "باع": 5807,
    "▁مانند": 5808,
    "▁نکو": 5809,
    "۲۹": 5810,
    "▁رایزن": 5811,
    "▁بصر": 5812,
    "▁مهد": 5813,
    "▁بوئنو": 5814,
    "▁قطعا": 5815,
    "▁شیوا": 5816,
    "بیگ": 5817,
    "▁نیکولا": 5818,
    "اندر": 5819,
    "▁اون": 5820,
    "▁جولی": 5821,
    "خان": 5822,
    "▁منح": 5823,
    "▁برگردانده": 5824,
    "▁امتیازات": 5825,
    "▁گریه": 5826,
    "▁پیر": 5827,
    "▁حام": 5828,
    "▁پردازی": 5829,
    "دالله": 5830,
    "▁سنگر": 5831,
    "▁لندرو": 5832,
    "▁۴۵۰": 5833,
    "▁آرزوهای": 5834,
    "▁شکن": 5835,
    "▁رامی": 5836,
    "▁دهلی": 5837,
    "نیف": 5838,
    "▁خد": 5839,
    "ارسل": 5840,
    "▁مینیاتور": 5841,
    "▁سازان": 5842,
    "▁آبهای": 5843,
    "هرابی": 5844,
    "▁متحدانش": 5845,
    "▁مولان": 5846,
    "اپ": 5847,
    "صیل": 5848,
    "نگیز": 5849,
    "▁صاف": 5850,
    "▁خریدن": 5851,
    "▁سهیم": 5852,
    "گذار": 5853,
    "▁بازگو": 5854,
    "▁کلاین": 5855,
    "ارل": 5856,
    "سرین": 5857,
    "▁بروم": 5858,
    "▁چارل": 5859,
    "نیچ": 5860,
    "▁پروازهایش": 5861,
    "▁پرستار": 5862,
    "ادی": 5863,
    "▁لاب": 5864,
    "▁صدایش": 5865,
    "▁هشدارهای": 5866,
    "▁فردین": 5867,
    "▁برفی": 5868,
    "تازه": 5869,
    "آفرین": 5870,
    "▁مگ": 5871,
    "▁جور": 5872,
    "کنیم": 5873,
    "▁بقا": 5874,
    "▁مباد": 5875,
    "وظ": 5876,
    "▁رفتم": 5877,
    "یوس": 5878,
    "▁کمتری": 5879,
    "▁بگذاری": 5880,
    "▁بفهم": 5881,
    "▁خلا": 5882,
    "اکثریت": 5883,
    "▁بوتا": 5884,
    "تصور": 5885,
    "▁تاکتیک": 5886,
    "اسکو": 5887,
    "▁آرزو": 5888,
    "▁قطرک": 5889,
    "فرانسی": 5890,
    "▁اجتماع": 5891,
    "یتا": 5892,
    "▁تم": 5893,
    "نش": 5894,
    "▁وگوها": 5895,
    "▁تشی": 5896,
    "لانتی": 5897,
    "▁تابستانی": 5898,
    "▁هن": 5899,
    "تانک": 5900,
    "۹۱": 5901,
    "▁دال": 5902,
    "▁رنگی": 5903,
    "▁پسران": 5904,
    "لاب": 5905,
    "وپ": 5906,
    "▁سمی": 5907,
    "سالار": 5908,
    "زلی": 5909,
    "▁عزیزان": 5910,
    "بیه": 5911,
    "▁بک": 5912,
    "▁حدادی": 5913,
    "نفر": 5914,
    "دیمیر": 5915,
    "▁سفرها": 5916,
    "ولان": 5917,
    "▁بطر": 5918,
    "۶۲": 5919,
    "وام": 5920,
    "▁خواستم": 5921,
    "یامک": 5922,
    "فرید": 5923,
    "سوم": 5924,
    "شر": 5925,
    "▁مصرفی": 5926,
    "صره": 5927,
    "ظاهر": 5928,
    "منازع": 5929,
    "مجتب": 5930,
    "تابعیت": 5931,
    "شریف": 5932,
    "کاظم": 5933,
    "تحلیلگر": 5934,
    "منظور": 5935,
    "اسماعیل": 5936,
    "رافائل": 5937,
    "استرالیا": 5938,
    "دفتر": 5939,
    "اعضای": 5940,
    "(": 5941,
    "مذاکرات": 5942,
    "مسابقات": 5943,
    "تصویر": 5944,
    "عادی": 5945,
    "سوزی": 5946,
    "▁لبنانی": 5947,
    "ویکتور": 5948,
    "کاوه": 5949,
    "مطابق": 5950,
    "اداره": 5951,
    "سته": 5952,
    "عفون": 5953,
    "تهران": 5954,
    "دلال": 5955,
    "▁توس": 5956,
    "▁۳۲۰": 5957,
    "قصد": 5958,
    "جمعیت": 5959,
    "پاش": 5960,
    "باد": 5961,
    "وویچ": 5962,
    "رگ": 5963,
    "▁پذیرفت": 5964,
    "▁کیف": 5965,
    "▁مینا": 5966,
    "▁۱۱۰": 5967,
    "ائو": 5968,
    "نوردی": 5969,
    "▁خانمان": 5970,
    "▁عزا": 5971,
    "▁خویش": 5972,
    "▁منه": 5973,
    "▁مزای": 5974,
    "▁تسهیل": 5975,
    "▁جع": 5976,
    "▁مخاطب": 5977,
    "▁پوچتینو": 5978,
    "▁آکسفام": 5979,
    "▁بوچانی": 5980,
    "▁تزئین": 5981,
    "▁تلسکوپ": 5982,
    "▁رفسنجان": 5983,
    "▁لومامبا": 5984,
    "▁مقصود": 5985,
    "▁یادماندنی": 5986,
    "▁تدفین": 5987,
    "▁طغیان": 5988,
    "▁اسپایدر": 5989,
    "▁تأسیس": 5990,
    "▁مستثن": 5991,
    "▁طناب": 5992,
    "▁بلغارستان": 5993,
    "▁دفاتر": 5994,
    "▁کومله": 5995,
    "▁فرستد": 5996,
    "▁مطیع": 5997,
    "▁هامبورگ": 5998,
    "▁پرایس": 5999,
    "▁متمایز": 6000,
    "▁کانتینر": 6001,
    "▁مصم": 6002,
    "▁ارکستر": 6003,
    "▁مرضیه": 6004,
    "▁نیچر": 6005,
    "▁زاکانی": 6006,
    "▁توازن": 6007,
    "▁فرنود": 6008,
    "نیروی": 6009,
    "▁تقلب": 6010,
    "▁لشگر": 6011,
    "▁آنکارا": 6012,
    "▁اتومات": 6013,
    "تمع": 6014,
    "▁مخرب": 6015,
    "▁نابرابر": 6016,
    "▁قاعدتا": 6017,
    "▁اعصاب": 6018,
    "▁سرماخورد": 6019,
    "▁ذیبخش": 6020,
    "▁اسعد": 6021,
    "▁دردناک": 6022,
    "گارت": 6023,
    "▁هلمند": 6024,
    "▁تبلت": 6025,
    "▁شکارچی": 6026,
    "▁جرارد": 6027,
    "▁کلانتری": 6028,
    "▁پیانو": 6029,
    "▁محاف": 6030,
    "▁گردهم": 6031,
    "▁محف": 6032,
    "▁گهر": 6033,
    "▁بازتاب": 6034,
    "▁تربیت": 6035,
    "▁ریسک": 6036,
    "رومن": 6037,
    "▁ربای": 6038,
    "▁سیگنال": 6039,
    "▁هجر": 6040,
    "جوبی": 6041,
    "▁ناچیز": 6042,
    "▁سازوکارهای": 6043,
    "▁برگردند": 6044,
    "ومبل": 6045,
    "▁منکر": 6046,
    "▁کوبید": 6047,
    "▁تفکر": 6048,
    "▁بکند": 6049,
    "▁دلتا": 6050,
    "▁درخشید": 6051,
    "▁مساعد": 6052,
    "▁ریاضیات": 6053,
    "▁کاندیدا": 6054,
    "▁آرایشگاه": 6055,
    "▁انتصاب": 6056,
    "قندهار": 6057,
    "▁جاستین": 6058,
    "▁انکار": 6059,
    "دترا": 6060,
    "▁سیدنی": 6061,
    "▁بغلان": 6062,
    "▁بخواهد": 6063,
    "▁دانشگر": 6064,
    "▁هک": 6065,
    "▁ریختن": 6066,
    "▁دوتار": 6067,
    "▁اخترشناس": 6068,
    "▁کمپ": 6069,
    "▁۸۴": 6070,
    "▁ناقل": 6071,
    "▁موسیقیدان": 6072,
    "▁پارکور": 6073,
    "▁حریم": 6074,
    "▁ابزارهای": 6075,
    "▁اندرکاران": 6076,
    "▁شعارهای": 6077,
    "▁معلولان": 6078,
    "▁مطالبات": 6079,
    "▁کشتند": 6080,
    "▁گوییم": 6081,
    "▁درشت": 6082,
    "▁یابند": 6083,
    "▁نامجو": 6084,
    "▁منک": 6085,
    "▁۱۸۸": 6086,
    "▁سفت": 6087,
    "▁جون": 6088,
    "▁مورف": 6089,
    "▁کثیر": 6090,
    "▁معلومات": 6091,
    "▁سولار": 6092,
    "ونتی": 6093,
    "جل": 6094,
    "▁پرکار": 6095,
    "▁موکل": 6096,
    "▁فاضل": 6097,
    "▁مسبب": 6098,
    "▁کیمن": 6099,
    "▁سکوها": 6100,
    "لث": 6101,
    "▁نامعلوم": 6102,
    "▁بیانسه": 6103,
    "▁فراور": 6104,
    "▁اعظم": 6105,
    "▁پستاندار": 6106,
    "علت": 6107,
    "تناسب": 6108,
    "مرد": 6109,
    "▁اشتباهات": 6110,
    "▁کتک": 6111,
    "اشی": 6112,
    "▁ننگ": 6113,
    "▁کشتن": 6114,
    "بخشی": 6115,
    "▁دوندگان": 6116,
    "رده": 6117,
    "▁ساید": 6118,
    "جوزپ": 6119,
    "▁پادمان": 6120,
    "▁پینگ": 6121,
    "▁ابو": 6122,
    "بینند": 6123,
    "نسوخ": 6124,
    "▁مجتب": 6125,
    "▁معتمدی": 6126,
    "اچو": 6127,
    "▁علما": 6128,
    "▁عکسها": 6129,
    "▁آرم": 6130,
    "▁اشیا": 6131,
    "▁صبا": 6132,
    "امو": 6133,
    "▁آسا": 6134,
    "▁گزینش": 6135,
    "▁گرفتیم": 6136,
    "▁پیداست": 6137,
    "اصل": 6138,
    "ایت": 6139,
    "▁سوزاند": 6140,
    "▁پود": 6141,
    "▁محسوس": 6142,
    "▁سهامدار": 6143,
    "فین": 6144,
    "▁چرخش": 6145,
    "▁هولم": 6146,
    "▁بازجوی": 6147,
    "▁عکاسان": 6148,
    "▁ممیز": 6149,
    "▁پارچ": 6150,
    "▁کیس": 6151,
    "خیر": 6152,
    "▁محب": 6153,
    "۲۸": 6154,
    "▁سرمای": 6155,
    "▁اک": 6156,
    "▁اصلاحی": 6157,
    "▁کور": 6158,
    "جیغ": 6159,
    "زیان": 6160,
    "فره": 6161,
    "▁موت": 6162,
    "▁ساختند": 6163,
    "▁زانوی": 6164,
    "نولد": 6165,
    "▁گوها": 6166,
    "شایر": 6167,
    "یگو": 6168,
    "▁فرشت": 6169,
    "سپی": 6170,
    "ارت": 6171,
    "▁زدای": 6172,
    "▁کاریر": 6173,
    "▁ناک": 6174,
    "دوستان": 6175,
    "▁لوی": 6176,
    "۴۲": 6177,
    "▁۶۹": 6178,
    "▁لطفی": 6179,
    "▁معمای": 6180,
    "کان": 6181,
    "▁ورا": 6182,
    "▁هوادارانش": 6183,
    "▁لور": 6184,
    "▁راستش": 6185,
    "۰۰۰": 6186,
    "▁سومو": 6187,
    "▁هراس": 6188,
    "▁پوک": 6189,
    "ورت": 6190,
    "▁کوش": 6191,
    "▁آنهاست": 6192,
    "عل": 6193,
    "وتو": 6194,
    "رژی": 6195,
    "▁گز": 6196,
    "تور": 6197,
    "▁عفون": 6198,
    "▁فرز": 6199,
    "ادت": 6200,
    "▁موتورها": 6201,
    "▁میلیاردرها": 6202,
    "▁وگوهای": 6203,
    "زیر": 6204,
    "شت": 6205,
    "نیوز": 6206,
    "ایش": 6207,
    "وط": 6208,
    "ادین": 6209,
    "لبان": 6210,
    "▁عظیمی": 6211,
    "▁اینچ": 6212,
    "فروش": 6213,
    "چمن": 6214,
    "▁الی": 6215,
    "انجی": 6216,
    "▁نر": 6217,
    "پزشک": 6218,
    "▁عار": 6219,
    "▁نوای": 6220,
    "رتر": 6221,
    "▁معما": 6222,
    "▁درها": 6223,
    "▁آنا": 6224,
    "▁کارتون": 6225,
    "جیل": 6226,
    "زین": 6227,
    "▁سازه": 6228,
    "▁دبی": 6229,
    "▁قی": 6230,
    "میشل": 6231,
    "▁خاور": 6232,
    "ورا": 6233,
    "▁متص": 6234,
    "▁فق": 6235,
    "الیز": 6236,
    "أی": 6237,
    "ومی": 6238,
    "▁فرح": 6239,
    "▁فضاپیما": 6240,
    "▁نمازی": 6241,
    "▁مسیری": 6242,
    "▁خوابی": 6243,
    "▁کلیسا": 6244,
    "▁بخشهای": 6245,
    "رف": 6246,
    "▁لطف": 6247,
    "▁چال": 6248,
    "جام": 6249,
    "▁قدیم": 6250,
    "▁دات": 6251,
    "▁جند": 6252,
    "دین": 6253,
    "مجموع": 6254,
    "▁پهن": 6255,
    "▁مبا": 6256,
    "▁اسک": 6257,
    "ورانه": 6258,
    "▁دکترا": 6259,
    "▁فلا": 6260,
    "عمل": 6261,
    "گن": 6262,
    "▁کون": 6263,
    "▁کریس": 6264,
    "▁دیوانه": 6265,
    "گزار": 6266,
    "▁کریم": 6267,
    "▁نشدنی": 6268,
    "▁برنا": 6269,
    "فیلد": 6270,
    "▁سیا": 6271,
    "▁نماند": 6272,
    "▁برآوردها": 6273,
    "بالا": 6274,
    "انزا": 6275,
    "▁نامم": 6276,
    "▁۱۸۵": 6277,
    "▁۷۹": 6278,
    "▁هیل": 6279,
    "▁بوم": 6280,
    "ژیک": 6281,
    "برگزار": 6282,
    "▁پوشیدن": 6283,
    "▁۳۸۰": 6284,
    "▁تولی": 6285,
    "▁داران": 6286,
    "نون": 6287,
    "▁آپ": 6288,
    "فرگوس": 6289,
    "انتخابات": 6290,
    "▁نما": 6291,
    "زمان": 6292,
    "فضل": 6293,
    "فع": 6294,
    "پادمان": 6295,
    "حداکثر": 6296,
    "انجمن": 6297,
    "حادثه": 6298,
    "رکورد": 6299,
    "عضو": 6300,
    "عادت": 6301,
    "جراح": 6302,
    "نقاشی": 6303,
    "موسیقی": 6304,
    "ابتدا": 6305,
    "جامع": 6306,
    "▁بادی": 6307,
    "ترکیه": 6308,
    "مورد": 6309,
    "سنگر": 6310,
    "داستان": 6311,
    "رحیم": 6312,
    "کمتر": 6313,
    "نشست": 6314,
    "پیروز": 6315,
    "▁جس": 6316,
    "نمود": 6317,
    "▁لک": 6318,
    "▁چی": 6319,
    "پرس": 6320,
    "افشاری": 6321,
    "نمایند": 6322,
    "▁لیر": 6323,
    "آیا": 6324,
    "▁رسی": 6325,
    "عطا": 6326,
    "▁یزد": 6327,
    "▁معلول": 6328,
    "▁کوهنورد": 6329,
    "▁فور": 6330,
    "▁اندرکار": 6331,
    "دختر": 6332,
    "▁شاگرد": 6333,
    "دلایل": 6334,
    "▁ماتی": 6335,
    "دوران": 6336,
    "نقش": 6337,
    "▁متغیر": 6338,
    "▁جزئی": 6339,
    "▁بوفالو": 6340,
    "▁پژ": 6341,
    "▁عضلا": 6342,
    "۲۱": 6343,
    "▁کانگورو": 6344,
    "▁ارواح": 6345,
    "▁اصغر": 6346,
    "▁انتقام": 6347,
    "▁اوگوپوگو": 6348,
    "▁ذوالنور": 6349,
    "▁سرلشکر": 6350,
    "▁مقتدر": 6351,
    "▁نباشند": 6352,
    "▁اقتباس": 6353,
    "▁جوامع": 6354,
    "▁سیاهپوست": 6355,
    "▁فیلسوف": 6356,
    "▁مناقش": 6357,
    "▁گدوت": 6358,
    "▁بیاورند": 6359,
    "▁رولزرویس": 6360,
    "▁تجدد": 6361,
    "▁ویتنام": 6362,
    "▁برسانند": 6363,
    "▁رغبت": 6364,
    "تصاعد": 6365,
    "▁سیستماتیک": 6366,
    "▁مکالم": 6367,
    "▁درآید": 6368,
    "▁هیدرو": 6369,
    "▁معاهد": 6370,
    "▁ماراکانا": 6371,
    "▁بدانید": 6372,
    "▁ناپولی": 6373,
    "▁ترشح": 6374,
    "▁مونتاژ": 6375,
    "▁ژنشنگ": 6376,
    "▁بگویند": 6377,
    "▁باثبات": 6378,
    "▁پرشور": 6379,
    "▁النصر": 6380,
    "▁واگیر": 6381,
    "▁واجد": 6382,
    "▁کانت": 6383,
    "▁عروق": 6384,
    "▁فرسایش": 6385,
    "▁کفایت": 6386,
    "▁طلسم": 6387,
    "▁خاشق": 6388,
    "▁فرسود": 6389,
    "▁افزاید": 6390,
    "▁سینماگر": 6391,
    "▁دسمو": 6392,
    "▁مشروب": 6393,
    "▁آبتین": 6394,
    "▁۱۹۷۹": 6395,
    "▁آلایند": 6396,
    "▁گسل": 6397,
    "▁فیصل": 6398,
    "▁فرنگی": 6399,
    "▁مذک": 6400,
    "▁مختاری": 6401,
    "▁اضافی": 6402,
    "▁پرجمعیت": 6403,
    "▁ساوت": 6404,
    "▁جملات": 6405,
    "▁گرافیک": 6406,
    "▁تصرف": 6407,
    "▁معلولیت": 6408,
    "رقیز": 6409,
    "▁مردادماه": 6410,
    "▁داش": 6411,
    "▁قدردان": 6412,
    "▁بلید": 6413,
    "▁سانتو": 6414,
    "▁قرائت": 6415,
    "▁الاکلنگ": 6416,
    "▁خردسال": 6417,
    "▁اشعار": 6418,
    "▁ونگر": 6419,
    "یچک": 6420,
    "▁چسب": 6421,
    "▁۷۵۲": 6422,
    "▁فورب": 6423,
    "▁کاشف": 6424,
    "▁گرگور": 6425,
    "▁پابند": 6426,
    "▁تعلیم": 6427,
    "▁مولف": 6428,
    "▁اشت": 6429,
    "▁سفیددره": 6430,
    "▁نایا": 6431,
    "▁نورمحمد": 6432,
    "مزمن": 6433,
    "▁بخواهید": 6434,
    "▁نامشخص": 6435,
    "▁مسن": 6436,
    "خضر": 6437,
    "▁کاتال": 6438,
    "گاس": 6439,
    "▁پاسگاه": 6440,
    "▁ورزند": 6441,
    "▁دادخواست": 6442,
    "▁سانتا": 6443,
    "▁دپ": 6444,
    "▁گیلبرت": 6445,
    "▁فرندز": 6446,
    "▁شانگ": 6447,
    "▁فلزات": 6448,
    "▁شخصا": 6449,
    "▁اشخاص": 6450,
    "▁القا": 6451,
    "▁ایستادند": 6452,
    "▁دردسرهای": 6453,
    "▁بلک": 6454,
    "▁عت": 6455,
    "▁کارولین": 6456,
    "حرفه": 6457,
    "▁طاهر": 6458,
    "▁فهیم": 6459,
    "▁سور": 6460,
    "▁حکیم": 6461,
    "▁پینک": 6462,
    "اطبا": 6463,
    "محسن": 6464,
    "▁لوپ": 6465,
    "تک": 6466,
    "▁ملکشا": 6467,
    "▁استیو": 6468,
    "▁لط": 6469,
    "▁کامران": 6470,
    "▁دیابت": 6471,
    "▁مادی": 6472,
    "زو": 6473,
    "▁نوزادان": 6474,
    "▁سرگردان": 6475,
    "▁معین": 6476,
    "▁پروست": 6477,
    "▁پاسدار": 6478,
    "▁دیرتر": 6479,
    "▁کویت": 6480,
    "▁موریس": 6481,
    "▁انح": 6482,
    "▁نبی": 6483,
    "▁هوشیاری": 6484,
    "▁داود": 6485,
    "علم": 6486,
    "▁تح": 6487,
    "▁بازنده": 6488,
    "نوس": 6489,
    "قدرت": 6490,
    "▁هرجا": 6491,
    "▁گیم": 6492,
    "▁آلت": 6493,
    "شکاف": 6494,
    "گرنه": 6495,
    "▁نهایتا": 6496,
    "شدن": 6497,
    "پائولو": 6498,
    "سیما": 6499,
    "رهای": 6500,
    "یزه": 6501,
    "▁تجمعات": 6502,
    "روژ": 6503,
    "▁امری": 6504,
    "▁دا": 6505,
    "▁منازع": 6506,
    "▁عثمانی": 6507,
    "▁نگذاشته": 6508,
    "خن": 6509,
    "▁نیوز": 6510,
    "▁چید": 6511,
    "▁مایل": 6512,
    "▁جراحت": 6513,
    "▁تحریر": 6514,
    "▁ریاضی": 6515,
    "▁هجدهم": 6516,
    "▁درسی": 6517,
    "▁فرزندانش": 6518,
    "کسین": 6519,
    "▁دایی": 6520,
    "▁دیدند": 6521,
    "▁بازده": 6522,
    "▁اختیارات": 6523,
    "▁مستع": 6524,
    "قیاس": 6525,
    "▁افزودن": 6526,
    "۱۹۶۵": 6527,
    "شش": 6528,
    "خزن": 6529,
    "▁دیوارهای": 6530,
    "▁ماندند": 6531,
    "▁سیمون": 6532,
    "ماد": 6533,
    "▁نخب": 6534,
    "▁بشریت": 6535,
    "▁ریگ": 6536,
    "▁احتیا": 6537,
    "جر": 6538,
    "▁موسی": 6539,
    "فته": 6540,
    "▁صحرای": 6541,
    "▁پوستر": 6542,
    "حصول": 6543,
    "▁بروید": 6544,
    "▁کلیت": 6545,
    "▁برگرداند": 6546,
    "▁الع": 6547,
    "▁لین": 6548,
    "▁نیستیم": 6549,
    "پاتی": 6550,
    "▁پرز": 6551,
    "▁مسافری": 6552,
    "▁بانان": 6553,
    "فرانس": 6554,
    "قبل": 6555,
    "▁پاسخگوی": 6556,
    "▁حول": 6557,
    "▁مرادی": 6558,
    "جیک": 6559,
    "▁یوسی": 6560,
    "▁داروین": 6561,
    "ونا": 6562,
    "▁تبر": 6563,
    "▁تورب": 6564,
    "▁خش": 6565,
    "▁اروپاست": 6566,
    "▁نیافته": 6567,
    "▁۵۴": 6568,
    "۲۷": 6569,
    "تیس": 6570,
    "▁ترکی": 6571,
    "فی": 6572,
    "سپاس": 6573,
    "▁قان": 6574,
    "شیا": 6575,
    "▁مرت": 6576,
    "▁الس": 6577,
    "▁آز": 6578,
    "ملو": 6579,
    "▁سکان": 6580,
    "▁فضاپیمای": 6581,
    "وتی": 6582,
    "▁شناختن": 6583,
    "▁برگزارکنند": 6584,
    "▁منظره": 6585,
    "▁پاش": 6586,
    "▁نوا": 6587,
    "▁ملته": 6588,
    "ادل": 6589,
    "▁مارکو": 6590,
    "فان": 6591,
    "▁مردن": 6592,
    "▁همب": 6593,
    "▁کلیسای": 6594,
    "زمه": 6595,
    "▁ناصری": 6596,
    "کافی": 6597,
    "▁تپند": 6598,
    "▁ایرلندی": 6599,
    "دلیل": 6600,
    "▁بزرگان": 6601,
    "چل": 6602,
    "▁وض": 6603,
    "بد": 6604,
    "سالی": 6605,
    "▁جورجی": 6606,
    "شک": 6607,
    "▁کارل": 6608,
    "▁عاج": 6609,
    "▁باج": 6610,
    "طل": 6611,
    "▁بایر": 6612,
    "▁فرخ": 6613,
    "▁جانش": 6614,
    "▁لوو": 6615,
    "▁فشارهای": 6616,
    "گویان": 6617,
    "▁بخشید": 6618,
    "▁کیلی": 6619,
    "▁بخوان": 6620,
    "درهای": 6621,
    "▁حسابدار": 6622,
    "▁سیرو": 6623,
    "ینا": 6624,
    "دانه": 6625,
    "توری": 6626,
    "ودن": 6627,
    "پژوه": 6628,
    "▁عط": 6629,
    "▁کارند": 6630,
    "▁پیت": 6631,
    "▁بگ": 6632,
    "تاکنون": 6633,
    "ویژ": 6634,
    "▁برگرداندن": 6635,
    "کری": 6636,
    "یتسی": 6637,
    "▁استرا": 6638,
    "▁نتوان": 6639,
    "رشاد": 6640,
    "سکار": 6641,
    "پراتور": 6642,
    "برآورد": 6643,
    "▁قاطعان": 6644,
    "▁کاش": 6645,
    "یسی": 6646,
    "ئیه": 6647,
    "▁دک": 6648,
    "▁سپرد": 6649,
    "لز": 6650,
    "▁بلندپرواز": 6651,
    "▁میکروب": 6652,
    "خو": 6653,
    "▁رقبا": 6654,
    "▁پیگیر": 6655,
    "▁اپرا": 6656,
    "▁سریعتر": 6657,
    "▁کارفرما": 6658,
    "▁ناآرام": 6659,
    "▁امپر": 6660,
    "▁نمک": 6661,
    "▁کمیاب": 6662,
    "کات": 6663,
    "▁قوم": 6664,
    "▁سرور": 6665,
    "▁شاد": 6666,
    "▁خم": 6667,
    "▁سلیمان": 6668,
    "▁سک": 6669,
    "▁کلک": 6670,
    "▁هروی": 6671,
    "▁فورا": 6672,
    "▁تیز": 6673,
    "▁آوا": 6674,
    "▁فشارها": 6675,
    "▁نوک": 6676,
    "▁فرستادن": 6677,
    "اتل": 6678,
    "▁فضل": 6679,
    "▁درآمده": 6680,
    "▁کوچ": 6681,
    "گروهی": 6682,
    "شناسی": 6683,
    "▁۹۲": 6684,
    "زمینی": 6685,
    "میر": 6686,
    "▁درصدد": 6687,
    "▁معاونان": 6688,
    "بیز": 6689,
    "الوح": 6690,
    "۲۲": 6691,
    "رسیدن": 6692,
    "▁گلد": 6693,
    "▁اشع": 6694,
    "▁نزدیکتر": 6695,
    "فشار": 6696,
    "▁پیچید": 6697,
    "▁کوئ": 6698,
    "سلط": 6699,
    "▁مغزش": 6700,
    "▁شنو": 6701,
    "یافته": 6702,
    "بورگ": 6703,
    "امین": 6704,
    "بریتانیا": 6705,
    "ارزش": 6706,
    "آلود": 6707,
    "بورد": 6708,
    "▁مشتاق": 6709,
    "انتخاب": 6710,
    "کوئین": 6711,
    "▁ارت": 6712,
    "کجاست": 6713,
    "پرداخت": 6714,
    "دوغا": 6715,
    "عکاس": 6716,
    "توماس": 6717,
    "ماخ": 6718,
    "قاسم": 6719,
    "هماهنگ": 6720,
    "جنجال": 6721,
    "هواداران": 6722,
    "نتایج": 6723,
    "ویروس": 6724,
    "دانشگاه": 6725,
    "حقوق": 6726,
    "مرغ": 6727,
    "آژانس": 6728,
    "اسناد": 6729,
    "فیروز": 6730,
    "شروع": 6731,
    "اوپک": 6732,
    "تحریم": 6733,
    "سریع": 6734,
    "حساب": 6735,
    "کشتی": 6736,
    "حضور": 6737,
    "۱۴۰۰": 6738,
    "میدان": 6739,
    "حام": 6740,
    "محمدرضا": 6741,
    "رفتن": 6742,
    "ادیوم": 6743,
    "آبی": 6744,
    "درگذشت": 6745,
    "بن": 6746,
    "زندگی": 6747,
    "ینچی": 6748,
    "شوند": 6749,
    "▁قائ": 6750,
    "▁۲۹۰": 6751,
    "۱۱": 6752,
    "وحید": 6753,
    "▁استبا": 6754,
    "لئوپا": 6755,
    "صال": 6756,
    "خوشایند": 6757,
    "لخ": 6758,
    "▁درام": 6759,
    "▁گوا": 6760,
    "هیج": 6761,
    "روند": 6762,
    "▁اقام": 6763,
    "افزون": 6764,
    "▁سازوکار": 6765,
    "زیو": 6766,
    "تفلی": 6767,
    "▁آرسن": 6768,
    "▁موزیک": 6769,
    "▁قزاق": 6770,
    "▁التحصیل": 6771,
    "▁اویغور": 6772,
    "▁دموکراسی": 6773,
    "▁رادیواکتیو": 6774,
    "▁سخاوتمند": 6775,
    "▁سرگذاشت": 6776,
    "▁مالباخت": 6777,
    "▁محتاط": 6778,
    "▁محتمل": 6779,
    "▁ناگزیر": 6780,
    "▁نیفتاد": 6781,
    "▁انقطاع": 6782,
    "▁بفروشند": 6783,
    "▁اوقاف": 6784,
    "▁رفراند": 6785,
    "▁مستاجر": 6786,
    "▁مکتوب": 6787,
    "▁بوزمن": 6788,
    "▁انزوا": 6789,
    "▁باشکوه": 6790,
    "▁نقیض": 6791,
    "▁وروورت": 6792,
    "▁بازنگشت": 6793,
    "▁بالیوود": 6794,
    "▁غلیظ": 6795,
    "▁فرناند": 6796,
    "▁فرمانروای": 6797,
    "▁لشکر": 6798,
    "▁کارائیب": 6799,
    "▁قتالی": 6800,
    "▁ندارید": 6801,
    "▁پیمود": 6802,
    "▁گاگا": 6803,
    "▁استعمار": 6804,
    "▁کمبریج": 6805,
    "▁رزیدن": 6806,
    "▁جلیل": 6807,
    "▁تورنتو": 6808,
    "نتسب": 6809,
    "▁عزت": 6810,
    "▁ماهرویان": 6811,
    "▁کوشنر": 6812,
    "▁اسرارآمیز": 6813,
    "▁دروغگو": 6814,
    "▁سازگار": 6815,
    "▁چرم": 6816,
    "▁هالپ": 6817,
    "▁خاکستر": 6818,
    "▁یونسی": 6819,
    "▁فونینی": 6820,
    "▁اردکان": 6821,
    "▁سانتیگراد": 6822,
    "▁مجلات": 6823,
    "▁جاسک": 6824,
    "▁جادوگر": 6825,
    "▁ایلام": 6826,
    "▁پدربزرگ": 6827,
    "▁کرمانپور": 6828,
    "▁رفیق": 6829,
    "کاراکاس": 6830,
    "▁مارسیال": 6831,
    "▁کنشگر": 6832,
    "▁تجدیدنظر": 6833,
    "▁هواشناسی": 6834,
    "▁شاهرود": 6835,
    "▁اصالت": 6836,
    "▁مجاور": 6837,
    "▁ظالمانه": 6838,
    "▁خشمگین": 6839,
    "▁بکاهند": 6840,
    "▁بپردازند": 6841,
    "▁مادام": 6842,
    "ارومیه": 6843,
    "▁میدهد": 6844,
    "▁ابدی": 6845,
    "▁خلاق": 6846,
    "▁داوود": 6847,
    "▁لوگو": 6848,
    "ارتاک": 6849,
    "ذائ": 6850,
    "▁چپگرا": 6851,
    "▁خلوتگر": 6852,
    "▁مافی": 6853,
    "▁روانچی": 6854,
    "▁تقلا": 6855,
    "▁بگوید": 6856,
    "▁خاندان": 6857,
    "▁بیندازند": 6858,
    "▁بگذارم": 6859,
    "▁احصا": 6860,
    "▁احوال": 6861,
    "▁مرموز": 6862,
    "▁ملوان": 6863,
    "▁نابینا": 6864,
    "▁صفوف": 6865,
    "▁ویلسون": 6866,
    "▁۱۹۶۷": 6867,
    "▁۱۹۶۸": 6868,
    "▁کاسپی": 6869,
    "▁اجزا": 6870,
    "▁گنبد": 6871,
    "▁مبت": 6872,
    "▁ببریم": 6873,
    "▁نورماگومدوف": 6874,
    "▁سولشر": 6875,
    "▁بایستند": 6876,
    "▁ائ": 6877,
    "▁مساحت": 6878,
    "▁برویم": 6879,
    "▁مختصر": 6880,
    "▁ناشر": 6881,
    "▁ناشده": 6882,
    "▁امیدوارکننده": 6883,
    "▁متقابل": 6884,
    "▁گردیم": 6885,
    "▁رولز": 6886,
    "▁دستیاران": 6887,
    "▁ترقی": 6888,
    "▁زالی": 6889,
    "▁جرج": 6890,
    "▁راشد": 6891,
    "▁بورات": 6892,
    "▁گپ": 6893,
    "▁برایانت": 6894,
    "▁خودمختار": 6895,
    "▁مأموریت": 6896,
    "▁شمش": 6897,
    "▁ابهامات": 6898,
    "▁لیدی": 6899,
    "▁اجداد": 6900,
    "▁فستیوال": 6901,
    "▁برونته": 6902,
    "▁لاپورتا": 6903,
    "▁بدهم": 6904,
    "▁بیتل": 6905,
    "▁ثور": 6906,
    "▁فلامینگوها": 6907,
    "▁نامگذاری": 6908,
    "▁سانچ": 6909,
    "▁بزرگسالان": 6910,
    "▁کمربندهای": 6911,
    "▁توبین": 6912,
    "▁لات": 6913,
    "▁نصر": 6914,
    "▁والتر": 6915,
    "▁بگیرم": 6916,
    "یامده": 6917,
    "▁حسگرها": 6918,
    "▁دریانورد": 6919,
    "▁هاپک": 6920,
    "▁سرخک": 6921,
    "لستون": 6922,
    "نعیم": 6923,
    "▁تناقض": 6924,
    "▁خانود": 6925,
    "▁رسند": 6926,
    "▁آندرس": 6927,
    "▁جذابیت": 6928,
    "▁تجسم": 6929,
    "▁سینو": 6930,
    "▁توتال": 6931,
    "▁آشو": 6932,
    "▁۱۰۹": 6933,
    "▁زوم": 6934,
    "▁توسان": 6935,
    "▁جودوکا": 6936,
    "▁قاعد": 6937,
    "▁اکثرا": 6938,
    "▁گریخت": 6939,
    "شاد": 6940,
    "بابو": 6941,
    "▁علیزاده": 6942,
    "▁آری": 6943,
    "▁بازدیدکنند": 6944,
    "▁دانل": 6945,
    "▁نماید": 6946,
    "▁توبی": 6947,
    "▁کشورهاست": 6948,
    "▁آف": 6949,
    "▁حوال": 6950,
    "▁بکار": 6951,
    "▁گیت": 6952,
    "▁فراخواند": 6953,
    "▁تشوی": 6954,
    "ایشگاه": 6955,
    "▁ترسد": 6956,
    "▁قصر": 6957,
    "▁عینک": 6958,
    "▁چاق": 6959,
    "▁قبض": 6960,
    "▁پیمانکاران": 6961,
    "▁ناراحتی": 6962,
    "▁تحر": 6963,
    "▁مزد": 6964,
    "▁برنز": 6965,
    "▁کامیاب": 6966,
    "ارک": 6967,
    "▁رخدادهای": 6968,
    "وود": 6969,
    "▁فیش": 6970,
    "▁بوهای": 6971,
    "▁خسرو": 6972,
    "▁دیا": 6973,
    "الیف": 6974,
    "▁شاکی": 6975,
    "▁آگوست": 6976,
    "▁رون": 6977,
    "▁سناریوها": 6978,
    "▁کلینت": 6979,
    "▁بستگان": 6980,
    "▁اثرگذار": 6981,
    "▁شعرهای": 6982,
    "▁کجاست": 6983,
    "▁کانتر": 6984,
    "اتح": 6985,
    "▁سازهای": 6986,
    "▁بدنشان": 6987,
    "یونان": 6988,
    "▁بکت": 6989,
    "▁کاپل": 6990,
    "ماجرای": 6991,
    "▁بفرستید": 6992,
    "▁فک": 6993,
    "▁پژوهشهای": 6994,
    "کسیون": 6995,
    "ماری": 6996,
    "▁ریلی": 6997,
    "▁راوی": 6998,
    "▁قوز": 6999,
    "▁ساد": 7000,
    "▁اغ": 7001,
    "▁تشکیلات": 7002,
    "▁جادوی": 7003,
    "ریوس": 7004,
    "▁پیامبر": 7005,
    "▁گیران": 7006,
    "▁دیسک": 7007,
    "دایی": 7008,
    "قهرمانی": 7009,
    "نگرانی": 7010,
    "اشته": 7011,
    "▁لینک": 7012,
    "وادا": 7013,
    "▁حجت": 7014,
    "▁کورت": 7015,
    "ثر": 7016,
    "▁رودر": 7017,
    "▁دنیل": 7018,
    "▁کورو": 7019,
    "▁یوسفی": 7020,
    "▁تراک": 7021,
    "▁نفی": 7022,
    "دند": 7023,
    "▁شیب": 7024,
    "لزم": 7025,
    "خور": 7026,
    "▁سروده": 7027,
    "ریتز": 7028,
    "▁درسال": 7029,
    "کسان": 7030,
    "راجع": 7031,
    "▁درمی": 7032,
    "▁فال": 7033,
    "▁بنده": 7034,
    "▁مشخصات": 7035,
    "▁برآورده": 7036,
    "▁نیستم": 7037,
    "▁شدیم": 7038,
    "مور": 7039,
    "۹۳": 7040,
    "پزشکی": 7041,
    "هفتصد": 7042,
    "▁بگو": 7043,
    "پو": 7044,
    "▁برگر": 7045,
    "▁شکنی": 7046,
    "روا": 7047,
    "▁گرجستانی": 7048,
    "▁سفرش": 7049,
    "▁رخت": 7050,
    "ارو": 7051,
    "▁بریتانیاست": 7052,
    "رام": 7053,
    "▁سردست": 7054,
    "برده": 7055,
    "▁رویاهای": 7056,
    "▁رقبای": 7057,
    "▁شرعی": 7058,
    "واقعی": 7059,
    "▁دیدگ": 7060,
    "وسی": 7061,
    "▁خدای": 7062,
    "دارا": 7063,
    "▁دانستن": 7064,
    "فرجام": 7065,
    "▁برخاست": 7066,
    "▁باختری": 7067,
    "موتو": 7068,
    "لسون": 7069,
    "لیچ": 7070,
    "▁فا": 7071,
    "نسک": 7072,
    "۸۹": 7073,
    "سارت": 7074,
    "▁پلک": 7075,
    "ایل": 7076,
    "▁لیب": 7077,
    "تواند": 7078,
    "▁سندر": 7079,
    "▁نازل": 7080,
    "▁یابی": 7081,
    "▁شار": 7082,
    "▁دانا": 7083,
    "گاتی": 7084,
    "▁اتری": 7085,
    "پولو": 7086,
    "▁دلو": 7087,
    "آنچ": 7088,
    "وژان": 7089,
    "▁نوآوران": 7090,
    "ائب": 7091,
    "ایان": 7092,
    "گردانده": 7093,
    "بیست": 7094,
    "▁ورز": 7095,
    "▁جنگی": 7096,
    "▁سکو": 7097,
    "ناس": 7098,
    "▁خوابیدن": 7099,
    "▁بخشد": 7100,
    "▁آس": 7101,
    "اشار": 7102,
    "▁اقسا": 7103,
    "▁رویز": 7104,
    "▁لوک": 7105,
    "کاران": 7106,
    "ریش": 7107,
    "شون": 7108,
    "▁مایا": 7109,
    "▁لیپ": 7110,
    "خالف": 7111,
    "▁شدایران": 7112,
    "▁سرم": 7113,
    "▁عالمی": 7114,
    "▁یخی": 7115,
    "▁فرضی": 7116,
    "▁آش": 7117,
    "بازد": 7118,
    "▁نب": 7119,
    "▁میهن": 7120,
    "اویر": 7121,
    "▁دارداین": 7122,
    "▁دادرس": 7123,
    "راد": 7124,
    "▁اب": 7125,
    "زائ": 7126,
    "اندن": 7127,
    "▁۷۵۰": 7128,
    "▁ذهنش": 7129,
    "تاد": 7130,
    "زیرو": 7131,
    "▁نگفت": 7132,
    "▁دیو": 7133,
    "▁بنگا": 7134,
    "عت": 7135,
    "▁شوی": 7136,
    "یانگ": 7137,
    "▁پاب": 7138,
    "▁رانگل": 7139,
    "▁مسا": 7140,
    "▁شهریاری": 7141,
    "قهرمان": 7142,
    "آباد": 7143,
    "صف": 7144,
    "▁بایست": 7145,
    "وتر": 7146,
    "▁پرداز": 7147,
    "▁حاج": 7148,
    "▁ماریان": 7149,
    "▁گرجستان": 7150,
    "▁۶۶": 7151,
    "▁کیمی": 7152,
    "▁عبد": 7153,
    "▁جد": 7154,
    "▁خوشی": 7155,
    "▁حریر": 7156,
    "مپیون": 7157,
    "▁پاسخگو": 7158,
    "وگو": 7159,
    "▁زیبای": 7160,
    "دفو": 7161,
    "گستر": 7162,
    "▁آرزوها": 7163,
    "▁تحری": 7164,
    "کست": 7165,
    "▁بعض": 7166,
    "▁صوت": 7167,
    "سانس": 7168,
    "▁زای": 7169,
    "لسک": 7170,
    "باخ": 7171,
    "ویر": 7172,
    "تاب": 7173,
    "▁نمادها": 7174,
    "چشم": 7175,
    "▁باخ": 7176,
    "▁رویدادها": 7177,
    "▁نیافتن": 7178,
    "▁کلیو": 7179,
    "▁استانداری": 7180,
    "▁الگو": 7181,
    "▁ترا": 7182,
    "سانی": 7183,
    "▁مراد": 7184,
    "جویی": 7185,
    "رمان": 7186,
    "▁۴۲۰": 7187,
    "نتینو": 7188,
    "▁یوآ": 7189,
    "▁باختر": 7190,
    "▁مهیا": 7191,
    "ریکا": 7192,
    "▁رپ": 7193,
    "کاک": 7194,
    "سوری": 7195,
    "گور": 7196,
    "▁تقی": 7197,
    "▁نهادها": 7198,
    "▁جنب": 7199,
    "▁۲۱۰": 7200,
    "▁جعفر": 7201,
    "▁حرا": 7202,
    "شنبه": 7203,
    "▁مقد": 7204,
    "▁سوزان": 7205,
    "▁نجفی": 7206,
    "صرف": 7207,
    "خصوص": 7208,
    "▁سوز": 7209,
    "ریحان": 7210,
    "مزد": 7211,
    "ارتی": 7212,
    "نژاد": 7213,
    "فور": 7214,
    "ریان": 7215,
    "خوانی": 7216,
    "بزرگ": 7217,
    "نفوذ": 7218,
    "قبض": 7219,
    "درآمد": 7220,
    "دنیل": 7221,
    "یونایتد": 7222,
    "منتقدان": 7223,
    "آکادمی": 7224,
    "حاشیه": 7225,
    "رویترز": 7226,
    "مطالع": 7227,
    "پالایشگاه": 7228,
    "سرطان": 7229,
    "جشنواره": 7230,
    "ترکیب": 7231,
    "شکایت": 7232,
    "دقیق": 7233,
    "فرهاد": 7234,
    "قرنطینه": 7235,
    "پاسخ": 7236,
    "میلیارد": 7237,
    "سپاه": 7238,
    "تجرب": 7239,
    "هنگام": 7240,
    "بازداشت": 7241,
    "ایتالیا": 7242,
    "احسا": 7243,
    "وضعیت": 7244,
    "وزرای": 7245,
    "تنیس": 7246,
    "محل": 7247,
    "دادستان": 7248,
    "لستر": 7249,
    "کشورهای": 7250,
    "بزرگترین": 7251,
    "چال": 7252,
    "شکی": 7253,
    "سیستم": 7254,
    "سیزدهم": 7255,
    "▁نشا": 7256,
    "مدیریت": 7257,
    "خطر": 7258,
    "میلان": 7259,
    "۶۱": 7260,
    "وکیل": 7261,
    "▁پشتو": 7262,
    "▁فراخوان": 7263,
    "سود": 7264,
    "▁دیپلم": 7265,
    "داگ": 7266,
    "مهم": 7267,
    "گردون": 7268,
    "نرخ": 7269,
    "دوج": 7270,
    "مالک": 7271,
    "▁۲۰۵": 7272,
    "▁لندر": 7273,
    "میلیون": 7274,
    "رژه": 7275,
    "▁بسر": 7276,
    "گرفتن": 7277,
    "مردان": 7278,
    "▁سپه": 7279,
    "▁اصطلاحا": 7280,
    "ربط": 7281,
    "▁تسلی": 7282,
    "▁تفنگ": 7283,
    "▁قبای": 7284,
    "▁اندرو": 7285,
    "▁تقریب": 7286,
    "▁خطا": 7287,
    "▁مخابر": 7288,
    "حث": 7289,
    "نمای": 7290,
    "تروئ": 7291,
    "یونیسف": 7292,
    "▁احداث": 7293,
    "▁اختاپوس": 7294,
    "▁اورشلیم": 7295,
    "▁اکسیدکربن": 7296,
    "▁بیرمنگ": 7297,
    "▁بیضائی": 7298,
    "▁تمایز": 7299,
    "▁جگوار": 7300,
    "▁دگراندیش": 7301,
    "▁زاکربرگ": 7302,
    "▁سزاوار": 7303,
    "▁غواص": 7304,
    "▁فلسفی": 7305,
    "▁لابراتوار": 7306,
    "▁متقلب": 7307,
    "▁چرنکوف": 7308,
    "▁ژئوفیزیک": 7309,
    "▁کامبوج": 7310,
    "▁گوسفند": 7311,
    "▁الارض": 7312,
    "▁حروف": 7313,
    "▁ضابط": 7314,
    "▁ناپایدار": 7315,
    "▁تشریفات": 7316,
    "▁متوازن": 7317,
    "▁ظلم": 7318,
    "▁نافذ": 7319,
    "▁هنجار": 7320,
    "آزادی": 7321,
    "▁اوزیل": 7322,
    "▁بیانداز": 7323,
    "▁جانباخت": 7324,
    "▁موازات": 7325,
    "▁واعظ": 7326,
    "▁زیراتمی": 7327,
    "▁بولونیا": 7328,
    "▁میچام": 7329,
    "▁نزاع": 7330,
    "▁سرسخت": 7331,
    "▁اکرم": 7332,
    "▁آهسته": 7333,
    "▁مجلل": 7334,
    "▁تدارک": 7335,
    "▁اوزون": 7336,
    "▁لاوروف": 7337,
    "▁پرسنل": 7338,
    "▁مبتکر": 7339,
    "▁عناب": 7340,
    "▁اهرم": 7341,
    "▁باچان": 7342,
    "▁شروط": 7343,
    "رالزمان": 7344,
    "▁نیکزاد": 7345,
    "▁فرهیخت": 7346,
    "▁صربستان": 7347,
    "▁جاودان": 7348,
    "▁فلاکت": 7349,
    "▁توقع": 7350,
    "▁تسخیر": 7351,
    "▁ازبک": 7352,
    "▁کوپر": 7353,
    "▁غذاخور": 7354,
    "▁فلسطینیان": 7355,
    "▁لاتکس": 7356,
    "▁هریرود": 7357,
    "▁ارمجانی": 7358,
    "▁موازن": 7359,
    "▁حاتم": 7360,
    "▁همفکر": 7361,
    "▁فورمن": 7362,
    "▁دشتکی": 7363,
    "▁شلوار": 7364,
    "▁منفعت": 7365,
    "▁مغایر": 7366,
    "▁حیثیت": 7367,
    "▁بلندپایه": 7368,
    "▁کنسر": 7369,
    "▁نوشتارها": 7370,
    "▁مجادل": 7371,
    "▁ناخشنود": 7372,
    "▁بمیرد": 7373,
    "▁اینفانتی": 7374,
    "▁تربت": 7375,
    "▁هنگفت": 7376,
    "▁کبد": 7377,
    "خوش": 7378,
    "▁کبیری": 7379,
    "▁نپال": 7380,
    "▁دلنشین": 7381,
    "▁یدک": 7382,
    "▁نکشید": 7383,
    "▁دوبلور": 7384,
    "▁قبرستان": 7385,
    "▁ربود": 7386,
    "▁تومور": 7387,
    "▁الاجراست": 7388,
    "▁ژائو": 7389,
    "▁شنویم": 7390,
    "▁چوپ": 7391,
    "▁دامغان": 7392,
    "▁بخواهند": 7393,
    "▁انحراف": 7394,
    "▁عضلانی": 7395,
    "▁واپس": 7396,
    "▁سرپوش": 7397,
    "▁نثر": 7398,
    "▁عبادی": 7399,
    "▁رینت": 7400,
    "▁هندرسون": 7401,
    "▁مراکش": 7402,
    "▁هیپی": 7403,
    "▁طبع": 7404,
    "▁مخوف": 7405,
    "▁پابرجاست": 7406,
    "▁چشید": 7407,
    "یوئیت": 7408,
    "تالیا": 7409,
    "▁کوپا": 7410,
    "▁نیابد": 7411,
    "▁۱۹۹۴": 7412,
    "▁آزاردید": 7413,
    "▁چسباند": 7414,
    "▁برلوسکونی": 7415,
    "▁سحابی": 7416,
    "▁عبدالسلام": 7417,
    "▁قورباغه": 7418,
    "▁قیصر": 7419,
    "ژگان": 7420,
    "▁خطاهای": 7421,
    "▁۱۳۶۰": 7422,
    "▁صفاری": 7423,
    "▁نورالله": 7424,
    "▁بپذیر": 7425,
    "▁رکوردشکن": 7426,
    "▁پرشمار": 7427,
    "سورها": 7428,
    "▁همسو": 7429,
    "▁آمونی": 7430,
    "▁انرو": 7431,
    "▁متغیرهای": 7432,
    "▁مرکل": 7433,
    "▁آبراه": 7434,
    "▁سوفی": 7435,
    "▁کوشید": 7436,
    "▁مارلی": 7437,
    "▁پاشید": 7438,
    "وبیل": 7439,
    "قبره": 7440,
    "▁چرن": 7441,
    "▁شیاد": 7442,
    "▁رودکی": 7443,
    "▁یقین": 7444,
    "جماع": 7445,
    "▁۱۷۳": 7446,
    "▁چای": 7447,
    "▁تحرکات": 7448,
    "مقامات": 7449,
    "▁وزار": 7450,
    "▁مجال": 7451,
    "▁ژرف": 7452,
    "▁کوید": 7453,
    "▁تعمیرات": 7454,
    "▁پرستون": 7455,
    "فلیک": 7456,
    "▁شراب": 7457,
    "▁معنادار": 7458,
    "▁تزار": 7459,
    "▁پردازش": 7460,
    "▁ماهیچه": 7461,
    "فارم": 7462,
    "▁منقل": 7463,
    "نمی": 7464,
    "▁همسایگان": 7465,
    "▁بکر": 7466,
    "▁صرب": 7467,
    "▁ناسیونالیس": 7468,
    "▁آنگل": 7469,
    "▁بشنوید": 7470,
    "▁خویشتن": 7471,
    "کتری": 7472,
    "▁زینب": 7473,
    "▁گا": 7474,
    "▁تعرض": 7475,
    "▁آویز": 7476,
    "▁خوشبین": 7477,
    "▁ستیز": 7478,
    "▁زادروز": 7479,
    "▁بارتو": 7480,
    "▁عطف": 7481,
    "▁شجاعت": 7482,
    "▁هوشی": 7483,
    "▁توئیتر": 7484,
    "▁امضاکنند": 7485,
    "گوگوش": 7486,
    "▁آتن": 7487,
    "▁توسل": 7488,
    "حور": 7489,
    "اندی": 7490,
    "▁ندادند": 7491,
    "▁کاتل": 7492,
    "▁۲۴۸": 7493,
    "▁درخشند": 7494,
    "▁ازسر": 7495,
    "▁۲۵۰۰": 7496,
    "گردانی": 7497,
    "سران": 7498,
    "▁شوق": 7499,
    "مهربان": 7500,
    "▁اسید": 7501,
    "▁آلک": 7502,
    "▁رباب": 7503,
    "▁چتر": 7504,
    "▁یولیا": 7505,
    "▁متال": 7506,
    "مشق": 7507,
    "▁پارکر": 7508,
    "نزل": 7509,
    "▁چهارده": 7510,
    "▁یاسر": 7511,
    "▁بازیافت": 7512,
    "▁رویس": 7513,
    "▁ورق": 7514,
    "▁شرت": 7515,
    "▁دستمزدها": 7516,
    "▁اندازند": 7517,
    "▁عمیقا": 7518,
    "▁کلوز": 7519,
    "▁همتایان": 7520,
    "تجمع": 7521,
    "▁کساد": 7522,
    "سازند": 7523,
    "▁بدهید": 7524,
    "سپیر": 7525,
    "▁فروند": 7526,
    "الیود": 7527,
    "▁یونه": 7528,
    "▁کامپیوترها": 7529,
    "▁دیاب": 7530,
    "▁تورین": 7531,
    "▁براه": 7532,
    "▁اقیانوسیه": 7533,
    "کوس": 7534,
    "▁غذاهای": 7535,
    "بیت": 7536,
    "▁اتلان": 7537,
    "▁افزودند": 7538,
    "▁ارگان": 7539,
    "۶۷": 7540,
    "مرز": 7541,
    "نوشت": 7542,
    "▁بهرامی": 7543,
    "▁مشتاقان": 7544,
    "جویان": 7545,
    "▁داگ": 7546,
    "▁معط": 7547,
    "آقازاده": 7548,
    "ینگا": 7549,
    "▁افع": 7550,
    "▁سیلی": 7551,
    "تعلل": 7552,
    "▁گراند": 7553,
    "ونز": 7554,
    "▁دلم": 7555,
    "▁جوانا": 7556,
    "▁ارو": 7557,
    "▁پوز": 7558,
    "▁نجومی": 7559,
    "▁بیگان": 7560,
    "فرانسه": 7561,
    "▁پترو": 7562,
    "▁روبین": 7563,
    "▁۱۲۸": 7564,
    "▁راهکار": 7565,
    "▁هاروی": 7566,
    "طاع": 7567,
    "▁چادر": 7568,
    "اثر": 7569,
    "▁آرین": 7570,
    "▁اظهارنظرهای": 7571,
    "پانز": 7572,
    "▁بدنم": 7573,
    "▁درهم": 7574,
    "وکین": 7575,
    "▁بندهای": 7576,
    "تینگ": 7577,
    "▁احرا": 7578,
    "▁جود": 7579,
    "▁گول": 7580,
    "اشک": 7581,
    "اتنگ": 7582,
    "▁ممی": 7583,
    "▁جزای": 7584,
    "خه": 7585,
    "▁نوردی": 7586,
    "سید": 7587,
    "گوئر": 7588,
    "خر": 7589,
    "عطوف": 7590,
    "خی": 7591,
    "▁پهنه": 7592,
    "▁محوری": 7593,
    "▁افکند": 7594,
    "اض": 7595,
    "▁بنیا": 7596,
    "▁کوئین": 7597,
    "▁عطار": 7598,
    "داده": 7599,
    "▁حض": 7600,
    "بول": 7601,
    "▁کشیدند": 7602,
    "▁سیمین": 7603,
    "▁رقیبان": 7604,
    "بور": 7605,
    "ایف": 7606,
    "▁باربی": 7607,
    "راماتیک": 7608,
    "نازنی": 7609,
    "▁غوری": 7610,
    "▁ضیا": 7611,
    "▁قاسمی": 7612,
    "▁نشستن": 7613,
    "▁بخشیده": 7614,
    "▁کیان": 7615,
    "▁اشتها": 7616,
    "▁سالمند": 7617,
    "▁نانو": 7618,
    "▁جیمی": 7619,
    "▁نزدیکانش": 7620,
    "▁کنش": 7621,
    "▁یانگ": 7622,
    "▁بستند": 7623,
    "▁زنیم": 7624,
    "▁۱۷۴": 7625,
    "▁زین": 7626,
    "▁نهادی": 7627,
    "▁اپرای": 7628,
    "▁بلندپروازی": 7629,
    "▁میکروبی": 7630,
    "▁همسران": 7631,
    "ودی": 7632,
    "▁لن": 7633,
    "تیر": 7634,
    "درنا": 7635,
    "▁سوت": 7636,
    "▁علا": 7637,
    "▁کاپ": 7638,
    "▁خاوری": 7639,
    "▁آلم": 7640,
    "یگز": 7641,
    "ینکی": 7642,
    "▁نع": 7643,
    "▁کوری": 7644,
    "ناتان": 7645,
    "▁وول": 7646,
    "▁دزدی": 7647,
    "دوزی": 7648,
    "▁ایرانسل": 7649,
    "▁حواس": 7650,
    "پک": 7651,
    "آمارها": 7652,
    "قای": 7653,
    "▁کلت": 7654,
    "▁هیو": 7655,
    "▁ماجراجو": 7656,
    "۹۶": 7657,
    "▁رایانه": 7658,
    "والی": 7659,
    "بیح": 7660,
    "▁اپ": 7661,
    "رعلی": 7662,
    "▁سفارشی": 7663,
    "مزه": 7664,
    "▁عینی": 7665,
    "▁رجبی": 7666,
    "▁پولهای": 7667,
    "▁شجاعی": 7668,
    "▁تولیدکنند": 7669,
    "▁تشک": 7670,
    "▁آرن": 7671,
    "▁منفور": 7672,
    "▁دیف": 7673,
    "▁اوس": 7674,
    "▁لیز": 7675,
    "▁مخ": 7676,
    "ملا": 7677,
    "ولو": 7678,
    "▁مث": 7679,
    "▁نیرومند": 7680,
    "▁اسلو": 7681,
    "ذو": 7682,
    "▁اسما": 7683,
    "لون": 7684,
    "پدیده": 7685,
    "▁گذاریم": 7686,
    "▁شاهدان": 7687,
    "▁اتکای": 7688,
    "▁استودیوی": 7689,
    "بعه": 7690,
    "▁ایگ": 7691,
    "باسی": 7692,
    "▁انسانها": 7693,
    "پرسینگ": 7694,
    "حرف": 7695,
    "▁استثنای": 7696,
    "لات": 7697,
    "▁عمرش": 7698,
    "▁شارل": 7699,
    "▁چنگ": 7700,
    "▁دلش": 7701,
    "▁نزده": 7702,
    "راندن": 7703,
    "امید": 7704,
    "خوانده": 7705,
    "▁محی": 7706,
    "▁نبردها": 7707,
    "هوش": 7708,
    "▁آرمی": 7709,
    "یابان": 7710,
    "رانگ": 7711,
    "۸۱": 7712,
    "▁نیاب": 7713,
    "▁مینیاتوری": 7714,
    "توت": 7715,
    "۳۳": 7716,
    "مایه": 7717,
    "▁بیو": 7718,
    "ماجرا": 7719,
    "متن": 7720,
    "فمن": 7721,
    "▁فلم": 7722,
    "قانون": 7723,
    "میزان": 7724,
    "گزا": 7725,
    "▁مسخ": 7726,
    "تقبل": 7727,
    "▁ادین": 7728,
    "کانس": 7729,
    "▁ضم": 7730,
    "▁افسرد": 7731,
    "▁مخاط": 7732,
    "سرع": 7733,
    "صله": 7734,
    "ورس": 7735,
    "▁شغلها": 7736,
    "میلیا": 7737,
    "▁کلن": 7738,
    "لیور": 7739,
    "▁یوسف": 7740,
    "اندا": 7741,
    "گنجی": 7742,
    "راست": 7743,
    "▁غور": 7744,
    "▁صحرا": 7745,
    "▁مطهر": 7746,
    "فرد": 7747,
    "▁مذهب": 7748,
    "▁محبو": 7749,
    "▁رومانیا": 7750,
    "▁سخنگو": 7751,
    "▁مزایا": 7752,
    "▁گفتم": 7753,
    "سلطان": 7754,
    "دانی": 7755,
    "۳۶۰": 7756,
    "▁نوزده": 7757,
    "زاد": 7758,
    "فاصل": 7759,
    "▁آمر": 7760,
    "▁خف": 7761,
    "رانر": 7762,
    "▁هواپیماها": 7763,
    "▁نات": 7764,
    "ولد": 7765,
    "▁فاین": 7766,
    "▁ادوار": 7767,
    "▁یادم": 7768,
    "گرانی": 7769,
    "▁هرد": 7770,
    "▁بارش": 7771,
    "▁چیزها": 7772,
    "ترک": 7773,
    "▁ازد": 7774,
    "▁صحبتها": 7775,
    "▁توفیقی": 7776,
    "دستان": 7777,
    "▁باکر": 7778,
    "▁دوک": 7779,
    "▁اسکا": 7780,
    "سجم": 7781,
    "زبان": 7782,
    "▁نگذاشت": 7783,
    "▁معوق": 7784,
    "▁۳۳۰": 7785,
    "▁بیک": 7786,
    "کستر": 7787,
    "▁سناریو": 7788,
    "▁سیریا": 7789,
    "▁منسو": 7790,
    "گوین": 7791,
    "سرجی": 7792,
    "▁چش": 7793,
    "▁بازن": 7794,
    "▁آریا": 7795,
    "۵۳": 7796,
    "لیتو": 7797,
    "▁مصو": 7798,
    "حکم": 7799,
    "▁رکوردها": 7800,
    "ستیک": 7801,
    "▁صداها": 7802,
    "بنیا": 7803,
    "▁بنام": 7804,
    "کلیف": 7805,
    "صلاح": 7806,
    "رزرو": 7807,
    "▁روما": 7808,
    "▁ندا": 7809,
    "مکزیکو": 7810,
    "▁اپراتور": 7811,
    "اعتراض": 7812,
    "کلاس": 7813,
    "انسون": 7814,
    "▁هشدارها": 7815,
    "بیانسه": 7816,
    "فاضل": 7817,
    "اسب": 7818,
    "آموز": 7819,
    "مشخص": 7820,
    "اضطراب": 7821,
    "اسپوت": 7822,
    "خروج": 7823,
    "ابراهیم": 7824,
    "مناسبت": 7825,
    "مسعود": 7826,
    "منتظر": 7827,
    "ایلنا": 7828,
    "اتفاقات": 7829,
    "تیراندازی": 7830,
    "جسد": 7831,
    "نیویورک": 7832,
    "پروتکل": 7833,
    "تخریب": 7834,
    "نظار": 7835,
    "گمرک": 7836,
    "احتمال": 7837,
    "▁فلی": 7838,
    "نزدیک": 7839,
    "صنعت": 7840,
    "موضوع": 7841,
    "جوایز": 7842,
    "جنوب": 7843,
    "تابستان": 7844,
    "جوکوویچ": 7845,
    "۲۰۲۰": 7846,
    "فرمانده": 7847,
    "جایزه": 7848,
    "تایسون": 7849,
    "درحالی": 7850,
    "لیدز": 7851,
    "اعظم": 7852,
    "فیفا": 7853,
    "عزیز": 7854,
    "کنفرانس": 7855,
    "اتهامات": 7856,
    "هموار": 7857,
    "▁اشتباهی": 7858,
    "هجوم": 7859,
    "مسئول": 7860,
    "خیز": 7861,
    "سنج": 7862,
    "▁ماهر": 7863,
    "نژادپرست": 7864,
    "سبد": 7865,
    "طالبان": 7866,
    "▁ویز": 7867,
    "اندرو": 7868,
    "ایند": 7869,
    "لیگا": 7870,
    "▁لح": 7871,
    "فرق": 7872,
    "▁توئیت": 7873,
    "▁نامند": 7874,
    "کشته": 7875,
    "▁شنای": 7876,
    "▁شهنا": 7877,
    "▁محو": 7878,
    "رول": 7879,
    "▁کوک": 7880,
    "ناتالی": 7881,
    "▁فلامینگو": 7882,
    "▁همسایگ": 7883,
    "رویا": 7884,
    "لوگ": 7885,
    "همکاری": 7886,
    "پایان": 7887,
    "ولوژی": 7888,
    "▁۲۴۰": 7889,
    "▁ترفند": 7890,
    "رگبار": 7891,
    "زیستی": 7892,
    "دنبال": 7893,
    "زیت": 7894,
    "▁الاجرا": 7895,
    "گوئه": 7896,
    "فراگ": 7897,
    "▁ابتذال": 7898,
    "▁اسکورسیزی": 7899,
    "▁اوزبیک": 7900,
    "▁بفرستد": 7901,
    "▁بفرستند": 7902,
    "▁بپیوندد": 7903,
    "▁تشعشع": 7904,
    "▁حناچی": 7905,
    "▁زحمات": 7906,
    "▁سمرقند": 7907,
    "▁عبدالرحم": 7908,
    "▁عناوین": 7909,
    "▁فیزیولوژی": 7910,
    "▁مارگاریتا": 7911,
    "▁مجارستان": 7912,
    "▁مفاهیم": 7913,
    "▁منظوم": 7914,
    "▁ناسازگار": 7915,
    "▁نباشید": 7916,
    "▁هیدروژن": 7917,
    "▁پلتفرم": 7918,
    "▁کوکائین": 7919,
    "▁سولیوان": 7920,
    "▁متضاد": 7921,
    "▁مشروعیت": 7922,
    "▁معضل": 7923,
    "▁ننگرهار": 7924,
    "▁زوایا": 7925,
    "▁عنایت": 7926,
    "▁۲۰۳۵": 7927,
    "▁افراط": 7928,
    "▁عنابستانی": 7929,
    "▁هورمون": 7930,
    "▁بکنید": 7931,
    "▁شریعت": 7932,
    "▁تذکر": 7933,
    "▁غزنوی": 7934,
    "▁همجوار": 7935,
    "▁کابوس": 7936,
    "▁مقادیر": 7937,
    "▁وسواس": 7938,
    "▁پرتوافشانی": 7939,
    "▁جوابگوی": 7940,
    "▁اتمسفر": 7941,
    "▁ببینم": 7942,
    "▁بیضایی": 7943,
    "▁ملموس": 7944,
    "▁برنامک": 7945,
    "▁سغد": 7946,
    "▁خودکفا": 7947,
    "▁تمهید": 7948,
    "▁دوقلو": 7949,
    "▁بیانجامد": 7950,
    "▁چابک": 7951,
    "▁ایرلاین": 7952,
    "▁بنکدارپور": 7953,
    "▁پغمان": 7954,
    "▁بشود": 7955,
    "▁تجسس": 7956,
    "▁وجدان": 7957,
    "▁بکشم": 7958,
    "ماگال": 7959,
    "▁فرستند": 7960,
    "▁اولیانوف": 7961,
    "▁ویولن": 7962,
    "▁ناخودآگاه": 7963,
    "▁تنگاتنگ": 7964,
    "▁فراهانی": 7965,
    "▁بخورد": 7966,
    "▁پوینت": 7967,
    "▁بانکوک": 7968,
    "▁دیزل": 7969,
    "▁نکونام": 7970,
    "▁بازدارند": 7971,
    "▁لطیف": 7972,
    "▁ارژن": 7973,
    "▁فعالیتش": 7974,
    "▁سمنان": 7975,
    "▁حماس": 7976,
    "▁آپوف": 7977,
    "▁طارمی": 7978,
    "▁فواید": 7979,
    "▁بلوغ": 7980,
    "▁برنگرداند": 7981,
    "▁هادی": 7982,
    "▁کبود": 7983,
    "ناگلزم": 7984,
    "▁هنکس": 7985,
    "▁اسکلت": 7986,
    "▁کریگ": 7987,
    "▁بارچا": 7988,
    "▁آنچنان": 7989,
    "▁غمگین": 7990,
    "▁زشت": 7991,
    "▁شادمان": 7992,
    "▁تمجید": 7993,
    "▁بسپارد": 7994,
    "▁تایوان": 7995,
    "▁زراعت": 7996,
    "ورلد": 7997,
    "▁انعکاس": 7998,
    "▁آصف": 7999,
    "▁بزاق": 8000,
    "▁گوریل": 8001,
    "زامبی": 8002,
    "▁کذب": 8003,
    "▁حشر": 8004,
    "▁آلبانی": 8005,
    "▁۱۳۲": 8006,
    "▁مجزا": 8007,
    "▁میشود": 8008,
    "▁آفرید": 8009,
    "▁نصیر": 8010,
    "▁۱۹۶۶": 8011,
    "آنگولا": 8012,
    "▁گاف": 8013,
    "▁نگهداشت": 8014,
    "▁رکسا": 8015,
    "▁شادگان": 8016,
    "▁توفندها": 8017,
    "▁منحنی": 8018,
    "▁آموس": 8019,
    "▁بارکلی": 8020,
    "▁بنویسم": 8021,
    "▁کلکسیون": 8022,
    "▁لیمو": 8023,
    "▁دلسوز": 8024,
    "▁۱۹۹۵": 8025,
    "تعدد": 8026,
    "مختار": 8027,
    "▁جهنم": 8028,
    "▁خطاط": 8029,
    "▁صیادان": 8030,
    "▁سیب": 8031,
    "▁نوابی": 8032,
    "▁لنز": 8033,
    "▁کاردوس": 8034,
    "▁لافرته": 8035,
    "▁شایان": 8036,
    "▁ماوریک": 8037,
    "▁آنتوان": 8038,
    "▁راهکارهای": 8039,
    "▁الاه": 8040,
    "▁گوترش": 8041,
    "▁نخواست": 8042,
    "رگوت": 8043,
    "▁چفرین": 8044,
    "▁فرسا": 8045,
    "▁بخوانند": 8046,
    "▁آوینی": 8047,
    "شیتز": 8048,
    "▁ایزد": 8049,
    "▁لرزید": 8050,
    "اطع": 8051,
    "رساز": 8052,
    "▁لبخندها": 8053,
    "▁سرزن": 8054,
    "متاز": 8055,
    "▁آغ": 8056,
    "▁سمع": 8057,
    "تامی": 8058,
    "▁دانید": 8059,
    "سوار": 8060,
    "▁چندرایان": 8061,
    "▁مقیاس": 8062,
    "▁بدود": 8063,
    "▁نزن": 8064,
    "▁وکارها": 8065,
    "▁رجیس": 8066,
    "▁قمار": 8067,
    "ولوو": 8068,
    "▁سفیدپوستان": 8069,
    "چنین": 8070,
    "▁کاترین": 8071,
    "سترون": 8072,
    "▁ابول": 8073,
    "کردن": 8074,
    "نیتو": 8075,
    "▁جویانه": 8076,
    "▁اعترافات": 8077,
    "▁بدیع": 8078,
    "▁اشکالات": 8079,
    "▁زودرس": 8080,
    "▁امداد": 8081,
    "▁بنفش": 8082,
    "▁کوثر": 8083,
    "▁وارث": 8084,
    "▁شاهکارهای": 8085,
    "▁فراگرفت": 8086,
    "▁اسکات": 8087,
    "افتاده": 8088,
    "▁بیگم": 8089,
    "▁الن": 8090,
    "انیس": 8091,
    "▁بریج": 8092,
    "▁پربار": 8093,
    "▁قهر": 8094,
    "رونا": 8095,
    "▁شگرد": 8096,
    "رسید": 8097,
    "آفرینی": 8098,
    "قو": 8099,
    "صنوف": 8100,
    "▁کروات": 8101,
    "▁گاردن": 8102,
    "▁گوستا": 8103,
    "▁بهائی": 8104,
    "غما": 8105,
    "▁ترکمان": 8106,
    "غذیه": 8107,
    "▁افشاگر": 8108,
    "▁گرون": 8109,
    "▁نوپا": 8110,
    "▁بیکارشد": 8111,
    "کیت": 8112,
    "▁یوهان": 8113,
    "خرید": 8114,
    "▁دالان": 8115,
    "قطع": 8116,
    "زنان": 8117,
    "شواری": 8118,
    "▁سواد": 8119,
    "▁ویرانگر": 8120,
    "▁محص": 8121,
    "نشأ": 8122,
    "▁اژدها": 8123,
    "▁ربکا": 8124,
    "▁دماغ": 8125,
    "▁رازهای": 8126,
    "صیر": 8127,
    "▁چانگ": 8128,
    "▁همدان": 8129,
    "▁تردیدهای": 8130,
    "رضی": 8131,
    "▁کشیم": 8132,
    "▁فوب": 8133,
    "پرستانه": 8134,
    "▁درصورت": 8135,
    "اسکورت": 8136,
    "▁نازک": 8137,
    "▁سینماگران": 8138,
    "▁سنجی": 8139,
    "مسابقه": 8140,
    "▁کولبران": 8141,
    "وشو": 8142,
    "▁چرخید": 8143,
    "▁هادرون": 8144,
    "▁معلمان": 8145,
    "وشن": 8146,
    "▁مشاهدات": 8147,
    "پولیس": 8148,
    "اتکلیف": 8149,
    "▁سهراب": 8150,
    "ایم": 8151,
    "▁کوما": 8152,
    "▁نیر": 8153,
    "▁رویکردهای": 8154,
    "▁دز": 8155,
    "▁برگشتند": 8156,
    "لار": 8157,
    "▁بلاتکلیفی": 8158,
    "▁یادش": 8159,
    "▁وزرا": 8160,
    "▁ساندر": 8161,
    "▁محبوبش": 8162,
    "▁شیل": 8163,
    "گرم": 8164,
    "▁کانل": 8165,
    "▁ایرانایران": 8166,
    "▁ابط": 8167,
    "▁ورش": 8168,
    "▁میلیچ": 8169,
    "▁۱۳۱": 8170,
    "▁والن": 8171,
    "▁قانونگذار": 8172,
    "▁کارلو": 8173,
    "▁همهمه": 8174,
    "▁بریز": 8175,
    "▁وایت": 8176,
    "▁دوهزار": 8177,
    "گز": 8178,
    "▁آو": 8179,
    "▁سوییس": 8180,
    "▁خا": 8181,
    "▁بازنش": 8182,
    "▁افزارهای": 8183,
    "اندیش": 8184,
    "▁امیدهای": 8185,
    "▁رحیمی": 8186,
    "ستراز": 8187,
    "▁تاجیکان": 8188,
    "وشیرو": 8189,
    "▁مورخ": 8190,
    "▁فراوانش": 8191,
    "▁اینست": 8192,
    "نوی": 8193,
    "کوه": 8194,
    "▁لوور": 8195,
    "▁دوبل": 8196,
    "▁دخ": 8197,
    "▁یورد": 8198,
    "▁آزادگان": 8199,
    "▁بلخی": 8200,
    "ندرت": 8201,
    "▁اکت": 8202,
    "اکس": 8203,
    "حاملگی": 8204,
    "▁نظ": 8205,
    "▁تعبی": 8206,
    "الین": 8207,
    "نگوی": 8208,
    "▁لغز": 8209,
    "یلد": 8210,
    "یبریا": 8211,
    "▁سلیم": 8212,
    "▁وتو": 8213,
    "اسیرو": 8214,
    "▁میرود": 8215,
    "▁شست": 8216,
    "▁افتادند": 8217,
    "▁اورک": 8218,
    "▁بریم": 8219,
    "شکل": 8220,
    "گارد": 8221,
    "استان": 8222,
    "▁نبودند": 8223,
    "▁کنگو": 8224,
    "▁هامون": 8225,
    "دون": 8226,
    "معدنچی": 8227,
    "دوش": 8228,
    "▁خودکار": 8229,
    "▁لوس": 8230,
    "▁رگی": 8231,
    "▁هایپر": 8232,
    "▁کرای": 8233,
    "۵۸": 8234,
    "▁شیرینی": 8235,
    "▁پرور": 8236,
    "▁همگان": 8237,
    "▁جراحان": 8238,
    "▁یوآن": 8239,
    "▁تاثیرات": 8240,
    "▁ساچ": 8241,
    "▁کوو": 8242,
    "▁اسکان": 8243,
    "▁اعم": 8244,
    "▁۲۰۲": 8245,
    "▁زدم": 8246,
    "▁لوکه": 8247,
    "▁آک": 8248,
    "▁امیرم": 8249,
    "فروشی": 8250,
    "▁کیش": 8251,
    "▁سودجو": 8252,
    "عیار": 8253,
    "▁خور": 8254,
    "قاد": 8255,
    "▁پورتو": 8256,
    "▁شناختند": 8257,
    "▁حریری": 8258,
    "▁همپ": 8259,
    "▁نبودن": 8260,
    "▁عطا": 8261,
    "▁نایاب": 8262,
    "یکپا": 8263,
    "لیز": 8264,
    "تار": 8265,
    "ساتبی": 8266,
    "دیده": 8267,
    "عد": 8268,
    "کلت": 8269,
    "▁بازگشتند": 8270,
    "یاس": 8271,
    "▁صلیبی": 8272,
    "▁فیزیوتراپ": 8273,
    "▁کشاورزان": 8274,
    "▁پاتر": 8275,
    "روزهای": 8276,
    "▁فلور": 8277,
    "یتونا": 8278,
    "نشان": 8279,
    "زمانی": 8280,
    "▁کمالی": 8281,
    "▁فروشد": 8282,
    "رفت": 8283,
    "ساعد": 8284,
    "▁رادو": 8285,
    "▁فرحی": 8286,
    "▁دانستم": 8287,
    "جات": 8288,
    "▁مقدا": 8289,
    "طبا": 8290,
    "▁کارم": 8291,
    "▁فتو": 8292,
    "▁خاوی": 8293,
    "▁مسج": 8294,
    "▁فرمین": 8295,
    "یلو": 8296,
    "لنگر": 8297,
    "▁آرت": 8298,
    "▁حکمت": 8299,
    "▁امیل": 8300,
    "مایش": 8301,
    "▁شکستند": 8302,
    "▁میزبانش": 8303,
    "▁فاکس": 8304,
    "رمند": 8305,
    "▁استوایی": 8306,
    "▁ادینبور": 8307,
    "▁استانهای": 8308,
    "▁محر": 8309,
    "▁تز": 8310,
    "▁اورگ": 8311,
    "▁اینج": 8312,
    "▁نیلی": 8313,
    "▁بایستی": 8314,
    "▁افزا": 8315,
    "۴۴": 8316,
    "میرا": 8317,
    "پایه": 8318,
    "▁برایان": 8319,
    "وفق": 8320,
    "▁شرکتها": 8321,
    "▁تونسی": 8322,
    "ناپس": 8323,
    "نزو": 8324,
    "▁ژیل": 8325,
    "▁دوسال": 8326,
    "▁وظایفش": 8327,
    "▁موس": 8328,
    "ژی": 8329,
    "بود": 8330,
    "کمپ": 8331,
    "▁عدل": 8332,
    "▁شیرها": 8333,
    "▁صدایی": 8334,
    "▁احتمالات": 8335,
    "▁الف": 8336,
    "▁لویی": 8337,
    "▁جوری": 8338,
    "نیمه": 8339,
    "▁غد": 8340,
    "پالا": 8341,
    "ساز": 8342,
    "▁حواسش": 8343,
    "باف": 8344,
    "▁الزاما": 8345,
    "▁بخو": 8346,
    "ارجه": 8347,
    "روث": 8348,
    "بندی": 8349,
    "زیا": 8350,
    "مراه": 8351,
    "خواهند": 8352,
    "سنا": 8353,
    "▁هرسال": 8354,
    "۳۹": 8355,
    "▁نف": 8356,
    "▁ماسی": 8357,
    "ذا": 8358,
    "وستون": 8359,
    "▁فاک": 8360,
    "▁قای": 8361,
    "ینک": 8362,
    "▁استوار": 8363,
    "۸۵": 8364,
    "▁نواخت": 8365,
    "▁دویدن": 8366,
    "اردو": 8367,
    "▁الکسا": 8368,
    "▁برخاستن": 8369,
    "نتر": 8370,
    "کیا": 8371,
    "▁شرع": 8372,
    "▁صلیب": 8373,
    "▁حف": 8374,
    "پروم": 8375,
    "الا": 8376,
    "دالر": 8377,
    "آلبرت": 8378,
    "▁جنگید": 8379,
    "▁کیپ": 8380,
    "میخ": 8381,
    "اپیش": 8382,
    "گسترد": 8383,
    "قوی": 8384,
    "راحتی": 8385,
    "▁وزر": 8386,
    "▁العم": 8387,
    "▁محصولش": 8388,
    "فاق": 8389,
    "▁غای": 8390,
    "▁طو": 8391,
    "۳۷": 8392,
    "▁خوابید": 8393,
    "▁دیک": 8394,
    "▁بروی": 8395,
    "عریض": 8396,
    "نتو": 8397,
    "▁پاتری": 8398,
    "▁کردید": 8399,
    "خانی": 8400,
    "وما": 8401,
    "لوح": 8402,
    "▁عس": 8403,
    "نوم": 8404,
    "▁اط": 8405,
    "خواهیم": 8406,
    "▁لنگ": 8407,
    "غلو": 8408,
    "لیت": 8409,
    "▁نط": 8410,
    "وشکن": 8411,
    "▁نرسیدن": 8412,
    "دیدار": 8413,
    "▁اصولگرا": 8414,
    "▁پناهجو": 8415,
    "▁شوخ": 8416,
    "▁۱۲۶": 8417,
    "جاسوسی": 8418,
    "▁۷۱": 8419,
    "یشکر": 8420,
    "▁نیاورده": 8421,
    "▁نبو": 8422,
    "▁تروریست": 8423,
    "▁۲۶۰": 8424,
    "ریض": 8425,
    "▁گود": 8426,
    "▁دستورها": 8427,
    "وقف": 8428,
    "نفت": 8429,
    "▁نیروها": 8430,
    "▁هفده": 8431,
    "▁الکسی": 8432,
    "▁خو": 8433,
    "▁سوکا": 8434,
    "خارج": 8435,
    "صراف": 8436,
    "▁پیشگیر": 8437,
    "▁شنید": 8438,
    "▁تویی": 8439,
    "▁فلورا": 8440,
    "ناوب": 8441,
    "▁غیران": 8442,
    "مگان": 8443,
    "امور": 8444,
    "▁افشاری": 8445,
    "▁قضائی": 8446,
    "▁مواج": 8447,
    "▁ندید": 8448,
    "دونا": 8449,
    "▁جادو": 8450,
    "▁انگ": 8451,
    "▁سکس": 8452,
    "ورال": 8453,
    "اجرای": 8454,
    "گذران": 8455,
    "تورم": 8456,
    "پدر": 8457,
    "خبرنگار": 8458,
    "فعال": 8459,
    "▁انع": 8460,
    "▁جمل": 8461,
    "نهادهای": 8462,
    "سارا": 8463,
    "حکام": 8464,
    "ربکا": 8465,
    "کریس": 8466,
    "توییت": 8467,
    "سولار": 8468,
    "اسحاق": 8469,
    "تحرک": 8470,
    "ذخا": 8471,
    "پائی": 8472,
    "بیورن": 8473,
    "آرامکو": 8474,
    "حبیب": 8475,
    "چاق": 8476,
    "پیرلو": 8477,
    "کثیر": 8478,
    "کاوشگر": 8479,
    "پذیرفته": 8480,
    "اختلال": 8481,
    "غوری": 8482,
    "یوونتوس": 8483,
    "صریح": 8484,
    "سوئیس": 8485,
    "رونالدو": 8486,
    "اظهارات": 8487,
    "لحظ": 8488,
    "قسمت": 8489,
    "فرصت": 8490,
    "فضای": 8491,
    "صادرات": 8492,
    "اسرائیل": 8493,
    "سقوط": 8494,
    "رکود": 8495,
    "بحران": 8496,
    "ساعات": 8497,
    "عربستان": 8498,
    "آزمایش": 8499,
    "محدودیت": 8500,
    "توافق": 8501,
    "شرایط": 8502,
    "متوقف": 8503,
    "مشاور": 8504,
    "افراد": 8505,
    "جمهوری": 8506,
    "▁کوتاهتر": 8507,
    "تاریخ": 8508,
    "ربات": 8509,
    "مستند": 8510,
    "ورزشگاه": 8511,
    "ماشین": 8512,
    "انتقادات": 8513,
    "شایست": 8514,
    "کاملا": 8515,
    "بازدید": 8516,
    "پهن": 8517,
    "ساعت": 8518,
    "درباره": 8519,
    "فولک": 8520,
    "مکرون": 8521,
    "▁صفا": 8522,
    "فعالیت": 8523,
    "جنسی": 8524,
    "امارات": 8525,
    "کیهان": 8526,
    "مرح": 8527,
    "ضمن": 8528,
    "انتقالات": 8529,
    "کتاب": 8530,
    "بیماری": 8531,
    "راکت": 8532,
    "گمش": 8533,
    "دیوان": 8534,
    "اقدام": 8535,
    "ساکن": 8536,
    "قبلا": 8537,
    "نشری": 8538,
    "بازیکنان": 8539,
    "خودروهای": 8540,
    "سینما": 8541,
    "کریست": 8542,
    "الگو": 8543,
    "خبرنگاران": 8544,
    "▁طاه": 8545,
    "▁دوور": 8546,
    "نهاد": 8547,
    "ناوگان": 8548,
    "پیچ": 8549,
    "مردم": 8550,
    "پوش": 8551,
    "برداشت": 8552,
    "واگذار": 8553,
    "حک": 8554,
    "درخواست": 8555,
    "کشف": 8556,
    "سیاسی": 8557,
    "▁جولیا": 8558,
    "باستان": 8559,
    "رییس": 8560,
    "▁الاح": 8561,
    "واقعیت": 8562,
    "عبدالله": 8563,
    "فرام": 8564,
    "▁بغل": 8565,
    "▁واژگ": 8566,
    "موارد": 8567,
    "جنگ": 8568,
    "▁هموطن": 8569,
    "اتهام": 8570,
    "تقی": 8571,
    "▁سفیدپوست": 8572,
    "سیاست": 8573,
    "عصب": 8574,
    "نازل": 8575,
    "ندگرن": 8576,
    "سترازنکا": 8577,
    "▁ژر": 8578,
    "▁مکاتب": 8579,
    "▁مطبوع": 8580,
    "عظم": 8581,
    "لگرام": 8582,
    "▁چاو": 8583,
    "▁گرافی": 8584,
    "▁فلسطین": 8585,
    "سالم": 8586,
    "▁الشع": 8587,
    "▁انقباض": 8588,
    "▁بلایندرز": 8589,
    "▁بوئین": 8590,
    "▁بورکینافاسو": 8591,
    "▁ترائوره": 8592,
    "▁تماشگر": 8593,
    "▁دزفول": 8594,
    "▁دگرباش": 8595,
    "▁رامهرمز": 8596,
    "▁رستگار": 8597,
    "▁زرتشت": 8598,
    "▁سرخپوشان": 8599,
    "▁سریلانکا": 8600,
    "▁سوسیالیست": 8601,
    "▁طنزپرداز": 8602,
    "▁غیاث": 8603,
    "▁غیرعمد": 8604,
    "▁غیرمجاز": 8605,
    "▁قیراط": 8606,
    "▁محتکر": 8607,
    "▁مرتضوی": 8608,
    "▁مصائب": 8609,
    "▁ناآشنا": 8610,
    "▁هولدینگ": 8611,
    "▁هژمون": 8612,
    "▁ولاسکز": 8613,
    "▁پرسورینس": 8614,
    "▁پرینسخرا": 8615,
    "▁پورنوگرافی": 8616,
    "معجزه": 8617,
    "▁بشنوند": 8618,
    "▁سوراخ": 8619,
    "▁قراداد": 8620,
    "▁قزوین": 8621,
    "▁ویسکانس": 8622,
    "▁سارقان": 8623,
    "▁سوبرانا": 8624,
    "▁مشهود": 8625,
    "▁مقاطع": 8626,
    "▁گلاسگو": 8627,
    "▁شیطان": 8628,
    "▁قعر": 8629,
    "▁مغانلو": 8630,
    "▁نذری": 8631,
    "▁هزارتومان": 8632,
    "▁سانفرانسیسکو": 8633,
    "▁خودخواهانه": 8634,
    "▁وسعت": 8635,
    "الشهدا": 8636,
    "▁مقبول": 8637,
    "▁نگیرد": 8638,
    "▁انسداد": 8639,
    "▁بپرسید": 8640,
    "▁شئون": 8641,
    "▁اساتید": 8642,
    "▁بازوبند": 8643,
    "▁بیاموز": 8644,
    "▁برسانیم": 8645,
    "▁فرخزاد": 8646,
    "▁برلیناله": 8647,
    "▁سوینتن": 8648,
    "▁عواطف": 8649,
    "▁بازگردم": 8650,
    "▁هکتار": 8651,
    "▁ارنست": 8652,
    "▁کوواکس": 8653,
    "▁جانبازان": 8654,
    "▁سانتیاگو": 8655,
    "▁یوردانس": 8656,
    "▁عبرت": 8657,
    "▁لوکزامبورگ": 8658,
    "▁سرامیک": 8659,
    "▁عابران": 8660,
    "▁نوترینو": 8661,
    "▁جماعت": 8662,
    "▁آسپر": 8663,
    "▁ستمگر": 8664,
    "▁شمع": 8665,
    "▁ناخدا": 8666,
    "▁گزاف": 8667,
    "ستراح": 8668,
    "▁تراشید": 8669,
    "▁انهدام": 8670,
    "▁گوارش": 8671,
    "▁اوتیسم": 8672,
    "▁تمیز": 8673,
    "▁خمیس": 8674,
    "▁عزل": 8675,
    "▁هیلتون": 8676,
    "▁آسایشگاه": 8677,
    "▁باروک": 8678,
    "▁همینگوی": 8679,
    "▁رستم": 8680,
    "▁تظاهرکنندگان": 8681,
    "▁لرزاند": 8682,
    "▁دلهره": 8683,
    "▁شوشتر": 8684,
    "اسکار": 8685,
    "▁سمنزا": 8686,
    "▁مادربزرگ": 8687,
    "▁دیلن": 8688,
    "▁هیوستون": 8689,
    "حشمت": 8690,
    "ارنوک": 8691,
    "▁پرمخاط": 8692,
    "▁بیاییم": 8693,
    "▁فرازمینی": 8694,
    "▁مالزی": 8695,
    "▁ایرویز": 8696,
    "▁معذ": 8697,
    "▁الخروج": 8698,
    "▁بنرهای": 8699,
    "▁تخار": 8700,
    "▁بسط": 8701,
    "▁موزیکال": 8702,
    "▁گمارد": 8703,
    "▁غیرمعمول": 8704,
    "▁فیض": 8705,
    "▁ماورا": 8706,
    "▁صداقت": 8707,
    "▁آقاخان": 8708,
    "▁آتلانتا": 8709,
    "▁الفبا": 8710,
    "▁گیج": 8711,
    "▁مکوندی": 8712,
    "▁پترولی": 8713,
    "اسرای": 8714,
    "▁محصور": 8715,
    "▁سیندمی": 8716,
    "▁پنداشت": 8717,
    "طغ": 8718,
    "▁الاصل": 8719,
    "▁شیرجه": 8720,
    "▁نافرجام": 8721,
    "▁زهیر": 8722,
    "▁بنویسد": 8723,
    "▁مشکاتیان": 8724,
    "▁امیدورا": 8725,
    "▁مترمکعب": 8726,
    "▁روانشناس": 8727,
    "▁دفعات": 8728,
    "▁کانتونا": 8729,
    "▁زیردریا": 8730,
    "▁معابد": 8731,
    "▁بیولوژیک": 8732,
    "▁روباه": 8733,
    "▁اتمر": 8734,
    "▁چریک": 8735,
    "▁برچید": 8736,
    "▁ترفتال": 8737,
    "▁ستیزانه": 8738,
    "▁خص": 8739,
    "▁ربع": 8740,
    "▁سهمگین": 8741,
    "▁دایم": 8742,
    "▁۱۳۸۶": 8743,
    "▁معصوم": 8744,
    "▁کالینگ": 8745,
    "▁بامیه": 8746,
    "▁صنا": 8747,
    "▁مولایی": 8748,
    "ارپن": 8749,
    "▁خرنامه": 8750,
    "▁خورند": 8751,
    "▁دهشت": 8752,
    "▁دارالا": 8753,
    "▁باغبان": 8754,
    "▁بیولوژی": 8755,
    "▁عوا": 8756,
    "▁بازپرس": 8757,
    "▁آنجل": 8758,
    "▁۱۹۴۴": 8759,
    "▁سموم": 8760,
    "▁بوفالوران": 8761,
    "▁تنبل": 8762,
    "▁تباه": 8763,
    "▁عذاب": 8764,
    "▁خجالت": 8765,
    "برمی": 8766,
    "▁الگوهای": 8767,
    "بنوی": 8768,
    "▁لارن": 8769,
    "▁هورن": 8770,
    "▁ونچ": 8771,
    "▁مرورگر": 8772,
    "▁میناری": 8773,
    "▁مصادیق": 8774,
    "▁برازند": 8775,
    "▁قلمرو": 8776,
    "▁گرانبها": 8777,
    "▁مرج": 8778,
    "▁فرشید": 8779,
    "▁ایرایی": 8780,
    "▁شهباز": 8781,
    "▁نبست": 8782,
    "▁سحرگاه": 8783,
    "ارزپاشی": 8784,
    "سوخت": 8785,
    "▁قبایل": 8786,
    "▁مهیب": 8787,
    "▁پرالتهاب": 8788,
    "▁خرابکارانه": 8789,
    "▁ایفل": 8790,
    "▁۲۶۶": 8791,
    "▁۲۳۹": 8792,
    "دانف": 8793,
    "▁غزل": 8794,
    "▁زیربنا": 8795,
    "▁ماریو": 8796,
    "▁تابع": 8797,
    "▁فونت": 8798,
    "▁ویسل": 8799,
    "▁جبار": 8800,
    "▁قلی": 8801,
    "لومین": 8802,
    "▁هموطنان": 8803,
    "▁روزافزون": 8804,
    "▁علام": 8805,
    "▁همجنسگرا": 8806,
    "▁لج": 8807,
    "اختا": 8808,
    "شاهزاد": 8809,
    "▁اغما": 8810,
    "▁خندد": 8811,
    "▁خوانید": 8812,
    "▁۱۹۱۸": 8813,
    "▁خوابگاه": 8814,
    "▁آندریاس": 8815,
    "▁وسائ": 8816,
    "سانسور": 8817,
    "▁۱۶۶": 8818,
    "▁اوساکا": 8819,
    "▁مفسد": 8820,
    "▁هالووین": 8821,
    "▁اخطارهای": 8822,
    "▁بغ": 8823,
    "▁نمودار": 8824,
    "▁مطلق": 8825,
    "▁ویدئوهای": 8826,
    "▁خرم": 8827,
    "▁سندگرن": 8828,
    "▁منکین": 8829,
    "صمد": 8830,
    "▁شوکور": 8831,
    "▁۱۷۵": 8832,
    "▁فوتسی": 8833,
    "▁کارهایش": 8834,
    "▁علیشاهی": 8835,
    "کبیر": 8836,
    "هالیفیلد": 8837,
    "▁کورس": 8838,
    "▁ریختند": 8839,
    "نفوس": 8840,
    "▁نداشتیم": 8841,
    "دخیل": 8842,
    "▁مرزبان": 8843,
    "▁مبد": 8844,
    "▁فض": 8845,
    "مداری": 8846,
    "▁وفن": 8847,
    "عات": 8848,
    "▁کورین": 8849,
    "▁پیوندند": 8850,
    "▁هولو": 8851,
    "▁۲۱۶": 8852,
    "▁وفا": 8853,
    "▁درمانگاه": 8854,
    "▁پائیز": 8855,
    "▁ژنوم": 8856,
    "▁چهارصد": 8857,
    "نالد": 8858,
    "▁لارو": 8859,
    "انجیر": 8860,
    "▁یزدان": 8861,
    "▁جویا": 8862,
    "▁قامت": 8863,
    "مام": 8864,
    "▁کتابخوان": 8865,
    "▁یونیو": 8866,
    "ولاتش": 8867,
    "▁مگو": 8868,
    "▁۱۵۵": 8869,
    "▁قضای": 8870,
    "ملامت": 8871,
    "▁صل": 8872,
    "▁لئوپ": 8873,
    "عاب": 8874,
    "▁پاور": 8875,
    "▁وانگ": 8876,
    "▁پارکین": 8877,
    "شهرت": 8878,
    "▁نگذشته": 8879,
    "▁۱۲۲": 8880,
    "▁نورال": 8881,
    "▁اندیشید": 8882,
    "▁رسیم": 8883,
    "▁روبات": 8884,
    "گرایی": 8885,
    "مونت": 8886,
    "▁متاسفم": 8887,
    "کشید": 8888,
    "▁شنیدنش": 8889,
    "▁بینم": 8890,
    "▁رکس": 8891,
    "▁حوت": 8892,
    "▁توانمند": 8893,
    "▁انگشتان": 8894,
    "▁دستفروش": 8895,
    "▁۲۰۷": 8896,
    "عاده": 8897,
    "▁موزی": 8898,
    "▁گذراندم": 8899,
    "فشان": 8900,
    "▁مطمئنا": 8901,
    "▁مخا": 8902,
    "▁خب": 8903,
    "▁وصدا": 8904,
    "▁لوح": 8905,
    "اپور": 8906,
    "▁پتر": 8907,
    "▁طلاق": 8908,
    "سوال": 8909,
    "▁خفا": 8910,
    "▁سیاستگذار": 8911,
    "▁بلد": 8912,
    "▁مخالفند": 8913,
    "▁مشق": 8914,
    "▁کلاسیکو": 8915,
    "نیاز": 8916,
    "▁پذیرد": 8917,
    "بندهای": 8918,
    "▁اوتار": 8919,
    "▁جاست": 8920,
    "▁بزرگسال": 8921,
    "▁ماجراهای": 8922,
    "▁پناهندگان": 8923,
    "▁متما": 8924,
    "▁ترسند": 8925,
    "▁آبیار": 8926,
    "▁رایکو": 8927,
    "▁هوادارن": 8928,
    "▁خوشایند": 8929,
    "▁قبرهای": 8930,
    "چشمه": 8931,
    "نتس": 8932,
    "یرشا": 8933,
    "▁فرگوس": 8934,
    "▁حک": 8935,
    "تص": 8936,
    "▁جلوست": 8937,
    "مانند": 8938,
    "ستحق": 8939,
    "▁صدیق": 8940,
    "▁مجرمان": 8941,
    "▁آمل": 8942,
    "خسار": 8943,
    "▁بایس": 8944,
    "عود": 8945,
    "▁ناخ": 8946,
    "▁پشتکار": 8947,
    "▁تایی": 8948,
    "▁رن": 8949,
    "▁تهدیدات": 8950,
    "هرزاد": 8951,
    "▁پرتلا": 8952,
    "▁موید": 8953,
    "▁تاس": 8954,
    "▁خصوصا": 8955,
    "▁قا": 8956,
    "خشنود": 8957,
    "▁باشی": 8958,
    "تمایل": 8959,
    "▁خصوصیات": 8960,
    "▁کشا": 8961,
    "▁طبقات": 8962,
    "▁درسا": 8963,
    "▁پدرو": 8964,
    "۱۹۶۴": 8965,
    "▁جیو": 8966,
    "▁بدهیم": 8967,
    "▁هرج": 8968,
    "▁السلط": 8969,
    "▁نتوا": 8970,
    "رباب": 8971,
    "▁منش": 8972,
    "▁آنف": 8973,
    "روید": 8974,
    "ئوس": 8975,
    "▁بالاست": 8976,
    "گذرانند": 8977,
    "▁چون": 8978,
    "▁نبوی": 8979,
    "▁فون": 8980,
    "▁ژا": 8981,
    "تابلو": 8982,
    "سمن": 8983,
    "▁ترسم": 8984,
    "فسر": 8985,
    "غو": 8986,
    "انح": 8987,
    "گرمی": 8988,
    "▁کوچه": 8989,
    "▁مسیریاب": 8990,
    "▁پرد": 8991,
    "▁دیرین": 8992,
    "دال": 8993,
    "کادی": 8994,
    "▁وود": 8995,
    "▁عر": 8996,
    "انستان": 8997,
    "▁روست": 8998,
    "تقابل": 8999,
    "گذشته": 9000,
    "▁نشدم": 9001,
    "▁اودی": 9002,
    "▁مارسل": 9003,
    "▁قمر": 9004,
    "▁بلندهای": 9005,
    "▁جده": 9006,
    "موت": 9007,
    "شنود": 9008,
    "ورهم": 9009,
    "مقا": 9010,
    "▁گنجان": 9011,
    "شمن": 9012,
    "▁پولدار": 9013,
    "▁ترکمن": 9014,
    "▁گرانش": 9015,
    "▁ویچ": 9016,
    "▁رامین": 9017,
    "▁فریم": 9018,
    "▁فیو": 9019,
    "▁هاستل": 9020,
    "▁آمری": 9021,
    "▁لوب": 9022,
    "▁پونت": 9023,
    "▁راهیاب": 9024,
    "راث": 9025,
    "▁ترساند": 9026,
    "حریف": 9027,
    "▁ارغ": 9028,
    "▁راهور": 9029,
    "▁سکوی": 9030,
    "رپر": 9031,
    "▁بیند": 9032,
    "بندند": 9033,
    "الیس": 9034,
    "▁پاپو": 9035,
    "▁قضا": 9036,
    "▁خطرهای": 9037,
    "▁بخ": 9038,
    "ادزه": 9039,
    "▁تریک": 9040,
    "▁سوپ": 9041,
    "▁درانی": 9042,
    "▁استانداردها": 9043,
    "ندر": 9044,
    "▁گزی": 9045,
    "هشتم": 9046,
    "تیو": 9047,
    "▁وکا": 9048,
    "رمو": 9049,
    "▁بینداز": 9050,
    "▁ترها": 9051,
    "▁جووان": 9052,
    "لمن": 9053,
    "▁مالت": 9054,
    "ائز": 9055,
    "یرجان": 9056,
    "▁کارول": 9057,
    "پال": 9058,
    "▁رق": 9059,
    "العمل": 9060,
    "▁سوک": 9061,
    "انتری": 9062,
    "▁پروس": 9063,
    "تراپ": 9064,
    "▁فرودست": 9065,
    "▁لاین": 9066,
    "▁تئاترها": 9067,
    "جروم": 9068,
    "▁انبارها": 9069,
    "▁عمرم": 9070,
    "▁موثرتر": 9071,
    "▁گذرانی": 9072,
    "▁مضا": 9073,
    "▁دبیل": 9074,
    "دهم": 9075,
    "▁ویلر": 9076,
    "▁وارن": 9077,
    "▁کتا": 9078,
    "▁آق": 9079,
    "▁کانا": 9080,
    "اپار": 9081,
    "ضراب": 9082,
    "▁بدنساز": 9083,
    "▁چیپ": 9084,
    "▁رزو": 9085,
    "ادری": 9086,
    "▁بیکاران": 9087,
    "▁چت": 9088,
    "▁۱۸۴": 9089,
    "دوگا": 9090,
    "▁گلشی": 9091,
    "ورود": 9092,
    "ارگ": 9093,
    "▁گرداند": 9094,
    "▁مارین": 9095,
    "▁گذرا": 9096,
    "▁دریاها": 9097,
    "▁آسو": 9098,
    "▁حقوقدان": 9099,
    "▁لایک": 9100,
    "▁کیک": 9101,
    "▁تغییرهای": 9102,
    "وگند": 9103,
    "▁غیرمت": 9104,
    "▁۱۲۵": 9105,
    "▁پرداختن": 9106,
    "سارو": 9107,
    "کولبر": 9108,
    "نچ": 9109,
    "▁پارسا": 9110,
    "▁ابرها": 9111,
    "وردی": 9112,
    "نگل": 9113,
    "▁گذران": 9114,
    "تاکس": 9115,
    "سرگ": 9116,
    "الیزا": 9117,
    "مایند": 9118,
    "ساط": 9119,
    "▁ماهیان": 9120,
    "▁رکن": 9121,
    "فتند": 9122,
    "هرام": 9123,
    "غفو": 9124,
    "▁فیزیوتراپی": 9125,
    "سالگی": 9126,
    "▁وینس": 9127,
    "▁شناورها": 9128,
    "ناوند": 9129,
    "▁بورد": 9130,
    "طم": 9131,
    "▁تمل": 9132,
    "انزلی": 9133,
    "▁جهانبخ": 9134,
    "▁هریس": 9135,
    "دینامیک": 9136,
    "خواند": 9137,
    "ارج": 9138,
    "نورد": 9139,
    "سپورت": 9140,
    "▁رویاها": 9141,
    "وانا": 9142,
    "▁بپی": 9143,
    "۶۸": 9144,
    "عرض": 9145,
    "▁نرفتن": 9146,
    "حضرت": 9147,
    "فلورای": 9148,
    "▁صو": 9149,
    "▁سب": 9150,
    "▁فرما": 9151,
    "رگاه": 9152,
    "▁گرو": 9153,
    "صدای": 9154,
    "قویا": 9155,
    "▁معا": 9156,
    "گوپ": 9157,
    "▁هجده": 9158,
    "زبور": 9159,
    "تراز": 9160,
    "کنند": 9161,
    "بسیار": 9162,
    "آقا": 9163,
    "رآواز": 9164,
    "حسا": 9165,
    "▁پاها": 9166,
    "▁مومی": 9167,
    "نگران": 9168,
    "خامن": 9169,
    "▁اتم": 9170,
    "وانگ": 9171,
    "▁۴۸۰": 9172,
    "▁نجوم": 9173,
    "▁معتمد": 9174,
    "▁عثمان": 9175,
    "▁غفور": 9176,
    "▁محتوا": 9177,
    "▁تیرانداز": 9178,
    "▁اظهارنظرها": 9179,
    "یکایی": 9180,
    "▁فقرا": 9181,
    "آلبر": 9182,
    "▁ادعاها": 9183,
    "قامت": 9184,
    "▁دیوارها": 9185,
    "▁گرسن": 9186,
    "ضیا": 9187,
    "▁۶۲۰": 9188,
    "ارکان": 9189,
    "چیزی": 9190,
    "فرمانی": 9191,
    "روش": 9192,
    "کوب": 9193,
    "دروس": 9194,
    "▁رف": 9195,
    "دلیلش": 9196,
    "▁تجار": 9197,
    "اگرا": 9198,
    "▁آغازکرد": 9199,
    "طالب": 9200,
    "▁تیفو": 9201,
    "پیر": 9202,
    "۴۰۰": 9203,
    "بورک": 9204,
    "اغر": 9205,
    "بازیکن": 9206,
    "▁هچ": 9207,
    "▁تهدیدها": 9208,
    "▁ناخوش": 9209,
    "نخ": 9210,
    "مسلم": 9211,
    "تفاوت": 9212,
    "داخل": 9213,
    "انتقال": 9214,
    "جعفر": 9215,
    "وکلا": 9216,
    "وصدا": 9217,
    "دبیر": 9218,
    "تناقض": 9219,
    "کلیسای": 9220,
    "انصاری": 9221,
    "آلن": 9222,
    "بالگرد": 9223,
    "خالق": 9224,
    "معمول": 9225,
    "سیدن": 9226,
    "رونالدینیو": 9227,
    "داقبال": 9228,
    "جزییات": 9229,
    "فتاح": 9230,
    "نشدنی": 9231,
    "کیانوش": 9232,
    "عطرساز": 9233,
    "تفاهم": 9234,
    "آشفت": 9235,
    "غریب": 9236,
    "بنکسی": 9237,
    "مهندس": 9238,
    "لوئی": 9239,
    "منتف": 9240,
    "هیوندای": 9241,
    "تیرماه": 9242,
    "منچسترسیتی": 9243,
    "فایزر": 9244,
    "توتال": 9245,
    "تجهیزات": 9246,
    "تکمیل": 9247,
    "خودکشی": 9248,
    "وبسایت": 9249,
    "فولاد": 9250,
    "آذر": 9251,
    "آرسنال": 9252,
    "شاملو": 9253,
    "فیسبوک": 9254,
    "متخصص": 9255,
    "خورشید": 9256,
    "ضرور": 9257,
    "عرص": 9258,
    "سرپرست": 9259,
    "عصر": 9260,
    "رئال": 9261,
    "سفارت": 9262,
    "برزیل": 9263,
    "بحرین": 9264,
    "جیمز": 9265,
    "تزریق": 9266,
    "المپیک": 9267,
    "برخورد": 9268,
    "فراموش": 9269,
    "تدریج": 9270,
    "امضا": 9271,
    "اطمینان": 9272,
    "فساد": 9273,
    "سفیر": 9274,
    "خودروساز": 9275,
    "بارسلونا": 9276,
    "صحبت": 9277,
    "ماراتن": 9278,
    "خیابان": 9279,
    "مصاحبه": 9280,
    "سرنوشت": 9281,
    "ظریف": 9282,
    "واحد": 9283,
    "سرمربی": 9284,
    "تلویزیون": 9285,
    "ورزش": 9286,
    "حمایت": 9287,
    "رابطه": 9288,
    "کمبود": 9289,
    "صعود": 9290,
    "برخلاف": 9291,
    "شعر": 9292,
    "سبک": 9293,
    "عملکرد": 9294,
    "خالی": 9295,
    "سبز": 9296,
    "بودجه": 9297,
    "ساترا": 9298,
    "نویسندگان": 9299,
    "شرط": 9300,
    "جمله": 9301,
    "سریال": 9302,
    "آتش": 9303,
    "چاپ": 9304,
    "پیکر": 9305,
    "مجله": 9306,
    "حذف": 9307,
    "بیانیه": 9308,
    "ایسنا": 9309,
    "مجری": 9310,
    "تماس": 9311,
    "هدایت": 9312,
    "خدم": 9313,
    "ساخته": 9314,
    "هفتم": 9315,
    "عملیات": 9316,
    "داریوش": 9317,
    "حکیم": 9318,
    "پیدا": 9319,
    "خواننده": 9320,
    "کاخ": 9321,
    "جدید": 9322,
    "مثل": 9323,
    "رجب": 9324,
    "نکا": 9325,
    "معمولا": 9326,
    "تایید": 9327,
    "توییتر": 9328,
    "قرارداد": 9329,
    "علنی": 9330,
    "جدال": 9331,
    "استیل": 9332,
    "جدول": 9333,
    "واکسن": 9334,
    "جنگل": 9335,
    "پشت": 9336,
    "نادال": 9337,
    "چای": 9338,
    "شمالی": 9339,
    "ریزش": 9340,
    "درمانی": 9341,
    "ژیل": 9342,
    "فراز": 9343,
    "زاق": 9344,
    "ارزها": 9345,
    "▁مسیرها": 9346,
    "مصرف": 9347,
    "ناسا": 9348,
    "کریک": 9349,
    "بشر": 9350,
    "کمک": 9351,
    "بریتانیایی": 9352,
    "امشب": 9353,
    "زارها": 9354,
    "گیرش": 9355,
    "شاهد": 9356,
    "▁متروک": 9357,
    "▁بحر": 9358,
    "کنار": 9359,
    "بدهی": 9360,
    "گذراند": 9361,
    "کاوا": 9362,
    "مرور": 9363,
    "▁نگو": 9364,
    "چار": 9365,
    "دافع": 9366,
    "▁گنا": 9367,
    "▁رحیم": 9368,
    "تراتو": 9369,
    "بازارهای": 9370,
    "ریخت": 9371,
    "طابق": 9372,
    "▁اپلیکیش": 9373,
    "▁قرائ": 9374,
    "ئیت": 9375,
    "رافی": 9376,
    "طفی": 9377,
    "ئیل": 9378,
    "▁مقاوم": 9379,
    "شکست": 9380,
    "پوشانی": 9381,
    "▁آرنو": 9382,
    "دگار": 9383,
    "واضع": 9384,
    "▁آپار": 9385,
    "▁الکترود": 9386,
    "▁محدو": 9387,
    "▁برگردان": 9388,
    "حبو": 9389,
    "یکصد": 9390,
    "▁ظالم": 9391,
    "اراگوئه": 9392,
    "▁فدا": 9393,
    "ستاگرام": 9394,
    "▁تظاهر": 9395,
    "ویتز": 9396,
    "پارتمان": 9397,
    "▁طع": 9398,
    "کوبا": 9399,
    "خوف": 9400,
    "▁نباشیم": 9401,
    "▁ابرکامپیوترها": 9402,
    "▁الکترومغناطیس": 9403,
    "▁انسولین": 9404,
    "▁بشناسد": 9405,
    "▁تمسخر": 9406,
    "▁خاستگاه": 9407,
    "▁خرگوش": 9408,
    "▁روئی": 9409,
    "▁سولوویوف": 9410,
    "▁غوغای": 9411,
    "▁متعاقب": 9412,
    "▁مخترع": 9413,
    "▁مقتض": 9414,
    "▁ناپلئون": 9415,
    "▁ولگردها": 9416,
    "▁ومعرف": 9417,
    "▁چهارچوب": 9418,
    "▁ژئوپلتیک": 9419,
    "▁گاسکوئین": 9420,
    "▁گردآمد": 9421,
    "▁الاسلام": 9422,
    "▁امثال": 9423,
    "▁تکواندو": 9424,
    "▁ریاکاری": 9425,
    "▁فاحش": 9426,
    "▁همقطاران": 9427,
    "▁اسپانسر": 9428,
    "▁العالم": 9429,
    "▁متذکر": 9430,
    "▁مزاح": 9431,
    "▁وبیتکو": 9432,
    "▁ناظمی": 9433,
    "▁نردبان": 9434,
    "▁بااستعداد": 9435,
    "▁بکشاند": 9436,
    "▁شرمسار": 9437,
    "▁وبلاگ": 9438,
    "▁اکونومی": 9439,
    "▁خویشاوند": 9440,
    "▁غفار": 9441,
    "▁استنشاق": 9442,
    "▁پلاکاردها": 9443,
    "▁اتوبان": 9444,
    "▁صحافی": 9445,
    "▁نگشته": 9446,
    "▁سربگیرند": 9447,
    "▁اگنس": 9448,
    "▁کربلا": 9449,
    "▁گسست": 9450,
    "▁آلمادو": 9451,
    "▁بمانید": 9452,
    "▁قاپید": 9453,
    "▁تشابه": 9454,
    "▁پولانسکی": 9455,
    "▁عقوبت": 9456,
    "▁فینچر": 9457,
    "▁عنف": 9458,
    "▁وصیت": 9459,
    "▁سفال": 9460,
    "▁سمنگان": 9461,
    "▁روایات": 9462,
    "▁هورایزن": 9463,
    "▁فاسد": 9464,
    "▁ابلهان": 9465,
    "▁درنوردید": 9466,
    "تیاگو": 9467,
    "ناملموس": 9468,
    "▁مانیتور": 9469,
    "▁جوانبخت": 9470,
    "▁گمپرت": 9471,
    "▁اوکلاه": 9472,
    "▁نیفتند": 9473,
    "حرمسرا": 9474,
    "▁حیفا": 9475,
    "▁سیدابراهیم": 9476,
    "▁سمفونی": 9477,
    "▁کوانت": 9478,
    "▁گلیزر": 9479,
    "▁پردیس": 9480,
    "▁بیابند": 9481,
    "▁فورهند": 9482,
    "▁آلترن": 9483,
    "▁۱۹۱۲": 9484,
    "▁رهنوش": 9485,
    "▁بنویس": 9486,
    "▁اسنوبرد": 9487,
    "▁ایرانشناس": 9488,
    "▁معبد": 9489,
    "▁اوباش": 9490,
    "▁متهیا": 9491,
    "▁غنای": 9492,
    "▁۵۳ساله": 9493,
    "▁میکردند": 9494,
    "ضلع": 9495,
    "▁گنجایش": 9496,
    "▁مقل": 9497,
    "▁بیایید": 9498,
    "▁گاندو": 9499,
    "▁بخواب": 9500,
    "▁کانتون": 9501,
    "▁موتورسوار": 9502,
    "▁نومید": 9503,
    "▁طومار": 9504,
    "▁مهدیخانی": 9505,
    "▁داکا": 9506,
    "کشور": 9507,
    "▁بردارم": 9508,
    "▁تلاقی": 9509,
    "▁کلمبو": 9510,
    "▁مرزبندی": 9511,
    "▁ضدویروس": 9512,
    "▁کالینز": 9513,
    "▁رادارها": 9514,
    "▁خیاط": 9515,
    "لجستیک": 9516,
    "▁هتلداران": 9517,
    "▁بیندازید": 9518,
    "▁توکلی": 9519,
    "▁رادیکا": 9520,
    "▁بازوهای": 9521,
    "▁آلفرد": 9522,
    "▁تبهکار": 9523,
    "▁مقننه": 9524,
    "مویرگی": 9525,
    "▁مدعا": 9526,
    "▁گرکان": 9527,
    "▁اپوز": 9528,
    "▁فروزان": 9529,
    "▁آندریا": 9530,
    "▁ببخشد": 9531,
    "▁بگریزد": 9532,
    "▁بکاهد": 9533,
    "▁ترمز": 9534,
    "▁الاغ": 9535,
    "▁واداشته": 9536,
    "▁ایروان": 9537,
    "▁حکاک": 9538,
    "▁وولف": 9539,
    "▁پنهانکاری": 9540,
    "▁منشور": 9541,
    "▁مائور": 9542,
    "▁قدیس": 9543,
    "▁غص": 9544,
    "▁بکنند": 9545,
    "▁بنشینند": 9546,
    "ماگو": 9547,
    "▁زمام": 9548,
    "▁نوازد": 9549,
    "▁فرازمند": 9550,
    "▁فرمایش": 9551,
    "وتنبرگ": 9552,
    "▁استیشن": 9553,
    "▁پرنفوذ": 9554,
    "▁فدریک": 9555,
    "▁ولیحی": 9556,
    "دومین": 9557,
    "▁متأسف": 9558,
    "▁کاکس": 9559,
    "▁قرآن": 9560,
    "▁لئون": 9561,
    "▁پسندید": 9562,
    "▁بصیر": 9563,
    "▁۱۳۸۰": 9564,
    "▁بندپی": 9565,
    "▁سرمست": 9566,
    "▁الکترودهای": 9567,
    "کورا": 9568,
    "▁بزنید": 9569,
    "عاش": 9570,
    "فاخر": 9571,
    "بنز": 9572,
    "▁کوارت": 9573,
    "▁سنجاب": 9574,
    "▁نپرداخت": 9575,
    "▁مکاتبات": 9576,
    "▁دستگیرزاده": 9577,
    "▁شمرد": 9578,
    "ارتش": 9579,
    "▁کاونت": 9580,
    "▁شرافت": 9581,
    "▁نیمرخ": 9582,
    "▁بزنیم": 9583,
    "دندان": 9584,
    "▁۱۹۳۹": 9585,
    "▁عوام": 9586,
    "▁حشرات": 9587,
    "▁عرق": 9588,
    "▁معاند": 9589,
    "▁نوگرا": 9590,
    "▁مبنا": 9591,
    "▁شفی": 9592,
    "▁قلو": 9593,
    "کاب": 9594,
    "▁ترفندهای": 9595,
    "▁میکند": 9596,
    "ثمی": 9597,
    "▁انریک": 9598,
    "▁کاوش": 9599,
    "▁ضمیر": 9600,
    "▁محک": 9601,
    "▁حادتر": 9602,
    "پپ": 9603,
    "▁ستود": 9604,
    "▁آنالیز": 9605,
    "صفر": 9606,
    "▁نرود": 9607,
    "دورا": 9608,
    "▁دمید": 9609,
    "▁افراز": 9610,
    "قیاف": 9611,
    "▁شنیدم": 9612,
    "▁پالیس": 9613,
    "▁رهن": 9614,
    "▁مگاصیص": 9615,
    "▁نامطلوب": 9616,
    "▁ملایم": 9617,
    "▁کولون": 9618,
    "▁بروکلی": 9619,
    "▁همدم": 9620,
    "۹۸۰": 9621,
    "▁هنرپیشگ": 9622,
    "▁گریختند": 9623,
    "▁شوش": 9624,
    "فرشی": 9625,
    "سایر": 9626,
    "▁بوسد": 9627,
    "▁پراوی": 9628,
    "▁همنوا": 9629,
    "نوسان": 9630,
    "▁نوشتاری": 9631,
    "شهرهای": 9632,
    "▁کراش": 9633,
    "▁سالوادور": 9634,
    "▁فتوا": 9635,
    "▁دایان": 9636,
    "▁شهرنشین": 9637,
    "▁هملت": 9638,
    "▁پوسترهای": 9639,
    "▁گیگاب": 9640,
    "▁آپارت": 9641,
    "▁خونبار": 9642,
    "▁فغان": 9643,
    "▁اولترا": 9644,
    "گمانه": 9645,
    "▁تازیان": 9646,
    "▁نویسند": 9647,
    "▁کشمیر": 9648,
    "▁اوصاف": 9649,
    "پرت": 9650,
    "▁سلب": 9651,
    "▁فالک": 9652,
    "پابلیک": 9653,
    "▁کوکو": 9654,
    "▁تقلی": 9655,
    "▁مانورهای": 9656,
    "روژن": 9657,
    "▁پهپادهای": 9658,
    "▁جنایات": 9659,
    "▁درخشد": 9660,
    "▁رقصیدن": 9661,
    "▁کبری": 9662,
    "ستحکم": 9663,
    "▁فاصل": 9664,
    "▁لاور": 9665,
    "▁ندانستند": 9666,
    "▁مشوقهای": 9667,
    "اتاق": 9668,
    "▁واژگان": 9669,
    "▁لودو": 9670,
    "زیچ": 9671,
    "▁پاکیز": 9672,
    "گات": 9673,
    "حیط": 9674,
    "▁هدفمند": 9675,
    "▁دفع": 9676,
    "▁لومب": 9677,
    "▁تاکسیران": 9678,
    "▁همدل": 9679,
    "▁کورن": 9680,
    "▁رافا": 9681,
    "▁اینترف": 9682,
    "زخ": 9683,
    "▁ابزارک": 9684,
    "رسد": 9685,
    "▁خاش": 9686,
    "▁درانتخابات": 9687,
    "▁پنتاگون": 9688,
    "▁دیوارنگار": 9689,
    "▁اکولوژی": 9690,
    "▁مفتو": 9691,
    "▁باربارا": 9692,
    "▁پردازیم": 9693,
    "▁مولد": 9694,
    "▁خیرخواه": 9695,
    "▁اوستر": 9696,
    "▁مسلم": 9697,
    "▁نونو": 9698,
    "▁پرفسور": 9699,
    "▁بشویی": 9700,
    "▁تحص": 9701,
    "▁لمب": 9702,
    "▁اکستر": 9703,
    "▁بساط": 9704,
    "▁برسید": 9705,
    "▁کوکا": 9706,
    "بلنک": 9707,
    "آمدتر": 9708,
    "▁ایمیل": 9709,
    "▁ناراحتند": 9710,
    "▁غز": 9711,
    "▁جالبند": 9712,
    "▁ناباور": 9713,
    "هاوس": 9714,
    "▁داس": 9715,
    "▁مرک": 9716,
    "حفاظ": 9717,
    "امرویل": 9718,
    "▁بیدگ": 9719,
    "▁طالب": 9720,
    "▁پرماجرا": 9721,
    "▁۱۲۷": 9722,
    "▁حوز": 9723,
    "▁دستیار": 9724,
    "▁سودده": 9725,
    "▁لیلا": 9726,
    "اکمل": 9727,
    "▁ایستادن": 9728,
    "▁منصف": 9729,
    "▁تاخت": 9730,
    "▁بادام": 9731,
    "▁خوانیم": 9732,
    "وارس": 9733,
    "▁نزدند": 9734,
    "▁سالخورد": 9735,
    "ریتا": 9736,
    "مدیران": 9737,
    "▁شنوند": 9738,
    "▁هرچیز": 9739,
    "▁نقدهای": 9740,
    "▁تض": 9741,
    "خواهر": 9742,
    "بندها": 9743,
    "▁آرمانگرا": 9744,
    "▁نیکو": 9745,
    "لاخ": 9746,
    "▁ندادم": 9747,
    "سگ": 9748,
    "▁دلخو": 9749,
    "▁کوهنوردان": 9750,
    "▁الط": 9751,
    "▁۶۱۲": 9752,
    "▁زدیم": 9753,
    "گردند": 9754,
    "▁فرمانیه": 9755,
    "▁دوتای": 9756,
    "▁آوردیم": 9757,
    "زیاد": 9758,
    "▁گوتر": 9759,
    "▁جزیرو": 9760,
    "▁رک": 9761,
    "▁درمیان": 9762,
    "▁مکید": 9763,
    "گشایش": 9764,
    "گزین": 9765,
    "چس": 9766,
    "▁درگذشتمحمد": 9767,
    "▁جلا": 9768,
    "▁پوسید": 9769,
    "▁فرآور": 9770,
    "▁نظار": 9771,
    "▁برخوردارند": 9772,
    "▁پریان": 9773,
    "تیچ": 9774,
    "▁زل": 9775,
    "▁دزدید": 9776,
    "▁زهی": 9777,
    "▁دفاعیات": 9778,
    "▁آوار": 9779,
    "▁برنج": 9780,
    "▁چغا": 9781,
    "▁مالدار": 9782,
    "▁آغازکرده": 9783,
    "▁بلیک": 9784,
    "▁چول": 9785,
    "▁بسا": 9786,
    "▁دق": 9787,
    "▁فیروزجا": 9788,
    "▁دوروت": 9789,
    "▁فلین": 9790,
    "▁پولها": 9791,
    "▁وایلر": 9792,
    "▁جوانتر": 9793,
    "ترونیک": 9794,
    "▁اجراست": 9795,
    "▁نشرات": 9796,
    "▁مکزیکو": 9797,
    "▁زیرپا": 9798,
    "▁روایتگر": 9799,
    "▁بلندق": 9800,
    "اقت": 9801,
    "▁سلط": 9802,
    "▁بردیم": 9803,
    "اوران": 9804,
    "▁آمریکااست": 9805,
    "▁پنس": 9806,
    "ارتوم": 9807,
    "▁پیوستند": 9808,
    "▁ویو": 9809,
    "▁اولیان": 9810,
    "▁بدق": 9811,
    "▁بالدار": 9812,
    "▁نواز": 9813,
    "▁آورید": 9814,
    "▁چرخاند": 9815,
    "اگون": 9816,
    "▁جهانگرد": 9817,
    "پسون": 9818,
    "سماع": 9819,
    "حانی": 9820,
    "کنم": 9821,
    "نهام": 9822,
    "شقان": 9823,
    "▁گیرا": 9824,
    "اوج": 9825,
    "▁مستندهای": 9826,
    "▁پودر": 9827,
    "▁درازا": 9828,
    "▁لگو": 9829,
    "عمر": 9830,
    "یدز": 9831,
    "نگو": 9832,
    "▁گیرم": 9833,
    "▁جوانب": 9834,
    "▁تریست": 9835,
    "وجیه": 9836,
    "ردین": 9837,
    "امیلی": 9838,
    "▁چشمک": 9839,
    "▁روپر": 9840,
    "▁رزمند": 9841,
    "▁مستن": 9842,
    "▁پهنا": 9843,
    "▁نگارم": 9844,
    "زندگان": 9845,
    "▁ساند": 9846,
    "▁کشو": 9847,
    "ریتانی": 9848,
    "▁معای": 9849,
    "▁عصا": 9850,
    "▁مواجهند": 9851,
    "ماینر": 9852,
    "سکان": 9853,
    "▁خوردند": 9854,
    "▁گرج": 9855,
    "▁هیپستر": 9856,
    "مگ": 9857,
    "▁اض": 9858,
    "▁بفهمی": 9859,
    "▁فوتو": 9860,
    "چهل": 9861,
    "▁فاخر": 9862,
    "▁همدست": 9863,
    "▁پیشنهادهای": 9864,
    "حذ": 9865,
    "بریز": 9866,
    "ستاران": 9867,
    "▁بلن": 9868,
    "▁حائ": 9869,
    "تورباز": 9870,
    "▁کریک": 9871,
    "سکین": 9872,
    "یوآ": 9873,
    "▁ریچ": 9874,
    "▁سرکو": 9875,
    "▁آوریم": 9876,
    "▁کریستین": 9877,
    "▁باختن": 9878,
    "اسک": 9879,
    "اچ": 9880,
    "ورانگو": 9881,
    "استیتس": 9882,
    "رفتار": 9883,
    "وبل": 9884,
    "دیف": 9885,
    "جزایر": 9886,
    "شرف": 9887,
    "▁بپیچ": 9888,
    "جیح": 9889,
    "بدین": 9890,
    "قایق": 9891,
    "درینو": 9892,
    "نورلند": 9893,
    "▁۶۳۰": 9894,
    "▁نائ": 9895,
    "تلر": 9896,
    "توپ": 9897,
    "موش": 9898,
    "واچ": 9899,
    "▁اکسپو": 9900,
    "▁مارکان": 9901,
    "▁کتابدار": 9902,
    "ناعت": 9903,
    "▁کولا": 9904,
    "▁عزیزانم": 9905,
    "گویید": 9906,
    "▁کولاک": 9907,
    "واکس": 9908,
    "▁درعی": 9909,
    "فهیم": 9910,
    "راکتور": 9911,
    "چر": 9912,
    "۷۱۰": 9913,
    "▁یوور": 9914,
    "▁۱۵سال": 9915,
    "نواختر": 9916,
    "گرفت": 9917,
    "▁کنج": 9918,
    "▁آزمود": 9919,
    "▁کارتن": 9920,
    "یابد": 9921,
    "نقا": 9922,
    "▁۱۸۹": 9923,
    "▁نخوان": 9924,
    "▁بگویی": 9925,
    "الیات": 9926,
    "▁بازدیدها": 9927,
    "▁کورم": 9928,
    "انشناخت": 9929,
    "▁طبل": 9930,
    "▁جیم": 9931,
    "رستان": 9932,
    "ایکون": 9933,
    "▁موتورس": 9934,
    "▁ورن": 9935,
    "▁مصا": 9936,
    "بیا": 9937,
    "▁بگذار": 9938,
    "▁شاک": 9939,
    "▁حیا": 9940,
    "▁وکار": 9941,
    "▁حدید": 9942,
    "نیرو": 9943,
    "▁پولاد": 9944,
    "▁نیرومندتر": 9945,
    "نواز": 9946,
    "موم": 9947,
    "رج": 9948,
    "ناوال": 9949,
    "▁مثا": 9950,
    "فهمد": 9951,
    "۶۶": 9952,
    "تژیک": 9953,
    "▁بلوم": 9954,
    "▁جفا": 9955,
    "▁یورک": 9956,
    "دئو": 9957,
    "▁ذهنم": 9958,
    "انگلر": 9959,
    "▁ویرا": 9960,
    "▁کینگز": 9961,
    "آخ": 9962,
    "گوید": 9963,
    "اسکا": 9964,
    "وانیم": 9965,
    "شناخت": 9966,
    "▁صب": 9967,
    "▁السی": 9968,
    "فاشی": 9969,
    "▁هادس": 9970,
    "اتریو": 9971,
    "وئر": 9972,
    "استفان": 9973,
    "▁لورن": 9974,
    "تیلن": 9975,
    "▁انف": 9976,
    "▁الجز": 9977,
    "▁جنگیدن": 9978,
    "راپ": 9979,
    "خامت": 9980,
    "عابد": 9981,
    "▁غیربورسی": 9982,
    "فکر": 9983,
    "▁آرکا": 9984,
    "▁آلیس": 9985,
    "اونت": 9986,
    "استفن": 9987,
    "دسیمون": 9988,
    "▁فهمیدن": 9989,
    "پنجاه": 9990,
    "ماتیک": 9991,
    "▁نیکول": 9992,
    "پینو": 9993,
    "▁خرو": 9994,
    "▁هیپستره": 9995,
    "میرز": 9996,
    "زیتو": 9997,
    "▁استروئید": 9998,
    "▁چیزور": 9999,
    "تنبور": 10000,
    "ئ": 10001
  }
}