<pad>	0
▁می	-3.98182
</s>	0
<unk>	0
▁های	-4.37782
▁ایران	-4.54045
▁است	-4.69067
▁شده	-4.7832
▁یک	-5.01301
▁سال	-5.02303
▁ها	-5.10221
▁کرده	-5.16883
▁است.	-5.2513
▁ای	-5.29039
▁تصویر	-5.29349
▁بود	-5.4248
▁گفته	-5.44628
▁دو	-5.61969
▁خود	-5.64254
▁بر	-5.65528
▁کرونا	-5.77788
▁پیش	-5.87092
▁شد	-5.88275
▁در	-5.88485
▁آمریکا	-5.90111
▁کشور	-5.91764
▁گزارش	-5.92054
▁روز	-5.922
▁ماه	-5.95982
▁کرد	-5.98199
▁فوتبال	-6.05324
▁بی	-6.07421
▁اعلام	-6.08786
▁بازی	-6.10519
▁گفت	-6.1264
▁قرار	-6.14714
▁شرکت	-6.16091
▁داده	-6.17394
▁تیم	-6.19475
▁دیگر	-6.2209
▁یا	-6.22188
▁هزار	-6.23673
▁دولت	-6.23773
▁شود	-6.24273
▁سه	-6.26095
▁رئیس	-6.27639
▁گذشته	-6.29629
▁دست	-6.30907
▁خواهد	-6.31445
▁کار	-6.32311
▁آقای	-6.32528
▁پس	-6.32965
▁به	-6.33734
▁بین	-6.35066
▁گوید	-6.35177
▁جهان	-6.38129
▁کند	-6.38475
▁درباره	-6.38706
▁اند	-6.39521
▁یکی	-6.39638
▁آنها	-6.44184
▁میلیون	-6.44675
▁بوده	-6.46287
▁دلیل	-6.46537
▁افزایش	-6.47418
▁هر	-6.49204
▁تهران	-6.50109
▁هفته	-6.50369
▁و	-6.51285
▁نفر	-6.52209
▁لیگ	-6.53678
▁دارد	-6.54489
▁بار	-6.54761
▁از	-6.54897
▁افغانستان	-6.54897
▁جهانی	-6.55855
▁شد.	-6.55855
▁درصد	-6.56684
▁بعد	-6.58645
▁ملی	-6.59355
▁بازار	-6.59783
▁همه	-6.60069
▁نمی	-6.60213
▁قیمت	-6.60645
▁جمهوری	-6.6166
▁سازمان	-6.62098
▁فیلم	-6.62245
▁حال	-6.64469
▁ویروس	-6.64469
▁ترین	-6.64619
▁عنوان	-6.65524
▁جدید	-6.65676
▁دلار	-6.65676
▁باید	-6.65827
▁مورد	-6.66437
▁گرفته	-6.66437
▁دهد.	-6.6659
▁ایرانی	-6.66743
▁هایی	-6.66743
▁چند	-6.68133
▁نام	-6.69071
▁شدن	-6.69701
▁بیش	-6.72261
▁مجلس	-6.73238
▁امروز	-6.73895
▁نفت	-6.75556
▁کاهش	-6.75556
▁روی	-6.75724
▁وزارت	-6.75724
▁نظر	-6.75892
▁تولید	-6.77245
▁نیز	-6.79485
▁بود.	-6.79834
▁وزیر	-6.80536
▁کرد.	-6.81065
▁همچنین	-6.81242
▁اخیر	-6.8142
▁آغاز	-6.81598
▁شود.	-6.82491
▁حدود	-6.83212
▁داشته	-6.83393
▁بریتانیا	-6.84486
▁بیشتر	-6.85221
▁اروپا	-6.87272
▁برنامه	-6.8746
▁کند.	-6.87838
▁اقتصادی	-6.88028
▁خبر	-6.89558
▁راه	-6.8975
▁انجام	-6.90137
▁زمان	-6.91307
▁منتشر	-6.91307
▁کنند	-6.91307
▁اولین	-6.92689
▁حضور	-6.92888
▁باشگاه	-6.93487
▁چین	-6.95104
▁واکسن	-6.95512
▁استفاده	-6.97787
▁شیوع	-6.98206
▁تحریم	-6.98416
▁صورت	-6.98416
▁ادامه	-6.98627
▁اساس	-6.98838
▁پایان	-6.98838
▁جمله	-6.9905
▁اش	-6.99475
▁بانک	-6.99688
▁اول	-7.00759
▁با	-7.01625
▁برگزار	-7.01843
▁را	-7.0228
▁بزرگ	-7.02718
▁نشان	-7.02938
▁سی	-7.05165
▁وجود	-7.05391
▁مسابقه	-7.05617
▁میان	-7.07213
▁شهر	-7.07674
▁زندگی	-7.08369
▁میلیارد	-7.08369
▁بخش	-7.08602
▁فصل	-7.09069
▁همین	-7.10011
▁مسابقات	-7.10722
▁گروه	-7.10722
▁توافق	-7.10961
▁اند.	-7.11439
▁شورای	-7.11679
▁گیری	-7.1192
▁ساله	-7.12161
▁المللی	-7.12403
▁ماشین	-7.12646
▁مقابل	-7.13867
▁حقوق	-7.14854
▁چهار	-7.15352
▁تواند	-7.16103
▁تمام	-7.16859
▁منبع	-7.17113
▁مقام	-7.17367
▁بسیاری	-7.17622
▁خانه	-7.17622
▁دهد	-7.17622
▁مردم	-7.17622
▁تومان	-7.18647
▁سر	-7.19684
▁آینده	-7.20206
▁تنها	-7.20468
▁جام	-7.20468
▁بیماری	-7.20994
▁تر	-7.20994
▁داد	-7.21258
▁بدون	-7.21789
▁هستند	-7.22322
▁خارجه	-7.2259
▁کردن	-7.22859
▁زنان	-7.24485
▁قبل	-7.24758
▁تصویر،	-7.25033
▁گل	-7.25033
▁اجتماعی	-7.2586
▁باعث	-7.2586
▁نرخ	-7.2586
▁امسال	-7.26137
▁کم	-7.26695
▁اسلامی	-7.26974
▁دوران	-7.26974
▁وارد	-7.26974
▁تازه	-7.27536
▁فعالیت	-7.27818
▁گویند	-7.28101
▁هنوز	-7.29815
▁برتر	-7.30393
▁طور	-7.30393
▁انتخابات	-7.31267
▁شبکه	-7.32148
▁تلاش	-7.3274
▁حالی	-7.33037
▁نزدیک	-7.33037
▁حتی	-7.33335
▁داشت	-7.33335
▁تغییر	-7.33634
▁ارز	-7.34234
▁ولی	-7.34234
▁خانواده	-7.34839
▁هیچ	-7.34839
▁مرکزی	-7.35142
▁ریاست	-7.35752
▁حالا	-7.36365
▁رسانه	-7.36365
▁بودند	-7.36674
▁طرح	-7.36983
▁فروش	-7.36983
▁قهرمان	-7.36983
▁وضعیت	-7.36983
▁نیست	-7.37604
▁دوره	-7.38229
▁کردند	-7.38229
▁فقط	-7.38543
▁دهه	-7.39174
▁برای	-7.39491
▁دوم	-7.39491
▁علی	-7.39491
▁منطقه	-7.39491
▁سوی	-7.39809
▁ثبت	-7.40128
▁قهرمانی	-7.40128
▁کمک	-7.40128
▁بسیار	-7.40769
▁بورس	-7.40769
▁موسیقی	-7.41091
▁افراد	-7.41414
▁برخی	-7.41414
▁سرمایه	-7.41414
▁استان	-7.42063
▁بعضی	-7.42389
▁اقتصاد	-7.42717
▁مرکز	-7.42717
▁پیدا	-7.42717
▁آن	-7.43045
▁کنند.	-7.43045
▁برابر	-7.43375
▁تصمیم	-7.43375
▁اینکه	-7.43705
▁تاریخ	-7.43705
▁شرایط	-7.43705
▁روحانی	-7.4437
▁شروع	-7.4437
▁مختلف	-7.4437
▁نوشته	-7.4437
▁اصلی	-7.44704
▁رسیده	-7.44704
▁هسته	-7.44704
▁زمین	-7.45375
▁کشورهای	-7.45712
▁که	-7.4605
▁آمریکایی	-7.46731
▁باز	-7.46731
▁زیادی	-7.47416
▁بررسی	-7.48105
▁رسمی	-7.48105
▁همراه	-7.488
▁اثر	-7.49149
▁آمار	-7.49499
▁جان	-7.49499
▁علیه	-7.49499
▁بهترین	-7.4985
▁نه	-7.4985
▁رقابت	-7.50912
▁ممکن	-7.51627
▁نتیجه	-7.51986
▁جمهور	-7.52346
▁همکاری	-7.52346
▁اعتراض	-7.53071
▁نشده	-7.53071
▁اشاره	-7.53801
▁حمله	-7.53801
▁کنار	-7.53801
▁توجه	-7.54168
▁باشد	-7.55277
▁برجام	-7.55277
▁جایزه	-7.55277
▁دنبال	-7.55277
▁شش	-7.55277
▁مراسم	-7.55649
▁توسط	-7.56398
▁عکس	-7.56398
▁محمد	-7.56398
▁پرسپولیس	-7.56398
▁کشتی	-7.56398
▁سفر	-7.57153
▁پنج	-7.57153
▁یافته	-7.57533
▁استقلال	-7.58296
▁فدراسیون	-7.58296
▁مدت	-7.58296
▁زن	-7.5868
▁نیمه	-7.59452
▁حاضر	-7.6023
▁ویژه	-7.6023
▁الله	-7.60622
▁سیاسی	-7.60622
▁خبرگزاری	-7.61014
▁نقش	-7.61014
▁دنیا	-7.61409
▁پی	-7.61409
▁ترکیه	-7.62203
▁دانشگاه	-7.62203
▁مهم	-7.62602
▁میلادی	-7.62602
▁نامه	-7.62602
▁انتشار	-7.63003
▁انرژی	-7.63003
▁مجموعه	-7.63003
▁خودرو	-7.64215
▁ساعت	-7.64622
▁مالی	-7.64622
▁دولتی	-7.65031
▁کمتر	-7.65031
▁۵	-7.65031
▁شکست	-7.65442
▁رشد	-7.65854
▁سیاست	-7.65854
▁شنبه	-7.65854
▁حمایت	-7.66268
▁زیر	-7.66268
▁دارند	-7.66684
▁پرونده	-7.66684
▁کسب	-7.66684
▁گذاری	-7.66684
▁واکنش	-7.67102
▁۴	-7.67102
▁اطلاعات	-7.67521
▁دارد.	-7.67521
▁طی	-7.67942
▁فرانسه	-7.67942
▁پول	-7.67942
▁سازی	-7.68365
▁کره	-7.68789
▁آخرین	-7.69216
▁آمده	-7.69216
▁ایجاد	-7.69216
▁خارجی	-7.69216
▁دریافت	-7.69216
▁ترامپ	-7.70074
▁آلمان	-7.70506
▁دور	-7.70506
▁آژانس	-7.7094
▁خواهند	-7.71376
▁مذاکرات	-7.71376
▁خیلی	-7.71813
▁کشته	-7.71813
▁۱۰	-7.71813
▁عرضه	-7.72253
▁هشدار	-7.72253
▁اتحادیه	-7.72694
▁بهداشت	-7.72694
▁بودجه	-7.72694
▁عراق	-7.72694
▁هدف	-7.72694
▁چنین	-7.72694
▁روند	-7.73138
▁کننده	-7.73583
▁وقتی	-7.74031
▁بازیکن	-7.7448
▁تایید	-7.74932
▁موضوع	-7.74932
▁ده	-7.75385
▁هفت	-7.75385
▁اکنون	-7.75841
▁زمانی	-7.75841
▁سهام	-7.75841
▁طریق	-7.75841
▁مبارزه	-7.76758
▁۲	-7.76758
▁اقدام	-7.7722
▁عربستان	-7.7722
▁اجرای	-7.77684
▁حسن	-7.77684
▁دیده	-7.77684
▁آب	-7.7815
▁سابق	-7.7815
▁مربوط	-7.7815
▁مرگ	-7.7815
▁آزاد	-7.78619
▁دیدار	-7.79089
▁زمینه	-7.79089
▁مدیر	-7.79089
▁میزان	-7.79089
▁قهرمانان	-7.79562
▁نهایی	-7.79562
▁اجازه	-7.80037
▁تبدیل	-7.80037
▁فاصله	-7.80037
▁برگزاری	-7.80514
▁شب	-7.80514
▁جریان	-7.80994
▁زده	-7.80994
▁شوند	-7.80994
▁کل	-7.80994
▁خواسته	-7.81476
▁بازداشت	-7.8196
▁جنوبی	-7.8196
▁همان	-7.8196
▁است؛	-7.82447
▁۱۹	-7.82447
▁بالا	-7.82936
▁دیگری	-7.82936
▁طول	-7.82936
▁گرفت	-7.83427
▁ساخته	-7.83921
▁ورزش	-7.83921
▁کتاب	-7.83921
▁ابتلا	-7.84417
▁خرید	-7.84417
▁متهم	-7.84417
▁این	-7.85417
▁سالگی	-7.85417
▁محدودیت	-7.85417
▁نیاز	-7.85417
▁قانون	-7.85921
▁مدل	-7.85921
▁۲۰	-7.85921
▁بیانیه	-7.86428
▁خارج	-7.86428
▁زبان	-7.86936
▁بازیکنان	-7.87448
▁منابع	-7.87962
▁نماینده	-7.87962
▁دادگاه	-7.88479
▁اعضای	-7.88998
▁خاطر	-7.88998
▁محل	-7.88998
▁امنیت	-7.89521
▁خط	-7.89521
▁اتمی	-7.90045
▁تعداد	-7.90045
▁دوباره	-7.90045
▁زندان	-7.90045
▁سخنگوی	-7.90045
▁بشر	-7.90573
▁صادرات	-7.90573
▁قابل	-7.90573
▁پلیس	-7.90573
▁امنیتی	-7.91104
▁انگلیس	-7.91104
▁توان	-7.91104
▁جلسه	-7.91637
▁بخشی	-7.92173
▁ستاره	-7.92173
▁آزمایش	-7.92712
▁خامنه	-7.92712
▁رهبر	-7.92712
▁عمومی	-7.92712
▁پرداخت	-7.92712
▁است.در	-7.93254
▁نسبت	-7.93254
▁۲۰۲۰	-7.93254
▁۶	-7.93254
▁آثار	-7.93799
▁بیمارستان	-7.93799
▁خطر	-7.93799
▁مطرح	-7.93799
▁نمایندگان	-7.93799
▁روسیه	-7.94347
▁رفت	-7.94898
▁ساخت	-7.94898
▁لغو	-7.94898
▁لندن	-7.94898
▁معاون	-7.94898
▁پخش	-7.94898
▁گرفتن	-7.94898
▁انتخاب	-7.95452
▁بینی	-7.95452
▁تنیس	-7.95452
▁چرا	-7.95452
▁المپیک	-7.96009
▁انقلاب	-7.96009
▁لیورپول	-7.96009
▁همزمان	-7.96009
▁آسیا	-7.9657
▁ارزش	-7.9657
▁تحت	-7.9657
▁جاری	-7.9657
▁سابقه	-7.9657
▁قرنطینه	-7.9657
▁مشخص	-7.9657
▁نقل	-7.9657
▁سطح	-7.97133
▁نخستین	-7.97133
▁کامل	-7.97133
▁۳	-7.97133
▁تاثیر	-7.97699
▁سرمربی	-7.97699
▁۲۵	-7.97699
▁حکم	-7.98269
▁هم	-7.98269
▁.	-7.98842
▁ارائه	-7.98842
▁بالای	-7.98842
▁برنده	-7.98842
▁مقابله	-7.98842
▁آیا	-7.99419
▁وقت	-7.99419
▁چهره	-7.99419
▁کابل	-7.99419
▁برق	-7.99998
▁ترک	-7.99998
▁جنگ	-7.99998
▁رای	-7.99998
▁رسد	-7.99998
▁سپاه	-7.99998
▁نگرانی	-7.99998
▁پیروزی	-7.99998
▁گسترده	-7.99998
▁متحده	-8.00582
▁آزادی	-8.01168
▁بایدن	-8.01168
▁بازگشت	-8.01758
▁حکومت	-8.01758
▁نخست	-8.01758
▁پزشکی	-8.01758
▁افت	-8.02352
▁درآمد	-8.02352
▁نفتی	-8.02352
▁روزهای	-8.02949
▁شدت	-8.02949
▁۳۰	-8.02949
▁حرکت	-8.03549
▁شناخته	-8.03549
▁رد	-8.04153
▁متوقف	-8.04153
▁مرحله	-8.04153
▁کسانی	-8.04153
▁است.آقای	-8.04761
▁است.این	-8.04761
▁اسرائیل	-8.04761
▁شکل	-8.04761
▁نکرده	-8.04761
▁هزینه	-8.04761
▁امور	-8.05373
▁انتقال	-8.05373
▁تاریخی	-8.05373
▁جامعه	-8.05373
▁طرف	-8.05373
▁معرفی	-8.05373
▁ورزشی	-8.05373
▁جای	-8.05988
▁رفته	-8.05988
▁شمار	-8.06607
▁مصاحبه	-8.06607
▁نمایش	-8.06607
▁کمیسیون	-8.06607
▁خبری	-8.07231
▁دادن	-8.07231
▁عضو	-8.07231
▁عالی	-8.07858
▁گذاشته	-8.07858
▁تعیین	-8.08488
▁خانم	-8.08488
▁جدی	-8.09123
▁داد.	-8.09123
▁کسی	-8.09123
▁فرهنگی	-8.09762
▁قبلی	-8.09762
▁اتفاق	-8.10405
▁است.منبع	-8.10405
▁انسان	-8.10405
▁داخلی	-8.10405
▁شدمنبع	-8.10405
▁فشار	-8.10405
▁مرد	-8.10405
▁پر	-8.10405
▁بشکه	-8.11053
▁رسید	-8.11053
▁سن	-8.11053
▁داخل	-8.11704
▁وی	-8.11704
▁آبان	-8.1236
▁ایالات	-8.1236
▁داستان	-8.1236
▁رکورد	-8.1236
▁شدند	-8.1236
▁هستند.	-8.1236
▁کنیم	-8.1236
▁آنچه	-8.1302
▁بودن	-8.1302
▁سیستم	-8.1302
▁شدید	-8.1302
▁صندوق	-8.1302
▁محکوم	-8.1302
▁تصویب	-8.13684
▁صنعت	-8.13684
▁مسئولان	-8.13684
▁همچنان	-8.13684
▁الکتریکی	-8.14353
▁دستگاه	-8.14353
▁شامل	-8.14353
▁مانده	-8.14353
▁هند	-8.14353
▁یعنی	-8.14353
▁خودش	-8.15027
▁ظریف	-8.15027
▁فینال	-8.15027
▁نیم	-8.15027
▁۱۵	-8.15027
▁ستاد	-8.15705
▁فروردین	-8.15705
▁قدرت	-8.15705
▁ورزشگاه	-8.15705
▁ورود	-8.15705
▁تورم	-8.16387
▁قوه	-8.16387
▁پیشین	-8.16387
▁گاز	-8.16387
▁تحقیق	-8.17075
▁جلوگیری	-8.17075
▁دونالد	-8.17075
▁دی	-8.17075
▁روزنامه	-8.17075
▁فارسی	-8.17075
▁نیست.	-8.17075
▁پاسخ	-8.17075
▁دقیقه	-8.17767
▁نیروهای	-8.17767
▁چشم	-8.17767
▁ایتالیا	-8.18463
▁دهند	-8.18463
▁نوشت	-8.18463
▁اروپایی	-8.19165
▁بسته	-8.19165
▁محلی	-8.19165
▁بارسلونا	-8.19872
▁تشکیل	-8.19872
▁جمعیت	-8.19872
▁سوم	-8.19872
▁سینما	-8.19872
▁معاملات	-8.19872
▁کودکان	-8.19872
▁جشنواره	-8.20584
▁جنوب	-8.20584
▁دوشنبه	-8.20584
▁ناشی	-8.20584
▁نشست	-8.20584
▁نظامی	-8.20584
▁هنری	-8.20584
▁شماری	-8.21301
▁طولانی	-8.21301
▁فعال	-8.21301
▁مربی	-8.21301
▁مشکلات	-8.21301
▁بحران	-8.22023
▁ماسک	-8.22023
▁مرغ	-8.22023
▁پروژه	-8.22023
▁۲۰۱۹	-8.22023
▁امتیاز	-8.2275
▁داشت.	-8.2275
▁قرن	-8.2275
▁سایر	-8.23482
▁شهرهای	-8.23482
▁مبتلا	-8.23482
▁موج	-8.23482
▁کاری	-8.23482
▁تامین	-8.2422
▁خروج	-8.2422
▁شان	-8.2422
▁نیروی	-8.2422
▁۷	-8.2422
▁۹	-8.2422
▁امکان	-8.24964
▁انتقاد	-8.24964
▁تجاری	-8.24964
▁فرهنگ	-8.24964
▁فکر	-8.24964
▁هوایی	-8.24964
▁پشت	-8.24964
▁اسفند	-8.25713
▁اسکار	-8.25713
▁غنی	-8.25713
▁ملل	-8.25713
▁کردند.	-8.25713
▁اتهام	-8.26468
▁شاخص	-8.26468
▁فضای	-8.26468
▁تاکید	-8.27228
▁دستور	-8.27228
▁علت	-8.27228
▁کارگران	-8.27228
▁نهاد	-8.27994
▁۱۲	-8.27994
▁۱۴۰۰	-8.27994
▁احتمال	-8.28767
▁انتظار	-8.28767
▁بندی	-8.28767
▁جو	-8.28767
▁درخواست	-8.28767
▁نقاشی	-8.28767
▁نویسنده	-8.28767
▁هایش	-8.28767
▁اولیه	-8.29545
▁تلویزیون	-8.29545
▁فعالان	-8.29545
▁قوانین	-8.29545
▁کنترل	-8.29545
▁اجرا	-8.30329
▁تجربه	-8.30329
▁توانست	-8.30329
▁درمان	-8.30329
▁رقم	-8.30329
▁شناسایی	-8.30329
▁طراحی	-8.30329
▁علاوه	-8.30329
▁مارادونا	-8.30329
▁هنگام	-8.30329
▁کووید	-8.30329
▁آیت	-8.3112
▁ابراز	-8.3112
▁ارتباط	-8.3112
▁خواستار	-8.3112
▁سیاه	-8.3112
▁سیتی	-8.3112
▁ندارد	-8.3112
▁ام	-8.31917
▁شکایت	-8.31917
▁ممنوع	-8.31917
▁پایین	-8.31917
▁یکشنبه	-8.31917
▁آوریل	-8.3272
▁باقی	-8.3272
▁بلند	-8.3272
▁مسی	-8.3272
▁آسیب	-8.33529
▁باشد.	-8.33529
▁رشته	-8.33529
▁صفحه	-8.33529
▁همیشه	-8.33529
▁یاد	-8.33529
▁بودند.	-8.34346
▁روابط	-8.34346
▁سریال	-8.34346
▁شوند.	-8.34346
▁غیر	-8.34346
▁چهارم	-8.34346
▁حذف	-8.35169
▁حرفه	-8.35169
▁ماهه	-8.35169
▁مشکل	-8.35169
▁مواد	-8.35169
▁برده	-8.35999
▁جمعه	-8.35999
▁حساب	-8.35999
▁صحبت	-8.35999
▁موارد	-8.35999
▁توانند	-8.36836
▁حفظ	-8.36836
▁صد	-8.36836
▁نقطه	-8.36836
▁نگهبان	-8.36836
▁چهارشنبه	-8.36836
▁چپ	-8.36836
▁احتمالا	-8.37679
▁ایران،	-8.37679
▁خصوصی	-8.37679
▁رییس	-8.37679
▁شهروندان	-8.37679
▁عمل	-8.37679
▁قانونی	-8.37679
▁قرارداد	-8.37679
▁قرمز	-8.37679
▁مسئول	-8.37679
▁مسیر	-8.37679
▁گروهی	-8.37679
▁۴۰	-8.37679
▁آتش	-8.38531
▁اندازه	-8.38531
▁ترتیب	-8.38531
▁خوانده	-8.38531
▁سخت	-8.38531
▁سراسر	-8.38531
▁فهرست	-8.38531
▁محمود	-8.38531
▁آستانه	-8.39389
▁بارها	-8.39389
▁دیروز	-8.39389
▁شما	-8.39389
▁قصد	-8.39389
▁مرتبط	-8.39389
▁نوع	-8.39389
▁۶۰	-8.39389
▁اتاق	-8.40255
▁بیرون	-8.40255
▁بیست	-8.40255
▁رفع	-8.40255
▁روبرو	-8.40255
▁سمت	-8.40255
▁فرد	-8.40255
▁محیط	-8.40255
▁موسسه	-8.40255
▁هرات	-8.40255
▁هشت	-8.40255
▁هواپیمایی	-8.40255
▁ونزوئلا	-8.40255
▁۸	-8.40255
▁اختلاف	-8.41128
▁بنزین	-8.41128
▁بیشتری	-8.41128
▁تاکنون	-8.41128
▁دسترسی	-8.41128
▁سقوط	-8.41128
▁ولایت	-8.41128
▁کارخانه	-8.41128
▁کوچک	-8.41128
▁اختیار	-8.42009
▁شاهد	-8.42009
▁صادر	-8.42009
▁لازم	-8.42009
▁مشترک	-8.42009
▁گونه	-8.42009
▁اخیرا	-8.42898
▁تعطیلی	-8.42898
▁توپ	-8.42898
▁دارایی	-8.42898
▁سوخت	-8.42898
▁شاید	-8.42898
▁مصرف	-8.42898
▁۵۰	-8.42898
▁اداره	-8.43795
▁اعمال	-8.43795
▁جمع	-8.43795
▁دفاع	-8.43795
▁رسیدن	-8.43795
▁منجر	-8.43795
▁فضایی	-8.447
▁نتایج	-8.447
▁واحد	-8.447
▁۲۲	-8.447
▁امضا	-8.45613
▁تهدید	-8.45613
▁شجریان	-8.45613
▁نظام	-8.45613
▁نظیر	-8.45613
▁نهادهای	-8.45613
▁وین	-8.45613
▁چگونه	-8.45613
▁کاملا	-8.45613
▁کیلومتر	-8.45613
▁آماده	-8.46535
▁بازیگر	-8.46535
▁تحقیقات	-8.46535
▁رعایت	-8.46535
▁معروف	-8.46535
▁موفق	-8.46535
▁هنر	-8.46535
▁بزرگترین	-8.47465
▁حل	-8.47465
▁خوزستان	-8.47465
▁زاده	-8.47465
▁نخواهد	-8.47465
▁چاپ	-8.47465
▁۱۱	-8.47465
▁احمد	-8.48404
▁اطلاع	-8.48404
▁ایران؛	-8.48404
▁تجارت	-8.48404
▁تن	-8.48404
▁جهش	-8.48404
▁حادثه	-8.48404
▁رنگ	-8.48404
▁شمال	-8.48404
▁صفر	-8.48404
▁هیات	-8.48404
▁کمیته	-8.48404
▁زنده	-8.49352
▁سرطان	-8.49352
▁عامل	-8.49352
▁غرب	-8.49352
▁مذاکره	-8.49352
▁منتقل	-8.49352
▁نژاد	-8.49352
▁گفتگو	-8.49352
▁اعدام	-8.50309
▁بریتانیایی	-8.50309
▁تهیه	-8.50309
▁توسعه	-8.50309
▁رفتن	-8.50309
▁مارس	-8.50309
▁مصوبه	-8.50309
▁مقایسه	-8.50309
▁نگاه	-8.50309
▁چیزی	-8.50309
▁۱	-8.50309
▁است.او	-8.51275
▁محدود	-8.51275
▁محموله	-8.51275
▁پارسال	-8.51275
▁کنندگان	-8.51275
▁ایمنی	-8.52251
▁توصیف	-8.52251
▁تیمی	-8.52251
▁مناطق	-8.52251
▁هواداران	-8.52251
▁کالا	-8.52251
▁کشف	-8.52251
▁احیای	-8.53236
▁خواننده	-8.53236
▁رود	-8.53236
▁سلامت	-8.53236
▁مرز	-8.53236
▁کاخ	-8.53236
▁۱۴	-8.53236
▁اواخر	-8.54231
▁تابستان	-8.54231
▁تجمع	-8.54231
▁دنیای	-8.54231
▁راننده	-8.54231
▁مالیات	-8.54231
▁نامزدی	-8.54231
▁یافت	-8.54231
▁یونایتد	-8.54231
▁۵۰۰	-8.54231
▁اف	-8.55236
▁افغان	-8.55236
▁اوپک	-8.55236
▁ترکیب	-8.55236
▁خواهان	-8.55236
▁خون	-8.55236
▁درگذشت	-8.55236
▁فوق	-8.55236
▁ممنوعیت	-8.55236
▁واردات	-8.55236
▁پایتخت	-8.55236
▁۹۸	-8.55236
▁اعتراضات	-8.56251
▁واقعی	-8.56251
▁چندین	-8.56251
▁انفجار	-8.57277
▁بهبود	-8.57277
▁تقریبا	-8.57277
▁حق	-8.57277
▁حوزه	-8.57277
▁طبق	-8.57277
▁مجموع	-8.57277
▁کمی	-8.57277
▁گزارشی	-8.57277
▁بحرین	-8.58313
▁تلویزیونی	-8.58313
▁توییتر	-8.58313
▁جدیدی	-8.58313
▁سایت	-8.58313
▁سرعت	-8.58313
▁سفید	-8.58313
▁ضربه	-8.58313
▁قطر	-8.58313
▁موزه	-8.58313
▁کانال	-8.58313
▁۱۷	-8.58313
▁۲۰۲۱	-8.58313
▁ابتدای	-8.5936
▁احمدی	-8.5936
▁برد	-8.5936
▁جا	-8.5936
▁خصوص	-8.5936
▁نگاهی	-8.5936
▁ژانویه	-8.5936
▁کشیده	-8.5936
▁آنان	-8.60418
▁است،	-8.60418
▁بهتر	-8.60418
▁دلایل	-8.60418
▁سنگ	-8.60418
▁مشغول	-8.60418
▁موفقیت	-8.60418
▁نامزد	-8.60418
▁کشورها	-8.60418
▁افتاده	-8.61488
▁تاجیکستان	-8.61488
▁تی	-8.61488
▁دروازه	-8.61488
▁رکود	-8.61488
▁سعودی	-8.61488
▁طبیعی	-8.61488
▁عمده	-8.61488
▁فنی	-8.61488
▁متفاوت	-8.61488
▁مواجه	-8.61488
▁موافقت	-8.61488
▁کدام	-8.61488
▁کنون	-8.61488
▁کنید	-8.61488
▁۱۶	-8.61488
▁بحث	-8.62569
▁تعطیل	-8.62569
▁حداقل	-8.62569
▁داشتند	-8.62569
▁عبور	-8.62569
▁عدم	-8.62569
▁فرصت	-8.62569
▁مانع	-8.62569
▁پرواز	-8.62569
▁پیشتر	-8.62569
▁کردمنبع	-8.62569
▁۱۰۰	-8.62569
▁اساسی	-8.63662
▁برخورد	-8.63662
▁دچار	-8.63662
▁رسید.	-8.63662
▁روشن	-8.63662
▁سریع	-8.63662
▁طلا	-8.63662
▁فساد	-8.63662
▁مه	-8.63662
▁نبود	-8.63662
▁واقع	-8.63662
▁ابتدا	-8.64767
▁ارزی	-8.64767
▁ارشد	-8.64767
▁اسپانیا	-8.64767
▁اضافه	-8.64767
▁اوایل	-8.64767
▁بدن	-8.64767
▁بیشترین	-8.64767
▁صدای	-8.64767
▁عملکرد	-8.64767
▁فدرر	-8.64767
▁منچستر	-8.64767
▁کوتاه	-8.64767
▁دومین	-8.65884
▁سنگین	-8.65884
▁سینمایی	-8.65884
▁صدور	-8.65884
▁مجازی	-8.65884
▁مجبور	-8.65884
▁گو	-8.65884
▁آرژانتین	-8.67014
▁است.به	-8.67014
▁اقدامات	-8.67014
▁بهمن	-8.67014
▁مجله	-8.67014
▁پاریس	-8.67014
▁پروازهای	-8.67014
▁پیشنهاد	-8.67014
▁ژوئن	-8.67014
▁کنم	-8.67014
▁استرالیا	-8.68157
▁راهی	-8.68157
▁زنی	-8.68157
▁سفیر	-8.68157
▁مردان	-8.68157
▁مشهور	-8.68157
▁نسل	-8.68157
▁وضع	-8.68157
▁کرونای	-8.68157
▁بازارهای	-8.69313
▁تاتنهام	-8.69313
▁جایی	-8.69313
▁جدول	-8.69313
▁جریمه	-8.69313
▁حد	-8.69313
▁خودروهای	-8.69313
▁زندانی	-8.69313
▁سالانه	-8.69313
▁عملیات	-8.69313
▁مهدی	-8.69313
▁چلسی	-8.69313
▁چه	-8.69313
▁یورو	-8.69313
▁آلمانی	-8.70483
▁آمد	-8.70483
▁بالاترین	-8.70483
▁تعدادی	-8.70483
▁جنسی	-8.70483
▁حریف	-8.70483
▁رابطه	-8.70483
▁رتبه	-8.70483
▁زیاد	-8.70483
▁شدند.	-8.70483
▁علمی	-8.70483
▁قدیمی	-8.70483
▁متر	-8.70483
▁نفتکش	-8.70483
▁هدایت	-8.70483
▁پاسداران	-8.70483
▁پژوهش	-8.70483
▁کارشناسان	-8.70483
▁۱۳	-8.70483
▁اجرایی	-8.71666
▁اوت	-8.71666
▁جشن	-8.71666
▁جنگل	-8.71666
▁حزب	-8.71666
▁حسین	-8.71666
▁خالی	-8.71666
▁خبرنگار	-8.71666
▁دار	-8.71666
▁رمان	-8.71666
▁سود	-8.71666
▁سکه	-8.71666
▁عهده	-8.71666
▁مجدد	-8.71666
▁موجب	-8.71666
▁نگران	-8.71666
▁۲۴	-8.71666
▁بیکاری	-8.72864
▁تاج	-8.72864
▁تازگی	-8.72864
▁خوب	-8.72864
▁درگذشت.	-8.72864
▁دفتر	-8.72864
▁رخ	-8.72864
▁مخالفت	-8.72864
▁کرونا؛	-8.72864
▁کلی	-8.72864
▁۱۸	-8.72864
▁۲۰۰	-8.72864
▁افرادی	-8.74076
▁انگلیسی	-8.74076
▁اوراق	-8.74076
▁بهداشتی	-8.74076
▁تومانی	-8.74076
▁حبس	-8.74076
▁روزانه	-8.74076
▁روش	-8.74076
▁رونمایی	-8.74076
▁زدن	-8.74076
▁مادر	-8.74076
▁مادرید	-8.74076
▁مغز	-8.74076
▁چیز	-8.74076
▁۲۰۱۸	-8.74076
▁۹۰	-8.74076
▁آوری	-8.75303
▁بعدی	-8.75303
▁بیت	-8.75303
▁ترانه	-8.75303
▁سعید	-8.75303
▁سینمای	-8.75303
▁فرمول	-8.75303
▁قتل	-8.75303
▁مجوز	-8.75303
▁مقررات	-8.75303
▁منفی	-8.75303
▁نظارت	-8.75303
▁نقاط	-8.75303
▁ژاپن	-8.75303
▁اورانیوم	-8.76545
▁اوپن	-8.76545
▁براساس	-8.76545
▁بیمار	-8.76545
▁تورنمنت	-8.76545
▁درصدی	-8.76545
▁دریایی	-8.76545
▁زیست	-8.76545
▁صبح	-8.76545
▁فراهم	-8.76545
▁پوند	-8.76545
▁گرفت.	-8.76545
▁ارتش	-8.77803
▁اردیبهشت	-8.77803
▁انگلستان	-8.77803
▁تغییرات	-8.77803
▁حرف	-8.77803
▁دهم	-8.77803
▁دکتر	-8.77803
▁سرشناس	-8.77803
▁شرق	-8.77803
▁صدا	-8.77803
▁قضائیه	-8.77803
▁قضایی	-8.77803
▁موجود	-8.77803
▁نشانه	-8.77803
▁عدالت	-8.79077
▁غربی	-8.79077
▁قطعنامه	-8.79077
▁ملت	-8.79077
▁نداشته	-8.79077
▁کارکنان	-8.79077
▁استاد	-8.80367
▁بایرن	-8.80367
▁بزرگی	-8.80367
▁تزریق	-8.80367
▁توضیح	-8.80367
▁تیراندازی	-8.80367
▁خاک	-8.80367
▁دانشمندان	-8.80367
▁درست	-8.80367
▁دریای	-8.80367
▁شخصی	-8.80367
▁علاقه	-8.80367
▁علیرضا	-8.80367
▁مالکیت	-8.80367
▁هرچند	-8.80367
▁کمبود	-8.80367
▁آلبوم	-8.81675
▁آورده	-8.81675
▁استقبال	-8.81675
▁اظهارات	-8.81675
▁ان	-8.81675
▁ایالت	-8.81675
▁خوبی	-8.81675
▁رونالدو	-8.81675
▁زخمی	-8.81675
▁عده	-8.81675
▁قاچاق	-8.81675
▁مسدود	-8.81675
▁مقامات	-8.81675
▁نمونه	-8.81675
▁نهایت	-8.81675
▁گسترش	-8.81675
▁۱۳۹۹	-8.81675
▁آخر	-8.82999
▁بستری	-8.82999
▁بنز	-8.82999
▁تشخیص	-8.82999
▁خانگی	-8.82999
▁خواهیم	-8.82999
▁دوربین	-8.82999
▁سفارت	-8.82999
▁سوئیس	-8.82999
▁صحنه	-8.82999
▁فوریه	-8.82999
▁متوسط	-8.82999
▁مرداد	-8.82999
▁مستند	-8.82999
▁مسکن	-8.82999
▁۲۳	-8.82999
▁آبی	-8.84341
▁اقیانوس	-8.84341
▁ایران:	-8.84341
▁بهار	-8.84341
▁توصیه	-8.84341
▁جمعی	-8.84341
▁خورشیدی	-8.84341
▁رویترز	-8.84341
▁سوریه	-8.84341
▁صدر	-8.84341
▁قطعی	-8.84341
▁ماهی	-8.84341
▁متعلق	-8.84341
▁محمدرضا	-8.84341
▁مدیریت	-8.84341
▁نشریه	-8.84341
▁هوا	-8.84341
▁واکسیناسیون	-8.84341
▁وعده	-8.84341
▁کالاهای	-8.84341
▁کنونی	-8.84341
▁اخراج	-8.85702
▁استمنبع	-8.85702
▁افزوده	-8.85702
▁باره	-8.85702
▁بازرگانی	-8.85702
▁تماس	-8.85702
▁رفتار	-8.85702
▁شعر	-8.85702
▁فارس	-8.85702
▁آموزش	-8.87081
▁امید	-8.87081
▁دوچرخه	-8.87081
▁راست	-8.87081
▁ساختمان	-8.87081
▁سخنرانی	-8.87081
▁فعلی	-8.87081
▁فوت	-8.87081
▁قبلا	-8.87081
▁لحظه	-8.87081
▁متوجه	-8.87081
▁مدتی	-8.87081
▁مستقیم	-8.87081
▁معادل	-8.87081
▁هنرمند	-8.87081
▁ژوئیه	-8.87081
▁کشوری	-8.87081
▁گذشت	-8.87081
▁بانکی	-8.8848
▁بیماران	-8.8848
▁جوایز	-8.8848
▁رئال	-8.8848
▁سند	-8.8848
▁سیستان	-8.8848
▁قطع	-8.8848
▁مبتلایان	-8.8848
▁مطالعه	-8.8848
▁معترضان	-8.8848
▁میدان	-8.8848
▁کوین	-8.8848
▁۲۰۱۷	-8.8848
▁احتمالی	-8.89898
▁ارسال	-8.89898
▁العاده	-8.89898
▁باشند	-8.89898
▁تخمین	-8.89898
▁توقیف	-8.89898
▁جوان	-8.89898
▁خرداد	-8.89898
▁دانسته	-8.89898
▁درآمدهای	-8.89898
▁درگیری	-8.89898
▁دسته	-8.89898
▁زاغری	-8.89898
▁صوتی	-8.89898
▁طالبان	-8.89898
▁عقب	-8.89898
▁مثبت	-8.89898
▁پای	-8.89898
▁پنجشنبه	-8.89898
▁کاربران	-8.89898
▁اسطوره	-8.91337
▁بازگشایی	-8.91337
▁بود؛	-8.91337
▁تخریب	-8.91337
▁تصاویر	-8.91337
▁تمامی	-8.91337
▁خدمات	-8.91337
▁خلق	-8.91337
▁خورده	-8.91337
▁دقیق	-8.91337
▁رسیدگی	-8.91337
▁سنتی	-8.91337
▁شبیه	-8.91337
▁شخصیت	-8.91337
▁صعود	-8.91337
▁صنایع	-8.91337
▁عجیب	-8.91337
▁مرزی	-8.91337
▁مشابه	-8.91337
▁پیشرفت	-8.91337
▁کشورش	-8.91337
▁گاهی	-8.91337
▁۲۰۱۶	-8.91337
▁۲۱	-8.91337
▁-	-8.92797
▁اسرائیلی	-8.92797
▁خواست	-8.92797
▁سعی	-8.92797
▁شدگان	-8.92797
▁شماره	-8.92797
▁عباس	-8.92797
▁فیفا	-8.92797
▁ماموران	-8.92797
▁مدیران	-8.92797
▁نقدینگی	-8.92797
▁وزن	-8.92797
▁چک	-8.92797
▁اصلاح	-8.94279
▁اوج	-8.94279
▁بالاتر	-8.94279
▁تحویل	-8.94279
▁حمل	-8.94279
▁خبرنگاران	-8.94279
▁دارو	-8.94279
▁دانش	-8.94279
▁غذا	-8.94279
▁غیرقانونی	-8.94279
▁محصولات	-8.94279
▁معامله	-8.94279
▁معرض	-8.94279
▁نوری	-8.94279
▁نگهداری	-8.94279
▁وابسته	-8.94279
▁پیام	-8.94279
▁یکدیگر	-8.94279
▁۳۰۰	-8.94279
▁۹۹	-8.94279
▁بال	-8.95782
▁بلوچستان	-8.95782
▁بن	-8.95782
▁جز	-8.95782
▁حاشیه	-8.95782
▁حالیست	-8.95782
▁دختر	-8.95782
▁رافائل	-8.95782
▁سوال	-8.95782
▁سپاهان	-8.95782
▁مبلغ	-8.95782
▁مکان	-8.95782
▁نقض	-8.95782
▁نوامبر	-8.95782
▁هزاران	-8.95782
▁کارگر	-8.95782
▁کارگردان	-8.95782
▁کارگردانی	-8.95782
▁گمرک	-8.95782
▁۲۸	-8.95782
▁احساس	-8.97309
▁تا	-8.97309
▁تقاضای	-8.97309
▁تقویت	-8.97309
▁جزئیات	-8.97309
▁روایت	-8.97309
▁شده،	-8.97309
▁شرایطی	-8.97309
▁شلیک	-8.97309
▁معمولا	-8.97309
▁مک	-8.97309
▁نازنین	-8.97309
▁نو	-8.97309
▁واشنگتن	-8.97309
▁چالش	-8.97309
▁۷۰	-8.97309
▁آی	-8.9886
▁ادبیات	-8.9886
▁امام	-8.9886
▁بخوانید	-8.9886
▁تصور	-8.9886
▁حذفی	-8.9886
▁رضا	-8.9886
▁ریزی	-8.9886
▁سختی	-8.9886
▁سپس	-8.9886
▁شاسی	-8.9886
▁صلح	-8.9886
▁فایل	-8.9886
▁فردی	-8.9886
▁مدیرعامل	-8.9886
▁هرگز	-8.9886
▁پاکستان	-8.9886
▁کودک	-8.9886
▁ی	-8.9886
▁آنلاین	-9.00434
▁ادبی	-9.00434
▁انسانی	-9.00434
▁برج	-9.00434
▁بهادار	-9.00434
▁تقاضا	-9.00434
▁تمدید	-9.00434
▁حقوقی	-9.00434
▁دارند.	-9.00434
▁دختران	-9.00434
▁مد	-9.00434
▁مسافران	-9.00434
▁نشر	-9.00434
▁همسر	-9.00434
▁پایانی	-9.00434
▁چینی	-9.00434
▁۱۳۹۸	-9.00434
▁آمازون	-9.02034
▁اکتبر	-9.02034
▁اینترنتی	-9.02034
▁برمی	-9.02034
▁تمرین	-9.02034
▁جوکوویچ	-9.02034
▁دادند	-9.02034
▁دین	-9.02034
▁شاه	-9.02034
▁فرانسوی	-9.02034
▁قسمت	-9.02034
▁مخالفان	-9.02034
▁مدافع	-9.02034
▁نزدیکی	-9.02034
▁همواره	-9.02034
▁پنجم	-9.02034
▁۳۵	-9.02034
▁آ	-9.03661
▁آلودگی	-9.03661
▁انگیز	-9.03661
▁اهمیت	-9.03661
▁تسلا	-9.03661
▁تعویق	-9.03661
▁توکیو	-9.03661
▁تیر	-9.03661
▁حاصل	-9.03661
▁درگیر	-9.03661
▁زد	-9.03661
▁زندانیان	-9.03661
▁سراوان	-9.03661
▁ظاهر	-9.03661
▁عین	-9.03661
▁فردا	-9.03661
▁فناوری	-9.03661
▁میزبانی	-9.03661
▁هنرپیشه	-9.03661
▁پژوهشگران	-9.03661
▁چندان	-9.03661
▁کنسرت	-9.03661
▁۲۶	-9.03661
▁آسمان	-9.05313
▁تاخیر	-9.05313
▁توقف	-9.05313
▁دوست	-9.05313
▁دیوان	-9.05313
▁رهبری	-9.05313
▁روزها	-9.05313
▁ساز	-9.05313
▁عادی	-9.05313
▁قاره	-9.05313
▁لباس	-9.05313
▁مجری	-9.05313
▁مراکز	-9.05313
▁معنای	-9.05313
▁مهر	-9.05313
▁نوبل	-9.05313
▁همچون	-9.05313
▁پدر	-9.05313
▁کارهای	-9.05313
▁گرم	-9.05313
▁ارزیابی	-9.06994
▁انتخاباتی	-9.06994
▁انجمن	-9.06994
▁بنا	-9.06994
▁تصویری	-9.06994
▁پا	-9.06994
▁کارها	-9.06994
▁۸۰	-9.06994
▁برزیل	-9.08704
▁بروز	-9.08704
▁بقیه	-9.08704
▁تعهدات	-9.08704
▁جیمز	-9.08704
▁زودی	-9.08704
▁سومین	-9.08704
▁شبانه	-9.08704
▁لوکس	-9.08704
▁مدرسه	-9.08704
▁مدعی	-9.08704
▁مربیان	-9.08704
▁مسلح	-9.08704
▁موقعیت	-9.08704
▁نویسندگان	-9.08704
▁نگه	-9.08704
▁هواپیما	-9.08704
▁هواپیمای	-9.08704
▁پرداخته	-9.08704
▁کافی	-9.08704
▁گران	-9.08704
▁۳۱	-9.08704
▁ارقام	-9.10443
▁اشتباه	-9.10443
▁ثابت	-9.10443
▁جذب	-9.10443
▁جراحی	-9.10443
▁حسینی	-9.10443
▁خیابان	-9.10443
▁داربی	-9.10443
▁سری	-9.10443
▁سنت	-9.10443
▁سهم	-9.10443
▁سهمیه	-9.10443
▁ضمن	-9.10443
▁عصر	-9.10443
▁عوامل	-9.10443
▁لایحه	-9.10443
▁مراقبت	-9.10443
▁مشاهده	-9.10443
▁مهاجم	-9.10443
▁مواردی	-9.10443
▁موقت	-9.10443
▁هنرمندان	-9.10443
▁پور	-9.10443
▁آهنگ	-9.12213
▁ابلاغ	-9.12213
▁است.بر	-9.12213
▁اغلب	-9.12213
▁بدهی	-9.12213
▁برجسته	-9.12213
▁بگیرد	-9.12213
▁تساوی	-9.12213
▁تنظیم	-9.12213
▁حفاظت	-9.12213
▁خودروساز	-9.12213
▁سبک	-9.12213
▁شاعر	-9.12213
▁شرقی	-9.12213
▁شمالی	-9.12213
▁فرهاد	-9.12213
▁متولد	-9.12213
▁محروم	-9.12213
▁مسئله	-9.12213
▁مشارکت	-9.12213
▁مونیخ	-9.12213
▁میزبان	-9.12213
▁نارنجی	-9.12213
▁نجات	-9.12213
▁وگو	-9.12213
▁پارک	-9.12213
▁آورد	-9.14015
▁باخت	-9.14015
▁بعدا	-9.14015
▁تنش	-9.14015
▁توانسته	-9.14015
▁تک	-9.14015
▁درجه	-9.14015
▁شد؛	-9.14015
▁شناسی	-9.14015
▁علوم	-9.14015
▁فرمانده	-9.14015
▁قالیباف	-9.14015
▁ماده	-9.14015
▁ماههای	-9.14015
▁مریخ	-9.14015
▁موسوم	-9.14015
▁میراث	-9.14015
▁نادال	-9.14015
▁ندارد.	-9.14015
▁نور	-9.14015
▁نیویورک	-9.14015
▁وکیل	-9.14015
▁پزشک	-9.14015
▁چهل	-9.14015
▁اطلاعاتی	-9.15849
▁افتاد	-9.15849
▁بازنشستگان	-9.15849
▁ثانیه	-9.15849
▁جاده	-9.15849
▁جلوی	-9.15849
▁حداکثر	-9.15849
▁خسارت	-9.15849
▁خودرو؛	-9.15849
▁سالهای	-9.15849
▁شیوه	-9.15849
▁عباسی	-9.15849
▁فن	-9.15849
▁منتقدان	-9.15849
▁مهمترین	-9.15849
▁میانه	-9.15849
▁نوروز	-9.15849
▁واقعیت	-9.15849
▁کشورهایی	-9.15849
▁امیدوار	-9.17719
▁اندازی	-9.17719
▁ایستگاه	-9.17719
▁بازسازی	-9.17719
▁بان	-9.17719
▁تاسیسات	-9.17719
▁توانایی	-9.17719
▁خشونت	-9.17719
▁داشتن	-9.17719
▁درک	-9.17719
▁سامانه	-9.17719
▁ضبط	-9.17719
▁مالک	-9.17719
▁ماموریت	-9.17719
▁محبوب	-9.17719
▁محققان	-9.17719
▁مخالف	-9.17719
▁مصنوعی	-9.17719
▁پروتکل	-9.17719
▁کردم	-9.17719
▁گرانی	-9.17719
▁گلستان	-9.17719
▁گیرد	-9.17719
▁آمیز	-9.19624
▁آکادمی	-9.19624
▁باری	-9.19624
▁بنیاد	-9.19624
▁جهت	-9.19624
▁جواد	-9.19624
▁حاکی	-9.19624
▁حیات	-9.19624
▁دارای	-9.19624
▁رادیو	-9.19624
▁رقیب	-9.19624
▁شد،	-9.19624
▁صف	-9.19624
▁قبول	-9.19624
▁قلبی	-9.19624
▁لس	-9.19624
▁مسائل	-9.19624
▁مطابق	-9.19624
▁نباید	-9.19624
▁ورزشکاران	-9.19624
▁پایه	-9.19624
▁پست	-9.19624
▁کارمندان	-9.19624
▁کنیم.	-9.19624
▁کوه	-9.19624
▁اتفاقات	-9.21565
▁اداری	-9.21565
▁اصفهان	-9.21565
▁تئاتر	-9.21565
▁ترس	-9.21565
▁حکام	-9.21565
▁خلیج	-9.21565
▁دستمزد	-9.21565
▁دید	-9.21565
▁شهروند	-9.21565
▁فرستاده	-9.21565
▁فیلمی	-9.21565
▁قالب	-9.21565
▁قربانیان	-9.21565
▁قوی	-9.21565
▁لیونل	-9.21565
▁محمدی	-9.21565
▁نبوده	-9.21565
▁نرم	-9.21565
▁نفس	-9.21565
▁نوعی	-9.21565
▁هاست	-9.21565
▁پدیده	-9.21565
▁گفته:	-9.21565
▁آرسنال	-9.23546
▁آهن	-9.23546
▁آید	-9.23546
▁اجاره	-9.23546
▁اصل	-9.23546
▁برآورد	-9.23546
▁جایگاه	-9.23546
▁حجم	-9.23546
▁خاطره	-9.23546
▁رانندگان	-9.23546
▁سرخ	-9.23546
▁سلیمانی	-9.23546
▁شهرداری	-9.23546
▁شهریور	-9.23546
▁صلاحیت	-9.23546
▁صنعتی	-9.23546
▁ظرف	-9.23546
▁غذایی	-9.23546
▁فرزند	-9.23546
▁فرودگاه	-9.23546
▁مشمول	-9.23546
▁میلان	-9.23546
▁همتی	-9.23546
▁چطور	-9.23546
▁کلاس	-9.23546
▁۲۹	-9.23546
▁آنجلس	-9.25566
▁اقلیم	-9.25566
▁الهام	-9.25566
▁اکبر	-9.25566
▁ایسنا	-9.25566
▁بازرسی	-9.25566
▁باشند.	-9.25566
▁تری	-9.25566
▁توزیع	-9.25566
▁جدا	-9.25566
▁حس	-9.25566
▁خیریه	-9.25566
▁دهند.	-9.25566
▁دیدن	-9.25566
▁دیپلماسی	-9.25566
▁دیگران	-9.25566
▁راجر	-9.25566
▁شغل	-9.25566
▁ضد	-9.25566
▁عکاسی	-9.25566
▁فوری	-9.25566
▁ماجرا	-9.25566
▁مبنی	-9.25566
▁مرسدس	-9.25566
▁نداده	-9.25566
▁نقاش	-9.25566
▁پلاس	-9.25566
▁گری	-9.25566
▁گفتند	-9.25566
▁گوش	-9.25566
▁آنکه	-9.27628
▁اتریش	-9.27628
▁الدین	-9.27628
▁الملل	-9.27628
▁اوضاع	-9.27628
▁ایتالیایی	-9.27628
▁بتواند	-9.27628
▁تردد	-9.27628
▁تماشاگران	-9.27628
▁جبران	-9.27628
▁رسما	-9.27628
▁روانی	-9.27628
▁سپتامبر	-9.27628
▁فرود	-9.27628
▁مجسمه	-9.27628
▁مدال	-9.27628
▁معتبر	-9.27628
▁مهار	-9.27628
▁پدرش	-9.27628
▁پسر	-9.27628
▁پیروز	-9.27628
▁کندمنبع	-9.27628
▁کیلومتری	-9.27628
▁گام	-9.27628
▁گذاران	-9.27628
▁یخ	-9.27628
▁یوونتوس	-9.27628
▁آمادگی	-9.29733
▁آور	-9.29733
▁اس	-9.29733
▁اطلاعیه	-9.29733
▁امارات	-9.29733
▁ایده	-9.29733
▁ایرنا	-9.29733
▁برگشت	-9.29733
▁ترجمه	-9.29733
▁جنجالی	-9.29733
▁خوش	-9.29733
▁داریم	-9.29733
▁رده	-9.29733
▁زاد	-9.29733
▁سخن	-9.29733
▁سواری	-9.29733
▁صاحب	-9.29733
▁عرصه	-9.29733
▁قاسم	-9.29733
▁مایکل	-9.29733
▁موشک	-9.29733
▁نطنز	-9.29733
▁نهم	-9.29733
▁هستیم	-9.29733
▁ورزشکار	-9.29733
▁پالایشگاه	-9.29733
▁کلوپ	-9.29733
▁ابراهیم	-9.31884
▁اخبار	-9.31884
▁ازدواج	-9.31884
▁بتوانند	-9.31884
▁برداشته	-9.31884
▁تحصیل	-9.31884
▁تعرفه	-9.31884
▁جوانان	-9.31884
▁حملات	-9.31884
▁حوادث	-9.31884
▁خاص	-9.31884
▁خواند	-9.31884
▁دریاچه	-9.31884
▁سالن	-9.31884
▁سرانجام	-9.31884
▁سوزی	-9.31884
▁عدد	-9.31884
▁فولاد	-9.31884
▁قول	-9.31884
▁مجیدی	-9.31884
▁محسوب	-9.31884
▁مستقل	-9.31884
▁ملایی	-9.31884
▁مهمی	-9.31884
▁نویس	-9.31884
▁هایشان	-9.31884
▁پاس	-9.31884
▁پزشکان	-9.31884
▁چقدر	-9.31884
▁کارت	-9.31884
▁کلیه	-9.31884
▁گردشگری	-9.31884
▁اجلاس	-9.34082
▁ارزهای	-9.34082
▁امیر	-9.34082
▁اهواز	-9.34082
▁ایستاده	-9.34082
▁بچه	-9.34082
▁تست	-9.34082
▁توجهی	-9.34082
▁جذاب	-9.34082
▁دسامبر	-9.34082
▁دستگیر	-9.34082
▁دعوت	-9.34082
▁دیجیتال	-9.34082
▁سالم	-9.34082
▁سالگرد	-9.34082
▁شهری	-9.34082
▁صرافی	-9.34082
▁مجاز	-9.34082
▁مردی	-9.34082
▁مقصد	-9.34082
▁مناسب	-9.34082
▁منتظر	-9.34082
▁نحوه	-9.34082
▁ندارند	-9.34082
▁ها،	-9.34082
▁هوای	-9.34082
▁پرتاب	-9.34082
▁پنجاه	-9.34082
▁چگونگی	-9.34082
▁کند.این	-9.34082
▁گواردیولا	-9.34082
▁گیر	-9.34082
▁۱۳۹۷	-9.34082
▁۴۰۰	-9.34082
▁آزار	-9.36329
▁آفریقا	-9.36329
▁است.با	-9.36329
▁اطمینان	-9.36329
▁افسانه	-9.36329
▁برسد	-9.36329
▁بیان	-9.36329
▁تولد	-9.36329
▁تکذیب	-9.36329
▁جامع	-9.36329
▁جلب	-9.36329
▁جودو	-9.36329
▁حاوی	-9.36329
▁خودروسازان	-9.36329
▁خودشان	-9.36329
▁دانست	-9.36329
▁دلاری	-9.36329
▁ذهن	-9.36329
▁رو	-9.36329
▁رونق	-9.36329
▁سالی	-9.36329
▁ساکن	-9.36329
▁شصت	-9.36329
▁ظرفیت	-9.36329
▁فیسبوک	-9.36329
▁نوروزی	-9.36329
▁همسرش	-9.36329
▁هوشمندی	-9.36329
▁پاری	-9.36329
▁پوست	-9.36329
▁پولشویی	-9.36329
▁پیاپی	-9.36329
▁ژافره	-9.36329
▁کارگری	-9.36329
▁گردد	-9.36329
▁یافت.	-9.36329
▁آزادسازی	-9.38628
▁اطراف	-9.38628
▁انداخته	-9.38628
▁اهل	-9.38628
▁بردن	-9.38628
▁بند	-9.38628
▁بنیان	-9.38628
▁بهره	-9.38628
▁تاسیس	-9.38628
▁تخت	-9.38628
▁تشویق	-9.38628
▁جسد	-9.38628
▁حامل	-9.38628
▁خاتمی	-9.38628
▁خودروسازی	-9.38628
▁خودکشی	-9.38628
▁دبیر	-9.38628
▁دل	-9.38628
▁دمای	-9.38628
▁دهنده	-9.38628
▁ریشه	-9.38628
▁زودتر	-9.38628
▁سرپرست	-9.38628
▁شاملو	-9.38628
▁شهرت	-9.38628
▁عمیق	-9.38628
▁فرار	-9.38628
▁فروخته	-9.38628
▁قضاییه	-9.38628
▁مراجعه	-9.38628
▁معتقدند	-9.38628
▁موثر	-9.38628
▁ناسا	-9.38628
▁نامش	-9.38628
▁نمایندگی	-9.38628
▁نکته	-9.38628
▁ژاپنی	-9.38628
▁کالاها	-9.38628
▁گزینه	-9.38628
▁یافتن	-9.38628
▁۲۰۱۵	-9.38628
▁۴۵	-9.38628
▁آلوده	-9.40981
▁اسپانیایی	-9.40981
▁انواع	-9.40981
▁او	-9.40981
▁بد	-9.40981
▁بندر	-9.40981
▁تبعیض	-9.40981
▁تولیدکنندگان	-9.40981
▁تپه	-9.40981
▁تکرار	-9.40981
▁حالت	-9.40981
▁خودداری	-9.40981
▁دادند.	-9.40981
▁دانند	-9.40981
▁دشوار	-9.40981
▁رحمان	-9.40981
▁روزه	-9.40981
▁رویکرد	-9.40981
▁سوپر	-9.40981
▁شهرستان	-9.40981
▁عکاس	-9.40981
▁قلب	-9.40981
▁متحد	-9.40981
▁محصول	-9.40981
▁مختلفی	-9.40981
▁مشاغل	-9.40981
▁مشهد	-9.40981
▁موتور	-9.40981
▁ندارند.	-9.40981
▁نشد	-9.40981
▁هلند	-9.40981
▁هویت	-9.40981
▁ویمبلدون	-9.40981
▁پرچم	-9.40981
▁پکن	-9.40981
▁ژرمن	-9.40981
▁کرد؛	-9.40981
▁کند؛	-9.40981
▁کی	-9.40981
▁کیفیت	-9.40981
▁گذار	-9.40981
▁آمدن	-9.43391
▁ابتدایی	-9.43391
▁است:	-9.43391
▁اسدی	-9.43391
▁انتظامی	-9.43391
▁اندونزی	-9.43391
▁بابا	-9.43391
▁بدست	-9.43391
▁بنابر	-9.43391
▁بهای	-9.43391
▁تحقیقاتی	-9.43391
▁جزو	-9.43391
▁خاصی	-9.43391
▁خورشید	-9.43391
▁درمانی	-9.43391
▁دوز	-9.43391
▁رغم	-9.43391
▁رویداد	-9.43391
▁سخنان	-9.43391
▁سیما	-9.43391
▁شهرسازی	-9.43391
▁صدها	-9.43391
▁طبیعت	-9.43391
▁طرفداران	-9.43391
▁عذرخواهی	-9.43391
▁غول	-9.43391
▁فراز	-9.43391
▁فعلا	-9.43391
▁قله	-9.43391
▁مادرش	-9.43391
▁مسعود	-9.43391
▁نفوذ	-9.43391
▁نیمی	-9.43391
▁پایگاه	-9.43391
▁کانادا	-9.43391
▁کاپیتان	-9.43391
▁۳۲	-9.43391
▁افزود	-9.4586
▁اموال	-9.4586
▁بسکتبال	-9.4586
▁تماشاگر	-9.4586
▁خام	-9.4586
▁خدمه	-9.4586
▁خلاف	-9.4586
▁دستورالعمل	-9.4586
▁دفاعی	-9.4586
▁رمز	-9.4586
▁ساده	-9.4586
▁سازنده	-9.4586
▁سایه	-9.4586
▁سفرهای	-9.4586
▁عاصمی	-9.4586
▁عید	-9.4586
▁فراموش	-9.4586
▁متعددی	-9.4586
▁متن	-9.4586
▁نامزدهای	-9.4586
▁نفع	-9.4586
▁نمایشی	-9.4586
▁هفتاد	-9.4586
▁پنهان	-9.4586
▁چارچوب	-9.4586
▁چهارمین	-9.4586
▁کرونا،	-9.4586
▁۲۰۱۴	-9.4586
▁۲۷	-9.4586
▁۶۰۰	-9.4586
▁آرام	-9.48392
▁ابتلای	-9.48392
▁استانبول	-9.48392
▁استعفا	-9.48392
▁اظهار	-9.48392
▁امضای	-9.48392
▁اینستاگرام	-9.48392
▁اینها	-9.48392
▁بازدید	-9.48392
▁بازیکنی	-9.48392
▁بازیگران	-9.48392
▁باور	-9.48392
▁برخوردار	-9.48392
▁تجاوز	-9.48392
▁تعطیلات	-9.48392
▁تعلیق	-9.48392
▁تلفن	-9.48392
▁خطرناک	-9.48392
▁دریا	-9.48392
▁دیوار	-9.48392
▁روزی	-9.48392
▁ست	-9.48392
▁شانس	-9.48392
▁شرکتهای	-9.48392
▁شود،	-9.48392
▁ضروری	-9.48392
▁عضویت	-9.48392
▁قطعه	-9.48392
▁لبنان	-9.48392
▁لحاظ	-9.48392
▁متوالی	-9.48392
▁مجازات	-9.48392
▁محرومیت	-9.48392
▁مدیرکل	-9.48392
▁مشتریان	-9.48392
▁مطلب	-9.48392
▁معدن	-9.48392
▁موضع	-9.48392
▁ناظر	-9.48392
▁ناگهانی	-9.48392
▁نداشت	-9.48392
▁نشود	-9.48392
▁نماد	-9.48392
▁هنرهای	-9.48392
▁کالیفرنیا	-9.48392
▁آورد.	-9.50989
▁استخراج	-9.50989
▁اعتصاب	-9.50989
▁اولویت	-9.50989
▁برد.	-9.50989
▁تحلیل	-9.50989
▁تفاوت	-9.50989
▁حالیکه	-9.50989
▁حراج	-9.50989
▁داروی	-9.50989
▁داری	-9.50989
▁درخشان	-9.50989
▁دیوید	-9.50989
▁رفت.	-9.50989
▁ساحل	-9.50989
▁سلول	-9.50989
▁شاهین	-9.50989
▁شود.در	-9.50989
▁شود؛	-9.50989
▁صورتی	-9.50989
▁علائم	-9.50989
▁عملا	-9.50989
▁ما	-9.50989
▁معمول	-9.50989
▁مناسبت	-9.50989
▁مهاجرت	-9.50989
▁نشدن	-9.50989
▁نوبت	-9.50989
▁نود	-9.50989
▁هماهنگی	-9.50989
▁واقعا	-9.50989
▁پذیرش	-9.50989
▁پله	-9.50989
▁پنجمین	-9.50989
▁کارشناس	-9.50989
▁کارنامه	-9.50989
▁کشید	-9.50989
▁یارانه	-9.50989
▁یمن	-9.50989
▁۱۵۰	-9.50989
▁۲۰۱۱	-9.50989
▁۹۷	-9.50989
▁آموزشی	-9.53656
▁آواز	-9.53656
▁اتفاقی	-9.53656
▁اتومبیل	-9.53656
▁احضار	-9.53656
▁اختصاص	-9.53656
▁اختلال	-9.53656
▁استاندار	-9.53656
▁بابت	-9.53656
▁برداشت	-9.53656
▁برگزیده	-9.53656
▁تالاب	-9.53656
▁تراکتور	-9.53656
▁تشدید	-9.53656
▁تصاویری	-9.53656
▁تعریف	-9.53656
▁جزیره	-9.53656
▁خطاب	-9.53656
▁خطیب	-9.53656
▁درد	-9.53656
▁دیپلماتیک	-9.53656
▁ذخیره	-9.53656
▁روغن	-9.53656
▁سبب	-9.53656
▁سپرده	-9.53656
▁شد.این	-9.53656
▁شده.	-9.53656
▁شورا	-9.53656
▁طراح	-9.53656
▁عوارض	-9.53656
▁قطب	-9.53656
▁قلعه	-9.53656
▁لوازم	-9.53656
▁مالیاتی	-9.53656
▁مرور	-9.53656
▁مسئولیت	-9.53656
▁مسئولین	-9.53656
▁معلوم	-9.53656
▁نامداری	-9.53656
▁هست	-9.53656
▁وخیم	-9.53656
▁پنالتی	-9.53656
▁پوشش	-9.53656
▁ژنتیکی	-9.53656
▁کرد.این	-9.53656
▁گاه	-9.53656
▁گرنداسلم	-9.53656
▁گشایش	-9.53656
▁۷۰۰	-9.53656
▁اسناد	-9.56396
▁انداز	-9.56396
▁بازگرداندن	-9.56396
▁بنابراین	-9.56396
▁بگیرد.	-9.56396
▁تاثیری	-9.56396
▁حکومتی	-9.56396
▁دام	-9.56396
▁دیشب	-9.56396
▁سرایت	-9.56396
▁صادراتی	-9.56396
▁طبقه	-9.56396
▁فایزر	-9.56396
▁فرمان	-9.56396
▁فوتبالیست	-9.56396
▁فورد	-9.56396
▁فکری	-9.56396
▁فیوری	-9.56396
▁قدر	-9.56396
▁متفاوتی	-9.56396
▁ملاقات	-9.56396
▁مورینیو	-9.56396
▁موقع	-9.56396
▁نسخه	-9.56396
▁نژادپرستی	-9.56396
▁هاشمی	-9.56396
▁هتل	-9.56396
▁وارداتی	-9.56396
▁وانت	-9.56396
▁پیچیده	-9.56396
▁پیگیری	-9.56396
▁کادر	-9.56396
▁کانون	-9.56396
▁کردیم	-9.56396
▁آذر	-9.59213
▁آشنا	-9.59213
▁اجباری	-9.59213
▁اعتماد	-9.59213
▁امیدواری	-9.59213
▁اند.این	-9.59213
▁اند؛	-9.59213
▁اورتون	-9.59213
▁بطور	-9.59213
▁تحولات	-9.59213
▁تردید	-9.59213
▁تصمیمی	-9.59213
▁تماشای	-9.59213
▁جنجال	-9.59213
▁خبرساز	-9.59213
▁دخالت	-9.59213
▁ریال	-9.59213
▁سانسور	-9.59213
▁سقف	-9.59213
▁صدرنشین	-9.59213
▁صرف	-9.59213
▁عفو	-9.59213
▁علنی	-9.59213
▁ماراتن	-9.59213
▁مثال	-9.59213
▁محافظت	-9.59213
▁مذهبی	-9.59213
▁مساوی	-9.59213
▁منظور	-9.59213
▁نفره	-9.59213
▁نیازمند	-9.59213
▁نیمکت	-9.59213
▁هافبک	-9.59213
▁هجوم	-9.59213
▁پاییز	-9.59213
▁کربن	-9.59213
▁کنفدراسیون	-9.59213
▁کهکشان	-9.59213
▁گوشت	-9.59213
▁یابد	-9.59213
▁۳۳	-9.59213
▁۳۴	-9.59213
▁.آقای	-9.62112
▁آکسفورد	-9.62112
▁ازبکستان	-9.62112
▁ال	-9.62112
▁اند.منبع	-9.62112
▁ایم	-9.62112
▁بالینی	-9.62112
▁برقرار	-9.62112
▁برنت	-9.62112
▁بلینکن	-9.62112
▁بوکس	-9.62112
▁تماشا	-9.62112
▁جورج	-9.62112
▁خاورمیانه	-9.62112
▁خواهم	-9.62112
▁داشتند.	-9.62112
▁ذخایر	-9.62112
▁رحمانی	-9.62112
▁ردیف	-9.62112
▁رویدادهای	-9.62112
▁زمستان	-9.62112
▁سرنوشت	-9.62112
▁شود.منبع	-9.62112
▁شیر	-9.62112
▁شیری	-9.62112
▁صادقی	-9.62112
▁طوری	-9.62112
▁عظیم	-9.62112
▁فان	-9.62112
▁فراتر	-9.62112
▁فروشگاه	-9.62112
▁فصلی	-9.62112
▁فضا	-9.62112
▁فولکس	-9.62112
▁مارک	-9.62112
▁محرمانه	-9.62112
▁مدارس	-9.62112
▁مشاور	-9.62112
▁نایب	-9.62112
▁نساجی	-9.62112
▁نیرو	-9.62112
▁نیستند	-9.62112
▁هفتم	-9.62112
▁واگذاری	-9.62112
▁واگن	-9.62112
▁پرس	-9.62112
▁پیوسته	-9.62112
▁کارمند	-9.62112
▁کشاورزی	-9.62112
▁گرفتند	-9.62112
▁۷۵	-9.62112
▁'به	-9.65097
▁آزمایشی	-9.65097
▁آمد.	-9.65097
▁ارتباطات	-9.65097
▁اضطراری	-9.65097
▁اقدامی	-9.65097
▁اقلام	-9.65097
▁اکثر	-9.65097
▁باد	-9.65097
▁بازنشسته	-9.65097
▁برادر	-9.65097
▁بشری	-9.65097
▁تبار	-9.65097
▁تقسیم	-9.65097
▁توییت	-9.65097
▁تکمیل	-9.65097
▁خفاش	-9.65097
▁خمینی	-9.65097
▁خورد	-9.65097
▁دادستان	-9.65097
▁دانیم	-9.65097
▁داوران	-9.65097
▁داوطلبان	-9.65097
▁دیه	-9.65097
▁رساند	-9.65097
▁رسانی	-9.65097
▁سرود	-9.65097
▁سلاح	-9.65097
▁سلطنت	-9.65097
▁سوئیسی	-9.65097
▁شد.منبع	-9.65097
▁شگفت	-9.65097
▁شیشه	-9.65097
▁ضرب	-9.65097
▁عاشق	-9.65097
▁عبوری	-9.65097
▁عرب	-9.65097
▁عشق	-9.65097
▁عمدتا	-9.65097
▁عمر	-9.65097
▁عمق	-9.65097
▁غیررسمی	-9.65097
▁غیرمستقیم	-9.65097
▁لذت	-9.65097
▁مدنی	-9.65097
▁مقاله	-9.65097
▁مهرداد	-9.65097
▁میانگین	-9.65097
▁نابودی	-9.65097
▁نصب	-9.65097
▁هوشمند	-9.65097
▁وام	-9.65097
▁کجا	-9.65097
▁۴۲	-9.65097
▁آذربایجان	-9.68174
▁اسکاتلند	-9.68174
▁افتخار	-9.68174
▁اقامت	-9.68174
▁اماکن	-9.68174
▁باند	-9.68174
▁بخت	-9.68174
▁برداری	-9.68174
▁بلافاصله	-9.68174
▁بهتری	-9.68174
▁بود،	-9.68174
▁تائید	-9.68174
▁تاجیک	-9.68174
▁توافقی	-9.68174
▁جواب	-9.68174
▁حقیقت	-9.68174
▁حیوانات	-9.68174
▁خودم	-9.68174
▁داند	-9.68174
▁درحال	-9.68174
▁درحالی	-9.68174
▁روان	-9.68174
▁زیرا	-9.68174
▁سرد	-9.68174
▁سواحل	-9.68174
▁سپری	-9.68174
▁صادرکنندگان	-9.68174
▁طلای	-9.68174
▁طلایی	-9.68174
▁عطر	-9.68174
▁علم	-9.68174
▁فاش	-9.68174
▁فقر	-9.68174
▁قدم	-9.68174
▁لی	-9.68174
▁ماند	-9.68174
▁ماند.	-9.68174
▁ماندن	-9.68174
▁متری	-9.68174
▁مصدومیت	-9.68174
▁منع	-9.68174
▁نان	-9.68174
▁نظریه	-9.68174
▁پرورش	-9.68174
▁پل	-9.68174
▁پهلوی	-9.68174
▁پژوهشگر	-9.68174
▁کارآزمایی	-9.68174
▁کارش	-9.68174
▁کاوشگر	-9.68174
▁کریستیانو	-9.68174
▁کنم.	-9.68174
▁کوتاهی	-9.68174
▁کیلوگرم	-9.68174
▁گوشه	-9.68174
▁گیرد.	-9.68174
▁۰	-9.68174
▁۳۹	-9.68174
▁۹۶	-9.68174
▁آرامش	-9.71349
▁آزاده	-9.71349
▁آفریقای	-9.71349
▁آنتونی	-9.71349
▁اختلافات	-9.71349
▁اسب	-9.71349
▁اندکی	-9.71349
▁بازیکنانی	-9.71349
▁بالاخره	-9.71349
▁بخصوص	-9.71349
▁بران	-9.71349
▁بهشت	-9.71349
▁بیمارستانی	-9.71349
▁بیمه	-9.71349
▁تأمین	-9.71349
▁تبریز	-9.71349
▁تجهیزات	-9.71349
▁توانیم	-9.71349
▁جانشین	-9.71349
▁جنبش	-9.71349
▁حساس	-9.71349
▁خواب	-9.71349
▁دامن	-9.71349
▁رهبران	-9.71349
▁روح	-9.71349
▁سرنگونی	-9.71349
▁شبه	-9.71349
▁شد.در	-9.71349
▁ششم	-9.71349
▁شناور	-9.71349
▁شکسته	-9.71349
▁شیدا	-9.71349
▁ضرورت	-9.71349
▁طرحی	-9.71349
▁عبدالله	-9.71349
▁عربی	-9.71349
▁عملی	-9.71349
▁ماجرای	-9.71349
▁محاسبه	-9.71349
▁معنی	-9.71349
▁هشتاد	-9.71349
▁هشتم	-9.71349
▁هیجان	-9.71349
▁پادتن	-9.71349
▁پارلمان	-9.71349
▁پتروشیمی	-9.71349
▁چرخه	-9.71349
▁چنان	-9.71349
▁کرد،	-9.71349
▁کریمی	-9.71349
▁کس	-9.71349
▁کشاورز	-9.71349
▁کنفرانس	-9.71349
▁گوشی	-9.71349
▁گیرند	-9.71349
▁۲۰۰۰	-9.71349
▁۲۰۱۲	-9.71349
▁۴۸	-9.71349
▁آرایش	-9.74628
▁اصلا	-9.74628
▁ایرانمنبع	-9.74628
▁اینترنت	-9.74628
▁باشگاهی	-9.74628
▁بدترین	-9.74628
▁بودم	-9.74628
▁بودیم	-9.74628
▁تحمل	-9.74628
▁تحول	-9.74628
▁ترخیص	-9.74628
▁توطئه	-9.74628
▁توهین	-9.74628
▁حوثی	-9.74628
▁خاوران	-9.74628
▁خراسان	-9.74628
▁ذرات	-9.74628
▁رئیسی	-9.74628
▁زیبایی	-9.74628
▁سفارش	-9.74628
▁شنا	-9.74628
▁صندلی	-9.74628
▁غزنی	-9.74628
▁فاجعه	-9.74628
▁ماهواره	-9.74628
▁معتقد	-9.74628
▁مقدماتی	-9.74628
▁منافع	-9.74628
▁میناوند	-9.74628
▁نفری	-9.74628
▁نقشی	-9.74628
▁پاپ	-9.74628
▁پروفسور	-9.74628
▁چرخ	-9.74628
▁چیست	-9.74628
▁کارزار	-9.74628
▁کند،	-9.74628
▁گذاشت	-9.74628
▁گزارشگر	-9.74628
▁احترام	-9.78018
▁ارتباطی	-9.78018
▁اسامی	-9.78018
▁اسکناس	-9.78018
▁اسکی	-9.78018
▁امر	-9.78018
▁اپل	-9.78018
▁ایرانیان	-9.78018
▁ایست	-9.78018
▁برایش	-9.78018
▁برخلاف	-9.78018
▁بود.در	-9.78018
▁بیستم	-9.78018
▁تصادف	-9.78018
▁توماس	-9.78018
▁تیمش	-9.78018
▁جی	-9.78018
▁حضورش	-9.78018
▁حکایت	-9.78018
▁خداحافظی	-9.78018
▁خیابانی	-9.78018
▁درون	-9.78018
▁دقیقا	-9.78018
▁رسد.	-9.78018
▁ریه	-9.78018
▁زند	-9.78018
▁زهرا	-9.78018
▁سرقت	-9.78018
▁سو	-9.78018
▁سوار	-9.78018
▁شنیده	-9.78018
▁شهرها	-9.78018
▁شوماخر	-9.78018
▁عراقچی	-9.78018
▁غیرقابل	-9.78018
▁فرمانداری	-9.78018
▁فلوید	-9.78018
▁قیمتی	-9.78018
▁لوئیس	-9.78018
▁مادورو	-9.78018
▁متهمان	-9.78018
▁محکومیت	-9.78018
▁مخاطبان	-9.78018
▁مدار	-9.78018
▁مسجد	-9.78018
▁مسکونی	-9.78018
▁مشابهی	-9.78018
▁معاصر	-9.78018
▁مقدار	-9.78018
▁نباشد	-9.78018
▁نتوانسته	-9.78018
▁نرسیده	-9.78018
▁نقشه	-9.78018
▁همیلتون	-9.78018
▁هندی	-9.78018
▁والی	-9.78018
▁ویژگی	-9.78018
▁پانزده	-9.78018
▁پیامدهای	-9.78018
▁کلاسیک	-9.78018
▁گروسی	-9.78018
▁گلوله	-9.78018
▁گمرکی	-9.78018
▁یو	-9.78018
▁۲۰۲۲	-9.78018
▁۲۵۰	-9.78018
▁آشکار	-9.81527
▁ارشاد	-9.81527
▁استادیوم	-9.81527
▁اسلام	-9.81527
▁اعتبار	-9.81527
▁اولسان	-9.81527
▁ایرباس	-9.81527
▁بامیان	-9.81527
▁برگزیت	-9.81527
▁بهرنگ	-9.81527
▁توییتی	-9.81527
▁جانسون	-9.81527
▁جایگزین	-9.81527
▁جونز	-9.81527
▁خاطرات	-9.81527
▁خطوط	-9.81527
▁داستانی	-9.81527
▁دونده	-9.81527
▁رقمی	-9.81527
▁زانو	-9.81527
▁سهامداران	-9.81527
▁شاغل	-9.81527
▁شتاب	-9.81527
▁شرط	-9.81527
▁شود.این	-9.81527
▁شکنجه	-9.81527
▁صمت	-9.81527
▁فروشی	-9.81527
▁قاضی	-9.81527
▁لستر	-9.81527
▁لیسبون	-9.81527
▁مازندران	-9.81527
▁مبادله	-9.81527
▁مطمئن	-9.81527
▁معاونت	-9.81527
▁من	-9.81527
▁منتقد	-9.81527
▁ناپذیر	-9.81527
▁نقدی	-9.81527
▁نگرفته	-9.81527
▁هالیوود	-9.81527
▁هوش	-9.81527
▁هیئت	-9.81527
▁وایلدر	-9.81527
▁وضعیتی	-9.81527
▁وقوع	-9.81527
▁ویدیویی	-9.81527
▁پانصد	-9.81527
▁پنجره	-9.81527
▁پیشگیری	-9.81527
▁کاسته	-9.81527
▁کتابی	-9.81527
▁کسری	-9.81527
▁کن	-9.81527
▁کند.منبع	-9.81527
▁گذارد	-9.81527
▁یورگن	-9.81527
▁یکم	-9.81527
▁۲۰۱۰	-9.81527
▁آید.	-9.85164
▁اتهامات	-9.85164
▁اختصاصی	-9.85164
▁ارزها	-9.85164
▁اسم	-9.85164
▁اسماعیلی	-9.85164
▁اشتغال	-9.85164
▁اعزام	-9.85164
▁الحاقی	-9.85164
▁اند.در	-9.85164
▁اند،	-9.85164
▁اوبر	-9.85164
▁ایام	-9.85164
▁ب	-9.85164
▁باخته	-9.85164
▁بازیگری	-9.85164
▁برود	-9.85164
▁بغداد	-9.85164
▁تاکسی	-9.85164
▁تایسون	-9.85164
▁تبلیغ	-9.85164
▁تبلیغاتی	-9.85164
▁تجدید	-9.85164
▁تگزاس	-9.85164
▁ثبات	-9.85164
▁جانی	-9.85164
▁حلقه	-9.85164
▁درخت	-9.85164
▁درهای	-9.85164
▁ذوب	-9.85164
▁ربات	-9.85164
▁زمینی	-9.85164
▁سران	-9.85164
▁سرزمین	-9.85164
▁شده؛	-9.85164
▁شناس	-9.85164
▁شودمنبع	-9.85164
▁عبارت	-9.85164
▁عکسی	-9.85164
▁فیلمنامه	-9.85164
▁قابلیت	-9.85164
▁قدم؛	-9.85164
▁قراردادی	-9.85164
▁مجمع	-9.85164
▁مجهز	-9.85164
▁محیطی	-9.85164
▁مسافر	-9.85164
▁مطلع	-9.85164
▁مغزی	-9.85164
▁ملک	-9.85164
▁منتهی	-9.85164
▁منچسترسیتی	-9.85164
▁موبایل	-9.85164
▁میر	-9.85164
▁ناحیه	-9.85164
▁نادر	-9.85164
▁نامیده	-9.85164
▁نداریم	-9.85164
▁نظامیان	-9.85164
▁نمایشگر	-9.85164
▁نیروگاه	-9.85164
▁هرچه	-9.85164
▁واکسینه	-9.85164
▁وبسایت	-9.85164
▁وستهم	-9.85164
▁ویدیو	-9.85164
▁پذیرفته	-9.85164
▁پرده	-9.85164
▁پرفروش	-9.85164
▁کلمبیا	-9.85164
▁کماکان	-9.85164
▁گذاشت.	-9.85164
▁گرچه	-9.85164
▁گمان	-9.85164
▁گورستان	-9.85164
▁۴۴	-9.85164
▁۵۵	-9.85164
▁آتی	-9.88938
▁آرژانتینی	-9.88938
▁استراماچونی	-9.88938
▁اصناف	-9.88938
▁اطلس	-9.88938
▁افشار	-9.88938
▁امتیازی	-9.88938
▁باران	-9.88938
▁بازرسان	-9.88938
▁بتوان	-9.88938
▁بدتر	-9.88938
▁برکنار	-9.88938
▁بلژیک	-9.88938
▁بود.این	-9.88938
▁تاثیرگذار	-9.88938
▁تب	-9.88938
▁تبعات	-9.88938
▁تسلیحاتی	-9.88938
▁تظاهرات	-9.88938
▁تنفسی	-9.88938
▁حیرت	-9.88938
▁خان	-9.88938
▁خشکی	-9.88938
▁خواستند	-9.88938
▁خودروها	-9.88938
▁خودروی	-9.88938
▁دادمنبع	-9.88938
▁دانشمند	-9.88938
▁دستگیری	-9.88938
▁دیگو	-9.88938
▁راحت	-9.88938
▁رستوران	-9.88938
▁رسیدمنبع	-9.88938
▁رها	-9.88938
▁سایپا	-9.88938
▁سراسری	-9.88938
▁سوئد	-9.88938
▁شفاف	-9.88938
▁شوروی	-9.88938
▁صالح	-9.88938
▁ضرر	-9.88938
▁عادت	-9.88938
▁عروسک	-9.88938
▁عفونت	-9.88938
▁عمان	-9.88938
▁فاز	-9.88938
▁فرآیند	-9.88938
▁فوتبالی	-9.88938
▁قاجار	-9.88938
▁قادر	-9.88938
▁قایق	-9.88938
▁قبادی	-9.88938
▁قصه	-9.88938
▁قیمتها	-9.88938
▁لمس	-9.88938
▁مجید	-9.88938
▁محمدجواد	-9.88938
▁مراحل	-9.88938
▁مریم	-9.88938
▁مساله	-9.88938
▁مصوب	-9.88938
▁معافیت	-9.88938
▁موافق	-9.88938
▁میانی	-9.88938
▁ناخالص	-9.88938
▁نادیده	-9.88938
▁نشینی	-9.88938
▁نویسی	-9.88938
▁هنگامی	-9.88938
▁وسایل	-9.88938
▁پرتغال	-9.88938
▁پروانه	-9.88938
▁کانری	-9.88938
▁گذاشتن	-9.88938
▁گردن	-9.88938
▁۳۸	-9.88938
▁۵۷	-9.88938
▁۶۵	-9.88938
▁آل	-9.9286
▁آمریکای	-9.9286
▁آنقدر	-9.9286
▁ادعا	-9.9286
▁اشرف	-9.9286
▁اشک	-9.9286
▁اقلیمی	-9.9286
▁امکانات	-9.9286
▁انفرادی	-9.9286
▁انگیزه	-9.9286
▁اگر	-9.9286
▁ایلنا	-9.9286
▁باتری	-9.9286
▁باختگان	-9.9286
▁باغ	-9.9286
▁بدی	-9.9286
▁برابری	-9.9286
▁برسد.	-9.9286
▁برندگان	-9.9286
▁بلیت	-9.9286
▁بنیانگذار	-9.9286
▁بیلسا	-9.9286
▁تبلیغات	-9.9286
▁ترکیبی	-9.9286
▁تعدیل	-9.9286
▁تفحص	-9.9286
▁ثمر	-9.9286
▁جوانی	-9.9286
▁خشک	-9.9286
▁دادگاهی	-9.9286
▁دامنه	-9.9286
▁داوطلب	-9.9286
▁دسترس	-9.9286
▁دوام	-9.9286
▁رویارویی	-9.9286
▁زرد	-9.9286
▁زلزله	-9.9286
▁سانتی	-9.9286
▁سرنشینان	-9.9286
▁سرکوب	-9.9286
▁سنا	-9.9286
▁شواهد	-9.9286
▁شویم	-9.9286
▁شک	-9.9286
▁طبری	-9.9286
▁طلبان	-9.9286
▁ظاهرا	-9.9286
▁عراقی	-9.9286
▁عزاداری	-9.9286
▁عوض	-9.9286
▁فتح	-9.9286
▁فریاد	-9.9286
▁قربانی	-9.9286
▁لیدز	-9.9286
▁مدیره	-9.9286
▁مراسمی	-9.9286
▁مشورت	-9.9286
▁مطهری	-9.9286
▁مفید	-9.9286
▁مقاومت	-9.9286
▁موانع	-9.9286
▁مکرون	-9.9286
▁مگاوات	-9.9286
▁نبود.	-9.9286
▁نوجوان	-9.9286
▁همجنس	-9.9286
▁واژه	-9.9286
▁واگذار	-9.9286
▁ولسوالی	-9.9286
▁پرافتخارترین	-9.9286
▁پرنده	-9.9286
▁پلاستیکی	-9.9286
▁پولی	-9.9286
▁پیست	-9.9286
▁پیوستن	-9.9286
▁چابهار	-9.9286
▁چشمگیر	-9.9286
▁چندی	-9.9286
▁کرد.در	-9.9286
▁کمترین	-9.9286
▁گذرد	-9.9286
▁گروگان	-9.9286
▁گمانه	-9.9286
▁۴۳	-9.9286
▁۹۵	-9.9286
▁آدم	-9.96943
▁آمریکا،	-9.96943
▁آوردن	-9.96943
▁است.اما	-9.96943
▁استدر	-9.96943
▁افزار	-9.96943
▁اقلیت	-9.96943
▁التهاب	-9.96943
▁اهالی	-9.96943
▁ایفای	-9.96943
▁بدل	-9.96943
▁برانگیز	-9.96943
▁برایتون	-9.96943
▁برقراری	-9.96943
▁برون	-9.96943
▁بشار	-9.96943
▁بماند	-9.96943
▁بورل	-9.96943
▁ترجیح	-9.96943
▁تروریستی	-9.96943
▁تلخ	-9.96943
▁تلفنی	-9.96943
▁توانستند	-9.96943
▁توانم	-9.96943
▁تکان	-9.96943
▁جاسوسی	-9.96943
▁جلسات	-9.96943
▁جلو	-9.96943
▁جنبه	-9.96943
▁خدمت	-9.96943
▁خرج	-9.96943
▁خلوص	-9.96943
▁خوان	-9.96943
▁خواندن	-9.96943
▁خواه	-9.96943
▁خوردن	-9.96943
▁دائم	-9.96943
▁دادگستری	-9.96943
▁دانستند	-9.96943
▁دانشجویان	-9.96943
▁دستکم	-9.96943
▁دویست	-9.96943
▁راستای	-9.96943
▁راهبردی	-9.96943
▁رسانده	-9.96943
▁رنو	-9.96943
▁زنگنه	-9.96943
▁زکی	-9.96943
▁سالها	-9.96943
▁شارژ	-9.96943
▁شطرنج	-9.96943
▁شود.آقای	-9.96943
▁شیخ	-9.96943
▁صادرکننده	-9.96943
▁طیف	-9.96943
▁عبدالناصر	-9.96943
▁فرگوسن	-9.96943
▁فیزیک	-9.96943
▁قاطع	-9.96943
▁قدس	-9.96943
▁مادری	-9.96943
▁ماهنامه	-9.96943
▁متعدد	-9.96943
▁محمدعلی	-9.96943
▁مخفی	-9.96943
▁مدرن	-9.96943
▁مرجان	-9.96943
▁مصاف	-9.96943
▁مطالعات	-9.96943
▁معمولی	-9.96943
▁ناظران	-9.96943
▁نماز	-9.96943
▁نهاده	-9.96943
▁نواک	-9.96943
▁نوسان	-9.96943
▁هاوس	-9.96943
▁هماهنگ	-9.96943
▁همیشگی	-9.96943
▁هنگ	-9.96943
▁وزیران	-9.96943
▁وسیع	-9.96943
▁وسیله	-9.96943
▁ولز	-9.96943
▁ون	-9.96943
▁ویلیام	-9.96943
▁پذیر	-9.96943
▁پروتئین	-9.96943
▁پپ	-9.96943
▁چندانی	-9.96943
▁کارهایی	-9.96943
▁کودکی	-9.96943
▁یاری	-9.96943
▁یمانی	-9.96943
▁یوفا	-9.96943
▁۲۰۰۸	-9.96943
▁۲۰۲۰)	-9.96943
▁۴۲۰۰	-9.96943
▁۴۹	-9.96943
▁۶۷	-9.96943
▁'	-10.012
▁آسان	-10.012
▁اردلان	-10.012
▁است.از	-10.012
▁اصلاحات	-10.012
▁انتخابی	-10.012
▁انتقادها	-10.012
▁اند.به	-10.012
▁اوکراین	-10.012
▁باستانی	-10.012
▁بالایی	-10.012
▁بحرانی	-10.012
▁بخوانید:	-10.012
▁برعهده	-10.012
▁برقی	-10.012
▁بعدازظهر	-10.012
▁تابلوی	-10.012
▁تایمز	-10.012
▁تحقیقی	-10.012
▁تحمیل	-10.012
▁تخصیص	-10.012
▁تروریسم	-10.012
▁تنهایی	-10.012
▁ثروت	-10.012
▁جانبی	-10.012
▁جدایی	-10.012
▁جرم	-10.012
▁حمایتی	-10.012
▁خواهی	-10.012
▁خودران	-10.012
▁دارویی	-10.012
▁داریم.	-10.012
▁دانست.	-10.012
▁دشواری	-10.012
▁دفن	-10.012
▁رمزارزها	-10.012
▁روزگار	-10.012
▁زنند	-10.012
▁زوال	-10.012
▁زود	-10.012
▁زیان	-10.012
▁زیستی	-10.012
▁ستایش	-10.012
▁سد	-10.012
▁سرویس	-10.012
▁سلطان	-10.012
▁شناخت	-10.012
▁طلب	-10.012
▁ظهور	-10.012
▁فردوسی	-10.012
▁فیل	-10.012
▁قدمت	-10.012
▁متاسفانه	-10.012
▁متخصص	-10.012
▁متشکل	-10.012
▁محافظه	-10.012
▁محمدباقر	-10.012
▁محوطه	-10.012
▁مخصوص	-10.012
▁مرزهای	-10.012
▁مشکلاتی	-10.012
▁ملبورن	-10.012
▁مهاجر	-10.012
▁موشکی	-10.012
▁موضوعات	-10.012
▁موضوعی	-10.012
▁میلیاردها	-10.012
▁نخواهند	-10.012
▁نقص	-10.012
▁نمایشگاه	-10.012
▁نژادی	-10.012
▁واکنشی	-10.012
▁وظیفه	-10.012
▁پادشاه	-10.012
▁پرسش	-10.012
▁پوشیده	-10.012
▁پیمان	-10.012
▁پیکر	-10.012
▁کارلوس	-10.012
▁کریکت	-10.012
▁کشیدن	-10.012
▁کلیدی	-10.012
▁کناره	-10.012
▁کند.در	-10.012
▁کنگره	-10.012
▁کهن	-10.012
▁گرند	-10.012
▁گفت:	-10.012
▁یازده	-10.012
▁یونان	-10.012
▁۱۲۰	-10.012
▁۱۵۰۰	-10.012
▁۳۷	-10.012
▁آباد	-10.0564
▁آسیایی	-10.0564
▁ادعای	-10.0564
▁ارزان	-10.0564
▁ازای	-10.0564
▁اصرار	-10.0564
▁اعتراضی	-10.0564
▁اعداد	-10.0564
▁افتاد.	-10.0564
▁افکن	-10.0564
▁املاک	-10.0564
▁امن	-10.0564
▁امین	-10.0564
▁انتگرال	-10.0564
▁اهدا	-10.0564
▁اوکراینی	-10.0564
▁اکسیژن	-10.0564
▁اینتر	-10.0564
▁برلین	-10.0564
▁بست	-10.0564
▁بستن	-10.0564
▁بهرام	-10.0564
▁بود.منبع	-10.0564
▁بوش	-10.0564
▁بومی	-10.0564
▁تاپ	-10.0564
▁تعلق	-10.0564
▁تولیدات	-10.0564
▁جداگانه	-10.0564
▁جهانگیری	-10.0564
▁حیاتی	-10.0564
▁خبرهای	-10.0564
▁خلاصه	-10.0564
▁خوانندگان	-10.0564
▁خورد.	-10.0564
▁دایک	-10.0564
▁دستیابی	-10.0564
▁دیپلمات	-10.0564
▁راز	-10.0564
▁رساندن	-10.0564
▁روستای	-10.0564
▁روستایی	-10.0564
▁زاهدان	-10.0564
▁ساعاتی	-10.0564
▁ستارگان	-10.0564
▁سلطنتی	-10.0564
▁سیاره	-10.0564
▁شاخه	-10.0564
▁شعار	-10.0564
▁شکاف	-10.0564
▁شکلی	-10.0564
▁صبر	-10.0564
▁صرفا	-10.0564
▁صعودی	-10.0564
▁علاقمندان	-10.0564
▁غذای	-10.0564
▁فرا	-10.0564
▁فراری	-10.0564
▁فقیر	-10.0564
▁فلزی	-10.0564
▁محتوای	-10.0564
▁محقق	-10.0564
▁مدیترانه	-10.0564
▁مرخصی	-10.0564
▁مستقر	-10.0564
▁مصطفی	-10.0564
▁مهارت	-10.0564
▁موسسات	-10.0564
▁میوه	-10.0564
▁نامی	-10.0564
▁نبرد	-10.0564
▁نتانیاهو	-10.0564
▁نتوانست	-10.0564
▁نداشتند	-10.0564
▁هجومی	-10.0564
▁همراهی	-10.0564
▁هیأت	-10.0564
▁وحش	-10.0564
▁ویدئویی	-10.0564
▁ویلموتس	-10.0564
▁ویلیامز	-10.0564
▁پاک	-10.0564
▁پرندگان	-10.0564
▁پرهیز	-10.0564
▁پستان	-10.0564
▁پیراهن	-10.0564
▁پیشنهادی	-10.0564
▁کمال	-10.0564
▁کیم	-10.0564
▁گذارد.	-10.0564
▁۴۶	-10.0564
▁۸۰۰	-10.0564
▁.این	-10.103
▁،	-10.103
▁آزمایی	-10.103
▁آموزان	-10.103
▁آنفلوآنزا	-10.103
▁آهنگساز	-10.103
▁آیین	-10.103
▁ابزار	-10.103
▁اخلال	-10.103
▁ارتفاع	-10.103
▁استراحت	-10.103
▁استناد	-10.103
▁اسلم	-10.103
▁ایرلند	-10.103
▁باشید	-10.103
▁بزرگداشت	-10.103
▁بزند	-10.103
▁بعنوان	-10.103
▁بهایی	-10.103
▁تخلف	-10.103
▁تضعیف	-10.103
▁تعامل	-10.103
▁تورمی	-10.103
▁ثروتمندترین	-10.103
▁جدال	-10.103
▁جهانبخش	-10.103
▁جک	-10.103
▁حضوری	-10.103
▁خانوادگی	-10.103
▁ختم	-10.103
▁خرد	-10.103
▁خشم	-10.103
▁درس	-10.103
▁دقت	-10.103
▁دهیم	-10.103
▁راستی	-10.103
▁روبه	-10.103
▁روس	-10.103
▁روسی	-10.103
▁رولز	-10.103
▁رویه	-10.103
▁سئوال	-10.103
▁ساختن	-10.103
▁ساکنان	-10.103
▁سیل	-10.103
▁شخص	-10.103
▁شد.آقای	-10.103
▁شد.او	-10.103
▁شریک	-10.103
▁ششمین	-10.103
▁شمخانی	-10.103
▁صاحبان	-10.103
▁صادق	-10.103
▁صرفه	-10.103
▁عقیده	-10.103
▁عملیاتی	-10.103
▁غلبه	-10.103
▁فارغ	-10.103
▁فرم	-10.103
▁لوله	-10.103
▁ماشینی	-10.103
▁مالاریا	-10.103
▁ماهانه	-10.103
▁متمرکز	-10.103
▁محافظ	-10.103
▁محدودیتهای	-10.103
▁محسن	-10.103
▁مدارک	-10.103
▁مراتب	-10.103
▁مرغداران	-10.103
▁مشخصی	-10.103
▁ملکه	-10.103
▁ناجی	-10.103
▁نازی	-10.103
▁ناکامی	-10.103
▁نشانی	-10.103
▁نقد	-10.103
▁نکرد	-10.103
▁نکردن	-10.103
▁هامر	-10.103
▁وب	-10.103
▁وزارتخانه	-10.103
▁پراکنده	-10.103
▁پلاک	-10.103
▁پیامی	-10.103
▁ژنتیک	-10.103
▁کارگاه	-10.103
▁کاشی	-10.103
▁کشد	-10.103
▁کنکور	-10.103
▁گردشگران	-10.103
▁گفتگوها	-10.103
▁گلزنی	-10.103
▁گوگل	-10.103
▁۱۹۸۶	-10.103
▁۲۰۱۳	-10.103
▁۷۴	-10.103
▁۹۰۰	-10.103
▁۹۱	-10.103
▁آمارهای	-10.1517
▁آندره	-10.1517
▁اتمام	-10.1517
▁ارایه	-10.1517
▁ارمنستان	-10.1517
▁اریک	-10.1517
▁است.مقام	-10.1517
▁استاین	-10.1517
▁استخدام	-10.1517
▁استراتژیک	-10.1517
▁افتتاح	-10.1517
▁اما	-10.1517
▁امتحان	-10.1517
▁امشب	-10.1517
▁انبار	-10.1517
▁اکسید	-10.1517
▁بامداد	-10.1517
▁بخار	-10.1517
▁بدنه	-10.1517
▁بود.به	-10.1517
▁تعهد	-10.1517
▁تغییری	-10.1517
▁تلفیق	-10.1517
▁تمایل	-10.1517
▁تمرکز	-10.1517
▁جاستین	-10.1517
▁جالب	-10.1517
▁جسمی	-10.1517
▁جین	-10.1517
▁حریفان	-10.1517
▁حین	-10.1517
▁خانوارهای	-10.1517
▁خشکسالی	-10.1517
▁خوک	-10.1517
▁دادسرای	-10.1517
▁دبلیو	-10.1517
▁دروغ	-10.1517
▁دموکرات	-10.1517
▁ذکر	-10.1517
▁راموس	-10.1517
▁ربط	-10.1517
▁رتکلیف	-10.1517
▁رسمیت	-10.1517
▁رضوی	-10.1517
▁رنج	-10.1517
▁رود.	-10.1517
▁سالمندان	-10.1517
▁سراغ	-10.1517
▁سطحی	-10.1517
▁سوالات	-10.1517
▁سیف	-10.1517
▁شاغلان	-10.1517
▁شانه	-10.1517
▁شدیدی	-10.1517
▁شریفی	-10.1517
▁ضعیف	-10.1517
▁علیرغم	-10.1517
▁غافلگیر	-10.1517
▁غرق	-10.1517
▁فر	-10.1517
▁فرصتی	-10.1517
▁فرونشست	-10.1517
▁فرین	-10.1517
▁فلسفه	-10.1517
▁قدرتمند	-10.1517
▁قرارگاه	-10.1517
▁لحظات	-10.1517
▁لنون	-10.1517
▁مایک	-10.1517
▁مترجم	-10.1517
▁محدوده	-10.1517
▁مرگبار	-10.1517
▁مسافرتی	-10.1517
▁مسکو	-10.1517
▁مشروط	-10.1517
▁مشهورترین	-10.1517
▁مصوبات	-10.1517
▁مغازه	-10.1517
▁ملحق	-10.1517
▁منتفی	-10.1517
▁منحصر	-10.1517
▁موش	-10.1517
▁موظف	-10.1517
▁نادرست	-10.1517
▁نامزدها	-10.1517
▁نروژ	-10.1517
▁نسبی	-10.1517
▁نیوزیلند	-10.1517
▁هستیم.	-10.1517
▁هشتمین	-10.1517
▁هیوندای	-10.1517
▁وجه	-10.1517
▁وطن	-10.1517
▁وقفه	-10.1517
▁پلنگ	-10.1517
▁پوریا	-10.1517
▁پوشانده	-10.1517
▁پیشرفته	-10.1517
▁پیوند	-10.1517
▁چراغ	-10.1517
▁چشمگیری	-10.1517
▁ژان	-10.1517
▁کانسپت	-10.1517
▁کشور،	-10.1517
▁کنگ	-10.1517
▁کوچکی	-10.1517
▁گانه	-10.1517
▁یادآور	-10.1517
▁یادآوری	-10.1517
▁یازدهم	-10.1517
▁۱۰۰۰	-10.1517
▁۲۰۰۹	-10.1517
▁۵۲	-10.1517
▁۵۶	-10.1517
▁۷۷	-10.1517
▁.او	-10.203
▁آرامگاه	-10.203
▁آفتاب	-10.203
▁آگاه	-10.203
▁ابعاد	-10.203
▁اختلاس	-10.203
▁اردوغان	-10.203
▁استعفای	-10.203
▁اسپرت	-10.203
▁اسکیت	-10.203
▁اصطلاح	-10.203
▁اعدامیان	-10.203
▁الکترونیکی	-10.203
▁انصراف	-10.203
▁انگار	-10.203
▁اهداف	-10.203
▁اورژانس	-10.203
▁اپلیکیشن	-10.203
▁ایاصوفیه	-10.203
▁اید	-10.203
▁ایم.	-10.203
▁باشیم	-10.203
▁بجای	-10.203
▁بدهد	-10.203
▁برزیلی	-10.203
▁بود.آقای	-10.203
▁بود.او	-10.203
▁بگذارد	-10.203
▁بگویم	-10.203
▁بگیرند	-10.203
▁تالار	-10.203
▁ترسیم	-10.203
▁ترور	-10.203
▁تغییراتی	-10.203
▁تقابل	-10.203
▁تلف	-10.203
▁تنفس	-10.203
▁تهران،	-10.203
▁تور	-10.203
▁تکلیف	-10.203
▁ثامن	-10.203
▁جانشان	-10.203
▁جزییات	-10.203
▁جستجوی	-10.203
▁جمال	-10.203
▁جنسیت	-10.203
▁حافظه	-10.203
▁حاکم	-10.203
▁حداکثری	-10.203
▁حرکات	-10.203
▁حمید	-10.203
▁حیوان	-10.203
▁خاکسپاری	-10.203
▁خرابکاری	-10.203
▁خسارات	-10.203
▁خلاقیت	-10.203
▁خواهید	-10.203
▁خیانت	-10.203
▁دادستانی	-10.203
▁دارد؛	-10.203
▁دارم	-10.203
▁داشتم	-10.203
▁دانم	-10.203
▁دانمارک	-10.203
▁دبیرکل	-10.203
▁درانی	-10.203
▁دردسر	-10.203
▁درگذشتمنبع	-10.203
▁دنیامنبع	-10.203
▁دپ	-10.203
▁رئیسه	-10.203
▁رابرت	-10.203
▁راس	-10.203
▁رسول	-10.203
▁رسید؛	-10.203
▁رقص	-10.203
▁رویای	-10.203
▁ریاض	-10.203
▁زنانی	-10.203
▁زنجیره	-10.203
▁زوج	-10.203
▁زیرمجموعه	-10.203
▁ساکی	-10.203
▁سایبری	-10.203
▁سرفه	-10.203
▁سرمربیگری	-10.203
▁سناتور	-10.203
▁شاگردان	-10.203
▁شعبه	-10.203
▁شلوغ	-10.203
▁شهردار	-10.203
▁شون	-10.203
▁شوک	-10.203
▁شکار	-10.203
▁صحن	-10.203
▁صلاح	-10.203
▁ظهر	-10.203
▁عاملان	-10.203
▁عرض	-10.203
▁علامت	-10.203
▁فاقد	-10.203
▁فراوانی	-10.203
▁فرزندان	-10.203
▁فرو	-10.203
▁فلوریدا	-10.203
▁قراردادش	-10.203
▁قرص	-10.203
▁لاریجانی	-10.203
▁لایه	-10.203
▁لقب	-10.203
▁لواندوفسکی	-10.203
▁محاسبات	-10.203
▁محله	-10.203
▁مداوم	-10.203
▁مرتب	-10.203
▁مرزها	-10.203
▁مرمت	-10.203
▁مشتری	-10.203
▁مصادره	-10.203
▁مفهوم	-10.203
▁ملقب	-10.203
▁منتخب	-10.203
▁منوچهر	-10.203
▁مهرماه	-10.203
▁نامدار	-10.203
▁نشد.	-10.203
▁نمکی	-10.203
▁نه.	-10.203
▁نیک	-10.203
▁همسایه	-10.203
▁همگی	-10.203
▁همینطور	-10.203
▁هواپیماهای	-10.203
▁هوشنگ	-10.203
▁وست	-10.203
▁وسط	-10.203
▁ولیعهد	-10.203
▁ویران	-10.203
▁پارالمپیک	-10.203
▁پاسخی	-10.203
▁پرسی	-10.203
▁پنجه	-10.203
▁پژوهشی	-10.203
▁پیاده	-10.203
▁پیوست	-10.203
▁کادیلاک	-10.203
▁کرد.آقای	-10.203
▁کرده،	-10.203
▁کشی	-10.203
▁کووید۱۹	-10.203
▁گازی	-10.203
▁گرایانه	-10.203
▁گرایی	-10.203
▁گردد.	-10.203
▁گلف	-10.203
▁گیاهان	-10.203
▁گیرند.	-10.203
▁یوگا	-10.203
▁۳۶	-10.203
▁آفریقایی	-10.2571
▁آمریکا؛	-10.2571
▁آگهی	-10.2571
▁اتحاد	-10.2571
▁احتساب	-10.2571
▁احساسات	-10.2571
▁ارزشمند	-10.2571
▁اساسنامه	-10.2571
▁است؟منبع	-10.2571
▁استرالیایی	-10.2571
▁اسد	-10.2571
▁اعتقاد	-10.2571
▁اعضا	-10.2571
▁افکار	-10.2571
▁انصاریان	-10.2571
▁اوین	-10.2571
▁ایفا	-10.2571
▁باستان	-10.2571
▁برتری	-10.2571
▁بزوس	-10.2571
▁بعید	-10.2571
▁بهاییان	-10.2571
▁بوشهر	-10.2571
▁بینایی	-10.2571
▁بیکار	-10.2571
▁تخصصی	-10.2571
▁تدوین	-10.2571
▁تراشه	-10.2571
▁تسلیم	-10.2571
▁تسنیم	-10.2571
▁تعقیب	-10.2571
▁تفریحی	-10.2571
▁تکه	-10.2571
▁تیرماه	-10.2571
▁جنسیتی	-10.2571
▁جیب	-10.2571
▁حدی	-10.2571
▁خستگی	-10.2571
▁خیر	-10.2571
▁داروهای	-10.2571
▁داور	-10.2571
▁دستی	-10.2571
▁دهمین	-10.2571
▁دوج	-10.2571
▁دوحه	-10.2571
▁دوستان	-10.2571
▁دیگر،	-10.2571
▁رادیویی	-10.2571
▁رحم	-10.2571
▁رشوه	-10.2571
▁رضایت	-10.2571
▁رفتاری	-10.2571
▁رفتند	-10.2571
▁رقابتی	-10.2571
▁رم	-10.2571
▁روجا	-10.2571
▁رودخانه	-10.2571
▁روسای	-10.2571
▁رویس	-10.2571
▁زاویه	-10.2571
▁زباله	-10.2571
▁زد.	-10.2571
▁ساحلی	-10.2571
▁ساعات	-10.2571
▁سحر	-10.2571
▁سرتیپ	-10.2571
▁سلمان	-10.2571
▁سویه	-10.2571
▁سیامک	-10.2571
▁شایع	-10.2571
▁شهروندی	-10.2571
▁طنز	-10.2571
▁عروسی	-10.2571
▁غربالگری	-10.2571
▁فراوان	-10.2571
▁قطار	-10.2571
▁لاشه	-10.2571
▁لزوم	-10.2571
▁مادران	-10.2571
▁مامور	-10.2571
▁مان	-10.2571
▁مبدا	-10.2571
▁مبنای	-10.2571
▁مبهم	-10.2571
▁متناسب	-10.2571
▁مجانی	-10.2571
▁محبوبیت	-10.2571
▁محجوبی	-10.2571
▁مردمی	-10.2571
▁مسایل	-10.2571
▁مسیحی	-10.2571
▁معتبرترین	-10.2571
▁معترض	-10.2571
▁معیشتی	-10.2571
▁منزل	-10.2571
▁موکول	-10.2571
▁ناصر	-10.2571
▁ناپدید	-10.2571
▁ناگهان	-10.2571
▁نوشتن	-10.2571
▁نگار	-10.2571
▁نیست؛	-10.2571
▁نیوکاسل	-10.2571
▁ها.	-10.2571
▁همرسانی	-10.2571
▁واحدهای	-10.2571
▁وحید	-10.2571
▁وداع	-10.2571
▁وزرای	-10.2571
▁وقایع	-10.2571
▁ژوزه	-10.2571
▁کردم.	-10.2571
▁کرده.	-10.2571
▁کرونامنبع	-10.2571
▁کمتری	-10.2571
▁کند.آقای	-10.2571
▁کووید-۱۹	-10.2571
▁کپی	-10.2571
▁گربه	-10.2571
▁گرفتار	-10.2571
▁گوناگون	-10.2571
▁یکسال	-10.2571
▁یکصد	-10.2571
▁۲۰۰۴	-10.2571
▁۲۰۰۵	-10.2571
▁۵۹	-10.2571
▁.به	-10.3143
▁آسمایی	-10.3143
▁آغداشلو	-10.3143
▁آگاهی	-10.3143
▁آیرس	-10.3143
▁ابهام	-10.3143
▁اثری	-10.3143
▁اخطار	-10.3143
▁استخر	-10.3143
▁امی	-10.3143
▁امیرشاهی	-10.3143
▁انقراض	-10.3143
▁اهدای	-10.3143
▁اوباما	-10.3143
▁ایالتی	-10.3143
▁بدر	-10.3143
▁بستر	-10.3143
▁بعدها	-10.3143
▁بندرعباس	-10.3143
▁بها	-10.3143
▁بهروز	-10.3143
▁بوندس	-10.3143
▁بوک	-10.3143
▁بویایی	-10.3143
▁بگوییم	-10.3143
▁تاسف	-10.3143
▁تخلفات	-10.3143
▁تدریج	-10.3143
▁تدریجی	-10.3143
▁ترکمنستان	-10.3143
▁تضمین	-10.3143
▁تعادل	-10.3143
▁تعجب	-10.3143
▁تلقی	-10.3143
▁تلگرام	-10.3143
▁جاشوا	-10.3143
▁جبهه	-10.3143
▁جهاد	-10.3143
▁حکمتی	-10.3143
▁خاتمه	-10.3143
▁خرس	-10.3143
▁خریداران	-10.3143
▁خریده	-10.3143
▁دارد.این	-10.3143
▁دارد.منبع	-10.3143
▁دراز	-10.3143
▁درگذشته	-10.3143
▁دلیلی	-10.3143
▁دماوند	-10.3143
▁دوری	-10.3143
▁رایحه	-10.3143
▁رکورددار	-10.3143
▁زدند	-10.3143
▁سامسونگ	-10.3143
▁ساویز	-10.3143
▁سفینه	-10.3143
▁سکته	-10.3143
▁سکوت	-10.3143
▁سگ	-10.3143
▁شاهکار	-10.3143
▁شد.به	-10.3143
▁شدندمنبع	-10.3143
▁شلاق	-10.3143
▁شوند،	-10.3143
▁شیراز	-10.3143
▁شیرین	-10.3143
▁طرفدار	-10.3143
▁طوفان	-10.3143
▁عادل	-10.3143
▁عموم	-10.3143
▁غیاب	-10.3143
▁فروپاشی	-10.3143
▁فن؛	-10.3143
▁فیلمبرداری	-10.3143
▁قبال	-10.3143
▁قریب	-10.3143
▁قوس	-10.3143
▁لایپزیگ	-10.3143
▁لبخند	-10.3143
▁مبادلات	-10.3143
▁محور	-10.3143
▁مداخله	-10.3143
▁مراجع	-10.3143
▁مربوطه	-10.3143
▁مرگش	-10.3143
▁مسافت	-10.3143
▁مستمری	-10.3143
▁مستندی	-10.3143
▁مشکلی	-10.3143
▁مطبوعات	-10.3143
▁مقامهای	-10.3143
▁مقدس	-10.3143
▁منار	-10.3143
▁مناسبی	-10.3143
▁مهاجران	-10.3143
▁مکتوب	-10.3143
▁میدانی	-10.3143
▁مین	-10.3143
▁ناراحت	-10.3143
▁نت	-10.3143
▁نشریات	-10.3143
▁نشیب	-10.3143
▁نظارتی	-10.3143
▁نمایی	-10.3143
▁نهمین	-10.3143
▁نوجوانی	-10.3143
▁نی	-10.3143
▁نیازهای	-10.3143
▁هروی	-10.3143
▁همسان	-10.3143
▁همکارانش	-10.3143
▁ویروسی	-10.3143
▁پدری	-10.3143
▁پناهندگی	-10.3143
▁پوش	-10.3143
▁پوگبا	-10.3143
▁کابینه	-10.3143
▁کاربرد	-10.3143
▁کارداشیان	-10.3143
▁کارشان	-10.3143
▁کرد.منبع	-10.3143
▁کردستان	-10.3143
▁کشمکش	-10.3143
▁کف	-10.3143
▁کلاب	-10.3143
▁کلود	-10.3143
▁کلیات	-10.3143
▁کلید	-10.3143
▁کلیک	-10.3143
▁کمرنگ	-10.3143
▁کمپین	-10.3143
▁کنند،	-10.3143
▁گذشته،	-10.3143
▁گراندپری	-10.3143
▁گفتگوی	-10.3143
▁گنجینه	-10.3143
▁گیاهی	-10.3143
▁۱۳۹۶	-10.3143
▁۲۰۰۳	-10.3143
▁...	-10.3749
▁؛	-10.3749
▁آبادی	-10.3749
▁آزمایشگاهی	-10.3749
▁آلن	-10.3749
▁اتهامی	-10.3749
▁ادای	-10.3749
▁است.بیشتر	-10.3749
▁است.دولت	-10.3749
▁است.یکی	-10.3749
▁استراتژی	-10.3749
▁اسفندماه	-10.3749
▁اسپوتنیک	-10.3749
▁اعتراف	-10.3749
▁افتد	-10.3749
▁افزاری	-10.3749
▁افسر	-10.3749
▁الکس	-10.3749
▁انتقادهای	-10.3749
▁انیس	-10.3749
▁اپرا	-10.3749
▁ایرج	-10.3749
▁ایلان	-10.3749
▁اینستاگرامی	-10.3749
▁باب	-10.3749
▁باراک	-10.3749
▁بارسا	-10.3749
▁بازیهای	-10.3749
▁بافت	-10.3749
▁بخاطر	-10.3749
▁بدانیم	-10.3749
▁برادرش	-10.3749
▁برانکو	-10.3749
▁برداشتن	-10.3749
▁بردند.	-10.3749
▁برف	-10.3749
▁بروکسل	-10.3749
▁بقایای	-10.3749
▁بلوچ	-10.3749
▁بنیادی	-10.3749
▁بودند،	-10.3749
▁بوریس	-10.3749
▁بویژه	-10.3749
▁بیاید	-10.3749
▁تأثیر	-10.3749
▁تأیید	-10.3749
▁تاک	-10.3749
▁تحقق	-10.3749
▁تخم	-10.3749
▁تخیلی	-10.3749
▁تداوم	-10.3749
▁تدریس	-10.3749
▁ترسناک	-10.3749
▁تسلیت	-10.3749
▁تصمیمات	-10.3749
▁تعهداتش	-10.3749
▁تلاشی	-10.3749
▁تند	-10.3749
▁توخل	-10.3749
▁توشیبا	-10.3749
▁توضیحات	-10.3749
▁تکنولوژی	-10.3749
▁ثانوی	-10.3749
▁جانبه	-10.3749
▁جدیدترین	-10.3749
▁جردن	-10.3749
▁جستجو	-10.3749
▁جعلی	-10.3749
▁جلوپنجره	-10.3749
▁جنایی	-10.3749
▁جنس	-10.3749
▁جهانپور	-10.3749
▁حامی	-10.3749
▁حیدری	-10.3749
▁خادم	-10.3749
▁خارا	-10.3749
▁خاموش	-10.3749
▁خرسندی	-10.3749
▁خریداری	-10.3749
▁خریدهای	-10.3749
▁خوشحال	-10.3749
▁داردمنبع	-10.3749
▁داریوش	-10.3749
▁درخشش	-10.3749
▁دقایق	-10.3749
▁دهید	-10.3749
▁دوانی	-10.3749
▁دومینیک	-10.3749
▁دینار	-10.3749
▁راحتی	-10.3749
▁رانندگی	-10.3749
▁رانی	-10.3749
▁رساند.	-10.3749
▁رفاه	-10.3749
▁روزمره	-10.3749
▁ری	-10.3749
▁ریچارد	-10.3749
▁زاهدی	-10.3749
▁زخم	-10.3749
▁زنجان	-10.3749
▁زیستگاه	-10.3749
▁ساختار	-10.3749
▁سادات	-10.3749
▁سانتریفیوژ	-10.3749
▁سربازان	-10.3749
▁سرخیو	-10.3749
▁سرگیری	-10.3749
▁سطوح	-10.3749
▁سلف	-10.3749
▁سیاستمداران	-10.3749
▁سیزده	-10.3749
▁سیمای	-10.3749
▁شانزدهم	-10.3749
▁شد.با	-10.3749
▁شدم	-10.3749
▁شریف	-10.3749
▁شغلی	-10.3749
▁شفافیت	-10.3749
▁شمسی	-10.3749
▁شناسان	-10.3749
▁شوم	-10.3749
▁شوید	-10.3749
▁شی	-10.3749
▁صالحی	-10.3749
▁صحیح	-10.3749
▁صخره	-10.3749
▁عزیزی	-10.3749
▁عقل	-10.3749
▁عنکبوت	-10.3749
▁غریب	-10.3749
▁غم	-10.3749
▁فتاحی	-10.3749
▁فیزیکی	-10.3749
▁فیلمساز	-10.3749
▁قضیه	-10.3749
▁قوا	-10.3749
▁لالیگا	-10.3749
▁لپ	-10.3749
▁متخصصان	-10.3749
▁متعهد	-10.3749
▁محاکمه	-10.3749
▁محرم	-10.3749
▁مختل	-10.3749
▁مرجع	-10.3749
▁مرس	-10.3749
▁مرعشی	-10.3749
▁مزرعه	-10.3749
▁مسافربری	-10.3749
▁مستمر	-10.3749
▁مشکات	-10.3749
▁مصونیت	-10.3749
▁منصور	-10.3749
▁مهلت	-10.3749
▁مواضع	-10.3749
▁موجودی	-10.3749
▁مونک	-10.3749
▁مکرر	-10.3749
▁مکزیک	-10.3749
▁ناآرامی	-10.3749
▁ناچار	-10.3749
▁ناکام	-10.3749
▁نداشت.	-10.3749
▁نرخی	-10.3749
▁نشسته	-10.3749
▁نشود.	-10.3749
▁نوآوری	-10.3749
▁نوار	-10.3749
▁نوسانات	-10.3749
▁نگاری	-10.3749
▁نیازی	-10.3749
▁نیجریه	-10.3749
▁نیمار	-10.3749
▁هرگونه	-10.3749
▁هشتگ	-10.3749
▁هفتمین	-10.3749
▁همتای	-10.3749
▁والش	-10.3749
▁ورودی	-10.3749
▁وصل	-10.3749
▁پروازها	-10.3749
▁پسرش	-10.3749
▁پلی	-10.3749
▁پیش،	-10.3749
▁چاله	-10.3749
▁کاردن	-10.3749
▁کارگردانان	-10.3749
▁کاظم	-10.3749
▁کتیبه	-10.3749
▁کرمان	-10.3749
▁کمربند	-10.3749
▁کند؟منبع	-10.3749
▁کندی	-10.3749
▁کنزو	-10.3749
▁کنوانسیون	-10.3749
▁کنید.	-10.3749
▁کیوان	-10.3749
▁گابریل	-10.3749
▁گذر	-10.3749
▁گلی	-10.3749
▁گم	-10.3749
▁یحیی	-10.3749
▁۱۹۹۰	-10.3749
▁۲۰۳۰	-10.3749
▁۴۱	-10.3749
▁'در	-10.4394
▁(	-10.4394
▁.منبع	-10.4394
▁آرای	-10.4394
▁آزمایشگاه	-10.4394
▁آشوری	-10.4394
▁آقایان	-10.4394
▁آماری	-10.4394
▁اتلتیکو	-10.4394
▁احیا	-10.4394
▁اخباری	-10.4394
▁است.بعضی	-10.4394
▁است.روز	-10.4394
▁است.محمد	-10.4394
▁استرازنکا	-10.4394
▁استعداد	-10.4394
▁اسحاق	-10.4394
▁اشتراک	-10.4394
▁اشغال	-10.4394
▁اضطراب	-10.4394
▁افتادن	-10.4394
▁المستقبل	-10.4394
▁الگوی	-10.4394
▁الی	-10.4394
▁انتظارات	-10.4394
▁انداخت	-10.4394
▁اندک	-10.4394
▁انفجاری	-10.4394
▁بازگشته	-10.4394
▁بتوانیم	-10.4394
▁بختگان	-10.4394
▁بختیاری	-10.4394
▁بدرفتاری	-10.4394
▁بدنی	-10.4394
▁برنز	-10.4394
▁برهنه	-10.4394
▁برود.	-10.4394
▁بزرگتر	-10.4394
▁بشدت	-10.4394
▁بناهای	-10.4394
▁بولت	-10.4394
▁بکشد	-10.4394
▁بیبر	-10.4394
▁بیروت	-10.4394
▁بینیم	-10.4394
▁بیژن	-10.4394
▁تثبیت	-10.4394
▁تجلیل	-10.4394
▁تحصیلات	-10.4394
▁تدابیر	-10.4394
▁تسهیلات	-10.4394
▁تشریح	-10.4394
▁تغذیه	-10.4394
▁تل	-10.4394
▁جلالی	-10.4394
▁جم	-10.4394
▁جنسیس	-10.4394
▁حافظ	-10.4394
▁خالص	-10.4394
▁خزانه	-10.4394
▁خزر	-10.4394
▁خوراکی	-10.4394
▁خوشنام	-10.4394
▁دانند.	-10.4394
▁درخشانی	-10.4394
▁دستکاری	-10.4394
▁دشمنان	-10.4394
▁دما	-10.4394
▁دود	-10.4394
▁دوستانه	-10.4394
▁دوپینگ	-10.4394
▁دوگانه	-10.4394
▁دیداری	-10.4394
▁دینی	-10.4394
▁ذهنی	-10.4394
▁رایزنی	-10.4394
▁رمزارز	-10.4394
▁روحانی،	-10.4394
▁رکوردی	-10.4394
▁زاده،	-10.4394
▁زغال	-10.4394
▁سئول	-10.4394
▁سازه	-10.4394
▁سالیوان	-10.4394
▁سبز	-10.4394
▁سردبیر	-10.4394
▁سرنگون	-10.4394
▁سیزدهمین	-10.4394
▁سیم	-10.4394
▁شادی	-10.4394
▁شد'منبع	-10.4394
▁شد؟منبع	-10.4394
▁شدیدتر	-10.4394
▁شعله	-10.4394
▁شمارش	-10.4394
▁شهید	-10.4394
▁شواهدی	-10.4394
▁شود؟منبع	-10.4394
▁شیمی	-10.4394
▁صداوسیما	-10.4394
▁صنفی	-10.4394
▁طرز	-10.4394
▁عقرب	-10.4394
▁فدرال	-10.4394
▁فرج	-10.4394
▁فعالیتهای	-10.4394
▁فوتی	-10.4394
▁فیس	-10.4394
▁قائدی	-10.4394
▁قبر	-10.4394
▁قد	-10.4394
▁قطبی	-10.4394
▁قطعات	-10.4394
▁قلم	-10.4394
▁لیگا	-10.4394
▁ماهیگیری	-10.4394
▁مایه	-10.4394
▁مجددا	-10.4394
▁محض	-10.4394
▁مدعیان	-10.4394
▁مرا	-10.4394
▁مرتضی	-10.4394
▁مسافرت	-10.4394
▁معلق	-10.4394
▁معماری	-10.4394
▁معیشت	-10.4394
▁مقرر	-10.4394
▁مقطعی	-10.4394
▁منظر	-10.4394
▁منچستریونایتد	-10.4394
▁مهندس	-10.4394
▁موسس	-10.4394
▁مکانی	-10.4394
▁مگر	-10.4394
▁میز	-10.4394
▁میلیونی	-10.4394
▁نابغه	-10.4394
▁ناشناخته	-10.4394
▁نداشتن	-10.4394
▁نزدیکان	-10.4394
▁نظرات	-10.4394
▁نظم	-10.4394
▁نوبخت	-10.4394
▁نوید	-10.4394
▁نکند	-10.4394
▁هرانا	-10.4394
▁همانند	-10.4394
▁همدیگر	-10.4394
▁همکاران	-10.4394
▁واحدی	-10.4394
▁واسطه	-10.4394
▁واقعه	-10.4394
▁وحدت	-10.4394
▁وحشی	-10.4394
▁پادشاهی	-10.4394
▁پارس	-10.4394
▁پالایشگاهی	-10.4394
▁پوستان	-10.4394
▁چنانچه	-10.4394
▁ژن	-10.4394
▁کارشناسی	-10.4394
▁کاوه	-10.4394
▁کریسمس	-10.4394
▁کش	-10.4394
▁کشتار	-10.4394
▁کلینیک	-10.4394
▁کمدین	-10.4394
▁کنند؛	-10.4394
▁کنندمنبع	-10.4394
▁کوچکتر	-10.4394
▁کیانوش	-10.4394
▁گر	-10.4394
▁گرا	-10.4394
▁گره	-10.4394
▁گروگانگیری	-10.4394
▁گزارشگران	-10.4394
▁یادداشتی	-10.4394
▁۱۳۹۵	-10.4394
▁۱۹۹۸	-10.4394
▁۶۴	-10.4394
▁۷۲	-10.4394
▁۷۳	-10.4394
▁۸۱	-10.4394
▁آثارش	-10.5084
▁آثاری	-10.5084
▁آزمون	-10.5084
▁آغوش	-10.5084
▁آفلاتوکسین	-10.5084
▁آمارها	-10.5084
▁آموزگار	-10.5084
▁ادب	-10.5084
▁ادعاهای	-10.5084
▁است'منبع	-10.5084
▁است.بنا	-10.5084
▁است.خانم	-10.5084
▁استون	-10.5084
▁اسرار	-10.5084
▁اسماعیل	-10.5084
▁اعتبارنامه	-10.5084
▁افشنگ	-10.5084
▁اقداماتی	-10.5084
▁ام.	-10.5084
▁امانوئل	-10.5084
▁امواج	-10.5084
▁انتقادی	-10.5084
▁اواسط	-10.5084
▁بازارها	-10.5084
▁بازمی	-10.5084
▁بازگردانده	-10.5084
▁باورنکردنی	-10.5084
▁بدهند	-10.5084
▁برانگیخته	-10.5084
▁برایم	-10.5084
▁بردند	-10.5084
▁برگرفته	-10.5084
▁برگزارکنندگان	-10.5084
▁بریتانیا،	-10.5084
▁بستگی	-10.5084
▁بنکسی	-10.5084
▁بودم.	-10.5084
▁تاریکی	-10.5084
▁تان	-10.5084
▁تاکتیکی	-10.5084
▁تبادل	-10.5084
▁تجزیه	-10.5084
▁تحرک	-10.5084
▁تحسین	-10.5084
▁تحلیلگران	-10.5084
▁تخفیف	-10.5084
▁تقویم	-10.5084
▁توفان	-10.5084
▁تولیدی	-10.5084
▁تونس	-10.5084
▁تیلور	-10.5084
▁تیک	-10.5084
▁ثباتی	-10.5084
▁جزئیاتی	-10.5084
▁جف	-10.5084
▁جمشید	-10.5084
▁حاجی	-10.5084
▁حجاب	-10.5084
▁حداد	-10.5084
▁حساسیت	-10.5084
▁خاتم	-10.5084
▁خالق	-10.5084
▁خبرگان	-10.5084
▁خرده	-10.5084
▁خطای	-10.5084
▁خواجه	-10.5084
▁خودتان	-10.5084
▁دارا	-10.5084
▁دارد،	-10.5084
▁داروسازی	-10.5084
▁داروها	-10.5084
▁داشت؛	-10.5084
▁داغ	-10.5084
▁دامی	-10.5084
▁دان	-10.5084
▁دانشکده	-10.5084
▁دانشگاهی	-10.5084
▁داوری	-10.5084
▁دخترش	-10.5084
▁درآمدی	-10.5084
▁درج	-10.5084
▁دغدغه	-10.5084
▁دقایقی	-10.5084
▁دهان	-10.5084
▁دهقان	-10.5084
▁دهلی	-10.5084
▁دهندگان	-10.5084
▁دوازده	-10.5084
▁دورتموند	-10.5084
▁دوستی	-10.5084
▁دوش	-10.5084
▁دیدگاه	-10.5084
▁راک	-10.5084
▁رایت	-10.5084
▁رایج	-10.5084
▁رختکن	-10.5084
▁رسم	-10.5084
▁رصد	-10.5084
▁رفتارهای	-10.5084
▁رنگی	-10.5084
▁رهنورد	-10.5084
▁روستا	-10.5084
▁روشی	-10.5084
▁ریزش	-10.5084
▁رینگ	-10.5084
▁زازی	-10.5084
▁زایی	-10.5084
▁زهره	-10.5084
▁زودهنگام	-10.5084
▁سانحه	-10.5084
▁سختگیرانه	-10.5084
▁سرگرمی	-10.5084
▁سریالی	-10.5084
▁سفره	-10.5084
▁سلامتی	-10.5084
▁سنی	-10.5084
▁سوارز	-10.5084
▁سوپرلیگ	-10.5084
▁سکونت	-10.5084
▁سین	-10.5084
▁سینه	-10.5084
▁سیگار	-10.5084
▁شاعران	-10.5084
▁شاپور	-10.5084
▁شنیدن	-10.5084
▁شهرک	-10.5084
▁شهریار	-10.5084
▁شود.او	-10.5084
▁شود.به	-10.5084
▁شوداین	-10.5084
▁شور	-10.5084
▁ضربات	-10.5084
▁ظاهری	-10.5084
▁عضلات	-10.5084
▁عملکردی	-10.5084
▁غار	-10.5084
▁غفوری	-10.5084
▁فریدون	-10.5084
▁فزاینده	-10.5084
▁فضانورد	-10.5084
▁فلج	-10.5084
▁قدمی	-10.5084
▁قسمتی	-10.5084
▁قفل	-10.5084
▁لهستان	-10.5084
▁لیست	-10.5084
▁مارچلو	-10.5084
▁مارکز	-10.5084
▁ماریا	-10.5084
▁مایکروسافت	-10.5084
▁متاثر	-10.5084
▁متحول	-10.5084
▁محدودیتها	-10.5084
▁مخابرات	-10.5084
▁مخدر	-10.5084
▁مدرک	-10.5084
▁مردگان	-10.5084
▁معاف	-10.5084
▁معدود	-10.5084
▁معلم	-10.5084
▁منشا	-10.5084
▁موجی	-10.5084
▁موقعیتی	-10.5084
▁ناامنی	-10.5084
▁ناتمام	-10.5084
▁ناشناس	-10.5084
▁ناهید	-10.5084
▁ناوبری	-10.5084
▁ناپذیری	-10.5084
▁ندیده	-10.5084
▁نزد	-10.5084
▁نشت	-10.5084
▁نصف	-10.5084
▁نمادهای	-10.5084
▁نوئل	-10.5084
▁نوازنده	-10.5084
▁نویسد	-10.5084
▁نویی	-10.5084
▁نکات	-10.5084
▁نکنند	-10.5084
▁نگاران	-10.5084
▁همایش	-10.5084
▁هواوی	-10.5084
▁هیچگاه	-10.5084
▁ویرجیل	-10.5084
▁پاکستانی	-10.5084
▁پراید	-10.5084
▁پرتره	-10.5084
▁پرستاران	-10.5084
▁پناهجویان	-10.5084
▁پیشتاز	-10.5084
▁پیشرو	-10.5084
▁کارایی	-10.5084
▁کارگزاری	-10.5084
▁کالج	-10.5084
▁کامیون	-10.5084
▁کتابخانه	-10.5084
▁کرده؛	-10.5084
▁کسر	-10.5084
▁کفش	-10.5084
▁کلام	-10.5084
▁کنند.این	-10.5084
▁کنند.منبع	-10.5084
▁کیفری	-10.5084
▁کیهان	-10.5084
▁کیومرث	-10.5084
▁گازهای	-10.5084
▁گذاشتند	-10.5084
▁گرایش	-10.5084
▁گردش	-10.5084
▁گرفتند.	-10.5084
▁گرمای	-10.5084
▁گزارشها	-10.5084
▁گشت	-10.5084
▁گلایه	-10.5084
▁گلخانه	-10.5084
▁گلزن	-10.5084
▁گوایدو	-10.5084
▁گوگ	-10.5084
▁یابد.	-10.5084
▁یادداشت	-10.5084
▁یونسکو	-10.5084
▁۱۳۵۷	-10.5084
▁۶۸	-10.5084
▁۷۸	-10.5084
▁۹۴	-10.5084
▁.در	-10.5825
▁آسوشیتدپرس	-10.5825
▁آشام	-10.5825
▁آشفته	-10.5825
▁آندری	-10.5825
▁آیند	-10.5825
▁ابتکار	-10.5825
▁اثبات	-10.5825
▁اجبار	-10.5825
▁احتیاط	-10.5825
▁احساسی	-10.5825
▁احمدشاه	-10.5825
▁اختیاری	-10.5825
▁اراضی	-10.5825
▁ارجاع	-10.5825
▁اروپا:	-10.5825
▁ارگ	-10.5825
▁است.گزارش	-10.5825
▁استثنا	-10.5825
▁استخوان	-10.5825
▁اصول	-10.5825
▁اظهارنظر	-10.5825
▁اعتنایی	-10.5825
▁اعلامیه	-10.5825
▁افغانستان،	-10.5825
▁امان	-10.5825
▁امیدوارند	-10.5825
▁اند.با	-10.5825
▁اندمنبع	-10.5825
▁انگل	-10.5825
▁اکس	-10.5825
▁ایرانی،	-10.5825
▁بارز	-10.5825
▁باشد.این	-10.5825
▁باشیم.	-10.5825
▁بالغ	-10.5825
▁ببینید	-10.5825
▁برند	-10.5825
▁بصورت	-10.5825
▁بفتا	-10.5825
▁بلندمدت	-10.5825
▁بلیط	-10.5825
▁بنگلادش	-10.5825
▁بهانه	-10.5825
▁بهنام	-10.5825
▁بوئینگ	-10.5825
▁بوکسور	-10.5825
▁بگیریم	-10.5825
▁تأکید	-10.5825
▁تایگر	-10.5825
▁تخلیه	-10.5825
▁ترافیک	-10.5825
▁ترویج	-10.5825
▁تشبیه	-10.5825
▁تشکر	-10.5825
▁تعبیر	-10.5825
▁تعمیر	-10.5825
▁تمدن	-10.5825
▁تنوع	-10.5825
▁تهدیدی	-10.5825
▁توانید	-10.5825
▁توجیه	-10.5825
▁توده	-10.5825
▁تکیه	-10.5825
▁تیره	-10.5825
▁ثروتمند	-10.5825
▁جداول	-10.5825
▁جرایم	-10.5825
▁جزایر	-10.5825
▁جست	-10.5825
▁جلال	-10.5825
▁جوزف	-10.5825
▁جیمزباند	-10.5825
▁حامیان	-10.5825
▁حبیب	-10.5825
▁خانوار	-10.5825
▁خطی	-10.5825
▁خنده	-10.5825
▁خودسوزی	-10.5825
▁خوست	-10.5825
▁خونین	-10.5825
▁داده.	-10.5825
▁دانشجویی	-10.5825
▁دایناسورها	-10.5825
▁درختان	-10.5825
▁درستی	-10.5825
▁دره	-10.5825
▁درگذشت.او	-10.5825
▁دشت	-10.5825
▁دعوای	-10.5825
▁دلایلی	-10.5825
▁دم	-10.5825
▁ذره	-10.5825
▁رأی	-10.5825
▁راند	-10.5825
▁راپینو	-10.5825
▁رایان	-10.5825
▁رسیدند	-10.5825
▁رمانی	-10.5825
▁روال	-10.5825
▁روحانی:	-10.5825
▁رولزرویس	-10.5825
▁رولینگ	-10.5825
▁رکاب	-10.5825
▁زبانی	-10.5825
▁زمستانی	-10.5825
▁زنگ	-10.5825
▁سارس	-10.5825
▁ساشا	-10.5825
▁ساعته	-10.5825
▁سده	-10.5825
▁سرباز	-10.5825
▁سفارشی	-10.5825
▁سفری	-10.5825
▁سلسله	-10.5825
▁سلطانی	-10.5825
▁سوئز	-10.5825
▁سیصد	-10.5825
▁سیلندر	-10.5825
▁شدیدترین	-10.5825
▁شناسند	-10.5825
▁شوت	-10.5825
▁شوخی	-10.5825
▁ضعف	-10.5825
▁طعم	-10.5825
▁ظن	-10.5825
▁عشقی	-10.5825
▁غرامت	-10.5825
▁غیرممکن	-10.5825
▁فجر	-10.5825
▁فراگیر	-10.5825
▁فضانوردان	-10.5825
▁قبرس	-10.5825
▁قزاقستان	-10.5825
▁لامبورگینی	-10.5825
▁لگن	-10.5825
▁مأموران	-10.5825
▁مازاد	-10.5825
▁مالکان	-10.5825
▁مانکن	-10.5825
▁مت	-10.5825
▁متقاضی	-10.5825
▁مخصوصا	-10.5825
▁مخفیانه	-10.5825
▁مرتکب	-10.5825
▁مرجانی	-10.5825
▁مسلمانان	-10.5825
▁مصرفی	-10.5825
▁مصلی	-10.5825
▁مطلوب	-10.5825
▁مظاهری	-10.5825
▁معنایی	-10.5825
▁معوقه	-10.5825
▁مفاد	-10.5825
▁مفقود	-10.5825
▁مقیم	-10.5825
▁مهمان	-10.5825
▁موازی	-10.5825
▁موجودات	-10.5825
▁مکانیسم	-10.5825
▁مکمل	-10.5825
▁مگان	-10.5825
▁میلی	-10.5825
▁میمون	-10.5825
▁ناقص	-10.5825
▁نحوی	-10.5825
▁ندارم	-10.5825
▁نزولی	-10.5825
▁نسبتا	-10.5825
▁نظرسنجی	-10.5825
▁نفرت	-10.5825
▁نورد	-10.5825
▁نوشیدنی	-10.5825
▁نیما	-10.5825
▁هدیه	-10.5825
▁هرکدام	-10.5825
▁هستید	-10.5825
▁هفدهم	-10.5825
▁هو	-10.5825
▁هوادار	-10.5825
▁هوانوردی	-10.5825
▁هکرها	-10.5825
▁وابستگی	-10.5825
▁والیبال	-10.5825
▁ور	-10.5825
▁ویدئو	-10.5825
▁ویکتوریا	-10.5825
▁پائین	-10.5825
▁پایدار	-10.5825
▁پررنگ	-10.5825
▁په	-10.5825
▁پوری	-10.5825
▁پوچتینو	-10.5825
▁پیتر	-10.5825
▁پیرامون	-10.5825
▁پیکان	-10.5825
▁کاران	-10.5825
▁کامپیوتری	-10.5825
▁کاهشی	-10.5825
▁کرایسلر	-10.5825
▁کریستال	-10.5825
▁کمبریج	-10.5825
▁کند.اما	-10.5825
▁کند.به	-10.5825
▁کوبا	-10.5825
▁کیت	-10.5825
▁کیلویی	-10.5825
▁گردآوری	-10.5825
▁گرمایش	-10.5825
▁گریز	-10.5825
▁گفتگوهای	-10.5825
▁گورهای	-10.5825
▁گوی	-10.5825
▁یر	-10.5825
▁یکسان	-10.5825
▁۱۴۰	-10.5825
▁۱۶۰	-10.5825
▁۱۷۶	-10.5825
▁۱۹۴۰	-10.5825
▁۱۹۸۰	-10.5825
▁۲۲۳۱	-10.5825
▁۴۷	-10.5825
▁۶۵۰	-10.5825
▁۸۲	-10.5825
▁۸۵	-10.5825
▁(آمریکا)،	-10.6626
▁(کانادا)،	-10.6626
▁آث	-10.6626
▁آلزایمر	-10.6626
▁آمدند	-10.6626
▁آمریکاست	-10.6626
▁آنطور	-10.6626
▁آنهایی	-10.6626
▁آویو	-10.6626
▁ابلاغیه	-10.6626
▁ابوالملوکی	-10.6626
▁اتخاذ	-10.6626
▁اتوبوس	-10.6626
▁اتکا	-10.6626
▁اردوگاه	-10.6626
▁است.خبرگزاری	-10.6626
▁است.وزارت	-10.6626
▁استریت	-10.6626
▁استقرار	-10.6626
▁استودیو	-10.6626
▁استونز	-10.6626
▁استیون	-10.6626
▁اطلاعی	-10.6626
▁اعماق	-10.6626
▁افتتاحیه	-10.6626
▁افزایشی	-10.6626
▁افشای	-10.6626
▁اقبال	-10.6626
▁الحسن	-10.6626
▁القرض	-10.6626
▁الماس	-10.6626
▁امامی	-10.6626
▁امروزه	-10.6626
▁امپراتور	-10.6626
▁امپراتوری	-10.6626
▁امیدوارم	-10.6626
▁انبوه	-10.6626
▁انداخت.	-10.6626
▁انداختن	-10.6626
▁انوشه	-10.6626
▁انگشت	-10.6626
▁اِی	-10.6626
▁اپیدمی	-10.6626
▁اکاذیب	-10.6626
▁اکثریت	-10.6626
▁ایراد	-10.6626
▁ایشان	-10.6626
▁بارداری	-10.6626
▁بازخوانی	-10.6626
▁بازنشستگی	-10.6626
▁بازه	-10.6626
▁بازهم	-10.6626
▁ببر	-10.6626
▁ببینند	-10.6626
▁ببینید.	-10.6626
▁بدخشان	-10.6626
▁بدین	-10.6626
▁برعکس	-10.6626
▁برها	-10.6626
▁برگشته	-10.6626
▁بزرگان	-10.6626
▁بزودی	-10.6626
▁بلومبرگ	-10.6626
▁بنای	-10.6626
▁بنتلی	-10.6626
▁بود.اما	-10.6626
▁بیفتد	-10.6626
▁بیل	-10.6626
▁بیننده	-10.6626
▁تاریخچه	-10.6626
▁تاریک	-10.6626
▁تاکادا	-10.6626
▁تبعید	-10.6626
▁تجویز	-10.6626
▁تحریمهای	-10.6626
▁ترمیم	-10.6626
▁تریلیون	-10.6626
▁تلافی	-10.6626
▁تلسکوپ	-10.6626
▁تماشاچی	-10.6626
▁تهرانمنبع	-10.6626
▁توافقنامه	-10.6626
▁توانگر	-10.6626
▁تورنتو	-10.6626
▁جاذبه	-10.6626
▁جاهای	-10.6626
▁جت	-10.6626
▁جلد	-10.6626
▁جنگی	-10.6626
▁جهان،	-10.6626
▁جواز	-10.6626
▁جکسون	-10.6626
▁جیغ	-10.6626
▁جیپ	-10.6626
▁حال،	-10.6626
▁حاکمیت	-10.6626
▁حدس	-10.6626
▁حقیقی	-10.6626
▁خبرها	-10.6626
▁خریدار	-10.6626
▁خطرات	-10.6626
▁خفیف	-10.6626
▁خواهر	-10.6626
▁خودی	-10.6626
▁داد.او	-10.6626
▁دادم	-10.6626
▁دارد.به	-10.6626
▁دارید	-10.6626
▁داغستان	-10.6626
▁دانشجوی	-10.6626
▁درآمده	-10.6626
▁دستاورد	-10.6626
▁دستاوردهای	-10.6626
▁دستگاهی	-10.6626
▁دشمن	-10.6626
▁دهد؛	-10.6626
▁دهها	-10.6626
▁دهک	-10.6626
▁دوازدهم	-10.6626
▁دوستانش	-10.6626
▁دژپسند	-10.6626
▁دید.	-10.6626
▁دیر	-10.6626
▁رجایی	-10.6626
▁رخداد	-10.6626
▁رنگین	-10.6626
▁روایتی	-10.6626
▁رویایی	-10.6626
▁ریالی	-10.6626
▁ریل	-10.6626
▁زا	-10.6626
▁ساعتی	-10.6626
▁ساقط	-10.6626
▁سان	-10.6626
▁سدان	-10.6626
▁سردار	-10.6626
▁سرماخوردگی	-10.6626
▁سم	-10.6626
▁سون	-10.6626
▁سیارک	-10.6626
▁سینماهای	-10.6626
▁شانزده	-10.6626
▁شاهزاده	-10.6626
▁شاهنامه	-10.6626
▁شدهمنبع	-10.6626
▁شرکای	-10.6626
▁شوش	-10.6626
▁شیعه	-10.6626
▁صحت	-10.6626
▁صدمه	-10.6626
▁صفحات	-10.6626
▁طرفه	-10.6626
▁ظریف؛	-10.6626
▁عارضه	-10.6626
▁عارف	-10.6626
▁عازم	-10.6626
▁عاشقانه	-10.6626
▁عامه	-10.6626
▁عزم	-10.6626
▁غالب	-10.6626
▁فراگیری	-10.6626
▁فرخ	-10.6626
▁فرستاد	-10.6626
▁فرض	-10.6626
▁فسیل	-10.6626
▁فشرده	-10.6626
▁فضلی	-10.6626
▁فوتسال	-10.6626
▁فیلتر	-10.6626
▁فیلیپین	-10.6626
▁قانع	-10.6626
▁قراردادهای	-10.6626
▁قرعه	-10.6626
▁قسطی	-10.6626
▁قطری	-10.6626
▁قم	-10.6626
▁لاله	-10.6626
▁لب	-10.6626
▁لمپارد	-10.6626
▁لیور،	-10.6626
▁مارتین	-10.6626
▁مازراتی	-10.6626
▁ماندگار	-10.6626
▁مانه	-10.6626
▁مایل	-10.6626
▁متحدان	-10.6626
▁متروکه	-10.6626
▁مخلوف	-10.6626
▁مدنظر	-10.6626
▁مس	-10.6626
▁مسترز	-10.6626
▁مستقیما	-10.6626
▁مسلمان	-10.6626
▁مشروطه	-10.6626
▁مشوق	-10.6626
▁مصداق	-10.6626
▁مطبوعاتی	-10.6626
▁معادن	-10.6626
▁معیار	-10.6626
▁مقر	-10.6626
▁ملتهب	-10.6626
▁ممانعت	-10.6626
▁منطقی	-10.6626
▁مهرابی	-10.6626
▁مکتب	-10.6626
▁مکعب	-10.6626
▁میلادی،	-10.6626
▁میلیاردر	-10.6626
▁ناوگان	-10.6626
▁نجف	-10.6626
▁نخورده	-10.6626
▁نداشتم	-10.6626
▁نشین	-10.6626
▁نقره	-10.6626
▁نمای	-10.6626
▁نمایان	-10.6626
▁نمایشنامه	-10.6626
▁نوزدهم	-10.6626
▁نوستالژی	-10.6626
▁نکرد.	-10.6626
▁نیکپا	-10.6626
▁ه	-10.6626
▁هادی	-10.6626
▁هاست.	-10.6626
▁هدفش	-10.6626
▁هزاره	-10.6626
▁هل	-10.6626
▁همایون	-10.6626
▁هیبرید	-10.6626
▁واضح	-10.6626
▁وخامت	-10.6626
▁وروورت	-10.6626
▁وریا	-10.6626
▁وظایف	-10.6626
▁وقف	-10.6626
▁ویدئوی	-10.6626
▁ویدیوی	-10.6626
▁پارسی	-10.6626
▁پالاس	-10.6626
▁پانزدهم	-10.6626
▁پاکسازی	-10.6626
▁پایش	-10.6626
▁پرآوازه	-10.6626
▁پردازد	-10.6626
▁پرطرفدار	-10.6626
▁پری	-10.6626
▁پنگوئن	-10.6626
▁پژو	-10.6626
▁چاره	-10.6626
▁چاپک	-10.6626
▁چهاردهم	-10.6626
▁ژنو	-10.6626
▁کاربر	-10.6626
▁کاربری	-10.6626
▁کارتو	-10.6626
▁کارزاری	-10.6626
▁کارفرمایان	-10.6626
▁کاریر	-10.6626
▁کاسه	-10.6626
▁کانادایی	-10.6626
▁کاوازاکی	-10.6626
▁کاپیتان:	-10.6626
▁کج	-10.6626
▁کرج	-10.6626
▁کرد.به	-10.6626
▁کری	-10.6626
▁کشت	-10.6626
▁کلاهبرداری	-10.6626
▁کمپانی	-10.6626
▁کند.او	-10.6626
▁کیلو	-10.6626
▁گذراندن	-10.6626
▁گذرانده	-10.6626
▁گذرد.	-10.6626
▁گرد	-10.6626
▁گرگ	-10.6626
▁گلمکانی	-10.6626
▁گویی	-10.6626
▁یادگیری	-10.6626
▁یخی	-10.6626
▁یورش	-10.6626
▁یورویی	-10.6626
▁یونگ	-10.6626
▁۱۷۰	-10.6626
▁۱۹۰	-10.6626
▁۱۹۶۰	-10.6626
▁۲۰۰۱	-10.6626
▁۳۵۰	-10.6626
▁۵۳	-10.6626
▁۶۱	-10.6626
▁۶۲	-10.6626
▁۸۶	-10.6626
▁۸۸	-10.6626
▁.آیت	-10.7496
▁آرا	-10.7496
▁آرزوی	-10.7496
▁آرش	-10.7496
▁آرشیو	-10.7496
▁آسیای	-10.7496
▁آسیبی	-10.7496
▁آشنایی	-10.7496
▁آلومینیوم	-10.7496
▁آمستردام	-10.7496
▁آنتونیو	-10.7496
▁آینه	-10.7496
▁ابهامات	-10.7496
▁اتصال	-10.7496
▁اجتناب	-10.7496
▁احزاب	-10.7496
▁احکام	-10.7496
▁اختراع	-10.7496
▁اخلاقی	-10.7496
▁اردن	-10.7496
▁است.بانک	-10.7496
▁است.سازمان	-10.7496
▁است.قیمت	-10.7496
▁استاندارد	-10.7496
▁استدلال	-10.7496
▁اسلامی،	-10.7496
▁اسپارتاک	-10.7496
▁اسکاتلندی	-10.7496
▁اشعار	-10.7496
▁اصابت	-10.7496
▁اعطای	-10.7496
▁البرز	-10.7496
▁الکترونیک	-10.7496
▁امتداد	-10.7496
▁امضاکنندگان	-10.7496
▁امیدواریم	-10.7496
▁اند.آقای	-10.7496
▁اندام	-10.7496
▁اپرای	-10.7496
▁اچ	-10.7496
▁اکران	-10.7496
▁ایران.	-10.7496
▁ایمان	-10.7496
▁باختری	-10.7496
▁بارش	-10.7496
▁بازنگری	-10.7496
▁بانکها	-10.7496
▁ببرد	-10.7496
▁ببینیم	-10.7496
▁بخاری	-10.7496
▁بدانند	-10.7496
▁برادران	-10.7496
▁بردارد	-10.7496
▁برشمرده	-10.7496
▁برفی	-10.7496
▁برکناری	-10.7496
▁برگ	-10.7496
▁بری	-10.7496
▁بزنند	-10.7496
▁بسرعت	-10.7496
▁بسیج	-10.7496
▁بطری	-10.7496
▁بلاروس	-10.7496
▁بلوکه	-10.7496
▁بماند.	-10.7496
▁بوئنوس	-10.7496
▁بودند؛	-10.7496
▁بوده؛	-10.7496
▁بوی	-10.7496
▁بیم	-10.7496
▁تئوری	-10.7496
▁تابستانی	-10.7496
▁تابلو	-10.7496
▁تبانی	-10.7496
▁تحریک	-10.7496
▁ترغیب	-10.7496
▁تصاحب	-10.7496
▁تفاهم	-10.7496
▁تقدیر	-10.7496
▁تمایلی	-10.7496
▁تندرو	-10.7496
▁تنگه	-10.7496
▁توفیق	-10.7496
▁جامائیکا	-10.7496
▁جسمانی	-10.7496
▁جعفری	-10.7496
▁جنایت	-10.7496
▁جودوی	-10.7496
▁جورجیا	-10.7496
▁حاد	-10.7496
▁حباب	-10.7496
▁حدودا	-10.7496
▁حرکتی	-10.7496
▁حضرت	-10.7496
▁حواشی	-10.7496
▁خالکوبی	-10.7496
▁خرچنگ	-10.7496
▁خلوت	-10.7496
▁خلیل	-10.7496
▁خواند.	-10.7496
▁خوانی	-10.7496
▁دائمی	-10.7496
▁داد؛	-10.7496
▁داشت.این	-10.7496
▁دربار	-10.7496
▁درمی	-10.7496
▁دستکش	-10.7496
▁دقیقی	-10.7496
▁دنیس	-10.7496
▁دورانی	-10.7496
▁دورتر	-10.7496
▁دیدارهای	-10.7496
▁دیدیم	-10.7496
▁دیفرانسیل	-10.7496
▁دیوانه	-10.7496
▁راجرز	-10.7496
▁راد	-10.7496
▁رانت	-10.7496
▁ردیابی	-10.7496
▁رشفورد	-10.7496
▁روانه	-10.7496
▁روبرت	-10.7496
▁روبروی	-10.7496
▁روشنی	-10.7496
▁رونالدینیو	-10.7496
▁رویا	-10.7496
▁رکوردهای	-10.7496
▁ریخته	-10.7496
▁زادگان	-10.7496
▁زحمت	-10.7496
▁زدند.	-10.7496
▁زریاب	-10.7496
▁زیبا	-10.7496
▁زیرساخت	-10.7496
▁سابقش	-10.7496
▁سازندگان	-10.7496
▁سانتریفیوژهای	-10.7496
▁سرازیر	-10.7496
▁سرش	-10.7496
▁سرعتش	-10.7496
▁سرعتی	-10.7496
▁سرمای	-10.7496
▁سعدی	-10.7496
▁سولسشر	-10.7496
▁سیاهان	-10.7496
▁سیاوش	-10.7496
▁سید	-10.7496
▁شد.اما	-10.7496
▁شر	-10.7496
▁شمایل	-10.7496
▁شود.از	-10.7496
▁صدد	-10.7496
▁ضایعه	-10.7496
▁طوفانی	-10.7496
▁طیاب	-10.7496
▁عبدالرضا	-10.7496
▁عبدی	-10.7496
▁عصبی	-10.7496
▁علاقمند	-10.7496
▁علوی	-10.7496
▁عواقب	-10.7496
▁غلامحسین	-10.7496
▁غیبت	-10.7496
▁غیربومی	-10.7496
▁غیرحرفه	-10.7496
▁فرایند	-10.7496
▁فرزندآوری	-10.7496
▁فرزندش	-10.7496
▁فرهنگیان	-10.7496
▁فروشنده	-10.7496
▁فروغ	-10.7496
▁فسیلی	-10.7496
▁فطر	-10.7496
▁فیلیپ	-10.7496
▁قرمزها	-10.7496
▁قومی	-10.7496
▁متحمل	-10.7496
▁متغیر	-10.7496
▁محترم	-10.7496
▁محکم	-10.7496
▁مدرنا	-10.7496
▁مرحوم	-10.7496
▁مساحت	-10.7496
▁مستعار	-10.7496
▁مسن	-10.7496
▁مسیرهای	-10.7496
▁مسیری	-10.7496
▁مصیبت	-10.7496
▁مطالب	-10.7496
▁معاینه	-10.7496
▁مقصر	-10.7496
▁مند	-10.7496
▁منعکس	-10.7496
▁مهناز	-10.7496
▁مهندسی	-10.7496
▁مواقع	-10.7496
▁مورا	-10.7496
▁موسوی	-10.7496
▁میل	-10.7496
▁میلاد	-10.7496
▁مینا	-10.7496
▁میکروب	-10.7496
▁ناامن	-10.7496
▁نارسایی	-10.7496
▁نارضایتی	-10.7496
▁ناقض	-10.7496
▁ناممکن	-10.7496
▁نامید	-10.7496
▁ناکارآمدی	-10.7496
▁نجیب	-10.7496
▁ندادن	-10.7496
▁نصیب	-10.7496
▁نقلیه	-10.7496
▁نمادی	-10.7496
▁نمادین	-10.7496
▁نمود	-10.7496
▁نوجوانان	-10.7496
▁نوشتند	-10.7496
▁نویسندگی	-10.7496
▁نژادپرستانه	-10.7496
▁نکردند	-10.7496
▁نکنید	-10.7496
▁نیست،	-10.7496
▁نیکلاس	-10.7496
▁هاله	-10.7496
▁هست.	-10.7496
▁هستم	-10.7496
▁هستند؛	-10.7496
▁هلی	-10.7496
▁همانطور	-10.7496
▁همبستگی	-10.7496
▁هواشناسی	-10.7496
▁هیچکس	-10.7496
▁وال	-10.7496
▁وسیعی	-10.7496
▁وگوی	-10.7496
▁ویتنام	-10.7496
▁ویلا	-10.7496
▁ویکتور	-10.7496
▁پایبند	-10.7496
▁پدرم	-10.7496
▁پذیرای	-10.7496
▁پشتیبانی	-10.7496
▁پلامر	-10.7496
▁پناهجوی	-10.7496
▁پورتو	-10.7496
▁پوستی	-10.7496
▁پیرلو	-10.7496
▁چربی	-10.7496
▁چیزهای	-10.7496
▁کامپیوتر	-10.7496
▁کرام	-10.7496
▁کردند.در	-10.7496
▁کشید.	-10.7496
▁کلان	-10.7496
▁کنسولگری	-10.7496
▁کنند.در	-10.7496
▁کودتا	-10.7496
▁کوهستان	-10.7496
▁کین	-10.7496
▁کینگ	-10.7496
▁گذشتمنبع	-10.7496
▁گرسنگی	-10.7496
▁گرفتم	-10.7496
▁گریبان	-10.7496
▁گریه	-10.7496
▁گزارش،	-10.7496
▁گلوب	-10.7496
▁گودال	-10.7496
▁یهودی	-10.7496
▁۱۹۸۲	-10.7496
▁۱۹۹۱	-10.7496
▁۲۰۰۲	-10.7496
▁۳۲۰	-10.7496
▁۵۱	-10.7496
▁۵۴	-10.7496
▁۷۶	-10.7496
▁۸۷	-10.7496
▁۸۹	-10.7496
▁آبادان	-10.8449
▁آرامکو	-10.8449
▁آسیا؛	-10.8449
▁آفتابی	-10.8449
▁آن،	-10.8449
▁آنفلوآنزای	-10.8449
▁آوردند	-10.8449
▁آورند	-10.8449
▁آورند.	-10.8449
▁آپارتمان	-10.8449
▁آپولو	-10.8449
▁اثرات	-10.8449
▁احسان	-10.8449
▁اذعان	-10.8449
▁اذهان	-10.8449
▁اذیت	-10.8449
▁اراده	-10.8449
▁اراک	-10.8449
▁است.دکتر	-10.8449
▁است.فرین	-10.8449
▁است.هر	-10.8449
▁است.همزمان	-10.8449
▁است.پس	-10.8449
▁است.پیش	-10.8449
▁استانی	-10.8449
▁استبا	-10.8449
▁استعمار	-10.8449
▁استیضاح	-10.8449
▁اسدالله	-10.8449
▁اشنویه	-10.8449
▁اشکال	-10.8449
▁اصولگرایان	-10.8449
▁اعتیاد	-10.8449
▁اعطا	-10.8449
▁اعظم	-10.8449
▁اف،	-10.8449
▁افتخاری	-10.8449
▁افسران	-10.8449
▁افشا	-10.8449
▁افق	-10.8449
▁اقامتگاه	-10.8449
▁اقتدار	-10.8449
▁اقتصادهای	-10.8449
▁الانبیا	-10.8449
▁المصطفی	-10.8449
▁الکل	-10.8449
▁الیاس	-10.8449
▁امرالله	-10.8449
▁انتحاری	-10.8449
▁انتقادات	-10.8449
▁انتقالات	-10.8449
▁اند.بر	-10.8449
▁اند.یک	-10.8449
▁اندازد	-10.8449
▁اندرکار	-10.8449
▁اندیشه	-10.8449
▁اکتشافی	-10.8449
▁ایر	-10.8449
▁اینجاست	-10.8449
▁اینستاگرامش	-10.8449
▁بادی	-10.8449
▁باروری	-10.8449
▁باریک	-10.8449
▁بازوی	-10.8449
▁بازیار	-10.8449
▁بالقوه	-10.8449
▁بالگرد	-10.8449
▁باهم	-10.8449
▁بدنش	-10.8449
▁برآورده	-10.8449
▁برجا	-10.8449
▁برساند.	-10.8449
▁برشنا	-10.8449
▁بروند	-10.8449
▁برگردد.	-10.8449
▁بس	-10.8449
▁بعیدی	-10.8449
▁بفروشد	-10.8449
▁بقای	-10.8449
▁بلژیکی	-10.8449
▁بمانند	-10.8449
▁بهاری	-10.8449
▁بهناز	-10.8449
▁بوتاکس	-10.8449
▁بوجود	-10.8449
▁بود.با	-10.8449
▁بیانگر	-10.8449
▁بیستمین	-10.8449
▁تابعیت	-10.8449
▁تانک	-10.8449
▁تاپی	-10.8449
▁تاکتیک	-10.8449
▁تایتانیک	-10.8449
▁تایلند	-10.8449
▁ترابی	-10.8449
▁تریاک	-10.8449
▁تسهیل	-10.8449
▁تشویقی	-10.8449
▁تصادفی	-10.8449
▁تصدی	-10.8449
▁تضاد	-10.8449
▁تعویض	-10.8449
▁تفسیر	-10.8449
▁تقوی	-10.8449
▁تلفات	-10.8449
▁تله	-10.8449
▁تمرینات	-10.8449
▁تهاجمی	-10.8449
▁تهدیدهای	-10.8449
▁تهران؛	-10.8449
▁توانستیم	-10.8449
▁توییتری	-10.8449
▁جابجایی	-10.8449
▁جانب	-10.8449
▁جاوید	-10.8449
▁جایگاهی	-10.8449
▁جرگه	-10.8449
▁جزئی	-10.8449
▁جلوه	-10.8449
▁جنین	-10.8449
▁جوادی	-10.8449
▁جوجه	-10.8449
▁جولی	-10.8449
▁جونیور	-10.8449
▁حامد	-10.8449
▁حراجی	-10.8449
▁حریم	-10.8449
▁حفاری	-10.8449
▁حومه	-10.8449
▁حکمی	-10.8449
▁خدا	-10.8449
▁خدایاری	-10.8449
▁خراب	-10.8449
▁خشن	-10.8449
▁خودرایانی	-10.8449
▁خوشحالم	-10.8449
▁داد،	-10.8449
▁دارنده	-10.8449
▁داشتیم	-10.8449
▁دانشجو	-10.8449
▁دانچیچ	-10.8449
▁دایی	-10.8449
▁درز	-10.8449
▁درویش	-10.8449
▁دریافتند	-10.8449
▁دستیار	-10.8449
▁دهم.	-10.8449
▁دوئرنیک	-10.8449
▁دوصدایی	-10.8449
▁دولگوف	-10.8449
▁دیاز	-10.8449
▁دیدنی	-10.8449
▁رئوف	-10.8449
▁رامی	-10.8449
▁راههای	-10.8449
▁رسان	-10.8449
▁رستگار	-10.8449
▁رسن	-10.8449
▁رمضان	-10.8449
▁رنجرز	-10.8449
▁رهایی	-10.8449
▁روندی	-10.8449
▁رژیم	-10.8449
▁ریورا	-10.8449
▁زدایی	-10.8449
▁زور	-10.8449
▁ساری	-10.8449
▁ساسی	-10.8449
▁سالیانه	-10.8449
▁ساماندهی	-10.8449
▁سرتاسر	-10.8449
▁سرو	-10.8449
▁سرپرستی	-10.8449
▁سرگرم	-10.8449
▁سعادت	-10.8449
▁سنبله	-10.8449
▁سنگاپور	-10.8449
▁سهل	-10.8449
▁سوری	-10.8449
▁سویی	-10.8449
▁سیامند	-10.8449
▁سیر	-10.8449
▁شایعاتی	-10.8449
▁شایعه	-10.8449
▁شجاع	-10.8449
▁شجریان،	-10.8449
▁شدند.منبع	-10.8449
▁شرح	-10.8449
▁شرکتی	-10.8449
▁شمس	-10.8449
▁شمیم	-10.8449
▁شکستن	-10.8449
▁شگفتی	-10.8449
▁صادقانه	-10.8449
▁ضدحمله	-10.8449
▁طبع	-10.8449
▁طرفدارانش	-10.8449
▁طرفی	-10.8449
▁طناب	-10.8449
▁طیب	-10.8449
▁عادلانه	-10.8449
▁عجله	-10.8449
▁عسل	-10.8449
▁عطسه	-10.8449
▁علایم	-10.8449
▁عمرانی	-10.8449
▁عناصر	-10.8449
▁غافلگیرکننده	-10.8449
▁غلط	-10.8449
▁غیرنفتی	-10.8449
▁فخری	-10.8449
▁فرانک	-10.8449
▁فرستاد.	-10.8449
▁فرماندهان	-10.8449
▁فروشندگان	-10.8449
▁فروکش	-10.8449
▁فسخ	-10.8449
▁فشاری	-10.8449
▁فضاهای	-10.8449
▁فنلاند	-10.8449
▁فیات	-10.8449
▁فیلمسازان	-10.8449
▁قطرک	-10.8449
▁قطعیت	-10.8449
▁قلمداد	-10.8449
▁قوای	-10.8449
▁قیاس	-10.8449
▁قید	-10.8449
▁لاتین	-10.8449
▁لاس	-10.8449
▁لطف	-10.8449
▁لفظی	-10.8449
▁لو	-10.8449
▁مائوریتسیو	-10.8449
▁ماریکه	-10.8449
▁ماشه	-10.8449
▁مبارزات	-10.8449
▁متقاضیان	-10.8449
▁متولی	-10.8449
▁مثبتی	-10.8449
▁مدام	-10.8449
▁مدتها	-10.8449
▁مذاکراتی	-10.8449
▁مرادی	-10.8449
▁مرکل	-10.8449
▁مزارع	-10.8449
▁مزایای	-10.8449
▁مزمن	-10.8449
▁مسافری	-10.8449
▁مسلحانه	-10.8449
▁مسیح	-10.8449
▁مشاوران	-10.8449
▁مشکوک	-10.8449
▁مضر	-10.8449
▁معارف	-10.8449
▁معاش	-10.8449
▁معاونان	-10.8449
▁مقدم	-10.8449
▁مقدمات	-10.8449
▁مقیمی	-10.8449
▁مناطقی	-10.8449
▁مناظره	-10.8449
▁منجمد	-10.8449
▁مندنی	-10.8449
▁منصوب	-10.8449
▁منفجر	-10.8449
▁مواجهه	-10.8449
▁موتورز	-10.8449
▁موقتا	-10.8449
▁مونتاژ	-10.8449
▁مکلف	-10.8449
▁میلوش	-10.8449
▁ناتوان	-10.8449
▁نامجو	-10.8449
▁نتواند	-10.8449
▁نتوانستند	-10.8449
▁ندانسته	-10.8449
▁نرگس	-10.8449
▁نهادینه	-10.8449
▁نهضت	-10.8449
▁نواحی	-10.8449
▁نوزادان	-10.8449
▁نیا	-10.8449
▁نیسان	-10.8449
▁نیستمنبع	-10.8449
▁نیل	-10.8449
▁هرد	-10.8449
▁هستم.	-10.8449
▁هشتصد	-10.8449
▁هلندی	-10.8449
▁همزمان،	-10.8449
▁همکار	-10.8449
▁هویتی	-10.8449
▁وحشتناک	-10.8449
▁ورشکستگی	-10.8449
▁وزیرخارجه	-10.8449
▁وضوح	-10.8449
▁ونقل	-10.8449
▁وودز	-10.8449
▁وگوها	-10.8449
▁وگوهای	-10.8449
▁ویل	-10.8449
▁پادکست	-10.8449
▁پارسیان	-10.8449
▁پارلمانی	-10.8449
▁پاریسی	-10.8449
▁پالایشی	-10.8449
▁پاکبانان	-10.8449
▁پرتغالی	-10.8449
▁پرسینگ	-10.8449
▁پستی	-10.8449
▁پمپ	-10.8449
▁پورشه	-10.8449
▁پیشگامان	-10.8449
▁پیشینه	-10.8449
▁پیچ	-10.8449
▁چرنکوف	-10.8449
▁چیزهایی	-10.8449
▁چیست؟منبع	-10.8449
▁ژاکا	-10.8449
▁ژورنال	-10.8449
▁کالدرون	-10.8449
▁کامرون	-10.8449
▁کرد.او	-10.8449
▁کردند.منبع	-10.8449
▁کردیم.	-10.8449
▁کردیک	-10.8449
▁کرویف	-10.8449
▁کرگدن	-10.8449
▁کشتیرانی	-10.8449
▁کشمی	-10.8449
▁کشنده	-10.8449
▁کلانتری	-10.8449
▁کلیسای	-10.8449
▁کمکی	-10.8449
▁کنیایی	-10.8449
▁کنیممنبع	-10.8449
▁کهنه	-10.8449
▁کودتای	-10.8449
▁کولبر	-10.8449
▁کولمن	-10.8449
▁کیا	-10.8449
▁گذرد،	-10.8449
▁گذرگاه	-10.8449
▁گرانتر	-10.8449
▁گردد؛	-10.8449
▁گردشگر	-10.8449
▁گرمی	-10.8449
▁گفتگویی	-10.8449
▁گلدن	-10.8449
▁گودا	-10.8449
▁گوناگونی	-10.8449
▁گوید.	-10.8449
▁گوید،	-10.8449
▁گیلان	-10.8449
▁گیگز	-10.8449
▁یادبود	-10.8449
▁یار	-10.8449
▁یوتیوب	-10.8449
▁یووه	-10.8449
▁یکبار	-10.8449
▁یگان	-10.8449
▁۱۳۹۰	-10.8449
▁۱۹۷۰	-10.8449
▁۲۰۰۷	-10.8449
▁۳۰۰۰	-10.8449
▁۷۹	-10.8449
▁آدامس	-10.9503
▁آذرماه	-10.9503
▁آر	-10.9503
▁آرتتا	-10.9503
▁آسانی	-10.9503
▁آشفتگی	-10.9503
▁آقا	-10.9503
▁آلود	-10.9503
▁آمریکا:	-10.9503
▁آموز	-10.9503
▁آنکارا	-10.9503
▁آوردند.	-10.9503
▁آژیر	-10.9503
▁اتباع	-10.9503
▁اتومبیلرانی	-10.9503
▁اتیوپی	-10.9503
▁اجتماعی،	-10.9503
▁اجلاسی	-10.9503
▁اخیر،	-10.9503
▁ادارات	-10.9503
▁ادوارد	-10.9503
▁ارتقا	-10.9503
▁ارگان	-10.9503
▁است.ایران	-10.9503
▁است.برخی	-10.9503
▁است.رئیس	-10.9503
▁است.یک	-10.9503
▁است؟	-10.9503
▁استانداری	-10.9503
▁استرس	-10.9503
▁اسپیس	-10.9503
▁اضافی	-10.9503
▁اعصاب	-10.9503
▁اقشار	-10.9503
▁الکلی	-10.9503
▁الیزابت	-10.9503
▁امبر	-10.9503
▁امتیازات	-10.9503
▁امری	-10.9503
▁امورخارجه	-10.9503
▁انددر	-10.9503
▁اندی	-10.9503
▁انگیزی	-10.9503
▁او.	-10.9503
▁اولدترافورد	-10.9503
▁ای،	-10.9503
▁ایستاد	-10.9503
▁ایندیانا	-10.9503
▁ایوانکوویچ	-10.9503
▁بازاری	-10.9503
▁بازمانده	-10.9503
▁بازگردد	-10.9503
▁بازگو	-10.9503
▁باشم	-10.9503
▁باقیمانده	-10.9503
▁بالاتری	-10.9503
▁بالاحصار	-10.9503
▁باگت	-10.9503
▁بتهوون	-10.9503
▁بخشنامه	-10.9503
▁بدهکار	-10.9503
▁بدوی	-10.9503
▁برهم	-10.9503
▁برگزارکننده	-10.9503
▁بشردوستانه	-10.9503
▁بلخ	-10.9503
▁بله	-10.9503
▁بنیامین	-10.9503
▁بو	-10.9503
▁بودا	-10.9503
▁بوده.	-10.9503
▁بوچانی	-10.9503
▁بگیرند.	-10.9503
▁بگیرید	-10.9503
▁بیاورد.	-10.9503
▁بینید	-10.9503
▁بیورن	-10.9503
▁تاب	-10.9503
▁تجمعی	-10.9503
▁ترانزیت	-10.9503
▁ترجیحی	-10.9503
▁تعزیری	-10.9503
▁تماشاچیان	-10.9503
▁تندیس	-10.9503
▁تنگ	-10.9503
▁تورین	-10.9503
▁توضیحی	-10.9503
▁تویوتا	-10.9503
▁تیموری	-10.9503
▁جامی	-10.9503
▁جانوری	-10.9503
▁جاپلقی	-10.9503
▁جغرافیایی	-10.9503
▁جمهوری،	-10.9503
▁جناح	-10.9503
▁جندی	-10.9503
▁جهانی،	-10.9503
▁جهشی	-10.9503
▁جوامع	-10.9503
▁حاضران	-10.9503
▁حراست	-10.9503
▁حسابی	-10.9503
▁حفره	-10.9503
▁حیاط	-10.9503
▁خانقاه	-10.9503
▁خریدن	-10.9503
▁خسته	-10.9503
▁خنثی	-10.9503
▁خواندمنبع	-10.9503
▁خواندند	-10.9503
▁خودسرانه	-10.9503
▁خوراک	-10.9503
▁خوشحالی	-10.9503
▁خویش	-10.9503
▁خیره	-10.9503
▁خیز	-10.9503
▁دارد.او	-10.9503
▁دانیم؟منبع	-10.9503
▁داوطلبانه	-10.9503
▁دایر	-10.9503
▁دایناسور	-10.9503
▁دایکندی	-10.9503
▁دبیرخانه	-10.9503
▁درآمدها	-10.9503
▁دراین	-10.9503
▁درسی	-10.9503
▁درصدد	-10.9503
▁درها	-10.9503
▁دستان	-10.9503
▁دهد.این	-10.9503
▁دهیم.	-10.9503
▁دوتابعیتی	-10.9503
▁دورانگو	-10.9503
▁دوستداران	-10.9503
▁دیزنی	-10.9503
▁رابین	-10.9503
▁رامش	-10.9503
▁رانده	-10.9503
▁ربطی	-10.9503
▁رجب	-10.9503
▁رخشانه	-10.9503
▁رسی	-10.9503
▁ره	-10.9503
▁رودبار	-10.9503
▁روده	-10.9503
▁روزگاری	-10.9503
▁روشنایی	-10.9503
▁ریاضی	-10.9503
▁ریسک	-10.9503
▁زند.	-10.9503
▁زننده	-10.9503
▁زورف	-10.9503
▁زیرزمینی	-10.9503
▁سازد	-10.9503
▁ساعی	-10.9503
▁سال،	-10.9503
▁سبد	-10.9503
▁سخنانی	-10.9503
▁سرای	-10.9503
▁سرزده	-10.9503
▁سرشار	-10.9503
▁سرنشین	-10.9503
▁سرور	-10.9503
▁سلبریتی	-10.9503
▁سنای	-10.9503
▁سنگر	-10.9503
▁سهراب	-10.9503
▁سوژه	-10.9503
▁سیا	-10.9503
▁سیاسی،	-10.9503
▁سینماها	-10.9503
▁شاپی	-10.9503
▁شبی	-10.9503
▁شد.همزمان	-10.9503
▁شداین	-10.9503
▁شدم.	-10.9503
▁شدند،	-10.9503
▁شدند؛	-10.9503
▁شعبانی	-10.9503
▁شناختی	-10.9503
▁شناسد	-10.9503
▁شناگر	-10.9503
▁شهرهایی	-10.9503
▁شهیدی	-10.9503
▁شهیدیان	-10.9503
▁شورش	-10.9503
▁شوند؛	-10.9503
▁شوندمنبع	-10.9503
▁شیلی	-10.9503
▁شیکاگو	-10.9503
▁صاف	-10.9503
▁صرب	-10.9503
▁صرفنظر	-10.9503
▁صریح	-10.9503
▁صید	-10.9503
▁عالمی،	-10.9503
▁عددی	-10.9503
▁عرفان	-10.9503
▁عزیز	-10.9503
▁عطرساز	-10.9503
▁عطرسازی	-10.9503
▁عظیمی	-10.9503
▁علیدوستی	-10.9503
▁عمدی	-10.9503
▁عکاسان	-10.9503
▁عکس؛	-10.9503
▁غافلگیری	-10.9503
▁غالبا	-10.9503
▁غیرعادی	-10.9503
▁غیرنظامی	-10.9503
▁فابیو	-10.9503
▁فرجام	-10.9503
▁فردین	-10.9503
▁فرش	-10.9503
▁فرشاد	-10.9503
▁فریب	-10.9503
▁فلسطینیان	-10.9503
▁فلیکس	-10.9503
▁فهرستی	-10.9503
▁فوتبالیستی	-10.9503
▁فوریت	-10.9503
▁فیزیکدان	-10.9503
▁فین	-10.9503
▁قائل	-10.9503
▁قاب	-10.9503
▁قره	-10.9503
▁قضاوت	-10.9503
▁قیمتهای	-10.9503
▁لاجورد	-10.9503
▁لبنانی	-10.9503
▁لحظاتی	-10.9503
▁لوایح	-10.9503
▁مادی	-10.9503
▁مانعی	-10.9503
▁مایحتاج	-10.9503
▁متحدانش	-10.9503
▁متخلفان	-10.9503
▁مثلث	-10.9503
▁مجرم	-10.9503
▁محدودی	-10.9503
▁محصولاتش	-10.9503
▁محفظه	-10.9503
▁محمدحسین	-10.9503
▁مخابراتی	-10.9503
▁مدفوع	-10.9503
▁مربع	-10.9503
▁مری	-10.9503
▁مزار	-10.9503
▁مسبب	-10.9503
▁مستثنی	-10.9503
▁مستضعفان	-10.9503
▁مشتقات	-10.9503
▁مصدوم	-10.9503
▁مصلحت	-10.9503
▁مظنون	-10.9503
▁معمار	-10.9503
▁معنا	-10.9503
▁معیارهای	-10.9503
▁مغلوب	-10.9503
▁مفصل	-10.9503
▁منابعی	-10.9503
▁مناقشه	-10.9503
▁مندان	-10.9503
▁منظم	-10.9503
▁مهاجمان	-10.9503
▁مهربان	-10.9503
▁مهره	-10.9503
▁مهندسان	-10.9503
▁موعد	-10.9503
▁موهای	-10.9503
▁مکارمی	-10.9503
▁میرزا	-10.9503
▁میمندی	-10.9503
▁میهمان	-10.9503
▁میکل	-10.9503
▁نابود	-10.9503
▁نادری	-10.9503
▁ناظری	-10.9503
▁نامداری،	-10.9503
▁نامناسب	-10.9503
▁ناگزیر	-10.9503
▁نتفلیکس	-10.9503
▁نداریم.	-10.9503
▁ندهد	-10.9503
▁نر	-10.9503
▁نسترن	-10.9503
▁نشدنی	-10.9503
▁نظرهای	-10.9503
▁نمازی	-10.9503
▁نمانده	-10.9503
▁نهادی	-10.9503
▁نوله	-10.9503
▁نژاد،	-10.9503
▁نگفته	-10.9503
▁نیست.به	-10.9503
▁هاروارد	-10.9503
▁هری	-10.9503
▁همر	-10.9503
▁همسرم	-10.9503
▁واردی	-10.9503
▁واریز	-10.9503
▁والدین	-10.9503
▁واکسنی	-10.9503
▁ودیعه	-10.9503
▁وزیری	-10.9503
▁ونیز	-10.9503
▁ووهان	-10.9503
▁وگاس	-10.9503
▁ویزای	-10.9503
▁پارچه	-10.9503
▁پارکر	-10.9503
▁پاهای	-10.9503
▁پذیری	-10.9503
▁پراکنی	-10.9503
▁پروازی	-10.9503
▁پناهنده	-10.9503
▁پوشان	-10.9503
▁پولیتزر	-10.9503
▁پویا	-10.9503
▁پیداست	-10.9503
▁پیری	-10.9503
▁پیشکسوت	-10.9503
▁پیمانکار	-10.9503
▁پیکی	-10.9503
▁چوب	-10.9503
▁چیست؟	-10.9503
▁ژیوادان	-10.9503
▁کادیس	-10.9503
▁کارفرما	-10.9503
▁کارگرانی	-10.9503
▁کارگروه	-10.9503
▁کارگزار	-10.9503
▁کارگیری	-10.9503
▁کامبوج	-10.9503
▁کتک	-10.9503
▁کردندمنبع	-10.9503
▁کریم	-10.9503
▁کنند.او	-10.9503
▁کنند.به	-10.9503
▁کنی	-10.9503
▁کومان	-10.9503
▁کوهن	-10.9503
▁کوچکترین	-10.9503
▁کیپچوگه	-10.9503
▁گرفته.	-10.9503
▁گروههای	-10.9503
▁گشوده	-10.9503
▁گفتن	-10.9503
▁یابد؛	-10.9503
▁یاوری	-10.9503
▁یکه	-10.9503
▁۱.۵	-10.9503
▁۱۱۰	-10.9503
▁۱۴۰۰؛	-10.9503
▁۱۸۰	-10.9503
▁۱۹۵۰	-10.9503
▁۱۹۶۵	-10.9503
▁۶۲۸	-10.9503
▁۹۲	-10.9503
▁۹۳	-10.9503
▁'از	-11.068
▁آبراموویچ	-11.068
▁آتالانتا	-11.068
▁آرزو	-11.068
▁آرسن	-11.068
▁آرمان	-11.068
▁آزادانه	-11.068
▁آلمن	-11.068
▁آلنده	-11.068
▁آنتیفا	-11.068
▁آنفیلد	-11.068
▁آنچلوتی	-11.068
▁آهسته	-11.068
▁آیند.	-11.068
▁ئی	-11.068
▁ابداع	-11.068
▁اتریشی	-11.068
▁اتوماتیک	-11.068
▁اجساد	-11.068
▁اختیارات	-11.068
▁اخذ	-11.068
▁ارتعاشات	-11.068
▁ارسلان	-11.068
▁اروپا،	-11.068
▁اسبق	-11.068
▁است.بنابر	-11.068
▁است.دو	-11.068
▁است.شیدا	-11.068
▁است.پیشتر	-11.068
▁است.گروه	-11.068
▁استادان	-11.068
▁استاینر	-11.068
▁استثنایی	-11.068
▁استقامت	-11.068
▁استلانتیس	-11.068
▁اسپایدرز	-11.068
▁اصالت	-11.068
▁اعتباری	-11.068
▁اعتراضاتی	-11.068
▁افزودن	-11.068
▁افغانستانی	-11.068
▁افکاری	-11.068
▁الاجل	-11.068
▁التحصیل	-11.068
▁الحسنه	-11.068
▁النصر	-11.068
▁الهی	-11.068
▁الوحده	-11.068
▁الگوریتمی	-11.068
▁امریکا	-11.068
▁امسال،	-11.068
▁امیدی	-11.068
▁انتهای	-11.068
▁اند.اما	-11.068
▁اندرکاران	-11.068
▁اندیشکده	-11.068
▁انگاری	-11.068
▁اولیویا	-11.068
▁ایراندر	-11.068
▁ایمن	-11.068
▁اینفینیتی	-11.068
▁اینقدر	-11.068
▁ایکس	-11.068
▁بارتومئو	-11.068
▁باز؛	-11.068
▁بازبینی	-11.068
▁بازرگان	-11.068
▁بازگشت.	-11.068
▁باسابقه	-11.068
▁باشد؛	-11.068
▁باکتری	-11.068
▁ببیند.	-11.068
▁بتوانم	-11.068
▁بخواهد	-11.068
▁بخواهید	-11.068
▁بدحال	-11.068
▁برترین	-11.068
▁برجای	-11.068
▁برطرف	-11.068
▁برند.	-11.068
▁برپا	-11.068
▁برگردانده	-11.068
▁بریتانیامنبع	-11.068
▁بلانشت	-11.068
▁بلندی	-11.068
▁بنزما	-11.068
▁بنزینی	-11.068
▁بهبهان	-11.068
▁بودند.منبع	-11.068
▁بکشد.	-11.068
▁بکشند	-11.068
▁بگویند	-11.068
▁بیانسه	-11.068
▁بیدار	-11.068
▁بیرونی	-11.068
▁بیگانه	-11.068
▁بیگی	-11.068
▁تابحال	-11.068
▁تابوت	-11.068
▁تاجزاده	-11.068
▁تام	-11.068
▁تبریک	-11.068
▁تبلت	-11.068
▁تحصیلی	-11.068
▁تحقیر	-11.068
▁تحولی	-11.068
▁تسلط	-11.068
▁تشییع	-11.068
▁تصویربرداری	-11.068
▁تطبیق	-11.068
▁تعاون	-11.068
▁تفاهمنامه	-11.068
▁تقدیم	-11.068
▁تقوی،	-11.068
▁تلاطم	-11.068
▁تناسب	-11.068
▁تهرانی	-11.068
▁توازن	-11.068
▁توس	-11.068
▁تولدش	-11.068
▁تونل	-11.068
▁توییترش	-11.068
▁ثالث	-11.068
▁جابه	-11.068
▁جانش	-11.068
▁جایگزینی	-11.068
▁جرائم	-11.068
▁جراحت	-11.068
▁جرح	-11.068
▁جماهیر	-11.068
▁جمعه،	-11.068
▁جون	-11.068
▁جویی	-11.068
▁جیک	-11.068
▁حتما	-11.068
▁حرم	-11.068
▁حصول	-11.068
▁حمیدرضا	-11.068
▁خاشقجی	-11.068
▁خالقی	-11.068
▁خاوری	-11.068
▁خدیجه	-11.068
▁خروجی	-11.068
▁خطا	-11.068
▁خطری	-11.068
▁خلوتگر	-11.068
▁خم	-11.068
▁خود،	-11.068
▁خودمان	-11.068
▁خودکفایی	-11.068
▁خورد؛	-11.068
▁خوشی	-11.068
▁خیال	-11.068
▁خیالی	-11.068
▁دات	-11.068
▁دادخواهانه	-11.068
▁دادیم	-11.068
▁دارند.منبع	-11.068
▁دارند،	-11.068
▁داوود	-11.068
▁دبیرستان	-11.068
▁دختری	-11.068
▁درو	-11.068
▁دریابندری	-11.068
▁دریافتی	-11.068
▁دزدان	-11.068
▁دستمزدی	-11.068
▁دستوری	-11.068
▁دمانس	-11.068
▁دنیاست	-11.068
▁دنیل	-11.068
▁دهد.در	-11.068
▁دوتار	-11.068
▁دوجانبه	-11.068
▁دیاباته	-11.068
▁دیدم	-11.068
▁راستش	-11.068
▁راضی	-11.068
▁راهپیمایی	-11.068
▁رایگان	-11.068
▁ردپای	-11.068
▁ردینگ	-11.068
▁رز	-11.068
▁رشید	-11.068
▁رطوبت	-11.068
▁رفتند.	-11.068
▁رقبا	-11.068
▁رقبای	-11.068
▁رواج	-11.068
▁روبرتو	-11.068
▁روبروست	-11.068
▁رودکی	-11.068
▁روزهایی	-11.068
▁رومانی	-11.068
▁رومن	-11.068
▁رویت	-11.068
▁رکوردها	-11.068
▁ریاضیات	-11.068
▁ریختن	-11.068
▁ریز	-11.068
▁زابل	-11.068
▁زادگاهش	-11.068
▁زانویش	-11.068
▁زاکانی	-11.068
▁زندانیانی	-11.068
▁زیارت	-11.068
▁ساخت.	-11.068
▁ساختارهای	-11.068
▁سادیو	-11.068
▁سارا	-11.068
▁سازمانی	-11.068
▁سال.	-11.068
▁سالمرگ	-11.068
▁سانتوس	-11.068
▁سانتیمتر	-11.068
▁سرما	-11.068
▁سروده	-11.068
▁سرکوبی	-11.068
▁سرگشاده	-11.068
▁سفرها	-11.068
▁سنگینی	-11.068
▁سهیم	-11.068
▁سوناک	-11.068
▁سوگ	-11.068
▁سوگوار	-11.068
▁سوگواری	-11.068
▁سکانس	-11.068
▁سی،	-11.068
▁سیاستمدار	-11.068
▁سیبری	-11.068
▁سیتسی	-11.068
▁شابلون	-11.068
▁شانگهای	-11.068
▁شاگرد	-11.068
▁شباهت	-11.068
▁شجریان:	-11.068
▁شخصا	-11.068
▁شدرئیس	-11.068
▁شدند.این	-11.068
▁شدند.در	-11.068
▁شناختن	-11.068
▁شناسنامه	-11.068
▁شهاب	-11.068
▁شهرخودرو	-11.068
▁شوم.	-11.068
▁شکوفایی	-11.068
▁صدایی	-11.068
▁صدرنشینی	-11.068
▁صیانت	-11.068
▁ضیا	-11.068
▁طباطبایی	-11.068
▁طزره	-11.068
▁طلاها	-11.068
▁طلبانه	-11.068
▁طلبد	-11.068
▁طلوع	-11.068
▁عالمی	-11.068
▁عام	-11.068
▁عاملی	-11.068
▁عتیقه	-11.068
▁عراق،	-11.068
▁عرف	-11.068
▁عروس	-11.068
▁عنوانی	-11.068
▁عکسهای	-11.068
▁عیسی	-11.068
▁عینی	-11.068
▁غارت	-11.068
▁غلام	-11.068
▁فالانژهای	-11.068
▁فای	-11.068
▁فراموشی	-11.068
▁فرانسیس	-11.068
▁فرحی	-11.068
▁فرزین	-11.068
▁فرماندهی	-11.068
▁قاسمی	-11.068
▁قاطعانه	-11.068
▁قاعدتا	-11.068
▁قرض	-11.068
▁قرون	-11.068
▁قشم	-11.068
▁قفس	-11.068
▁قفسه	-11.068
▁قند	-11.068
▁قندهار	-11.068
▁قوانینی	-11.068
▁لبخندی	-11.068
▁لحن	-11.068
▁لخته	-11.068
▁لسترسیتی	-11.068
▁لطمه	-11.068
▁لوکا	-11.068
▁لوکاس	-11.068
▁لیتر	-11.068
▁مارادونای	-11.068
▁مارسیال	-11.068
▁مارماهی	-11.068
▁مارکوس	-11.068
▁ماهشهر	-11.068
▁مایع	-11.068
▁مباحث	-11.068
▁مبالغ	-11.068
▁مبتنی	-11.068
▁مبین	-11.068
▁متضرر	-11.068
▁متفرق	-11.068
▁متمایز	-11.068
▁متنوعش	-11.068
▁متیوز	-11.068
▁محمدی،	-11.068
▁مختلف،	-11.068
▁مدافعان	-11.068
▁مدلسازی	-11.068
▁مربیگری	-11.068
▁مستندساز	-11.068
▁مشخصات	-11.068
▁مشخصه	-11.068
▁مصالحه	-11.068
▁مصر	-11.068
▁مصمم	-11.068
▁مطالبه	-11.068
▁مطالبی	-11.068
▁مطلبی	-11.068
▁معاهدات	-11.068
▁معلول	-11.068
▁معمای	-11.068
▁معنوی	-11.068
▁معین	-11.068
▁مغزش	-11.068
▁مغناطیسی	-11.068
▁مفهومی	-11.068
▁مقاوم	-11.068
▁ملا	-11.068
▁ممنوعه	-11.068
▁منظره	-11.068
▁منک	-11.068
▁مهران	-11.068
▁مهمانان	-11.068
▁موردش	-11.068
▁موردی	-11.068
▁مورل	-11.068
▁موفقی	-11.068
▁موکلش	-11.068
▁موی	-11.068
▁مکس	-11.068
▁میادین	-11.068
▁میرسلیم	-11.068
▁میلیاردرهای	-11.068
▁ناآرام	-11.068
▁ناامید	-11.068
▁نادران	-11.068
▁ناراحتی	-11.068
▁ناراضی	-11.068
▁نامگذاری	-11.068
▁ناهماهنگی	-11.068
▁ناپولی	-11.068
▁نایا	-11.068
▁نخ	-11.068
▁نسلی	-11.068
▁نشستن	-11.068
▁نشستی	-11.068
▁نعمتی	-11.068
▁نفتکشی	-11.068
▁نمایندگانی	-11.068
▁نهفته	-11.068
▁نوازندگان	-11.068
▁نوایی	-11.068
▁نوظهور	-11.068
▁نوه	-11.068
▁نوی	-11.068
▁نگارش	-11.068
▁نیازمندی	-11.068
▁نیست'منبع	-11.068
▁نیوکسل	-11.068
▁نیچر	-11.068
▁نیکولاس	-11.068
▁هامنبع	-11.068
▁هامون	-11.068
▁هراس	-11.068
▁هرمزگان	-11.068
▁هستند،	-11.068
▁هلمند	-11.068
▁هوادارانش	-11.068
▁هویزه	-11.068
▁واردکنندگان	-11.068
▁وفادار	-11.068
▁وکلای	-11.068
▁وگرنه	-11.068
▁ویرانی	-11.068
▁پاراگوئه	-11.068
▁پافشاری	-11.068
▁پالائو	-11.068
▁پدید	-11.068
▁پرسپولیس،	-11.068
▁پسند	-11.068
▁پلاستیک	-11.068
▁پناه	-11.068
▁پنجشیر	-11.068
▁پهن	-11.068
▁پوسته	-11.068
▁پوشیدن	-11.068
▁پیانو	-11.068
▁پیدایش	-11.068
▁پیشانی	-11.068
▁پیشگام	-11.068
▁پینگ	-11.068
▁پیک	-11.068
▁چانه	-11.068
▁چای	-11.068
▁چرخش	-11.068
▁چنگیز	-11.068
▁چهلمین	-11.068
▁چین،	-11.068
▁ژسوس	-11.068
▁ژنرال	-11.068
▁ژیمناستیک	-11.068
▁کادرفنی	-11.068
▁کارزارهای	-11.068
▁کارل	-11.068
▁کاغذ	-11.068
▁کالابرگ	-11.068
▁کالای	-11.068
▁کالایی	-11.068
▁کالبدشکافی	-11.068
▁کالینز	-11.068
▁کام	-11.068
▁کدخدایی	-11.068
▁کر	-11.068
▁کروناواک	-11.068
▁کرونایی	-11.068
▁کریستوفر	-11.068
▁کشتن	-11.068
▁کشورشان	-11.068
▁کلاه	-11.068
▁کلاین	-11.068
▁کلدی	-11.068
▁کند'منبع	-11.068
▁کنند.آقای	-11.068
▁کوپتر	-11.068
▁کپسول	-11.068
▁کیست	-11.068
▁کیفرخواست	-11.068
▁کیمن	-11.068
▁گارد	-11.068
▁گدار	-11.068
▁گراد	-11.068
▁گرامی	-11.068
▁گرجستانی	-11.068
▁گردنبند	-11.068
▁گردون	-11.068
▁گرفتمنبع	-11.068
▁گرفتگی	-11.068
▁گروسی،	-11.068
▁گفته،	-11.068
▁گهر	-11.068
▁گوفن	-11.068
▁گیم	-11.068
▁یوروویژن	-11.068
▁یوسین	-11.068
▁۱۳۴۰	-11.068
▁۱۳۵۰	-11.068
▁۱۳۶۷	-11.068
▁۱۹۲۰	-11.068
▁۱۹۳۰	-11.068
▁۱۹۶۷	-11.068
▁۱۹۹۶	-11.068
▁۱۹۹۷	-11.068
▁۶۳	-11.068
▁۸۳	-11.068
▁'برای	-11.2016
▁)	-11.2016
▁.حسن	-11.2016
▁آبزیان	-11.2016
▁آذری	-11.2016
▁آرایشگاه	-11.2016
▁آرزوهای	-11.2016
▁آریگو	-11.2016
▁آغازین	-11.2016
▁آنهم	-11.2016
▁آنی	-11.2016
▁آوازخوان	-11.2016
▁آژانس،	-11.2016
▁آکسفام	-11.2016
▁آگوئرو	-11.2016
▁ابوالفضل	-11.2016
▁ابی	-11.2016
▁اتفاقاتی	-11.2016
▁اجتماع	-11.2016
▁احترامی	-11.2016
▁احوال	-11.2016
▁اختلالات	-11.2016
▁ادل	-11.2016
▁ارومیه	-11.2016
▁اروپای	-11.2016
▁ارکستر	-11.2016
▁ازسرگیری	-11.2016
▁اساسا	-11.2016
▁است.آمریکا	-11.2016
▁است.افزایش	-11.2016
▁است.بهرنگ	-11.2016
▁است.سه	-11.2016
▁است.شاخص	-11.2016
▁است.وزیر	-11.2016
▁است.کارشناسان	-11.2016
▁استرسانه	-11.2016
▁استوزارت	-11.2016
▁استیو	-11.2016
▁اسرائیل،	-11.2016
▁اسنپ	-11.2016
▁اسپورت	-11.2016
▁اشیا	-11.2016
▁اصلانی	-11.2016
▁اصولی	-11.2016
▁اصیل	-11.2016
▁اظهاراتی	-11.2016
▁اعراب	-11.2016
▁افسردگی	-11.2016
▁اقتصاددان	-11.2016
▁الزام	-11.2016
▁اماراتی	-11.2016
▁امروزشان	-11.2016
▁امیدوارکننده	-11.2016
▁امیرحسین	-11.2016
▁امیری	-11.2016
▁انتصاب	-11.2016
▁انتقالاتی	-11.2016
▁اند.بیشتر	-11.2016
▁اند؟امسال	-11.2016
▁اندرسون	-11.2016
▁انستیتو	-11.2016
▁انگیزترین	-11.2016
▁او،	-11.2016
▁اوارق	-11.2016
▁اوست	-11.2016
▁اولیانوف	-11.2016
▁اکبریان	-11.2016
▁ایان	-11.2016
▁اینترپل	-11.2016
▁اینفانتینو	-11.2016
▁باج	-11.2016
▁بازارهایی	-11.2016
▁بازجویی	-11.2016
▁بازداشتی	-11.2016
▁بازدیدکنندگان	-11.2016
▁بازماندگان	-11.2016
▁بازیافت	-11.2016
▁باشد.منبع	-11.2016
▁باشد،	-11.2016
▁باغچه	-11.2016
▁باقر	-11.2016
▁بانان	-11.2016
▁بانو	-11.2016
▁ببیند	-11.2016
▁بتازگی	-11.2016
▁بخشیدن	-11.2016
▁بدهند.	-11.2016
▁برآمدن	-11.2016
▁برنمی	-11.2016
▁برنگشته	-11.2016
▁بروم	-11.2016
▁برگشتی	-11.2016
▁بریت	-11.2016
▁بریستول	-11.2016
▁بعدتر	-11.2016
▁بلایندرز	-11.2016
▁بلندترین	-11.2016
▁بم	-11.2016
▁بمب	-11.2016
▁بنده	-11.2016
▁بهم	-11.2016
▁بهینه	-11.2016
▁بود.پس	-11.2016
▁بود؟منبع	-11.2016
▁بوده،	-11.2016
▁بودیم.	-11.2016
▁بور	-11.2016
▁بوزمن	-11.2016
▁بوق	-11.2016
▁بینندگان	-11.2016
▁تاجیکان	-11.2016
▁تار	-11.2016
▁تبصره	-11.2016
▁تبلیغی	-11.2016
▁تجدیدنظر	-11.2016
▁تجدیدپذیر	-11.2016
▁تحریریه	-11.2016
▁تحقیرآمیز	-11.2016
▁تحلیلگر	-11.2016
▁تخیل	-11.2016
▁ترامپ،	-11.2016
▁تراکم	-11.2016
▁تربیت	-11.2016
▁ترتیبات	-11.2016
▁ترحیم	-11.2016
▁تزئین	-11.2016
▁تسریع	-11.2016
▁تصاعد	-11.2016
▁تفریح	-11.2016
▁تفکر	-11.2016
▁تفکیک	-11.2016
▁تلفیقی	-11.2016
▁تمامیت	-11.2016
▁تنگنای	-11.2016
▁توبیاس	-11.2016
▁توربو	-11.2016
▁تورهای	-11.2016
▁توریستی	-11.2016
▁تولیدش	-11.2016
▁تولیدکننده	-11.2016
▁تکامل	-11.2016
▁تکنیک	-11.2016
▁تکنیکی	-11.2016
▁تیغ	-11.2016
▁جاغوری	-11.2016
▁جدیت	-11.2016
▁جرج	-11.2016
▁جعل	-11.2016
▁جمجمه	-11.2016
▁جنرال	-11.2016
▁جهان:	-11.2016
▁جوشقانی	-11.2016
▁جیمی	-11.2016
▁حاره	-11.2016
▁حالم	-11.2016
▁حاکیست	-11.2016
▁حریرچی	-11.2016
▁حسرت	-11.2016
▁حلق	-11.2016
▁حکمت	-11.2016
▁حکمرانی	-11.2016
▁خارق	-11.2016
▁خالف	-11.2016
▁خبرنامه	-11.2016
▁خبرنگاری	-11.2016
▁خران	-11.2016
▁خرند.	-11.2016
▁خلبان	-11.2016
▁خوانند	-11.2016
▁داد.در	-11.2016
▁داد.منبع	-11.2016
▁داران	-11.2016
▁دارند:	-11.2016
▁داروین	-11.2016
▁داشبورد	-11.2016
▁داشت.منبع	-11.2016
▁داشتیم.	-11.2016
▁دانستن	-11.2016
▁دربند	-11.2016
▁دردناک	-11.2016
▁درمورد	-11.2016
▁درونی	-11.2016
▁درگذشتگان	-11.2016
▁دریافته	-11.2016
▁دریچه	-11.2016
▁دزدی	-11.2016
▁دفاتر	-11.2016
▁دل،	-11.2016
▁دهد:	-11.2016
▁دهدمنبع	-11.2016
▁دهند.این	-11.2016
▁دهی	-11.2016
▁دوبی	-11.2016
▁دوخته	-11.2016
▁دوستش	-11.2016
▁دومی	-11.2016
▁دوی	-11.2016
▁دگرگون	-11.2016
▁دیجیتالی	-11.2016
▁دیدگی	-11.2016
▁دیوارهای	-11.2016
▁دیواری	-11.2016
▁دیگر.	-11.2016
▁ذائقه	-11.2016
▁ذهنش	-11.2016
▁ذیبخش	-11.2016
▁رائونیچ	-11.2016
▁رادیوی	-11.2016
▁ران	-11.2016
▁ربیعی	-11.2016
▁رزمی	-11.2016
▁رشت	-11.2016
▁رصدخانه	-11.2016
▁رغبت	-11.2016
▁رفت،	-11.2016
▁رفسنجانی	-11.2016
▁رمدسیویر	-11.2016
▁روحی	-11.2016
▁روستاهای	-11.2016
▁روسیه،	-11.2016
▁رویم	-11.2016
▁رپ	-11.2016
▁رکوردشکنی	-11.2016
▁ریو	-11.2016
▁زائران	-11.2016
▁زرق	-11.2016
▁زمزمه	-11.2016
▁زن:	-11.2016
▁ساختمانی	-11.2016
▁ساختگی	-11.2016
▁سازان	-11.2016
▁سازوکار	-11.2016
▁سازوکارهای	-11.2016
▁ساسانی	-11.2016
▁سام	-11.2016
▁ساید	-11.2016
▁ستون	-11.2016
▁سجاد	-11.2016
▁سرانه	-11.2016
▁سرطانی	-11.2016
▁سریعتر	-11.2016
▁سفیددره	-11.2016
▁سفیدپوست	-11.2016
▁سفیران	-11.2016
▁سقط	-11.2016
▁سلتیک	-11.2016
▁سناریو	-11.2016
▁سنبل	-11.2016
▁سندی	-11.2016
▁سنگی	-11.2016
▁سوابق	-11.2016
▁سوت	-11.2016
▁سودان	-11.2016
▁سوشانت	-11.2016
▁سکان	-11.2016
▁سکوها	-11.2016
▁سیاستهای	-11.2016
▁سیلی	-11.2016
▁سینماگر	-11.2016
▁شایعات	-11.2016
▁شباهتی	-11.2016
▁شتم	-11.2016
▁شددر	-11.2016
▁شدنی	-11.2016
▁شرطی	-11.2016
▁شرم	-11.2016
▁شعارهایی	-11.2016
▁شعری	-11.2016
▁شفاهی	-11.2016
▁شفیلد	-11.2016
▁شنای	-11.2016
▁شهرام	-11.2016
▁شهرتی	-11.2016
▁شهره	-11.2016
▁شود'منبع	-11.2016
▁شود.اما	-11.2016
▁شود.رئیس	-11.2016
▁شوند.این	-11.2016
▁شوند.منبع	-11.2016
▁شوهرش	-11.2016
▁شویم.	-11.2016
▁شکننده	-11.2016
▁شکنی	-11.2016
▁شیرجه	-11.2016
▁شیفته	-11.2016
▁صراحت	-11.2016
▁صفحاتی	-11.2016
▁صفرها	-11.2016
▁صفوف	-11.2016
▁صنعت،	-11.2016
▁صنف	-11.2016
▁صورتش	-11.2016
▁ضایعات	-11.2016
▁ضدعفونی	-11.2016
▁ضریب	-11.2016
▁ضوابط	-11.2016
▁طاعون	-11.2016
▁طرفین	-11.2016
▁طغیان	-11.2016
▁طلسم	-11.2016
▁ظریف،	-11.2016
▁عالم	-11.2016
▁عربستان،	-11.2016
▁عروقی	-11.2016
▁علائمی	-11.2016
▁علیزاده	-11.2016
▁عمودی	-11.2016
▁عنصر	-11.2016
▁عواملی	-11.2016
▁عیب	-11.2016
▁غروب	-11.2016
▁غلامرضا	-11.2016
▁غیرعضو	-11.2016
▁غیرمجاز	-11.2016
▁فاتح	-11.2016
▁فاضلی	-11.2016
▁فتحی	-11.2016
▁فحش	-11.2016
▁فرآیندی	-11.2016
▁فرسوده	-11.2016
▁فرندز	-11.2016
▁فستیوال	-11.2016
▁فضل	-11.2016
▁فعالی	-11.2016
▁فلزات	-11.2016
▁فوتبال:	-11.2016
▁فورا	-11.2016
▁فکرش	-11.2016
▁فی	-11.2016
▁فیروز	-11.2016
▁فیروزجا	-11.2016
▁فیلترینگ	-11.2016
▁فیلمسازی	-11.2016
▁قاتل	-11.2016
▁قاعده	-11.2016
▁قحطی	-11.2016
▁قربان	-11.2016
▁قرقیزستان	-11.2016
▁قوم	-11.2016
▁لابراتوار	-11.2016
▁لامرد	-11.2016
▁لبخندها	-11.2016
▁لبریز	-11.2016
▁لبه	-11.2016
▁لندروور	-11.2016
▁لهستانی	-11.2016
▁لیبی	-11.2016
▁لیدی	-11.2016
▁لیسانس	-11.2016
▁لیون	-11.2016
▁ماجرایی	-11.2016
▁مارادونا،	-11.2016
▁ماست	-11.2016
▁ماسویدال	-11.2016
▁مال	-11.2016
▁ماندند	-11.2016
▁ماندنی	-11.2016
▁مانش	-11.2016
▁مانند	-11.2016
▁ماهیچه	-11.2016
▁مبادی	-11.2016
▁متان	-11.2016
▁متخلف	-11.2016
▁متنوع	-11.2016
▁متنی	-11.2016
▁متوفی	-11.2016
▁متون	-11.2016
▁مجاهدین	-11.2016
▁مجبورند	-11.2016
▁مجتمع	-11.2016
▁مجروح	-11.2016
▁مجریان	-11.2016
▁محافل	-11.2016
▁محدودیتی	-11.2016
▁محصولاتی	-11.2016
▁مخاطب	-11.2016
▁مدیربرنامه	-11.2016
▁مرتفع	-11.2016
▁مردانی	-11.2016
▁مردن	-11.2016
▁مزارشریف	-11.2016
▁مسمومیت	-11.2016
▁مشتاق	-11.2016
▁مصور	-11.2016
▁معتقدیم	-11.2016
▁معتمدی	-11.2016
▁معطوف	-11.2016
▁معلولان	-11.2016
▁مغولستان	-11.2016
▁مقاصد	-11.2016
▁مقداری	-11.2016
▁مقدمه	-11.2016
▁مقطع	-11.2016
▁مناره	-11.2016
▁منتسب	-11.2016
▁منتشرشده	-11.2016
▁منحل	-11.2016
▁منصوری	-11.2016
▁منفجره	-11.2016
▁منفرد	-11.2016
▁منوط	-11.2016
▁مهیج	-11.2016
▁مو	-11.2016
▁موافقان	-11.2016
▁موثری	-11.2016
▁مورگان	-11.2016
▁مولانا	-11.2016
▁میرضیایف	-11.2016
▁میلیاردی	-11.2016
▁میوند	-11.2016
▁ناخوشایند	-11.2016
▁ناصرالدین	-11.2016
▁نامشخص	-11.2016
▁نانوایی	-11.2016
▁نجوا	-11.2016
▁نداد	-11.2016
▁ندرت	-11.2016
▁نشدند	-11.2016
▁نظرش	-11.2016
▁نعلی	-11.2016
▁نفی	-11.2016
▁نهایتا	-11.2016
▁نهنگ	-11.2016
▁نوشت:	-11.2016
▁نویر	-11.2016
▁نکنیم	-11.2016
▁نگرش	-11.2016
▁نیافته	-11.2016
▁نیستند.	-11.2016
▁نیستیم	-11.2016
▁هانسی	-11.2016
▁هاپکینز	-11.2016
▁هرکسی	-11.2016
▁هریسون	-11.2016
▁هستند.منبع	-11.2016
▁هستندمنبع	-11.2016
▁هستیم؛	-11.2016
▁هشدارهای	-11.2016
▁هفته،	-11.2016
▁هلال	-11.2016
▁هلسینکی	-11.2016
▁هنرمندی	-11.2016
▁هپاتیت	-11.2016
▁هک	-11.2016
▁هیدروکسی	-11.2016
▁وادار	-11.2016
▁وار	-11.2016
▁وبا	-11.2016
▁وحشت	-11.2016
▁ورای	-11.2016
▁وزاری	-11.2016
▁ولد	-11.2016
▁ومبلی	-11.2016
▁ونگر	-11.2016
▁ویدیوهایی	-11.2016
▁ویرایش	-11.2016
▁پ	-11.2016
▁پاره	-11.2016
▁پاسخگویی	-11.2016
▁پدافند	-11.2016
▁پربیننده	-11.2016
▁پردازد.	-11.2016
▁پرسید	-11.2016
▁پرسیده	-11.2016
▁پروست	-11.2016
▁پرویز	-11.2016
▁پسرم	-11.2016
▁پسری	-11.2016
▁پنسیلوانیا	-11.2016
▁پهپاد	-11.2016
▁پیامگیر	-11.2016
▁پیرو	-11.2016
▁پیروی	-11.2016
▁پیشاپیش	-11.2016
▁پیموده	-11.2016
▁پیوست.	-11.2016
▁پیگیر	-11.2016
▁چرایی	-11.2016
▁چشمان	-11.2016
▁چشمی	-11.2016
▁چمن	-11.2016
▁چوبی	-11.2016
▁چپمن	-11.2016
▁چینمنبع	-11.2016
▁ژنوم	-11.2016
▁کارم	-11.2016
▁کارمندانش	-11.2016
▁کارهایش	-11.2016
▁کاظمی	-11.2016
▁کانل	-11.2016
▁کت	-11.2016
▁کتبی	-11.2016
▁کجاست	-11.2016
▁کرد.با	-11.2016
▁کرددر	-11.2016
▁کردند،	-11.2016
▁کردند؛	-11.2016
▁کردی	-11.2016
▁کرمانشاه	-11.2016
▁کرمانی	-11.2016
▁کروری	-11.2016
▁کشاند	-11.2016
▁کشانده	-11.2016
▁کفایت	-11.2016
▁کلئوپاترا	-11.2016
▁کلیت	-11.2016
▁کند؟	-11.2016
▁کنشگران	-11.2016
▁کوارتر	-11.2016
▁کپک	-11.2016
▁کیو	-11.2016
▁گالری	-11.2016
▁گذشت.	-11.2016
▁گردانندگان	-11.2016
▁گردند	-11.2016
▁گرما	-11.2016
▁گریزمان	-11.2016
▁گرینویچ	-11.2016
▁گریگوریان	-11.2016
▁گسل	-11.2016
▁گفتم	-11.2016
▁گفتند.	-11.2016
▁گلدار	-11.2016
▁گنج	-11.2016
▁گواهی	-11.2016
▁گوهرشاد	-11.2016
▁گوییم	-11.2016
▁گیل	-11.2016
▁یادگار	-11.2016
▁یافتمنبع	-11.2016
▁یخچال	-11.2016
▁یهودیان	-11.2016
▁یونسی	-11.2016
▁۱۳۰	-11.2016
▁۱۳۳۹	-11.2016
▁۱۳۹۴	-11.2016
▁۱۹۴۱	-11.2016
▁۱۹۶۹	-11.2016
▁۱۹۷۳	-11.2016
▁۱۹۸۹	-11.2016
▁۱۹۹۲	-11.2016
▁۱۹۹۵	-11.2016
▁۲۰۰۶	-11.2016
▁۲۰۲۱؛	-11.2016
▁۲۰۲۳	-11.2016
▁۲۰۲۴	-11.2016
▁۲۳۱	-11.2016
▁۲۹۰	-11.2016
▁۴۵۰	-11.2016
▁۵۸	-11.2016
▁۸۴	-11.2016
▁(آلمان)،	-11.3557
▁(آمریکا)	-11.3557
▁(استرالیا)،	-11.3557
▁(اسپانیا)،	-11.3557
▁(ایتالیا)	-11.3557
▁(یونان)،	-11.3557
▁..	-11.3557
▁.موسسه	-11.3557
▁آبهای	-11.3557
▁آرامکوی	-11.3557
▁آسه	-11.3557
▁آسپرژیلوس	-11.3557
▁آشپزی	-11.3557
▁آفرین	-11.3557
▁آلاینده	-11.3557
▁آلبر	-11.3557
▁آلبرت	-11.3557
▁آلمان.	-11.3557
▁آمبولی	-11.3557
▁آمدند.	-11.3557
▁آنتی	-11.3557
▁آنجایی	-11.3557
▁آندرسکو	-11.3557
▁آهو	-11.3557
▁آیس	-11.3557
▁ابدی	-11.3557
▁ابر	-11.3557
▁ابرخشکسالی	-11.3557
▁ابول	-11.3557
▁اتریوم	-11.3557
▁اتهاماتی	-11.3557
▁اجراهای	-11.3557
▁احتیاج	-11.3557
▁ادوار	-11.3557
▁ار	-11.3557
▁اردوی	-11.3557
▁ارواح	-11.3557
▁اروپا؛	-11.3557
▁ارژن	-11.3557
▁ازدحام	-11.3557
▁اسباب	-11.3557
▁است.براساس	-11.3557
▁است.دفتر	-11.3557
▁است.سال	-11.3557
▁است.طبق	-11.3557
▁است.فدرر	-11.3557
▁است.مسئولان	-11.3557
▁استآقای	-11.3557
▁استبر	-11.3557
▁استبه	-11.3557
▁استرالیا،	-11.3557
▁استرداد	-11.3557
▁استعفاهای	-11.3557
▁استفانونس	-11.3557
▁استقلال:	-11.3557
▁استوایی	-11.3557
▁استکهلم	-11.3557
▁اسرارآمیز	-11.3557
▁اسلحه	-11.3557
▁اسمعیلی	-11.3557
▁اسمیت	-11.3557
▁اسنادی	-11.3557
▁اسپانیا.	-11.3557
▁اسکار،	-11.3557
▁اسکان	-11.3557
▁اسکن	-11.3557
▁اسید	-11.3557
▁اشعه	-11.3557
▁اشکالات	-11.3557
▁اصغر	-11.3557
▁اصفهان،	-11.3557
▁اصولگرا	-11.3557
▁اضطرار	-11.3557
▁اعتمادی	-11.3557
▁افزاید	-11.3557
▁افغانستان:	-11.3557
▁افغانستان؛	-11.3557
▁افول	-11.3557
▁اقامه	-11.3557
▁اقتصاددانان	-11.3557
▁اقیانوسیه	-11.3557
▁الاکلنگ	-11.3557
▁امروزی	-11.3557
▁امپراطوری	-11.3557
▁امپریال	-11.3557
▁امینی	-11.3557
▁انباشته	-11.3557
▁انبوهی	-11.3557
▁انتقاداتی	-11.3557
▁انتقادهایی	-11.3557
▁انحصاری	-11.3557
▁انستیتوی	-11.3557
▁انصاری	-11.3557
▁انضباطی	-11.3557
▁انقلابی	-11.3557
▁انکار	-11.3557
▁انیمیشن	-11.3557
▁اولش	-11.3557
▁اوله	-11.3557
▁اونس	-11.3557
▁اویغور	-11.3557
▁اپراتورها	-11.3557
▁اپراتورهای	-11.3557
▁اپیزود	-11.3557
▁اکتشاف	-11.3557
▁اکرم	-11.3557
▁ای'	-11.3557
▁ایت	-11.3557
▁ایرانایران،	-11.3557
▁ایرانی-آمریکایی	-11.3557
▁ایرلندی	-11.3557
▁ایزنر	-11.3557
▁ایسلند	-11.3557
▁ایش	-11.3557
▁اینستکس	-11.3557
▁اینک	-11.3557
▁بابایی	-11.3557
▁باخ	-11.3557
▁باختند	-11.3557
▁بارانی	-11.3557
▁باردار	-11.3557
▁بارچا	-11.3557
▁بارگیری	-11.3557
▁باز:	-11.3557
▁بازدهی	-11.3557
▁بازنشر	-11.3557
▁بازپرداخت	-11.3557
▁باشد.در	-11.3557
▁بالیوود	-11.3557
▁باورند	-11.3557
▁باومگارتنر	-11.3557
▁بایر	-11.3557
▁بایست	-11.3557
▁بخرد	-11.3557
▁بخشهایی	-11.3557
▁بخشیده	-11.3557
▁بخواهند	-11.3557
▁بخواهیم	-11.3557
▁بدهد.	-11.3557
▁بذرپاش	-11.3557
▁برآوردهای	-11.3557
▁برایانت	-11.3557
▁برایتان	-11.3557
▁برایشان	-11.3557
▁برجام،	-11.3557
▁برجام؛	-11.3557
▁برجامی	-11.3557
▁برساند	-11.3557
▁برنا	-11.3557
▁بروی	-11.3557
▁بروید	-11.3557
▁برگرداندن	-11.3557
▁بزرگراه	-11.3557
▁بزنم.	-11.3557
▁بستگان	-11.3557
▁بسر	-11.3557
▁بسفر	-11.3557
▁بشریت	-11.3557
▁بصری	-11.3557
▁بفرستند	-11.3557
▁بفرستید.	-11.3557
▁بفروشند	-11.3557
▁بفهمد	-11.3557
▁بقا	-11.3557
▁بل	-11.3557
▁بلامنازع	-11.3557
▁بلخی	-11.3557
▁بلک	-11.3557
▁بنادر	-11.3557
▁بنجامین	-11.3557
▁بنظر	-11.3557
▁بهت	-11.3557
▁بهداشت،	-11.3557
▁بود.بر	-11.3557
▁بود.بعضی	-11.3557
▁بود:	-11.3557
▁بوفون	-11.3557
▁بوم	-11.3557
▁بپردازد	-11.3557
▁بگذارد.	-11.3557
▁بگوید	-11.3557
▁بگیرید.	-11.3557
▁بیافتد	-11.3557
▁بیشترشان	-11.3557
▁بیفتد.	-11.3557
▁بیولوژیک	-11.3557
▁تأسیس	-11.3557
▁تئاتری	-11.3557
▁تاجیکی	-11.3557
▁تای	-11.3557
▁تبرئه	-11.3557
▁تحریمها	-11.3557
▁تراز	-11.3557
▁ترافیکی	-11.3557
▁ترانزیتی	-11.3557
▁ترددهای	-11.3557
▁ترشح	-11.3557
▁ترقی	-11.3557
▁ترکی	-11.3557
▁تسلی	-11.3557
▁تسلیحات	-11.3557
▁تشویش	-11.3557
▁تصرف	-11.3557
▁تفاوتی	-11.3557
▁تفرشی	-11.3557
▁تفکیکی	-11.3557
▁تقریبی	-11.3557
▁تلویحا	-11.3557
▁تندروی	-11.3557
▁تنسی	-11.3557
▁تنیده	-11.3557
▁تهویه	-11.3557
▁توانستم	-11.3557
▁توبین	-11.3557
▁توریست	-11.3557
▁ثور	-11.3557
▁جابجا	-11.3557
▁جاسم	-11.3557
▁جاسوس	-11.3557
▁جدولی	-11.3557
▁جدیدش	-11.3557
▁جذابی	-11.3557
▁جذابیت	-11.3557
▁جراحان	-11.3557
▁جشنی	-11.3557
▁جعبه	-11.3557
▁جمهوریت	-11.3557
▁جنازه	-11.3557
▁جهان'	-11.3557
▁جهانمنبع	-11.3557
▁جهانیان	-11.3557
▁جهرمی	-11.3557
▁جواهرات	-11.3557
▁جوش	-11.3557
▁جِزیرو	-11.3557
▁جیبش	-11.3557
▁جیبوتی	-11.3557
▁جیلانی	-11.3557
▁جینجی	-11.3557
▁حاتمی	-11.3557
▁حالش	-11.3557
▁حدودی	-11.3557
▁حواس	-11.3557
▁حوض	-11.3557
▁حول	-11.3557
▁حیدرآبادی	-11.3557
▁حیوانی	-11.3557
▁خاشقچی	-11.3557
▁خانمان	-11.3557
▁خاور	-11.3557
▁خب	-11.3557
▁خبرهایی	-11.3557
▁خدماتی	-11.3557
▁خرندگزارش	-11.3557
▁خسرجی	-11.3557
▁خشت	-11.3557
▁خشنود	-11.3557
▁خشکبار	-11.3557
▁خفاجیان	-11.3557
▁خندان	-11.3557
▁خواستم	-11.3557
▁خواستیم	-11.3557
▁خودروهایی	-11.3557
▁خوزستان،	-11.3557
▁خوشبخت	-11.3557
▁خیام	-11.3557
▁داد.این	-11.3557
▁داد.به	-11.3557
▁دادخواهی	-11.3557
▁دارد.در	-11.3557
▁دارند.در	-11.3557
▁دارند؛	-11.3557
▁داشت.او	-11.3557
▁داشت.در	-11.3557
▁دانا	-11.3557
▁دانان	-11.3557
▁دانستیم	-11.3557
▁دانشگر	-11.3557
▁دانمارکی	-11.3557
▁دانند؛	-11.3557
▁دانه	-11.3557
▁دانیل	-11.3557
▁دخل	-11.3557
▁درآمدزایی	-11.3557
▁درآوردن	-11.3557
▁درام	-11.3557
▁دراماتیک	-11.3557
▁درحالیکه	-11.3557
▁درگذشت.آقای	-11.3557
▁درگذشت.این	-11.3557
▁دعا	-11.3557
▁دعوا	-11.3557
▁دلار،	-11.3557
▁دلو	-11.3557
▁دمشق	-11.3557
▁دندان	-11.3557
▁دهد.منبع	-11.3557
▁دهقانی	-11.3557
▁دهند.در	-11.3557
▁دهندمنبع	-11.3557
▁دولتش	-11.3557
▁دولتمند	-11.3557
▁دوندگان	-11.3557
▁دویده	-11.3557
▁دگرگونی	-11.3557
▁دیرتر	-11.3557
▁دیفندر	-11.3557
▁دیونتی	-11.3557
▁ذاتی	-11.3557
▁ذرت	-11.3557
▁ر	-11.3557
▁را.	-11.3557
▁راستا	-11.3557
▁راسل	-11.3557
▁راهنمایی	-11.3557
▁راکت	-11.3557
▁ربایی	-11.3557
▁رحمت	-11.3557
▁رحمتی	-11.3557
▁رزم	-11.3557
▁رزیدنت	-11.3557
▁رسالت	-11.3557
▁رساندمنبع	-11.3557
▁رساندند.	-11.3557
▁رسمی،	-11.3557
▁رسید.در	-11.3557
▁رسیدند.	-11.3557
▁رشدی	-11.3557
▁رضایی	-11.3557
▁رفتمنبع	-11.3557
▁رفراندوم	-11.3557
▁رفینیتیو	-11.3557
▁روانشناسی	-11.3557
▁روانپزشکی	-11.3557
▁روباز	-11.3557
▁روزبه	-11.3557
▁رومانیایی	-11.3557
▁رومی	-11.3557
▁رویال	-11.3557
▁رویز	-11.3557
▁رژه	-11.3557
▁رکوردهایی	-11.3557
▁ریس	-11.3557
▁ریویان	-11.3557
▁زادگاه	-11.3557
▁زاناردی	-11.3557
▁زانوی	-11.3557
▁زایشگاه	-11.3557
▁زدگان	-11.3557
▁زلاتان	-11.3557
▁زمانه	-11.3557
▁زنیم	-11.3557
▁زهرامنبع	-11.3557
▁زودرس	-11.3557
▁زوم	-11.3557
▁زین	-11.3557
▁زینب	-11.3557
▁ساترا	-11.3557
▁سادگی	-11.3557
▁سازندگی	-11.3557
▁سانجی	-11.3557
▁ساک	-11.3557
▁سایرین	-11.3557
▁ساینس	-11.3557
▁سبکی	-11.3557
▁سبیتار	-11.3557
▁سربازی	-11.3557
▁سربسته	-11.3557
▁سردسته	-11.3557
▁سرشان	-11.3557
▁سرلشکر	-11.3557
▁سرنا	-11.3557
▁سرگذشت	-11.3557
▁سفت	-11.3557
▁سفرش	-11.3557
▁سل	-11.3557
▁سلفی	-11.3557
▁سمرقند	-11.3557
▁سندرم	-11.3557
▁سهامدار	-11.3557
▁سهامی	-11.3557
▁سوئدی	-11.3557
▁سوئیس)،	-11.3557
▁سوخته	-11.3557
▁سوریه،	-11.3557
▁سوق	-11.3557
▁سوپرمارکت	-11.3557
▁سویفت	-11.3557
▁سپیده	-11.3557
▁سی.	-11.3557
▁سیاهپوست	-11.3557
▁سیتروئن	-11.3557
▁سیدل	-11.3557
▁سیروس	-11.3557
▁سیزدهم	-11.3557
▁سیلاوی	-11.3557
▁سیما،	-11.3557
▁سیمرغ	-11.3557
▁سیمونا	-11.3557
▁سینوواک	-11.3557
▁سیگنال	-11.3557
▁شاپووالوف	-11.3557
▁شخصیتی	-11.3557
▁شد.از	-11.3557
▁شدند.به	-11.3557
▁شرع	-11.3557
▁شرمن	-11.3557
▁شستن	-11.3557
▁شفر	-11.3557
▁شفق	-11.3557
▁شمش	-11.3557
▁شناورهای	-11.3557
▁شود.امسال	-11.3557
▁شود.ایران	-11.3557
▁شود.بر	-11.3557
▁شود.بیشتر	-11.3557
▁شود.خانم	-11.3557
▁شوراهای	-11.3557
▁شوکت	-11.3557
▁شوی	-11.3557
▁شکارچیان	-11.3557
▁شکافی	-11.3557
▁شکایتی	-11.3557
▁شکوه	-11.3557
▁صادرکنندگانی	-11.3557
▁صحرا	-11.3557
▁صدایش	-11.3557
▁صمیمی	-11.3557
▁صوت	-11.3557
▁عامیانه	-11.3557
▁عبارتند	-11.3557
▁عبارتی	-11.3557
▁عجیبی	-11.3557
▁عزت	-11.3557
▁عصب	-11.3557
▁عضلانی	-11.3557
▁علامتی	-11.3557
▁علمیه	-11.3557
▁عمران	-11.3557
▁عمرش	-11.3557
▁عنابی	-11.3557
▁غبار	-11.3557
▁غربت	-11.3557
▁غرور	-11.3557
▁غلات	-11.3557
▁غلیظ	-11.3557
▁غیرواقعی	-11.3557
▁فاسد	-11.3557
▁فاطمه	-11.3557
▁فایده	-11.3557
▁فایلی	-11.3557
▁فتاح	-11.3557
▁فحشا	-11.3557
▁فراورده	-11.3557
▁فرستادن	-11.3557
▁فرقی	-11.3557
▁فرناندز	-11.3557
▁فرنوش	-11.3557
▁فرهنگ،	-11.3557
▁فرهنگ؛	-11.3557
▁فروزش	-11.3557
▁فروزش،	-11.3557
▁فریتز	-11.3557
▁فریدلینگ	-11.3557
▁فشارهای	-11.3557
▁فضانوردی	-11.3557
▁فضاپیمای	-11.3557
▁فعالیتش	-11.3557
▁فقید	-11.3557
▁فلامینگوها	-11.3557
▁فلیک	-11.3557
▁فهم	-11.3557
▁فهیم	-11.3557
▁فوتبال؛	-11.3557
▁فوریآمار	-11.3557
▁فولکلور	-11.3557
▁فونینی	-11.3557
▁فک	-11.3557
▁فیده	-11.3557
▁فیش	-11.3557
▁فیلیمو	-11.3557
▁فینالیست	-11.3557
▁قاچاقی	-11.3557
▁قبیل	-11.3557
▁قتالی	-11.3557
▁قدرتمندی	-11.3557
▁قزاق	-11.3557
▁قطعا	-11.3557
▁قهوه	-11.3557
▁قوت	-11.3557
▁قورباغه	-11.3557
▁قوز	-11.3557
▁لاتزیو	-11.3557
▁لاخ	-11.3557
▁لاری	-11.3557
▁لاپورتا	-11.3557
▁لباسی	-11.3557
▁لرزه	-11.3557
▁لورکوزن	-11.3557
▁لوفت	-11.3557
▁لومامبا	-11.3557
▁لوک	-11.3557
▁لوکه	-11.3557
▁لوی	-11.3557
▁لویه	-11.3557
▁لیریک	-11.3557
▁لینکین	-11.3557
▁لیور	-11.3557
▁مأموریت	-11.3557
▁مارادونا؛	-11.3557
▁ماراکانا	-11.3557
▁مارلی	-11.3557
▁ماری	-11.3557
▁ماساچوست	-11.3557
▁مافی	-11.3557
▁ماندلا	-11.3557
▁مانور	-11.3557
▁مانوس	-11.3557
▁ماه)	-11.3557
▁ماه،	-11.3557
▁ماوریک	-11.3557
▁مبادرت	-11.3557
▁مبارکه	-11.3557
▁مبلغی	-11.3557
▁متصل	-11.3557
▁متلاشی	-11.3557
▁متیو	-11.3557
▁مجامع	-11.3557
▁مجلات	-11.3557
▁مجوزی	-11.3557
▁محابا	-11.3557
▁محاصره	-11.3557
▁محدودیتهایی	-11.3557
▁محرکه	-11.3557
▁محسوسی	-11.3557
▁محفوظ	-11.3557
▁محی	-11.3557
▁مختاری	-11.3557
▁مدارکی	-11.3557
▁مددی	-11.3557
▁مدرس	-11.3557
▁مذکور	-11.3557
▁مراجعت	-11.3557
▁مراقب	-11.3557
▁مردادماه	-11.3557
▁مردانه	-11.3557
▁مردمان	-11.3557
▁مرسی	-11.3557
▁مزایده	-11.3557
▁مساجد	-11.3557
▁مستقیمی	-11.3557
▁مسموم	-11.3557
▁مشاوره	-11.3557
▁مشترکی	-11.3557
▁مشتریانش	-11.3557
▁مضاعف	-11.3557
▁مضمون	-11.3557
▁مطیعی	-11.3557
▁معالجه	-11.3557
▁معتبری	-11.3557
▁معطل	-11.3557
▁معلولیت	-11.3557
▁معما	-11.3557
▁معکوس	-11.3557
▁مفاصل	-11.3557
▁مقبره	-11.3557
▁مقیاس	-11.3557
▁ملاحظه	-11.3557
▁ملخ	-11.3557
▁ملزم	-11.3557
▁مملکت	-11.3557
▁منحرف	-11.3557
▁منسوب	-11.3557
▁منصرف	-11.3557
▁منصوریان	-11.3557
▁منقل	-11.3557
▁منهتن	-11.3557
▁منکر	-11.3557
▁مهمانی	-11.3557
▁موازین	-11.3557
▁موری	-11.3557
▁موزیک	-11.3557
▁موقتی	-11.3557
▁مولوی	-11.3557
▁مومبای	-11.3557
▁مونتسا	-11.3557
▁مژگان	-11.3557
▁مگنیتو	-11.3557
▁میدل	-11.3557
▁مینیاتور	-11.3557
▁نابرابری	-11.3557
▁نابسامانی	-11.3557
▁ناتوانی	-11.3557
▁ناخواسته	-11.3557
▁نارنجی،	-11.3557
▁ناصری	-11.3557
▁نامشان	-11.3557
▁نامعلوم	-11.3557
▁ناو	-11.3557
▁ناک	-11.3557
▁ناکافی	-11.3557
▁نباشند	-11.3557
▁نبوغ	-11.3557
▁نجومی	-11.3557
▁نحو	-11.3557
▁نخبه	-11.3557
▁نداد.	-11.3557
▁ندیمه	-11.3557
▁نرفته	-11.3557
▁نزده	-11.3557
▁نزدیکتر	-11.3557
▁نس	-11.3557
▁نشانگر	-11.3557
▁نشوند.	-11.3557
▁نلسون	-11.3557
▁نما	-11.3557
▁نمادها	-11.3557
▁نوآورانه	-11.3557
▁نوا	-11.3557
▁نوردی	-11.3557
▁نورمحمدوف	-11.3557
▁نوزاد	-11.3557
▁نوشتم	-11.3557
▁نوین	-11.3557
▁نپال	-11.3557
▁نگذاشته	-11.3557
▁نیابد	-11.3557
▁نیمروز	-11.3557
▁نیوز	-11.3557
▁ها؛	-11.3557
▁هاسل	-11.3557
▁هاشمی،	-11.3557
▁هاشیموتو	-11.3557
▁هالیوودی	-11.3557
▁هانا	-11.3557
▁هانزا	-11.3557
▁هجدهمین	-11.3557
▁هرجا	-11.3557
▁هرکس	-11.3557
▁هریرود	-11.3557
▁هریس	-11.3557
▁هستند.آقای	-11.3557
▁هستند.بر	-11.3557
▁هفتصد	-11.3557
▁همتی،	-11.3557
▁همخوانی	-11.3557
▁همدردی	-11.3557
▁هموار	-11.3557
▁همکارانم	-11.3557
▁هواپیماسازی	-11.3557
▁هواپیماها	-11.3557
▁هوشیاری	-11.3557
▁واتفورد	-11.3557
▁واپسین	-11.3557
▁وثیقه	-11.3557
▁وجوی	-11.3557
▁ورشو	-11.3557
▁وسعت	-11.3557
▁وفا	-11.3557
▁وقفی	-11.3557
▁ونیزمنبع	-11.3557
▁ووس	-11.3557
▁وولوز	-11.3557
▁وکارها	-11.3557
▁ویلت	-11.3557
▁پابجی	-11.3557
▁پابند	-11.3557
▁پارسال،	-11.3557
▁پاریس،	-11.3557
▁پاسخگو	-11.3557
▁پاسگاه	-11.3557
▁پاناما	-11.3557
▁پاکبان	-11.3557
▁پدربزرگ	-11.3557
▁پذیره	-11.3557
▁پرایس	-11.3557
▁پرجمعیت	-11.3557
▁پرخطر	-11.3557
▁پردرآمدترین	-11.3557
▁پرسند	-11.3557
▁پرسیویرنس	-11.3557
▁پرشمار	-11.3557
▁پرشور	-11.3557
▁پرهام	-11.3557
▁پرو	-11.3557
▁پروازهایش	-11.3557
▁پریشان	-11.3557
▁پریشی	-11.3557
▁پشتوانه	-11.3557
▁پنجاهمین	-11.3557
▁پنس	-11.3557
▁پوستر	-11.3557
▁پوندی	-11.3557
▁پژمان	-11.3557
▁پژوهشهای	-11.3557
▁پیامک	-11.3557
▁پیرانشهر	-11.3557
▁پیروان	-11.3557
▁پیشبرد	-11.3557
▁پینک	-11.3557
▁چادر	-11.3557
▁چشایی	-11.3557
▁چمپیونشیپ	-11.3557
▁چندمین	-11.3557
▁چهارده	-11.3557
▁چهارراه	-11.3557
▁چیدمان	-11.3557
▁چیفتن	-11.3557
▁چین؛	-11.3557
▁ژنشنگ	-11.3557
▁ژونگ	-11.3557
▁کاتالان	-11.3557
▁کار،	-11.3557
▁کارآفرین	-11.3557
▁کاراکاس	-11.3557
▁کارشکنی	-11.3557
▁کارلو	-11.3557
▁کارولینای	-11.3557
▁کاست	-11.3557
▁کاسپین	-11.3557
▁کافه	-11.3557
▁کالاهایی	-11.3557
▁کالبد	-11.3557
▁کامرانیه	-11.3557
▁کامپیوترها	-11.3557
▁کانترل	-11.3557
▁کاوانی	-11.3557
▁کاپیتانی	-11.3557
▁کثیر	-11.3557
▁کران	-11.3557
▁کرد'منبع	-11.3557
▁کرد.بیشتر	-11.3557
▁کرد.یک	-11.3557
▁کرد؟منبع	-11.3557
▁کرمانپور	-11.3557
▁کرونا:	-11.3557
▁کروناست	-11.3557
▁کلمه	-11.3557
▁کلیسا	-11.3557
▁کلیپ	-11.3557
▁کما	-11.3557
▁کمابیش	-11.3557
▁کنارش	-11.3557
▁کناری	-11.3557
▁کنده	-11.3557
▁کنسول	-11.3557
▁کنممنبع	-11.3557
▁کنند.پرهام	-11.3557
▁کنند؟منبع	-11.3557
▁کنندگانی	-11.3557
▁کنیا	-11.3557
▁کنیدمنبع	-11.3557
▁کوری	-11.3557
▁کونته	-11.3557
▁کوهنورد	-11.3557
▁کویت	-11.3557
▁کیریوس	-11.3557
▁کیسه	-11.3557
▁کیلوولت	-11.3557
▁کیمیایی	-11.3557
▁گاردین	-11.3557
▁گارسیا	-11.3557
▁گاو	-11.3557
▁گاگا	-11.3557
▁گذارند	-11.3557
▁گذراند	-11.3557
▁گراند	-11.3557
▁گرانقیمت	-11.3557
▁گزیده	-11.3557
▁گزینش	-11.3557
▁گناه	-11.3557
▁گوهر	-11.3557
▁گویا	-11.3557
▁گپ	-11.3557
▁گیتار	-11.3557
▁گیرد،	-11.3557
▁یادماندنی	-11.3557
▁یازدهمین	-11.3557
▁یاشار	-11.3557
▁یافت؛	-11.3557
▁یوان	-11.3557
▁یوسفی	-11.3557
▁یکجانبه	-11.3557
▁۱۱۵	-11.3557
▁۱۳۴۶	-11.3557
▁۱۳۶۰	-11.3557
▁۱۳۷	-11.3557
▁۱۳۹۲	-11.3557
▁۱۴۰۰،	-11.3557
▁۱۹۰۰	-11.3557
▁۱۹۴۶	-11.3557
▁۱۹۶۲	-11.3557
▁۱۹۶۸	-11.3557
▁۱۹۷۵	-11.3557
▁۱۹۹۳	-11.3557
▁۲۰۱۹؛	-11.3557
▁۲۰۲۰؛	-11.3557
▁۲۱۰	-11.3557
▁۳۶۰	-11.3557
▁۵:۱۵	-11.3557
▁۶۶	-11.3557
▁۶۹	-11.3557
▁۷۱	-11.3557
▁۷۳۷	-11.3557
▁۷۵۰	-11.3557
▁۷۵۲	-11.3557
▁۹۸؛	-11.3557
▁'آخرین	-11.538
▁'افزایش	-11.538
▁'شب	-11.538
▁.اما	-11.538
▁.با	-11.538
▁.وی	-11.538
▁آثارشان	-11.538
▁آدولف	-11.538
▁آرامی	-11.538
▁آرشیوی	-11.538
▁آرمسترانگ	-11.538
▁آرمی	-11.538
▁آرنت	-11.538
▁آزادماهی	-11.538
▁آزاردهنده	-11.538
▁آزمایشات	-11.538
▁آسا	-11.538
▁آشوین	-11.538
▁آشکاری	-11.538
▁آف	-11.538
▁آقازاده	-11.538
▁آقایی	-11.538
▁آلات	-11.538
▁آلکس	-11.538
▁آماتور	-11.538
▁آمریکامنبع	-11.538
▁آمریکاییان	-11.538
▁آموختن	-11.538
▁آنتالیا	-11.538
▁آندریا	-11.538
▁آورد.او	-11.538
▁آورده.	-11.538
▁ائتلاف	-11.538
▁ابن	-11.538
▁ابولا	-11.538
▁اتلان	-11.538
▁اجزای	-11.538
▁احتکار	-11.538
▁احداث	-11.538
▁اختاپوس	-11.538
▁ادا	-11.538
▁ارباب	-11.538
▁اربیل	-11.538
▁ارتفاعات	-11.538
▁ارتکاب	-11.538
▁ارز؛	-11.538
▁ارزشی	-11.538
▁ارغندیوال	-11.538
▁ارقامی	-11.538
▁ارل	-11.538
▁ارمجانی	-11.538
▁ارکان	-11.538
▁است'	-11.538
▁است.احسان	-11.538
▁است.احمد	-11.538
▁است.استقلال	-11.538
▁است.اشاره	-11.538
▁است.البته	-11.538
▁است.امروز	-11.538
▁است.جسد	-11.538
▁است.دیروز	-11.538
▁است.روابط	-11.538
▁است.ریچارد	-11.538
▁است.سیاوش	-11.538
▁است.شماری	-11.538
▁است.طی	-11.538
▁است.علی	-11.538
▁است.پوریا	-11.538
▁است.چین	-11.538
▁است.کاوه	-11.538
▁است.کسری	-11.538
▁است.گفت	-11.538
▁استایران	-11.538
▁استرالیامنبع	-11.538
▁استرقابت	-11.538
▁استعدادهای	-11.538
▁استقلال،	-11.538
▁استمراسم	-11.538
▁استملاک	-11.538
▁استوقتی	-11.538
▁اسفند)	-11.538
▁اسیا	-11.538
▁اشاعه	-11.538
▁اشتباهاتی	-11.538
▁اشیای	-11.538
▁اصلاحیه	-11.538
▁اصولا	-11.538
▁اطرافیان	-11.538
▁اظهارنظری	-11.538
▁اعزامی	-11.538
▁اعلامی	-11.538
▁اغذیه	-11.538
▁افتاد،	-11.538
▁افرایش	-11.538
▁افزودند	-11.538
▁اقامتی	-11.538
▁اقتباسی	-11.538
▁اقداماتش	-11.538
▁الاجرا	-11.538
▁الخط	-11.538
▁الزامی	-11.538
▁السد	-11.538
▁العدل	-11.538
▁الن	-11.538
▁النضال	-11.538
▁الهدی	-11.538
▁الهنی	-11.538
▁الیور	-11.538
▁امباپه	-11.538
▁امتیازهای	-11.538
▁امروز،	-11.538
▁امضاکننده	-11.538
▁امیدهای	-11.538
▁امیرعلی	-11.538
▁انتقالی	-11.538
▁انتقام	-11.538
▁انحلال	-11.538
▁اند.خبرگزاری	-11.538
▁اند.محمد	-11.538
▁اند:	-11.538
▁اندومبله	-11.538
▁اندوه	-11.538
▁انعطاف	-11.538
▁انقطاع	-11.538
▁اهرم	-11.538
▁اوجی	-11.538
▁اوربیتر	-11.538
▁اوزون	-11.538
▁اوشن	-11.538
▁اول،	-11.538
▁اوکاناگان	-11.538
▁اپ	-11.538
▁اکثرا	-11.538
▁اکسل	-11.538
▁ای.	-11.538
▁ای:	-11.538
▁ایران'	-11.538
▁این،	-11.538
▁اینجنیوئیتی	-11.538
▁اینصورت	-11.538
▁اینگونه	-11.538
▁ایی	-11.538
▁باخت.	-11.538
▁بازاریابی	-11.538
▁بازتاب	-11.538
▁بازل	-11.538
▁بازنگردانده	-11.538
▁بازگرداند	-11.538
▁باشند.منبع	-11.538
▁باشکوه	-11.538
▁باله	-11.538
▁بانکداری	-11.538
▁بانکهای	-11.538
▁باوجود	-11.538
▁باک	-11.538
▁باکر	-11.538
▁ببازد	-11.538
▁ببرد.	-11.538
▁ببرند.	-11.538
▁بدانید	-11.538
▁بدنشان	-11.538
▁بدهید	-11.538
▁برآمده	-11.538
▁برانگیخت.	-11.538
▁برخورداری	-11.538
▁برد.منبع	-11.538
▁برلوسکونی	-11.538
▁برملا	-11.538
▁برنلی	-11.538
▁برهه	-11.538
▁برود.این	-11.538
▁برونئی	-11.538
▁برکت	-11.538
▁برگرداند	-11.538
▁برگردد	-11.538
▁برگردیم	-11.538
▁برگزارمی	-11.538
▁برگه	-11.538
▁بریتانیا.	-11.538
▁بریجز	-11.538
▁بزاق	-11.538
▁بزند.	-11.538
▁بسازد.	-11.538
▁بسختی	-11.538
▁بصره	-11.538
▁بعضا	-11.538
▁بفهمیم	-11.538
▁بلغارستان	-11.538
▁بمبگذاری	-11.538
▁بناها	-11.538
▁بهزاد	-11.538
▁بهزادی	-11.538
▁بوتاس	-11.538
▁بود.افزایش	-11.538
▁بود.بیشتر	-11.538
▁بود.خانم	-11.538
▁بود.خبرگزاری	-11.538
▁بود.فرج	-11.538
▁بودمنبع	-11.538
▁بودند.این	-11.538
▁بودند.در	-11.538
▁بورسیه	-11.538
▁بوروسیا	-11.538
▁بوستون	-11.538
▁بوسه	-11.538
▁بوقت	-11.538
▁بوندسلیگا	-11.538
▁بونوئل	-11.538
▁بووی	-11.538
▁بویینگ	-11.538
▁بگذارید	-11.538
▁بیاید.	-11.538
▁بیتار	-11.538
▁بیتلز	-11.538
▁بیرانوند	-11.538
▁بیضائی	-11.538
▁بیماریشان	-11.538
▁بینانه	-11.538
▁بینم	-11.538
▁بینند	-11.538
▁بیک	-11.538
▁بیکارشدگان	-11.538
▁بیگ	-11.538
▁تأخیر	-11.538
▁تابش	-11.538
▁تبریزی	-11.538
▁تبعه	-11.538
▁تتلو	-11.538
▁تجدد	-11.538
▁تجسم	-11.538
▁تحرکات	-11.538
▁تحرکی	-11.538
▁تحریمی	-11.538
▁تدفین	-11.538
▁ترانس	-11.538
▁تردیدهایی	-11.538
▁ترکمن	-11.538
▁ترکیش	-11.538
▁ترکیه،	-11.538
▁تزئینی	-11.538
▁تزاری	-11.538
▁تسویه	-11.538
▁تشکل	-11.538
▁تصریح	-11.538
▁تصفیه	-11.538
▁تعدد	-11.538
▁تعلل	-11.538
▁تعلیم	-11.538
▁تفاضل	-11.538
▁تفنگ	-11.538
▁تقصیر	-11.538
▁تقلا	-11.538
▁تقلب	-11.538
▁تماشایی	-11.538
▁تناقض	-11.538
▁تندگویان	-11.538
▁تنزل	-11.538
▁تنگی	-11.538
▁تنی	-11.538
▁تهدیدهایی	-11.538
▁توئیتر	-11.538
▁توافقات	-11.538
▁تورنمنتی	-11.538
▁توضیحاتی	-11.538
▁توقع	-11.538
▁تولیدشان	-11.538
▁تومور	-11.538
▁تکثیر	-11.538
▁تکواندو	-11.538
▁تیتر	-11.538
▁جاسک	-11.538
▁جالبی	-11.538
▁جامد	-11.538
▁جانز	-11.538
▁جانوران	-11.538
▁جاودانه	-11.538
▁جدل	-11.538
▁جدیدمنبع	-11.538
▁جراح	-11.538
▁جسم	-11.538
▁جفت	-11.538
▁جنب	-11.538
▁جنر	-11.538
▁جنوبی؛	-11.538
▁جنگند	-11.538
▁جنی	-11.538
▁جنیفر	-11.538
▁جهان؛	-11.538
▁جوخه	-11.538
▁جود	-11.538
▁جوی	-11.538
▁جکی	-11.538
▁جیش	-11.538
▁جیل	-11.538
▁جیم	-11.538
▁حاج	-11.538
▁حاکمان	-11.538
▁حتا	-11.538
▁حتمی	-11.538
▁حرارت	-11.538
▁حرام	-11.538
▁حرفی	-11.538
▁حقایق	-11.538
▁حلی	-11.538
▁حنیف	-11.538
▁حوادثی	-11.538
▁حوالی	-11.538
▁حوصله	-11.538
▁خادمی	-11.538
▁خال	-11.538
▁خالد	-11.538
▁خالی'	-11.538
▁خاندان	-11.538
▁خرابی	-11.538
▁خردسال	-11.538
▁خرمشاهی	-11.538
▁خرمشهر	-11.538
▁خرید.	-11.538
▁خشمگین	-11.538
▁خطوطی	-11.538
▁خفیفی	-11.538
▁خلاص	-11.538
▁خلاق	-11.538
▁خلاقانه	-11.538
▁خودکار	-11.538
▁خورد،	-11.538
▁خوردهای	-11.538
▁خوشایند	-11.538
▁خوشبینی	-11.538
▁خوشنویسی	-11.538
▁خوکی	-11.538
▁داد.آقای	-11.538
▁دادخواست	-11.538
▁دادسرا	-11.538
▁دادند.این	-11.538
▁دارد؟منبع	-11.538
▁داشتم.	-11.538
▁داشتمنبع	-11.538
▁داشته،	-11.538
▁داشته؛	-11.538
▁داغی	-11.538
▁دامغان	-11.538
▁داندی	-11.538
▁دانستند.	-11.538
▁داوید	-11.538
▁داگ	-11.538
▁دبی	-11.538
▁دخیل	-11.538
▁درآمد.	-11.538
▁دردسرهای	-11.538
▁درشت	-11.538
▁درنظر	-11.538
▁دریانوردی	-11.538
▁دز	-11.538
▁دستش	-11.538
▁دستمزدهای	-11.538
▁دستیاران	-11.538
▁دشتکی	-11.538
▁دلالان	-11.538
▁دمام	-11.538
▁دموکراتیک	-11.538
▁دمکرات	-11.538
▁دن	-11.538
▁دهد.آقای	-11.538
▁دهکده	-11.538
▁دورافتاده	-11.538
▁دورهمی	-11.538
▁دورکاری	-11.538
▁دکمه	-11.538
▁دیدبان	-11.538
▁دیدند	-11.538
▁دیزل	-11.538
▁دیواره	-11.538
▁ذوق	-11.538
▁ذی	-11.538
▁ذیربط	-11.538
▁راجع	-11.538
▁رازی	-11.538
▁راین	-11.538
▁رجوع	-11.538
▁رخدادهای	-11.538
▁رخنه	-11.538
▁ردکلیف	-11.538
▁رزرو	-11.538
▁رستم	-11.538
▁رستورانی	-11.538
▁رسند	-11.538
▁رسیده،	-11.538
▁رضاوند	-11.538
▁رفتم	-11.538
▁رفتم.	-11.538
▁رنسانس	-11.538
▁روحیه	-11.538
▁روما	-11.538
▁رونالد	-11.538
▁روند.	-11.538
▁رویدادها	-11.538
▁رویکردی	-11.538
▁ریاستش	-11.538
▁ریلی	-11.538
▁ریگی	-11.538
▁زاکربرگ	-11.538
▁زهرای	-11.538
▁زوایای	-11.538
▁زیبای	-11.538
▁زیتون	-11.538
▁زیدان	-11.538
▁سئوالی	-11.538
▁ساختاری	-11.538
▁سادبیز	-11.538
▁سارقان	-11.538
▁سامان	-11.538
▁سانتیگراد	-11.538
▁ساکت	-11.538
▁سبزوار	-11.538
▁ستار	-11.538
▁ستین	-11.538
▁سختگیری	-11.538
▁سراج	-11.538
▁سرخک	-11.538
▁سردرد	-11.538
▁سرشناسی	-11.538
▁سرگردان	-11.538
▁سرگرفته	-11.538
▁سریعترین	-11.538
▁سلام	-11.538
▁سلیمان	-11.538
▁سمانیا	-11.538
▁سموم	-11.538
▁سمی	-11.538
▁سناریوهای	-11.538
▁سهامش	-11.538
▁سهامهای	-11.538
▁سوالاتی	-11.538
▁سوانح	-11.538
▁سودآور	-11.538
▁سوزان	-11.538
▁سوفیا	-11.538
▁سولو	-11.538
▁سومو	-11.538
▁سومی	-11.538
▁سوگند	-11.538
▁سپاه'	-11.538
▁سیاهچاله	-11.538
▁سیرجان	-11.538
▁سیستماتیک	-11.538
▁سیلاب	-11.538
▁سیلیتو	-11.538
▁سیناتی	-11.538
▁سینما،	-11.538
▁سینماتک	-11.538
▁سینماگران	-11.538
▁سینوفارم	-11.538
▁سینگ	-11.538
▁شاد	-11.538
▁شارلوت	-11.538
▁شاعرانه	-11.538
▁شاعری	-11.538
▁شام	-11.538
▁شاهدان	-11.538
▁شاهرود	-11.538
▁شبت	-11.538
▁شبرغان	-11.538
▁شتر	-11.538
▁شد.البته	-11.538
▁شد.بیشتر	-11.538
▁شد.خانم	-11.538
▁شد:	-11.538
▁شدایران،	-11.538
▁شده'منبع	-11.538
▁شده؟منبع	-11.538
▁شدیک	-11.538
▁شرعی	-11.538
▁شرمنده	-11.538
▁شرکتها	-11.538
▁شعارهای	-11.538
▁شعب	-11.538
▁شفاخانه	-11.538
▁شهادت	-11.538
▁شهرکرد	-11.538
▁شهریاری	-11.538
▁شو	-11.538
▁شود.دکتر	-11.538
▁شود.وزارت	-11.538
▁شود؟	-11.538
▁شودبه	-11.538
▁شوددر	-11.538
▁شوق	-11.538
▁شوهر	-11.538
▁شوکه	-11.538
▁شکایتش	-11.538
▁شکستگی	-11.538
▁شکن	-11.538
▁شکوفه	-11.538
▁شیب	-11.538
▁شیرنوایی	-11.538
▁شیرینی	-11.538
▁شیوا	-11.538
▁شیوای	-11.538
▁صحبتی	-11.538
▁صحرایی	-11.538
▁ضمانت	-11.538
▁طاقت	-11.538
▁طبقات	-11.538
▁عاجل	-11.538
▁عاری	-11.538
▁عبدالسلام	-11.538
▁عثمانی	-11.538
▁عدالتی	-11.538
▁عذاب	-11.538
▁عزاداران	-11.538
▁عزای	-11.538
▁عزیزانشان	-11.538
▁عصبانی	-11.538
▁عفونی	-11.538
▁علما	-11.538
▁عموما	-11.538
▁عمیقا	-11.538
▁عناوین	-11.538
▁عهد	-11.538
▁عیار	-11.538
▁عید،	-11.538
▁غور	-11.538
▁غوری	-11.538
▁غیرانسانی	-11.538
▁غیردولتی	-11.538
▁غیرعلنی	-11.538
▁غیرمنتظره	-11.538
▁فتنه	-11.538
▁فرامرز	-11.538
▁فرانسه،	-11.538
▁فرانکی	-11.538
▁فرح	-11.538
▁فرزندانشان	-11.538
▁فرسایشی	-11.538
▁فرضیه	-11.538
▁فرق	-11.538
▁فرماندار	-11.538
▁فرنگی	-11.538
▁فرودین	-11.538
▁فروند	-11.538
▁فرکانس	-11.538
▁فشارها	-11.538
▁فقدان	-11.538
▁فقیه	-11.538
▁فلامینگو	-11.538
▁فلاکت	-11.538
▁فلم	-11.538
▁فلک	-11.538
▁فن:	-11.538
▁فودن	-11.538
▁فورمن	-11.538
▁فیصل	-11.538
▁فیفا؛	-11.538
▁قائم	-11.538
▁قارچ	-11.538
▁قامت	-11.538
▁قایقی	-11.538
▁قدردانی	-11.538
▁قدیم	-11.538
▁قرائت	-11.538
▁قراردادشان	-11.538
▁قرنطینه،	-11.538
▁قعر	-11.538
▁قلبم	-11.538
▁قویا	-11.538
▁لئوپولد	-11.538
▁لابی	-11.538
▁لاری،	-11.538
▁لاشیدایی	-11.538
▁لبرون	-11.538
▁لحم	-11.538
▁لشگری	-11.538
▁لقمان	-11.538
▁لندن،	-11.538
▁لندنی	-11.538
▁لنست	-11.538
▁لوس	-11.538
▁لوو	-11.538
▁لیبریا	-11.538
▁لیلی	-11.538
▁لیکرز	-11.538
▁مئیر	-11.538
▁مابین	-11.538
▁مار	-11.538
▁مازوت	-11.538
▁مالزی	-11.538
▁مالیاتی،	-11.538
▁مالیه	-11.538
▁مانوئل	-11.538
▁ماهیت	-11.538
▁مایباخ	-11.538
▁مبتلای	-11.538
▁متعجب	-11.538
▁متمایل	-11.538
▁متوفیان	-11.538
▁مجاب	-11.538
▁مجتبی	-11.538
▁مجوزهای	-11.538
▁محافظان	-11.538
▁محال	-11.538
▁محبوس	-11.538
▁محتوی	-11.538
▁محسوس	-11.538
▁محوریت	-11.538
▁محکومان	-11.538
▁مخابره	-11.538
▁مخرب	-11.538
▁مراودات	-11.538
▁مراکش	-11.538
▁مرثیه	-11.538
▁مرج	-11.538
▁مرده	-11.538
▁مردود	-11.538
▁مرشد	-11.538
▁مرضیه	-11.538
▁مرطوب	-11.538
▁مرموز	-11.538
▁مزایا	-11.538
▁مساعد	-11.538
▁مسالمت	-11.538
▁مسری	-11.538
▁مشروب	-11.538
▁مشروبات	-11.538
▁مشروعیت	-11.538
▁مصدومان	-11.538
▁مضحک	-11.538
▁مطالبات	-11.538
▁معارفه	-11.538
▁معاشرت	-11.538
▁معدنچی	-11.538
▁معلمان	-11.538
▁معناست	-11.538
▁معیاری	-11.538
▁ملاحظات	-11.538
▁ممی	-11.538
▁منازل	-11.538
▁منامه	-11.538
▁منبعی	-11.538
▁منحصرا	-11.538
▁مندس	-11.538
▁منسوخ	-11.538
▁منظومه	-11.538
▁منقبض	-11.538
▁منقضی	-11.538
▁منهای	-11.538
▁منوچین	-11.538
▁مهدوی	-11.538
▁موتورهای	-11.538
▁مودم	-11.538
▁مور	-11.538
▁مورفوز	-11.538
▁موریکونه	-11.538
▁موسی	-11.538
▁موضعی	-11.538
▁موضوعاتی	-11.538
▁موفقیتی	-11.538
▁مویز	-11.538
▁مکالمه	-11.538
▁میرعلی	-11.538
▁میلز	-11.538
▁میلیچ	-11.538
▁مینیاتوری	-11.538
▁مینیاپولیس	-11.538
▁میهن	-11.538
▁میچام	-11.538
▁میکروبی	-11.538
▁نا	-11.538
▁ناامیدکننده	-11.538
▁نابویایی	-11.538
▁ناخشنودی	-11.538
▁نازلی	-11.538
▁ناشر	-11.538
▁ناعادلانه	-11.538
▁ناقل	-11.538
▁نامبرده	-11.538
▁نامحدود	-11.538
▁ناچیز	-11.538
▁نایاب	-11.538
▁نایت	-11.538
▁نایتلی	-11.538
▁نبشته	-11.538
▁نبی	-11.538
▁نتایجی	-11.538
▁نجفی	-11.538
▁نخبگان	-11.538
▁نخواهم	-11.538
▁ندارید	-11.538
▁نزدیکانش	-11.538
▁نسکار	-11.538
▁نسیم	-11.538
▁نشده.	-11.538
▁نشست.	-11.538
▁نظرانی	-11.538
▁نظرم	-11.538
▁نظمی	-11.538
▁نظنز	-11.538
▁نفوس	-11.538
▁نمک	-11.538
▁ننگ	-11.538
▁نهادها	-11.538
▁نو،	-11.538
▁نوراللهی	-11.538
▁نورماگومدوف	-11.538
▁نوزده	-11.538
▁نوشابه	-11.538
▁نوشیدن	-11.538
▁نوک	-11.538
▁نویسان	-11.538
▁نکند.	-11.538
▁نکنید.	-11.538
▁نکنیدمنبع	-11.538
▁نگاتیو	-11.538
▁نگرانند	-11.538
▁نگرفت	-11.538
▁نگهداشتن	-11.538
▁نیازمندان	-11.538
▁نیامده	-11.538
▁نیت	-11.538
▁نیست.در	-11.538
▁نیشگون	-11.538
▁نیمایی	-11.538
▁نیوتن	-11.538
▁نیومکزیکو	-11.538
▁نیویورکر	-11.538
▁هاروی	-11.538
▁هافمن	-11.538
▁هالپ	-11.538
▁هاویلند	-11.538
▁هجدهم	-11.538
▁هجری	-11.538
▁هرج	-11.538
▁هرمز	-11.538
▁هستند'منبع	-11.538
▁هستند.این	-11.538
▁هستند.به	-11.538
▁هستند.در	-11.538
▁هستند؟منبع	-11.538
▁هشتادمین	-11.538
▁هفده	-11.538
▁هفدهمین	-11.538
▁هلیوس	-11.538
▁همسری	-11.538
▁همهمه	-11.538
▁همکاریهای	-11.538
▁هنجارهای	-11.538
▁هند،	-11.538
▁هولم	-11.538
▁هکتار	-11.538
▁هی	-11.538
▁هیئتی	-11.538
▁هیولای	-11.538
▁هیچوقت	-11.538
▁هیچکدام	-11.538
▁واجد	-11.538
▁واریاسیون	-11.538
▁وافغانستان	-11.538
▁والتری	-11.538
▁واژگون	-11.538
▁واگیر	-11.538
▁وتو	-11.538
▁وجیهه	-11.538
▁ورق	-11.538
▁وزرا	-11.538
▁وسطی	-11.538
▁وسواس	-11.538
▁وصول	-11.538
▁وفاداری	-11.538
▁ولادیمیر	-11.538
▁ولوو	-11.538
▁ونزوئلایی	-11.538
▁ونوس	-11.538
▁ویلسون	-11.538
▁پابلو	-11.538
▁پاداش	-11.538
▁پادشاهان	-11.538
▁پارتی	-11.538
▁پارکورکار	-11.538
▁پاستور	-11.538
▁پاسیفیک	-11.538
▁پاهایش	-11.538
▁پایبندی	-11.538
▁پایداری	-11.538
▁پدیدار	-11.538
▁پرت	-11.538
▁پرتو	-11.538
▁پرداختی	-11.538
▁پردازش	-11.538
▁پرز	-11.538
▁پرستار	-11.538
▁پرستاره	-11.538
▁پرستون	-11.538
▁پرسنل	-11.538
▁پرسیدم	-11.538
▁پرمصرف	-11.538
▁پستال	-11.538
▁پستانداران	-11.538
▁پسرانش	-11.538
▁پلکانی	-11.538
▁پهنه	-11.538
▁پور،	-11.538
▁پولها	-11.538
▁پیشه	-11.538
▁پیمانکاران	-11.538
▁پیمانکاری	-11.538
▁چراکه	-11.538
▁چرنوبیل	-11.538
▁چشمانش	-11.538
▁چشمه	-11.538
▁چهارشنبه،	-11.538
▁چکیده	-11.538
▁چیزبرگر	-11.538
▁چیزها	-11.538
▁ژئوپلیتیک	-11.538
▁کاترین	-11.538
▁کارائیب	-11.538
▁کارند	-11.538
▁کاره	-11.538
▁کاروان	-11.538
▁کارون	-11.538
▁کاسینگا	-11.538
▁کاشته	-11.538
▁کامالا	-11.538
▁کبد	-11.538
▁کبیری	-11.538
▁کتی	-11.538
▁کد	-11.538
▁کدامیک	-11.538
▁کرانه	-11.538
▁کرد.افغانستان	-11.538
▁کرد.پس	-11.538
▁کردرسانه	-11.538
▁کردسعید	-11.538
▁کردمهدی	-11.538
▁کردند'منبع	-11.538
▁کردند.او	-11.538
▁کردند.این	-11.538
▁کردنشین	-11.538
▁کردهمنبع	-11.538
▁کرزی	-11.538
▁کروز	-11.538
▁کریس	-11.538
▁کریستی	-11.538
▁کریمی،	-11.538
▁کلروکین	-11.538
▁کلمات	-11.538
▁کلکان	-11.538
▁کمربندهای	-11.538
▁کمپینی	-11.538
▁کمیاب	-11.538
▁کند.وزیر	-11.538
▁کند.پیش	-11.538
▁کنش	-11.538
▁کنعانی	-11.538
▁کنید،	-11.538
▁کنید؛	-11.538
▁کنیم،	-11.538
▁کواچ	-11.538
▁کوبی	-11.538
▁کودکانی	-11.538
▁کوشش	-11.538
▁کوشنر	-11.538
▁کولاک	-11.538
▁کوله	-11.538
▁کومله	-11.538
▁کوپرنیک	-11.538
▁کوچه	-11.538
▁کیلیان	-11.538
▁گاراژ	-11.538
▁گامی	-11.538
▁گدامحمد	-11.538
▁گدوت	-11.538
▁گذراند.	-11.538
▁گذرنامه	-11.538
▁گرافیتی	-11.538
▁گردانند	-11.538
▁گردیم.	-11.538
▁گز	-11.538
▁گزینشی	-11.538
▁گشت؛	-11.538
▁گشتی	-11.538
▁گفتمان	-11.538
▁گلاسکو	-11.538
▁گلرخ	-11.538
▁گلنوش	-11.538
▁گمشده	-11.538
▁گونار	-11.538
▁گوها	-11.538
▁گوهای	-11.538
▁گویند.	-11.538
▁گیاه	-11.538
▁گیتس	-11.538
▁گیرد.این	-11.538
▁گیردمنبع	-11.538
▁یاب	-11.538
▁یابند	-11.538
▁یابی	-11.538
▁یادش	-11.538
▁یادم	-11.538
▁یادی	-11.538
▁یاسمین	-11.538
▁ید	-11.538
▁یوردی	-11.538
▁یوسف	-11.538
▁یونانی	-11.538
▁یک؛	-11.538
▁یی	-11.538
▁۱۰۸	-11.538
▁۱۰۹	-11.538
▁۱۲۳	-11.538
▁۱۲۹۹	-11.538
▁۱۳۱	-11.538
▁۱۳۳۰	-11.538
▁۱۳۵۴	-11.538
▁۱۳۵۸	-11.538
▁۱۳۸۴	-11.538
▁۱۳۸۸	-11.538
▁۱۳۹۳	-11.538
▁۱۵۰۰۰	-11.538
▁۱۷۲	-11.538
▁۱۷۳	-11.538
▁۱۸۰۰	-11.538
▁۱۸۵	-11.538
▁۱۹۱۴	-11.538
▁۱۹۳۸	-11.538
▁۱۹۵	-11.538
▁۱۹۵۸	-11.538
▁۱۹۶۳	-11.538
▁۱۹۷۹	-11.538
▁۱۹۸۷	-11.538
▁۲۲۰	-11.538
▁۲۲۴	-11.538
▁۲۳۴	-11.538
▁۲۶۲	-11.538
▁۲۸۵	-11.538
▁۳-۶	-11.538
▁۳.۹	-11.538
▁۳۸۰	-11.538
▁۴۲۰	-11.538
▁۵۵۰	-11.538
▁'با	-11.7612
▁'بدون	-11.7612
▁'بی	-11.7612
▁'ترک	-11.7612
▁'دست	-11.7612
▁'زن	-11.7612
▁'سنگر	-11.7612
▁'شعر	-11.7612
▁'صربیناتور'	-11.7612
▁'میدان	-11.7612
▁'نگرانی	-11.7612
▁'یک	-11.7612
▁.آنها	-11.7612
▁.از	-11.7612
▁.بر	-11.7612
▁.دیروز	-11.7612
▁.شورای	-11.7612
▁.عکس	-11.7612
▁آئودی	-11.7612
▁آئین	-11.7612
▁آبه	-11.7612
▁آتشفشان	-11.7612
▁آتشی	-11.7612
▁آرزوها	-11.7612
▁آرسی	-11.7612
▁آرماندو	-11.7612
▁آرنج	-11.7612
▁آرژانتین،	-11.7612
▁آرگیل	-11.7612
▁آزاردیدگان	-11.7612
▁آزارهای	-11.7612
▁آستان	-11.7612
▁آستین	-11.7612
▁آسمانی	-11.7612
▁آصف	-11.7612
▁آغاخان	-11.7612
▁آغازی	-11.7612
▁آفرود	-11.7612
▁آفرینی	-11.7612
▁آقابابایی	-11.7612
▁آلایندگی	-11.7612
▁آلت	-11.7612
▁آلدرین	-11.7612
▁آلمانمنبع	-11.7612
▁آمبولانس	-11.7612
▁آمد.او	-11.7612
▁آمریکا.	-11.7612
▁آموخته	-11.7612
▁آمونیت	-11.7612
▁آمپول	-11.7612
▁آمیز'	-11.7612
▁آنا	-11.7612
▁آنتوان	-11.7612
▁آنفولانزای	-11.7612
▁آنها،	-11.7612
▁آنهاست؛	-11.7612
▁آنچنان	-11.7612
▁آنگلا	-11.7612
▁آهنگی	-11.7612
▁آو	-11.7612
▁آورد.در	-11.7612
▁آورم	-11.7612
▁آوریل،	-11.7612
▁آویز	-11.7612
▁آویزان	-11.7612
▁آوینی	-11.7612
▁آپ	-11.7612
▁آپارتمانش	-11.7612
▁آپوفِس	-11.7612
▁آیشمن	-11.7612
▁آیفون	-11.7612
▁آینده،	-11.7612
▁آینده؛	-11.7612
▁ابراهیموویچ	-11.7612
▁ابراهیمی	-11.7612
▁ابرقدرت	-11.7612
▁ابزارهای	-11.7612
▁ابزاری	-11.7612
▁اتاقی	-11.7612
▁اتانازی	-11.7612
▁اتمسفر	-11.7612
▁اتوبوسی	-11.7612
▁اثربخشی	-11.7612
▁اجاق	-11.7612
▁اجرام	-11.7612
▁اجسام	-11.7612
▁احتیاطی	-11.7612
▁احمدزاده	-11.7612
▁احمدشاملو	-11.7612
▁اخیروزارت	-11.7612
▁ادعاهایی	-11.7612
▁ادلب	-11.7612
▁ارتقای	-11.7612
▁ارث	-11.7612
▁ارج	-11.7612
▁اردکانیان	-11.7612
▁ارز،	-11.7612
▁اروپا.	-11.7612
▁ازبک	-11.7612
▁ازمیر	-11.7612
▁است.آیت	-11.7612
▁است.ارزش	-11.7612
▁است.اعضای	-11.7612
▁است.انتشار	-11.7612
▁است.باران	-11.7612
▁است.تهران	-11.7612
▁است.تیم	-11.7612
▁است.حدود	-11.7612
▁است.دونالد	-11.7612
▁است.سخنگوی	-11.7612
▁است.سعید	-11.7612
▁است.سیما	-11.7612
▁است.شرکت	-11.7612
▁است.شمار	-11.7612
▁است.علیرضا	-11.7612
▁است.محمدجواد	-11.7612
▁است.معاون	-11.7612
▁است.منظور	-11.7612
▁است.نتایج	-11.7612
▁است.هفته	-11.7612
▁است.هیات	-11.7612
▁است.ولی	-11.7612
▁است.وکیل	-11.7612
▁است.پروفسور	-11.7612
▁استانداردهای	-11.7612
▁استانهای	-11.7612
▁استحکام	-11.7612
▁استرئیس	-11.7612
▁استرا	-11.7612
▁استسازمان	-11.7612
▁استقراض	-11.7612
▁استلیونل	-11.7612
▁استوار	-11.7612
▁استودیوی	-11.7612
▁استیاسنی	-11.7612
▁استیل	-11.7612
▁استیک	-11.7612
▁اسدبیگی	-11.7612
▁اسرائیل؛	-11.7612
▁اسرع	-11.7612
▁اسعدی	-11.7612
▁اسکات	-11.7612
▁اسکاتلند،	-11.7612
▁اسکای	-11.7612
▁اسکرین	-11.7612
▁اسکورت	-11.7612
▁اسکورسیزی	-11.7612
▁اسکورون	-11.7612
▁اشتهای	-11.7612
▁اشخاص	-11.7612
▁اشلی	-11.7612
▁اشکالی	-11.7612
▁اصطلاحا	-11.7612
▁اظهارنظرها	-11.7612
▁اظهارنظرهای	-11.7612
▁اعاده	-11.7612
▁اعترافات	-11.7612
▁افتاد؛	-11.7612
▁افتادمنبع	-11.7612
▁افزود:	-11.7612
▁افزوده:	-11.7612
▁افزون	-11.7612
▁افغانستانمنبع	-11.7612
▁اقتصادی،	-11.7612
▁اقدامی،	-11.7612
▁اقسام	-11.7612
▁اقوام	-11.7612
▁اقیانوسی	-11.7612
▁الارض	-11.7612
▁الدینی	-11.7612
▁الریان	-11.7612
▁الزامات	-11.7612
▁السیر	-11.7612
▁الف	-11.7612
▁القا	-11.7612
▁الهذلول	-11.7612
▁الوزرایی	-11.7612
▁الوقوع	-11.7612
▁الکسا	-11.7612
▁الیس	-11.7612
▁اما،	-11.7612
▁امدادی	-11.7612
▁امرار	-11.7612
▁امکانش	-11.7612
▁امیرمکری	-11.7612
▁امیلیا	-11.7612
▁انبارگردانی	-11.7612
▁انتظارش	-11.7612
▁انتظارها	-11.7612
▁انتظاری	-11.7612
▁انجامیده	-11.7612
▁انحصار	-11.7612
▁اند'منبع	-11.7612
▁اند.آنتونی	-11.7612
▁اند.اسماعیل	-11.7612
▁اند.اطلاعاتی	-11.7612
▁اند.ریچارد	-11.7612
▁اند.فرین	-11.7612
▁اند.مقام	-11.7612
▁اند.هکرها	-11.7612
▁انداختند.	-11.7612
▁اندازد.	-11.7612
▁اندرو	-11.7612
▁انزوا	-11.7612
▁انسانها	-11.7612
▁انسولین	-11.7612
▁انصاف	-11.7612
▁انیو	-11.7612
▁اهتمام	-11.7612
▁اهلی	-11.7612
▁اهمیتی	-11.7612
▁اوراسیا	-11.7612
▁اورشلیم	-11.7612
▁اوروگوئه	-11.7612
▁اوریون	-11.7612
▁اوزبیکی	-11.7612
▁اوساکا	-11.7612
▁اوست.	-11.7612
▁اوسیک	-11.7612
▁اوقاف،	-11.7612
▁اولا	-11.7612
▁اولیانف	-11.7612
▁اوهایو	-11.7612
▁اوکادو	-11.7612
▁اِولین	-11.7612
▁اپراتور	-11.7612
▁اکبرزاده	-11.7612
▁اکبری	-11.7612
▁اکراه	-11.7612
▁اکسیدکربن	-11.7612
▁اید.	-11.7612
▁ایرانیک	-11.7612
▁ایرنا،	-11.7612
▁ایزدی	-11.7612
▁ایستادند.	-11.7612
▁ایستادگی	-11.7612
▁ایسنا،	-11.7612
▁ایل	-11.7612
▁ایلام	-11.7612
▁ایلون	-11.7612
▁اینچی	-11.7612
▁ایوان	-11.7612
▁ایوانیسویچ	-11.7612
▁ایکون	-11.7612
▁بابک	-11.7612
▁باتر	-11.7612
▁باثبات	-11.7612
▁بادام	-11.7612
▁باربی	-11.7612
▁بارسلونا:	-11.7612
▁بارگذاری	-11.7612
▁بازار،	-11.7612
▁بازدارنده	-11.7612
▁بازداشتگاه	-11.7612
▁بازدیدکننده	-11.7612
▁بازنمایی	-11.7612
▁بازهای	-11.7612
▁بازو	-11.7612
▁بازگرداند.	-11.7612
▁بازگردد.	-11.7612
▁باشد.به	-11.7612
▁باشدمنبع	-11.7612
▁باشید.	-11.7612
▁بالارفتن	-11.7612
▁بالاست	-11.7612
▁بالاست؟منبع	-11.7612
▁بالاگرفتن	-11.7612
▁بالاگه	-11.7612
▁بام	-11.7612
▁بانفوذ	-11.7612
▁بانی	-11.7612
▁باچان	-11.7612
▁باکو	-11.7612
▁بایدن،	-11.7612
▁ببری	-11.7612
▁ببینند.	-11.7612
▁بجا	-11.7612
▁بحرین،	-11.7612
▁بخوانید.	-11.7612
▁بخورد	-11.7612
▁بدان	-11.7612
▁بدانیممنبع	-11.7612
▁بدرقه	-11.7612
▁بدنم	-11.7612
▁بدهم	-11.7612
▁بدهیم.	-11.7612
▁بدویا	-11.7612
▁بدوید	-11.7612
▁بدیهی	-11.7612
▁بران؛	-11.7612
▁برانگیزترین	-11.7612
▁برتر؛	-11.7612
▁برتن	-11.7612
▁برجاممنبع	-11.7612
▁برجی	-11.7612
▁برد،	-11.7612
▁برساند؛	-11.7612
▁برسد؛	-11.7612
▁برغم	-11.7612
▁برنامک	-11.7612
▁برنج	-11.7612
▁برونته	-11.7612
▁بروند.	-11.7612
▁برونو	-11.7612
▁بروکسل،	-11.7612
▁برویم	-11.7612
▁برگردند	-11.7612
▁برگشت.در	-11.7612
▁برگشتمنبع	-11.7612
▁بریتانیاست	-11.7612
▁بریتز	-11.7612
▁بریتیش	-11.7612
▁بریج	-11.7612
▁بریده	-11.7612
▁بزرگسال	-11.7612
▁بزرگسالان	-11.7612
▁بست.	-11.7612
▁بستند	-11.7612
▁بستکبال	-11.7612
▁بشرشهره	-11.7612
▁بشکند.	-11.7612
▁بفروشد.	-11.7612
▁بفروشد،	-11.7612
▁بلندپایه	-11.7612
▁بلومر	-11.7612
▁بلوچستان،	-11.7612
▁بلید	-11.7612
▁بلیدرانر	-11.7612
▁بلینکن،	-11.7612
▁بمراتب	-11.7612
▁بمرور	-11.7612
▁بنام	-11.7612
▁بنشیند	-11.7612
▁بنگاه	-11.7612
▁بنی	-11.7612
▁بنین	-11.7612
▁بهائیان	-11.7612
▁بهرامی	-11.7612
▁بواتنگ	-11.7612
▁بود'منبع	-11.7612
▁بود.اسماعیل	-11.7612
▁بود.مقام	-11.7612
▁بود.و	-11.7612
▁بودایران	-11.7612
▁بوددر	-11.7612
▁بودند.به	-11.7612
▁بودید	-11.7612
▁بورس؛	-11.7612
▁بوزمن،	-11.7612
▁بوفالو	-11.7612
▁بوفالوها	-11.7612
▁بوقچی	-11.7612
▁بوقی	-11.7612
▁بولونیا	-11.7612
▁بوهایی	-11.7612
▁بپردازد.	-11.7612
▁بچگی	-11.7612
▁بکارگیری	-11.7612
▁بکر	-11.7612
▁بکشم	-11.7612
▁بکشند.	-11.7612
▁بگذارند	-11.7612
▁بگیر	-11.7612
▁بگیرم	-11.7612
▁بیانجامد	-11.7612
▁بیاندازد	-11.7612
▁بیایند	-11.7612
▁بیتل	-11.7612
▁بیراهه	-11.7612
▁بیرمنگام	-11.7612
▁بیضایی	-11.7612
▁بیولوژی	-11.7612
▁بیگم	-11.7612
▁تابعیتی	-11.7612
▁تابلوهای	-11.7612
▁تاثیرگذاری	-11.7612
▁تاجدین	-11.7612
▁تاجگردون	-11.7612
▁تاجیکستان؛	-11.7612
▁تاخیری	-11.7612
▁تالیف	-11.7612
▁تایتان	-11.7612
▁تاییید	-11.7612
▁تبعیت	-11.7612
▁تجربیات	-11.7612
▁تجسمی	-11.7612
▁تجمعات	-11.7612
▁تحلیلی	-11.7612
▁تحولاتی	-11.7612
▁تخصص	-11.7612
▁تدابیری	-11.7612
▁تداعی	-11.7612
▁تراست	-11.7612
▁تراشیده	-11.7612
▁تراولتا	-11.7612
▁تربت	-11.7612
▁ترتیب،	-11.7612
▁ترنس	-11.7612
▁ترکیه؛	-11.7612
▁تشکیلات	-11.7612
▁تصنیف	-11.7612
▁تطابق	-11.7612
▁تظاهر	-11.7612
▁تعارف	-11.7612
▁تعبیه	-11.7612
▁تعرض	-11.7612
▁تعلیقی	-11.7612
▁تعمیرات	-11.7612
▁تقاضاهای	-11.7612
▁تقبل	-11.7612
▁تقلبی	-11.7612
▁تلکوم	-11.7612
▁تماسی	-11.7612
▁تماشاگری	-11.7612
▁تمایز	-11.7612
▁تملک	-11.7612
▁تمکین	-11.7612
▁تمیز	-11.7612
▁تندی	-11.7612
▁تنه	-11.7612
▁تنگنا	-11.7612
▁تهدید،	-11.7612
▁تهران:	-11.7612
▁تهمت	-11.7612
▁تهی	-11.7612
▁توئیتی	-11.7612
▁تواضع	-11.7612
▁توانمندی	-11.7612
▁توانیر	-11.7612
▁توبه	-11.7612
▁توتال	-11.7612
▁توخالی	-11.7612
▁توسل	-11.7612
▁توفندها	-11.7612
▁توقعات	-11.7612
▁تولیت	-11.7612
▁تومان،	-11.7612
▁تونی	-11.7612
▁توییگی	-11.7612
▁تپندگان	-11.7612
▁تکاملی	-11.7612
▁تیز	-11.7612
▁تیلدا	-11.7612
▁تیموریان	-11.7612
▁ثروتمندان	-11.7612
▁جادو	-11.7612
▁جادوگر	-11.7612
▁جادویی	-11.7612
▁جاری،	-11.7612
▁جاسازی	-11.7612
▁جانباختگان	-11.7612
▁جانسون،	-11.7612
▁جانور	-11.7612
▁جاه	-11.7612
▁جاهایی	-11.7612
▁جبرانی	-11.7612
▁جثه	-11.7612
▁جداسازی	-11.7612
▁جر	-11.7612
▁جزای	-11.7612
▁جغرافیای	-11.7612
▁جفتش	-11.7612
▁جلساتی	-11.7612
▁جمالی	-11.7612
▁جمعیتی	-11.7612
▁جمل	-11.7612
▁جملات	-11.7612
▁جمهورها	-11.7612
▁جنایتی	-11.7612
▁جنبشی	-11.7612
▁جنوبی،	-11.7612
▁جوئل	-11.7612
▁جوانب	-11.7612
▁جوزپ	-11.7612
▁جوشی	-11.7612
▁جولیا	-11.7612
▁جونگ	-11.7612
▁جوهانسون	-11.7612
▁جید	-11.7612
▁حاضرین	-11.7612
▁حدف	-11.7612
▁حدیث	-11.7612
▁حرارتی	-11.7612
▁حسب	-11.7612
▁حشرات	-11.7612
▁حشره	-11.7612
▁حصبه	-11.7612
▁حضورشان	-11.7612
▁حقوقدان	-11.7612
▁حقوقشان	-11.7612
▁حناچی	-11.7612
▁حوت	-11.7612
▁حک	-11.7612
▁حکمیت	-11.7612
▁حیثیت	-11.7612
▁خاطراتی	-11.7612
▁خاطرنشان	-11.7612
▁خاموشی	-11.7612
▁خانوده	-11.7612
▁خبرداده	-11.7612
▁خبردار	-11.7612
▁خداوند	-11.7612
▁خدای	-11.7612
▁خدایی	-11.7612
▁خدشه	-11.7612
▁خر	-11.7612
▁خرند	-11.7612
▁خشمی	-11.7612
▁خصوصیات	-11.7612
▁خضریان	-11.7612
▁خنک	-11.7612
▁خوار	-11.7612
▁خواری	-11.7612
▁خوانش	-11.7612
▁خوانندگی	-11.7612
▁خودرو،	-11.7612
▁خودمختار	-11.7612
▁خوشبختانه	-11.7612
▁خونی	-11.7612
▁خیام،	-11.7612
▁خیری	-11.7612
▁داد.با	-11.7612
▁داد.جوکوویچ	-11.7612
▁دادرسی	-11.7612
▁دادند؛	-11.7612
▁داده؛	-11.7612
▁دادهمنبع	-11.7612
▁دادیم.	-11.7612
▁داردهکرهایی	-11.7612
▁دارند.از	-11.7612
▁دارند.گفته	-11.7612
▁دارندمنبع	-11.7612
▁دارید.	-11.7612
▁داستایفسکی	-11.7612
▁داشتند،	-11.7612
▁داشتنی	-11.7612
▁داشته.	-11.7612
▁داعش	-11.7612
▁داغدار	-11.7612
▁دالر	-11.7612
▁داماد	-11.7612
▁دامبو	-11.7612
▁دانشجویانی	-11.7612
▁دایملر	-11.7612
▁داینابوک	-11.7612
▁دبیرستانی	-11.7612
▁دختربچه	-11.7612
▁دخترم	-11.7612
▁درآمدشان	-11.7612
▁درآورد	-11.7612
▁درآوردمنبع	-11.7612
▁درآورده	-11.7612
▁درامور	-11.7612
▁دراویش	-11.7612
▁درحضور	-11.7612
▁درخصوص	-11.7612
▁درصورت	-11.7612
▁درمانگاه	-11.7612
▁درمیان	-11.7612
▁درواقع	-11.7612
▁درگذشت؛	-11.7612
▁درگذشتدرگذشت	-11.7612
▁دریاباری	-11.7612
▁دریاها	-11.7612
▁دریبل	-11.7612
▁دستاوردهایش	-11.7612
▁دستیارانش	-11.7612
▁دشوارتر	-11.7612
▁دفترچه	-11.7612
▁دقتی	-11.7612
▁دلال	-11.7612
▁دلتای	-11.7612
▁دلجویی	-11.7612
▁دلخواه	-11.7612
▁دلیلش	-11.7612
▁دماغه	-11.7612
▁دموکراسی	-11.7612
▁دنباله	-11.7612
▁دوآ	-11.7612
▁دوئل	-11.7612
▁دورخیز	-11.7612
▁دوزسنج	-11.7612
▁دوسال	-11.7612
▁دولتهای	-11.7612
▁دوور	-11.7612
▁دویچلند	-11.7612
▁دژ	-11.7612
▁دیابت	-11.7612
▁دیدارش	-11.7612
▁دیده،	-11.7612
▁دیدگان	-11.7612
▁دیرباز	-11.7612
▁دیگرش	-11.7612
▁ذات	-11.7612
▁ذیل	-11.7612
▁رئیسان	-11.7612
▁رئیسی،	-11.7612
▁راب	-11.7612
▁راجپوت	-11.7612
▁رادو	-11.7612
▁رازآلود	-11.7612
▁راسخ	-11.7612
▁راشد	-11.7612
▁رانا	-11.7612
▁راندن	-11.7612
▁رانگلر	-11.7612
▁راهنمای	-11.7612
▁راهکار	-11.7612
▁راهیابی	-11.7612
▁راکتی	-11.7612
▁رایانه	-11.7612
▁رایدر	-11.7612
▁ربابه	-11.7612
▁ربکا	-11.7612
▁رجبیان	-11.7612
▁رزماری	-11.7612
▁رس	-11.7612
▁رسد.با	-11.7612
▁رسد،	-11.7612
▁رسوایی	-11.7612
▁رسیدم	-11.7612
▁رسیم	-11.7612
▁رفت؛	-11.7612
▁رفیق	-11.7612
▁رقابتش	-11.7612
▁رقیبان	-11.7612
▁رهایش	-11.7612
▁رو،	-11.7612
▁روانشناس	-11.7612
▁روانچی	-11.7612
▁روبات	-11.7612
▁روبین	-11.7612
▁روزمزد	-11.7612
▁روسادا	-11.7612
▁روسوم	-11.7612
▁روشنفکران	-11.7612
▁روشنفکری	-11.7612
▁رولات	-11.7612
▁رولان	-11.7612
▁رولت	-11.7612
▁رونان	-11.7612
▁روندهای	-11.7612
▁رووانیمی	-11.7612
▁رویان	-11.7612
▁رویترز:	-11.7612
▁رکس	-11.7612
▁رکودی	-11.7612
▁رگبار	-11.7612
▁رگی	-11.7612
▁ریاحی	-11.7612
▁ریباند	-11.7612
▁ریخت	-11.7612
▁ریختگی	-11.7612
▁رینولدز	-11.7612
▁ریکا	-11.7612
▁رییسه	-11.7612
▁ز	-11.7612
▁زار	-11.7612
▁زالی	-11.7612
▁زامبی	-11.7612
▁زاناردی،	-11.7612
▁زبانه	-11.7612
▁زدمنبع	-11.7612
▁زلا	-11.7612
▁زم	-11.7612
▁زن،	-11.7612
▁زن؛	-11.7612
▁زندگیش	-11.7612
▁زندگینامه	-11.7612
▁زنیت	-11.7612
▁زی	-11.7612
▁زیباترین	-11.7612
▁زیراتمی	-11.7612
▁زیردریایی	-11.7612
▁زیمبابوه	-11.7612
▁ساتراپی	-11.7612
▁سازهای	-11.7612
▁سال؛	-11.7612
▁سالهاست	-11.7612
▁ساموئل	-11.7612
▁سانتیاگو	-11.7612
▁ساندرلند	-11.7612
▁ساوتهمپتون	-11.7612
▁سایوز	-11.7612
▁سبزیجات	-11.7612
▁سحرگاه	-11.7612
▁سخنران	-11.7612
▁سخنگو	-11.7612
▁سخنگویان	-11.7612
▁سرامیک	-11.7612
▁سراوانهجوم	-11.7612
▁سردرگمی	-11.7612
▁سرسام	-11.7612
▁سرسختانه	-11.7612
▁سرم	-11.7612
▁سرهنگ	-11.7612
▁سرو،	-11.7612
▁سرپوشیده	-11.7612
▁سریعا	-11.7612
▁سفالی	-11.7612
▁سفیدپوستان	-11.7612
▁سلب	-11.7612
▁سلیقه	-11.7612
▁سلیمی	-11.7612
▁سمیعی	-11.7612
▁سنین	-11.7612
▁سهیل	-11.7612
▁سواران	-11.7612
▁سوختگی	-11.7612
▁سوزاندن	-11.7612
▁سولار	-11.7612
▁سولشر	-11.7612
▁سولیوان	-11.7612
▁سوپرکار	-11.7612
▁سوکابومی	-11.7612
▁سپر	-11.7612
▁سپردن	-11.7612
▁سپیدار	-11.7612
▁سکنه	-11.7612
▁سکولار	-11.7612
▁سیارات	-11.7612
▁سیب	-11.7612
▁سیرشا	-11.7612
▁سیریاتل	-11.7612
▁سیستمی	-11.7612
▁سیمین	-11.7612
▁سینماگرانی	-11.7612
▁سیگاری	-11.7612
▁شارجه	-11.7612
▁شارمین	-11.7612
▁شارپنتیر	-11.7612
▁شاعر،	-11.7612
▁شاغلین	-11.7612
▁شالیزار	-11.7612
▁شامگاه	-11.7612
▁شاهان	-11.7612
▁شاهراه	-11.7612
▁شاهکارهای	-11.7612
▁شایسته	-11.7612
▁شجاعیان	-11.7612
▁شجریان؛	-11.7612
▁شد.حالا	-11.7612
▁شد.حدود	-11.7612
▁شد.دولت	-11.7612
▁شد.مقام	-11.7612
▁شد.پس	-11.7612
▁شد.پوریا	-11.7612
▁شد.کنزو	-11.7612
▁شدند.آقای	-11.7612
▁شدند:	-11.7612
▁شدنش	-11.7612
▁شدواکنش	-11.7612
▁شدیم	-11.7612
▁شراب	-11.7612
▁شراف	-11.7612
▁شراکت	-11.7612
▁شرت	-11.7612
▁شرمانه	-11.7612
▁شروط	-11.7612
▁شریدار	-11.7612
▁شریعتمداری	-11.7612
▁شست	-11.7612
▁شعرهای	-11.7612
▁شغال	-11.7612
▁شمسر	-11.7612
▁شن	-11.7612
▁شنوایی	-11.7612
▁شنویم	-11.7612
▁شهزاده	-11.7612
▁شهناز	-11.7612
▁شوالیه	-11.7612
▁شود.با	-11.7612
▁شود.دیروز	-11.7612
▁شود.رقابت	-11.7612
▁شود.محمد	-11.7612
▁شود.منابع	-11.7612
▁شود.هکرها	-11.7612
▁شود.کیوان	-11.7612
▁شودسازمان	-11.7612
▁شومینه	-11.7612
▁شوهری	-11.7612
▁شکات	-11.7612
▁شکارچی	-11.7612
▁شکستمنبع	-11.7612
▁شکسپیر	-11.7612
▁شکی	-11.7612
▁شیرازی	-11.7612
▁شیفت	-11.7612
▁صالح،	-11.7612
▁صبحگاهی	-11.7612
▁صداهای	-11.7612
▁صدهزار	-11.7612
▁صفا	-11.7612
▁صفی	-11.7612
▁صلیبی	-11.7612
▁صناعی	-11.7612
▁صنوف	-11.7612
▁صیاد	-11.7612
▁صیادان	-11.7612
▁ضربان	-11.7612
▁ضلع	-11.7612
▁طاهباز	-11.7612
▁طب	-11.7612
▁طراز	-11.7612
▁طرزی	-11.7612
▁طفره	-11.7612
▁طلبه	-11.7612
▁طنزآلود	-11.7612
▁طیور	-11.7612
▁ظالمانه	-11.7612
▁عامدانه	-11.7612
▁عایدی	-11.7612
▁عبدل	-11.7612
▁عثمان	-11.7612
▁عدل	-11.7612
▁عراقچی،	-11.7612
▁عربستان؛	-11.7612
▁عرفی	-11.7612
▁عزل	-11.7612
▁عسگری	-11.7612
▁عصبانیت	-11.7612
▁عطف	-11.7612
▁عقاب	-11.7612
▁عقد	-11.7612
▁علل	-11.7612
▁عماد	-11.7612
▁عمد	-11.7612
▁عمری	-11.7612
▁عنوانش	-11.7612
▁عکسها	-11.7612
▁عینک	-11.7612
▁غذاهای	-11.7612
▁غلامی	-11.7612
▁غنی،	-11.7612
▁غیربسته	-11.7612
▁غیرضروری	-11.7612
▁فارست	-11.7612
▁فاصل	-11.7612
▁فال	-11.7612
▁فالکلند	-11.7612
▁فانتری	-11.7612
▁فجرسپاسی	-11.7612
▁فدرالیسم	-11.7612
▁فراهانی	-11.7612
▁فراکسیون	-11.7612
▁فرایندهای	-11.7612
▁فرزندانش	-11.7612
▁فرزندخواندگی	-11.7612
▁فرسایش	-11.7612
▁فرستادمنبع	-11.7612
▁فرستد.	-11.7612
▁فرنود	-11.7612
▁فرهمند	-11.7612
▁فرهیختگان	-11.7612
▁فرودست	-11.7612
▁فرگوس	-11.7612
▁فریدمن	-11.7612
▁فقیری	-11.7612
▁فلز	-11.7612
▁فلسفی	-11.7612
▁فلورنتینو	-11.7612
▁فواد	-11.7612
▁فوتسی	-11.7612
▁فوربز	-11.7612
▁فوربس	-11.7612
▁فکاهی	-11.7612
▁فیروزآبادی	-11.7612
▁فیزیوتراپ	-11.7612
▁فیزیولوژی	-11.7612
▁فیسبوکی	-11.7612
▁فیفا:	-11.7612
▁فیلسوفان	-11.7612
▁فیگو	-11.7612
▁قادرند	-11.7612
▁قارچی	-11.7612
▁قاشق	-11.7612
▁قانونگذاری	-11.7612
▁قبای	-11.7612
▁قبرستانی	-11.7612
▁قدرتهای	-11.7612
▁قدش	-11.7612
▁قراردادهایی	-11.7612
▁قرصی	-11.7612
▁قشر	-11.7612
▁قصر	-11.7612
▁قصیده	-11.7612
▁قضا	-11.7612
▁قلبش	-11.7612
▁قلمی	-11.7612
▁قمقمه	-11.7612
▁قناعت	-11.7612
▁قوطی	-11.7612
▁قولی	-11.7612
▁لا	-11.7612
▁لاتکس	-11.7612
▁لاجوردی	-11.7612
▁لاوروف	-11.7612
▁لجین	-11.7612
▁لحنی	-11.7612
▁لخت	-11.7612
▁لرز	-11.7612
▁لرستان	-11.7612
▁لسلی	-11.7612
▁لشکری	-11.7612
▁لطفی	-11.7612
▁لطیفی	-11.7612
▁لمسی	-11.7612
▁لندرکینگ	-11.7612
▁لنگر	-11.7612
▁لوئیجی	-11.7612
▁لوتارو	-11.7612
▁لوگو	-11.7612
▁لوییس	-11.7612
▁لک	-11.7612
▁لگار	-11.7612
▁لیتری	-11.7612
▁لیلاز	-11.7612
▁لیموزین	-11.7612
▁لین	-11.7612
▁لیورپولی	-11.7612
▁لیپا	-11.7612
▁مابقی	-11.7612
▁ماتم	-11.7612
▁مادربزرگ	-11.7612
▁مادرید،	-11.7612
▁مادون	-11.7612
▁مارادونا:	-11.7612
▁مارس،	-11.7612
▁مارشال	-11.7612
▁ماروتو	-11.7612
▁مارچ	-11.7612
▁مارکی	-11.7612
▁ماریو	-11.7612
▁مازندرانی	-11.7612
▁ماساژ	-11.7612
▁ماشینش	-11.7612
▁مالباختگان	-11.7612
▁مالکانه	-11.7612
▁ماند.این	-11.7612
▁ماند.تشدید	-11.7612
▁ماندگاری	-11.7612
▁مانسل	-11.7612
▁مانچینی	-11.7612
▁ماهها	-11.7612
▁ماهیگیران	-11.7612
▁مایا	-11.7612
▁مایعی	-11.7612
▁مایلی	-11.7612
▁مبارز	-11.7612
▁مبارک	-11.7612
▁مبتکرانه	-11.7612
▁مبنا	-11.7612
▁متئو	-11.7612
▁متاسفم	-11.7612
▁متحرک	-11.7612
▁متصور	-11.7612
▁متغیرهای	-11.7612
▁متقابل	-11.7612
▁متقبل	-11.7612
▁متناقض	-11.7612
▁متکی	-11.7612
▁مثل	-11.7612
▁مجادلات	-11.7612
▁مجادله	-11.7612
▁مجاری	-11.7612
▁مجذوب	-11.7612
▁مجزا	-11.7612
▁مجلس،	-11.7612
▁مجوزدار	-11.7612
▁محاسباتی	-11.7612
▁محبوبترین	-11.7612
▁محبی	-11.7612
▁محتاطانه	-11.7612
▁محتمل	-11.7612
▁محتویات	-11.7612
▁محرز	-11.7612
▁محسنی	-11.7612
▁محصص	-11.7612
▁محصولش	-11.7612
▁محمد،	-11.7612
▁محمدهادی	-11.7612
▁محو	-11.7612
▁محورهای	-11.7612
▁محوری	-11.7612
▁محک	-11.7612
▁محکومیتش	-11.7612
▁مخازن	-11.7612
▁مخالفانی	-11.7612
▁مختص	-11.7612
▁مختصر	-11.7612
▁مخوف	-11.7612
▁مداری	-11.7612
▁مدرنیسم	-11.7612
▁مدلی	-11.7612
▁مدیرمسئول	-11.7612
▁مدیون	-11.7612
▁مذاکراتش	-11.7612
▁مذهب	-11.7612
▁مراد	-11.7612
▁مراوده	-11.7612
▁مرخص	-11.7612
▁مردانش	-11.7612
▁مردم،	-11.7612
▁مرسوم	-11.7612
▁مرمر	-11.7612
▁مروری	-11.7612
▁مروی	-11.7612
▁مرگ'	-11.7612
▁مرگمنبع	-11.7612
▁مریض	-11.7612
▁مزد	-11.7612
▁مزه	-11.7612
▁مزین	-11.7612
▁مسائلی	-11.7612
▁مسابقاتی	-11.7612
▁مسافرانی	-11.7612
▁مستاجر	-11.7612
▁مستحق	-11.7612
▁مستحکم	-11.7612
▁مستراح	-11.7612
▁مسترد	-11.7612
▁مستندهای	-11.7612
▁مسجل	-11.7612
▁مسحور	-11.7612
▁مسخ	-11.7612
▁مسخره	-11.7612
▁مسوولان	-11.7612
▁مسی،	-11.7612
▁مسیرها	-11.7612
▁مشاهیر	-11.7612
▁مشتاقان	-11.7612
▁مشروطیت	-11.7612
▁مشروع	-11.7612
▁مشهوری	-11.7612
▁مصادف	-11.7612
▁مصون	-11.7612
▁مضامین	-11.7612
▁مطبوع	-11.7612
▁مطلق	-11.7612
▁معالج	-11.7612
▁معاملاتی	-11.7612
▁معترضین	-11.7612
▁معدودی	-11.7612
▁معرف	-11.7612
▁معروفترین	-11.7612
▁معظم	-11.7612
▁معلومات	-11.7612
▁معنادار	-11.7612
▁مغول	-11.7612
▁مقامی	-11.7612
▁مقداد	-11.7612
▁مقصران	-11.7612
▁ملازم	-11.7612
▁ملاک	-11.7612
▁ملکشاه	-11.7612
▁ملیت	-11.7612
▁ممکن،	-11.7612
▁ممیز	-11.7612
▁مناسبات	-11.7612
▁منجیل	-11.7612
▁مندی	-11.7612
▁منزلش	-11.7612
▁منزله	-11.7612
▁منسجم	-11.7612
▁منشأ	-11.7612
▁منطقه،	-11.7612
▁منفور	-11.7612
▁منهدم	-11.7612
▁مهاجرتی	-11.7612
▁مهمتر	-11.7612
▁مهیار	-11.7612
▁مهیب	-11.7612
▁مهیبی	-11.7612
▁مواج	-11.7612
▁موافقتنامه	-11.7612
▁موانعی	-11.7612
▁موتوری	-11.7612
▁موثرتر	-11.7612
▁موجوداتی	-11.7612
▁مورخان	-11.7612
▁موزیم	-11.7612
▁موستانگ	-11.7612
▁موسیقیدان	-11.7612
▁مولر	-11.7612
▁مولکولی	-11.7612
▁مکاتب	-11.7612
▁مکالمات	-11.7612
▁مکانیزم	-11.7612
▁مکزیکوسیتی	-11.7612
▁میامی	-11.7612
▁میانمار	-11.7612
▁میخائیل	-11.7612
▁میرجاوه	-11.7612
▁میزانی	-11.7612
▁میزورام	-11.7612
▁میسر	-11.7612
▁میشائیل	-11.7612
▁میلر	-11.7612
▁میلیونها	-11.7612
▁ناتینگهام	-11.7612
▁نادال،	-11.7612
▁نادقیق	-11.7612
▁ناروا	-11.7612
▁ناسازگار	-11.7612
▁ناسالم	-11.7612
▁ناسیونالیستی	-11.7612
▁نافذ	-11.7612
▁ناقلان	-11.7612
▁نامشروع	-11.7612
▁نامم	-11.7612
▁ناموفق	-11.7612
▁ناهموار	-11.7612
▁نایر	-11.7612
▁نباشد.	-11.7612
▁نبرده	-11.7612
▁نبردی	-11.7612
▁نبودم	-11.7612
▁نتواتستند	-11.7612
▁نتوانستم	-11.7612
▁نخواهیم	-11.7612
▁ندارد.آقای	-11.7612
▁ندارند.بنا	-11.7612
▁ندهد.	-11.7612
▁ندهند.گزارش	-11.7612
▁نرسیدن	-11.7612
▁نروژی	-11.7612
▁نزدیکترین	-11.7612
▁نزول	-11.7612
▁نسرین	-11.7612
▁نشاط	-11.7612
▁نشد.او	-11.7612
▁نشد.در	-11.7612
▁نشدمنبع	-11.7612
▁نشود،	-11.7612
▁نصرت	-11.7612
▁نصیریان	-11.7612
▁نعمت	-11.7612
▁نفر،	-11.7612
▁نفرات	-11.7612
▁نفربراساس	-11.7612
▁نقاطی	-11.7612
▁نماند.	-11.7612
▁نموده	-11.7612
▁نه.منبع	-11.7612
▁نهال	-11.7612
▁نهصد	-11.7612
▁نهی	-11.7612
▁نهیان	-11.7612
▁نورث	-11.7612
▁نوردهی	-11.7612
▁نوزادی	-11.7612
▁نوزدهمین	-11.7612
▁نوسازی	-11.7612
▁نوشت.	-11.7612
▁نوشته:	-11.7612
▁نویسم	-11.7612
▁نویسنده،	-11.7612
▁نویسندگانی	-11.7612
▁نپالی	-11.7612
▁نژادیان	-11.7612
▁نکرده.	-11.7612
▁نکشید	-11.7612
▁نکشید.	-11.7612
▁نکنند.	-11.7612
▁نکهت	-11.7612
▁نگذاشت	-11.7612
▁نگرفت.	-11.7612
▁نیافت	-11.7612
▁نیافت.	-11.7612
▁نیافتن	-11.7612
▁نیاورد	-11.7612
▁نیاورده	-11.7612
▁نیرومند	-11.7612
▁نیست.این	-11.7612
▁نیست.با	-11.7612
▁نیستم.	-11.7612
▁نیش	-11.7612
▁نیشابور	-11.7612
▁نیشکر	-11.7612
▁نیلی	-11.7612
▁نیمکره	-11.7612
▁نیکزاد	-11.7612
▁نیکو	-11.7612
▁ها:	-11.7612
▁هاربین	-11.7612
▁هارد	-11.7612
▁هاس	-11.7612
▁هام	-11.7612
▁هامبورگ	-11.7612
▁هایما	-11.7612
▁هایپر	-11.7612
▁هتلداران	-11.7612
▁هجده	-11.7612
▁هدر	-11.7612
▁هدفی	-11.7612
▁هراتی	-11.7612
▁هربار	-11.7612
▁هرچقدر	-11.7612
▁هزارمین	-11.7612
▁هزرا	-11.7612
▁هستند.اما	-11.7612
▁هستند.سازمان	-11.7612
▁هستی	-11.7612
▁هشداردهنده	-11.7612
▁هم،	-11.7612
▁همانجا	-11.7612
▁همدانی	-11.7612
▁همسایگان	-11.7612
▁همسایگی	-11.7612
▁همشهری	-11.7612
▁همفکری	-11.7612
▁همپوشانی	-11.7612
▁همگان	-11.7612
▁هندرسون	-11.7612
▁هنکس	-11.7612
▁هنگفت	-11.7612
▁هورمون	-11.7612
▁هوستون	-11.7612
▁هوگان	-11.7612
▁هژمون	-11.7612
▁هکرهای	-11.7612
▁هیدالگو	-11.7612
▁هیوستون	-11.7612
▁هیچگونه	-11.7612
▁هیچیک	-11.7612
▁و...	-11.7612
▁واحده	-11.7612
▁وارتان	-11.7612
▁وارث	-11.7612
▁واردکننده	-11.7612
▁وارن	-11.7612
▁واقعیتی	-11.7612
▁والاس	-11.7612
▁واکسن،	-11.7612
▁واکنش،	-11.7612
▁وای	-11.7612
▁وایت	-11.7612
▁وجو	-11.7612
▁وجوش	-11.7612
▁وحشتناکی	-11.7612
▁ورزد	-11.7612
▁ورزشکاری	-11.7612
▁ورزشگاهی	-11.7612
▁ورزند.	-11.7612
▁وزنی	-11.7612
▁ولایات	-11.7612
▁ولت	-11.7612
▁ولتا	-11.7612
▁ولسوال	-11.7612
▁ونیز،	-11.7612
▁وکالت	-11.7612
▁وگویی	-11.7612
▁ویدیوهای	-11.7612
▁ویلچر	-11.7612
▁وین؛	-11.7612
▁وینسلت	-11.7612
▁پائولو	-11.7612
▁پابرجاست	-11.7612
▁پاختاکور	-11.7612
▁پادمان	-11.7612
▁پادمانی	-11.7612
▁پارو	-11.7612
▁پارکینسون	-11.7612
▁پاسخش	-11.7612
▁پاسدار	-11.7612
▁پاسداری	-11.7612
▁پالادیوم	-11.7612
▁پالایش	-11.7612
▁پاپوآ	-11.7612
▁پاکنیا	-11.7612
▁پدرانه	-11.7612
▁پدرشان	-11.7612
▁پرادعا	-11.7612
▁پرحاشیه	-11.7612
▁پرداخت.	-11.7612
▁پردازان	-11.7612
▁پردازنده	-11.7612
▁پردازی	-11.7612
▁پرزرق	-11.7612
▁پرسابقه	-11.7612
▁پرستانه	-11.7612
▁پرش	-11.7612
▁پرشیا	-11.7612
▁پرفسور	-11.7612
▁پروتئینی	-11.7612
▁پستاندار	-11.7612
▁پسرمان	-11.7612
▁پشتیبان	-11.7612
▁پشه	-11.7612
▁پغمان	-11.7612
▁پلتفرمی	-11.7612
▁پلیت	-11.7612
▁پلیموث	-11.7612
▁پنروز	-11.7612
▁پنل	-11.7612
▁پهلو	-11.7612
▁پوده	-11.7612
▁پوراحمد	-11.7612
▁پوراکبری	-11.7612
▁پورتوریکو	-11.7612
▁پورمختار	-11.7612
▁پوشاک	-11.7612
▁پولهای	-11.7612
▁پوماگالسکی	-11.7612
▁پویایی	-11.7612
▁پچ	-11.7612
▁پژوهشگری	-11.7612
▁پیامبری	-11.7612
▁پیت	-11.7612
▁پیشبینی	-11.7612
▁پیشخوان	-11.7612
▁پیشرفتی	-11.7612
▁پیشگیرانه	-11.7612
▁پین	-11.7612
▁پیوستگی	-11.7612
▁پیگرد	-11.7612
▁چابک	-11.7612
▁چابکی	-11.7612
▁چارلز	-11.7612
▁چارلی	-11.7612
▁چاق	-11.7612
▁چاه	-11.7612
▁چدویک	-11.7612
▁چرم	-11.7612
▁چسبناک	-11.7612
▁چغاخور	-11.7612
▁چندرایان	-11.7612
▁چون	-11.7612
▁چوپان	-11.7612
▁چی	-11.7612
▁ژاپنی،	-11.7612
▁ژیمناست	-11.7612
▁کابلی	-11.7612
▁کابلی،	-11.7612
▁کارتر	-11.7612
▁کاردوسو	-11.7612
▁کارفرمای	-11.7612
▁کارول	-11.7612
▁کارچاق	-11.7612
▁کاسا	-11.7612
▁کاسیاس	-11.7612
▁کاشف	-11.7612
▁کاغذی	-11.7612
▁کال	-11.7612
▁کامبالا	-11.7612
▁کامیابی	-11.7612
▁کان	-11.7612
▁کانتاس	-11.7612
▁کانتینر	-11.7612
▁کانری،	-11.7612
▁کانسپتی	-11.7612
▁کانگورو	-11.7612
▁کانیه	-11.7612
▁کاپلو	-11.7612
▁کاپلی	-11.7612
▁کتابش	-11.7612
▁کرد.از	-11.7612
▁کرد.بر	-11.7612
▁کرد.بسیاری	-11.7612
▁کرد.خانم	-11.7612
▁کرد.دو	-11.7612
▁کرد.شرکت	-11.7612
▁کردباشگاه	-11.7612
▁کردبه	-11.7612
▁کردند.اما	-11.7612
▁کردهیک	-11.7612
▁کروات	-11.7612
▁کرونازده	-11.7612
▁کریر	-11.7612
▁کسادی	-11.7612
▁کسالت	-11.7612
▁کسوت	-11.7612
▁کشاند.	-11.7612
▁کشورهاست	-11.7612
▁کشیم	-11.7612
▁کلاول	-11.7612
▁کلباسی	-11.7612
▁کلم	-11.7612
▁کلمبیایی	-11.7612
▁کلورت	-11.7612
▁کلیشه	-11.7612
▁کلینتون	-11.7612
▁کمار	-11.7612
▁کمالوندی	-11.7612
▁کمدی	-11.7612
▁کمونیست	-11.7612
▁کمپ	-11.7612
▁کمیابی	-11.7612
▁کمیل	-11.7612
▁کمین	-11.7612
▁کند.البته	-11.7612
▁کند.با	-11.7612
▁کند.بیشتر	-11.7612
▁کند.تیم	-11.7612
▁کندبه	-11.7612
▁کنزو،	-11.7612
▁کنسرسیوم	-11.7612
▁کنند.با	-11.7612
▁کنند.بیشتر	-11.7612
▁کنندگان،	-11.7612
▁کنیم؛	-11.7612
▁کوبید	-11.7612
▁کوتاه،	-11.7612
▁کوتاهتر	-11.7612
▁کوثر	-11.7612
▁کودتایی	-11.7612
▁کودکانه	-11.7612
▁کوزه	-11.7612
▁کوشیده	-11.7612
▁کولبران	-11.7612
▁کولر	-11.7612
▁کوهستانی	-11.7612
▁کوهپایه	-11.7612
▁کوواکس	-11.7612
▁کوچکش	-11.7612
▁کوید	-11.7612
▁کیست؟منبع	-11.7612
▁کیلوگرمی	-11.7612
▁کیلین	-11.7612
▁گاردن	-11.7612
▁گاروس	-11.7612
▁گازاشک	-11.7612
▁گازپروم	-11.7612
▁گاف	-11.7612
▁گال	-11.7612
▁گاوخونی	-11.7612
▁گذارند.	-11.7612
▁گذران	-11.7612
▁گذراند.سخنگوی	-11.7612
▁گذشت.او	-11.7612
▁گراز	-11.7612
▁گراهام	-11.7612
▁گرایان	-11.7612
▁گرث	-11.7612
▁گرجستان	-11.7612
▁گردهمایی	-11.7612
▁گردید.	-11.7612
▁گردیده	-11.7612
▁گرفت.به	-11.7612
▁گرفت.منبع	-11.7612
▁گرفت؛	-11.7612
▁گرفتند.منبع	-11.7612
▁گرفتیم	-11.7612
▁گرفتیم.	-11.7612
▁گرمترین	-11.7612
▁گرونتن	-11.7612
▁گرگوری	-11.7612
▁گریخته	-11.7612
▁گریم	-11.7612
▁گزارشگری	-11.7612
▁گشایشی	-11.7612
▁گلاور	-11.7612
▁گلبول	-11.7612
▁گلنظر	-11.7612
▁گله	-11.7612
▁گناهی	-11.7612
▁گنجانده	-11.7612
▁گوارشی	-11.7612
▁گود	-11.7612
▁گودالی	-11.7612
▁گوستاو	-11.7612
▁گوسفندی	-11.7612
▁گوگوش	-11.7612
▁گویای	-11.7612
▁گویم	-11.7612
▁گویند،	-11.7612
▁گِز	-11.7612
▁گِنزِل	-11.7612
▁گی	-11.7612
▁گیلگمش	-11.7612
▁گینس	-11.7612
▁گینه	-11.7612
▁یادمان	-11.7612
▁یاران	-11.7612
▁یاریس	-11.7612
▁یاسر	-11.7612
▁یافت.منبع	-11.7612
▁یانگ	-11.7612
▁یدریچک	-11.7612
▁یمنی	-11.7612
▁یه	-11.7612
▁یوفا:	-11.7612
▁یونهاپ	-11.7612
▁یوهان	-11.7612
▁یک،	-11.7612
▁یکباره	-11.7612
▁یکدست	-11.7612
▁یکسانی	-11.7612
▁یکهزار	-11.7612
▁یینیسی	-11.7612
▁۱۰نفر	-11.7612
▁۱۰۱	-11.7612
▁۱۰۲	-11.7612
▁۱۱۰۰	-11.7612
▁۱۲۶	-11.7612
▁۱۳۲	-11.7612
▁۱۳۴۴	-11.7612
▁۱۳۶۲	-11.7612
▁۱۳۶۳	-11.7612
▁۱۳۷۴	-11.7612
▁۱۳۷۷	-11.7612
▁۱۳۸۳	-11.7612
▁۱۴۲	-11.7612
▁۱۶.۹	-11.7612
▁۱۶۰۰	-11.7612
▁۱۷۴	-11.7612
▁۱۸۷۰	-11.7612
▁۱۸۹۳	-11.7612
▁۱۹۱۷	-11.7612
▁۱۹۱۸	-11.7612
▁۱۹۳	-11.7612
▁۱۹۶۴	-11.7612
▁۱۹۶۶	-11.7612
▁۱۹۷۸	-11.7612
▁۱۹۸۵	-11.7612
▁۱۹۸۶رسید	-11.7612
▁۱۹۸۸	-11.7612
▁۱۹۹۴	-11.7612
▁۱۹۹۹	-11.7612
▁۲-۶	-11.7612
▁۲میلیون	-11.7612
▁۲۰۲	-11.7612
▁۲۰۲۰منبع	-11.7612
▁۲۰۵	-11.7612
▁۲۰۵۰	-11.7612
▁۲۴۰	-11.7612
▁۲۵۰۰	-11.7612
▁۲۶۰۵	-11.7612
▁۲۸۶	-11.7612
▁۳.۶	-11.7612
▁۳۱۴۶۱	-11.7612
▁۳۱۷	-11.7612
▁۳۲۵	-11.7612
▁۴۲۲	-11.7612
▁۴۸۰	-11.7612
▁۵۰۸	-11.7612
▁۵۸.۷	-11.7612
▁۶۰درصد	-11.7612
▁۶۵۲	-11.7612
▁۸۰۰۰	-11.7612
▁۹۶۰	-11.7612
▁'آزادسازی'	-12.0489
▁'احتمال	-12.0489
▁'اسپوتنیک	-12.0489
▁'اصلاح'	-12.0489
▁'این	-12.0489
▁'بازداشت	-12.0489
▁'بسیار	-12.0489
▁'بیش	-12.0489
▁'تولید	-12.0489
▁'تیراندازی	-12.0489
▁'حاملگی'	-12.0489
▁'دختر	-12.0489
▁'روز	-12.0489
▁'سولار	-12.0489
▁'فساد'	-12.0489
▁'قابل	-12.0489
▁'قرارداد	-12.0489
▁'قوی	-12.0489
▁'ما	-12.0489
▁'مالک	-12.0489
▁'مرد	-12.0489
▁'من	-12.0489
▁'منتفی	-12.0489
▁'می	-12.0489
▁'نژادپرستی	-12.0489
▁'هرگز	-12.0489
▁'وخیم	-12.0489
▁'پس	-12.0489
▁'چند	-12.0489
▁'چهار	-12.0489
▁'گران	-12.0489
▁(اتریش)	-12.0489
▁(اتریش)،	-12.0489
▁(در	-12.0489
▁(دهم	-12.0489
▁(سه	-12.0489
▁(طرح	-12.0489
▁(۱۸	-12.0489
▁(۳۱	-12.0489
▁-به	-12.0489
▁.آِیت	-12.0489
▁.البته	-12.0489
▁.اکنون	-12.0489
▁.رئیس	-12.0489
▁.علی	-12.0489
▁.مدیر	-12.0489
▁.همزمان	-12.0489
▁.پیش	-12.0489
▁.کیهان	-12.0489
▁:	-12.0489
▁آب،	-12.0489
▁آبادان،	-12.0489
▁آبدات	-12.0489
▁آبردین	-12.0489
▁آبریزش	-12.0489
▁آبشار	-12.0489
▁آبونمان	-12.0489
▁آبی'	-12.0489
▁آبی؛	-12.0489
▁آتن	-12.0489
▁آتیه	-12.0489
▁آدمی	-12.0489
▁آذر،	-12.0489
▁آذربایجان،	-12.0489
▁آرایی	-12.0489
▁آرتمیسینین	-12.0489
▁آرد	-12.0489
▁آرزویی	-12.0489
▁آرنو	-12.0489
▁آرژانتیندرگذشت	-12.0489
▁آزادگان،	-12.0489
▁آزادی'	-12.0489
▁آزمایششان	-12.0489
▁آزنوم	-12.0489
▁آسانسور	-12.0489
▁آسایش	-12.0489
▁آسترازنکا	-12.0489
▁آسوده	-12.0489
▁آسونسیون،	-12.0489
▁آسیا،	-12.0489
▁آشوریمنبع	-12.0489
▁آشیل	-12.0489
▁آغازکرد.	-12.0489
▁آفریده	-12.0489
▁آفریقا،	-12.0489
▁آفرینش	-12.0489
▁آلاسکا	-12.0489
▁آلامدا	-12.0489
▁آلبومش	-12.0489
▁آلرژی	-12.0489
▁آلمان،	-12.0489
▁آلودی	-12.0489
▁آلکمار	-12.0489
▁آماندا	-12.0489
▁آمد.منبع	-12.0489
▁آمدنش	-12.0489
▁آمده:	-12.0489
▁آمدهای	-12.0489
▁آمر	-12.0489
▁آمریکا-	-12.0489
▁آمریکاست.	-12.0489
▁آمریکایی،	-12.0489
▁آمفتامین	-12.0489
▁آموزشکده	-12.0489
▁آموزگاران	-12.0489
▁آموس	-12.0489
▁آمیخته	-12.0489
▁آمیزی	-12.0489
▁آن.	-12.0489
▁آنالوگ	-12.0489
▁آنجلینا	-12.0489
▁آنها:	-12.0489
▁آنهاست.	-12.0489
▁آنگونه	-12.0489
▁آهنگسازی	-12.0489
▁آهنگش	-12.0489
▁آوازخوانان	-12.0489
▁آوازی	-12.0489
▁آورد.این	-12.0489
▁آورد.بر	-12.0489
▁آوردمنبع	-12.0489
▁آوردند.پرونده	-12.0489
▁آوردیم	-12.0489
▁آورید	-12.0489
▁آپارات	-12.0489
▁آپارتاید	-12.0489
▁آژانسیک	-12.0489
▁آیدین	-12.0489
▁آیوز	-12.0489
▁آیینی	-12.0489
▁ا	-12.0489
▁ابتذال	-12.0489
▁ابری	-12.0489
▁ابطال	-12.0489
▁ابلاغی	-12.0489
▁ابوالقاسم	-12.0489
▁اتاقش	-12.0489
▁اتراق	-12.0489
▁اتفاقا	-12.0489
▁اتمر	-12.0489
▁اتومبیلش	-12.0489
▁اتکایی	-12.0489
▁اثرش	-12.0489
▁اثرگذاری	-12.0489
▁اجداد	-12.0489
▁اجماع	-12.0489
▁احتمالات	-12.0489
▁احتمالهای	-12.0489
▁احساساتش	-12.0489
▁احمدرضا	-12.0489
▁احکامی	-12.0489
▁اخبارش	-12.0489
▁اختتامیه	-12.0489
▁اخطارهای	-12.0489
▁اد	-12.0489
▁ادعاها	-12.0489
▁ادعایی	-12.0489
▁ادن	-12.0489
▁ادواردو	-12.0489
▁ادینسون	-12.0489
▁ارتدوکس	-12.0489
▁اردو	-12.0489
▁اردوهای	-12.0489
▁اردیبهشت)	-12.0489
▁ارزانتر	-12.0489
▁ارزشهای	-12.0489
▁ارزنده	-12.0489
▁ارعاب	-12.0489
▁اروپاست	-12.0489
▁اروپایی.منبع	-12.0489
▁ازآن	-12.0489
▁ازبکی	-12.0489
▁ازدرگاه	-12.0489
▁اس'	-12.0489
▁است..	-12.0489
▁است...	-12.0489
▁است.آرامکو	-12.0489
▁است.آمار	-12.0489
▁است.آژانس	-12.0489
▁است.ارزیابی	-12.0489
▁است.اطلاعات	-12.0489
▁است.امسال	-12.0489
▁است.اکبر	-12.0489
▁است.اکنون	-12.0489
▁است.ایالات	-12.0489
▁است.بازار	-12.0489
▁است.برای	-12.0489
▁است.بسیاری	-12.0489
▁است.بعد	-12.0489
▁است.بورس	-12.0489
▁است.بوریس	-12.0489
▁است.بیش	-12.0489
▁است.تا	-12.0489
▁است.تخمین	-12.0489
▁است.تقابل	-12.0489
▁است.تنها	-12.0489
▁است.تولید	-12.0489
▁است.تولیدکنندگان	-12.0489
▁است.جراح	-12.0489
▁است.جراحش	-12.0489
▁است.حشمت	-12.0489
▁است.خانواده	-12.0489
▁است.خبر	-12.0489
▁است.خروج	-12.0489
▁است.خیرالله	-12.0489
▁است.داستان	-12.0489
▁است.دخایر	-12.0489
▁است.درحالی	-12.0489
▁است.دنیل	-12.0489
▁است.دیده	-12.0489
▁است.رسانه	-12.0489
▁است.روزنامه	-12.0489
▁است.رکود	-12.0489
▁است.زبان	-12.0489
▁است.شرایط	-12.0489
▁است.شورای	-12.0489
▁است.علاوه	-12.0489
▁است.علت	-12.0489
▁است.عکس	-12.0489
▁است.فریدون	-12.0489
▁است.قرار	-12.0489
▁است.لیورپول	-12.0489
▁است.مارک	-12.0489
▁است.مجلس	-12.0489
▁است.محسن	-12.0489
▁است.محققان	-12.0489
▁است.مذاکرات	-12.0489
▁است.مرکز	-12.0489
▁است.مریم	-12.0489
▁است.منابع	-12.0489
▁است.نام	-12.0489
▁است.نرخ	-12.0489
▁است.نقاشی	-12.0489
▁است.همچنین	-12.0489
▁است.همیلتون	-12.0489
▁است.واشنگتن	-12.0489
▁است.وحیدالله	-12.0489
▁است.پرهام	-12.0489
▁است.پزشک	-12.0489
▁است.کشورهای	-12.0489
▁است.کمتر	-12.0489
▁است.کنگره	-12.0489
▁است.گفتگو	-12.0489
▁است.یافته	-12.0489
▁استادی	-12.0489
▁استارشیپ	-12.0489
▁استان،	-12.0489
▁استاو	-12.0489
▁استایلز	-12.0489
▁استبرای	-12.0489
▁استخرها	-12.0489
▁استدفتر	-12.0489
▁استدکتر	-12.0489
▁استرالیا؛	-12.0489
▁استرالیابر	-12.0489
▁استرالیایی،	-12.0489
▁استرتژیک	-12.0489
▁استرجن	-12.0489
▁استرلینگ	-12.0489
▁استسال	-12.0489
▁استشرکت	-12.0489
▁استطی	-12.0489
▁استعدادی	-12.0489
▁استعماری	-12.0489
▁استف	-12.0489
▁استفانو	-12.0489
▁استقیمت	-12.0489
▁استلا	-12.0489
▁استمرسدس	-12.0489
▁استمسابقات	-12.0489
▁استمقام	-12.0489
▁استونز،	-12.0489
▁استیلی	-12.0489
▁استیکی	-12.0489
▁اسرائیل:	-12.0489
▁اسراییل	-12.0489
▁اسراییلی	-12.0489
▁اسعد	-12.0489
▁اسفره	-12.0489
▁اسلامی.	-12.0489
▁اسواتینی	-12.0489
▁اسپنس	-12.0489
▁اسکارلت	-12.0489
▁اسکلت	-12.0489
▁اش،	-12.0489
▁اشاراتی	-12.0489
▁اشتباهات	-12.0489
▁اشتباهی	-12.0489
▁اشتوتگارت	-12.0489
▁اشتیاق	-12.0489
▁اصلاحاتی	-12.0489
▁اصلاحی	-12.0489
▁اطمینانی	-12.0489
▁اعتدال	-12.0489
▁اعجوبه	-12.0489
▁اعم	-12.0489
▁اغماض	-12.0489
▁افتاد.منبع	-12.0489
▁افتادگی	-12.0489
▁افتخارآفرینی	-12.0489
▁افتخارآمیز	-12.0489
▁افتخارترین	-12.0489
▁افتد.	-12.0489
▁افتد؟منبع	-12.0489
▁افترا	-12.0489
▁افتی	-12.0489
▁افزارهای	-12.0489
▁افشاگری	-12.0489
▁افغان،	-12.0489
▁افغانستاندر	-12.0489
▁افغانی	-12.0489
▁افقی	-12.0489
▁افکاری،	-12.0489
▁افکنده	-12.0489
▁افکنی	-12.0489
▁اقای	-12.0489
▁اقتباس	-12.0489
▁اقتصادی'	-12.0489
▁الاجلی	-12.0489
▁الاحواز	-12.0489
▁الاهلی	-12.0489
▁التحریر	-12.0489
▁الجزایر	-12.0489
▁الخروجی	-12.0489
▁الزاما	-12.0489
▁الشرطه	-12.0489
▁الشعاع	-12.0489
▁العمر	-12.0489
▁اللهی	-12.0489
▁المال	-12.0489
▁المستقبلدادگاه	-12.0489
▁المپیادی	-12.0489
▁الگو	-12.0489
▁الگوهای	-12.0489
▁الیزه	-12.0489
▁الیود	-12.0489
▁اماکنی	-12.0489
▁امتحانات	-12.0489
▁امینه	-12.0489
▁انباری	-12.0489
▁انتخابات،	-12.0489
▁انتشارات	-12.0489
▁انجامد	-12.0489
▁انجامید	-12.0489
▁انجیر	-12.0489
▁انحراف	-12.0489
▁اند.از	-12.0489
▁اند.افزایش	-12.0489
▁اند.او	-12.0489
▁اند.برای	-12.0489
▁اند.بسیاری	-12.0489
▁اند.سازمان	-12.0489
▁اند.سعید	-12.0489
▁اند.شاپی	-12.0489
▁اند.شیدا	-12.0489
▁اند.فعالان	-12.0489
▁اند.قیمت	-12.0489
▁اند.محققان	-12.0489
▁انداختمنبع	-12.0489
▁انداختند	-12.0489
▁اندازیم	-12.0489
▁اندایران	-12.0489
▁اندبا	-12.0489
▁اندبرای	-12.0489
▁اندروز	-12.0489
▁اندروید	-12.0489
▁انرو	-12.0489
▁انرومنبع	-12.0489
▁انطباق	-12.0489
▁انظار	-12.0489
▁انگشتر	-12.0489
▁انگلستان،	-12.0489
▁انگلی	-12.0489
▁انگلیس،	-12.0489
▁انگلیسی،	-12.0489
▁انگیس	-12.0489
▁اهواز،	-12.0489
▁اوبر؛	-12.0489
▁اوتارسون	-12.0489
▁اورخون	-12.0489
▁اورکنی	-12.0489
▁اورگیون	-12.0489
▁اوزیل	-12.0489
▁اوغلو	-12.0489
▁اولی	-12.0489
▁اون	-12.0489
▁اونو	-12.0489
▁اوگوپوگو	-12.0489
▁اپلیکیشنی	-12.0489
▁اکتشافات	-12.0489
▁اکسیوس	-12.0489
▁اگنس	-12.0489
▁ای؛	-12.0489
▁ایاما	-12.0489
▁ایتالیاییمنبع	-12.0489
▁ایتر	-12.0489
▁ایدز	-12.0489
▁ایرادمنبع	-12.0489
▁ایرادهای	-12.0489
▁ایرانبه	-12.0489
▁ایرانسل	-12.0489
▁ایرانوزیر	-12.0489
▁ایرانی:	-12.0489
▁ایرانیانی	-12.0489
▁ایرایی	-12.0489
▁ایرلاین	-12.0489
▁ایرلندشمالی	-12.0489
▁ایرویز	-12.0489
▁ایستاد.این	-12.0489
▁ایستادند	-12.0489
▁ایستند	-12.0489
▁ایستگاهی	-12.0489
▁ایفل	-12.0489
▁ایلام،	-12.0489
▁اینترمیلان	-12.0489
▁اینحال	-12.0489
▁ایندین	-12.0489
▁باارزش	-12.0489
▁بابویه	-12.0489
▁باثبات'	-12.0489
▁باخت.لیورپولِ	-12.0489
▁باخت.منبع	-12.0489
▁باختمنبع	-12.0489
▁باختند.	-12.0489
▁باخرید	-12.0489
▁بار،	-12.0489
▁بارسلونا؛	-12.0489
▁بارهای	-12.0489
▁باروک	-12.0489
▁بازار.دوج	-12.0489
▁بازخواست	-12.0489
▁بازده	-12.0489
▁بازنویسی	-12.0489
▁بازنگشتن	-12.0489
▁بازوبند	-12.0489
▁بازپرس	-12.0489
▁بازی.	-12.0489
▁بازی،	-12.0489
▁بازیکنانش	-12.0489
▁باشد.از	-12.0489
▁باشد.اما	-12.0489
▁باشد.با	-12.0489
▁باشندمنبع	-12.0489
▁باشندگان	-12.0489
▁باشگاه،	-12.0489
▁باطل	-12.0489
▁باغبان	-12.0489
▁باقری	-12.0489
▁بالستیک	-12.0489
▁بامیه	-12.0489
▁بانله	-12.0489
▁بانوی	-12.0489
▁بانکوک	-12.0489
▁باکاملا	-12.0489
▁باکسل	-12.0489
▁بایت	-12.0489
▁بایستند	-12.0489
▁بایستی	-12.0489
▁بایکونور	-12.0489
▁ببرند	-12.0489
▁ببندند.	-12.0489
▁بت	-12.0489
▁بتوانید	-12.0489
▁بحبوحه	-12.0489
▁بحثی	-12.0489
▁بخوانند	-12.0489
▁بخوانیدمنبع	-12.0489
▁بخوبی	-12.0489
▁بداند	-12.0489
▁بدحساب	-12.0489
▁بدخیم	-12.0489
▁بدشانس	-12.0489
▁بدقواره	-12.0489
▁بدلیل	-12.0489
▁بدنسازی	-12.0489
▁بدنمان	-12.0489
▁بده	-12.0489
▁بدهد.جانی	-12.0489
▁بدهد.منبع	-12.0489
▁بدو	-12.0489
▁برآمدگی	-12.0489
▁برآوردها	-12.0489
▁براحتی	-12.0489
▁برافراشته	-12.0489
▁برت	-12.0489
▁برترمنبع	-12.0489
▁برخاستن	-12.0489
▁برخورددهنده	-12.0489
▁برخوردهای	-12.0489
▁بردارد.	-12.0489
▁برداشتند.	-12.0489
▁برداشتی	-12.0489
▁بردرومن	-12.0489
▁بردمنبع	-12.0489
▁بردی	-12.0489
▁برسانیم.	-12.0489
▁برسد.فدراسیون	-12.0489
▁برسدمنبع	-12.0489
▁برسند	-12.0489
▁برسیم.	-12.0489
▁برش	-12.0489
▁برقی،	-12.0489
▁برنابئو	-12.0489
▁برندن	-12.0489
▁برود.پوریا	-12.0489
▁برود؛	-12.0489
▁برپایی	-12.0489
▁برگر	-12.0489
▁برگردند.	-12.0489
▁برگزیت،	-12.0489
▁برگزیت؛	-12.0489
▁برگشتن	-12.0489
▁برگشتند	-12.0489
▁برگوین	-12.0489
▁بریتانیا:	-12.0489
▁بریتانیاست،	-12.0489
▁بریز	-12.0489
▁بریم	-12.0489
▁بریک	-12.0489
▁بزرگ'	-12.0489
▁بزرگ؛	-12.0489
▁بزن	-12.0489
▁بزنیم	-12.0489
▁بسادگی	-12.0489
▁بسنده	-12.0489
▁بشر،	-12.0489
▁بشناسد.	-12.0489
▁بشنوید.	-12.0489
▁بشود	-12.0489
▁بعلت	-12.0489
▁بلافصل	-12.0489
▁بلاگر	-12.0489
▁بلر	-12.0489
▁بلندتر	-12.0489
▁بلندقدترین	-12.0489
▁بلندهای	-12.0489
▁بلندپروازانه	-12.0489
▁بلندپروازی	-12.0489
▁بلنیکن	-12.0489
▁بلوک	-12.0489
▁بمبئی	-12.0489
▁بمیرد.	-12.0489
▁بندرانزلی	-12.0489
▁بندرچاربهار	-12.0489
▁بندهای	-12.0489
▁بندهایی	-12.0489
▁بنزمنبع	-12.0489
▁بنویس	-12.0489
▁بنویسم	-12.0489
▁بنیانگذاران	-12.0489
▁بهارش	-12.0489
▁بهار۹۹	-12.0489
▁بهبهانی	-12.0489
▁بهداری	-12.0489
▁بهمنیار	-12.0489
▁بود.اخیرا	-12.0489
▁بود.اگر	-12.0489
▁بود.دولت	-12.0489
▁بود.دیوید	-12.0489
▁بود.سبد	-12.0489
▁بود.سیامک	-12.0489
▁بود.شاخص	-12.0489
▁بود.شرکت	-12.0489
▁بود.منظور	-12.0489
▁بود.هدف	-12.0489
▁بود.همزمان	-12.0489
▁بود.وزیر	-12.0489
▁بود.پوریا	-12.0489
▁بود.پیشتر	-12.0489
▁بود.کارگران	-12.0489
▁بود.یونایتد	-12.0489
▁بود.یک	-12.0489
▁بود.یکی	-12.0489
▁بودآقای	-12.0489
▁بوداین	-12.0489
▁بودند.آرامکو	-12.0489
▁بودند.امروز	-12.0489
▁بودند.تنها	-12.0489
▁بودند.نمایندگان	-12.0489
▁بودندخانم	-12.0489
▁بودکمیته	-12.0489
▁بودی	-12.0489
▁بورس:	-12.0489
▁بورسیا	-12.0489
▁بورگ	-12.0489
▁بورگ،	-12.0489
▁بورگارل	-12.0489
▁بورگمنبع	-12.0489
▁بوستان	-12.0489
▁بولداگ	-12.0489
▁بونگ	-12.0489
▁بوها	-12.0489
▁بوچانی؛	-12.0489
▁بوکر	-12.0489
▁بوکسینگ	-12.0489
▁بوگاتی	-12.0489
▁بپردازم	-12.0489
▁بپرسید	-12.0489
▁بپیوندد	-12.0489
▁بک	-12.0489
▁بکند	-12.0489
▁بکند.	-12.0489
▁بکنند	-12.0489
▁بگذارم.	-12.0489
▁بگفته	-12.0489
▁بگو	-12.0489
▁بگویید	-12.0489
▁بگیران	-12.0489
▁بگیرد؛	-12.0489
▁بگیرند.منبع	-12.0489
▁بیابد	-12.0489
▁بیاورند	-12.0489
▁بیدگل	-12.0489
▁بیشتر.	-12.0489
▁بیشتر؟اینکه	-12.0489
▁بیفتند	-12.0489
▁بیمارانی	-12.0489
▁بیماریهایی	-12.0489
▁بیند	-12.0489
▁بینسکی	-12.0489
▁بینند.اتفاقات	-12.0489
▁بیو	-12.0489
▁بیواِن	-12.0489
▁بیکاران	-12.0489
▁بیکر	-12.0489
▁تأسیسات	-12.0489
▁تابع	-12.0489
▁تابو	-12.0489
▁تاثیرات	-12.0489
▁تاثیرش	-12.0489
▁تاجران	-12.0489
▁تاجیکستان،	-12.0489
▁تاریخ،	-12.0489
▁تازی	-12.0489
▁تافته	-12.0489
▁تامی	-12.0489
▁تامینی	-12.0489
▁تانگوی	-12.0489
▁تاوارس	-12.0489
▁تاکسیرانی	-12.0489
▁تاکیدی	-12.0489
▁تایلندی	-12.0489
▁تایی	-12.0489
▁تاییدیه	-12.0489
▁تباری	-12.0489
▁تبهکار	-12.0489
▁تبیین	-12.0489
▁تجارتی	-12.0489
▁تجاری-سیاسی	-12.0489
▁تجسسی	-12.0489
▁تجهیزاتی	-12.0489
▁تحریم.	-12.0489
▁تحقیقاتش	-12.0489
▁تحیت	-12.0489
▁تخته	-12.0489
▁تختی	-12.0489
▁تخلفی	-12.0489
▁تخمک	-12.0489
▁تدارک	-12.0489
▁تدارکات	-12.0489
▁تدروس	-12.0489
▁ترات	-12.0489
▁ترازنامه	-12.0489
▁ترامپ:	-12.0489
▁تراپ	-12.0489
▁تراژیک	-12.0489
▁تراکتورسازی	-12.0489
▁ترسیده	-12.0489
▁ترشحات	-12.0489
▁تروریست	-12.0489
▁تروریستی'	-12.0489
▁ترکمانچای	-12.0489
▁ترین'	-12.0489
▁تز	-12.0489
▁تسخیر	-12.0489
▁تسکین	-12.0489
▁تشخیصی،	-12.0489
▁تشریفات	-12.0489
▁تشعشعات	-12.0489
▁تصمیم،	-12.0489
▁تضمینی	-12.0489
▁تضییع	-12.0489
▁تعارض	-12.0489
▁تعاملات	-12.0489
▁تعمیراتی	-12.0489
▁تعهداتمان	-12.0489
▁تعهدی	-12.0489
▁تلاشند	-12.0489
▁تلگرامی	-12.0489
▁تماشگران	-12.0489
▁تمدنی	-12.0489
▁تمسخر	-12.0489
▁تملیکی	-12.0489
▁تمهیدات	-12.0489
▁تنبل	-12.0489
▁تندروهای	-12.0489
▁تنگاتنگ	-12.0489
▁ته	-12.0489
▁تهدیدات	-12.0489
▁تهدیدها	-12.0489
▁تهران.	-12.0489
▁توافق،	-12.0489
▁توالی	-12.0489
▁توانبخشی	-12.0489
▁توتال؛	-12.0489
▁توجیهی	-12.0489
▁توحیدی	-12.0489
▁تورج	-12.0489
▁تورممنبع	-12.0489
▁توفیقی	-12.0489
▁تومانبراساس	-12.0489
▁توپمنبع	-12.0489
▁توپی	-12.0489
▁تِک	-12.0489
▁تپنده	-12.0489
▁تکاوری	-12.0489
▁تیبو	-12.0489
▁تیم.	-12.0489
▁تیم؛	-12.0489
▁تیپ	-12.0489
▁ثابتی	-12.0489
▁ثانی،	-12.0489
▁جادوگر،	-12.0489
▁جامائیکایی	-12.0489
▁جاماییکایی	-12.0489
▁جاودان	-12.0489
▁جایش	-12.0489
▁جاییکه	-12.0489
▁جدانشدنی	-12.0489
▁جده	-12.0489
▁جدیدتر	-12.0489
▁جراحات	-12.0489
▁جرارد	-12.0489
▁جرد	-12.0489
▁جسارت	-12.0489
▁جسته	-12.0489
▁جسورانه	-12.0489
▁جسیکا	-12.0489
▁جعفر	-12.0489
▁جمعیتش	-12.0489
▁جمله،	-12.0489
▁جمله؛	-12.0489
▁جناحی	-12.0489
▁جنایتکاران	-12.0489
▁جنگجویان	-12.0489
▁جنگلی	-12.0489
▁جهادی	-12.0489
▁جهانگیر	-12.0489
▁جهانگیری:	-12.0489
▁جو،	-12.0489
▁جوانا	-12.0489
▁جوانان.	-12.0489
▁جواهر	-12.0489
▁جودو:	-12.0489
▁جورجینیو	-12.0489
▁جوری	-12.0489
▁جولین	-12.0489
▁جویانه	-12.0489
▁جگوار	-12.0489
▁جگوار.ماشین	-12.0489
▁جیانگ	-12.0489
▁جیدن	-12.0489
▁جیره	-12.0489
▁جیوه	-12.0489
▁حاملگی	-12.0489
▁حبابی	-12.0489
▁حجت	-12.0489
▁حدادی	-12.0489
▁حراستی	-12.0489
▁حرمت	-12.0489
▁حروف	-12.0489
▁حریت	-12.0489
▁حریری	-12.0489
▁حریفش	-12.0489
▁حسابداران	-12.0489
▁حسابرسی	-12.0489
▁حسرتی	-12.0489
▁حسگر	-12.0489
▁حسگرها	-12.0489
▁حسگرهای	-12.0489
▁حسی	-12.0489
▁حسینیه	-12.0489
▁حفاظتی	-12.0489
▁حفر	-12.0489
▁حلب	-12.0489
▁حمایتهای	-12.0489
▁حملاتی	-12.0489
▁حمیرا	-12.0489
▁حوضچه	-12.0489
▁حکامآژانس	-12.0489
▁حکیم	-12.0489
▁حکیمی	-12.0489
▁خاستگاه	-12.0489
▁خالدی	-12.0489
▁خالقی،	-12.0489
▁خامس	-12.0489
▁خاندوزی	-12.0489
▁خانموسیقی	-12.0489
▁خانوارها	-12.0489
▁خانودوزی	-12.0489
▁خانی	-12.0489
▁خاویر	-12.0489
▁خاکستر	-12.0489
▁خاکی	-12.0489
▁خبرنگارهای	-12.0489
▁خجالت	-12.0489
▁خدایاری،	-12.0489
▁خراج	-12.0489
▁خراردو	-12.0489
▁خردسالش	-12.0489
▁خردپیر	-12.0489
▁خروشان	-12.0489
▁خسرو	-12.0489
▁خصمانه	-12.0489
▁خصوصا	-12.0489
▁خصوصی،	-12.0489
▁خطاهای	-12.0489
▁خطایی	-12.0489
▁خطور	-12.0489
▁خطیبی	-12.0489
▁خلع	-12.0489
▁خللی	-12.0489
▁خلیفه	-12.0489
▁خمینی،	-12.0489
▁خوابی	-12.0489
▁خوابیدن	-12.0489
▁خوابیده	-12.0489
▁خوارزمی	-12.0489
▁خواند.افغانستان	-12.0489
▁خوانید	-12.0489
▁خواهتد	-12.0489
▁خواهد.	-12.0489
▁خواهران	-12.0489
▁خودبخود	-12.0489
▁خودت	-12.0489
▁خودخواسته	-12.0489
▁خودرساز	-12.0489
▁خودرویی	-12.0489
▁خورخه	-12.0489
▁خورند	-12.0489
▁خوشبو	-12.0489
▁خویشتن	-12.0489
▁خیابانهای	-12.0489
▁خیابانی،	-12.0489
▁خیر.	-12.0489
▁خیل	-12.0489
▁د	-12.0489
▁داخله	-12.0489
▁داد.بیشتر	-12.0489
▁داد.رسیدن	-12.0489
▁داد.لستر	-12.0489
▁داد.مسی	-12.0489
▁داد:	-12.0489
▁داداین	-12.0489
▁دادتیم	-12.0489
▁دادخواستی	-12.0489
▁داددوج	-12.0489
▁دادم.	-12.0489
▁دادن،	-12.0489
▁دادند.جاوید	-12.0489
▁دادیک	-12.0489
▁دارالامان	-12.0489
▁دارد.آقای	-12.0489
▁دارد.اما	-12.0489
▁دارد.بعضی	-12.0489
▁دارد.محمود	-12.0489
▁دارد.همیلتون	-12.0489
▁دارداین	-12.0489
▁دارم.	-12.0489
▁دارن	-12.0489
▁دارند.لستر	-12.0489
▁دارندگان	-12.0489
▁داسگوپتا	-12.0489
▁داشت.آقای	-12.0489
▁داشت.رئیس	-12.0489
▁داشت.فدراسیون	-12.0489
▁داشت.منتقدان	-12.0489
▁داشت.کلوپ	-12.0489
▁داشت،	-12.0489
▁داشتن'	-12.0489
▁داشتند.منبع	-12.0489
▁داشتند؛	-12.0489
▁داشتهمنبع	-12.0489
▁دال	-12.0489
▁دالان	-12.0489
▁دالگلیش	-12.0489
▁دامان	-12.0489
▁داند.	-12.0489
▁دانست.منبع	-12.0489
▁دانستم	-12.0489
▁دانشنامه	-12.0489
▁دانشگاه،	-12.0489
▁دانلد	-12.0489
▁دانلود	-12.0489
▁دانم.دلیلش	-12.0489
▁دانند.سازمان	-12.0489
▁دانیال	-12.0489
▁دانیدمنبع	-12.0489
▁دایک؛	-12.0489
▁دبیران	-12.0489
▁دبیلو	-12.0489
▁دخترانی	-12.0489
▁دخترشاولیویا	-12.0489
▁درآمدن	-12.0489
▁درازمدت	-12.0489
▁درازی	-12.0489
▁درختانی	-12.0489
▁درخشید	-12.0489
▁درخشیده	-12.0489
▁دردی	-12.0489
▁درسال	-12.0489
▁درعرصه	-12.0489
▁درهم	-12.0489
▁دروه	-12.0489
▁درپی	-12.0489
▁درگاه	-12.0489
▁دریژ	-12.0489
▁دزفول،	-12.0489
▁دستاوردهایی	-12.0489
▁دستخوش	-12.0489
▁دستشان	-12.0489
▁دستشویی	-12.0489
▁دستورات	-12.0489
▁دستورها	-12.0489
▁دستگیره	-12.0489
▁دعایی	-12.0489
▁دعوتش	-12.0489
▁دفعات	-12.0489
▁دفو	-12.0489
▁دق	-12.0489
▁دلار'	-12.0489
▁دلامینی	-12.0489
▁دلتا	-12.0489
▁دلخوش	-12.0489
▁دلش	-12.0489
▁دلم	-12.0489
▁دلنشین	-12.0489
▁دلیخت	-12.0489
▁دماغ	-12.0489
▁دنس	-12.0489
▁دنور	-12.0489
▁دنیا؛	-12.0489
▁دنیایی	-12.0489
▁دهانی	-12.0489
▁دهد.اما	-12.0489
▁دهد.با	-12.0489
▁دهد.گل	-12.0489
▁دهد،	-12.0489
▁دهداین	-12.0489
▁دهشت	-12.0489
▁دهن	-12.0489
▁دوازدهمین	-12.0489
▁دورانگوی	-12.0489
▁دوری،	-12.0489
▁دوستانِ	-12.0489
▁دوستانی	-12.0489
▁دوشنبه،	-12.0489
▁دوغارون	-12.0489
▁دوقلوها	-12.0489
▁دولتمردان	-12.0489
▁دولتها	-12.0489
▁دوهفته	-12.0489
▁دوچندان	-12.0489
▁دچارش	-12.0489
▁دکترا	-12.0489
▁دکترای	-12.0489
▁دکترها	-12.0489
▁دکترین	-12.0489
▁دگرباشان	-12.0489
▁دیتر	-12.0489
▁دید؛	-12.0489
▁دیدم.	-12.0489
▁دیدند.	-12.0489
▁دیدنش	-12.0489
▁دیرهنگام	-12.0489
▁دیری	-12.0489
▁دیرینه	-12.0489
▁دیو	-12.0489
▁دیوارها	-12.0489
▁دیگرهم	-12.0489
▁دیگه	-12.0489
▁ذهنیت	-12.0489
▁ذوالنوری	-12.0489
▁ذوزنقه	-12.0489
▁ذیبخش،	-12.0489
▁ذیصلاح	-12.0489
▁رائول	-12.0489
▁رابعه	-12.0489
▁راث	-12.0489
▁رادیواکتیو	-12.0489
▁رادیکال	-12.0489
▁رازهای	-12.0489
▁رافا	-12.0489
▁رامش؛	-12.0489
▁رامهرمز،	-12.0489
▁رامین	-12.0489
▁رانندگانش	-12.0489
▁راهور	-12.0489
▁راوی	-12.0489
▁رایکوف	-12.0489
▁رباتیک	-12.0489
▁ربیعی،	-12.0489
▁رجبی	-12.0489
▁رحیم	-12.0489
▁رحیمی	-12.0489
▁رخت	-12.0489
▁رخشان	-12.0489
▁ردیفی	-12.0489
▁رزمنده	-12.0489
▁رساند.لیدزیونایتد	-12.0489
▁رساند.مجتبی	-12.0489
▁رساند،	-12.0489
▁رستورانها	-12.0489
▁رسد.در	-12.0489
▁رسد.قیمت	-12.0489
▁رسولی	-12.0489
▁رسید.شرکت	-12.0489
▁رسید،	-12.0489
▁رسیدند؛	-12.0489
▁رسیدندیک	-12.0489
▁رسیده.	-12.0489
▁رعب	-12.0489
▁رفتهمنبع	-12.0489
▁رقیق	-12.0489
▁رمزارزهامنبع	-12.0489
▁رمق	-12.0489
▁رهاسازی	-12.0489
▁رهن	-12.0489
▁روباه	-12.0489
▁روبلف	-12.0489
▁روتردام	-12.0489
▁روث	-12.0489
▁روحانی.	-12.0489
▁روحانیون	-12.0489
▁رودریگز	-12.0489
▁رودمنبع	-12.0489
▁رودی	-12.0489
▁روز،	-12.0489
▁روزافزونی	-12.0489
▁روزانه،	-12.0489
▁روزتی	-12.0489
▁روغنی	-12.0489
▁رونده	-12.0489
▁رویاها	-12.0489
▁رویسی	-12.0489
▁رویش	-12.0489
▁رویکردش	-12.0489
▁رویکردهای	-12.0489
▁رکسانا	-12.0489
▁رکن	-12.0489
▁ریتا	-12.0489
▁ریتراتو	-12.0489
▁ریخت.	-12.0489
▁ریختند	-12.0489
▁رید	-12.0489
▁ریزبالگرد	-12.0489
▁ریش	-12.0489
▁ریودوژانیرو	-12.0489
▁ریورا،	-12.0489
▁ریک	-12.0489
▁زادروز	-12.0489
▁زارها	-12.0489
▁زحماتشان	-12.0489
▁زد.آقای	-12.0489
▁زدندلیورپول	-12.0489
▁زده.	-12.0489
▁زده؛	-12.0489
▁زراعتی	-12.0489
▁زشت	-12.0489
▁زمام	-12.0489
▁زمانبندی	-12.0489
▁زمانیکه	-12.0489
▁زمره	-12.0489
▁زمین؛	-12.0489
▁زندانمنبع	-12.0489
▁زندمنبع	-12.0489
▁زندگی.	-12.0489
▁زنم	-12.0489
▁زکریا	-12.0489
▁زگیل	-12.0489
▁زیارتی	-12.0489
▁زیباست	-12.0489
▁زیدآبادی	-12.0489
▁زیربناهای	-12.0489
▁زیرسازی	-12.0489
▁زیرین	-12.0489
▁ساختند.	-12.0489
▁ساختنش	-12.0489
▁سادات،	-12.0489
▁ساز،	-12.0489
▁سازد؟منبع	-12.0489
▁سازمانها	-12.0489
▁ساسانیان	-12.0489
▁ساطع	-12.0489
▁سالار	-12.0489
▁سالروز	-12.0489
▁سالمنبع	-12.0489
▁سالمند	-12.0489
▁سالمندی	-12.0489
▁ساله،	-12.0489
▁سامانی	-12.0489
▁سانتا	-12.0489
▁سانی	-12.0489
▁ساچمه	-12.0489
▁ساکنین	-12.0489
▁سایتش	-12.0489
▁ست.آقای	-12.0489
▁ستد	-12.0489
▁ستوده	-12.0489
▁ستیزانه	-12.0489
▁ستیزه	-12.0489
▁سخاوتمند	-12.0489
▁سخاوتمندانه	-12.0489
▁سخنانش	-12.0489
▁سخنرانان	-12.0489
▁سخی	-12.0489
▁سرآغاز	-12.0489
▁سرا	-12.0489
▁سراینده	-12.0489
▁سرتاسری	-12.0489
▁سرخپوشان	-12.0489
▁سردرگم	-12.0489
▁سردشنا	-12.0489
▁سرزنش	-12.0489
▁سرسبز	-12.0489
▁سرلوحه	-12.0489
▁سرلک	-12.0489
▁سرمربیان	-12.0489
▁سرودن	-12.0489
▁سروستانی	-12.0489
▁سروصدا	-12.0489
▁سرکار	-12.0489
▁سرکش	-12.0489
▁سرینا	-12.0489
▁سزاوارش	-12.0489
▁سعد	-12.0489
▁سغد	-12.0489
▁سفرشان	-12.0489
▁سلامی	-12.0489
▁سلطانزاده	-12.0489
▁سلمان،	-12.0489
▁سلیمانی،	-12.0489
▁سمتش	-12.0489
▁سمتی	-12.0489
▁سمعی	-12.0489
▁سمنزا	-12.0489
▁سناتورها	-12.0489
▁سنج	-12.0489
▁سنجش	-12.0489
▁سنجی	-12.0489
▁سنندج	-12.0489
▁سنوات	-12.0489
▁سهام،	-12.0489
▁سهمی	-12.0489
▁سهولت	-12.0489
▁سواد	-12.0489
▁سوالی	-12.0489
▁سوبرانا	-12.0489
▁سوختهای	-12.0489
▁سودی	-12.0489
▁سوراخ	-12.0489
▁سوسیالیستی	-12.0489
▁سونگ	-12.0489
▁سویا	-12.0489
▁سوییسی	-12.0489
▁سپاه:	-12.0489
▁سپهری	-12.0489
▁سی؛	-12.0489
▁سیار	-12.0489
▁سیاستمداران.	-12.0489
▁سیاستی	-12.0489
▁سیاهی	-12.0489
▁سیتی،	-12.0489
▁سیدنیمنبع	-12.0489
▁سیری	-12.0489
▁سیستماتیک'	-12.0489
▁سیف،	-12.0489
▁سیلک	-12.0489
▁سیناپس	-12.0489
▁سیندمیک	-12.0489
▁سیکو	-12.0489
▁ش،	-12.0489
▁شادگان،	-12.0489
▁شار	-12.0489
▁شافعی	-12.0489
▁شامپانزه	-12.0489
▁شانزدهمین	-12.0489
▁شاهدخت	-12.0489
▁شاهرخ	-12.0489
▁شاهرودی	-12.0489
▁شاهرگ	-12.0489
▁شاکری	-12.0489
▁شاکی	-12.0489
▁شاکیان	-12.0489
▁شایان	-12.0489
▁شبان	-12.0489
▁شبح	-12.0489
▁شبنم	-12.0489
▁شبهه	-12.0489
▁شتابی	-12.0489
▁شجاعانه	-12.0489
▁شجریاندر	-12.0489
▁شد.استقلال	-12.0489
▁شد.انتشار	-12.0489
▁شد.انتظار	-12.0489
▁شد.بر	-12.0489
▁شد.تاتنهام	-12.0489
▁شد.ترکیه	-12.0489
▁شد.توییتر	-12.0489
▁شد.حمید	-12.0489
▁شد.شرکت	-12.0489
▁شد.فیلم	-12.0489
▁شد.مارادونا	-12.0489
▁شد.همیلتون	-12.0489
▁شد.گزارش	-12.0489
▁شدبا	-12.0489
▁شدبعد	-12.0489
▁شدتیم	-12.0489
▁شدخبرگزاری	-12.0489
▁شدسازمان	-12.0489
▁شدمعاون	-12.0489
▁شدند'منبع	-12.0489
▁شدند.افزایش	-12.0489
▁شدند.ایران	-12.0489
▁شدند.دادگاه	-12.0489
▁شدند.سیاوش	-12.0489
▁شدند.فرامرز	-12.0489
▁شدند.مگان	-12.0489
▁شده'به	-12.0489
▁شده.در	-12.0489
▁شده؟	-12.0489
▁شرایط،	-12.0489
▁شرودر	-12.0489
▁شستا	-12.0489
▁شعبات	-12.0489
▁شعرهایی	-12.0489
▁شغلشان	-12.0489
▁شغلها	-12.0489
▁شغلهای	-12.0489
▁شلبی	-12.0489
▁شلوار	-12.0489
▁شما،	-12.0489
▁شمایلی	-12.0489
▁شمرده	-12.0489
▁شمسیه	-12.0489
▁شمع	-12.0489
▁شمول	-12.0489
▁شناسانه	-12.0489
▁شنیدنش	-12.0489
▁شهر،	-12.0489
▁شهرستانها	-12.0489
▁شهریور)	-12.0489
▁شهریورماه	-12.0489
▁شهلا	-12.0489
▁شواری	-12.0489
▁شوخ	-12.0489
▁شود.امروز	-12.0489
▁شود.حدود	-12.0489
▁شود.دولت	-12.0489
▁شود.روزنامه	-12.0489
▁شود.سازمان	-12.0489
▁شود.سایت	-12.0489
▁شود.سیاوش	-12.0489
▁شود.صندوق	-12.0489
▁شود.گسترش	-12.0489
▁شود:	-12.0489
▁شودرسانه	-12.0489
▁شوراها	-12.0489
▁شورت	-12.0489
▁شوشتر،	-12.0489
▁شوند.آقای	-12.0489
▁شوند.با	-12.0489
▁شوند.در	-12.0489
▁شوند:	-12.0489
▁شوند؟منبع	-12.0489
▁شونده	-12.0489
▁شوکور	-12.0489
▁شویی	-12.0489
▁شکست.	-12.0489
▁شکستی	-12.0489
▁شکم	-12.0489
▁شگردهای	-12.0489
▁شیتزکریک	-12.0489
▁شیلات	-12.0489
▁شیلد	-12.0489
▁شیمیایی	-12.0489
▁شین	-12.0489
▁صاحبش	-12.0489
▁صادره	-12.0489
▁صادقی،	-12.0489
▁صافی	-12.0489
▁صحیح،	-12.0489
▁صداقت	-12.0489
▁صدایشان	-12.0489
▁صدراعظم	-12.0489
▁صدمات	-12.0489
▁صراف	-12.0489
▁صربستان	-12.0489
▁صرع	-12.0489
▁صفرهای	-12.0489
▁صفهای	-12.0489
▁صلاحیت،	-12.0489
▁صلاحیتش	-12.0489
▁صلیب	-12.0489
▁صمد	-12.0489
▁صورتیکه	-12.0489
▁ضخیم	-12.0489
▁ضرابخانه	-12.0489
▁ضررهای	-12.0489
▁ضرری	-12.0489
▁ضرغام	-12.0489
▁ضمیمه	-12.0489
▁طاق	-12.0489
▁طبری،	-12.0489
▁طبیعتا	-12.0489
▁طراحان	-12.0489
▁طرفداری	-12.0489
▁طرق	-12.0489
▁طعمه	-12.0489
▁طناز	-12.0489
▁طنزپرداز	-12.0489
▁طوطی	-12.0489
▁طیفی	-12.0489
▁ظاهرشاه	-12.0489
▁ظریف:	-12.0489
▁ظفر	-12.0489
▁ظلم	-12.0489
▁عابران	-12.0489
▁عادلایران،	-12.0489
▁عار	-12.0489
▁عاطفی	-12.0489
▁عالیشاه	-12.0489
▁عبادی	-12.0489
▁عباسعلی	-12.0489
▁عبدالرحمان	-12.0489
▁عبدالعلی	-12.0489
▁عتاب	-12.0489
▁عجیب،	-12.0489
▁عدلی	-12.0489
▁عذر	-12.0489
▁عربستانمنبع	-12.0489
▁عرفانی	-12.0489
▁عروج	-12.0489
▁عزا	-12.0489
▁عزیزالله	-12.0489
▁عضوی	-12.0489
▁عطرسازان	-12.0489
▁عطرسازها	-12.0489
▁عطرهای	-12.0489
▁عطفی	-12.0489
▁عظمت	-12.0489
▁علاج	-12.0489
▁علامتهایی	-12.0489
▁علامه	-12.0489
▁علف	-12.0489
▁علمای	-12.0489
▁علیرضامنبع	-12.0489
▁علیشاهی	-12.0489
▁علیپور	-12.0489
▁عمدا	-12.0489
▁عمرم	-12.0489
▁عمومی،	-12.0489
▁عمیقی	-12.0489
▁عنابستانی	-12.0489
▁عناوینی	-12.0489
▁عنایت	-12.0489
▁عنصری	-12.0489
▁عنکبوتی	-12.0489
▁عهدنامه	-12.0489
▁عواید	-12.0489
▁عکاسانی	-12.0489
▁عکسبرداری	-12.0489
▁عکسش	-12.0489
▁غائله	-12.0489
▁غدیر	-12.0489
▁غذاخوری	-12.0489
▁غزنویان	-12.0489
▁غفاری	-12.0489
▁غلامعلی	-12.0489
▁غلطی	-12.0489
▁غواصی	-12.0489
▁غیاثیان	-12.0489
▁غیرسازنده	-12.0489
▁غیرفعال	-12.0489
▁فائزه	-12.0489
▁فارس،	-12.0489
▁فازهای	-12.0489
▁فاکتورهایی	-12.0489
▁فاکس	-12.0489
▁فایننشال	-12.0489
▁فخیم	-12.0489
▁فدائیان	-12.0489
▁فدایی	-12.0489
▁فدرر،	-12.0489
▁فرابنفش	-12.0489
▁فراخوان	-12.0489
▁فرارسیدن	-12.0489
▁فراغت	-12.0489
▁فرانسه؛	-12.0489
▁فرانسهمنبع	-12.0489
▁فراپار	-12.0489
▁فراگرفته	-12.0489
▁فردا،	-12.0489
▁فردای	-12.0489
▁فرسا	-12.0489
▁فرستد	-12.0489
▁فرسنگ	-12.0489
▁فرشته	-12.0489
▁فرشید	-12.0489
▁فرضی	-12.0489
▁فرما	-12.0489
▁فرمانروای	-12.0489
▁فرمانروایی	-12.0489
▁فرمانی	-12.0489
▁فرمینو	-12.0489
▁فرناندو	-12.0489
▁فرهادی	-12.0489
▁فرهنگستان	-12.0489
▁فروبست.	-12.0489
▁فروردین،	-12.0489
▁فرید	-12.0489
▁فصول	-12.0489
▁فضاپیما	-12.0489
▁فضاپیمایی	-12.0489
▁فعل	-12.0489
▁فعلی،	-12.0489
▁فقرا	-12.0489
▁فقیرنشین	-12.0489
▁فلاتو	-12.0489
▁فلانی	-12.0489
▁فلسطینی	-12.0489
▁فلوریدای	-12.0489
▁فهرستش	-12.0489
▁فهمید	-12.0489
▁فهمیدند	-12.0489
▁فهمیده	-12.0489
▁فواید	-12.0489
▁فوب	-12.0489
▁فوتبال،	-12.0489
▁فوریتی	-12.0489
▁فولام	-12.0489
▁فون	-12.0489
▁فیروزه	-12.0489
▁فیلم؛	-12.0489
▁فیلمش	-12.0489
▁فیلمچندی	-12.0489
▁فیودور	-12.0489
▁قائمشهر	-12.0489
▁قابلمه	-12.0489
▁قادری	-12.0489
▁قاسمی،	-12.0489
▁قالیباف:	-12.0489
▁قاچاقچیان	-12.0489
▁قایدی	-12.0489
▁قبایل	-12.0489
▁قبرستان	-12.0489
▁قبرهای	-12.0489
▁قبضه	-12.0489
▁قدترین	-12.0489
▁قدعلم	-12.0489
▁قرآن	-12.0489
▁قرائن	-12.0489
▁قراردادها	-12.0489
▁قرمز،	-12.0489
▁قرملی	-12.0489
▁قرن؛	-12.0489
▁قرچه	-12.0489
▁قشقایی	-12.0489
▁قطران	-12.0489
▁قمار	-12.0489
▁قمر	-12.0489
▁قندوز	-12.0489
▁قومیت	-12.0489
▁قیراطی	-12.0489
▁لاستیکی	-12.0489
▁لاغر	-12.0489
▁لاورز	-12.0489
▁لاین	-12.0489
▁لایک	-12.0489
▁لبز	-12.0489
▁لبنیات	-12.0489
▁لزومی	-12.0489
▁لستر-لیدز:	-12.0489
▁لطیف	-12.0489
▁لغت	-12.0489
▁لغزان	-12.0489
▁لمباردی	-12.0489
▁لندن.	-12.0489
▁له	-12.0489
▁لواسان	-12.0489
▁لوب	-12.0489
▁لولا	-12.0489
▁لومامبا،	-12.0489
▁لوکزامبورگ	-12.0489
▁لوکسی	-12.0489
▁لوکه،	-12.0489
▁لیر	-12.0489
▁لینگ	-12.0489
▁لیوان	-12.0489
▁لیورمنبع	-12.0489
▁لیوپول	-12.0489
▁ماتیاس	-12.0489
▁ماتیلا	-12.0489
▁ماجراجو	-12.0489
▁ماخ	-12.0489
▁مادام	-12.0489
▁مادری؛	-12.0489
▁مارسل	-12.0489
▁مارسلو	-12.0489
▁ماریان	-12.0489
▁ماریانا	-12.0489
▁ماست.	-12.0489
▁ماسه	-12.0489
▁ماقبل	-12.0489
▁مالکین	-12.0489
▁ماموریتش	-12.0489
▁ماند.منبع	-12.0489
▁ماندمنبع	-12.0489
▁ماهگی	-12.0489
▁ماهیانه	-12.0489
▁مایایی	-12.0489
▁مبادلاتی	-12.0489
▁مبالغی	-12.0489
▁مبانی	-12.0489
▁مبحث	-12.0489
▁متخلفانه	-12.0489
▁مترقی	-12.0489
▁مترمکعب	-12.0489
▁متشکریم.	-12.0489
▁متضمن	-12.0489
▁متعادل	-12.0489
▁متعاقب	-12.0489
▁متقلب	-12.0489
▁متقلب،	-12.0489
▁متمادی	-12.0489
▁متناوب	-12.0489
▁متنوعی	-12.0489
▁مته	-12.0489
▁متواری	-12.0489
▁متوازن	-12.0489
▁متوازنی	-12.0489
▁مثالی	-12.0489
▁مثلثی	-12.0489
▁مثنوی	-12.0489
▁مجارستان	-12.0489
▁مجازی،	-12.0489
▁مجاور	-12.0489
▁مجاورت	-12.0489
▁مجرد	-12.0489
▁مجریه	-12.0489
▁مجلس.	-12.0489
▁مجلس:	-12.0489
▁مجلل	-12.0489
▁محبت	-12.0489
▁محبوبش	-12.0489
▁محبوبشان	-12.0489
▁محتوایی	-12.0489
▁محتکر	-12.0489
▁محصور	-12.0489
▁محققی	-12.0489
▁محمدتقی	-12.0489
▁محمودی	-12.0489
▁مخاطبانش	-12.0489
▁مخاطره	-12.0489
▁مخدوش	-12.0489
▁مخزن	-12.0489
▁مخملباف	-12.0489
▁مدرنیته	-12.0489
▁مدس	-12.0489
▁مدیریتی	-12.0489
▁مدیسون	-12.0489
▁مذاهب	-12.0489
▁مذاکرت	-12.0489
▁مراجعان	-12.0489
▁مرتع	-12.0489
▁مردسالار	-12.0489
▁مرغ،	-12.0489
▁مرندی	-12.0489
▁مرهم	-12.0489
▁مریوان	-12.0489
▁مزیت	-12.0489
▁مسئول،	-12.0489
▁مسئولانی	-12.0489
▁مسئولیتی	-12.0489
▁مسافرخانه	-12.0489
▁مسافرکشی	-12.0489
▁مساوات	-12.0489
▁مستضعفان؛	-12.0489
▁مستنکفین	-12.0489
▁مسوولیت	-12.0489
▁مسیرش	-12.0489
▁مشاهدات	-12.0489
▁مشت	-12.0489
▁مشتاقانه	-12.0489
▁مشترکان	-12.0489
▁مشرف	-12.0489
▁مشغولی	-12.0489
▁مشمولین	-12.0489
▁مشهدی	-12.0489
▁مشهود	-12.0489
▁مشکوکی	-12.0489
▁مصائب	-12.0489
▁مصدق	-12.0489
▁مضاعفی	-12.0489
▁مطابقت	-12.0489
▁مطالعاتی	-12.0489
▁مطمئنا	-12.0489
▁مطهر	-12.0489
▁معادلات	-12.0489
▁معادله	-12.0489
▁معاهده	-12.0489
▁معبد	-12.0489
▁معتاد	-12.0489
▁معترضانی	-12.0489
▁معتقدان	-12.0489
▁معدنی	-12.0489
▁معذرت	-12.0489
▁معزی،	-12.0489
▁معقول	-12.0489
▁معوق	-12.0489
▁مغانلو	-12.0489
▁مغایرت	-12.0489
▁مفاهیم	-12.0489
▁مفسر	-12.0489
▁مقادیری	-12.0489
▁مقاطع	-12.0489
▁مقتدر	-12.0489
▁مقتدرانه	-12.0489
▁مقرراتی	-12.0489
▁مقصدی	-12.0489
▁مقننه	-12.0489
▁ملوان	-12.0489
▁ملودی	-12.0489
▁ملکشا	-12.0489
▁ملکی	-12.0489
▁ملی،	-12.0489
▁ممتاز	-12.0489
▁ممد	-12.0489
▁مملو	-12.0489
▁ممیزی	-12.0489
▁من'	-12.0489
▁منازعات	-12.0489
▁منافعی	-12.0489
▁منحنی	-12.0489
▁منطبق	-12.0489
▁منعقد	-12.0489
▁منگل	-12.0489
▁مهاجمانی	-12.0489
▁مهاجمی	-12.0489
▁مهد	-12.0489
▁مهرگان	-12.0489
▁مهیای	-12.0489
▁مواجهند.	-12.0489
▁موادی	-12.0489
▁موازات	-12.0489
▁موازات،	-12.0489
▁موتسارت	-12.0489
▁موتورسیکلت	-12.0489
▁موتورها	-12.0489
▁موثرترین	-12.0489
▁مورد،	-12.0489
▁مورفی	-12.0489
▁موروثی	-12.0489
▁موریتانی	-12.0489
▁موریس	-12.0489
▁موزیکال	-12.0489
▁موسوی،	-12.0489
▁موسیقی،	-12.0489
▁موشه	-12.0489
▁موضعگیری	-12.0489
▁موعود	-12.0489
▁مولف	-12.0489
▁مونالیزا	-12.0489
▁مچ	-12.0489
▁مکانیکی	-12.0489
▁مکید	-12.0489
▁مگو	-12.0489
▁میان،	-12.0489
▁میانجیگری	-12.0489
▁میخانه	-12.0489
▁میدهد	-12.0489
▁میرزایی	-12.0489
▁میزبانش	-12.0489
▁میزی	-12.0489
▁میشل	-12.0489
▁میشود	-12.0489
▁میلادی)	-12.0489
▁میلک	-12.0489
▁میلگرام	-12.0489
▁میناری	-12.0489
▁مینسک	-12.0489
▁میچ	-12.0489
▁میکلسن	-12.0489
▁ناآشنایی	-12.0489
▁نائومی	-12.0489
▁نابینا	-12.0489
▁ناتنی	-12.0489
▁ناجا	-12.0489
▁ناخن	-12.0489
▁ناخودآگاه	-12.0489
▁نادالمنبع	-12.0489
▁نادرشاه	-12.0489
▁نارضایی	-12.0489
▁نارنجک	-12.0489
▁نازک	-12.0489
▁ناشران	-12.0489
▁ناشیانه	-12.0489
▁نافرجام	-12.0489
▁ناقضین	-12.0489
▁ناله	-12.0489
▁نامت	-12.0489
▁نامداران	-12.0489
▁نامساعد	-12.0489
▁نامند	-12.0489
▁ناهار	-12.0489
▁ناپذیرها	-12.0489
▁ناپلئون	-12.0489
▁ناگفته	-12.0489
▁نایابی	-12.0489
▁نایمخن	-12.0489
▁نایک	-12.0489
▁نبردهای	-12.0489
▁نبستند	-12.0489
▁نبود.کاهش	-12.0489
▁نبودند	-12.0489
▁نتانیاهو،	-12.0489
▁نتوانند	-12.0489
▁نثر	-12.0489
▁نجوم	-12.0489
▁نخست،	-12.0489
▁نخل	-12.0489
▁نخواستند	-12.0489
▁نخوانده	-12.0489
▁ند	-12.0489
▁ندادند.	-12.0489
▁ندارد.در	-12.0489
▁ندارد.منبع	-12.0489
▁ندارد؛	-12.0489
▁نداردتفاهمنامه	-12.0489
▁نداردمنبع	-12.0489
▁ندارند.براساس	-12.0489
▁نداشت.منبع	-12.0489
▁نداشتم.	-12.0489
▁نداشتند.	-12.0489
▁نداشتهآینده	-12.0489
▁ندامت	-12.0489
▁نداند	-12.0489
▁نذری	-12.0489
▁نرسید	-12.0489
▁نرسید.	-12.0489
▁نرفتن	-12.0489
▁نرود	-12.0489
▁نزاع	-12.0489
▁نزدک	-12.0489
▁نسب	-12.0489
▁نشدهمنبع	-12.0489
▁نشستند	-12.0489
▁نشینان	-12.0489
▁نظران	-12.0489
▁نظری	-12.0489
▁نعوظ	-12.0489
▁نفت،	-12.0489
▁نفت؛	-12.0489
▁نفرشان	-12.0489
▁نفس.	-12.0489
▁نفسم	-12.0489
▁نقاشان	-12.0489
▁نقشش	-12.0489
▁نمازگزاران	-12.0489
▁نماید	-12.0489
▁نمایشخانه	-12.0489
▁نمودار	-12.0489
▁ننگین	-12.0489
▁نهادهایی	-12.0489
▁نوابی	-12.0489
▁نوازندگانی	-12.0489
▁نوامبر)	-12.0489
▁نوامبر،	-12.0489
▁نوای	-12.0489
▁نوترینو	-12.0489
▁نورزی	-12.0489
▁نورهای	-12.0489
▁نوری،	-12.0489
▁نوشتارها	-12.0489
▁نوپای	-12.0489
▁نویدکیا	-12.0489
▁نویسندگان،	-12.0489
▁نژاد:	-12.0489
▁نکاتی	-12.0489
▁نکرد،	-12.0489
▁نکردند.	-12.0489
▁نکردو	-12.0489
▁نکنند.ورود	-12.0489
▁نکوست	-12.0489
▁نکونام	-12.0489
▁نکوهش	-12.0489
▁نگارشی	-12.0489
▁نگاره	-12.0489
▁نگذشته.	-12.0489
▁نگرانش	-12.0489
▁نگهبان:	-12.0489
▁نگهبانان	-12.0489
▁نگهبانی	-12.0489
▁نگیرد	-12.0489
▁نیابتی	-12.0489
▁نیاکان	-12.0489
▁نیروانا	-12.0489
▁نیروها	-12.0489
▁نیست.باران	-12.0489
▁نیست.منبع	-12.0489
▁نیستم	-12.0489
▁نیفتاده	-12.0489
▁نیفتد	-12.0489
▁نیلیبی	-12.0489
▁نیمروز،	-12.0489
▁نیو	-12.0489
▁نیویورکهادی	-12.0489
▁نیکل	-12.0489
▁نیکلا	-12.0489
▁نیکی	-12.0489
▁ها'	-12.0489
▁هاآرتص	-12.0489
▁هادرونی	-12.0489
▁هارون	-12.0489
▁هاشم	-12.0489
▁هافکین	-12.0489
▁هالیفیلد	-12.0489
▁هاکی	-12.0489
▁هایتان	-12.0489
▁هایده	-12.0489
▁هایم	-12.0489
▁هایمان	-12.0489
▁هدفگذاری	-12.0489
▁هربرت	-12.0489
▁هرتیه	-12.0489
▁هرل	-12.0489
▁هرگاه	-12.0489
▁هزاردستان	-12.0489
▁هزارم	-12.0489
▁هزارها	-12.0489
▁هست؟منبع	-12.0489
▁هستند.با	-12.0489
▁هشدارمعاون	-12.0489
▁هشدارها	-12.0489
▁هلن	-12.0489
▁همت	-12.0489
▁همتایان	-12.0489
▁همراهش	-12.0489
▁همسران	-12.0489
▁همکارش	-12.0489
▁همکلاسی	-12.0489
▁همیشه.	-12.0489
▁هنرجویان	-12.0489
▁هنرستان	-12.0489
▁هنرش	-12.0489
▁هنرنمایی	-12.0489
▁هنگامه	-12.0489
▁هوارد	-12.0489
▁هود	-12.0489
▁هوریس	-12.0489
▁هوشی	-12.0489
▁هول	-12.0489
▁هولناک	-12.0489
▁هوک	-12.0489
▁هگزافلوراید	-12.0489
▁هیأتی	-12.0489
▁هیاهوی	-12.0489
▁هیتلر	-12.0489
▁هیج	-12.0489
▁هیلتون	-12.0489
▁هیولا	-12.0489
▁هیولایی	-12.0489
▁هیومن	-12.0489
▁وا	-12.0489
▁واحد،	-12.0489
▁واخان	-12.0489
▁وادی	-12.0489
▁واران	-12.0489
▁وارونه	-12.0489
▁وازرت	-12.0489
▁واسط	-12.0489
▁والر	-12.0489
▁وانمود	-12.0489
▁وانگ	-12.0489
▁وبلاگ	-12.0489
▁وجاهت	-12.0489
▁وجدان	-12.0489
▁ورا	-12.0489
▁وردی	-12.0489
▁ورشکسته	-12.0489
▁ورنر	-12.0489
▁وری	-12.0489
▁وزنه	-12.0489
▁وسایط	-12.0489
▁وسایلی	-12.0489
▁وستکات	-12.0489
▁وصدا	-12.0489
▁وضعیتش	-12.0489
▁وظایفش	-12.0489
▁وقتش	-12.0489
▁ول	-12.0489
▁ولاسکز	-12.0489
▁ولزی	-12.0489
▁وندی	-12.0489
▁ونزوئلاستمنبع	-12.0489
▁ونچورا	-12.0489
▁ونیم	-12.0489
▁وهشتمین	-12.0489
▁وهله	-12.0489
▁وهوایی	-12.0489
▁ووتر	-12.0489
▁وودلند	-12.0489
▁وکلا	-12.0489
▁وگوهایی	-12.0489
▁وی'	-12.0489
▁ویاگرا	-12.0489
▁ویدئوهای	-12.0489
▁ویرانگر	-12.0489
▁ویروسیم	-12.0489
▁ویزا	-12.0489
▁ویزر	-12.0489
▁وین،	-12.0489
▁وینگر	-12.0489
▁ویچنزا	-12.0489
▁ویگن	-12.0489
▁ِ	-12.0489
▁پاتر.در	-12.0489
▁پاراگوئهرونالدینیو،	-12.0489
▁پارکور	-12.0489
▁پاریسمنبع	-12.0489
▁پانوراما	-12.0489
▁پاکستانمنبع	-12.0489
▁پایتخت،	-12.0489
▁پاین	-12.0489
▁پتانسیل	-12.0489
▁پترزبورگ	-12.0489
▁پتروسورها	-12.0489
▁پترولیم	-12.0489
▁پخته	-12.0489
▁پدرو	-12.0489
▁پذیرترین	-12.0489
▁پذیرد	-12.0489
▁پذیرفتند.	-12.0489
▁پرآب	-12.0489
▁پرافتخار	-12.0489
▁پربار	-12.0489
▁پربحث	-12.0489
▁پرتماشاگرترین	-12.0489
▁پرتنش	-12.0489
▁پرتوی	-12.0489
▁پرتگاه	-12.0489
▁پرحادثه	-12.0489
▁پرداخت،	-12.0489
▁پرداختن	-12.0489
▁پردازند	-12.0489
▁پردازند.	-12.0489
▁پرسد	-12.0489
▁پرسه	-12.0489
▁پرسورینس	-12.0489
▁پرسپولیس:	-12.0489
▁پرسپولیسمنبع	-12.0489
▁پرشدن	-12.0489
▁پرشوری	-12.0489
▁پرطرفدارترین	-12.0489
▁پرمخاطب	-12.0489
▁پرنوسان	-12.0489
▁پروازانه	-12.0489
▁پروردگار	-12.0489
▁پروزاهای	-12.0489
▁پروین	-12.0489
▁پرکار	-12.0489
▁پرید	-12.0489
▁پریده	-12.0489
▁پشتکاری	-12.0489
▁پشتی	-12.0489
▁پلامر،	-12.0489
▁پلتفرم	-12.0489
▁پناهجویانی	-12.0489
▁پناهجویی	-12.0489
▁پناهندگان	-12.0489
▁پناهگاه	-12.0489
▁پنجگانه	-12.0489
▁پنداشته	-12.0489
▁پهباد	-12.0489
▁پهلوان	-12.0489
▁پهلوی،	-12.0489
▁پهنای	-12.0489
▁پهپادی	-12.0489
▁پوتین	-12.0489
▁پود	-12.0489
▁پورناظری	-12.0489
▁پوزش	-12.0489
▁پوسیدونیا	-12.0489
▁پوشانند	-12.0489
[...]
