{
  "src_word2id": {
    "<pad>": 0,
    "<s>": 1,
    "</s>": 2,
    "<unk>": 3,
    "ی": 4,
    ".": 5,
    "ه": 6,
    "▁است": 7,
    "▁می": 8,
    "▁": 9,
    "▁های": 10,
    "▁ایران": 11,
    "▁شده": 12,
    "ان": 13,
    "،": 14,
    "▁سال": 15,
    "▁بود": 16,
    "▁یک": 17,
    "▁ها": 18,
    "ش": 19,
    "▁شد": 20,
    "م": 21,
    "▁تصویر": 22,
    "▁ای": 23,
    "▁کرده": 24,
    "ت": 25,
    "▁کرد": 26,
    "منبع": 27,
    "▁بر": 28,
    "▁شود": 29,
    "▁گفته": 30,
    "▁دو": 31,
    "▁خود": 32,
    "▁کند": 33,
    "؛": 34,
    "ن": 35,
    "▁اند": 36,
    "ین": 37,
    "▁کرونا": 38,
    "▁در": 39,
    "ا": 40,
    "▁ماه": 41,
    "▁کشور": 42,
    "▁پیش": 43,
    "▁آمریکا": 44,
    "ند": 45,
    "د": 46,
    "▁روز": 47,
    "▁گزارش": 48,
    "▁م": 49,
    "های": 50,
    "▁بی": 51,
    "▁ا": 52,
    "س": 53,
    "و": 54,
    "ب": 55,
    "▁و": 56,
    "ل": 57,
    "▁کار": 58,
    "ات": 59,
    "▁دارد": 60,
    "▁فوتبال": 61,
    "ز": 62,
    "ر": 63,
    "▁گفت": 64,
    "▁دهد": 65,
    "▁به": 66,
    "▁تیم": 67,
    "▁کنند": 68,
    "▁اعلام": 69,
    "▁بازی": 70,
    "▁قرار": 71,
    "▁دیگر": 72,
    "▁شرکت": 73,
    "▁با": 74,
    "▁داده": 75,
    "▁دولت": 76,
    "▁هزار": 77,
    "▁دست": 78,
    "▁یا": 79,
    "▁رئیس": 80,
    "در": 81,
    "▁خواهد": 82,
    "▁جهان": 83,
    "▁بین": 84,
    "▁بار": 85,
    "▁سه": 86,
    "▁هر": 87,
    "▁گذشته": 88,
    "▁آقای": 89,
    "ک": 90,
    "▁پس": 91,
    "▁گوید": 92,
    "▁ف": 93,
    "ار": 94,
    "▁درصد": 95,
    "ف": 96,
    "▁آنها": 97,
    "▁درباره": 98,
    "این": 99,
    "▁میلیون": 100,
    "▁تهران": 101,
    "▁نفر": 102,
    "▁دلیل": 103,
    "▁داد": 104,
    "▁چند": 105,
    "▁ب": 106,
    "▁افزایش": 107,
    "ها": 108,
    "▁'": 109,
    "ور": 110,
    "▁لیگ": 111,
    "▁افغانستان": 112,
    "'": 113,
    "▁از": 114,
    "▁بعد": 115,
    "▁هفته": 116,
    "▁نام": 117,
    "ری": 118,
    "▁ت": 119,
    "▁بازار": 120,
    "▁جدید": 121,
    "▁سر": 122,
    "▁ملی": 123,
    "▁حال": 124,
    ":": 125,
    "▁دلار": 126,
    "▁بوده": 127,
    "▁خبر": 128,
    "▁قیمت": 129,
    "▁ن": 130,
    "▁سازمان": 131,
    "▁را": 132,
    "▁نظر": 133,
    "▁ویروس": 134,
    "▁جمهوری": 135,
    "▁همه": 136,
    "▁فیلم": 137,
    "▁نمی": 138,
    "▁باید": 139,
    "ق": 140,
    "▁نفت": 141,
    "▁برگزار": 142,
    "▁جهانی": 143,
    "▁یکی": 144,
    "▁تولید": 145,
    "▁علی": 146,
    "▁ترین": 147,
    "▁گرفته": 148,
    "▁بیش": 149,
    "▁هستند": 150,
    "▁مورد": 151,
    "▁مجلس": 152,
    "▁امروز": 153,
    "▁داشت": 154,
    "▁نیست": 155,
    "▁روی": 156,
    "▁عنوان": 157,
    "▁شدن": 158,
    "▁شب": 159,
    "▁کاهش": 160,
    "▁سی": 161,
    "▁تر": 162,
    "▁بیشتر": 163,
    "▁چین": 164,
    "▁وزیر": 165,
    "▁بریتانیا": 166,
    "▁اخیر": 167,
    "ع": 168,
    "▁آغاز": 169,
    "▁کردند": 170,
    "▁وزارت": 171,
    "▁اروپا": 172,
    "یت": 173,
    "▁بودند": 174,
    "▁باز": 175,
    "▁آن": 176,
    "▁راه": 177,
    "▁بزرگ": 178,
    "به": 179,
    "▁حدود": 180,
    "ست": 181,
    "▁بانک": 182,
    "▁نیز": 183,
    "▁اش": 184,
    "او": 185,
    "▁نشان": 186,
    "▁مقابل": 187,
    "ترین": 188,
    "▁باشگاه": 189,
    "▁تحریم": 190,
    "▁اقتصادی": 191,
    "له": 192,
    "▁برنامه": 193,
    "▁داشته": 194,
    "▁همچنین": 195,
    "▁باشد": 196,
    "▁اساس": 197,
    "▁حضور": 198,
    "▁پایان": 199,
    "که": 200,
    "▁صورت": 201,
    "▁شهر": 202,
    "▁زمان": 203,
    "▁انجام": 204,
    "تر": 205,
    "▁اولین": 206,
    "▁توافق": 207,
    "▁منتشر": 208,
    "▁بخش": 209,
    "▁اول": 210,
    "▁شیوع": 211,
    "▁گل": 212,
    "▁ش": 213,
    "▁واکسن": 214,
    "▁کم": 215,
    "▁دی": 216,
    "▁شوند": 217,
    "▁ارز": 218,
    "با": 219,
    "ح": 220,
    "ون": 221,
    "▁میلیارد": 222,
    "ید": 223,
    "▁مردم": 224,
    "گی": 225,
    "دامه": 226,
    "▁جمله": 227,
    "▁استفاده": 228,
    "ج": 229,
    "انه": 230,
    "▁وجود": 231,
    "▁میان": 232,
    "آقای": 233,
    "▁شورا": 234,
    "▁رسید": 235,
    "گان": 236,
    "▁تومان": 237,
    "▁همین": 238,
    "▁کل": 239,
    "▁دارند": 240,
    "▁مسابقه": 241,
    "؟": 242,
    "▁خواست": 243,
    "▁حقوق": 244,
    "گ": 245,
    "▁فصل": 246,
    "▁المللی": 247,
    "▁گروه": 248,
    "بر": 249,
    "▁چهار": 250,
    "▁زندگی": 251,
    "▁گرفت": 252,
    "▁ایرانی": 253,
    "ال": 254,
    "▁پر": 255,
    "یم": 256,
    "▁مسابقات": 257,
    "▁س": 258,
    "▁پی": 259,
    "ول": 260,
    "▁تمام": 261,
    "▁مقام": 262,
    "▁آینده": 263,
    "▁شدند": 264,
    "شان": 265,
    "▁تنها": 266,
    "▁پ": 267,
    "▁اقتصاد": 268,
    "▁نرخ": 269,
    "نه": 270,
    "▁اسلامی": 271,
    "▁ر": 272,
    "از": 273,
    "▁غیر": 274,
    "▁وضعیت": 275,
    "▁محمد": 276,
    "▁گیری": 277,
    "۸": 278,
    "▁خانه": 279,
    "▁ماشین": 280,
    "▁دوران": 281,
    "▁نزدیک": 282,
    "▁افراد": 283,
    "خ": 284,
    "▁انتخابات": 285,
    "▁امسال": 286,
    "▁وقت": 287,
    "▁فروش": 288,
    "▁برتر": 289,
    "بدون": 290,
    "▁توان": 291,
    "عث": 292,
    "▁قبل": 293,
    "▁هیچ": 294,
    "▁زنان": 295,
    "▁کردن": 296,
    "▁خارجه": 297,
    "▁بیماری": 298,
    "گر": 299,
    "▁شرایط": 300,
    "▁کمی": 301,
    "▁فعالیت": 302,
    "▁کر": 303,
    "▁حالی": 304,
    "یک": 305,
    "ای": 306,
    "نی": 307,
    "▁آ": 308,
    "▁روحانی": 309,
    "▁زیاد": 310,
    "ام": 311,
    "▁اجتماعی": 312,
    "▁بسیاری": 313,
    "▁تلاش": 314,
    "▁وارد": 315,
    "▁جام": 316,
    "▁تواند": 317,
    "▁مهم": 318,
    "▁مدت": 319,
    "▁طور": 320,
    "▁جان": 321,
    "▁گویند": 322,
    "▁رسان": 323,
    "▁زن": 324,
    "ایی": 325,
    "▁منبع": 326,
    "▁تصمیم": 327,
    "▁طرح": 328,
    "▁برای": 329,
    "▁تازه": 330,
    "▁۱۹": 331,
    "▁بسیار": 332,
    "▁نخست": 333,
    "▁کمک": 334,
    "▁ولی": 335,
    "▁تغییر": 336,
    "▁حالا": 337,
    "▁نه": 338,
    "▁خودرو": 339,
    "▁کشورهای": 340,
    "▁مختلف": 341,
    "▁خانواده": 342,
    "▁سوی": 343,
    "▁هایی": 344,
    "▁هم": 345,
    "نوز": 346,
    "▁ساله": 347,
    "▁اطلاعات": 348,
    "نامه": 349,
    "▁مرکزی": 350,
    "▁پنج": 351,
    "قط": 352,
    "▁بورس": 353,
    "▁ه": 354,
    "▁تاریخ": 355,
    "▁زمین": 356,
    "▁همراه": 357,
    "نگ": 358,
    "▁حت": 359,
    "▁منطقه": 360,
    "▁پول": 361,
    "▁بالا": 362,
    "▁موسیقی": 363,
    "▁اثر": 364,
    "▁قهرمان": 365,
    "▁دوره": 366,
    "▁سرمایه": 367,
    "▁درگذشت": 368,
    "▁رسمی": 369,
    "▁سو": 370,
    "▁عکس": 371,
    "پ": 372,
    "▁دهه": 373,
    "▁شکست": 374,
    "▁مرکز": 375,
    "▁بعضی": 376,
    "▁پرسپولیس": 377,
    "▁صد": 378,
    "▁ریاست": 379,
    "▁نا": 380,
    "▁پیدا": 381,
    "روز": 382,
    "▁زیر": 383,
    "▁اشار": 384,
    "▁آخر": 385,
    "▁آمار": 386,
    "▁ده": 387,
    "▁۵": 388,
    "▁اعتراض": 389,
    "▁نوشته": 390,
    "▁سفر": 391,
    "▁۱۰": 392,
    "▁اصلی": 393,
    "▁نقش": 394,
    "▁این": 395,
    "▁۲۰": 396,
    "▁حمله": 397,
    "▁برجام": 398,
    "▁برخ": 399,
    "▁او": 400,
    "▁قهرمانی": 401,
    "▁که": 402,
    "▁مراسم": 403,
    "▁برابر": 404,
    "▁ع": 405,
    "▁رفت": 406,
    "▁اینک": 407,
    "▁بررسی": 408,
    "▁کنار": 409,
    "▁رقابت": 410,
    "▁دنیا": 411,
    "▁جمهور": 412,
    "▁شروع": 413,
    "▁میلادی": 414,
    "▁دوم": 415,
    "▁فدراسیون": 416,
    "▁آمریکایی": 417,
    "▁چ": 418,
    "۶": 419,
    "▁دانشگاه": 420,
    "ثبت": 421,
    "▁آزاد": 422,
    "بی": 423,
    "لی": 424,
    "▁رسیده": 425,
    "▁یافته": 426,
    "▁جو": 427,
    "▁هسته": 428,
    "▁ویژ": 429,
    "▁ساعت": 430,
    "▁دور": 431,
    "▁۴": 432,
    "▁کشتی": 433,
    "▁ام": 434,
    "را": 435,
    "▁حاضر": 436,
    "▁د": 437,
    "▁کمتر": 438,
    "۲": 439,
    "▁نتیج": 440,
    "▁سهام": 441,
    "▁آب": 442,
    "▁سیاسی": 443,
    "▁کتاب": 444,
    "▁پرداخت": 445,
    "▁طی": 446,
    "▁ج": 447,
    "▁مالی": 448,
    "▁نو": 449,
    "▁موضوع": 450,
    "▁خرید": 451,
    "اد": 452,
    "▁تو": 453,
    "▁توجه": 454,
    "▁الله": 455,
    "▁ح": 456,
    "▁ممکن": 457,
    "▁همکاری": 458,
    "▁ندارد": 459,
    "▁کنیم": 460,
    "▁سابق": 461,
    "▁رو": 462,
    "▁ال": 463,
    "▁نشده": 464,
    "ص": 465,
    "▁واکنش": 466,
    "▁گذاری": 467,
    "توسط": 468,
    "▁رد": 469,
    "▁سیاست": 470,
    "▁شش": 471,
    "▁دنبال": 472,
    "▁شنبه": 473,
    "▁بازیکن": 474,
    "اب": 475,
    "▁دریافت": 476,
    "▁دهند": 477,
    "▁استان": 478,
    "اکنون": 479,
    "▁هدف": 480,
    "▁نیم": 481,
    "▁عراق": 482,
    "▁حمایت": 483,
    "▁آژانس": 484,
    "▁خام": 485,
    "▁جایزه": 486,
    "▁عرض": 487,
    "دی": 488,
    "▁اج": 489,
    "▁رشد": 490,
    "▁صادرات": 491,
    "▁ترکیه": 492,
    "▁یافت": 493,
    "▁ترامپ": 494,
    "▁استقلال": 495,
    "▁بودجه": 496,
    "ده": 497,
    "▁۲۰۲۰": 498,
    "▁انتشار": 499,
    "▁همان": 500,
    "▁فرانسه": 501,
    "ازه": 502,
    "اس": 503,
    "▁آلمان": 504,
    "یق": 505,
    "▁شمار": 506,
    "▁آمده": 507,
    "▁تعطیل": 508,
    "▁هشدار": 509,
    "▁متهم": 510,
    "▁کس": 511,
    "▁۲": 512,
    "▁زبان": 513,
    "▁سازی": 514,
    "▁خبرگزا": 515,
    "▁رسد": 516,
    "۰": 517,
    "مان": 518,
    "۴": 519,
    "▁انرژی": 520,
    "مین": 521,
    "▁نیمه": 522,
    "▁خط": 523,
    "▁پیروز": 524,
    "▁نامه": 525,
    "رو": 526,
    "▁دیدار": 527,
    "▁عربستان": 528,
    "گیری": 529,
    "گاه": 530,
    "▁چنین": 531,
    "▁بازداشت": 532,
    "▁مذاکرات": 533,
    "ما": 534,
    "▁بهداشت": 535,
    "▁طر": 536,
    "▁سوم": 537,
    ")": 538,
    "▁نیاز": 539,
    "سیون": 540,
    "▁مدیر": 541,
    "رونده": 542,
    "▁بشر": 543,
    "▁اجرای": 544,
    "▁آی": 545,
    "▁اتحاد": 546,
    "▁لیورپول": 547,
    "▁روند": 548,
    "▁تبدیل": 549,
    "▁تایید": 550,
    "▁مرگ": 551,
    "▁محل": 552,
    "▁تلویزیون": 553,
    "کس": 554,
    "▁حسن": 555,
    "▁هفت": 556,
    "▁میزان": 557,
    "▁گو": 558,
    "▁مرد": 559,
    "▁خارجی": 560,
    "▁خیل": 561,
    "▁ورزش": 562,
    "▁خارج": 563,
    "▁۲۰۱": 564,
    "▁قهرمانان": 565,
    "▁مشخص": 566,
    "لا": 567,
    "دار": 568,
    "ض": 569,
    "▁قابل": 570,
    "▁آزمایش": 571,
    "▁(": 572,
    "▁خطر": 573,
    "▁دیده": 574,
    "▁کشته": 575,
    "ِ": 576,
    "▁ایجاد": 577,
    "▁اقدام": 578,
    "▁بازگشت": 579,
    "ط": 580,
    "▁بازیکنان": 581,
    "▁قانون": 582,
    "▁خواهند": 583,
    "▁دادگاه": 584,
    "۱": 585,
    "▁مجموعه": 586,
    "▁مربوط": 587,
    "▁نهایی": 588,
    "▁اسرائیل": 589,
    "▁جریان": 590,
    "▁رود": 591,
    "▁جنوبی": 592,
    "▁زندان": 593,
    "▁۳": 594,
    "سی": 595,
    "▁لغ": 596,
    "▁سن": 597,
    "▁مبارز": 598,
    "▁نمایش": 599,
    "▁عضو": 600,
    "▁بست": 601,
    "وز": 602,
    "▁حکم": 603,
    "▁سرمربی": 604,
    "▁رکورد": 605,
    "▁برد": 606,
    "▁مدل": 607,
    "▁محدودیت": 608,
    "غ": 609,
    "▁جنگ": 610,
    "▁امنیت": 611,
    "▁فاصله": 612,
    "▁روسیه": 613,
    "▁درآمد": 614,
    "▁انتخاب": 615,
    "▁تن": 616,
    "▁۶": 617,
    "▁ابتلا": 618,
    "▁زده": 619,
    "▁قرارداد": 620,
    "▁آثار": 621,
    "▁حکومت": 622,
    "چه": 623,
    "▁جلو": 624,
    "نا": 625,
    "▁زمانی": 626,
    "▁صنعت": 627,
    "▁چرا": 628,
    "▁رهبر": 629,
    "▁دوبار": 630,
    "▁انگلیس": 631,
    "▁سخت": 632,
    "▁ترک": 633,
    "▁تع": 634,
    "▁ارتباط": 635,
    "▁داستان": 636,
    "۵": 637,
    "▁رای": 638,
    "▁ارزش": 639,
    "▁دقیق": 640,
    "▁خاطر": 641,
    "▁لو": 642,
    "▁اتمی": 643,
    "▁بیمارستان": 644,
    "▁جا": 645,
    "▁نقل": 646,
    "یر": 647,
    "▁ساخت": 648,
    "▁نمایند": 649,
    "وس": 650,
    "▁نگاه": 651,
    "▁دولتی": 652,
    "▁تعداد": 653,
    "▁شناخت": 654,
    "▁زمینه": 655,
    "▁برق": 656,
    "گو": 657,
    "▁پلیس": 658,
    "▁قو": 659,
    "▁تاثیر": 660,
    "▁کابل": 661,
    "▁بد": 662,
    "▁اعضای": 663,
    "▁عمومی": 664,
    "▁کننده": 665,
    "▁امتیاز": 666,
    "▁گاز": 667,
    "▁معاون": 668,
    "▁نمایندگان": 669,
    "▁سخنگوی": 670,
    "چ": 671,
    "▁ساخته": 672,
    "▁۳۰": 673,
    "کسب": 674,
    "▁نسبت": 675,
    "▁ق": 676,
    "▁۸": 677,
    "ود": 678,
    "▁لندن": 679,
    "▁منابع": 680,
    "▁طرف": 681,
    "▁شکل": 682,
    "▁انسان": 683,
    "▁بیانیه": 684,
    "آ": 685,
    "▁امنیتی": 686,
    "▁۷": 687,
    "دو": 688,
    "۹": 689,
    "▁آسیا": 690,
    "▁قطع": 691,
    "▁همزمان": 692,
    "▁کامل": 693,
    "▁کووید": 694,
    "▁سپاه": 695,
    "▁طول": 696,
    "▁۲۰۰": 697,
    "▁ان": 698,
    "▁جاری": 699,
    "▁دانست": 700,
    "▁اف": 701,
    "▁۲۵": 702,
    "وم": 703,
    "اما": 704,
    "▁سطح": 705,
    "▁پخ": 706,
    "▁هند": 707,
    "▁فکر": 708,
    "▁بالای": 709,
    "▁جلس": 710,
    "▁پزشکی": 711,
    "▁ستار": 712,
    "▁کودکان": 713,
    "▁انقلاب": 714,
    "کو": 715,
    "▁قرنطینه": 716,
    "▁نظامی": 717,
    "▁انتقاد": 718,
    "▁مت": 719,
    "▁هوای": 720,
    "▁فشار": 721,
    "▁روزهای": 722,
    "وی": 723,
    "▁نشست": 724,
    "▁گ": 725,
    "▁نیروهای": 726,
    "▁۱۲": 727,
    "تا": 728,
    "▁نوشت": 729,
    "▁سالگی": 730,
    "▁توانست": 731,
    "▁المپیک": 732,
    "▁عالی": 733,
    "▁افت": 734,
    "▁بخشی": 735,
    "▁تحت": 736,
    "▁پا": 737,
    "ره": 738,
    "▁تنیس": 739,
    "▁صندوق": 740,
    "▁مطرح": 741,
    "▁چهر": 742,
    "▁کو": 743,
    "▁من": 744,
    "▁داخل": 745,
    "ته": 746,
    "▁کوچک": 747,
    "▁معرف": 748,
    "▁انتظار": 749,
    "▁نامزد": 750,
    "فر": 751,
    "▁سابقه": 752,
    "▁سینما": 753,
    "لو": 754,
    "▁گسترده": 755,
    "▁متحده": 756,
    "▁تورم": 757,
    "سا": 758,
    "▁شدت": 759,
    "▁مصاحبه": 760,
    "▁جدی": 761,
    "▁چشم": 762,
    "▁هز": 763,
    "-": 764,
    "▁بحران": 765,
    "▁حساب": 766,
    "▁مرح": 767,
    "▁بهتر": 768,
    "▁نکرده": 769,
    "▁برنده": 770,
    "▁انتقال": 771,
    "▁ظریف": 772,
    "▁خوب": 773,
    "۷": 774,
    "▁دیگری": 775,
    "▁بایدن": 776,
    "▁نهاد": 777,
    "یا": 778,
    "▁نگرانی": 779,
    "ینه": 780,
    "▁شدید": 781,
    "▁رفته": 782,
    "▁آیا": 783,
    "▁بلند": 784,
    "الات": 785,
    "▁کسان": 786,
    "▁کشید": 787,
    "▁فعال": 788,
    "▁تصوی": 789,
    "▁گرفتن": 790,
    "▁متوقف": 791,
    "▁۲۰۱۹": 792,
    "وق": 793,
    "ستاد": 794,
    "▁اتفاق": 795,
    "▁فن": 796,
    "▁امور": 797,
    "▁فرهنگ": 798,
    "▁خانم": 799,
    "▁گذاشته": 800,
    "▁اتهام": 801,
    "▁اسفند": 802,
    "▁پاسخ": 803,
    "▁گیرد": 804,
    "▁دستور": 805,
    "کا": 806,
    "▁دستگاه": 807,
    "▁شان": 808,
    "▁ایتالیا": 809,
    "▁ارائه": 810,
    "▁حرکت": 811,
    "▁جامعه": 812,
    "▁موسس": 813,
    "▁پیشین": 814,
    "▁آنچ": 815,
    "▁وی": 816,
    "▁عد": 817,
    "▁قدرت": 818,
    "▁دونالد": 819,
    "▁مشکلات": 820,
    "▁نوع": 821,
    "▁آمد": 822,
    "سال": 823,
    "▁فارسی": 824,
    "▁موج": 825,
    "▁بشک": 826,
    "▁۱۵": 827,
    "▁دسترس": 828,
    "▁اجرا": 829,
    "▁چهارم": 830,
    "▁مرغ": 831,
    "▁طراح": 832,
    "▁اس": 833,
    "▁۹": 834,
    "▁بدن": 835,
    "▁فضای": 836,
    "▁فروردین": 837,
    "▁فینال": 838,
    "▁خودش": 839,
    "▁جای": 840,
    "دن": 841,
    "▁محکوم": 842,
    "▁باشند": 843,
    "▁۱۴۰۰": 844,
    "▁سایر": 845,
    "▁خ": 846,
    "▁ک": 847,
    "کل": 848,
    "▁روزنامه": 849,
    "▁همچن": 850,
    "▁محدود": 851,
    "▁پشت": 852,
    "▁تک": 853,
    "دا": 854,
    "▁داشتند": 855,
    "▁امضا": 856,
    "▁عمل": 857,
    "▁۱": 858,
    "▁الکتریکی": 859,
    "▁قرن": 860,
    "▁ملل": 861,
    "▁مانده": 862,
    "▁یع": 863,
    "▁فرهنگی": 864,
    "▁مشکل": 865,
    "▁جنوب": 866,
    "▁رقم": 867,
    "▁شما": 868,
    "▁جمعیت": 869,
    "▁نفتی": 870,
    "▁بینی": 871,
    "▁یو": 872,
    "▁دوشنبه": 873,
    "۰۰": 874,
    "▁آزادی": 875,
    "▁ورزشی": 876,
    "کی": 877,
    "▁احتمال": 878,
    "▁تشکیل": 879,
    "▁غنی": 880,
    "▁دار": 881,
    "▁مصوب": 882,
    "▁هنگام": 883,
    "▁ورود": 884,
    "▁دل": 885,
    "▁معاملات": 886,
    "▁مسیر": 887,
    "▁یاد": 888,
    "کر": 889,
    "▁دادن": 890,
    "▁اختیار": 891,
    "▁آسیب": 892,
    "▁محیط": 893,
    "▁نبود": 894,
    "▁۱۱": 895,
    "▁خروج": 896,
    "▁چگون": 897,
    "▁بالاتر": 898,
    "▁کی": 899,
    "▁آبان": 900,
    "▁نژاد": 901,
    "▁مسئولان": 902,
    "▁ورزشگاه": 903,
    "▁افتاد": 904,
    "▁کلی": 905,
    "ً": 906,
    "▁رشت": 907,
    "تو": 908,
    "▁دفاع": 909,
    "▁ممنوع": 910,
    "▁واحد": 911,
    "▁جز": 912,
    "▁باقی": 913,
    "▁ناشی": 914,
    "▁پای": 915,
    "ظ": 916,
    "▁جمعه": 917,
    "▁انفجار": 918,
    "▁شجریان": 919,
    "▁تجاری": 920,
    "▁سیاه": 921,
    "▁نخواه": 922,
    "▁اسکار": 923,
    "▁آوریل": 924,
    "▁۵۰": 925,
    "▁شامل": 926,
    "▁شهرهای": 927,
    "▁جوان": 928,
    "▁قرمز": 929,
    "▁بتوان": 930,
    "▁تجرب": 931,
    "▁بارسلونا": 932,
    "▁تاکید": 933,
    "▁کنید": 934,
    "▁آل": 935,
    "▁متر": 936,
    "▁کارگران": 937,
    "▁محلی": 938,
    "کار": 939,
    "▁صحبت": 940,
    "▁علت": 941,
    "▁طولانی": 942,
    "▁۱۸": 943,
    "▁لی": 944,
    "▁درمان": 945,
    "▁شاخص": 946,
    "▁اروپایی": 947,
    "رت": 948,
    "▁شکایت": 949,
    "▁سیستم": 950,
    "ویه": 951,
    "▁مربی": 952,
    "▁لای": 953,
    "▁هنر": 954,
    "▁امکان": 955,
    "▁ترکیب": 956,
    "▁احتمالا": 957,
    "جو": 958,
    "▁فر": 959,
    "▁قبلی": 960,
    "▁رنگ": 961,
    "▁متفاوت": 962,
    "▁نویسنده": 963,
    "اخر": 964,
    "▁کن": 965,
    "▁تاریخی": 966,
    "▁فرد": 967,
    "▁آتش": 968,
    "سازی": 969,
    "▁کنم": 970,
    "▁بودن": 971,
    "▁ترتیب": 972,
    "▁ضرب": 973,
    "▁نیروی": 974,
    "ث": 975,
    "فت": 976,
    "▁۲۲": 977,
    "▁مبتلا": 978,
    "حفظ": 979,
    "▁مرتبط": 980,
    "▁کارگردان": 981,
    "▁چپ": 982,
    "▁شهروندان": 983,
    "▁ژان": 984,
    "▁زد": 985,
    "▁تحقیق": 986,
    "▁نظام": 987,
    "▁روبرو": 988,
    "▁میزبان": 989,
    "▁قوانین": 990,
    "▁لازم": 991,
    "▁شاهد": 992,
    "▁دادند": 993,
    "▁خون": 994,
    "زی": 995,
    "▁هوا": 996,
    "▁۱۳": 997,
    "▁اولیه": 998,
    "▁واردات": 999,
    "حه": 1000,
    "▁حذف": 1001,
    "▁ونزوئلا": 1002,
    "▁آستان": 1003,
    "▁ماسک": 1004,
    "▁حد": 1005,
    "▁زیست": 1006,
    "▁مشترک": 1007,
    "▁کنترل": 1008,
    "▁پروژه": 1009,
    "▁درخواست": 1010,
    "▁تامین": 1011,
    "▁مواد": 1012,
    "▁بیرون": 1013,
    "۳": 1014,
    "▁عباس": 1015,
    "▁وین": 1016,
    "▁تحقیقات": 1017,
    "گرد": 1018,
    "یل": 1019,
    "▁پایین": 1020,
    "▁گذشت": 1021,
    "▁سقوط": 1022,
    "▁ابتدای": 1023,
    "▁مع": 1024,
    "▁سوخت": 1025,
    "▁داخلی": 1026,
    "▁مسی": 1027,
    "▁مارس": 1028,
    "▁بازیگر": 1029,
    "▁حل": 1030,
    "رفع": 1031,
    "▁سنت": 1032,
    "▁موارد": 1033,
    "▁طلا": 1034,
    "▁آورد": 1035,
    "▁خوانده": 1036,
    "▁توسعه": 1037,
    "▁باخت": 1038,
    "▁زود": 1039,
    "▁نقاشی": 1040,
    "▁مد": 1041,
    "▁فرم": 1042,
    "▁شماری": 1043,
    "▁کالا": 1044,
    "نده": 1045,
    "▁ما": 1046,
    "▁یکشنبه": 1047,
    "▁۱۶": 1048,
    "داد": 1049,
    "▁طبق": 1050,
    "▁مهر": 1051,
    "▁پرواز": 1052,
    "▁هرات": 1053,
    "▁تهدید": 1054,
    "▁فهرست": 1055,
    "▁قطر": 1056,
    "▁بگیرد": 1057,
    "▁مصرف": 1058,
    "▁نتایج": 1059,
    "▁۴۰": 1060,
    "دان": 1061,
    "▁مسئول": 1062,
    "▁پیام": 1063,
    "▁رییس": 1064,
    "▁سرعت": 1065,
    "▁سمت": 1066,
    "▁گفتگو": 1067,
    "من": 1068,
    "▁پور": 1069,
    "پس": 1070,
    "▁چهارشنبه": 1071,
    "▁گون": 1072,
    "▁مارادونا": 1073,
    "▁شاید": 1074,
    "▁چیز": 1075,
    "▁اخیرا": 1076,
    "▁آر": 1077,
    "▁همیشه": 1078,
    "سون": 1079,
    "▁نظیر": 1080,
    "▁کوتاه": 1081,
    "▁نگهبان": 1082,
    "▁روابط": 1083,
    "▁عامل": 1084,
    "کش": 1085,
    "▁هشت": 1086,
    "▁اختلاف": 1087,
    "نس": 1088,
    "▁سریال": 1089,
    "یده": 1090,
    "▁سراسر": 1091,
    "▁۱۴": 1092,
    "بار": 1093,
    "▁فوت": 1094,
    "▁شمال": 1095,
    "▁بندی": 1096,
    "▁زاده": 1097,
    "▁تابستان": 1098,
    "▁سلامت": 1099,
    "▁علاو": 1100,
    "▁هواداران": 1101,
    "▁صفر": 1102,
    "▁کارخان": 1103,
    "▁تجارت": 1104,
    "▁اتاق": 1105,
    "کن": 1106,
    "▁برده": 1107,
    "▁آماده": 1108,
    "مر": 1109,
    "▁پل": 1110,
    "▁۱۷": 1111,
    "▁محمود": 1112,
    "▁تقریبا": 1113,
    "▁دلایل": 1114,
    "▁بو": 1115,
    "▁ز": 1116,
    "جا": 1117,
    "▁فعالان": 1118,
    "▁صادر": 1119,
    "▁یورو": 1120,
    "▁سوار": 1121,
    "محمد": 1122,
    "▁تهی": 1123,
    "▁معروف": 1124,
    "▁۲۰۲۱": 1125,
    "▁ولایت": 1126,
    "▁پارسال": 1127,
    "▁انگیز": 1128,
    "است": 1129,
    "▁جشنواره": 1130,
    "▁مر": 1131,
    "▁پدر": 1132,
    "اک": 1133,
    "ذ": 1134,
    "▁مل": 1135,
    "▁حادثه": 1136,
    "▁مرز": 1137,
    "▁بارها": 1138,
    "▁قصد": 1139,
    "سر": 1140,
    "▁اقدامات": 1141,
    "▁تا": 1142,
    "▁رفتن": 1143,
    "▁سود": 1144,
    "▁هنری": 1145,
    "▁۶۰": 1146,
    "▁احمد": 1147,
    "براز": 1148,
    "▁بخوانید": 1149,
    "▁ندارند": 1150,
    "▁اوپک": 1151,
    "▁مغز": 1152,
    "ایران": 1153,
    "▁قانونی": 1154,
    "▁تاج": 1155,
    "▁دختر": 1156,
    "▁تاکنون": 1157,
    "▁ماند": 1158,
    "▁شناسا": 1159,
    "▁گذار": 1160,
    "▁جمع": 1161,
    "▁غرب": 1162,
    "▁رسیدن": 1163,
    "▁مشهور": 1164,
    "▁پیشنهاد": 1165,
    "▁اداره": 1166,
    "▁۹۸": 1167,
    "▁رمان": 1168,
    "▁واقع": 1169,
    "ژ": 1170,
    "▁راست": 1171,
    "نجر": 1172,
    "▁کشورها": 1173,
    "▁اعدام": 1174,
    "▁حق": 1175,
    "▁پذیر": 1176,
    "▁هواپیمایی": 1177,
    "▁مشابه": 1178,
    "علی": 1179,
    "رس": 1180,
    "▁صفح": 1181,
    "▁کیلومتر": 1182,
    "▁خصوصی": 1183,
    "▁نقطه": 1184,
    "▁سفید": 1185,
    "▁بنزین": 1186,
    "▁مک": 1187,
    "▁دید": 1188,
    "▁دارایی": 1189,
    "▁مجازی": 1190,
    "▁مج": 1191,
    "▁کنندگان": 1192,
    "▁مناطق": 1193,
    "▁تی": 1194,
    "نو": 1195,
    "▁مو": 1196,
    "▁مادر": 1197,
    "▁سیتی": 1198,
    "نمایی": 1199,
    "▁بن": 1200,
    "▁نشد": 1201,
    "▁خوزستان": 1202,
    "▁رعایت": 1203,
    "▁عملیات": 1204,
    "▁بیست": 1205,
    "▁منف": 1206,
    "▁کاملا": 1207,
    "▁صدای": 1208,
    "▁لا": 1209,
    "▁اندازه": 1210,
    "▁موفق": 1211,
    "▁پژوهش": 1212,
    "▁گروهی": 1213,
    "▁قلب": 1214,
    "▁سوریه": 1215,
    "▁چاپ": 1216,
    "▁برداشت": 1217,
    "اف": 1218,
    "▁سایت": 1219,
    "▁حرفه": 1220,
    "▁صدا": 1221,
    "▁اطلاع": 1222,
    "ئو": 1223,
    "▁گر": 1224,
    "▁نظارت": 1225,
    "▁فساد": 1226,
    "▁عدالت": 1227,
    "▁خواند": 1228,
    "▁احیا": 1229,
    "▁مالیات": 1230,
    "▁نهادهای": 1231,
    "▁زنده": 1232,
    "▁هایش": 1233,
    "▁بیکار": 1234,
    "▁ایمن": 1235,
    "اساس": 1236,
    "▁فرصت": 1237,
    "▁کاخ": 1238,
    "▁سریع": 1239,
    "▁۲۴": 1240,
    "▁پاریس": 1241,
    "▁برسد": 1242,
    "▁توییتر": 1243,
    "▁جهش": 1244,
    "بو": 1245,
    "▁عمده": 1246,
    "▁محمو": 1247,
    "طور": 1248,
    "▁نگران": 1249,
    "▁سنگ": 1250,
    "لان": 1251,
    "▁رکود": 1252,
    "▁حوزه": 1253,
    "▁اینترنت": 1254,
    "▁کشف": 1255,
    "▁توصیف": 1256,
    "▁یونایتد": 1257,
    "هم": 1258,
    "▁رساند": 1259,
    "▁کنون": 1260,
    "▁پروازهای": 1261,
    "▁کودک": 1262,
    "▁بریتانیایی": 1263,
    "▁ریز": 1264,
    "▁جنسی": 1265,
    "▁اعتراضات": 1266,
    "سل": 1267,
    "▁جدول": 1268,
    "▁بایرن": 1269,
    "▁مجوز": 1270,
    "▁نسل": 1271,
    "▁بال": 1272,
    "▁خواهان": 1273,
    "▁مالک": 1274,
    "ستان": 1275,
    "▁مواجه": 1276,
    "▁حزب": 1277,
    "▁علمی": 1278,
    "▁آید": 1279,
    "یست": 1280,
    "▁مذاکر": 1281,
    "رد": 1282,
    "▁افغان": 1283,
    "▁اضاف": 1284,
    "▁رابطه": 1285,
    "▁عملکرد": 1286,
    "▁تجمع": 1287,
    "▁گذاشت": 1288,
    "▁ملت": 1289,
    "▁شا": 1290,
    "▁استرالیا": 1291,
    "اق": 1292,
    "▁تصاویر": 1293,
    "▁توپ": 1294,
    "▁دریا": 1295,
    "▁۵۰۰": 1296,
    "▁عبور": 1297,
    "▁خودروساز": 1298,
    "▁مهدی": 1299,
    "▁کارگر": 1300,
    "▁نویس": 1301,
    "▁غ": 1302,
    "▁چیزی": 1303,
    "▁سعید": 1304,
    "▁۹۰": 1305,
    "▁خالی": 1306,
    "یو": 1307,
    "▁روش": 1308,
    "▁زا": 1309,
    "▁موافقت": 1310,
    "▁فدرر": 1311,
    "▁سنگین": 1312,
    "▁بزرگترین": 1313,
    "وت": 1314,
    "▁تغییرات": 1315,
    "▁مجموع": 1316,
    "▁دومین": 1317,
    "خانه": 1318,
    "▁هی": 1319,
    "▁میدان": 1320,
    "▁دهم": 1321,
    "▁پایتخت": 1322,
    "فورد": 1323,
    "عده": 1324,
    "▁عق": 1325,
    "▁فضایی": 1326,
    "▁دکتر": 1327,
    "▁شر": 1328,
    "پی": 1329,
    "▁مجدد": 1330,
    "▁صعود": 1331,
    "▁اوت": 1332,
    "چی": 1333,
    "وا": 1334,
    "▁ص": 1335,
    "▁رخ": 1336,
    "▁سکه": 1337,
    "▁رفتار": 1338,
    "▁ایالت": 1339,
    "▁روشن": 1340,
    "▁ساز": 1341,
    "▁پنجم": 1342,
    "▁گاه": 1343,
    "▁ژوئن": 1344,
    "▁مشغول": 1345,
    "▁سرطان": 1346,
    "▁نفتکش": 1347,
    "ران": 1348,
    "▁حب": 1349,
    "▁درست": 1350,
    "▁امیدوار": 1351,
    "▁برخورد": 1352,
    "▁تاجیکستان": 1353,
    "▁مقایس": 1354,
    "▁خواننده": 1355,
    "▁مقررات": 1356,
    "▁ل": 1357,
    "▁مرداد": 1358,
    "▁رانند": 1359,
    "▁موفقیت": 1360,
    "▁امام": 1361,
    "▁کدام": 1362,
    "▁خصوص": 1363,
    "▁حسین": 1364,
    "زن": 1365,
    "▁کا": 1366,
    "▁مردان": 1367,
    "داری": 1368,
    "▁بیشتری": 1369,
    "▁توضیح": 1370,
    "تن": 1371,
    "سو": 1372,
    "▁موجود": 1373,
    "▁بنا": 1374,
    "▁آرژانتین": 1375,
    "▁مجبور": 1376,
    "▁جشن": 1377,
    "▁فرمانده": 1378,
    "پا": 1379,
    "▁-": 1380,
    "▁مانع": 1381,
    "▁سخنران": 1382,
    "▁شاه": 1383,
    "▁چلسی": 1384,
    "▁جدا": 1385,
    "▁ناز": 1386,
    "▁مدیریت": 1387,
    "▁امید": 1388,
    "▁پرس": 1389,
    "▁مه": 1390,
    "▁مستقیم": 1391,
    "▁پرو": 1392,
    "▁۱۳۹": 1393,
    "▁افتاده": 1394,
    "▁بیت": 1395,
    "▁حرف": 1396,
    "فا": 1397,
    "▁بهار": 1398,
    "▁منتقل": 1399,
    "▁برزیل": 1400,
    "▁خاک": 1401,
    "▁اظهارات": 1402,
    "▁۲۸": 1403,
    "▁گران": 1404,
    "▁امیر": 1405,
    "صد": 1406,
    "وایل": 1407,
    "▁۱۰۰": 1408,
    "کم": 1409,
    "▁تشخیص": 1410,
    "▁ارتش": 1411,
    "یین": 1412,
    "▁سفیر": 1413,
    "▁ساختمان": 1414,
    "▁تاتنهام": 1415,
    "▁دفتر": 1416,
    "▁فرا": 1417,
    "▁روزانه": 1418,
    "▁بهمن": 1419,
    "▁پیشتر": 1420,
    "▁تقوی": 1421,
    "▁چا": 1422,
    "▁قضایی": 1423,
    "▁دبیر": 1424,
    "▁خوش": 1425,
    "▁واکسین": 1426,
    "▁ارشد": 1427,
    "▁مجله": 1428,
    "اوری": 1429,
    "▁مح": 1430,
    "▁نشری": 1431,
    "▁قطعی": 1432,
    "▁احمدی": 1433,
    "▁اسپانیا": 1434,
    "عودی": 1435,
    "▁نقاط": 1436,
    "▁بهبود": 1437,
    "یابی": 1438,
    "▁۲۳": 1439,
    "▁پوست": 1440,
    "وش": 1441,
    "▁خبرنگار": 1442,
    "▁سا": 1443,
    "▁دوچرخه": 1444,
    "▁انگلستان": 1445,
    "▁یابد": 1446,
    "▁گردد": 1447,
    "▁ط": 1448,
    "ممنوعیت": 1449,
    "▁بازارهای": 1450,
    "▁کاری": 1451,
    "▁دین": 1452,
    "▁خورد": 1453,
    "▁آورده": 1454,
    "▁واقعی": 1455,
    "▁حداقل": 1456,
    "▁دچار": 1457,
    "▁قدیمی": 1458,
    "▁نهایت": 1459,
    "▁نور": 1460,
    "▁بحث": 1461,
    "▁اع": 1462,
    "بیشتر": 1463,
    "▁هنرمند": 1464,
    "▁گرد": 1465,
    "▁سوئیس": 1466,
    "▁ظاهر": 1467,
    "شب": 1468,
    "▁ظرف": 1469,
    "▁سرشناس": 1470,
    "▁درواز": 1471,
    "▁سرخ": 1472,
    "▁وزن": 1473,
    "▁زدن": 1474,
    "کنندگان": 1475,
    "▁۲۱": 1476,
    "ازگی": 1477,
    "▁نداشت": 1478,
    "خت": 1479,
    "وید": 1480,
    "وال": 1481,
    "▁ابتدا": 1482,
    "▁تورنمنت": 1483,
    "▁گمرک": 1484,
    "▁دوربین": 1485,
    "▁محمدرضا": 1486,
    "▁نمو": 1487,
    "▁حریف": 1488,
    "▁آوری": 1489,
    "▁بستر": 1490,
    "تبه": 1491,
    "▁دوست": 1492,
    "مند": 1493,
    "▁زندانی": 1494,
    "▁نوری": 1495,
    "وف": 1496,
    "▁علاقه": 1497,
    "▁پاسداران": 1498,
    "▁مسکن": 1499,
    "▁فراهم": 1500,
    "▁محصولات": 1501,
    "▁اجرایی": 1502,
    "وار": 1503,
    "▁وگو": 1504,
    "بین": 1505,
    "▁دنیای": 1506,
    "▁اصلاح": 1507,
    "▁عرب": 1508,
    "▁صبح": 1509,
    "▁آموزش": 1510,
    "▁۱۳۹۹": 1511,
    "▁موتور": 1512,
    "▁چه": 1513,
    "▁دانند": 1514,
    "▁موشک": 1515,
    "▁درآمدها": 1516,
    "▁رضا": 1517,
    "جی": 1518,
    "▁عهد": 1519,
    "▁گرم": 1520,
    "▁شرق": 1521,
    "پر": 1522,
    "▁پیشرفت": 1523,
    "▁قتل": 1524,
    "▁وابست": 1525,
    "▁کانال": 1526,
    "▁شعر": 1527,
    "▁ژاپن": 1528,
    "▁جنجال": 1529,
    "▁اوراق": 1530,
    "ادی": 1531,
    "▁دانش": 1532,
    "▁موجب": 1533,
    "▁زنی": 1534,
    "▁انگلیسی": 1535,
    "نت": 1536,
    "▁وضع": 1537,
    "▁تزریق": 1538,
    "▁فرانسوی": 1539,
    "▁روایت": 1540,
    "▁بدهی": 1541,
    "▁دانشمندان": 1542,
    "▁کارشناسان": 1543,
    "▁تیر": 1544,
    "▁صف": 1545,
    "▁طبیع": 1546,
    "▁سینمایی": 1547,
    "▁زاد": 1548,
    "▁بهداشتی": 1549,
    "▁اقیانوس": 1550,
    "▁بحرین": 1551,
    "▁معتقد": 1552,
    "▁واشنگتن": 1553,
    "▁اشتباه": 1554,
    "▁هدایت": 1555,
    "▁معتبر": 1556,
    "▁منچستر": 1557,
    "▁فعلی": 1558,
    "غلب": 1559,
    "▁پوند": 1560,
    "▁مار": 1561,
    "▁کوین": 1562,
    "▁مثبت": 1563,
    "▁۷۰": 1564,
    "▁ژ": 1565,
    "▁بیمار": 1566,
    "▁کارهای": 1567,
    "نیوم": 1568,
    "▁شخصی": 1569,
    "▁اینستاگرام": 1570,
    "▁فیفا": 1571,
    "▁خرداد": 1572,
    "▁مادرید": 1573,
    "▁معادل": 1574,
    "ریمه": 1575,
    "▁شخصیت": 1576,
    "▁ترس": 1577,
    "اج": 1578,
    "▁کنونی": 1579,
    "▁خودروهای": 1580,
    "▁صاحب": 1581,
    "▁مهاجم": 1582,
    "▁آلبوم": 1583,
    "▁نشود": 1584,
    "▁رادیو": 1585,
    "▁حیات": 1586,
    "▁مبتلایان": 1587,
    "▁دیوان": 1588,
    "▁صدر": 1589,
    "▁فوری": 1590,
    "▁ضد": 1591,
    "▁فارس": 1592,
    "وان": 1593,
    "▁ست": 1594,
    "▁مقامات": 1595,
    "▁دختران": 1596,
    "▁قبلا": 1597,
    "▁ارسال": 1598,
    "▁خانگی": 1599,
    "▁معمولا": 1600,
    "▁مخالفت": 1601,
    "▁فنی": 1602,
    "▁استاد": 1603,
    "▁دستگیر": 1604,
    "هر": 1605,
    "▁اورا": 1606,
    "▁معامل": 1607,
    "▁فوریه": 1608,
    "ینگ": 1609,
    "▁طالبان": 1610,
    "▁برگشت": 1611,
    "▁نگار": 1612,
    "▁قدم": 1613,
    "▁موسو": 1614,
    "▁تخم": 1615,
    "مقام": 1616,
    "▁هاست": 1617,
    "رز": 1618,
    "▁۹۹": 1619,
    "▁پسر": 1620,
    "دل": 1621,
    "▁وال": 1622,
    "▁هستیم": 1623,
    "▁فرزند": 1624,
    "▁پارک": 1625,
    "▁۲۶": 1626,
    "رضا": 1627,
    "▁عین": 1628,
    "▁دریای": 1629,
    "▁خدمات": 1630,
    "▁نداشته": 1631,
    "▁متحد": 1632,
    "▁کاربران": 1633,
    "▁گرفتند": 1634,
    "▁تعدادی": 1635,
    "▁آلمانی": 1636,
    "▁صحنه": 1637,
    "▁حمل": 1638,
    "▁سند": 1639,
    "▁قضائیه": 1640,
    "▁العاده": 1641,
    "▁متعل": 1642,
    "▁استعفا": 1643,
    "▁موقعیت": 1644,
    "▁مستند": 1645,
    "▁پالایشگاه": 1646,
    "▁جودو": 1647,
    "▁گستر": 1648,
    "▁مهار": 1649,
    "نین": 1650,
    "▁مان": 1651,
    "چند": 1652,
    "اع": 1653,
    "بند": 1654,
    "▁افزوده": 1655,
    "▁خان": 1656,
    "▁چندان": 1657,
    "▁مطالع": 1658,
    "▁زاغری": 1659,
    "▁مدیرعامل": 1660,
    "نقض": 1661,
    "▁جمعی": 1662,
    "▁غذا": 1663,
    "▁داریم": 1664,
    "▁ایم": 1665,
    "▁دارو": 1666,
    "▁تقاضا": 1667,
    "▁بنابر": 1668,
    "▁همسر": 1669,
    "▁قاچاق": 1670,
    "▁کمبود": 1671,
    "▁شغل": 1672,
    "▁مونیخ": 1673,
    "▁هوشمند": 1674,
    "▁تعهدات": 1675,
    "▁مارک": 1676,
    "▁سینمای": 1677,
    "▁گیرند": 1678,
    "▁هیا": 1679,
    "▁شناس": 1680,
    "▁ارزی": 1681,
    "▁زندانیان": 1682,
    "▁۳۵": 1683,
    "▁بند": 1684,
    "بل": 1685,
    "▁درگیری": 1686,
    "▁ماهه": 1687,
    "▁احساس": 1688,
    "اسیون": 1689,
    "▁اردیبهشت": 1690,
    "▁قسمت": 1691,
    "▁نقدینگی": 1692,
    "▁چالش": 1693,
    "▁نماد": 1694,
    "▁چرخ": 1695,
    "▁لباس": 1696,
    "▁پست": 1697,
    "حسین": 1698,
    "توجه": 1699,
    "▁معنای": 1700,
    "▁۳۰۰": 1701,
    "▁مخالفان": 1702,
    "▁بیماران": 1703,
    "خوان": 1704,
    "▁شهروند": 1705,
    "▁ارزها": 1706,
    "▁هست": 1707,
    "▁سپ": 1708,
    "▁زخمی": 1709,
    "▁جزئیات": 1710,
    "▁رونالدو": 1711,
    "▁ژوئیه": 1712,
    "▁جوایز": 1713,
    "▁استقبال": 1714,
    "▁رویترز": 1715,
    "▁آبی": 1716,
    "خلق": 1717,
    "▁عادی": 1718,
    "قدر": 1719,
    "▁تصور": 1720,
    "▁آهنگ": 1721,
    "▁هرچ": 1722,
    "▁افزود": 1723,
    "▁علیرضا": 1724,
    "▁جایی": 1725,
    "▁گوش": 1726,
    "▁بازرگانی": 1727,
    "▁مس": 1728,
    "▁سامان": 1729,
    "▁ض": 1730,
    "▁سفارت": 1731,
    "▁کشاورز": 1732,
    "▁کارکنان": 1733,
    "▁عجیب": 1734,
    "▁آزار": 1735,
    "▁چیست": 1736,
    "▁بنز": 1737,
    "▁۱۹۹": 1738,
    "هرگز": 1739,
    "▁نویسندگان": 1740,
    "▁نگه": 1741,
    "▁مجری": 1742,
    "▁پاس": 1743,
    "▁معترضان": 1744,
    "لیک": 1745,
    "▁خورشیدی": 1746,
    "▁مسافران": 1747,
    "▁مدیران": 1748,
    "▁مرزی": 1749,
    "تان": 1750,
    "پور": 1751,
    "▁ماجرا": 1752,
    "▁توصی": 1753,
    "▁گیر": 1754,
    "▁صلح": 1755,
    "▁کافی": 1756,
    "▁موزه": 1757,
    "▁سوپر": 1758,
    "▁تخریب": 1759,
    "▁سیستان": 1760,
    "قیف": 1761,
    "وزارت": 1762,
    "▁تلفن": 1763,
    "▁سم": 1764,
    "ایر": 1765,
    "▁نشر": 1766,
    "▁جدیدی": 1767,
    "▁ملک": 1768,
    "▁درگیر": 1769,
    "▁آمازون": 1770,
    "▁حفاظت": 1771,
    "▁صنایع": 1772,
    "▁فرهاد": 1773,
    "▁پاکستان": 1774,
    "▁مکان": 1775,
    "▁حداکثر": 1776,
    "▁ناظر": 1777,
    "▁حج": 1778,
    "▁گری": 1779,
    "▁غربی": 1780,
    "▁واقعیت": 1781,
    "▁برمی": 1782,
    "▁حسینی": 1783,
    "▁میلان": 1784,
    "روی": 1785,
    "▁مشا": 1786,
    "▁۸۰": 1787,
    "▁لحظ": 1788,
    "▁عوامل": 1789,
    "▁مبلغ": 1790,
    "▁مدافع": 1791,
    "▁حاصل": 1792,
    "▁نگهداری": 1793,
    "عمال": 1794,
    "▁سیما": 1795,
    "▁نیویورک": 1796,
    "▁کشورش": 1797,
    "دولت": 1798,
    "شهر": 1799,
    "▁انداخت": 1800,
    "▁بهای": 1801,
    "اپی": 1802,
    "▁پو": 1803,
    "▁تومانی": 1804,
    "مون": 1805,
    "▁تحویل": 1806,
    "▁ارقام": 1807,
    "▁ذهن": 1808,
    "▁پروتکل": 1809,
    "▁آذر": 1810,
    "▁صوتی": 1811,
    "▁وکیل": 1812,
    "▁بهادار": 1813,
    "▁ماموران": 1814,
    "▁برقرار": 1815,
    "▁خواب": 1816,
    "وند": 1817,
    "▁بل": 1818,
    "▁کالاهای": 1819,
    "▁تقاضای": 1820,
    "▁فردا": 1821,
    "▁خورده": 1822,
    "▁هواپیما": 1823,
    "▁عا": 1824,
    "زاده": 1825,
    "▁دریایی": 1826,
    "ازم": 1827,
    "اش": 1828,
    "▁آهن": 1829,
    "وع": 1830,
    "گری": 1831,
    "▁رئال": 1832,
    "▁نتوانست": 1833,
    "▁حاشیه": 1834,
    "▁صراف": 1835,
    "▁دشوار": 1836,
    "▁اهمیت": 1837,
    "▁خواهیم": 1838,
    "▁تأ": 1839,
    "▁بان": 1840,
    "قب": 1841,
    "▁انجمن": 1842,
    "▁برآورد": 1843,
    "▁مجید": 1844,
    "تون": 1845,
    "▁عمر": 1846,
    "▁جی": 1847,
    "▁داشتن": 1848,
    "فدراسیون": 1849,
    "قانونی": 1850,
    "▁اسرائیلی": 1851,
    "▁اوج": 1852,
    "▁دما": 1853,
    "▁ورزشکاران": 1854,
    "▁چک": 1855,
    "▁متوسط": 1856,
    "▁وا": 1857,
    "▁بازنشستگ": 1858,
    "▁آرام": 1859,
    "علوم": 1860,
    "▁محبوب": 1861,
    "▁متعدد": 1862,
    "▁مسدود": 1863,
    "▁تعویق": 1864,
    "▁تمرین": 1865,
    "▁آسمان": 1866,
    "▁برجسته": 1867,
    "▁بلوچستان": 1868,
    "▁مراجع": 1869,
    "▁توقف": 1870,
    "▁صرف": 1871,
    "▁ریال": 1872,
    "▁تیراندازی": 1873,
    "▁اوپ": 1874,
    "▁۲۹": 1875,
    "امبر": 1876,
    "▁جر": 1877,
    "▁رس": 1878,
    "بط": 1879,
    "رکت": 1880,
    "▁برود": 1881,
    "▁روزها": 1882,
    "بد": 1883,
    "▁آم": 1884,
    "▁کارشناس": 1885,
    "▁دام": 1886,
    "▁همچ": 1887,
    "▁معمول": 1888,
    "لاک": 1889,
    "▁تمدید": 1890,
    "▁قالیباف": 1891,
    "▁نادال": 1892,
    "▁محرم": 1893,
    "▁تماس": 1894,
    "▁نجات": 1895,
    "▁مراقب": 1896,
    "▁پنجشنبه": 1897,
    "▁سراوان": 1898,
    "▁مدعی": 1899,
    "▁بنیاد": 1900,
    "▁احتمالی": 1901,
    "▁پلاس": 1902,
    "▁بیان": 1903,
    "▁گلستان": 1904,
    "▁۴۲": 1905,
    "▁ادبیات": 1906,
    "▁خال": 1907,
    "▁خلی": 1908,
    "▁چهل": 1909,
    "▁الدین": 1910,
    "جمع": 1911,
    "▁مسافر": 1912,
    "▁راهی": 1913,
    "▁۳۱": 1914,
    "▁شیو": 1915,
    "سم": 1916,
    "▁مناسب": 1917,
    "▁دوستان": 1918,
    "سیم": 1919,
    "▁فضا": 1920,
    "▁سلطنت": 1921,
    "▁افتخار": 1922,
    "▁توکیو": 1923,
    "▁امارات": 1924,
    "▁آنلاین": 1925,
    "▁ایسنا": 1926,
    "تنظیم": 1927,
    "▁جذب": 1928,
    "▁اخراج": 1929,
    "▁رافائل": 1930,
    "▁اعما": 1931,
    "▁جراح": 1932,
    "▁سهم": 1933,
    "▁خر": 1934,
    "▁پژوهشگران": 1935,
    "▁کارها": 1936,
    "برای": 1937,
    "▁ری": 1938,
    "▁جنگل": 1939,
    "نک": 1940,
    "▁اختصاص": 1941,
    "▁نحو": 1942,
    "▁اخبار": 1943,
    "▁محسو": 1944,
    "▁فایل": 1945,
    "▁لوکس": 1946,
    "▁کلوپ": 1947,
    "▁سوال": 1948,
    "▁اصل": 1949,
    "▁مور": 1950,
    "▁اتفاقات": 1951,
    "▁تخت": 1952,
    "آن": 1953,
    "▁شبانه": 1954,
    "ابت": 1955,
    "رون": 1956,
    "پیش": 1957,
    "▁ورزشکار": 1958,
    "▁داور": 1959,
    "▁توییت": 1960,
    "▁مربیان": 1961,
    "▁تئاتر": 1962,
    "▁مشمول": 1963,
    "▁ناگهان": 1964,
    "▁اسطوره": 1965,
    "▁سبک": 1966,
    "▁خشک": 1967,
    "▁وحش": 1968,
    "▁نوامبر": 1969,
    "▁مشاهد": 1970,
    "▁نوبل": 1971,
    "▁رویکرد": 1972,
    "▁جایگاه": 1973,
    "کت": 1974,
    "▁موقت": 1975,
    "▁مطابق": 1976,
    "▁ساکن": 1977,
    "▁حذفی": 1978,
    "▁کردیم": 1979,
    "▁تق": 1980,
    "اسی": 1981,
    "خبرگزا": 1982,
    "▁حس": 1983,
    "▁عبدال": 1984,
    "▁مخالف": 1985,
    "▁کت": 1986,
    "▁داند": 1987,
    "▁بندر": 1988,
    "نز": 1989,
    "▁تمامی": 1990,
    "▁محروم": 1991,
    "▁اکتبر": 1992,
    "▁بازگرداند": 1993,
    "▁کنسرت": 1994,
    "▁مسلح": 1995,
    "▁عمیق": 1996,
    "▁نارنجی": 1997,
    "▁مدرسه": 1998,
    "▁اکبر": 1999,
    "▁آشنا": 2000,
    "▁سای": 2001,
    "▁خیریه": 2002,
    "▁۲۰۱۷": 2003,
    "▁طبیعت": 2004,
    "▁همتی": 2005,
    "▁کردم": 2006,
    "یچ": 2007,
    "▁کانادا": 2008,
    "▁اسب": 2009,
    "ژه": 2010,
    "▁سازند": 2011,
    "▁خورشید": 2012,
    "رنگ": 2013,
    "▁ادبی": 2014,
    "▁شیر": 2015,
    "▁غذای": 2016,
    "▁شک": 2017,
    "▁مسئ": 2018,
    "▁ویمبلدون": 2019,
    "▁کاپیتان": 2020,
    "▁جذاب": 2021,
    "▁دعوت": 2022,
    "▁ثابت": 2023,
    "▁رقیب": 2024,
    "▁عصر": 2025,
    "▁اجاره": 2026,
    "▁معرض": 2027,
    "▁دان": 2028,
    "▁هموار": 2029,
    "▁ماده": 2030,
    "▁یکدیگر": 2031,
    "▁اقلیم": 2032,
    "▁سپاهان": 2033,
    "▁راجر": 2034,
    "هفته": 2035,
    "سازمان": 2036,
    "▁باور": 2037,
    "▁سان": 2038,
    "▁زند": 2039,
    "▁جه": 2040,
    "ندگان": 2041,
    "▁سعی": 2042,
    "▁فرار": 2043,
    "کننده": 2044,
    "▁متن": 2045,
    "گین": 2046,
    "▁داروی": 2047,
    "▁دیجیتال": 2048,
    "▁توزیع": 2049,
    "▁هنرپیشه": 2050,
    "▁قاسم": 2051,
    "▁نوجوان": 2052,
    "▁بقیه": 2053,
    "▁مسائل": 2054,
    "▁پزشک": 2055,
    "▁ساحل": 2056,
    "▁۳۲": 2057,
    "▁دیوار": 2058,
    "مت": 2059,
    "▁گام": 2060,
    "جه": 2061,
    "▁عید": 2062,
    "▁اندازی": 2063,
    "▁روان": 2064,
    "▁سپت": 2065,
    "▁جن": 2066,
    "▁هنرمندان": 2067,
    "▁رحمان": 2068,
    "▁شمالی": 2069,
    "پل": 2070,
    "▁خدم": 2071,
    "▁اصفهان": 2072,
    "▁خسارت": 2073,
    "▁فراموش": 2074,
    "▁مراکز": 2075,
    "▁ثانی": 2076,
    "▁پدید": 2077,
    "▁مواردی": 2078,
    "▁دستمزد": 2079,
    "▁۱۳۹۷": 2080,
    "▁اطلاعی": 2081,
    "تال": 2082,
    "▁منتظر": 2083,
    "▁مشاور": 2084,
    "▁کلاس": 2085,
    "▁قر": 2086,
    "▁طرفداران": 2087,
    "▁سهمی": 2088,
    "▁درجه": 2089,
    "▁آفریقا": 2090,
    "▁خوان": 2091,
    "▁فوتبالیست": 2092,
    "▁باره": 2093,
    "▁کنگ": 2094,
    "▁هوش": 2095,
    "رانی": 2096,
    "رئیس": 2097,
    "▁مجاز": 2098,
    "▁خیابان": 2099,
    "▁سرای": 2100,
    "▁بلا": 2101,
    "▁شاعر": 2102,
    "بری": 2103,
    "سه": 2104,
    "▁مالکی": 2105,
    "۱۹": 2106,
    "▁آور": 2107,
    "▁بعدا": 2108,
    "▁تحصیل": 2109,
    "داشت": 2110,
    "▁تست": 2111,
    "▁نداریم": 2112,
    "تصاب": 2113,
    "▁پرتاب": 2114,
    "▁بوکس": 2115,
    "▁رسما": 2116,
    "افسانه": 2117,
    "▁گذرد": 2118,
    "▁فرود": 2119,
    "▁اص": 2120,
    "بخش": 2121,
    "رات": 2122,
    "خانم": 2123,
    "ماه": 2124,
    "▁لیون": 2125,
    "▁سد": 2126,
    "امی": 2127,
    "▁کف": 2128,
    "▁آندر": 2129,
    "▁مایک": 2130,
    "▁لس": 2131,
    "▁ابلاغ": 2132,
    "▁اتومبیل": 2133,
    "▁سرپرست": 2134,
    "▁تاخیر": 2135,
    "▁ایستگاه": 2136,
    "▁ضمن": 2137,
    "▁نیازمند": 2138,
    "▁تاسیسات": 2139,
    "▁اهل": 2140,
    "▁نیک": 2141,
    "▁صالح": 2142,
    "حسن": 2143,
    "▁قار": 2144,
    "گزارش": 2145,
    "گا": 2146,
    "▁فردی": 2147,
    "تیم": 2148,
    "▁برادر": 2149,
    "▁عکاس": 2150,
    "▁بچ": 2151,
    "▁بازگش": 2152,
    "▁انداز": 2153,
    "▁تری": 2154,
    "باید": 2155,
    "▁سل": 2156,
    "▁اساسی": 2157,
    "▁جیمز": 2158,
    "▁اعتبار": 2159,
    "▁هجوم": 2160,
    "▁لبنان": 2161,
    "▁قبول": 2162,
    "▁دیدن": 2163,
    "▁فرستاده": 2164,
    "▁هویت": 2165,
    "▁آکادمی": 2166,
    "▁سخنان": 2167,
    "▁بوی": 2168,
    "...": 2169,
    "▁نزدیکی": 2170,
    "▁جانب": 2171,
    "▁مشهد": 2172,
    "▁تکرار": 2173,
    "▁گزین": 2174,
    "▁موثر": 2175,
    "▁حکام": 2176,
    "▁پنجاه": 2177,
    "ضاع": 2178,
    "▁شهریور": 2179,
    "▁مطلب": 2180,
    "▁خاص": 2181,
    "▁قربانیان": 2182,
    "▁جاد": 2183,
    "▁گرا": 2184,
    "▁قضاییه": 2185,
    "▁گذارد": 2186,
    "حمل": 2187,
    "مار": 2188,
    "تمام": 2189,
    "▁کام": 2190,
    "▁عکاسی": 2191,
    "▁هواپیمای": 2192,
    "▁عدد": 2193,
    "▁دارای": 2194,
    "▁گفتند": 2195,
    "▁اور": 2196,
    "▁نشدن": 2197,
    "ساوی": 2198,
    "▁محافظ": 2199,
    "دگی": 2200,
    "▁حوادث": 2201,
    "▁یوونتوس": 2202,
    "▁خشونت": 2203,
    "▁هماهنگ": 2204,
    "▁عرص": 2205,
    "▁متولد": 2206,
    "▁اجلاس": 2207,
    "▁حاکی": 2208,
    "ذیب": 2209,
    "▁مریخ": 2210,
    "جواد": 2211,
    "▁وام": 2212,
    "▁فروخت": 2213,
    "▁ملایی": 2214,
    "شیدا": 2215,
    "▁کال": 2216,
    "▁منتقدان": 2217,
    "▁آمیز": 2218,
    "لم": 2219,
    "الب": 2220,
    "▁همسرش": 2221,
    "▁توانسته": 2222,
    "▁نادر": 2223,
    "▁پیوست": 2224,
    "▁ترجم": 2225,
    "▁خبرنگاران": 2226,
    "۲۰": 2227,
    "▁معدن": 2228,
    "قف": 2229,
    "اگر": 2230,
    "▁دامن": 2231,
    "▁رویا": 2232,
    "یکی": 2233,
    "▁اسکاتلند": 2234,
    "▁اطراف": 2235,
    "▁موضع": 2236,
    "▁آلودگی": 2237,
    "▁سلطان": 2238,
    "فسور": 2239,
    "▁چنان": 2240,
    "▁نرم": 2241,
    "▁فرودگاه": 2242,
    "▁نهم": 2243,
    "▁صلاحیت": 2244,
    "▁کسر": 2245,
    "▁ابراهیم": 2246,
    "▁اتریش": 2247,
    "▁معلوم": 2248,
    "▁ریش": 2249,
    "نوش": 2250,
    "▁قوی": 2251,
    "▁ناسا": 2252,
    "▁بعدی": 2253,
    "ناصر": 2254,
    "آمریکا": 2255,
    "عهد": 2256,
    "ویز": 2257,
    "رق": 2258,
    "▁تور": 2259,
    "▁نامش": 2260,
    "▁الملل": 2261,
    "▁۴۰۰": 2262,
    "زار": 2263,
    "گون": 2264,
    "▁سلیمانی": 2265,
    "▁حراج": 2266,
    "▁الهام": 2267,
    "▁رویداد": 2268,
    "▁واگذار": 2269,
    "▁پایگاه": 2270,
    "▁آگاه": 2271,
    "▁پدرش": 2272,
    "▁حملات": 2273,
    "▁شناسی": 2274,
    "▁باب": 2275,
    "▁تس": 2276,
    "▁بهتری": 2277,
    "دست": 2278,
    "▁قول": 2279,
    "▁نکرد": 2280,
    "▁ابر": 2281,
    "گیر": 2282,
    "▁نقاش": 2283,
    "▁آفریقای": 2284,
    "▁ذخ": 2285,
    "▁بازرس": 2286,
    "▁حامل": 2287,
    "▁جوانان": 2288,
    "▁گرانی": 2289,
    "▁محصول": 2290,
    "▁اهدا": 2291,
    "▁جلوی": 2292,
    "▁متخصص": 2293,
    "▁آرسنال": 2294,
    "▁فیسبوک": 2295,
    "▁مصنوعی": 2296,
    "▁بلینکن": 2297,
    "▁زمستان": 2298,
    "▁شصت": 2299,
    "▁متوالی": 2300,
    "▁ایرنا": 2301,
    "▁نفس": 2302,
    "▁خطرناک": 2303,
    "▁گذراند": 2304,
    "▁قالب": 2305,
    "▁تعلیق": 2306,
    "▁تسلا": 2307,
    "▁ماموریت": 2308,
    "▁امر": 2309,
    "▁تبلیغات": 2310,
    "▁۲۰۱۵": 2311,
    "▁ون": 2312,
    "▁شوم": 2313,
    "▁مبن": 2314,
    "▁اسکی": 2315,
    "ستون": 2316,
    "▁باغ": 2317,
    "▁پزشکان": 2318,
    "▁هل": 2319,
    "▁ایتالیایی": 2320,
    "▁تل": 2321,
    "▁درک": 2322,
    "بنابر": 2323,
    "▁پن": 2324,
    "▁انداخته": 2325,
    "▁سخن": 2326,
    "▁کارت": 2327,
    "▁ور": 2328,
    "▁نیرو": 2329,
    "خل": 2330,
    "ارد": 2331,
    "رسدس": 2332,
    "▁آماد": 2333,
    "▁اظهار": 2334,
    "خواهی": 2335,
    "▁تشویق": 2336,
    "▁ساعات": 2337,
    "▁شاغل": 2338,
    "▁میراث": 2339,
    "▁بازدید": 2340,
    "▁تنفس": 2341,
    "▁تولد": 2342,
    "▁قطب": 2343,
    "▁تف": 2344,
    "▁بگیرند": 2345,
    "▁شهرستان": 2346,
    "▁سوزی": 2347,
    "▁شبی": 2348,
    "▁دادستان": 2349,
    "▁مشتریان": 2350,
    "▁کارمندان": 2351,
    "یون": 2352,
    "▁توانای": 2353,
    "ریم": 2354,
    "▁نشین": 2355,
    "▁تپ": 2356,
    "▁اسم": 2357,
    "انس": 2358,
    "واع": 2359,
    "▁برج": 2360,
    "▁کالاها": 2361,
    "▁اضطرار": 2362,
    "▁اطمینان": 2363,
    "▁نطنز": 2364,
    "▁ژافره": 2365,
    "▁آنجلس": 2366,
    "▁شفاف": 2367,
    "▁کوه": 2368,
    "▁سرنگون": 2369,
    "▁ماراتن": 2370,
    "▁جبران": 2371,
    "▁رانندگان": 2372,
    "▁۳۳": 2373,
    "▁رمز": 2374,
    "▁فولک": 2375,
    "▁شهرسازی": 2376,
    "▁برخوردار": 2377,
    "▁هلند": 2378,
    "لر": 2379,
    "▁درخشان": 2380,
    "رسان": 2381,
    "▁استاندار": 2382,
    "شار": 2383,
    "▁نیستند": 2384,
    "انجام": 2385,
    "▁نبوده": 2386,
    "▁هفتم": 2387,
    "▁رهبری": 2388,
    "▁مست": 2389,
    "▁۷۵": 2390,
    "▁پاک": 2391,
    "▁۱۵۰": 2392,
    "▁شعب": 2393,
    "▁آواز": 2394,
    "لک": 2395,
    "▁ازدواج": 2396,
    "▁جسد": 2397,
    "▁صدرنشین": 2398,
    "▁آسان": 2399,
    "▁دوز": 2400,
    "▁ناپذیر": 2401,
    "▁فراوان": 2402,
    "▁۲۷": 2403,
    "▁تحولات": 2404,
    "▁مادرش": 2405,
    "▁نفوذ": 2406,
    "▁هشتم": 2407,
    "▁شهرت": 2408,
    "لس": 2409,
    "▁اسپانیایی": 2410,
    "▁نامداری": 2411,
    "▁خرد": 2412,
    "▁جنسیت": 2413,
    "بانک": 2414,
    "▁معن": 2415,
    "▁جم": 2416,
    "▁فرمان": 2417,
    "▁روانی": 2418,
    "▁اح": 2419,
    "▁خاتم": 2420,
    "طی": 2421,
    "▁روستا": 2422,
    "▁علم": 2423,
    "حص": 2424,
    "▁آکسفورد": 2425,
    "▁ثبات": 2426,
    "▁کالیفرنیا": 2427,
    "▁پادشاه": 2428,
    "▁فولاد": 2429,
    "▁فعلا": 2430,
    "▁مقصد": 2431,
    "▁عشق": 2432,
    "▁تردد": 2433,
    "▁آرایش": 2434,
    "▁اسناد": 2435,
    "▁بدهد": 2436,
    "▁ردیف": 2437,
    "▁فرو": 2438,
    "▁ساده": 2439,
    "▁نوروز": 2440,
    "▁حالت": 2441,
    "▁مدرن": 2442,
    "گذاری": 2443,
    "▁جواب": 2444,
    "▁سرکوب": 2445,
    "▁امیدواری": 2446,
    "▁اکثر": 2447,
    "▁کادر": 2448,
    "باقر": 2449,
    "▁پیگیری": 2450,
    "وریس": 2451,
    "▁رها": 2452,
    "▁ارا": 2453,
    "▁سانتی": 2454,
    "▁میانه": 2455,
    "▁درون": 2456,
    "▁تماشاگران": 2457,
    "▁فراز": 2458,
    "▁یافتن": 2459,
    "▁شرکتهای": 2460,
    "▁قد": 2461,
    "▁چشمگیر": 2462,
    "همزمان": 2463,
    "▁سپر": 2464,
    "▁گردشگری": 2465,
    "جد": 2466,
    "▁کجا": 2467,
    "▁تماشاگر": 2468,
    "▁ضرور": 2469,
    "▁ادار": 2470,
    "▁تاسیس": 2471,
    "▁ارد": 2472,
    "▁نداده": 2473,
    "▁انتظامی": 2474,
    "▁اهواز": 2475,
    "▁دسامبر": 2476,
    "▁ژرمن": 2477,
    "▁ریاض": 2478,
    "▁عظیم": 2479,
    "▁کیلوگرم": 2480,
    "▁فیزیک": 2481,
    "▁علنی": 2482,
    "▁زهرا": 2483,
    "▁هتل": 2484,
    "▁فیلیپ": 2485,
    "▁جوکوویچ": 2486,
    "▁هو": 2487,
    "▁کلیه": 2488,
    "▁مسعود": 2489,
    "▁پکن": 2490,
    "▁وق": 2491,
    "وض": 2492,
    "▁مهاجرت": 2493,
    "سبب": 2494,
    "▁نمایندگی": 2495,
    "جسم": 2496,
    "اجع": 2497,
    "▁بس": 2498,
    "▁کیلومتری": 2499,
    "▁جامع": 2500,
    "حدود": 2501,
    "▁آمدن": 2502,
    "▁۴۵": 2503,
    "▁قطعه": 2504,
    "▁محمدی": 2505,
    "▁۷۰۰": 2506,
    "▁نامید": 2507,
    "▁روب": 2508,
    "▁خاصی": 2509,
    "نج": 2510,
    "▁حو": 2511,
    "وئل": 2512,
    "▁تراکتور": 2513,
    "▁سوئد": 2514,
    "▁هیئت": 2515,
    "▁چارچوب": 2516,
    "▁گشایش": 2517,
    "▁اوکراین": 2518,
    "▁تجدید": 2519,
    "▁خفاش": 2520,
    "▁تفاوت": 2521,
    "▁روغن": 2522,
    "▁جلب": 2523,
    "▁پیچیده": 2524,
    "▁مسجد": 2525,
    "▁گشت": 2526,
    "▁شگفت": 2527,
    "▁خودکشی": 2528,
    "▁اقامت": 2529,
    "▁زاهد": 2530,
    "▁شهرداری": 2531,
    "▁یمن": 2532,
    "▁کارزار": 2533,
    "▁مجازات": 2534,
    "غول": 2535,
    "▁منع": 2536,
    "▁مرور": 2537,
    "▁وقف": 2538,
    "رگن": 2539,
    "▁یخ": 2540,
    "▁آنتونی": 2541,
    "ترا": 2542,
    "▁خیر": 2543,
    "صاف": 2544,
    "▁شرقی": 2545,
    "قرار": 2546,
    "نیک": 2547,
    "▁برون": 2548,
    "▁دقیقا": 2549,
    "▁کیم": 2550,
    "▁درمانی": 2551,
    "غم": 2552,
    "▁برداری": 2553,
    "▁دسته": 2554,
    "▁مون": 2555,
    "▁ویدیوی": 2556,
    "▁دیپلما": 2557,
    "▁پناه": 2558,
    "▁مند": 2559,
    "▁مورینیو": 2560,
    "▁پارلمان": 2561,
    "▁خراسان": 2562,
    "▁واگن": 2563,
    "▁تعریف": 2564,
    "▁لحا": 2565,
    "▁تبعیض": 2566,
    "▁مقدار": 2567,
    "▁راحت": 2568,
    "▁شویم": 2569,
    "▁پنهان": 2570,
    "▁گنج": 2571,
    "▁فرستاد": 2572,
    "زم": 2573,
    "▁هفتاد": 2574,
    "▁مدنی": 2575,
    "▁بخت": 2576,
    "▁نوروزی": 2577,
    "▁اسماعیل": 2578,
    "▁اسکن": 2579,
    "▁مسافرت": 2580,
    "▁واقعا": 2581,
    "▁اتهامات": 2582,
    "خواه": 2583,
    "▁مناسبت": 2584,
    "قابل": 2585,
    "▁محققان": 2586,
    "▁عملا": 2587,
    "▁نود": 2588,
    "▁پاری": 2589,
    "▁جزیر": 2590,
    "▁پهلوی": 2591,
    "▁کلید": 2592,
    "سعید": 2593,
    "▁شاملو": 2594,
    "▁دهنده": 2595,
    "شمار": 2596,
    "▁مرا": 2597,
    "▁باد": 2598,
    "▁دیر": 2599,
    "▁نمای": 2600,
    "▁بهر": 2601,
    "▁مرزها": 2602,
    "شرکت": 2603,
    "▁خودروسازی": 2604,
    "▁طلای": 2605,
    "▁زنند": 2606,
    "غان": 2607,
    "▁اعتماد": 2608,
    "▁تجهیزات": 2609,
    "▁دستورالعمل": 2610,
    "▁علائم": 2611,
    "▁پانزده": 2612,
    "▁تبریز": 2613,
    "▁میناوند": 2614,
    "▁فیوری": 2615,
    "▁عمدتا": 2616,
    "▁کانون": 2617,
    "▁تابلو": 2618,
    "▁خطیب": 2619,
    "▁نسخ": 2620,
    "▁وانت": 2621,
    "▁ذر": 2622,
    "حال": 2623,
    "▁حقیقت": 2624,
    "▁منظور": 2625,
    "▁خاتمی": 2626,
    "▁مای": 2627,
    "▁محکومیت": 2628,
    "▁نداد": 2629,
    "▁مدار": 2630,
    "۹۷": 2631,
    "▁دهیم": 2632,
    "▁کیو": 2633,
    "▁گوشت": 2634,
    "نظر": 2635,
    "▁تج": 2636,
    "شنا": 2637,
    "بعضی": 2638,
    "خو": 2639,
    "شدید": 2640,
    "▁کشت": 2641,
    "▁فرش": 2642,
    "▁اتفاقی": 2643,
    "▁ایستاده": 2644,
    "خالص": 2645,
    "▁نیمک": 2646,
    "حض": 2647,
    "▁ششم": 2648,
    "▁ویدئوی": 2649,
    "▁تحلیل": 2650,
    "▁دائم": 2651,
    "▁مذهبی": 2652,
    "▁مطمئن": 2653,
    "▁الحاق": 2654,
    "▁حکایت": 2655,
    "▁عذر": 2656,
    "▁نماز": 2657,
    "▁خمینی": 2658,
    "▁کنفرانس": 2659,
    "▁خلاف": 2660,
    "گفته": 2661,
    "▁فقر": 2662,
    "▁نبرد": 2663,
    "▁حقوقی": 2664,
    "▁اختلال": 2665,
    "خراج": 2666,
    "▁قدر": 2667,
    "▁پوشش": 2668,
    "▁اسپ": 2669,
    "▁بیستم": 2670,
    "کین": 2671,
    "▁تبار": 2672,
    "▁فرزندان": 2673,
    "▁داوطلبان": 2674,
    "خته": 2675,
    "دکتر": 2676,
    "نر": 2677,
    "وزیر": 2678,
    "▁ایست": 2679,
    "▁ببر": 2680,
    "▁پاپ": 2681,
    "کاری": 2682,
    "▁بازیگران": 2683,
    "افت": 2684,
    "▁جک": 2685,
    "مدال": 2686,
    "▁بردن": 2687,
    "▁ژاپنی": 2688,
    "▁عطر": 2689,
    "▁داروها": 2690,
    "▁راز": 2691,
    "▁سفارش": 2692,
    "▁غافلگیر": 2693,
    "▁گواردیولا": 2694,
    "▁مطالب": 2695,
    "▁مثال": 2696,
    "▁سانسور": 2697,
    "▁عبارت": 2698,
    "▁استانبول": 2699,
    "▁حاکم": 2700,
    "▁بخار": 2701,
    "▁نصب": 2702,
    "▁آرزو": 2703,
    "▁رونق": 2704,
    "▁تردید": 2705,
    "▁خطوط": 2706,
    "▁شوک": 2707,
    "▁معاف": 2708,
    "▁بهشت": 2709,
    "احض": 2710,
    "▁دیپلماتیک": 2711,
    "▁کریمی": 2712,
    "▁لستر": 2713,
    "▁ذو": 2714,
    "▁خبرساز": 2715,
    "▁۳۴": 2716,
    "▁اصول": 2717,
    "▁فرماندار": 2718,
    "▁۴۸": 2719,
    "▁باستان": 2720,
    "▁غلام": 2721,
    "▁ویدیو": 2722,
    "▁میر": 2723,
    "▁شانس": 2724,
    "▁سرود": 2725,
    "▁باند": 2726,
    "▁سفرهای": 2727,
    "▁طلب": 2728,
    "▁اجباری": 2729,
    "▁توجهی": 2730,
    "▁بودم": 2731,
    "▁محاسب": 2732,
    "آزادسازی": 2733,
    "▁بدتر": 2734,
    "اکان": 2735,
    "▁خاورمیانه": 2736,
    "▁معاصر": 2737,
    "▁نباشد": 2738,
    "▁کلمبیا": 2739,
    "▁مشاغل": 2740,
    "▁سرنوشت": 2741,
    "▁اندونزی": 2742,
    "▁برگزید": 2743,
    "▁احترام": 2744,
    "▁کهکشان": 2745,
    "▁باشیم": 2746,
    "▁نوسان": 2747,
    "▁خوشحال": 2748,
    "▁دانشجو": 2749,
    "▁روس": 2750,
    "▁مرجان": 2751,
    "وخیم": 2752,
    "▁افزار": 2753,
    "▁جورج": 2754,
    "▁صادرکنندگان": 2755,
    "لین": 2756,
    "▁مدیرکل": 2757,
    "▁فراتر": 2758,
    "▁ریخت": 2759,
    "▁گلزن": 2760,
    "▁خطاب": 2761,
    "کته": 2762,
    "▁قبر": 2763,
    "▁گفتگوها": 2764,
    "▁روح": 2765,
    "▁تب": 2766,
    "▁اینتر": 2767,
    "ناف": 2768,
    "▁صادقی": 2769,
    "▁کور": 2770,
    "رود": 2771,
    "تیک": 2772,
    "خالت": 2773,
    "▁مالیاتی": 2774,
    "▁سیل": 2775,
    "▁زدند": 2776,
    "▁سری": 2777,
    "وثی": 2778,
    "▁۰": 2779,
    "▁بردند": 2780,
    "▁دفاعی": 2781,
    "▁تعل": 2782,
    "▁اید": 2783,
    "▁وایلد": 2784,
    "▁بسکتبال": 2785,
    "▁تصادف": 2786,
    "▁شواهد": 2787,
    "▁عوارض": 2788,
    "▁کامپیوتر": 2789,
    "▁جستجو": 2790,
    "▁فایزر": 2791,
    "▁پرتغال": 2792,
    "▁کیفیت": 2793,
    "▁تکمیل": 2794,
    "▁شنیده": 2795,
    "▁پرچم": 2796,
    "▁پیامدهای": 2797,
    "▁برکنار": 2798,
    "▁بماند": 2799,
    "▁اولویت": 2800,
    "▁ناکام": 2801,
    "واسط": 2802,
    "▁وسیع": 2803,
    "▁حیوانات": 2804,
    "▁پتروش": 2805,
    "▁دانیم": 2806,
    "▁جانسون": 2807,
    "▁کلاسیک": 2808,
    "▁۲۰۱۱": 2809,
    "▁خاوران": 2810,
    "▁رویدادهای": 2811,
    "▁فاش": 2812,
    "▁مسئولیت": 2813,
    "▁فروشگاه": 2814,
    "▁بیمه": 2815,
    "▁نامزدهای": 2816,
    "کرد": 2817,
    "▁عادل": 2818,
    "لند": 2819,
    "▁درحال": 2820,
    "▁ایفا": 2821,
    "▁مول": 2822,
    "۵۰": 2823,
    "▁شنا": 2824,
    "▁گذر": 2825,
    "یشه": 2826,
    "▁فان": 2827,
    "قیمت": 2828,
    "عبدال": 2829,
    "▁ماندن": 2830,
    "▁رم": 2831,
    "بنا": 2832,
    "نام": 2833,
    "▁سرد": 2834,
    "▁عفو": 2835,
    "▁موافق": 2836,
    "▁تای": 2837,
    "▁پرداز": 2838,
    "خور": 2839,
    "▁حساس": 2840,
    "▁جایگزین": 2841,
    "▁ویلموتس": 2842,
    "▁مخفی": 2843,
    "▁برگزیت": 2844,
    "▁بگذارد": 2845,
    "▁تدریج": 2846,
    "▁ابزار": 2847,
    "▁مخاطبان": 2848,
    "▁مهندس": 2849,
    "▁دایک": 2850,
    "▁پرورش": 2851,
    "▁هیجان": 2852,
    "▁آلوده": 2853,
    "▁خشم": 2854,
    "▁جانشین": 2855,
    "▁سپرده": 2856,
    "▁بنیان": 2857,
    "▁تبع": 2858,
    "▁تاثیرگذار": 2859,
    "▁شمس": 2860,
    "▁امشب": 2861,
    "▁مستقل": 2862,
    "صمی": 2863,
    "▁محرومیت": 2864,
    "لور": 2865,
    "▁همکاران": 2866,
    "▁قص": 2867,
    "▁ویران": 2868,
    "▁۳۸": 2869,
    "پای": 2870,
    "شویی": 2871,
    "▁۱۹۸": 2872,
    "▁انت": 2873,
    "▁درخت": 2874,
    "▁ویل": 2875,
    "▁امکانات": 2876,
    "▁ماجرای": 2877,
    "▁ناو": 2878,
    "▁انتقادها": 2879,
    "احل": 2880,
    "▁اندک": 2881,
    "▁سین": 2882,
    "لف": 2883,
    "فق": 2884,
    "برگ": 2885,
    "▁سید": 2886,
    "▁درحالی": 2887,
    "هزار": 2888,
    "▁گزارشگر": 2889,
    "▁پژوهشگر": 2890,
    "▁آذربایجان": 2891,
    "▁استراماچونی": 2892,
    "▁هالیوود": 2893,
    "▁اقلام": 2894,
    "▁منافع": 2895,
    "▁برانگیز": 2896,
    "▁افتتاح": 2897,
    "▁جاسوس": 2898,
    "▁هاشمی": 2899,
    "▁گورستان": 2900,
    "▁اورتون": 2901,
    "▁دانشجویان": 2902,
    "▁بدهند": 2903,
    "▁تائ": 2904,
    "▁یادداشت": 2905,
    "▁سهامداران": 2906,
    "▁دف": 2907,
    "▁مقدمات": 2908,
    "پو": 2909,
    "▁یادآور": 2910,
    "▁اسدی": 2911,
    "▁برند": 2912,
    "▁بطور": 2913,
    "پرو": 2914,
    "نوبت": 2915,
    "▁احت": 2916,
    "▁یازده": 2917,
    "▁۳۹": 2918,
    "▁کمال": 2919,
    "▁آرامش": 2920,
    "▁بازرسان": 2921,
    "فرین": 2922,
    "▁۹۶": 2923,
    "▁جرم": 2924,
    "▁اصلا": 2925,
    "▁نیا": 2926,
    "▁گوشی": 2927,
    "▁گم": 2928,
    "▁اق": 2929,
    "فن": 2930,
    "▁پوش": 2931,
    "آزمایی": 2932,
    "▁زیرا": 2933,
    "▁رحمانی": 2934,
    "▁راک": 2935,
    "▁تجا": 2936,
    "▁غر": 2937,
    "▁۵۷": 2938,
    "▁شهری": 2939,
    "شده": 2940,
    "▁تبلیغ": 2941,
    "▁عاشق": 2942,
    "سخ": 2943,
    "▁مشروط": 2944,
    "▁کاوشگر": 2945,
    "▁قایق": 2946,
    "▁اماکن": 2947,
    "▁عمق": 2948,
    "اقات": 2949,
    "▁شعار": 2950,
    "▁حامی": 2951,
    "▁شناور": 2952,
    "کور": 2953,
    "▁شرط": 2954,
    "▁نمایشگاه": 2955,
    "مانده": 2956,
    "▁۴۴": 2957,
    "نزا": 2958,
    "▁کشم": 2959,
    "▁سوالات": 2960,
    "▁نزد": 2961,
    "▁رسیدند": 2962,
    "▁برندگان": 2963,
    "▁پوشید": 2964,
    "شورای": 2965,
    "▁پیوسته": 2966,
    "▁برنت": 2967,
    "اور": 2968,
    "▁اقدامی": 2969,
    "▁دونده": 2970,
    "▁۹۵": 2971,
    "▁نابودی": 2972,
    "لیون": 2973,
    "گل": 2974,
    "بون": 2975,
    "▁مغ": 2976,
    "▁قیمتها": 2977,
    "▁کاس": 2978,
    "▁درخش": 2979,
    "آی": 2980,
    "▁۲۵۰": 2981,
    "▁موقع": 2982,
    "▁کارمند": 2983,
    "▁رستوران": 2984,
    "▁هافبک": 2985,
    "▁ارشاد": 2986,
    "▁بغداد": 2987,
    "▁گوناگون": 2988,
    "▁سلاح": 2989,
    "▁قلع": 2990,
    "▁آشکار": 2991,
    "▁نفع": 2992,
    "▁انگار": 2993,
    "▁شکنجه": 2994,
    "▁منچسترسیتی": 2995,
    "▁سرقت": 2996,
    "▁آدم": 2997,
    "▁سایپا": 2998,
    "▁کریستیان": 2999,
    "▁مستمر": 3000,
    "ترانه": 3001,
    "▁شتاب": 3002,
    "▁افسر": 3003,
    "▁قض": 3004,
    "▁عبدالله": 3005,
    "یره": 3006,
    "▁راستا": 3007,
    "۱۴": 3008,
    "▁تاجیک": 3009,
    "▁شهرها": 3010,
    "▁آرا": 3011,
    "▁کشد": 3012,
    "وقت": 3013,
    "▁اردو": 3014,
    "▁خواهم": 3015,
    "▁ضرر": 3016,
    "▁حمید": 3017,
    "▁جدایی": 3018,
    "▁ماهوار": 3019,
    "▁تماشای": 3020,
    "کینگ": 3021,
    "▁طلبان": 3022,
    "▁سیر": 3023,
    "▁دانستند": 3024,
    "▁ادعا": 3025,
    "مپ": 3026,
    "وایی": 3027,
    "▁زانو": 3028,
    "▁ادعای": 3029,
    "▁۴۹": 3030,
    "▁جسم": 3031,
    "ایب": 3032,
    "افزایش": 3033,
    "▁مکانی": 3034,
    "▁شیری": 3035,
    "پیشتر": 3036,
    "▁مقال": 3037,
    "نیم": 3038,
    "داران": 3039,
    "▁آمارها": 3040,
    "۶۰": 3041,
    "پنج": 3042,
    "▁آسیای": 3043,
    "▁پارسی": 3044,
    "▁عروس": 3045,
    "أ": 3046,
    "▁شور": 3047,
    "▁خداحافظ": 3048,
    "▁غیرمستقیم": 3049,
    "▁قاجار": 3050,
    "▁آفتاب": 3051,
    "▁بلژیک": 3052,
    "▁تعرف": 3053,
    "▁موانع": 3054,
    "▁غزنی": 3055,
    "▁استادیوم": 3056,
    "▁سبز": 3057,
    "▁قاطع": 3058,
    "▁اظهارنظر": 3059,
    "▁کربن": 3060,
    "▁فضانورد": 3061,
    "▁بیاید": 3062,
    "▁اولسان": 3063,
    "▁نیروگاه": 3064,
    "▁مخصوص": 3065,
    "▁پاییز": 3066,
    "▁سلمان": 3067,
    "▁انبار": 3068,
    "▁هشتاد": 3069,
    "▁۱۳۸": 3070,
    "▁آزمایشگاه": 3071,
    "▁افکار": 3072,
    "▁تحول": 3073,
    "ناد": 3074,
    "▁قله": 3075,
    "▁خریدار": 3076,
    "▁بودیم": 3077,
    "▁ضرورت": 3078,
    "▁شکار": 3079,
    "▁محافظت": 3080,
    "▁ریه": 3081,
    "▁یاران": 3082,
    "زده": 3083,
    "▁یاری": 3084,
    "▁نگرفته": 3085,
    "▁شیرین": 3086,
    "▁قدس": 3087,
    "▁بدر": 3088,
    "▁ات": 3089,
    "راضی": 3090,
    "جان": 3091,
    "دام": 3092,
    "خواست": 3093,
    "▁سالن": 3094,
    "خره": 3095,
    "فاصله": 3096,
    "سکی": 3097,
    "تاب": 3098,
    "▁خوانندگ": 3099,
    "وات": 3100,
    "▁رحم": 3101,
    "مال": 3102,
    "▁دیگران": 3103,
    "▁داو": 3104,
    "▁کش": 3105,
    "▁۶۰۰": 3106,
    "▁یازدهم": 3107,
    "▁بدی": 3108,
    "التی": 3109,
    "▁مطل": 3110,
    "واد": 3111,
    "▁آموزشی": 3112,
    "ژانس": 3113,
    "▁اصطلاح": 3114,
    "▁حافظ": 3115,
    "▁مطبوعات": 3116,
    "▁رضوی": 3117,
    "▁وسایل": 3118,
    "▁ایرلند": 3119,
    "▁پانصد": 3120,
    "▁اشرف": 3121,
    "▁دانمارک": 3122,
    "▁فردوسی": 3123,
    "▁گیاه": 3124,
    "▁فتح": 3125,
    "▁تاکسی": 3126,
    "▁مسکونی": 3127,
    "ادورو": 3128,
    "▁پرفروش": 3129,
    "▁قلم": 3130,
    "▁لیس": 3131,
    "▁تلخ": 3132,
    "▁تاریک": 3133,
    "▁کانری": 3134,
    "▁سلول": 3135,
    "▁فقیر": 3136,
    "▁بلخ": 3137,
    "▁بهرام": 3138,
    "▁کریست": 3139,
    "▁افکن": 3140,
    "▁آتی": 3141,
    "▁عادت": 3142,
    "▁شکاف": 3143,
    "▁۱۹۴": 3144,
    "▁مساوی": 3145,
    "▁تحلیلگر": 3146,
    "▁اوبر": 3147,
    "▁طلایی": 3148,
    "▁راند": 3149,
    "▁نداشتند": 3150,
    "راه": 3151,
    "▁همیش": 3152,
    "▁مسئولین": 3153,
    "▁خاطرات": 3154,
    "▁مسال": 3155,
    "▁موضوعات": 3156,
    "▁تند": 3157,
    "▁پیشگیری": 3158,
    "▁وست": 3159,
    "▁ناصر": 3160,
    "سخنگوی": 3161,
    "رسمی": 3162,
    "▁تنگ": 3163,
    "▁سراسری": 3164,
    "▁۶۵": 3165,
    "▁عبوری": 3166,
    "میم": 3167,
    "امروز": 3168,
    "▁مشتری": 3169,
    "▁دانشمند": 3170,
    "ثر": 3171,
    "▁لب": 3172,
    "اوش": 3173,
    "▁زیبا": 3174,
    "▁خاطره": 3175,
    "▁دبلیو": 3176,
    "▁هیوندای": 3177,
    "▁گرنداسلم": 3178,
    "▁تظاهرات": 3179,
    "▁پادتن": 3180,
    "▁جنبش": 3181,
    "▁دوازده": 3182,
    "▁دروغ": 3183,
    "التهاب": 3184,
    "▁باشید": 3185,
    "▁واژه": 3186,
    "▁معیار": 3187,
    "▁شهید": 3188,
    "▁زرد": 3189,
    "▁راهبرد": 3190,
    "▁حیدر": 3191,
    "▁دراز": 3192,
    "▁۱۳۵": 3193,
    "▁بلیت": 3194,
    "فرانس": 3195,
    "▁مدارک": 3196,
    "هکرها": 3197,
    "▁محور": 3198,
    "▁قوا": 3199,
    "▁غار": 3200,
    "▁محمدجواد": 3201,
    "▁مهمان": 3202,
    "▁زو": 3203,
    "▁ضعیف": 3204,
    "▁شورو": 3205,
    "▁هنگ": 3206,
    "▁پار": 3207,
    "▁بابا": 3208,
    "▁۵۵": 3209,
    "لاق": 3210,
    "▁محدودیتهای": 3211,
    "▁داوطلب": 3212,
    "▁۱۳۷": 3213,
    "▁رز": 3214,
    "▁فاز": 3215,
    "▁خواندن": 3216,
    "▁امین": 3217,
    "گروه": 3218,
    "▁نقد": 3219,
    "▁پستان": 3220,
    "افغانستان": 3221,
    "▁نرسیده": 3222,
    "▁ابتلای": 3223,
    "▁خواه": 3224,
    "قرض": 3225,
    "ماهی": 3226,
    "▁رفتند": 3227,
    "▁کاربر": 3228,
    "▁برایش": 3229,
    "▁آقا": 3230,
    "▁انفرادی": 3231,
    "▁سامسونگ": 3232,
    "▁لوئی": 3233,
    "▁ناراحت": 3234,
    "▁مقاومت": 3235,
    "▁تمایل": 3236,
    "▁مسلمان": 3237,
    "▁تروریسم": 3238,
    "▁بوندس": 3239,
    "▁قادر": 3240,
    "▁دهقان": 3241,
    "▁ربات": 3242,
    "▁فریاد": 3243,
    "▁خلاص": 3244,
    "▁مخابرات": 3245,
    "▁صمت": 3246,
    "▁رقص": 3247,
    "▁تعهد": 3248,
    "▁رمزارزها": 3249,
    "رن": 3250,
    "▁خانوارهای": 3251,
    "▁عراقچی": 3252,
    "▁کیلو": 3253,
    "▁بزند": 3254,
    "▁متاسف": 3255,
    "▁کادی": 3256,
    "▁فیل": 3257,
    "▁سوئیسی": 3258,
    "▁حلق": 3259,
    "یمی": 3260,
    "▁تاب": 3261,
    "▁صند": 3262,
    "▁ظاهرا": 3263,
    "▁آوی": 3264,
    "▁رهبران": 3265,
    "رخ": 3266,
    "▁نرسید": 3267,
    "▁اسلام": 3268,
    "وط": 3269,
    "▁خدا": 3270,
    "بهار": 3271,
    "▁۳۶": 3272,
    "▁شاهزاد": 3273,
    "▁نان": 3274,
    "ناک": 3275,
    "بادی": 3276,
    "▁تلف": 3277,
    "کوبی": 3278,
    "بسیاری": 3279,
    "▁موش": 3280,
    "▁دارم": 3281,
    "برخ": 3282,
    "▁خوا": 3283,
    "▁منتقد": 3284,
    "مجموعه": 3285,
    "▁محقق": 3286,
    "۲۰۱۲": 3287,
    "▁رویای": 3288,
    "▁آگ": 3289,
    "▁ژنتیکی": 3290,
    "▁خلو": 3291,
    "شاه": 3292,
    "▁عموم": 3293,
    "▁۱۳۶": 3294,
    "▁الکترونیک": 3295,
    "▁تدابیر": 3296,
    "▁فرآیند": 3297,
    "▁موبایل": 3298,
    "▁پیراهن": 3299,
    "▁همسایه": 3300,
    "▁کودتا": 3301,
    "▁مصاد": 3302,
    "▁پذیرفته": 3303,
    "▁مترجم": 3304,
    "▁گروسی": 3305,
    "▁ثامن": 3306,
    "▁روزگار": 3307,
    "▁مزای": 3308,
    "▁پلاستیک": 3309,
    "▁دردسر": 3310,
    "خیص": 3311,
    "وکی": 3312,
    "▁قدرتمند": 3313,
    "▁گمان": 3314,
    "نادیده": 3315,
    "▁نژادپرست": 3316,
    "▁ربط": 3317,
    "▁پیوند": 3318,
    "▁ایستاد": 3319,
    "▁زیبایی": 3320,
    "نشین": 3321,
    "رویی": 3322,
    "▁الکس": 3323,
    "▁عمان": 3324,
    "▁نمایشگر": 3325,
    "▁گرب": 3326,
    "▁ذی": 3327,
    "▁حضورش": 3328,
    "▁استخوان": 3329,
    "▁پرده": 3330,
    "▁منصور": 3331,
    "▁داری": 3332,
    "▁رغ": 3333,
    "▁حداد": 3334,
    "▁جیب": 3335,
    "▁مبادل": 3336,
    "باران": 3337,
    "۳۰": 3338,
    "▁جلسات": 3339,
    "▁سنا": 3340,
    "▁همای": 3341,
    "▁ایرانیان": 3342,
    "انکو": 3343,
    "▁افشا": 3344,
    "▁پرسش": 3345,
    "▁هول": 3346,
    "▁اکس": 3347,
    "▁کاسته": 3348,
    "تیپ": 3349,
    "گذشت": 3350,
    "رنج": 3351,
    "▁هنرها": 3352,
    "▁خیابانی": 3353,
    "▁درهای": 3354,
    "▁پیست": 3355,
    "▁جعل": 3356,
    "بازی": 3357,
    "▁درد": 3358,
    "▁بها": 3359,
    "▁شخص": 3360,
    "▁صادق": 3361,
    "مدیر": 3362,
    "▁باران": 3363,
    "▁سیار": 3364,
    "▁گروگان": 3365,
    "▁فراری": 3366,
    "▁گور": 3367,
    "▁اقلی": 3368,
    "گذار": 3369,
    "بانی": 3370,
    "بیل": 3371,
    "▁طوری": 3372,
    "▁سرباز": 3373,
    "ساب": 3374,
    "▁اپلیکیشن": 3375,
    "▁تسلیحات": 3376,
    "▁تگزاس": 3377,
    "▁شمخانی": 3378,
    "▁نتانیاهو": 3379,
    "▁وبسایت": 3380,
    "▁ارتفاع": 3381,
    "▁امتحان": 3382,
    "▁عزیزی": 3383,
    "▁محتوای": 3384,
    "▁طوفان": 3385,
    "▁لذت": 3386,
    "▁نکنید": 3387,
    "▁خوراک": 3388,
    "▁ترجیح": 3389,
    "▁زنگنه": 3390,
    "▁سئوال": 3391,
    "▁منحصر": 3392,
    "▁دادگستری": 3393,
    "▁سحر": 3394,
    "▁سرزمین": 3395,
    "▁ناحیه": 3396,
    "▁انبوه": 3397,
    "▁بعید": 3398,
    "▁نجف": 3399,
    "▁ایلنا": 3400,
    "▁بامیان": 3401,
    "▁کریکت": 3402,
    "▁عفونت": 3403,
    "▁فلز": 3404,
    "▁لرز": 3405,
    "▁مصدومیت": 3406,
    "▁ولز": 3407,
    "▁کیهان": 3408,
    "▁پیک": 3409,
    "▁زوج": 3410,
    "▁اندیش": 3411,
    "▁مدارس": 3412,
    "بع": 3413,
    "▁نیافت": 3414,
    "غال": 3415,
    "▁تکان": 3416,
    "▁موک": 3417,
    "شاهی": 3418,
    "▁مزار": 3419,
    "▁محسن": 3420,
    "▁باخته": 3421,
    "▁قم": 3422,
    "▁مطالعات": 3423,
    "▁گریز": 3424,
    "▁خودروها": 3425,
    "▁صرفا": 3426,
    "▁یور": 3427,
    "داع": 3428,
    "▁پپ": 3429,
    "▁کرام": 3430,
    "▁جدال": 3431,
    "اول": 3432,
    "▁ماس": 3433,
    "▁وظ": 3434,
    "▁کاردن": 3435,
    "▁فراگیر": 3436,
    "▁گردن": 3437,
    "▁مال": 3438,
    "▁استعداد": 3439,
    "▁نقدی": 3440,
    "▁اوست": 3441,
    "▁اگر": 3442,
    "▁افتد": 3443,
    "▁قربانی": 3444,
    "▁دوام": 3445,
    "▁۶۷": 3446,
    "▁۳۷": 3447,
    "اشا": 3448,
    "آوری": 3449,
    "ناز": 3450,
    "▁گرگ": 3451,
    "▁روسی": 3452,
    "▁نامدار": 3453,
    "دور": 3454,
    "ستگی": 3455,
    "اژ": 3456,
    "▁عام": 3457,
    "▁اسک": 3458,
    "▁روسا": 3459,
    "▁تماشا": 3460,
    "هالی": 3461,
    "▁ترور": 3462,
    "خرج": 3463,
    "▁خواستند": 3464,
    "یفه": 3465,
    "▁جف": 3466,
    "پار": 3467,
    "▁استخر": 3468,
    "▁شایع": 3469,
    "▁سران": 3470,
    "ائل": 3471,
    "▁ازبکستان": 3472,
    "▁علامت": 3473,
    "▁متقاضی": 3474,
    "▁پرافتخار": 3475,
    "▁هیأت": 3476,
    "▁ولسوال": 3477,
    "▁اشتغال": 3478,
    "▁کمربند": 3479,
    "▁معیشت": 3480,
    "▁تخیل": 3481,
    "▁بکشد": 3482,
    "▁برساند": 3483,
    "جن": 3484,
    "▁همسان": 3485,
    "▁پیاده": 3486,
    "▁غریب": 3487,
    "▁طنز": 3488,
    "▁یوفا": 3489,
    "▁پروان": 3490,
    "▁نادرست": 3491,
    "▁زیان": 3492,
    "بیش": 3493,
    "▁صلاح": 3494,
    "▁اضطراب": 3495,
    "▁گردشگران": 3496,
    "▁فیلتر": 3497,
    "▁پردازد": 3498,
    "▁مرم": 3499,
    "زیگ": 3500,
    "▁ببرد": 3501,
    "فضل": 3502,
    "▁کرمان": 3503,
    "▁پالا": 3504,
    "▁احساسات": 3505,
    "▁پیمان": 3506,
    "▁منشا": 3507,
    "نویس": 3508,
    "▁بگو": 3509,
    "▁اختلافات": 3510,
    "▁ناب": 3511,
    "▁ساختار": 3512,
    "▁امن": 3513,
    "▁تایم": 3514,
    "ارل": 3515,
    "▁منته": 3516,
    "اپ": 3517,
    "▁امان": 3518,
    "▁تمرکز": 3519,
    "▁هستم": 3520,
    "خواهید": 3521,
    "▁آوردند": 3522,
    "▁طیف": 3523,
    "▁پرسید": 3524,
    "▁برگ": 3525,
    "ویچ": 3526,
    "▁آزمایی": 3527,
    "▁۵۶": 3528,
    "▁یکصد": 3529,
    "▁بقای": 3530,
    "▁۹۱": 3531,
    "▁فیلمساز": 3532,
    "▁کان": 3533,
    "▁مرس": 3534,
    "▁بوش": 3535,
    "▁عزاداری": 3536,
    "لیگ": 3537,
    "عباس": 3538,
    "محمود": 3539,
    "صورت": 3540,
    "▁لاش": 3541,
    "▁خوردن": 3542,
    "امسال": 3543,
    "▁۵۲": 3544,
    "▁سیام": 3545,
    "▁ران": 3546,
    "شیر": 3547,
    "▁سرو": 3548,
    "▁آیند": 3549,
    "▁تخلف": 3550,
    "قص": 3551,
    "▁خانوادگی": 3552,
    "▁دقایق": 3553,
    "▁زلزله": 3554,
    "▁سانتریفیوژ": 3555,
    "▁غربالگری": 3556,
    "▁قاضی": 3557,
    "▁والیبال": 3558,
    "▁برانگیخت": 3559,
    "▁تفاهم": 3560,
    "▁تلگرام": 3561,
    "▁۲۰۲۲": 3562,
    "▁برگرداند": 3563,
    "▁بلاروس": 3564,
    "▁اعزام": 3565,
    "▁تفریح": 3566,
    "▁توفیق": 3567,
    "▁مقصر": 3568,
    "▁مصون": 3569,
    "▁معلول": 3570,
    "▁توماس": 3571,
    "▁راموس": 3572,
    "▁بیلسا": 3573,
    "▁ناامن": 3574,
    "▁دادسرا": 3575,
    "▁۱۹۸۶": 3576,
    "▁نکردن": 3577,
    "▁طبری": 3578,
    "▁نقص": 3579,
    "▁شیراز": 3580,
    "فتن": 3581,
    "▁خاموش": 3582,
    "▁رسول": 3583,
    "▁کشی": 3584,
    "▁جمال": 3585,
    "▁کمرنگ": 3586,
    "▁تقدی": 3587,
    "اطم": 3588,
    "▁اهداف": 3589,
    "▁آنقدر": 3590,
    "▁صبر": 3591,
    "▁محاسبات": 3592,
    "▁رنو": 3593,
    "▁اطل": 3594,
    "رالله": 3595,
    "خان": 3596,
    "▁سرنشینان": 3597,
    "بورن": 3598,
    "▁مسیح": 3599,
    "▁همیلتون": 3600,
    "▁ترسیم": 3601,
    "▁کول": 3602,
    "▁اصلاحات": 3603,
    "موند": 3604,
    "▁ذخا": 3605,
    "▁استرالیایی": 3606,
    "▁گیل": 3607,
    "▁معمار": 3608,
    "▁گمانه": 3609,
    "▁شاهین": 3610,
    "▁گویی": 3611,
    "▁گذاشتن": 3612,
    "▁فرج": 3613,
    "▁توانم": 3614,
    "▁۷۷": 3615,
    "▁درس": 3616,
    "تلاف": 3617,
    "▁بستن": 3618,
    "▁صحن": 3619,
    "طل": 3620,
    "▁میلیاردها": 3621,
    "ظن": 3622,
    "▁نخ": 3623,
    "▁وب": 3624,
    "وستهم": 3625,
    "▁پرند": 3626,
    "▁ثروتمند": 3627,
    "پذیر": 3628,
    "بزرگ": 3629,
    "طبق": 3630,
    "▁مهاجر": 3631,
    "▁۱۲۰": 3632,
    "آنها": 3633,
    "▁بوک": 3634,
    "▁معترض": 3635,
    "▁جلالی": 3636,
    "▁اعضا": 3637,
    "ختم": 3638,
    "▁کهن": 3639,
    "▁۱۹۳": 3640,
    "▁رساندن": 3641,
    "داوم": 3642,
    "▁استرازنکا": 3643,
    "▁الانبیا": 3644,
    "▁بنگلادش": 3645,
    "▁تأثیر": 3646,
    "▁تحمیل": 3647,
    "▁دموکرات": 3648,
    "▁پروتئین": 3649,
    "▁ابعاد": 3650,
    "▁مفهوم": 3651,
    "▁موظف": 3652,
    "▁ناآرام": 3653,
    "▁کارگزار": 3654,
    "▁اخلال": 3655,
    "▁بازگردد": 3656,
    "▁تعدیل": 3657,
    "▁کنسول": 3658,
    "▁آشفت": 3659,
    "▁ارمنستان": 3660,
    "▁تدوین": 3661,
    "▁سراغ": 3662,
    "▁لیدز": 3663,
    "▁بامداد": 3664,
    "▁منتف": 3665,
    "▁مفید": 3666,
    "▁لهستان": 3667,
    "مرد": 3668,
    "▁بنیانگذار": 3669,
    "▁نکند": 3670,
    "▁لمس": 3671,
    "▁قریب": 3672,
    "▁تایسون": 3673,
    "▁بخصوص": 3674,
    "▁تلفیق": 3675,
    "▁پیمانکار": 3676,
    "▁مبادلات": 3677,
    "▁عروسک": 3678,
    "▁مبنای": 3679,
    "▁عطرساز": 3680,
    "▁جهاد": 3681,
    "▁شریک": 3682,
    "روج": 3683,
    "▁۱۹۷": 3684,
    "▁روستایی": 3685,
    "وطن": 3686,
    "▁دیگو": 3687,
    "▁پایدار": 3688,
    "یژن": 3689,
    "پول": 3690,
    "▁خریداران": 3691,
    "جایی": 3692,
    "ممکن": 3693,
    "▁پیکر": 3694,
    "▁تاک": 3695,
    "▁آبادی": 3696,
    "ارغ": 3697,
    "فیه": 3698,
    "▁تروی": 3699,
    "▁نیو": 3700,
    "▁صادرکنند": 3701,
    "▁اتل": 3702,
    "▁رول": 3703,
    "▁سگ": 3704,
    "▁ریو": 3705,
    "▁خبرهای": 3706,
    "مجانی": 3707,
    "راب": 3708,
    "ناتور": 3709,
    "۲۵": 3710,
    "راحل": 3711,
    "احمد": 3712,
    "آمیز": 3713,
    "شاخص": 3714,
    "فیلم": 3715,
    "ظهر": 3716,
    "▁ساک": 3717,
    "عادل": 3718,
    "▁بریت": 3719,
    "▁اخ": 3720,
    "▁نظریه": 3721,
    "▁اموا": 3722,
    "عکس": 3723,
    "▁نسب": 3724,
    "▁بول": 3725,
    "▁غم": 3726,
    "▁لیگا": 3727,
    "تاسف": 3728,
    "خصیص": 3729,
    "▁تخصص": 3730,
    "▁لالیگا": 3731,
    "▁نیوزیلند": 3732,
    "▁متخلف": 3733,
    "▁دعوا": 3734,
    "▁نساجی": 3735,
    "▁ببینید": 3736,
    "▁نوبخت": 3737,
    "▁تکلیف": 3738,
    "▁شجاع": 3739,
    "▁تسلیت": 3740,
    "▁صنف": 3741,
    "▁مقطع": 3742,
    "▁عرف": 3743,
    "▁اکسیژن": 3744,
    "▁ابهام": 3745,
    "▁بدانیم": 3746,
    "▁دقت": 3747,
    "▁مارتین": 3748,
    "▁آموزان": 3749,
    "▁رابرت": 3750,
    "▁وسط": 3751,
    "▁تایلند": 3752,
    "▁ایراد": 3753,
    "▁اسپرت": 3754,
    "▁یونان": 3755,
    "▁مکرون": 3756,
    "▁مهرماه": 3757,
    "▁نشت": 3758,
    "تمرکز": 3759,
    "▁شاهکار": 3760,
    "▁۱۳۴": 3761,
    "▁جنبه": 3762,
    "▁۴۳": 3763,
    "▁بشار": 3764,
    "▁نیوک": 3765,
    "▁سلف": 3766,
    "▁آورند": 3767,
    "▁دستیابی": 3768,
    "▁مهاجران": 3769,
    "▁۴۶": 3770,
    "▁کشند": 3771,
    "▁دانم": 3772,
    "▁تاپ": 3773,
    "▁معنا": 3774,
    "▁انتقالات": 3775,
    "▁رزم": 3776,
    "بالغ": 3777,
    "▁سیف": 3778,
    "▁گوگ": 3779,
    "▁قوس": 3780,
    "▁ظهر": 3781,
    "وریا": 3782,
    "▁ادا": 3783,
    "دانشمندان": 3784,
    "لیورپول": 3785,
    "پلیس": 3786,
    "▁بینند": 3787,
    "یحی": 3788,
    "شیوع": 3789,
    "کدام": 3790,
    "۶۳": 3791,
    "اولین": 3792,
    "ایع": 3793,
    "▁اوین": 3794,
    "▁خند": 3795,
    "▁باتر": 3796,
    "▁رنج": 3797,
    "▁زک": 3798,
    "▁داغ": 3799,
    "▁بروکسل": 3800,
    "▁منتخب": 3801,
    "▁سکونت": 3802,
    "▁لبخند": 3803,
    "▁متاثر": 3804,
    "▁مرخص": 3805,
    "▁ناچار": 3806,
    "▁شاگردان": 3807,
    "▁برخلاف": 3808,
    "▁شنیدن": 3809,
    "▁تروریستی": 3810,
    "▁تعامل": 3811,
    "▁لنون": 3812,
    "▁نکنند": 3813,
    "▁دوپینگ": 3814,
    "▁ثمر": 3815,
    "▁اسرار": 3816,
    "▁منچستریونایتد": 3817,
    "▁شوهر": 3818,
    "▁تاکتیک": 3819,
    "▁پرستار": 3820,
    "▁سرگرم": 3821,
    "▁بیروت": 3822,
    "▁تماشاچی": 3823,
    "▁کشاند": 3824,
    "▁پوشاند": 3825,
    "▁ونیز": 3826,
    "سیویر": 3827,
    "▁الزام": 3828,
    "▁یمانی": 3829,
    "▁کابین": 3830,
    "▁کاشی": 3831,
    "▁جالب": 3832,
    "▁استراتژیک": 3833,
    "▁آیین": 3834,
    "▁۲۰۰۳": 3835,
    "▁ویلیامز": 3836,
    "▁هاوس": 3837,
    "لحق": 3838,
    "▁معارف": 3839,
    "▁چراغ": 3840,
    "▁ناجی": 3841,
    "▁محبوبیت": 3842,
    "▁شهریار": 3843,
    "▁منظر": 3844,
    "▁پناهندگ": 3845,
    "▁ویکتور": 3846,
    "▁فلیک": 3847,
    "▁کاست": 3848,
    "▁آبادان": 3849,
    "▁خرند": 3850,
    "▁نت": 3851,
    "▁نوآور": 3852,
    "▁سربازان": 3853,
    "▁بومی": 3854,
    "▁گال": 3855,
    "سیا": 3856,
    "▁۱۵۰۰": 3857,
    "▁۶۲": 3858,
    "اسل": 3859,
    "▁عج": 3860,
    "▁پیوستن": 3861,
    "▁پراکند": 3862,
    "لینی": 3863,
    "▁اسد": 3864,
    "▁گلو": 3865,
    "اقد": 3866,
    "لندر": 3867,
    "▁زور": 3868,
    "▁مقا": 3869,
    "▁گارد": 3870,
    "▁سیزدهم": 3871,
    "جیره": 3872,
    "▁ارگ": 3873,
    "▁ایوان": 3874,
    "▁قراردادش": 3875,
    "▁پوری": 3876,
    "مرکز": 3877,
    "▁پیچ": 3878,
    "▁لق": 3879,
    "▁بازماند": 3880,
    "▁اسکو": 3881,
    "▁همگ": 3882,
    "▁دوحه": 3883,
    "▁بدل": 3884,
    "▁دارا": 3885,
    "▁۷۳": 3886,
    "▁افشار": 3887,
    "▁سیزده": 3888,
    "واقع": 3889,
    "▁وسی": 3890,
    "مراسم": 3891,
    "شاید": 3892,
    "عنوان": 3893,
    "آمار": 3894,
    "▁وار": 3895,
    "فروش": 3896,
    "اصل": 3897,
    "▁کشیدن": 3898,
    "▁کنیا": 3899,
    "حالا": 3900,
    "▁تحری": 3901,
    "بعد": 3902,
    "جونز": 3903,
    "▁مقدم": 3904,
    "▁مستق": 3905,
    "۳۱": 3906,
    "▁ثروت": 3907,
    "▁آباد": 3908,
    "▁انقراض": 3909,
    "▁دژپسند": 3910,
    "▁فلوریدا": 3911,
    "▁مایکروسافت": 3912,
    "▁ناپدید": 3913,
    "▁اعتراف": 3914,
    "▁تعقیب": 3915,
    "▁مأمور": 3916,
    "▁شلوغ": 3917,
    "▁محاکم": 3918,
    "▁سردبیر": 3919,
    "▁کارفرما": 3920,
    "▁جاشوا": 3921,
    "▁سادات": 3922,
    "▁تعمیر": 3923,
    "▁استثنا": 3924,
    "▁رفاه": 3925,
    "▁کارلوس": 3926,
    "▁بندرعباس": 3927,
    "▁حرم": 3928,
    "▁نرفت": 3929,
    "▁نوزاد": 3930,
    "▁تشری": 3931,
    "▁خوشنام": 3932,
    "▁خارا": 3933,
    "▁همتای": 3934,
    "▁قطار": 3935,
    "▁ساویز": 3936,
    "▁دزد": 3937,
    "▁مکرر": 3938,
    "کوویچ": 3939,
    "▁یوگا": 3940,
    "▁اریک": 3941,
    "▁خرابکار": 3942,
    "▁بگیریم": 3943,
    "▁رخداد": 3944,
    "▁متناسب": 3945,
    "▁بزوس": 3946,
    "▁ویدئو": 3947,
    "▁بزنند": 3948,
    "▁تقابل": 3949,
    "▁طرفدار": 3950,
    "▁شاخ": 3951,
    "▁تخلفات": 3952,
    "▁پرندگان": 3953,
    "▁رصد": 3954,
    "▁۵۳": 3955,
    "▁پلاک": 3956,
    "▁سینماها": 3957,
    "▁وزارتخانه": 3958,
    "▁کلود": 3959,
    "▁متشک": 3960,
    "▁لحظات": 3961,
    "▁بجا": 3962,
    "▁بگیر": 3963,
    "گفت": 3964,
    "▁نیش": 3965,
    "▁سازد": 3966,
    "▁نوشتن": 3967,
    "▁تالا": 3968,
    "▁گردند": 3969,
    "عداد": 3970,
    "▁آوردن": 3971,
    "▁روزمر": 3972,
    "▁تار": 3973,
    "▁بوق": 3974,
    "▁ازای": 3975,
    "▁کردستان": 3976,
    "▁دهک": 3977,
    "وارد": 3978,
    "▁برادرش": 3979,
    "▁بروند": 3980,
    "امیر": 3981,
    "▁ملا": 3982,
    "▁نورد": 3983,
    "پوری": 3984,
    "شناسی": 3985,
    "▁مادران": 3986,
    "آر": 3987,
    "الدین": 3988,
    "اتحاد": 3989,
    "قدس": 3990,
    "بازار": 3991,
    "▁شدیدتر": 3992,
    "▁بمب": 3993,
    "▁ظه": 3994,
    "▁اختلا": 3995,
    "▁هوادار": 3996,
    "▁ویلیام": 3997,
    "ولوژی": 3998,
    "▁مقرر": 3999,
    "▁آنفلوآنزا": 4000,
    "▁بلومبرگ": 4001,
    "▁حرکات": 4002,
    "▁مشکوک": 4003,
    "▁پناهجویان": 4004,
    "▁استراحت": 4005,
    "▁مشورت": 4006,
    "▁اخطار": 4007,
    "▁لزوم": 4008,
    "▁تجلیل": 4009,
    "▁خیانت": 4010,
    "▁ذکر": 4011,
    "▁تعجب": 4012,
    "▁بکشند": 4013,
    "▁بمانند": 4014,
    "▁فرونشست": 4015,
    "▁کمپین": 4016,
    "تابعیت": 4017,
    "▁عبدی": 4018,
    "▁مقیم": 4019,
    "▁حاجی": 4020,
    "▁دانشکد": 4021,
    "▁سالمندان": 4022,
    "▁پیشگام": 4023,
    "▁کامیون": 4024,
    "▁اسپوت": 4025,
    "▁دشت": 4026,
    "▁عالم": 4027,
    "▁بورل": 4028,
    "مختار": 4029,
    "▁ویزا": 4030,
    "▁متعهد": 4031,
    "▁۲۰۳۰": 4032,
    "▁آهنگساز": 4033,
    "۲۳": 4034,
    "▁ژنو": 4035,
    "▁بوشهر": 4036,
    "▁زنجان": 4037,
    "اصو": 4038,
    "منستان": 4039,
    "▁الحسن": 4040,
    "▁حجاب": 4041,
    "▁ژوز": 4042,
    "▁۱۳۹۵": 4043,
    "▁کمدی": 4044,
    "نصف": 4045,
    "عارف": 4046,
    "برد": 4047,
    "▁خوک": 4048,
    "▁مرگبار": 4049,
    "▁فرض": 4050,
    "▁یکسان": 4051,
    "▁سیاستمداران": 4052,
    "▁کارگروه": 4053,
    "▁رانندگی": 4054,
    "▁شوید": 4055,
    "▁ژنتیک": 4056,
    "▁وحید": 4057,
    "▁۵۹": 4058,
    "تیکو": 4059,
    "▁روبروست": 4060,
    "▁خلوت": 4061,
    "▁اندازد": 4062,
    "▁ستارگان": 4063,
    "▁ریچارد": 4064,
    "تراشه": 4065,
    "▁لیور": 4066,
    "▁الع": 4067,
    "کام": 4068,
    "چهار": 4069,
    "رسون": 4070,
    "▁بایست": 4071,
    "▁گزارشگران": 4072,
    "▁جنس": 4073,
    "▁۸۰۰": 4074,
    "▁بازنشست": 4075,
    "▁آپ": 4076,
    "▁گانه": 4077,
    "▁نوید": 4078,
    "▁شون": 4079,
    "خاطر": 4080,
    "▁جین": 4081,
    "▁تقویم": 4082,
    "صول": 4083,
    "▁تام": 4084,
    "▁ماهیگیر": 4085,
    "▁رنجر": 4086,
    "▁پرهی": 4087,
    "▁ریل": 4088,
    "▁نسبتا": 4089,
    "فاد": 4090,
    "▁پارس": 4091,
    "▁حریفان": 4092,
    "▁طرز": 4093,
    "▁کاوا": 4094,
    "▁شاعران": 4095,
    "▁ویلا": 4096,
    "▁ساختن": 4097,
    "ضعیف": 4098,
    "پژوهشگران": 4099,
    "مسئولان": 4100,
    "استفاده": 4101,
    "آبادی": 4102,
    "شدت": 4103,
    "▁تثب": 4104,
    "دادگاه": 4105,
    "آخری": 4106,
    "▁مگا": 4107,
    "عمل": 4108,
    "باط": 4109,
    "نواک": 4110,
    "▁گرمای": 4111,
    "▁استراتژی": 4112,
    "دخت": 4113,
    "▁اعتقاد": 4114,
    "▁اعتیاد": 4115,
    "▁انصاریان": 4116,
    "▁دایناسور": 4117,
    "▁عنکبوت": 4118,
    "▁فلسفه": 4119,
    "▁مواضع": 4120,
    "▁پرطرفدار": 4121,
    "▁کاغذ": 4122,
    "▁تحرک": 4123,
    "▁مشکات": 4124,
    "▁همجنس": 4125,
    "▁تضمین": 4126,
    "▁وزرای": 4127,
    "▁ابتکار": 4128,
    "▁یهودی": 4129,
    "▁ویرجی": 4130,
    "▁ببینند": 4131,
    "▁مسایل": 4132,
    "▁خرسند": 4133,
    "▁ستایش": 4134,
    "▁فرگوسن": 4135,
    "▁منفجر": 4136,
    "▁نظم": 4137,
    "▁بگوییم": 4138,
    "▁فجر": 4139,
    "▁مکتب": 4140,
    "▁منوچ": 4141,
    "▁برگردد": 4142,
    "▁خشن": 4143,
    "▁ضایع": 4144,
    "▁بختیار": 4145,
    "▁منزل": 4146,
    "▁۱۳۳": 4147,
    "▁استودیو": 4148,
    "▁دماوند": 4149,
    "▁مسکو": 4150,
    "سیتی": 4151,
    "مکعب": 4152,
    "▁معلم": 4153,
    "▁زبا": 4154,
    "▁اسلم": 4155,
    "▁نروژ": 4156,
    "▁اتکا": 4157,
    "▁۶۱": 4158,
    "▁ارج": 4159,
    "▁همرسان": 4160,
    "▁آزمو": 4161,
    "▁حکمتی": 4162,
    "▁بزن": 4163,
    "▁شیمی": 4164,
    "▁شایعات": 4165,
    "▁کشتار": 4166,
    "سپاری": 4167,
    "▁تالار": 4168,
    "▁۷۴": 4169,
    "▁ادعاهای": 4170,
    "▁۶۴": 4171,
    "▁دشمنان": 4172,
    "▁جلال": 4173,
    "▁کاربرد": 4174,
    "▁نمود": 4175,
    "▁زخم": 4176,
    "▁ماریا": 4177,
    "▁سفی": 4178,
    "▁آفرین": 4179,
    "▁ادب": 4180,
    "هدیه": 4181,
    "لوب": 4182,
    "▁الیز": 4183,
    "▁رایج": 4184,
    "سلط": 4185,
    "▁گرند": 4186,
    "▁سام": 4187,
    "▁فای": 4188,
    "▁فرید": 4189,
    "▁کرو": 4190,
    "▁سرما": 4191,
    "▁قدمت": 4192,
    "▁نامزدها": 4193,
    "▁تیل": 4194,
    "▁کلام": 4195,
    "▁دال": 4196,
    "▁جانور": 4197,
    "▁شناسان": 4198,
    "▁شکن": 4199,
    "▁شع": 4200,
    "▁۹۰۰": 4201,
    "واک": 4202,
    "▁منطق": 4203,
    "▁۷۲": 4204,
    "▁سنج": 4205,
    "▁۴۱": 4206,
    "▁خودران": 4207,
    "ذب": 4208,
    "گبا": 4209,
    "▁پسرش": 4210,
    "ایح": 4211,
    "▁عقید": 4212,
    "آنتونی": 4213,
    "سلیم": 4214,
    "استقلال": 4215,
    "خارجه": 4216,
    "خودرو": 4217,
    "انتخاب": 4218,
    "علیرضا": 4219,
    "جانب": 4220,
    "مدت": 4221,
    "انکن": 4222,
    "حقق": 4223,
    "▁رتکلیف": 4224,
    "▁مازندران": 4225,
    "▁وحدت": 4226,
    "▁کارداشیان": 4227,
    "▁تحقیر": 4228,
    "▁دریابندری": 4229,
    "▁روشنفکر": 4230,
    "▁مجاهد": 4231,
    "▁ورشکست": 4232,
    "▁تعزیری": 4233,
    "▁مرجع": 4234,
    "▁آشوری": 4235,
    "▁محوطه": 4236,
    "▁ترافیک": 4237,
    "▁اشتراک": 4238,
    "▁ماندگار": 4239,
    "▁کیانوش": 4240,
    "▁معدود": 4241,
    "▁پیرلو": 4242,
    "▁ناامید": 4243,
    "▁خادم": 4244,
    "نظرسنجی": 4245,
    "▁خویش": 4246,
    "▁فلوید": 4247,
    "▁تعبیر": 4248,
    "▁بیفتد": 4249,
    "▁سیگار": 4250,
    "مالاریا": 4251,
    "▁ابوال": 4252,
    "▁مبدا": 4253,
    "▁وصل": 4254,
    "▁ببیند": 4255,
    "▁پیشتاز": 4256,
    "▁پشتیبان": 4257,
    "▁زغال": 4258,
    "▁تیرماه": 4259,
    "▁سایبری": 4260,
    "▁کوهستان": 4261,
    "▁بلوچ": 4262,
    "پراتور": 4263,
    "▁شیلی": 4264,
    "▁آرامکو": 4265,
    "▁تسلیم": 4266,
    "▁تنوع": 4267,
    "تکب": 4268,
    "▁کولبر": 4269,
    "▁ارزشمند": 4270,
    "▁کپی": 4271,
    "▁دیدگاه": 4272,
    "▁۱۳۹۶": 4273,
    "▁صح": 4274,
    "▁آرمان": 4275,
    "▁جنایت": 4276,
    "▁کانت": 4277,
    "▁همینطور": 4278,
    "▁گرایان": 4279,
    "▁استاندارد": 4280,
    "▁کاظم": 4281,
    "▁۷۸": 4282,
    "نقل": 4283,
    "ابلو": 4284,
    "▁وجه": 4285,
    "▁لاری": 4286,
    "عطا": 4287,
    "▁برلین": 4288,
    "▁بارداری": 4289,
    "▁دیپلمات": 4290,
    "▁فرانک": 4291,
    "▁شنو": 4292,
    "▁مصطف": 4293,
    "دوست": 4294,
    "▁دارید": 4295,
    "مهدی": 4296,
    "▁موجودات": 4297,
    "مجتب": 4298,
    "▁رضایی": 4299,
    "▁نداشتن": 4300,
    "▁صفحات": 4301,
    "لاتین": 4302,
    "▁اذ": 4303,
    "وستا": 4304,
    "▁بلو": 4305,
    "▁جبه": 4306,
    "۹۰": 4307,
    "▁شانزدهم": 4308,
    "▁شرمن": 4309,
    "پرس": 4310,
    "▁انجامید": 4311,
    "وتو": 4312,
    "▁مسیرهای": 4313,
    "▁پرتر": 4314,
    "ویل": 4315,
    "▁لیست": 4316,
    "▁آمدند": 4317,
    "▁مغاز": 4318,
    "مرث": 4319,
    "▁تیک": 4320,
    "برداری": 4321,
    "وفر": 4322,
    "▁مهل": 4323,
    "آلود": 4324,
    "▁اکرا": 4325,
    "▁ردیاب": 4326,
    "رشد": 4327,
    "صرف": 4328,
    "▁شاپو": 4329,
    "ظاهر": 4330,
    "محققان": 4331,
    "اقتصاد": 4332,
    "معاون": 4333,
    "منابع": 4334,
    "▁معما": 4335,
    "رقابت": 4336,
    "فصل": 4337,
    "برنامه": 4338,
    "▁مامور": 4339,
    "دیگر": 4340,
    "▁دشمن": 4341,
    "▁گار": 4342,
    "درصد": 4343,
    "فرج": 4344,
    "▁حیوان": 4345,
    "سئول": 4346,
    "قامت": 4347,
    "▁رمزارز": 4348,
    "▁مختل": 4349,
    "▁عصب": 4350,
    "هنورد": 4351,
    "بفرستید": 4352,
    "▁آسوشیتدپرس": 4353,
    "▁آپارتمان": 4354,
    "▁صداوسیما": 4355,
    "▁فروپاشی": 4356,
    "▁لامبورگینی": 4357,
    "▁مزرعه": 4358,
    "▁پائی": 4359,
    "▁پارالمپیک": 4360,
    "▁ودیعه": 4361,
    "▁کلاهبردار": 4362,
    "▁بدخشان": 4363,
    "▁تبادل": 4364,
    "▁انگشت": 4365,
    "▁ثانوی": 4366,
    "گراندپری": 4367,
    "▁برآمد": 4368,
    "▁آرشیو": 4369,
    "▁گشود": 4370,
    "▁مدیترانه": 4371,
    "▁نشیب": 4372,
    "▁نوزدهم": 4373,
    "▁اندرکار": 4374,
    "▁تتلو": 4375,
    "▁خزر": 4376,
    "▁قزاقستان": 4377,
    "کارآمد": 4378,
    "▁پراید": 4379,
    "▁فتاح": 4380,
    "▁رجب": 4381,
    "▁توفان": 4382,
    "▁فسیل": 4383,
    "▁ترسناک": 4384,
    "▁نکات": 4385,
    "منازع": 4386,
    "▁چوب": 4387,
    "ضعف": 4388,
    "پادمان": 4389,
    "درفتار": 4390,
    "▁خزان": 4391,
    "▁الگوی": 4392,
    "▁اردوگاه": 4393,
    "▁سرویس": 4394,
    "▁مولوی": 4395,
    "▁لطف": 4396,
    "▁بگیرید": 4397,
    "▁تسهیلات": 4398,
    "▁غیاب": 4399,
    "▁بگویم": 4400,
    "▁عزم": 4401,
    "▁اکسید": 4402,
    "▁قرص": 4403,
    "▁مارچ": 4404,
    "▁زادگاه": 4405,
    "▁دستاوردهای": 4406,
    "▁تبعید": 4407,
    "▁اشکال": 4408,
    "▁تندرو": 4409,
    "▁مرتب": 4410,
    "▁اعطا": 4411,
    "▁حباب": 4412,
    "▁کیفر": 4413,
    "▁زیستگاه": 4414,
    "▁غالب": 4415,
    "▁مداوم": 4416,
    "▁۲۰۰۴": 4417,
    "▁گوگل": 4418,
    "▁لوکا": 4419,
    "▁علاقمندان": 4420,
    "▁هشتگ": 4421,
    "▁فیس": 4422,
    "ارمی": 4423,
    "▁تحصیلات": 4424,
    "▁پرآ": 4425,
    "▁هواپیماهای": 4426,
    "▁پهن": 4427,
    "▁شناسند": 4428,
    "▁خواهر": 4429,
    "▁توضیحات": 4430,
    "▁مرغدار": 4431,
    "▁ضربات": 4432,
    "▁یوو": 4433,
    "▁نکردند": 4434,
    "ابق": 4435,
    "▁سختگیر": 4436,
    "احی": 4437,
    "خط": 4438,
    "ونیست": 4439,
    "زاک": 4440,
    "▁انیس": 4441,
    "۱۵": 4442,
    "▁عمد": 4443,
    "▁کنو": 4444,
    "▁خطای": 4445,
    "ایدو": 4446,
    "سابقه": 4447,
    "فعالان": 4448,
    "سرعت": 4449,
    "وجود": 4450,
    "محمدجواد": 4451,
    "شتم": 4452,
    "تحول": 4453,
    "ازاد": 4454,
    "▁سرنشین": 4455,
    "لقی": 4456,
    "رسید": 4457,
    "▁جرد": 4458,
    "▁خانوار": 4459,
    "▁مصدوم": 4460,
    "کوئین": 4461,
    "▁آتالانتا": 4462,
    "▁اتوبوس": 4463,
    "▁بپردازد": 4464,
    "▁تغذیه": 4465,
    "▁خسارات": 4466,
    "▁فضاپیما": 4467,
    "▁کریسمس": 4468,
    "▁خلاقیت": 4469,
    "▁درآورد": 4470,
    "▁زحمت": 4471,
    "▁هفدهم": 4472,
    "▁وحشتناک": 4473,
    "▁سازوکار": 4474,
    "▁مصلحت": 4475,
    "▁ناشناخت": 4476,
    "▁نوازنده": 4477,
    "▁غرامت": 4478,
    "▁پیشکسوت": 4479,
    "▁ناقض": 4480,
    "▁سوگوار": 4481,
    "▁شباهت": 4482,
    "▁معالج": 4483,
    "▁لحن": 4484,
    "▁صحیح": 4485,
    "▁سکوت": 4486,
    "▁جزییات": 4487,
    "▁احتیاط": 4488,
    "▁تمدن": 4489,
    "اسحاق": 4490,
    "▁توجیه": 4491,
    "▁ندارم": 4492,
    "▁نزول": 4493,
    "▁قاعد": 4494,
    "▁بنکسی": 4495,
    "▁چهاردهم": 4496,
    "▁سعد": 4497,
    "▁داغستان": 4498,
    "انصراف": 4499,
    "▁آوازخوان": 4500,
    "▁جابجا": 4501,
    "▁متنوع": 4502,
    "▁ضدحمل": 4503,
    "▁رومانی": 4504,
    "▁۱۹۴۰": 4505,
    "▁توریست": 4506,
    "▁بردارد": 4507,
    "▁پایبند": 4508,
    "▁موازی": 4509,
    "▁۱۹۶۰": 4510,
    "▁عاشقانه": 4511,
    "ساسی": 4512,
    "▁فریب": 4513,
    "▁سارا": 4514,
    "▁گردانند": 4515,
    "▁والدین": 4516,
    "▁قاب": 4517,
    "▁گوهر": 4518,
    "▁کلیسا": 4519,
    "▁هستید": 4520,
    "▁۹۴": 4521,
    "▁تونس": 4522,
    "▁قومی": 4523,
    "▁خاور": 4524,
    "▁گرمایش": 4525,
    "یویا": 4526,
    "▁تئو": 4527,
    "▁۶۸": 4528,
    "▁کوبا": 4529,
    "رحیم": 4530,
    "▁کوهن": 4531,
    "▁شط": 4532,
    "▁جور": 4533,
    "تنها": 4534,
    "آموز": 4535,
    "۷۰": 4536,
    "▁شام": 4537,
    "صخره": 4538,
    "جمه": 4539,
    "▁۳۵۰": 4540,
    "▁صفرها": 4541,
    "▁مخاط": 4542,
    "▁جنای": 4543,
    "▁بلوک": 4544,
    "▁میرزا": 4545,
    "مارک": 4546,
    "روژ": 4547,
    "▁۱۹۰": 4548,
    "▁۸۵": 4549,
    "پزشک": 4550,
    "ماجرا": 4551,
    "خانواده": 4552,
    "علاو": 4553,
    "تولید": 4554,
    "گفتگو": 4555,
    "ارث": 4556,
    "الیز": 4557,
    "عشی": 4558,
    "چرا": 4559,
    "▁۱۷۰": 4560,
    "رهبر": 4561,
    "▁کج": 4562,
    "▁حقیق": 4563,
    "فیلد": 4564,
    "قبل": 4565,
    "▁ضر": 4566,
    "ائیل": 4567,
    "▁آغداشلو": 4568,
    "▁مغناطیس": 4569,
    "▁نامناسب": 4570,
    "▁کانسپت": 4571,
    "▁گلمکانی": 4572,
    "▁انحصار": 4573,
    "▁ایرباس": 4574,
    "▁تکنولوژی": 4575,
    "▁مرتضی": 4576,
    "▁مینیاتور": 4577,
    "▁واضح": 4578,
    "▁وظایف": 4579,
    "▁یونسکو": 4580,
    "▁مداخل": 4581,
    "▁بفروشد": 4582,
    "▁زیارت": 4583,
    "▁اقتدار": 4584,
    "▁غلط": 4585,
    "▁یادبود": 4586,
    "▁اصرار": 4587,
    "▁اوباما": 4588,
    "▁ندانست": 4589,
    "▁اسنپ": 4590,
    "▁استخدام": 4591,
    "▁لگن": 4592,
    "▁بیاورد": 4593,
    "▁محترم": 4594,
    "▁نیاورد": 4595,
    "▁نیسان": 4596,
    "▁خوست": 4597,
    "▁پوتین": 4598,
    "▁اخلاق": 4599,
    "▁مخدر": 4600,
    "▁قبال": 4601,
    "▁زهره": 4602,
    "▁جلد": 4603,
    "▁مشوق": 4604,
    "▁ایرج": 4605,
    "▁ندهد": 4606,
    "ناشناس": 4607,
    "▁محکم": 4608,
    "▁مصل": 4609,
    "▁سارس": 4610,
    "▁مدرک": 4611,
    "▁هشتصد": 4612,
    "رگس": 4613,
    "▁ماشه": 4614,
    "حمید": 4615,
    "▁حساسیت": 4616,
    "▁معاد": 4617,
    "▁مواقع": 4618,
    "▁بازخوان": 4619,
    "▁شرح": 4620,
    "▁ادارات": 4621,
    "▁رضایت": 4622,
    "▁حتما": 4623,
    "▁مکزیک": 4624,
    "تعداد": 4625,
    "▁کیست": 4626,
    "شوه": 4627,
    "فرید": 4628,
    "▁روال": 4629,
    "موث": 4630,
    "▁همکار": 4631,
    "▁فیلمبردار": 4632,
    "▁نیل": 4633,
    "▁اجبار": 4634,
    "▁خلا": 4635,
    "دالله": 4636,
    "▁مقر": 4637,
    "▁طب": 4638,
    "مزد": 4639,
    "▁دادخواه": 4640,
    "▁۱۷۶": 4641,
    "▁عمو": 4642,
    "پتون": 4643,
    "لوله": 4644,
    "▁سطو": 4645,
    "بپرس": 4646,
    "مصطف": 4647,
    "غلام": 4648,
    "کارشناسان": 4649,
    "انتظار": 4650,
    "نمایندگان": 4651,
    "صندوق": 4652,
    "ناظر": 4653,
    "اخیرا": 4654,
    "همچنین": 4655,
    "حرف": 4656,
    "فدرر": 4657,
    "کرونا": 4658,
    "آفرین": 4659,
    "بورس": 4660,
    "▁سکت": 4661,
    "▁بدوی": 4662,
    "▁دستاورد": 4663,
    "▁مصر": 4664,
    "▁آبراموویچ": 4665,
    "▁اکتشاف": 4666,
    "▁ترانزیت": 4667,
    "▁جغرافیای": 4668,
    "▁غیرنظامی": 4669,
    "▁فزاینده": 4670,
    "▁متغیر": 4671,
    "▁پنگوئن": 4672,
    "▁پهپاد": 4673,
    "▁گابریل": 4674,
    "▁آسمایی": 4675,
    "▁خفیف": 4676,
    "▁زیرساخت": 4677,
    "▁یخچال": 4678,
    "▁راپینو": 4679,
    "▁زریاب": 4680,
    "▁تفکیک": 4681,
    "▁آمبول": 4682,
    "فینیتی": 4683,
    "▁مطلوب": 4684,
    "▁طعم": 4685,
    "▁فطر": 4686,
    "فاضل": 4687,
    "▁عضلا": 4688,
    "▁نیجر": 4689,
    "▁فهمید": 4690,
    "▁بازنگری": 4691,
    "▁لاریجان": 4692,
    "▁آشام": 4693,
    "▁رقبا": 4694,
    "▁مظاهری": 4695,
    "▁مثلث": 4696,
    "▁بینداز": 4697,
    "هدف": 4698,
    "▁مسافت": 4699,
    "▁مجرم": 4700,
    "▁کالبد": 4701,
    "جیمزباند": 4702,
    "▁کرایس": 4703,
    "▁هرمز": 4704,
    "▁صحرا": 4705,
    "▁تکنیک": 4706,
    "▁مخلو": 4707,
    "▁حسرت": 4708,
    "▁گرایش": 4709,
    "▁مراود": 4710,
    "▁مضر": 4711,
    "▁خراب": 4712,
    "▁امواج": 4713,
    "▁چسب": 4714,
    "▁ساترا": 4715,
    "▁انگل": 4716,
    "▁شیع": 4717,
    "▁باشم": 4718,
    "▁شرکا": 4719,
    "▁سالیوان": 4720,
    "▁۱۴۰": 4721,
    "▁نیکلا": 4722,
    "▁جیپ": 4723,
    "▁پاسخگو": 4724,
    "▁۲۰۰۱": 4725,
    "▁جیل": 4726,
    "▁بوکسور": 4727,
    "▁الکل": 4728,
    "▁حفر": 4729,
    "▁سیبری": 4730,
    "▁سولو": 4731,
    "▁مایع": 4732,
    "▁حاد": 4733,
    "نوردی": 4734,
    "یاط": 4735,
    "▁بناها": 4736,
    "ساعد": 4737,
    "▁گلوب": 4738,
    "پانی": 4739,
    "لژی": 4740,
    "طرف": 4741,
    "غیب": 4742,
    "▁۹۳": 4743,
    "▁نابود": 4744,
    "گرفته": 4745,
    "▁پژو": 4746,
    "▁فدرا": 4747,
    "ونتی": 4748,
    "راجر": 4749,
    "▁۸۳": 4750,
    "▁۸۹": 4751,
    "▁تابو": 4752,
    "صالح": 4753,
    "دونالد": 4754,
    "قهرمان": 4755,
    "پرسپولیس": 4756,
    "مجلس": 4757,
    "باشگاه": 4758,
    "موسس": 4759,
    "مشخص": 4760,
    "نفتی": 4761,
    "▁متیو": 4762,
    "دهنده": 4763,
    "▁نویسندگ": 4764,
    "تلاش": 4765,
    "صداق": 4766,
    "▁واحدها": 4767,
    "▁اپرا": 4768,
    "▁آموزگار": 4769,
    "▁ارتقا": 4770,
    "▁انستیتو": 4771,
    "▁اپیدمی": 4772,
    "▁باورنکردنی": 4773,
    "▁بلندپرواز": 4774,
    "▁تخفیف": 4775,
    "▁رونالدینیو": 4776,
    "▁زودهنگام": 4777,
    "▁عواقب": 4778,
    "▁مشتاق": 4779,
    "▁نگذاشت": 4780,
    "▁انباشت": 4781,
    "▁خرچنگ": 4782,
    "▁دگرگون": 4783,
    "▁گرجستان": 4784,
    "▁مستضعفان": 4785,
    "▁نصیب": 4786,
    "▁نوشیدن": 4787,
    "▁سرتاسر": 4788,
    "▁میکروب": 4789,
    "▁بگذارند": 4790,
    "▁تفسیر": 4791,
    "▁تضاد": 4792,
    "اتکلیف": 4793,
    "▁ساسانی": 4794,
    "▁گرسنگ": 4795,
    "▁حراست": 4796,
    "▁شارژ": 4797,
    "▁آموخت": 4798,
    "▁بنتلی": 4799,
    "▁جرایم": 4800,
    "▁برشمرد": 4801,
    "خاذ": 4802,
    "▁گودال": 4803,
    "▁قسط": 4804,
    "▁بفتا": 4805,
    "▁گواهی": 4806,
    "▁غیبت": 4807,
    "▁ناتوان": 4808,
    "▁بفهم": 4809,
    "▁تبریک": 4810,
    "▁متوفی": 4811,
    "▁گناه": 4812,
    "▁شستا": 4813,
    "▁مکمل": 4814,
    "▁واریز": 4815,
    "▁پردرآمد": 4816,
    "▁مثل": 4817,
    "▁دندان": 4818,
    "▁خیال": 4819,
    "▁کولمن": 4820,
    "▁گلایه": 4821,
    "▁شکوف": 4822,
    "▁ریورا": 4823,
    "▁فرایند": 4824,
    "▁۱۹۸۰": 4825,
    "▁فخر": 4826,
    "▁کلینیک": 4827,
    "▁حبیب": 4828,
    "▁آنفیلد": 4829,
    "▁معاش": 4830,
    "▁۱۹۷۰": 4831,
    "خیر": 4832,
    "▁روبرت": 4833,
    "▁نژادپرستانه": 4834,
    "▁هیدرو": 4835,
    "▁پررنگ": 4836,
    "▁سیارک": 4837,
    "ژیم": 4838,
    "هرانا": 4839,
    "▁حفا": 4840,
    "▁تیموری": 4841,
    "▁لط": 4842,
    "قرب": 4843,
    "وفون": 4844,
    "سیلوا": 4845,
    "ستانگ": 4846,
    "▁گروگانگیر": 4847,
    "قیاس": 4848,
    "▁انتها": 4849,
    "▁ثروتمندتر": 4850,
    "گذران": 4851,
    "▁۶۵۰": 4852,
    "امضاکنندگان": 4853,
    "▁قربان": 4854,
    "کجاست": 4855,
    "لمپ": 4856,
    "واشی": 4857,
    "▁نگرفت": 4858,
    "▁منصو": 4859,
    "تواند": 4860,
    "کانادا": 4861,
    "عکاس": 4862,
    "واکنش": 4863,
    "خورده": 4864,
    "کاهش": 4865,
    "▁علاقمند": 4866,
    "ستردا": 4867,
    "لینگ": 4868,
    "▁سلام": 4869,
    "▁آلومینیوم": 4870,
    "▁اتیوپی": 4871,
    "▁بشردوستانه": 4872,
    "▁بوفالو": 4873,
    "▁جامائیکا": 4874,
    "▁دانچیچ": 4875,
    "▁شیکاگو": 4876,
    "▁فلامینگو": 4877,
    "▁لاجورد": 4878,
    "▁مصیبت": 4879,
    "▁ملاحظ": 4880,
    "▁ژیمناست": 4881,
    "▁کدخدای": 4882,
    "▁گیگز": 4883,
    "▁اتصال": 4884,
    "▁ربیعی": 4885,
    "▁اوربیتر": 4886,
    "▁جهرمی": 4887,
    "▁فرانسیس": 4888,
    "رطوب": 4889,
    "▁رمضان": 4890,
    "▁رئوف": 4891,
    "وخامت": 4892,
    "▁سناریو": 4893,
    "▁اقبال": 4894,
    "▁الاجل": 4895,
    "▁ابداع": 4896,
    "▁امتداد": 4897,
    "▁ادوارد": 4898,
    "▁اسپورت": 4899,
    "▁صرب": 4900,
    "▁وفادار": 4901,
    "▁ووهان": 4902,
    "▁هوندا": 4903,
    "▁یوسف": 4904,
    "▁الماس": 4905,
    "▁وودز": 4906,
    "▁جواهر": 4907,
    "▁گریبان": 4908,
    "▁خاشقچی": 4909,
    "▁قاتل": 4910,
    "فرگوس": 4911,
    "▁فروزش": 4912,
    "▁استفانو": 4913,
    "▁فحش": 4914,
    "▁قفس": 4915,
    "▁شیفت": 4916,
    "▁سکسک": 4917,
    "▁خیام": 4918,
    "▁جناح": 4919,
    "▁یزد": 4920,
    "▁فروغ": 4921,
    "▁ترابی": 4922,
    "▁دبیرستان": 4923,
    "▁ولد": 4924,
    "عارض": 4925,
    "▁اذیت": 4926,
    "▁گرامی": 4927,
    "▁دایر": 4928,
    "تشکر": 4929,
    "▁مستندساز": 4930,
    "▁فابی": 4931,
    "▁درآمدزا": 4932,
    "▁لخت": 4933,
    "▁فقی": 4934,
    "▁پویا": 4935,
    "هرابی": 4936,
    "نگیز": 4937,
    "▁عزادار": 4938,
    "الیاس": 4939,
    "یضا": 4940,
    "لانتی": 4941,
    "رژی": 4942,
    "میلیا": 4943,
    "▁پراکن": 4944,
    "▁شانزده": 4945,
    "رومن": 4946,
    "ریچارد": 4947,
    "همیلتون": 4948,
    "تاتنهام": 4949,
    "تصاویر": 4950,
    "روابط": 4951,
    "چلسی": 4952,
    "انتشار": 4953,
    "تصمیم": 4954,
    "بنیا": 4955,
    "عرض": 4956,
    "بومی": 4957,
    "▁راهنمای": 4958,
    "نشست": 4959,
    "موج": 4960,
    "▁اسراییل": 4961,
    "دغدغه": 4962,
    "▁اختراع": 4963,
    "▁المستقبل": 4964,
    "▁الگوریتم": 4965,
    "▁بتهوون": 4966,
    "▁تصاحب": 4967,
    "▁جاپلقی": 4968,
    "▁خنثی": 4969,
    "▁زاناردی": 4970,
    "▁سردرگم": 4971,
    "▁صراحت": 4972,
    "▁ضوابط": 4973,
    "▁مائوریتس": 4974,
    "▁نابسامان": 4975,
    "▁پولیتزر": 4976,
    "▁ژئوپلیتیک": 4977,
    "▁تهاجم": 4978,
    "▁نوازندگان": 4979,
    "▁پاراگوئه": 4980,
    "▁تویوتا": 4981,
    "▁سنگاپور": 4982,
    "▁بسازد": 4983,
    "▁کرگدن": 4984,
    "▁بخرد": 4985,
    "▁نعمت": 4986,
    "▁برنگشت": 4987,
    "▁مضاعف": 4988,
    "▁آرتتا": 4989,
    "پچو": 4990,
    "▁یادگار": 4991,
    "▁بذر": 4992,
    "▁همسایگ": 4993,
    "▁اشنویه": 4994,
    "▁البرز": 4995,
    "▁موزیک": 4996,
    "▁هیولای": 4997,
    "▁تکامل": 4998,
    "▁محتوی": 4999,
    "(": 5000,
    "ئ": 5001
  }
}