<unk>	0
<s>	0
</s>	0
ی	-3.41412
.	-3.4423
ه	-3.90284
▁است	-4.10822
▁	-4.16577
▁می	-4.21564
▁های	-4.60962
▁ایران	-4.68897
▁شده	-5.02553
،	-5.06928
▁سال	-5.16585
▁بود	-5.19263
▁یک	-5.2324
▁ها	-5.23749
▁شد	-5.27023
▁کرده	-5.40523
▁تصویر	-5.40801
▁ای	-5.4116
▁کرد	-5.48106
منبع	-5.56745
▁بر	-5.60592
ان	-5.62654
▁شود	-5.6543
▁گفته	-5.69997
▁دو	-5.73397
▁کند	-5.7709
▁خود	-5.7725
؛	-5.79582
ن	-5.8144
▁اند	-5.84124
▁کرونا	-5.91117
▁در	-6.0274
ت	-6.03037
ش	-6.0475
▁آمریکا	-6.05794
▁پیش	-6.07795
▁ماه	-6.09436
▁گزارش	-6.09678
▁کشور	-6.10576
▁روز	-6.14794
▁فوتبال	-6.22674
▁بی	-6.24873
▁تیم	-6.26293
▁بازی	-6.27231
▁ا	-6.28637
▁گفت	-6.29714
▁دارد	-6.30074
▁دهد	-6.30542
▁کار	-6.32564
▁اعلام	-6.33433
ین	-6.3416
▁م	-6.36324
▁قرار	-6.36856
▁کنند	-6.3714
▁دیگر	-6.38841
▁شرکت	-6.39546
▁داده	-6.40823
▁هزار	-6.41668
▁یا	-6.42732
▁به	-6.42983
▁و	-6.45182
▁دولت	-6.45816
▁دست	-6.48437
▁رئیس	-6.49746
▁با	-6.49752
م	-6.50459
▁بین	-6.52043
▁خواهد	-6.5208
▁سه	-6.53442
▁پس	-6.5445
▁گذشته	-6.54735
▁آقای	-6.56001
▁جهان	-6.56175
▁ب	-6.56665
▁گوید	-6.58168
▁هر	-6.59719
▁بار	-6.64107
▁درباره	-6.64257
▁لیگ	-6.67155
▁تهران	-6.67157
▁درصد	-6.67633
▁آنها	-6.70981
در	-6.71521
▁جدید	-6.71532
▁دلیل	-6.71673
▁افزایش	-6.71742
▁داد	-6.72599
▁میلیون	-6.73115
▁بوده	-6.73401
▁نفر	-6.73727
ر	-6.74098
ب	-6.74205
▁یکی	-6.74326
▁چند	-6.74797
ا	-6.75077
'	-6.75255
▁قیمت	-6.7596
▁بعد	-6.76775
های	-6.77578
▁'	-6.77926
این	-6.78292
▁افغانستان	-6.78817
▁سازمان	-6.79591
▁ملی	-6.79767
▁از	-6.79989
▁جهانی	-6.80258
:	-6.81909
▁هفته	-6.81954
▁بازار	-6.82033
▁حال	-6.82177
د	-6.83579
▁همه	-6.84589
▁فیلم	-6.85357
▁ویروس	-6.85555
▁نمی	-6.85766
▁خبر	-6.85815
▁جمهوری	-6.87366
▁برگزار	-6.88283
▁ترین	-6.88583
▁نام	-6.88908
▁عنوان	-6.89363
▁نظر	-6.89821
▁مورد	-6.90373
▁باید	-6.90422
▁دلار	-6.90715
▁نفت	-6.90763
▁هستند	-6.90797
▁داشت	-6.92091
▁ت	-6.92273
▁علی	-6.92869
▁گرفته	-6.93025
▁وزارت	-6.93105
▁مجلس	-6.9374
▁بیش	-6.93747
▁روی	-6.93813
▁تولید	-6.93939
▁کردند	-6.94652
ند	-6.94899
▁شب	-6.95266
▁امروز	-6.95363
▁نیست	-6.95796
▁اروپا	-6.96951
▁شدن	-6.97021
▁سر	-6.97537
▁بزرگ	-6.97739
▁سی	-6.98706
▁آغاز	-6.99064
▁بودند	-6.99369
▁کاهش	-6.99623
▁چین	-6.99813
▁مقابل	-7.00296
▁ن	-7.00298
ع	-7.00541
به	-7.0142
▁اخیر	-7.01475
▁نیز	-7.01627
▁وزیر	-7.01791
ل	-7.02044
▁بریتانیا	-7.02281
▁بانک	-7.02528
▁بیشتر	-7.02687
▁را	-7.05202
▁همچنین	-7.06332
▁پایان	-7.06714
▁حدود	-7.07604
▁نشان	-7.09127
▁تحریم	-7.09433
▁راه	-7.09447
▁داشته	-7.09494
▁آن	-7.10494
▁ایرانی	-7.10625
▁برنامه	-7.10626
▁زمان	-7.10722
▁انجام	-7.1276
که	-7.13095
▁اول	-7.13422
▁اقتصادی	-7.1355
▁حضور	-7.13733
▁ف	-7.13832
▁باشگاه	-7.13894
▁اش	-7.1441
▁باشد	-7.14717
ز	-7.15676
▁تر	-7.16008
▁صورت	-7.16094
▁باز	-7.16656
▁اساس	-7.17373
▁اولین	-7.17628
▁شیو	-7.18165
▁منتشر	-7.18354
▁توافق	-7.18983
ات	-7.19659
▁واکسن	-7.22004
▁هایی	-7.22238
ری	-7.22747
▁بخش	-7.2335
▁استفاده	-7.23788
▁شهر	-7.24279
▁جمله	-7.24331
▁فصل	-7.24579
له	-7.24826
▁گل	-7.25422
دامه	-7.26485
▁میان	-7.27669
س	-7.28107
آقای	-7.28134
▁شوند	-7.28467
▁وجود	-7.28756
▁رسید	-7.28824
▁مردم	-7.28854
؟	-7.2961
▁زندگی	-7.3025
▁گروه	-7.31506
▁س	-7.3185
▁حقوق	-7.32653
▁مسابقه	-7.32715
▁ر	-7.3284
▁چهار	-7.32873
▁مسابقات	-7.32937
▁میلیارد	-7.33165
▁دارند	-7.33263
▁کم	-7.33668
▁المللی	-7.34168
▁همین	-7.34695
▁جام	-7.34769
او	-7.35016
▁مقام	-7.3583
انه	-7.35923
ترین	-7.36541
و	-7.37607
▁تنها	-7.37778
▁تومان	-7.38137
▁خواست	-7.382
▁گیری	-7.38429
▁زنان	-7.38667
▁ارز	-7.39775
▁حالی	-7.40296
▁ک	-7.40735
▁شدند	-7.41018
▁شرایط	-7.41051
▁تمام	-7.42035
▁د	-7.42309
▁ماشین	-7.4279
▁زیاد	-7.43042
▁وقت	-7.43042
▁غیر	-7.44044
▁گرفت	-7.44443
▁تواند	-7.44822
▁خانه	-7.44906
گی	-7.45334
▁آینده	-7.45957
▁۲۰	-7.46591
▁اسلامی	-7.4664
▁بسیاری	-7.46989
▁فعالیت	-7.47081
▁تلاش	-7.47228
عث	-7.47913
▁برتر	-7.48034
▁بیماری	-7.48087
▁کردن	-7.49113
▁قبل	-7.4933
▁وارد	-7.49517
▁اجتماعی	-7.49648
▁افراد	-7.49717
▁کشورهای	-7.4972
▁محمد	-7.49806
رسی	-7.50184
▁دوران	-7.5037
▁خارجه	-7.50426
▁وضعیت	-7.5043
▁امسال	-7.50624
▁انتخابات	-7.50654
▁هیچ	-7.51087
▁اقتصاد	-7.51238
▁بورس	-7.51536
▁ساله	-7.51688
▁نرخ	-7.51855
▁روحانی	-7.52071
▁مختلف	-7.52883
▁طور	-7.53277
▁سوی	-7.5382
▁توان	-7.53868
ق	-7.53998
یه	-7.54024
▁مرکزی	-7.54184
▁نزدیک	-7.54197
▁قهرمان	-7.54557
▁تصمیم	-7.55173
▁بسیار	-7.55271
▁فروش	-7.55321
نه	-7.55482
▁کمک	-7.55607
▁گویند	-7.55761
▁تغییر	-7.55843
▁ولی	-7.55946
▁پی	-7.5647
▁مدت	-7.56809
▁طرح	-7.57001
▁خانواده	-7.57019
▁رسان	-7.5702
▁قهرمانی	-7.57225
▁زمین	-7.57404
▁جای	-7.57839
▁ریاست	-7.58101
▁حالا	-7.58246
▁تازه	-7.58402
▁ه	-7.58761
▁سرمایه	-7.59003
▁مجموع	-7.59507
▁نخست	-7.59676
▁پول	-7.59799
▁برابر	-7.59887
▁دوره	-7.61322
▁استان	-7.61464
▁دهه	-7.62149
▁جان	-7.62631
▁تاریخ	-7.62633
▁پنج	-7.62869
▁۱۹	-7.6289
▁مهم	-7.6319
▁اثر	-7.6324
▁برجام	-7.63285
▁همراه	-7.63879
شان	-7.64146
▁نه	-7.64887
ک	-7.65504
▁دوم	-7.65678
▁شروع	-7.65782
قط	-7.65993
شورای	-7.66149
▁اطلاعات	-7.66199
▁پیدا	-7.66343
▁بعضی	-7.66502
▁شکست	-7.66836
▁موسیقی	-7.67074
▁اصلی	-7.67296
▁پرسپولیس	-7.67472
یت	-7.68
▁۴	-7.68666
▁منطقه	-7.68733
▁رسمی	-7.6894
▁برای	-7.69043
▁منبع	-7.69128
ار	-7.69172
زه	-7.69194
ده	-7.69219
▁مرکز	-7.69356
یک	-7.71256
▁رقابت	-7.71415
▁۵	-7.71518
▁آمار	-7.71852
▁خودرو	-7.7195
▁رسیده	-7.72108
▁هسته	-7.72155
▁زن	-7.7217
▁نقش	-7.72439
▁استقلال	-7.73271
▁درگذشت	-7.73451
▁کنار	-7.73777
▁توجه	-7.73791
▁پر	-7.73993
▁سهام	-7.74084
▁آژانس	-7.74521
▁۱۰	-7.74573
▁عکس	-7.74926
▁دنیا	-7.74998
▁آمریکایی	-7.7534
▁نوشته	-7.75613
▁نیمه	-7.7581
▁سفر	-7.75843
ایی	-7.76014
▁زیر	-7.76037
ست	-7.76539
▁کل	-7.7674
▁برخ	-7.76868
▁واکنش	-7.76974
▁دی	-7.77203
▁که	-7.77244
▁حاضر	-7.77248
▁میلادی	-7.77367
▁مراسم	-7.77419
▁حمله	-7.77565
▁رفت	-7.77783
با	-7.77936
▁جمهور	-7.78117
▁۲	-7.78203
▁اعتراض	-7.78265
▁حمایت	-7.78685
▁تب	-7.78835
▁بالا	-7.78882
▁کمتر	-7.78945
▁یافته	-7.79323
▁انتشار	-7.79524
ثبت	-7.79701
▁عرض	-7.79802
نامه	-7.79935
ها	-7.7998
▁بازیکن	-7.80029
▁کتاب	-7.80101
▁دنبال	-7.80528
▁فرانسه	-7.80648
▁ش	-7.8095
▁رو	-7.80994
▁آلمان	-7.81163
▁فدراسیون	-7.81311
▁ممکن	-7.81437
▁شش	-7.8176
▁نشده	-7.81857
گان	-7.82464
▁مالی	-7.82585
▁همکاری	-7.82713
▁اینک	-7.82775
▁سیاسی	-7.82786
نی	-7.83877
▁کنیم	-7.84019
بر	-7.84129
توسط	-7.84301
▁عربستان	-7.84315
شنبه	-7.84448
▁سازی	-7.84584
▁دریافت	-7.8461
▁دور	-7.84771
▁آب	-7.84773
▁آ	-7.84773
▁بودجه	-7.84843
▁ترامپ	-7.85043
▁پرداخت	-7.85704
▁طی	-7.85822
▁هم	-7.8617
▁او	-7.86415
▁تعداد	-7.86455
▁موج	-7.86517
▁جا	-7.8654
▁موضوع	-7.87314
▁۲۰۲۰	-7.87432
▁اتحاد	-7.87606
▁گذاری	-7.87814
▁کشتی	-7.87855
▁خرید	-7.87861
▁قهرمانان	-7.87868
▁دهند	-7.88035
▁پیروز	-7.88099
▁شمار	-7.88354
▁الله	-7.88485
▁نهایی	-7.88562
▁خبرگزا	-7.88622
▁پرونده	-7.88672
▁دانشگاه	-7.89052
▁اشار	-7.8927
▁آزاد	-7.8936
▁انرژی	-7.89785
▁ندارد	-7.89812
▁ویژه	-7.90263
▁ساعت	-7.90266
▁اجرای	-7.9027
▁مبارز	-7.90314
▁رسد	-7.90384
▁ترکیه	-7.9051
▁سابق	-7.91187
▁روند	-7.91501
▁پ	-7.91688
▁بدو	-7.91815
▁بازداشت	-7.92148
اکنون	-7.92324
▁این	-7.92464
▁همان	-7.92533
▁بازیکنان	-7.92608
▁چنین	-7.9287
▁عراق	-7.9308
▁دولتی	-7.93133
▁سیاست	-7.9323
▁مربوط	-7.93518
▁آمده	-7.93527
▁اقدام	-7.93551
حتی	-7.93822
▁مدیر	-7.93933
دیل	-7.9394
▁قابل	-7.94099
▁طریق	-7.94361
▁هدف	-7.94593
▁ابتلا	-7.94848
ِ	-7.94895
کسب	-7.95454
▁کر	-7.95688
▁رشد	-7.95745
از	-7.96323
▁دیدار	-7.96653
▁صد	-7.96999
▁مذاکرات	-7.97062
ای	-7.97159
▁ح	-7.97176
گیری	-7.97264
▁خام	-7.974
▁تایید	-7.97407
▁زبان	-7.97532
▁کننده	-7.97766
▁درآمد	-7.98674
▁ورزش	-7.98734
▁زمانی	-7.99383
▁خارجی	-7.99388
▁هشدار	-7.99392
▁متهم	-7.99747
▁۳	-7.99764
▁مرگ	-7.99804
جه	-8.00125
▁اتمی	-8.0019
▁آزمایش	-8.00292
▁خواهند	-8.00335
▁نیاز	-8.00592
▁بهداشت	-8.01245
▁یافت	-8.01407
▁میزان	-8.01531
▁فاصله	-8.0179
▁ایجاد	-8.01849
▁زمینه	-8.01957
▁ساخت	-8.02187
▁تلویزیون	-8.02306
▁ده	-8.0266
▁نمایش	-8.02742
▁بیمارستان	-8.03225
▁نامه	-8.03587
▁زده	-8.03991
▁کشته	-8.0411
▁حسن	-8.0444
▁ج	-8.04623
▁خارج	-8.04672
▁مشخص	-8.04791
▁جریان	-8.04833
▁سرمربی	-8.05134
▁مرد	-8.05218
▁نیم	-8.05282
▁آسیا	-8.05324
)	-8.05509
▁لیورپول	-8.05549
▁لغو	-8.05586
چه	-8.05697
▁بشر	-8.05757
ینه	-8.06591
▁هفت	-8.06989
نوز	-8.07146
▁جنوبی	-8.0717
▁معاون	-8.0734
▁امنیت	-8.07425
▁انسان	-8.07788
▁بازگشت	-8.08061
▁زندان	-8.08126
▁محدودیت	-8.08252
▁انگلیس	-8.08445
▁۶	-8.08601
▁اعضای	-8.08608
▁آثار	-8.0866
▁نمایندگان	-8.0868
▁پلیس	-8.0876
▁نا	-8.08764
می	-8.08997
▁سوم	-8.0923
▁دیده	-8.09235
▁دادگاه	-8.09554
▁روسیه	-8.09666
▁محل	-8.09814
▁جلو	-8.09848
▁.	-8.09898
▁چرا	-8.09924
▁بیانیه	-8.10026
▁تاثیر	-8.10333
▁قانون	-8.10372
▁کامل	-8.10377
▁(	-8.10524
▁نمایند	-8.11073
▁رهبر	-8.11314
▁خطر	-8.11582
▁صندوق	-8.11646
▁قطع	-8.11896
▁سخنگوی	-8.11942
▁کمی	-8.12001
▁خط	-8.12255
▁عضو	-8.12296
▁نگاه	-8.1241
▁طرف	-8.1248
▁حکومت	-8.12503
ون	-8.12707
▁متحده	-8.1284
▁بالای	-8.12878
▁لندن	-8.12975
▁ارزش	-8.13079
▁اسرائیل	-8.13144
▁نسبت	-8.13193
▁سابقه	-8.13215
▁سخت	-8.13948
▁سطح	-8.13995
▁امنیتی	-8.14084
▁آی	-8.14204
▁نبود	-8.14308
▁شورا	-8.14372
▁تعطیل	-8.14445
▁المپیک	-8.1454
▁رود	-8.1457
▁رد	-8.14633
▁خاطر	-8.14685
▁ساخته	-8.14831
▁سن	-8.14839
▁جو	-8.14959
▁برد	-8.14978
▁کابل	-8.14989
▁مدل	-8.14999
▁شناخت	-8.15123
▁همزمان	-8.15229
▁انتخاب	-8.15345
▁صادرات	-8.1539
▁خوب	-8.15493
▁طول	-8.15537
▁نامزد	-8.15736
▁عمومی	-8.15909
▁سپاه	-8.16341
▁مرح	-8.16346
▁سو	-8.16471
▁جاری	-8.16979
▁گسترده	-8.17198
▁قرنطینه	-8.17214
▁افت	-8.17547
▁قرارداد	-8.17689
▁نقل	-8.17929
▁حکم	-8.1818
▁تح	-8.18201
▁تو	-8.18267
▁آخری	-8.1828
▁مرغ	-8.18341
▁دوبار	-8.18461
▁توانست	-8.18562
▁نشست	-8.18675
▁ام	-8.18774
▁انقلاب	-8.18777
▁شکل	-8.18962
روز	-8.19158
▁پزشکی	-8.19435
▁سالگی	-8.19574
▁جنگ	-8.19584
▁امتیاز	-8.19744
▁هز	-8.20218
▁چهارم	-8.20685
▁بخشی	-8.20942
▁مطرح	-8.20964
مین	-8.21103
▁دیگری	-8.21346
الات	-8.21836
▁جلسه	-8.22105
▁رکورد	-8.22512
▁۱۳	-8.22697
▁کودکان	-8.229
▁شدید	-8.23084
▁۳۰	-8.23179
▁ظریف	-8.23224
▁۲۰۰	-8.23329
▁برنده	-8.23476
▁داستان	-8.23781
▁جدی	-8.23959
▁چ	-8.2435
▁بهتری	-8.24497
یم	-8.24879
▁امور	-8.25107
▁۲۵	-8.25456
▁صنعت	-8.25555
▁تع	-8.25767
▁انتقال	-8.25836
اما	-8.25958
▁اتهام	-8.25994
▁ارائه	-8.26049
▁روزهای	-8.26109
▁قو	-8.26191
▁تنیس	-8.26191
▁منابع	-8.26317
▁فشار	-8.26574
▁ورزشگاه	-8.26724
▁۲۰۱۹	-8.26751
▁چهر	-8.27243
▁معرف	-8.27287
▁حرکت	-8.27303
▁نظامی	-8.27348
ره	-8.27372
▁هوای	-8.27415
▁انتظار	-8.2758
▁دستگاه	-8.28141
▁رای	-8.28336
▁نکرده	-8.28382
▁متوقف	-8.28493
▁گرفتن	-8.28532
▁ترک	-8.28552
▁۱۴۰۰	-8.29087
▁اتفاق	-8.2927
▁بایدن	-8.2929
▁برق	-8.29299
▁رفته	-8.29474
▁اروپایی	-8.29556
▁ارتباط	-8.29568
▁دانست	-8.29709
▁اسفند	-8.30239
ال	-8.30268
▁رقم	-8.30323
ف	-8.30375
▁فینال	-8.30623
ور	-8.30661
▁ورزشی	-8.30698
▁کسان	-8.31033
▁۹	-8.3105
▁خودش	-8.31242
▁پیشین	-8.31286
▁چگون	-8.31508
▁عالی	-8.31657
▁آیا	-8.31787
خیلی	-8.31798
▁نفتی	-8.319
دون	-8.3194
▁چشم	-8.31955
▁۷	-8.32029
-	-8.32248
▁انتقاد	-8.32285
ازه	-8.3243
وز	-8.32517
▁هنر	-8.32673
▁۱۵	-8.32717
▁نیروهای	-8.3281
▁تورم	-8.32935
▁۱	-8.33174
▁آبان	-8.3325
▁تاریخی	-8.33314
▁نگرانی	-8.33321
ج	-8.33338
▁ورود	-8.33438
▁پاسخ	-8.33449
▁وی	-8.33683
▁کس	-8.33827
▁فعال	-8.33961
▁اجرا	-8.34021
▁شدت	-8.34346
▁محکوم	-8.345
▁فروردین	-8.34566
▁داشتند	-8.34567
▁الکتریکی	-8.34617
▁معاملات	-8.34643
▁دونالد	-8.34799
▁مصاحبه	-8.35254
▁خانم	-8.35391
▁بشک	-8.35612
▁آنچ	-8.35817
▁آزادی	-8.35865
▁طراح	-8.35866
▁مربی	-8.35882
▁گیرد	-8.36053
▁داخلی	-8.36174
▁مانده	-8.36366
ستاره	-8.36377
▁مشکلات	-8.36405
▁طولانی	-8.36546
▁کشید	-8.3658
▁قرن	-8.36596
▁اج	-8.36853
▁جمعیت	-8.36951
دی	-8.36964
▁همچن	-8.36985
▁موسس	-8.37022
▁مسئولان	-8.37259
▁بست	-8.37575
▁۱۲	-8.37952
▁قدرت	-8.38049
▁سیستم	-8.38214
سی	-8.38277
▁آمد	-8.38387
▁حساب	-8.38465
▁نوشت	-8.38858
▁دوشنبه	-8.38944
▁مصوب	-8.39023
▁روزنامه	-8.39044
▁کووید	-8.39107
▁تصوی	-8.39166
▁بحران	-8.39185
▁امضا	-8.39255
▁نوع	-8.39273
▁گذاشته	-8.39397
▁باشند	-8.39816
▁خروج	-8.3988
▁بارسلونا	-8.39899
▁هنگام	-8.39957
▁جامعه	-8.40362
▁سریال	-8.40513
▁کنترل	-8.41164
▁غنی	-8.41193
▁تحقیق	-8.41299
▁سایر	-8.41388
وی	-8.41501
ستاد	-8.41609
▁تشکیل	-8.4168
▁مشکل	-8.41814
▁باقی	-8.41974
▁تجاری	-8.41996
۸	-8.42052
▁گاز	-8.42341
▁امکان	-8.42424
▁نهاد	-8.42516
▁احتمال	-8.42592
▁ایتالیا	-8.42643
▁ملل	-8.42777
▁تحقیقات	-8.42829
▁بنزین	-8.43259
▁ابتدای	-8.43328
خانه	-8.43355
▁دادند	-8.43402
بی	-8.43415
▁شاخص	-8.43643
▁دستور	-8.43736
▁فرهنگ	-8.44172
تی	-8.44299
▁بینی	-8.4442
▁نیروی	-8.4469
▁قبلی	-8.44703
▁بد	-8.45067
▁دادن	-8.45187
▁محلی	-8.45237
▁سیاه	-8.45321
▁۱۱	-8.45344
▁حذف	-8.45729
▁شامل	-8.45874
▁فکر	-8.45908
▁ممنوع	-8.45968
▁سیتی	-8.45988
▁ماسک	-8.46042
پس	-8.46083
حه	-8.46166
▁ترکیب	-8.46197
▁فن	-8.46213
▁داخل	-8.46418
▁ضرب	-8.46523
▁مبتلا	-8.46631
▁پروژه	-8.46736
▁فارسی	-8.46792
▁بهتر	-8.46813
▁هند	-8.46871
▁پشت	-8.46955
▁نو	-8.46975
▁میزبان	-8.47031
▁علت	-8.4704
▁ع	-8.47212
▁دار	-8.47399
▁ناشی	-8.47588
▁واحد	-8.47612
▁بودن	-8.47763
▁بیشتری	-8.47913
▁اس	-8.47956
▁تجرب	-8.48058
▁متفاوت	-8.48158
▁آوریل	-8.48253
▁زیست	-8.48254
▁عامل	-8.48431
▁تک	-8.48575
▁یاد	-8.48666
▁گو	-8.48712
▁اف	-8.48813
▁شماری	-8.49089
▁صحبت	-8.49184
▁کارگران	-8.49387
▁بندی	-8.49387
▁تن	-8.49415
▁مسی	-8.49577
▁ترتیب	-8.49609
▁خبرنگار	-8.49727
▁سینما	-8.4975
▁واردات	-8.50008
گاه	-8.5028
▁اختیار	-8.50322
▁پایین	-8.50508
▁اعدام	-8.50559
▁شهروندان	-8.50582
▁نظام	-8.50983
▁فضایی	-8.51286
▁جنوب	-8.51667
▁بگیرد	-8.51904
▁چهارشنبه	-8.52033
▁هنری	-8.52064
▁بلند	-8.52247
▁طبق	-8.52248
▁کوچک	-8.52279
رفع	-8.52293
▁خوانده	-8.52389
نتی	-8.52936
▁عمل	-8.5304
▁جمعه	-8.53241
▁روبرو	-8.53313
▁محیط	-8.53371
▁احیا	-8.53442
▁۵۰	-8.53453
▁فرهنگی	-8.53454
▁کنید	-8.5349
▁۲۲	-8.53513
▁دقیقه	-8.53652
▁شان	-8.53749
▁نژاد	-8.53858
▁زد	-8.53959
▁آسیب	-8.5416
▁چپ	-8.54184
▁محمود	-8.54218
▁مسئول	-8.54241
▁احتمالا	-8.54338
▁شهرهای	-8.54903
▁تاکید	-8.5492
▁شجریان	-8.54924
▁پارسال	-8.54997
▁سقوط	-8.55028
▁مشترک	-8.55035
▁خون	-8.55322
▁بارها	-8.55368
▁فضای	-8.55465
سیون	-8.5557
▁محدود	-8.55741
▁۸	-8.55742
▁نویسنده	-8.55756
▁درخواست	-8.55805
▁دلایل	-8.55848
▁شما	-8.55967
یین	-8.56098
۴	-8.5636
▁تقریبا	-8.56549
▁نتایج	-8.56625
▁مارادونا	-8.56726
▁ان	-8.56887
▁بتوان	-8.56951
▁سوخت	-8.57023
۲	-8.57071
▁دفاع	-8.57248
▁نگهبان	-8.57278
▁شاهد	-8.57333
▁لازم	-8.57392
▁اقدامات	-8.57457
▁خصوصی	-8.57598
▁یع	-8.57735
▁شاید	-8.57775
▁صفر	-8.57793
▁آتش	-8.5816
▁موارد	-8.58181
▁فرد	-8.58251
▁یونایتد	-8.58362
▁تاکنون	-8.58523
▁انفجار	-8.5893
▁تامین	-8.58986
▁اسکار	-8.59027
▁برده	-8.59186
▁نقاشی	-8.59319
▁احمد	-8.59494
▁درگیر	-8.59735
▁وین	-8.59767
▁شکایت	-8.59804
▁کوتاه	-8.59829
▁معروف	-8.59836
▁۲۰۱	-8.59882
▁جدول	-8.60551
▁قوانین	-8.60568
مه	-8.60638
▁آورد	-8.6071
▁حرفه	-8.60767
▁حل	-8.609
▁هواپیمایی	-8.60987
▁افتاد	-8.60988
▁۴۰	-8.61208
▁گ	-8.61345
▁لای	-8.61398
▁گذشت	-8.6141
▁مواد	-8.61438
▁جشنواره	-8.61511
نگ	-8.61585
▁جز	-8.61586
▁کنم	-8.61805
▁کلی	-8.61912
▁سنت	-8.61953
▁کالا	-8.62107
▁رییس	-8.62278
لی	-8.62279
▁بیرون	-8.62308
▁یکشنبه	-8.62386
▁متر	-8.62402
▁قانونی	-8.62526
▁اختلاف	-8.63008
▁مرتبط	-8.63015
▁هواداران	-8.63028
▁۱۷	-8.63219
▁دسترس	-8.63596
▁۶۰	-8.63635
▁قرمز	-8.6385
▁مسیر	-8.64063
▁درمان	-8.64297
▁نظیر	-8.64724
▁بخوانید	-8.64724
▁فهرست	-8.64766
▁چاپ	-8.64806
▁همیشه	-8.64839
▁اعتراضات	-8.65016
▁زاده	-8.65031
▁مه	-8.65087
▁قطر	-8.6517
انی	-8.65203
▁نقطه	-8.65607
▁تجارت	-8.65632
▁نسل	-8.6582
▁۱۴	-8.65845
▁سرعت	-8.65922
▁آخر	-8.66051
▁واقع	-8.6644
▁موفق	-8.66488
▁مقایس	-8.6651
▁ق	-8.6655
حفظ	-8.66605
▁اولی	-8.66649
▁سمت	-8.66652
▁اخیرا	-8.66677
▁شمال	-8.66774
▁انگیز	-8.66887
یی	-8.66918
▁اطلاع	-8.6695
▁توییتر	-8.6699
▁کارگردان	-8.67037
مان	-8.67167
▁بایرن	-8.67382
▁۹۸	-8.67543
▁هشت	-8.67555
▁سراسر	-8.67572
علی	-8.67651
▁قصد	-8.67705
▁گون	-8.6782
▁بیست	-8.68017
▁ولایت	-8.68224
سازی	-8.6826
▁اتاق	-8.68291
▁برسد	-8.68378
▁هایش	-8.68392
▁غرب	-8.68424
▁مارس	-8.68442
▁ونزوئلا	-8.6858
▁ما	-8.68614
▁دارایی	-8.68666
ایران	-8.68668
▁هوا	-8.68705
▁رنگ	-8.68861
▁مجدد	-8.69129
▁ماند	-8.69247
▁اوپک	-8.6933
▁سلامت	-8.69435
▁رسیدن	-8.69574
▁چیزی	-8.69632
▁حد	-8.69748
▁نظارت	-8.7005
▁عملکرد	-8.70153
▁گفتگو	-8.70166
▁پیشنهاد	-8.7039
▁۱۶	-8.70423
▁ال	-8.70544
▁علاو	-8.70561
▁صفح	-8.70627
▁سوار	-8.70869
تیج	-8.70937
▁اعمال	-8.70959
▁فعالان	-8.70962
▁مشابه	-8.70974
▁آستان	-8.71002
▁فوت	-8.7105
▁آماده	-8.71239
▁باخت	-8.71447
▁روشن	-8.71519
▁هنو	-8.71547
▁گروهی	-8.71657
▁مذاکر	-8.71791
▁کاری	-8.71835
▁آرژانتین	-8.71859
▁عدالت	-8.71859
▁کشف	-8.71979
▁عملیات	-8.71994
▁پاریس	-8.72003
▁جهش	-8.72087
▁زنده	-8.72199
▁عد	-8.72354
▁کاملا	-8.72471
▁خوانند	-8.7248
▁پرواز	-8.72703
▁علمی	-8.72734
▁فرصت	-8.72836
▁مشهور	-8.72909
▁تصاویر	-8.73058
▁پخ	-8.73064
▁اداره	-8.73155
▁نهادهای	-8.73195
▁حق	-8.73203
▁جمع	-8.73407
۶	-8.7344
▁عباس	-8.73559
▁پایتخت	-8.73689
▁فساد	-8.73743
▁عمده	-8.73897
▁نگران	-8.74031
۵	-8.74174
▁بدن	-8.74261
▁صادر	-8.74352
▁شناس	-8.74465
▁مناطق	-8.74659
▁رابطه	-8.74734
وابط	-8.74754
▁موزه	-8.74776
▁منچستر	-8.74832
▁اینترنت	-8.7485
براز	-8.74864
▁چلسی	-8.74921
وع	-8.75152
▁تهدید	-8.75171
▁کشورها	-8.75307
▁ابتدا	-8.75576
▁ندارند	-8.7561
▁بحرین	-8.75695
▁کمیت	-8.75733
▁قلب	-8.75818
▁بازیگر	-8.75901
▁مهر	-8.76328
▁مواجه	-8.76529
▁منتقل	-8.76547
▁توپ	-8.76663
▁حادثه	-8.76781
▁یورو	-8.7705
▁قضایی	-8.77051
▁هرات	-8.77205
▁تاج	-8.77461
▁توصیف	-8.77544
▁ارشد	-8.77585
▁موفقیت	-8.77646
▁من	-8.77815
▁تغییرات	-8.77929
▁مردان	-8.77961
▁دهم	-8.7822
▁کن	-8.78246
▁تابستان	-8.78284
▁رمان	-8.78304
▁چه	-8.78478
▁توسعه	-8.78573
▁استرالیا	-8.78575
▁احمدی	-8.78577
▁سود	-8.78691
▁میدان	-8.78884
اساس	-8.78923
یر	-8.78929
▁بالاتر	-8.79037
▁تا	-8.79075
▁بریتانیایی	-8.79205
▁واقعی	-8.79233
▁بال	-8.79317
▁پروازهای	-8.79332
▁افغان	-8.79342
▁مهدی	-8.79374
▁ل	-8.79434
▁دچار	-8.7949
▁مسکن	-8.795
▁رعایت	-8.79515
▁۲۰۲۱	-8.79519
عودی	-8.79522
▁تهی	-8.79609
▁برخورد	-8.79619
▁گر	-8.80437
▁انگلستان	-8.80501
▁۵۰۰	-8.80893
▁سایت	-8.80965
▁آید	-8.81144
▁ماهه	-8.81163
▁پیام	-8.8124
▁ژوئن	-8.81495
▁خوزستان	-8.81503
▁مجازی	-8.81691
▁خصوص	-8.81698
▁ارزی	-8.81829
بیشتر	-8.81839
▁پا	-8.81992
۱	-8.82055
▁صدا	-8.82099
ول	-8.82126
▁کودک	-8.82134
▁چیز	-8.82141
▁سفید	-8.82179
▁شعر	-8.82372
▁توضیح	-8.82406
▁ملت	-8.8248
▁مجبور	-8.82517
▁دوست	-8.82533
▁واکسین	-8.82619
▁مانع	-8.82834
نمایی	-8.8288
▁کارگر	-8.82937
▁رفتن	-8.83102
▁مالیات	-8.83111
▁مصرف	-8.83135
▁عبور	-8.83202
▁پور	-8.83245
▁خواند	-8.8357
▁حوزه	-8.83592
▁اجا	-8.83658
▁سفیر	-8.83834
▁مل	-8.83851
▁پدر	-8.83897
ممنوعیت	-8.84131
▁کدام	-8.84164
▁جنسی	-8.84178
▁جوان	-8.84186
▁دختر	-8.84247
▁رانند	-8.84288
▁خالی	-8.84363
▁اضاف	-8.8438
▁معتقد	-8.8463
عده	-8.84659
▁دنیای	-8.84755
▁بهمن	-8.84796
▁اوراق	-8.84818
▁کنندگان	-8.84897
نده	-8.84899
▁فدرر	-8.85014
▁کنون	-8.85212
▁۱۰۰	-8.85392
▁مشغول	-8.85482
▁پل	-8.85531
▁افتاده	-8.85791
▁بهبود	-8.85838
▁دومین	-8.86004
▁سنگ	-8.86056
▁۲۳	-8.86089
▁خواهان	-8.86183
▁۱۸	-8.86214
▁انداز	-8.8667
▁تاجیکستان	-8.86711
▁مجوز	-8.86829
▁اظهارات	-8.86852
▁سخنران	-8.86893
▁دانند	-8.86966
▁سنگین	-8.86972
اخر	-8.87094
▁کارخان	-8.87278
▁پژوهش	-8.87517
▁دریا	-8.87529
▁ایالت	-8.87648
ام	-8.87894
▁تی	-8.8804
طور	-8.88177
یا	-8.88255
گر	-8.88345
▁طلا	-8.88774
▁حداقل	-8.88866
▁کانال	-8.89015
▁۲۴	-8.89022
▁گمرک	-8.8907
▁اجرایی	-8.89122
▁بحث	-8.89149
▁سوریه	-8.89151
▁امام	-8.89389
▁رساند	-8.89724
▁سریع	-8.89805
▁مقررات	-8.8998
▁معامل	-8.9
▁مادرید	-8.90052
▁پنجم	-8.90067
▁پیشتر	-8.90161
▁تاتنهام	-8.90204
▁بو	-8.90271
▁فرمانده	-8.90301
یون	-8.90738
▁قطعی	-8.908
▁مثبت	-8.90876
▁حت	-8.90924
اس	-8.90996
▁نشد	-8.91008
▁۹۰	-8.9102
▁نقدینگی	-8.91079
▁پاسداران	-8.91102
▁تجمع	-8.9115
▁طبیعی	-8.91174
▁موافقت	-8.91229
▁رکود	-8.9125
▁حسین	-8.91363
▁حریف	-8.91905
▁زود	-8.91944
▁مستند	-8.91963
۳	-8.9198
▁روش	-8.92085
▁انگلیسی	-8.92228
▁گردد	-8.92358
▁زدن	-8.92522
▁محمو	-8.92847
دو	-8.92856
▁سا	-8.93283
▁اسپانیا	-8.93468
▁مدیریت	-8.93666
▁خاک	-8.93749
▁کنونی	-8.93771
وایل	-8.94057
▁بازارهای	-8.94293
▁روزانه	-8.94428
▁فیفا	-8.94591
▁قدیمی	-8.94645
▁مرداد	-8.94652
▁۲۱	-8.94787
▁تشخیص	-8.94794
▁حرف	-8.95005
ید	-8.95088
▁ژاپن	-8.95404
▁دید	-8.95515
محمد	-8.95545
▁خ	-8.95581
▁هوشمند	-8.9565
▁رشت	-8.95682
▁وزن	-8.95714
▁صدای	-8.95751
ستان	-8.9609
▁عهد	-8.96272
▁مادر	-8.96467
▁وضع	-8.96483
▁امیدوار	-8.96488
▁مک	-8.96653
▁آوری	-8.9676
▁تقوی	-8.96768
▁پای	-8.96808
▁دکتر	-8.96866
▁اردیبهشت	-8.96898
▁۱۳۹۹	-8.969
▁علاقه	-8.96917
▁جایی	-8.96975
تر	-8.96995
▁گذاشت	-8.97048
▁دفتر	-8.9712
▁صحنه	-8.97248
▁رخ	-8.97254
▁آورده	-8.97262
▁سعید	-8.97291
▁دقیق	-8.9747
▁رفتار	-8.97849
▁مرز	-8.97868
▁دانشمندان	-8.97874
▁گذار	-8.97901
▁کیلومتر	-8.9792
▁وابست	-8.98021
▁جزئیات	-8.98025
▁یابد	-8.98051
▁قتل	-8.98054
▁اسطوره	-8.98125
▁امید	-8.98131
▁نفتکش	-8.98173
▁پوند	-8.98201
▁بنا	-8.98201
▁آبی	-8.98225
▁فارس	-8.98259
▁مد	-8.98585
▁صدر	-8.98707
▁کارشناسان	-8.98769
▁فنی	-8.98798
▁مستقیم	-8.98958
▁تومانی	-8.98967
▁مونیخ	-8.99219
▁بن	-8.99238
▁سرشناس	-8.99241
▁ظرف	-8.99246
▁نشود	-8.99344
▁قدم	-8.99417
▁مر	-8.99493
فورد	-8.99513
▁بنابر	-8.99615
▁۲۸	-8.99628
▁صعود	-8.99671
▁زندانی	-8.99718
▁معنای	-8.99825
▁آلمانی	-8.99836
▁اوت	-8.99846
▁ساز	-8.99962
▁مت	-8.99981
▁راست	-9.00221
▁افزوده	-9.00271
▁زنی	-9.00313
▁قالیباف	-9.0044
▁العاده	-9.00441
▁خرداد	-9.00464
▁موقعیت	-9.00488
▁دوچرخه	-9.00512
▁معادل	-9.00544
▁پذیر	-9.00618
▁رویترز	-9.00627
▁ز	-9.00673
▁دین	-9.00731
▁دبیر	-9.0078
▁نداشته	-9.00796
یزه	-9.00816
▁فو	-9.00825
▁دل	-9.00863
▁درست	-9.00863
۹	-9.00881
▁جدا	-9.01094
▁مقامات	-9.01104
▁هنرمند	-9.01246
▁گوش	-9.01382
▁جنگل	-9.0159
▁بهار	-9.01657
▁نقاط	-9.01671
▁مدافع	-9.01682
▁نوبل	-9.01707
▁صبح	-9.01743
▁جشن	-9.01754
▁هدایت	-9.01788
▁واشنگتن	-9.01788
▁سوئیس	-9.01861
▁جنجال	-9.019
▁منف	-9.01965
▁گیرند	-9.02132
▁مغز	-9.02244
۰۰	-9.02368
▁اساسی	-9.02649
▁روایت	-9.02873
▁تورنمنت	-9.02924
▁فراهم	-9.02939
▁دوربین	-9.02972
▁پاکستان	-9.02972
▁مبتلایان	-9.02989
▁قاچاق	-9.02998
▁ضد	-9.03091
▁نوری	-9.03106
پ	-9.03137
▁برزیل	-9.0316
▁آموزش	-9.03213
▁رئال	-9.03261
▁موجود	-9.03318
▁بیکار	-9.03349
▁خواهیم	-9.03371
▁شخصی	-9.0348
ح	-9.03493
ویه	-9.03494
▁ساختمان	-9.04388
اخ	-9.04418
▁محمدرضا	-9.04519
▁برداشت	-9.04551
▁خودروهای	-9.04629
▁بهداشتی	-9.04652
▁مجله	-9.04659
▁شخصیت	-9.04692
▁کا	-9.04698
اسیون	-9.04726
▁خورده	-9.04811
▁عرب	-9.05015
▁چک	-9.05326
▁تحویل	-9.05472
▁راهی	-9.05475
▁صلح	-9.05494
▁معتبر	-9.055
▁استقبال	-9.05514
▁دانش	-9.05705
▁دارو	-9.05739
کی	-9.05927
▁کشاورز	-9.06001
▁پوست	-9.06123
▁ظاهر	-9.0614
▁مهار	-9.06529
▁حزب	-9.06798
▁خانگی	-9.06849
▁چیست	-9.06868
▁مدعی	-9.06891
▁نویس	-9.06946
کنندگان	-9.06961
▁قسمت	-9.06987
▁مایک	-9.07162
▁صف	-9.07171
▁مالک	-9.07276
▁سینمای	-9.07384
▁خورد	-9.0787
▁ژان	-9.07889
▁پیشرفت	-9.07922
▁یو	-9.07948
▁آمازون	-9.08085
▁بهادار	-9.08105
▁اشتباه	-9.08199
▁تزریق	-9.08203
▁کاربران	-9.08249
▁قبلا	-9.08318
▁فوریه	-9.0832
خش	-9.08344
▁شاه	-9.08357
یات	-9.08452
۰	-9.08636
داری	-9.08793
▁-	-9.08856
فدراسیون	-9.08883
▁خورشیدی	-9.09108
▁اصلاح	-9.09162
▁دریایی	-9.09289
▁آلبوم	-9.09458
▁خدمات	-9.09467
▁ارتش	-9.09534
▁هستیم	-9.09562
▁ارسال	-9.09601
▁داریم	-9.09672
▁نشری	-9.09723
▁فعلی	-9.09751
▁کالاهای	-9.09805
رد	-9.09883
خواهد	-9.0997
کسی	-9.10142
▁استاد	-9.10404
▁ایمن	-9.10412
گاهی	-9.10604
▁ادبیات	-9.10824
▁شی	-9.10878
▁پروتکل	-9.10978
▁شرق	-9.11094
▁متعل	-9.11177
▁همسر	-9.1142
▁ژوئیه	-9.12138
▁عجیب	-9.12226
▁لحظ	-9.12235
▁فوری	-9.12466
▁مدیران	-9.12476
▁تعهدات	-9.12575
▁خودروساز	-9.12611
▁مجید	-9.12674
خ	-9.128
▁متوسط	-9.13116
▁غربی	-9.13242
▁رضا	-9.1342
▁ناز	-9.13552
▁بیت	-9.13558
▁قضائیه	-9.13659
▁کمبود	-9.13681
▁معترضان	-9.13718
ساوی	-9.13764
▁یکدیگر	-9.13797
▁عادی	-9.13869
▁سفارت	-9.13916
▁نداشت	-9.14002
▁میلان	-9.14071
▁فر	-9.14223
▁دختران	-9.14235
هرگز	-9.14245
▁اقیانوس	-9.14287
▁۲۶	-9.14411
▁بیمار	-9.14426
▁برگشت	-9.14834
▁شاعر	-9.14906
▁نیویورک	-9.14979
▁مسلح	-9.14989
▁نوامبر	-9.14997
▁مطالع	-9.15058
▁هاست	-9.15113
▁سینمایی	-9.15177
▁نخواه	-9.15199
▁احساس	-9.15254
▁ایم	-9.1529
▁بازرگانی	-9.15373
سازمان	-9.15628
▁تیر	-9.15684
▁عین	-9.16052
نقض	-9.16075
▁بلوچستان	-9.16367
▁نت	-9.16386
▁اهمیت	-9.16406
▁خلق	-9.16422
▁سرطان	-9.16494
▁معمولا	-9.16625
▁کوین	-9.16639
▁گرفتند	-9.16661
▁زخمی	-9.16855
فرانسوی	-9.16894
▁مهاجم	-9.16975
▁کارهای	-9.16997
▁واقعیت	-9.17123
▁چندان	-9.17132
▁نهایت	-9.17551
▁محرم	-9.17692
▁مشا	-9.17695
▁اختصاص	-9.17813
ازگی	-9.17823
▁سهم	-9.17931
رکت	-9.17983
▁نشر	-9.18026
▁غذا	-9.18106
▁برقرار	-9.18115
گ	-9.18121
سال	-9.18245
۷	-9.18474
▁کارکنان	-9.18579
▁نگه	-9.18622
▁منج	-9.18678
ترانه	-9.18795
▁آهنگ	-9.1916
▁۲۰۱۷	-9.19312
تان	-9.19661
نین	-9.19726
روازه	-9.19732
▁حذفی	-9.19984
▁جمعی	-9.19986
توجه	-9.20047
▁مکان	-9.20098
▁توییت	-9.20235
▁سرخ	-9.20379
▁گستر	-9.2067
▁گام	-9.20713
▁لباس	-9.20817
▁عوامل	-9.2089
▁نحو	-9.20901
▁عق	-9.20948
▁ماموران	-9.20976
▁حاشیه	-9.2105
▁تیراندازی	-9.21078
▁توقف	-9.21085
▁کلوپ	-9.21199
▁مخالفان	-9.21227
▁سعی	-9.21299
اوری	-9.21303
▁۷۰	-9.21367
▁سهمی	-9.21475
▁لو	-9.21548
▁موشک	-9.21631
▁اوج	-9.21833
یروز	-9.21918
▁احتمالی	-9.21952
▁اصل	-9.21973
▁دریای	-9.22
▁شهروند	-9.22035
نیوم	-9.22279
▁زاد	-9.22281
▁ارقام	-9.22334
▁خوش	-9.22338
▁محصولات	-9.22343
▁کنسرت	-9.2236
▁مدیرعامل	-9.22437
من	-9.22474
▁فردی	-9.22492
▁باره	-9.22504
▁صوتی	-9.22599
▁تمامی	-9.22717
▁مو	-9.22886
▁هست	-9.22921
▁کرونای	-9.23006
▁تصور	-9.23009
▁زندانیان	-9.2315
▁فردا	-9.23154
رضا	-9.23291
وزارت	-9.23361
▁سپاهان	-9.23465
▁کشورش	-9.23637
▁مبلغ	-9.23825
▁هموار	-9.23949
▁تماس	-9.23952
▁امارات	-9.24021
▁واگذار	-9.24064
▁پنجشنبه	-9.24099
▁نویسندگان	-9.24102
قیف	-9.24132
مقام	-9.24161
▁مخالفت	-9.24234
▁تلفن	-9.24253
تنظیم	-9.24255
نا	-9.24266
▁تقاضا	-9.24343
▁بعدی	-9.24484
▁۳۱	-9.24495
▁۳۰۰	-9.2461
▁برود	-9.25025
▁آزار	-9.25079
▁اورا	-9.25086
▁بنز	-9.25165
▁متعدد	-9.25401
▁شهریور	-9.2543
▁حفاظت	-9.25446
▁چالش	-9.2546
▁ایسنا	-9.25557
▁مرزی	-9.25589
▁مسافران	-9.25752
سته	-9.25824
▁جایگاه	-9.25861
▁بیماران	-9.25931
▁رافائل	-9.25939
▁داشتن	-9.26018
▁پست	-9.26204
▁پژوهشگران	-9.26461
قانونی	-9.26827
▁ماجرا	-9.2683
▁دا	-9.2689
▁توکیو	-9.26978
▁مشمول	-9.26984
▁صنایع	-9.27024
▁اخبار	-9.27031
▁تسلا	-9.27099
▁رونالدو	-9.27122
▁فایل	-9.27161
▁۳۵	-9.27177
▁دشوار	-9.27232
دار	-9.27342
▁فوتبالیست	-9.27428
▁مارک	-9.27562
▁کافی	-9.27759
دولت	-9.27795
▁مربیان	-9.27844
▁علیرضا	-9.27891
باید	-9.27978
ط	-9.27995
داد	-9.28045
وس	-9.28135
▁۹۹	-9.28157
▁ساکن	-9.28177
ران	-9.28277
کس	-9.28389
رده	-9.28443
▁سند	-9.28532
▁خشونت	-9.28589
▁زاغری	-9.2859
▁حاصل	-9.28603
▁دسته	-9.28646
▁اجاره	-9.287
▁اخراج	-9.28704
▁ایستگاه	-9.28767
▁بازنشستگان	-9.28794
▁ابلاغ	-9.28982
تیم	-9.28998
▁توصی	-9.29052
▁امیر	-9.29067
▁انجمن	-9.29083
▁راجر	-9.29199
▁داند	-9.2936
گری	-9.29426
امبر	-9.29461
▁نتوانست	-9.29541
حسین	-9.29594
▁برمی	-9.29922
▁سکه	-9.29976
▁شرقی	-9.29979
▁مجری	-9.30025
▁اصفهان	-9.30229
▁مسدود	-9.30229
▁ناگهان	-9.30231
▁سراوان	-9.30235
▁نگهداری	-9.30244
▁نزدیکی	-9.30284
▁صلاحیت	-9.30298
▁آسمان	-9.30338
▁عصر	-9.30393
▁سلیمانی	-9.30494
وم	-9.30511
▁پاس	-9.30529
▁ملک	-9.30617
لیک	-9.30665
غلب	-9.30689
▁ورزشکاران	-9.30703
را	-9.30705
▁مشاور	-9.30707
▁دیوان	-9.30744
▁الملل	-9.30878
▁اوپ	-9.30953
▁لی	-9.31119
▁حسینی	-9.31123
▁خیابان	-9.31169
▁اندازی	-9.3138
▁قاسم	-9.31436
▁نمو	-9.31532
▁فرزند	-9.31579
▁ورزشکار	-9.3164
▁۸۰	-9.31708
▁اینستاگرام	-9.31716
▁اجلاس	-9.31898
▁۱۳۹۸	-9.31903
▁بقیه	-9.31905
▁طبیعت	-9.31919
▁پلاس	-9.31928
▁فرودگاه	-9.31965
▁دستمزد	-9.32009
▁تاسیسات	-9.32042
▁فضا	-9.32054
▁نادال	-9.32059
▁طالبان	-9.32061
تبه	-9.32118
ونه	-9.32123
▁گلستان	-9.32217
▁ناظر	-9.32551
▁سخنان	-9.32639
ته	-9.32839
▁نور	-9.33012
▁مناسب	-9.33166
▁تست	-9.33182
▁اسرائیلی	-9.33222
هایی	-9.33235
▁کارها	-9.33255
▁موتور	-9.33291
▁رادیو	-9.33298
▁جراح	-9.33335
▁هواپیمای	-9.33479
قب	-9.33488
▁ثابت	-9.33589
▁توزیع	-9.33589
▁نجات	-9.33602
▁شمالی	-9.33631
▁آنلاین	-9.33644
▁برجسته	-9.33693
▁سوپر	-9.33699
▁خیریه	-9.33701
▁حکام	-9.33777
▁صرف	-9.33824
▁جوایز	-9.33856
▁صراف	-9.33858
▁کردیم	-9.33867
▁موقت	-9.33896
خانم	-9.33941
▁جوکوویچ	-9.33961
▁سوال	-9.3408
خبرگزا	-9.34192
▁روزها	-9.34309
▁ادبی	-9.34336
▁باور	-9.3439
▁گران	-9.3451
یان	-9.34562
▁تقاضای	-9.3479
یابی	-9.35034
▁۲۹	-9.35067
علوم	-9.35154
▁تمرین	-9.35244
▁اکتبر	-9.35313
▁آذر	-9.35357
▁تاخیر	-9.35361
▁مواردی	-9.35394
▁بدهی	-9.35493
▁بوکس	-9.35499
▁قربانیان	-9.35506
▁لیون	-9.35573
▁برادر	-9.35602
شیدا	-9.35628
▁مج	-9.35745
▁مطابق	-9.35754
▁داروی	-9.35778
▁اکبر	-9.35871
▁چهل	-9.35914
ما	-9.35934
▁عبدال	-9.36325
▁تری	-9.3634
▁تعوی	-9.36485
▁خدم	-9.36507
▁حیات	-9.36547
▁فرار	-9.36582
▁کمیس	-9.36644
▁کردم	-9.36725
▁رویکرد	-9.36789
▁گرم	-9.36814
▁ماهی	-9.36964
جا	-9.36993
▁کاپیتان	-9.3707
▁سلطنت	-9.37082
▁افتخار	-9.37115
▁بعدا	-9.37141
▁معرض	-9.37164
▁فراموش	-9.37177
▁حاکی	-9.37241
▁ضمن	-9.37256
▁تخریب	-9.37282
▁مالکی	-9.37325
بس	-9.3733
▁مراجع	-9.37372
انجام	-9.37404
رنگ	-9.37411
▁گذارد	-9.37501
▁آمیز	-9.37569
▁مخالف	-9.37751
گرد	-9.37836
▁دادستان	-9.37925
▁فرستاده	-9.37941
▁عدد	-9.3807
وق	-9.38289
▁سیما	-9.38575
شته	-9.38733
یکی	-9.38791
▁هنرپیشه	-9.38888
▁موضع	-9.38896
ضاع	-9.38902
▁هواپیما	-9.39012
▁رسما	-9.39022
▁پرو	-9.39035
▁وگو	-9.39044
▁منتظر	-9.39071
▁فرهاد	-9.39247
▁دیدن	-9.39284
▁اتریش	-9.39289
▁دارای	-9.39366
▁خورشید	-9.39438
گزارش	-9.39443
▁اتفاقات	-9.39472
▁خیل	-9.39478
▁منتقدان	-9.39543
▁غذای	-9.39741
▁شبانه	-9.39756
▁بازگرداند	-9.39824
▁محبوب	-9.3985
▁الدین	-9.39891
▁گفتند	-9.39935
▁رقیب	-9.39941
▁قضاییه	-9.3995
▁ض	-9.40205
▁نیستند	-9.40239
▁حمل	-9.40253
▁حس	-9.40317
▁ارزها	-9.40358
▁درجه	-9.40416
▁جودو	-9.40431
بط	-9.40583
▁ویمبلدون	-9.40673
▁مسئ	-9.40744
▁قبول	-9.40774
▁تئاتر	-9.40831
▁پرس	-9.40917
▁هماهنگ	-9.41047
چند	-9.4115
اره	-9.41225
اب	-9.41227
▁همتی	-9.41228
است	-9.41248
▁خاص	-9.41275
▁وام	-9.41278
یست	-9.41408
▁آل	-9.4143
▁اطراف	-9.41575
سون	-9.41604
▁محمدی	-9.42096
افسانه	-9.42096
▁محسو	-9.42263
تا	-9.42266
رئیس	-9.42289
▁محروم	-9.42327
▁کارشناس	-9.42458
▁گیر	-9.42493
▁مشهد	-9.42529
▁مسائل	-9.42531
▁نداریم	-9.42544
▁دعوت	-9.42566
قدر	-9.42571
▁نگار	-9.42583
▁مقصد	-9.42612
▁وکیل	-9.42626
▁ازدواج	-9.42635
▁گذرد	-9.42683
ود	-9.42776
▁میانه	-9.42927
▁روانی	-9.42956
▁سپت	-9.43073
رسدس	-9.43215
شویی	-9.43243
▁حقیق	-9.43523
▁پسر	-9.43629
▁لس	-9.43639
▁صاحب	-9.43883
▁بنیاد	-9.4391
▁حقوقی	-9.43915
▁فرمو	-9.43961
▁عمیق	-9.44145
اندازه	-9.44205
▁تحصیل	-9.44337
▁پایه	-9.44382
▁بلینکن	-9.44409
▁تمدید	-9.44465
▁خاطره	-9.44524
▁آلودگی	-9.44538
▁ساحل	-9.44551
سه	-9.44566
▁توانسته	-9.44578
▁بیان	-9.44653
▁طرفداران	-9.44691
▁آرام	-9.44708
▁کلاس	-9.4472
▁کارمندان	-9.44784
اد	-9.44787
▁مراقب	-9.44827
اری	-9.4491
هر	-9.44926
▁جواد	-9.45254
▁آور	-9.45475
▁بزرگتری	-9.45627
▁ژا	-9.45692
▁افزود	-9.45697
▁دستگیر	-9.45831
وه	-9.45996
▁رحمان	-9.46152
▁پیوست	-9.4621
برای	-9.46328
▁آنجلس	-9.46345
▁نارنجی	-9.46433
▁سرپرست	-9.4651
▁گرانی	-9.46637
▁سامانه	-9.46649
▁نداده	-9.46943
▁هنرمندان	-9.47025
▁۳۲	-9.47102
▁چنان	-9.47248
▁قول	-9.47344
دست	-9.47522
▁کشوری	-9.47751
۱۶	-9.47863
▁نماد	-9.48123
▁بالاتری	-9.48193
▁الهام	-9.48313
▁متخصص	-9.48358
▁زمستان	-9.48363
▁متولد	-9.48379
▁لوکس	-9.48389
▁فرا	-9.4839
▁۲۰۱۵	-9.48418
▁ناپذیر	-9.48422
▁نسخ	-9.4843
▁اطمینان	-9.48471
▁آرسنال	-9.4848
▁فیوری	-9.48485
▁مدیرکل	-9.48525
▁اهل	-9.48575
▁سبک	-9.48626
▁آکادمی	-9.48658
▁شناسا	-9.48689
▁ریز	-9.48724
▁شغل	-9.48728
بول	-9.4888
▁اضطرار	-9.49008
▁دام	-9.49033
▁بندر	-9.49149
▁درک	-9.49174
▁انتخاباتی	-9.49205
▁یخ	-9.49297
شب	-9.49549
▁ابراهیم	-9.49576
یل	-9.4971
▁ترس	-9.49729
▁نقاش	-9.49845
▁شهرت	-9.50183
▁تکرار	-9.50255
▁هشتم	-9.50258
▁ژافره	-9.50292
▁اسکاتلند	-9.50294
▁سرنگون	-9.50295
▁مصنوعی	-9.50296
▁جبران	-9.50302
▁بان	-9.5039
▁عرص	-9.50483
▁رانندگان	-9.50494
▁مس	-9.50608
▁گاه	-9.50637
▁بند	-9.50821
▁جلوی	-9.50969
کش	-9.51006
▁وقف	-9.51018
▁جوانان	-9.51169
▁ناسا	-9.51339
▁نهم	-9.51426
لان	-9.51428
اسی	-9.51487
▁سوزی	-9.51561
▁پارک	-9.51667
...	-9.51673
▁نکرد	-9.5171
▁تخت	-9.51756
شاره	-9.52036
▁جذاب	-9.52101
▁موثر	-9.52112
پیش	-9.52241
▁اعتبار	-9.52338
▁تشویق	-9.52342
▁شاغل	-9.52392
▁خسارت	-9.52397
▁کلمبیا	-9.52398
▁پرتاب	-9.5241
▁شناسی	-9.52458
▁فیسبوک	-9.52521
▁کوه	-9.52524
▁محافظ	-9.52577
▁مدرسه	-9.52677
وثی	-9.52699
حسن	-9.52787
▁باغ	-9.52804
▁موسو	-9.52893
▁دوستان	-9.52933
▁کادر	-9.52933
وئل	-9.53024
▁اطلاعی	-9.53031
▁اسکی	-9.53099
▁نفس	-9.53127
▁بلا	-9.53139
وید	-9.53285
▁مشاهد	-9.53373
▁نامداری	-9.53448
▁دامن	-9.53468
▁حالت	-9.5352
▁پدرش	-9.536
عهد	-9.54
▁جامع	-9.54027
هفته	-9.54088
▁کالیفرنیا	-9.54228
▁زند	-9.54316
▁هیئت	-9.54411
▁مراکز	-9.54414
▁آکسفورد	-9.54416
▁ژرمن	-9.54418
▁خطرناک	-9.54421
▁متوالی	-9.54423
▁صدرنشین	-9.54454
▁جیمز	-9.54488
▁تبریز	-9.54491
▁یوونتوس	-9.54543
▁متحد	-9.54566
▁دانیم	-9.54566
▁شفاف	-9.54644
▁درون	-9.54694
▁مشتریان	-9.54698
▁تولد	-9.54727
▁نیازمند	-9.54807
▁خلی	-9.5486
▁جه	-9.55036
وازه	-9.55351
▁یمن	-9.55438
همزمان	-9.55747
ئی	-9.55803
▁پن	-9.55815
▁بخت	-9.55834
▁متن	-9.56128
رت	-9.56451
▁دما	-9.56528
▁جذب	-9.56538
▁نطنز	-9.56541
▁الحاق	-9.56552
▁فعلا	-9.56581
▁پارلمان	-9.56608
▁حملات	-9.56627
▁جلب	-9.5664
▁اهواز	-9.56656
▁پایگاه	-9.56709
▁هویت	-9.56718
▁ماموریت	-9.56722
▁گشایش	-9.56768
ذیب	-9.56784
▁برخوردار	-9.56891
▁ترجم	-9.5695
▁تأ	-9.57
▁تماشاگران	-9.5705
▁امیدواری	-9.57182
▁گری	-9.57218
کل	-9.57292
▁داوطلبان	-9.57494
▁گوشت	-9.57806
ناصر	-9.57876
▁بستر	-9.57929
▁محققان	-9.57931
هم	-9.58221
▁شبی	-9.58262
▁استعفا	-9.58454
▁مجاز	-9.58478
▁تماشاگر	-9.58497
▁مسجد	-9.58507
تمام	-9.58511
کار	-9.58566
▁گشت	-9.58616
▁دیپلما	-9.58634
▁پاری	-9.58766
▁شصت	-9.58773
▁گواردیولا	-9.5892
▁عکاسی	-9.58924
▁مسعود	-9.59006
▁۴۲	-9.59048
▁حامل	-9.59156
کره	-9.59162
سیم	-9.59338
▁زودتر	-9.59367
▁شانس	-9.5944
▁قوی	-9.59443
▁واقعا	-9.59474
▁نرم	-9.59558
▁آفریقای	-9.59617
لو	-9.5973
▁ست	-9.59824
▁رویداد	-9.59916
▁۳۳	-9.59939
▁آفریقا	-9.60091
▁انداخته	-9.60092
▁روان	-9.60146
یده	-9.60207
▁پزشک	-9.60314
▁برداری	-9.60407
▁اظهار	-9.60677
▁لبنان	-9.60717
▁پنجاه	-9.60737
▁کیلوگرم	-9.6094
▁۱۳۹۷	-9.60943
▁نادر	-9.61032
▁مریخ	-9.61091
▁شگفت	-9.6113
نویه	-9.61222
▁برآورد	-9.61282
ماه	-9.61309
▁جسد	-9.61351
▁درحالی	-9.61368
▁ثانی	-9.61442
▁تایسون	-9.61565
▁نشدن	-9.61612
▁صدو	-9.61672
زاده	-9.61753
▁۹۷	-9.61761
▁پیگیری	-9.61842
ابت	-9.61884
▁ساده	-9.61944
فسور	-9.61963
▁ابر	-9.62093
▁همچو	-9.62131
صد	-9.62159
▁سرود	-9.62228
۱۸	-9.62232
▁نس	-9.62478
▁اقدامی	-9.62662
▁آنتونی	-9.62694
▁نوجوان	-9.62714
▁هفتم	-9.62978
▁چشمگیر	-9.63066
▁فرود	-9.6321
▁بسکتبال	-9.63211
▁دیجیتال	-9.63211
▁انتظامی	-9.63229
▁نیروگاه	-9.63292
▁۲۷	-9.6331
▁کیفیت	-9.63387
▁شهرستان	-9.63395
▁کیلومتری	-9.63398
▁ایرنا	-9.63408
▁پادشاه	-9.6342
▁آشنا	-9.63425
▁حراج	-9.63434
▁مقدار	-9.63443
▁دهیم	-9.6346
شرکت	-9.63547
▁شاهین	-9.63599
▁ایتالیایی	-9.63616
▁اسناد	-9.63701
▁مسافر	-9.63751
▁پزشکان	-9.63795
▁دقیقا	-9.63853
▁کلیه	-9.63877
▁عید	-9.63878
▁عمر	-9.6391
▁هرچ	-9.64005
▁ایستاده	-9.64047
▁ماجرای	-9.64075
بانک	-9.64205
▁دیوار	-9.64206
▁سخن	-9.64428
یش	-9.64514
گفته	-9.64603
▁فرم	-9.6465
غم	-9.6494
▁شرکتهای	-9.64965
▁هی	-9.65021
▁رهبری	-9.65049
جمع	-9.65185
رو	-9.65239
▁۴۵	-9.65289
▁تعلیق	-9.65553
▁بماند	-9.65594
▁دسامبر	-9.65606
▁هلند	-9.65617
▁عشق	-9.65678
▁کلید	-9.65689
▁سری	-9.65724
▁ثبات	-9.65725
▁هن	-9.65736
▁تبعیض	-9.65742
▁بلژیک	-9.65748
▁مسئولیت	-9.65765
▁بدهد	-9.65798
▁نوسان	-9.65835
▁همسرش	-9.65899
▁ژاپنی	-9.66021
▁آلوده	-9.6603
▁فراز	-9.66043
▁جنسیت	-9.6605
▁توانای	-9.66187
▁شاملو	-9.66279
▁شهرداری	-9.66551
درآمدهای	-9.66701
▁تق	-9.66721
اگر	-9.6678
▁اسدی	-9.66834
اپی	-9.66857
بعضی	-9.66905
▁بازدید	-9.66992
▁اسب	-9.67133
▁تخم	-9.67292
مدال	-9.67414
▁سفرهای	-9.67497
▁معمول	-9.67509
▁یافتن	-9.67521
▁تحلیل	-9.67574
▁پاک	-9.67624
▁امر	-9.67744
▁اعتماد	-9.67916
▁تعریف	-9.67922
▁۴۰۰	-9.67961
▁کی	-9.67974
▁میراث	-9.67989
▁دستورالعمل	-9.6799
▁روغن	-9.67992
▁ساعات	-9.68041
▁تحولات	-9.68058
▁نامش	-9.68068
▁اتفاقی	-9.68122
▁آواز	-9.68122
▁خبرساز	-9.68132
▁اسپانیایی	-9.68137
▁امشب	-9.68166
▁سوئد	-9.68188
▁آرایش	-9.68252
یوم	-9.68254
گین	-9.68294
▁علنی	-9.68311
▁حداکثر	-9.68324
▁محصول	-9.68392
▁خشک	-9.68395
▁آمدن	-9.68539
▁قال	-9.68637
▁آسان	-9.68659
▁پهلوی	-9.68729
تکلیف	-9.68834
▁مناسبت	-9.68847
خمین	-9.68988
▁شهری	-9.69038
غول	-9.69145
▁ذهن	-9.69182
▁کارزار	-9.69225
باقر	-9.69253
▁تپ	-9.69427
بنابر	-9.69639
▁کارت	-9.6991
▁جی	-9.6999
▁نوروزی	-9.70172
▁پرتغال	-9.70355
▁معن	-9.70355
▁پنهان	-9.70358
▁مشاغل	-9.70364
▁عبارت	-9.70368
▁گروسی	-9.70384
کا	-9.70404
▁رونق	-9.70407
▁تنفس	-9.70408
▁بگیرند	-9.70417
لاک	-9.70418
▁زهرا	-9.70432
▁مثال	-9.7046
▁تکمیل	-9.70513
▁هوش	-9.70541
▁مطلب	-9.70546
▁کالاها	-9.70556
▁شویم	-9.70571
▁خودکشی	-9.70637
▁پالایشگاه	-9.70685
▁ملایی	-9.70711
▁برگزید	-9.70773
رز	-9.70843
▁چرخ	-9.70847
▁نفوذ	-9.70924
▁بردن	-9.70982
▁تابلو	-9.7103
▁تعرف	-9.71052
کته	-9.71696
▁۱۵۰	-9.71702
۱۴	-9.7172
▁رویدادها	-9.71756
▁دوز	-9.7185
▁بازگش	-9.7197
▁خاصی	-9.72089
سعید	-9.72284
▁عکاس	-9.7251
▁مان	-9.72527
▁اع	-9.72644
فت	-9.72665
▁کش	-9.72694
▁محاسب	-9.72742
▁مار	-9.7276
جی	-9.72786
آزادسازی	-9.72796
▁جزیر	-9.72798
▁پرچم	-9.7285
▁رویا	-9.72853
▁عمدتا	-9.72854
▁اتومبیل	-9.72854
▁حکایت	-9.72854
▁گرنداسلم	-9.72855
▁اندونزی	-9.72855
▁غیرمستقیم	-9.72858
▁اولویت	-9.72865
▁تاسیس	-9.72865
▁دیپلماتیک	-9.72896
▁تردد	-9.72898
▁علائم	-9.72928
▁محرومیت	-9.72935
▁اقلیم	-9.72943
▁قایق	-9.72943
▁غافلگیر	-9.72943
▁کانون	-9.72948
▁وسیع	-9.72951
▁وایلد	-9.72962
▁ششم	-9.72979
▁پوشش	-9.72983
▁مبن	-9.73021
▁ردیف	-9.73031
▁ویدیوی	-9.73062
▁خمینی	-9.73073
▁معلوم	-9.73089
▁سرنوشت	-9.73092
▁پکن	-9.73103
▁ریال	-9.73249
▁سازنده	-9.73265
▁سیست	-9.73297
▁عبدالله	-9.73338
اک	-9.7343
▁خواب	-9.73508
جسم	-9.73747
▁زدند	-9.73788
▁۳۴	-9.74077
▁دلاری	-9.74109
▁برنت	-9.74238
خالت	-9.74502
▁کنگ	-9.75012
▁مسافرت	-9.75399
▁فیزیک	-9.75412
▁خاتم	-9.75413
▁چارچوب	-9.75417
▁نیمکت	-9.75444
▁فراتر	-9.75448
▁بابا	-9.75472
▁۲۰۱۱	-9.75483
▁هافبک	-9.75491
▁هفتاد	-9.75537
▁پاییز	-9.75545
▁فروخته	-9.75579
▁شواهد	-9.75584
▁آهن	-9.75587
▁خطیب	-9.75605
▁یادآور	-9.75738
▁تجا	-9.75784
▁سرکوب	-9.75828
▁تماشای	-9.75867
▁تفاوت	-9.7592
▁جری	-9.75933
▁کانادا	-9.75945
▁دهنده	-9.76039
▁منظور	-9.76104
نجر	-9.7614
شی	-9.76338
▁اص	-9.76394
▁آم	-9.76413
شدید	-9.76459
▁کجا	-9.76475
▁عملا	-9.7651
▁بازرس	-9.76606
▁ضرور	-9.7681
▁تحول	-9.76979
▁ویژ	-9.77021
▁موقع	-9.77059
▁مالیاتی	-9.77087
▁اختلال	-9.77246
▁برج	-9.7745
▁لستر	-9.77455
▁بیستم	-9.77503
▁نامزدهای	-9.77568
▁بهای	-9.77572
▁موافق	-9.77778
▁گزین	-9.78001
▁لذت	-9.78041
▁حوادث	-9.78046
▁واگن	-9.78055
▁خفاش	-9.78087
▁داور	-9.7809
▁باشیم	-9.78091
▁مقدمات	-9.78129
▁خلاف	-9.78185
ریمه	-9.78189
▁تالاب	-9.78213
▁مجازات	-9.78218
▁نژادپرست	-9.7822
▁شهرسازی	-9.78225
وند	-9.78326
▁طلای	-9.78337
▁رمز	-9.78376
▁صادق	-9.7844
▁ار	-9.7849
▁خرد	-9.78491
▁حج	-9.78498
کن	-9.78551
▁صورتی	-9.7869
وال	-9.78732
▁غلام	-9.78771
▁ریش	-9.78884
▁مادرش	-9.79045
▁خان	-9.79048
▁شک	-9.7914
▁عطر	-9.79297
واع	-9.79317
بستری	-9.79471
▁برند	-9.79607
▁نامید	-9.7969
▁پرده	-9.79698
آ	-9.79745
پدیده	-9.79901
▁تردید	-9.79911
▁عفو	-9.79983
▁بودم	-9.80101
ص	-9.8014
▁هیا	-9.80206
وش	-9.80277
▁هتل	-9.80305
▁دائم	-9.80403
▁پژوهشگر	-9.80419
▁تماشا	-9.80439
دکتر	-9.80449
آزمایی	-9.80456
▁معدن	-9.80619
داران	-9.80651
▁آشکار	-9.80774
▁سلول	-9.80789
▁حیوانات	-9.80802
▁تراکتور	-9.80838
▁سهامداران	-9.80903
وقت	-9.80927
▁خاورمیانه	-9.80949
▁مستقل	-9.80953
▁فرگوسن	-9.80958
▁اینتر	-9.80963
▁تجهیزات	-9.81
▁سپرده	-9.81065
سقف	-9.81081
قرار	-9.81095
▁نوروز	-9.81169
▁مدنی	-9.81204
▁ناکام	-9.81275
▁جانب	-9.81377
▁انداخت	-9.81385
▁طلب	-9.81425
▁مدرن	-9.81451
▁راحت	-9.81679
▁فا	-9.81713
▁استاندار	-9.81766
ذ	-9.81894
▁اسکن	-9.82205
ورت	-9.82257
▁پو	-9.82263
پی	-9.82563
لت	-9.82886
▁تاپ	-9.82896
▁فولک	-9.82903
▁پیوسته	-9.83017
▁عظیم	-9.83142
قابل	-9.83198
▁۶۰۰	-9.8334
▁نمای	-9.83373
▁رها	-9.8338
▁تسلیحات	-9.83528
▁جستجو	-9.83528
▁مورینیو	-9.83528
▁منافع	-9.83588
▁بگذارد	-9.83588
▁منع	-9.83605
رون	-9.83619
▁میناوند	-9.83641
▁مخفی	-9.83667
▁دفاعی	-9.83692
▁جانشین	-9.83707
▁اورتون	-9.83713
▁شرط	-9.83791
▁هیجان	-9.83805
▁آرامش	-9.83861
▁هو	-9.83907
▁آماد	-9.83908
▁کنفرانس	-9.83951
▁نمایشگاه	-9.8398
▁برون	-9.84007
▁درخشان	-9.8401
کو	-9.8403
▁مذهبی	-9.84051
▁شهرها	-9.84369
▁اجباری	-9.84483
▁جورج	-9.84612
بین	-9.84669
▁فقر	-9.84685
▁جک	-9.84699
پیچیده	-9.84715
▁ذخ	-9.84716
▁خشم	-9.84917
▁ایست	-9.85013
▁مدار	-9.85029
لا	-9.85136
باره	-9.85206
▁بردند	-9.85325
ساله	-9.85373
▁کارش	-9.85384
▁آر	-9.85474
▁بودیم	-9.8551
▁درآمدها	-9.85564
وزیر	-9.85703
▁خودروسازی	-9.85989
یو	-9.86037
بار	-9.86089
▁مطمئن	-9.86117
▁مص	-9.8612
▁پاپ	-9.86164
مت	-9.86301
▁فرمان	-9.86324
▁اقلام	-9.86386
▁مازندران	-9.86386
▁پیامدهای	-9.86391
▁خاتمی	-9.86429
▁نباشد	-9.86438
▁طبری	-9.86502
▁خطاب	-9.86545
سبب	-9.86556
▁برگزیت	-9.86584
▁تدریج	-9.86599
▁جواب	-9.86657
▁جم	-9.86746
▁زانو	-9.86756
▁تعطیلات	-9.86767
▁مرجان	-9.86767
▁سفارش	-9.86798
▁مهاجرت	-9.86803
▁امکانات	-9.86814
▁بازرسان	-9.86825
▁اسماعیل	-9.86839
▁تل	-9.86857
▁ذ	-9.86987
▁فرماندار	-9.87014
▁گردشگری	-9.87047
▁نمایندگی	-9.87085
▁همکاران	-9.87116
ولی	-9.87192
▁اتهامات	-9.87379
▁رحمانی	-9.87389
▁نشین	-9.87441
▁طلبان	-9.87494
▁نابودی	-9.87499
▁ایفا	-9.87543
▁طوری	-9.87554
نس	-9.87628
زی	-9.87709
▁بازیگران	-9.8772
▁گزارشگر	-9.87748
▁فروشگاه	-9.87752
▁کو	-9.87879
▁حامی	-9.88021
▁مرور	-9.88102
▁قدر	-9.88349
▁مهمتری	-9.88413
▁۷۰۰	-9.88574
▁خریدار	-9.8863
▁رهبران	-9.88665
▁دان	-9.89159
▁تور	-9.89288
ینگ	-9.89301
▁فراوان	-9.89316
▁ماندن	-9.89318
▁بغداد	-9.89323
▁معاصر	-9.89323
▁خراسان	-9.89324
▁هالیوود	-9.89325
▁مشروط	-9.89328
▁اصلا	-9.89335
▁آموز	-9.8935
▁ارشاد	-9.89373
▁عذر	-9.89374
▁صادرکنندگان	-9.89376
▁ماراتن	-9.89401
▁عمق	-9.89402
▁هاشمی	-9.89498
▁فولا	-9.89558
▁اولسان	-9.89635
▁اپل	-9.89644
▁رم	-9.8967
▁محکومیت	-9.8972
▁رسانی	-9.89755
▁خاوران	-9.89803
▁مخاطبان	-9.89926
▁نماز	-9.89933
▁سلمان	-9.8996
▁۴۴	-9.90038
▁اکثر	-9.90041
پور	-9.90072
▁پیمان	-9.90077
▁قد	-9.90101
▁هجوم	-9.90124
حدود	-9.90182
ابی	-9.90193
▁بخار	-9.90231
فاصله	-9.90304
▁اقامت	-9.90313
گانه	-9.9041
▁اندک	-9.90471
▁اوران	-9.90479
▁محمدجواد	-9.90529
▁روس	-9.90651
الب	-9.90708
امروز	-9.90885
نوبت	-9.90893
▁قله	-9.90913
▁یازده	-9.90924
▁۱۹۸	-9.91013
افزایش	-9.91034
▁انگار	-9.91061
▁حلق	-9.911
▁جر	-9.91119
▁رس	-9.91127
▁عاشق	-9.91341
حمل	-9.91552
▁کلاسیک	-9.91582
▁۹۵	-9.91621
▁۳۷	-9.917
▁نود	-9.9186
▁وال	-9.91872
کاری	-9.91909
▁آدم	-9.91921
▁ماهوار	-9.91929
▁گوشی	-9.9205
▁بیمه	-9.92071
▁بوشهر	-9.92075
▁زیرا	-9.92174
سم	-9.92184
▁وحش	-9.92291
▁۷۵	-9.92309
▁عوارض	-9.92352
▁احترام	-9.92354
▁جایگزین	-9.92357
▁یوفا	-9.92358
▁اماکن	-9.92364
▁اسلام	-9.92382
▁سرقت	-9.92432
▁تجدید	-9.92447
▁معارف	-9.92486
ئو	-9.92495
چ	-9.92563
▁بزند	-9.92567
▁لمس	-9.92578
▁ارتباطات	-9.9267
▁سانسور	-9.92698
▁گذر	-9.92719
▁قلع	-9.92798
۲۰۱۲	-9.92802
▁سبز	-9.92892
▁فق	-9.92939
▁فرو	-9.93072
▁عزاداری	-9.93176
▁شنا	-9.93203
▁داری	-9.93223
▁برقی	-9.93247
▁۳۹	-9.93248
وری	-9.93457
اند	-9.93481
▁تحلیلگر	-9.93582
▁زنند	-9.93603
▁حمید	-9.93622
خواهی	-9.93705
▁ذو	-9.93785
▁خیر	-9.94298
▁قر	-9.94308
بری	-9.94428
▁تنگ	-9.94503
▁کسر	-9.94632
▁گمان	-9.94658
لند	-9.94814
قیمت	-9.94954
▁کارمند	-9.95156
▁عاص	-9.95239
▁آموزشی	-9.95279
یوان	-9.95344
آن	-9.95445
▁قاجار	-9.95476
▁آفتاب	-9.95478
▁رستوران	-9.95479
▁خلاص	-9.95486
رسمی	-9.95491
طئ	-9.95509
▁جانسون	-9.95532
▁طوفان	-9.95561
▁علم	-9.95601
▁نمایشگر	-9.95604
▁فریاد	-9.9561
▁وستهم	-9.95671
▁پوشید	-9.95707
▁درحال	-9.95758
▁هیوندای	-9.95766
▁سوالات	-9.95783
▁مستمر	-9.95806
▁تاثیرگذار	-9.95898
▁ی	-9.95924
▁دانستند	-9.96085
▁قلم	-9.96112
▁۶۵	-9.96132
▁نیرو	-9.96143
▁بهشت	-9.96217
▁سرای	-9.96309
▁نی	-9.9631
مجموع	-9.96315
▁سرد	-9.96341
تو	-9.96356
▁اور	-9.96443
▁مسئولین	-9.96474
▁افسر	-9.96526
حال	-9.96548
▁شریفی	-9.96611
▁طیف	-9.96614
▁پیراهن	-9.96636
▁خوردن	-9.96657
▁آسیای	-9.96663
▁کشد	-9.96742
فر	-9.96955
راحل	-9.97087
▁خواه	-9.97124
▁اردو	-9.97151
ابط	-9.97184
دم	-9.97243
چی	-9.97285
▁آتی	-9.97377
▁فان	-9.97469
▁یاران	-9.97612
▁عام	-9.97625
▁معمار	-9.97677
▁۴۹	-9.9799
▁پرفروش	-9.9812
▁عادل	-9.98129
هزار	-9.9822
▁دانشمند	-9.98334
تواند	-9.9838
▁مطل	-9.98565
▁تاکسی	-9.98651
▁سوئیسی	-9.98655
دگی	-9.98672
▁دبلیو	-9.98702
▁فرآیند	-9.98702
▁گوناگون	-9.98704
▁سلاح	-9.98706
▁سایپا	-9.98706
▁مطبوعات	-9.98717
▁صمت	-9.98723
▁عراقچی	-9.98744
▁جنبش	-9.98763
▁مکانی	-9.98787
▁وسایل	-9.988
▁خطوط	-9.98803
▁فای	-9.9882
حت	-9.98836
▁مقاومت	-9.9886
ادی	-9.98884
▁پلاستیک	-9.98917
▁بنیان	-9.98918
▁حیدر	-9.99033
▁برندگان	-9.99055
▁۵۷	-9.99139
▁وانت	-9.99142
▁شوک	-9.99176
▁نگرفته	-9.99282
▁داستانی	-9.99298
▁آگاه	-9.99308
▁بلیت	-9.99328
▁زیبایی	-9.99346
▁سالها	-9.99432
▁خواهم	-9.9948
▁دایک	-9.99537
▁بطور	-9.9959
▁بلخ	-9.99646
▁اوبر	-9.99681
▁باند	-9.99763
▁همیلتون	-9.9982
▁فرستاد	-9.99827
▁فکری	-9.99828
▁عادت	-9.99889
وخیم	-10.0017
▁صالح	-10.0019
▁ذر	-10.0023
▁حا	-10.0032
▁بازنشست	-10.0033
▁کریست	-10.0051
▁آزمایشگاه	-10.0055
▁فلیک	-10.0058
▁تف	-10.0063
▁ضعیف	-10.007
▁یور	-10.0081
بنا	-10.0097
▁بهایی	-10.0102
رچند	-10.0105
▁توجهی	-10.0106
لوله	-10.0109
▁شورو	-10.0114
▁دارم	-10.0121
▁قیمتها	-10.0122
▁جیب	-10.0158
▁ادعای	-10.0167
ظ	-10.0174
▁سد	-10.0185
▁وسط	-10.0187
▁۵۵	-10.0189
▁تبلیغ	-10.0197
▁تصادف	-10.0203
▁تائید	-10.0203
▁آنفلوآنزا	-10.0204
▁شوماخر	-10.0204
سخنگوی	-10.0205
▁انفرادی	-10.0205
▁۱۹۸۶	-10.0206
▁مور	-10.0206
▁مصدومیت	-10.0207
▁مدارس	-10.0213
▁بورل	-10.0213
▁باشید	-10.0213
▁بدهند	-10.0217
▁دانشجویان	-10.0224
▁دیگو	-10.023
۱۹	-10.0236
اجی	-10.0238
▁شتاب	-10.024
▁استادیوم	-10.0242
▁ضرورت	-10.0242
طی	-10.0243
▁نداشتند	-10.025
▁پدید	-10.025
▁شنیده	-10.0252
خراج	-10.0257
▁عملی	-10.0257
▁سپ	-10.026
▁راز	-10.026
رویی	-10.0262
▁جنبه	-10.0263
آمریکا	-10.0269
▁شور	-10.0277
▁کریستیان	-10.0288
▁سرباز	-10.0296
▁مع	-10.0303
▁حب	-10.0308
غ	-10.0309
▁عبوری	-10.0327
▁قطب	-10.0337
▁معاف	-10.0352
▁قص	-10.0355
▁سیل	-10.0356
▁سالم	-10.0363
▁افزار	-10.0367
▁هنگ	-10.0388
داشت	-10.0391
▁حساس	-10.0403
▁راستی	-10.0409
▁باد	-10.041
▁مهاجر	-10.0424
نکه	-10.0426
▁ریه	-10.0427
▁چندی	-10.0453
ریزی	-10.0454
اش	-10.0454
▁سراسری	-10.046
▁روح	-10.0463
▁مقال	-10.0468
▁نسب	-10.0477
▁جرم	-10.049
▁مح	-10.0498
احل	-10.0505
ظیف	-10.051
▁منتقد	-10.0515
▁شعار	-10.0524
فق	-10.054
▁ارتفاع	-10.0548
▁تدابیر	-10.0548
▁کهکشان	-10.0548
▁استراماچونی	-10.0549
▁دهقان	-10.0549
▁ترجیح	-10.0549
▁مرا	-10.055
▁بکشد	-10.055
▁مترجم	-10.055
خیص	-10.0553
اولین	-10.0554
▁لاریجانی	-10.0556
امسال	-10.0557
▁ولسوال	-10.0558
▁زلزله	-10.0558
▁قادر	-10.0565
▁همسایه	-10.0568
▁پیاده	-10.0571
▁غریب	-10.0571
▁ببرد	-10.0572
▁مطهری	-10.0573
▁گوگل	-10.0575
▁اختلافات	-10.0575
▁مسکو	-10.0577
▁روزگار	-10.0581
▁اهدا	-10.0582
پیشتر	-10.0587
▁ارزان	-10.0592
▁قار	-10.0603
▁تمایل	-10.0606
▁مطالب	-10.0608
▁رسیدند	-10.061
▁تروریستی	-10.061
ازی	-10.0612
▁محافظت	-10.0617
دن	-10.0621
صوفی	-10.0626
▁آزمایی	-10.0638
▁۲۵۰	-10.0646
▁شا	-10.065
▁منشا	-10.0659
ریم	-10.0659
▁کیلو	-10.0659
▁ریاض	-10.0662
▁فتح	-10.0666
▁نرسیده	-10.0674
▁ربات	-10.0685
تون	-10.0687
اقات	-10.0693
▁ویدئویی	-10.0696
▁متشک	-10.0696
▁باب	-10.07
▁ادا	-10.07
▁روزه	-10.0704
▁وسی	-10.072
اجع	-10.0725
▁اگر	-10.0729
▁زا	-10.0743
▁ضرر	-10.0745
▁ژنتیکی	-10.0749
رداد	-10.0765
▁قاطع	-10.0785
▁غار	-10.0789
▁کف	-10.0794
اده	-10.0797
▁ویدیو	-10.0803
▁پارسی	-10.0813
جونز	-10.0817
▁بدتر	-10.0844
▁هجومی	-10.085
افغانستان	-10.0856
تری	-10.0869
▁صادقی	-10.0875
▁درمانی	-10.0884
▁متاسف	-10.0885
▁ستار	-10.089
▁صادرکنند	-10.0896
▁تگزاس	-10.0905
▁همیشگی	-10.0905
▁دوپینگ	-10.0907
▁دقایق	-10.0907
▁افکن	-10.0911
▁بازگردد	-10.0912
▁۲۰۱۰	-10.0914
▁بوندس	-10.0916
▁ویلموتس	-10.0916
▁تلخ	-10.0917
▁نکنید	-10.0919
▁هشتاد	-10.092
▁سرویس	-10.0923
▁نقد	-10.0926
▁ایرباس	-10.0927
▁نروژ	-10.0927
▁لوئی	-10.0931
نو	-10.0932
▁آورند	-10.0934
▁درخت	-10.0934
▁جلسات	-10.0938
▁جدایی	-10.0938
▁وبسایت	-10.0938
▁منچستریونایتد	-10.0939
▁تعهد	-10.0943
▁ولز	-10.0947
مند	-10.0952
فرین	-10.0955
▁پرسش	-10.0956
▁۱۹۹	-10.0956
▁راهبرد	-10.0956
▁ادعا	-10.0959
▁فرش	-10.0973
▁عروس	-10.0975
▁باری	-10.0977
▁هستم	-10.0977
دل	-10.0987
▁۳۸	-10.0989
تصاب	-10.0991
▁موش	-10.0998
▁پپ	-10.1
وف	-10.101
▁موضوعات	-10.1011
▁افشار	-10.1015
▁شکاف	-10.1016
التی	-10.1034
موند	-10.1044
▁انبار	-10.1045
▁شناور	-10.1052
نظر	-10.1071
▁سلطان	-10.1073
▁سگ	-10.1074
▁افتد	-10.1076
▁شیرین	-10.1081
▁کمال	-10.1088
▁خواستند	-10.1088
▁ترور	-10.1092
▁امان	-10.1099
▁استخوان	-10.1102
نیم	-10.1105
▁شکار	-10.1108
اکان	-10.1121
▁گمانه	-10.1121
▁درهای	-10.1136
ایر	-10.1143
▁نقدی	-10.1147
▁بازیگری	-10.1155
شه	-10.1169
ستون	-10.117
▁خال	-10.118
▁وا	-10.1212
▁یکم	-10.1219
رگن	-10.1225
خرج	-10.1227
امی	-10.123
پوری	-10.1243
۳۱	-10.1251
۴۳	-10.1251
▁شایع	-10.1254
▁۹۶	-10.1254
ازم	-10.1256
نش	-10.1264
▁ص	-10.1265
▁پانصد	-10.1276
▁خداحافظ	-10.1276
▁تلفیق	-10.1276
▁پرافتخار	-10.1276
▁برانگیخت	-10.1276
▁واژه	-10.1277
▁پرندگان	-10.1281
▁بروکسل	-10.1282
▁برانگیز	-10.1283
▁شیراز	-10.1284
▁پردازد	-10.1286
▁بامداد	-10.1287
عبدال	-10.1289
▁خبرهای	-10.1289
▁تبار	-10.129
▁محاکمه	-10.1292
▁محاسبات	-10.1293
▁مدارک	-10.1295
▁اشتغال	-10.1298
غان	-10.1299
▁منچسترسیتی	-10.1299
▁پرورش	-10.13
▁خاطرات	-10.1302
پنج	-10.1309
▁نم	-10.1309
▁انصاریان	-10.1309
▁معمولی	-10.1326
▁کهن	-10.1331
▁فیلمساز	-10.1332
▁تس	-10.1342
▁فلز	-10.1358
▁قدس	-10.136
▁ظاهرا	-10.1365
▁نزد	-10.1367
▁جن	-10.1378
▁برایش	-10.1389
▁برکنار	-10.1389
▁گذاشتن	-10.1392
▁تبلیغات	-10.1407
▁منار	-10.1413
▁کرام	-10.1415
▁قدمت	-10.1425
▁محسن	-10.1428
▁گفتگوها	-10.143
▁کاربر	-10.1431
▁کتی	-10.1432
آوری	-10.1463
مانده	-10.1463
▁کال	-10.1464
▁یازدهم	-10.1465
التهاب	-10.1467
ث	-10.1485
▁سران	-10.1496
▁افشا	-10.1513
▁پوری	-10.1529
شده	-10.1533
نام	-10.1536
بورن	-10.1541
▁والی	-10.1546
▁پانزده	-10.1546
▁ری	-10.1557
▁اصطلاح	-10.1584
باران	-10.1599
▁زیان	-10.1615
▁اهدای	-10.1617
▁موسوی	-10.162
▁خوک	-10.162
احض	-10.1623
سا	-10.1624
▁مشتری	-10.1629
ارد	-10.1632
رانی	-10.1636
▁خوشحال	-10.1645
▁کیو	-10.1647
▁اوست	-10.1649
▁راند	-10.165
▁فیلیپ	-10.1653
▁اعزام	-10.1658
▁تأثیر	-10.1658
▁اطلس	-10.1659
▁مفید	-10.166
▁امتحان	-10.166
▁فلوریدا	-10.166
▁الکترونیک	-10.166
▁گورستان	-10.1661
▁فردوسی	-10.1661
▁۲۰۲۲	-10.1662
▁ودیعه	-10.1663
▁اقلیمی	-10.1663
▁قدرتمند	-10.1663
▁یادداشت	-10.1664
▁منزل	-10.1665
▁مسکونی	-10.1669
▁کمرنگ	-10.1669
▁لحا	-10.167
▁خلو	-10.1674
▁برخلاف	-10.1674
▁تدو	-10.1674
▁آنقدر	-10.1675
▁استرازنکا	-10.1676
▁مفهوم	-10.1676
زر	-10.168
▁ابعاد	-10.1683
▁مارتین	-10.1684
▁حضورش	-10.1686
▁قاضی	-10.169
استقلال	-10.1691
▁محتوای	-10.1691
▁زوج	-10.1693
▁کاوشگر	-10.1695
▁لحظات	-10.1695
▁خوان	-10.1696
خره	-10.1699
▁سرزمین	-10.1699
▁گذراند	-10.17
ماهی	-10.1701
▁ذخا	-10.1702
▁زرد	-10.1705
▁تفاهم	-10.171
▁جمال	-10.1722
▁گرا	-10.1725
ض	-10.1734
▁دادسرا	-10.1738
وات	-10.1738
▁گردن	-10.1741
▁لب	-10.1745
۸۵	-10.1748
▁کریمی	-10.1752
▁کیم	-10.1756
محمود	-10.1757
مل	-10.1765
▁فاز	-10.1765
دانشمندان	-10.1777
▁عزیزی	-10.1787
▁خوا	-10.18
▁مبادل	-10.1801
▁فراری	-10.1851
لحق	-10.1864
مون	-10.1868
▁پیست	-10.1869
▁نبرد	-10.1869
▁باشگاهی	-10.1872
▁۴۸	-10.1875
نیک	-10.1885
دان	-10.1888
▁ناصر	-10.1893
▁پیشگیری	-10.1894
▁داوطلب	-10.1894
▁موشکی	-10.1912
▁بشری	-10.1914
▁پیوند	-10.1926
▁تاک	-10.193
ناز	-10.1946
طفی	-10.1951
واک	-10.1982
▁بوش	-10.1994
▁شعب	-10.1995
جان	-10.1995
وا	-10.1996
▁باخته	-10.1996
▁بعید	-10.2002
▁گرد	-10.2028
رس	-10.2039
یس	-10.2045
▁موبایل	-10.2058
▁انقراض	-10.2058
▁منحصر	-10.2058
▁والیبال	-10.2059
▁رضوی	-10.2059
▁موانع	-10.2059
▁فلوید	-10.2059
▁پتروشیمی	-10.206
▁بنیانگذار	-10.206
▁تحمیل	-10.206
▁کریکت	-10.206
▁ویلیام	-10.2061
▁برساند	-10.2065
▁ثمر	-10.2071
▁باران	-10.2071
▁نیوزیلند	-10.2072
▁دموکرات	-10.2072
▁اهداف	-10.2072
▁قرص	-10.2073
▁کربن	-10.2075
▁بیاید	-10.2077
▁راس	-10.2081
▁مسلمان	-10.2083
▁راموس	-10.2083
▁بخصوص	-10.2085
▁همسان	-10.2087
▁جوانی	-10.209
▁جنایت	-10.2094
▁ثروت	-10.2098
▁قریب	-10.2106
▁خودروی	-10.2113
▁کابین	-10.2114
▁زاهد	-10.2116
▁صنف	-10.2117
لیورپول	-10.2118
▁منوچ	-10.212
▁توماس	-10.2126
خارجه	-10.213
عباس	-10.2132
▁اضطراب	-10.2133
▁فرزندان	-10.2139
حالا	-10.2141
▁سالن	-10.2142
▁تاب	-10.2146
عه	-10.215
▁درد	-10.2151
▁وق	-10.2157
▁سانتی	-10.2157
▁کاسته	-10.2162
▁یونان	-10.2183
▁جدال	-10.2187
▁جهانگیری	-10.2193
▁رساندن	-10.2198
شد	-10.22
▁ویکتور	-10.2202
▁چا	-10.2208
سیا	-10.2216
▁اوکراین	-10.2229
▁بروند	-10.2234
▁صادراتی	-10.2236
▁شیر	-10.2244
▁خیابانی	-10.2263
▁ایرانیان	-10.2264
▁خواهی	-10.2265
▁سیا	-10.2266
▁دوام	-10.2269
وت	-10.2271
▁عموم	-10.2272
ویز	-10.2275
▁راک	-10.2287
▁اوکراینی	-10.2314
حص	-10.2317
یف	-10.233
▁منتف	-10.2343
▁راستا	-10.2348
بو	-10.2351
▁گروگان	-10.2364
▁میر	-10.2367
▁بها	-10.2384
▁وست	-10.2388
اول	-10.2392
▁ویران	-10.24
▁ابزار	-10.24
▁پیک	-10.2406
▁آرای	-10.2409
▁آیین	-10.241
▁داغ	-10.2423
آنها	-10.2424
بیش	-10.2426
▁رغ	-10.243
▁بران	-10.2432
▁۷۷	-10.244
صورت	-10.2445
▁محقق	-10.2448
▁نیوک	-10.2451
کر	-10.2453
▁سیف	-10.2458
▁کشی	-10.2459
▁آبادی	-10.2464
▁دادگستری	-10.2475
▁لالیگا	-10.2475
▁اکسیژن	-10.2475
▁تروریسم	-10.2475
▁تظاهرات	-10.2476
▁لهستان	-10.2477
▁حیوان	-10.2479
▁مخابرات	-10.248
نت	-10.2481
▁محدودیتهای	-10.2485
▁دانمارک	-10.2489
▁برانکو	-10.2489
▁کارگزار	-10.249
▁سنا	-10.249
▁عفونت	-10.2492
▁مقصر	-10.2496
▁نهاده	-10.25
▁تسهیلات	-10.2505
▁دایناسور	-10.2506
▁تج	-10.2515
▁بزرگتر	-10.2527
▁مکرون	-10.2538
▁صلاح	-10.2538
▁مبنا	-10.2538
▁نکند	-10.2538
▁شریک	-10.254
▁صرفا	-10.2543
▁نیما	-10.2544
احمد	-10.2547
▁غ	-10.2547
▁عطرساز	-10.2548
معاون	-10.2562
▁صعودی	-10.2563
▁صاحبان	-10.2565
▁جهاد	-10.2567
▁آگ	-10.2568
▁خانوارهای	-10.2569
▁یکصد	-10.2573
▁دراز	-10.2576
▁۰	-10.2581
▁میلیاردها	-10.2584
▁پیوستن	-10.259
▁سای	-10.2598
▁آندر	-10.2598
▁شخص	-10.2601
▁فراگیر	-10.2606
▁آهنگساز	-10.2607
خالص	-10.2609
▁اپرا	-10.2622
طبق	-10.2628
▁آذربایجان	-10.2637
▁هاوس	-10.2642
▁نص	-10.2655
نادیده	-10.2659
گروه	-10.2666
▁خودم	-10.2667
۵۰	-10.2667
▁دیر	-10.2673
▁افکار	-10.2681
▁شاهزاد	-10.2686
▁جلالی	-10.2687
▁ساختار	-10.2691
تنش	-10.2694
▁کرمان	-10.2697
▁مقطع	-10.2703
▁فقیر	-10.2704
▁خا	-10.2718
کدام	-10.2732
▁استعداد	-10.2738
▁امین	-10.2746
▁دستگیری	-10.2758
▁شدم	-10.276
▁تبلیغاتی	-10.2766
▁قراردادش	-10.2766
یشه	-10.2772
▁شیری	-10.2777
▁رفتند	-10.2779
▁توانم	-10.2812
▁نشت	-10.2822
▁۶۷	-10.2823
▁مون	-10.2833
وریا	-10.2835
اسل	-10.2841
▁اسم	-10.2843
ناف	-10.286
▁قوا	-10.2878
▁صالحی	-10.2887
▁۵۶	-10.2891
▁گرفتار	-10.2893
▁دروغ	-10.2895
▁اسپی	-10.29
▁موظف	-10.291
▁اصرار	-10.291
خصیص	-10.291
▁ناحیه	-10.291
▁تفریح	-10.291
▁انبوه	-10.291
▁ببینید	-10.2911
▁خوراک	-10.2912
▁بدانیم	-10.2913
▁رولز	-10.2914
▁شکنجه	-10.2915
▁لزوم	-10.2916
▁اپلیکیشن	-10.2917
▁تخلف	-10.2919
▁خاموش	-10.2919
▁عروسک	-10.2921
▁پالایشگاهی	-10.2922
عنوان	-10.2923
▁مبادلات	-10.2923
▁فسیل	-10.2924
▁رابرت	-10.2925
▁گردشگران	-10.2929
▁جالب	-10.293
▁بازماند	-10.2931
▁مرخص	-10.2932
▁بامیان	-10.2933
جم	-10.2936
▁ایرلند	-10.2936
▁اشرف	-10.2939
▁بیروت	-10.2942
وریس	-10.2942
▁موجودات	-10.2946
▁اسلم	-10.2949
وجود	-10.2952
▁صبر	-10.296
▁فدرال	-10.2962
▁لیدز	-10.2963
اق	-10.2963
▁قربانی	-10.2964
▁رویای	-10.2965
اج	-10.2984
▁شاهکار	-10.2998
▁گرند	-10.2998
▁دانم	-10.2999
▁بینند	-10.3004
مار	-10.3006
▁پذیرفته	-10.3008
▁بدل	-10.3012
▁سپر	-10.3022
شاخص	-10.3027
▁دورت	-10.3029
▁خودران	-10.3052
بسیاری	-10.3052
▁هامر	-10.3052
▁ایام	-10.306
▁اریک	-10.3062
▁آمارها	-10.3064
▁تقویم	-10.3079
فن	-10.3086
▁حیاتی	-10.3092
▁ژنتیک	-10.3105
▁گلزنی	-10.311
▁افتتاح	-10.3116
▁رنج	-10.3118
داوم	-10.3126
▁آوردن	-10.3131
▁بریت	-10.3137
▁خودروها	-10.3147
▁شوم	-10.3153
عوض	-10.3159
ویژه	-10.3162
▁تاز	-10.3166
▁سراغ	-10.3169
▁تکان	-10.3172
بت	-10.3174
▁مش	-10.3174
کننده	-10.3178
▁بستن	-10.3196
▁مرزهای	-10.3202
▁کامیون	-10.3207
▁عکسی	-10.3207
▁تصویری	-10.3217
▁فروشی	-10.3218
وان	-10.3219
▁صحن	-10.3236
▁۵۲	-10.3237
▁برکناری	-10.3249
۲۵	-10.3259
▁تورمی	-10.3265
راه	-10.3266
شار	-10.3266
▁پرسید	-10.3271
▁خواندن	-10.3273
▁بوک	-10.328
▁فضانورد	-10.3307
▁زیبا	-10.3325
▁بمب	-10.3326
▁جعل	-10.3334
▁اخطار	-10.3335
بعد	-10.3336
شدت	-10.3346
▁سحر	-10.3356
فع	-10.3361
▁دژپسند	-10.3364
▁منتخب	-10.3364
▁سئوال	-10.3364
▁بندرعباس	-10.3365
▁جسم	-10.3366
▁بزوس	-10.3366
▁تبعات	-10.3367
▁رمزارزها	-10.3368
▁زنگنه	-10.3368
▁متعهد	-10.3369
▁ایستاد	-10.337
▁ذکر	-10.3371
▁علامت	-10.3374
▁تسلیت	-10.3376
▁ونیز	-10.3376
▁متقاضی	-10.3379
وار	-10.3381
▁تلگرام	-10.3383
▁۸۰۰	-10.3386
▁رضایت	-10.3388
▁شاگردان	-10.3388
▁مداوم	-10.339
▁سرنشینان	-10.3396
▁برلین	-10.3396
▁حداکثری	-10.34
▁بدر	-10.34
▁کیهان	-10.3402
▁روسی	-10.3402
قه	-10.3403
▁ترسیم	-10.3404
▁یمانی	-10.3407
▁طلایی	-10.3412
▁استرالیایی	-10.3414
▁ناجی	-10.3418
▁امن	-10.3425
▁آیند	-10.3425
▁پیکر	-10.3428
▁تعجب	-10.3432
▁اشک	-10.3436
▁مامور	-10.3464
ونگ	-10.3475
بخش	-10.3479
۳۰	-10.348
یشب	-10.3504
مسئولان	-10.3511
▁انتقادات	-10.3514
هالی	-10.3521
وب	-10.3528
یب	-10.3531
▁ترکمن	-10.3541
دادگاه	-10.3546
▁ویلا	-10.355
ظهر	-10.3559
▁کنسول	-10.3562
روی	-10.3593
▁عضوی	-10.36
▁نرسید	-10.3615
▁ثروتمند	-10.3616
▁عقید	-10.3623
▁کوچکی	-10.3624
ردن	-10.3632
▁کاظم	-10.3664
▁گنج	-10.3665
▁داشتم	-10.3666
▁ملا	-10.367
عکس	-10.3672
گن	-10.3675
یره	-10.3677
▁تایلند	-10.3685
خوانی	-10.3716
▁لا	-10.3717
▁الکس	-10.3733
▁خو	-10.3746
وفر	-10.3753
▁جاسوس	-10.3768
▁ویل	-10.3768
▁سیزدهم	-10.3769
شاید	-10.3787
▁حافظ	-10.381
زا	-10.3812
▁دهان	-10.3816
▁مغزی	-10.3816
▁انتقادهای	-10.3823
▁فرید	-10.3828
▁پالایش	-10.384
▁اشتراک	-10.3841
▁پادتن	-10.3841
▁استثنا	-10.3841
▁ناپدید	-10.3841
▁سایبری	-10.3842
▁داغستان	-10.3843
▁یوگا	-10.3843
▁لنون	-10.3844
▁بگیریم	-10.3845
▁بزنند	-10.3846
فیلم	-10.385
▁مگا	-10.3851
▁استراحت	-10.3851
▁ویلیامز	-10.3852
▁استراتژیک	-10.3855
▁کانری	-10.3857
▁غرق	-10.3858
▁طرفدار	-10.3858
▁مرگبار	-10.3859
▁پناهجویان	-10.3863
بچه	-10.3866
▁خرند	-10.3869
▁تندرو	-10.3869
▁فرونشست	-10.3871
▁جاشوا	-10.3871
▁کارلوس	-10.3875
▁ناامن	-10.3876
تن	-10.3877
▁۱۲۰	-10.388
▁سالمندان	-10.3881
▁شاعران	-10.3887
▁تاجیک	-10.3888
▁ضربات	-10.3889
▁پراکند	-10.3891
▁لیس	-10.3892
▁توضیحات	-10.3893
▁شاخ	-10.3897
▁طرز	-10.3897
آی	-10.3899
▁گفتگوی	-10.3903
▁خریداران	-10.3906
▁کاشی	-10.3912
▁احت	-10.3916
استفاده	-10.3917
▁لیگا	-10.3918
▁کلود	-10.3919
▁همرسان	-10.3931
▁خشکسالی	-10.3931
▁آرامکو	-10.3935
▁استون	-10.3941
▁آوردند	-10.3941
▁پرسی	-10.3942
▁زو	-10.3943
▁مستق	-10.3943
تب	-10.3953
▁وحید	-10.396
▁خدا	-10.3962
▁نیک	-10.3962
▁کما	-10.3966
▁۱۳۸	-10.3979
اتحاد	-10.398
▁سینماها	-10.3981
▁استعفای	-10.3996
ضعیف	-10.4032
▁اما	-10.4035
ادورو	-10.4054
▁گریز	-10.407
▁واسط	-10.4074
انکن	-10.4098
▁دعوا	-10.4099
▁بهرام	-10.4105
▁اشیا	-10.4107
▁جبه	-10.411
▁روب	-10.4114
▁ساختن	-10.4134
▁جین	-10.417
▁بازگشا	-10.4172
▁هندی	-10.4175
▁رئیسی	-10.4189
▁ازای	-10.4198
▁اوین	-10.4201
▁رش	-10.4209
▁کلا	-10.4217
فاش	-10.4217
پلیس	-10.4219
الله	-10.4224
لق	-10.4246
▁اوا	-10.4254
▁۱۳۷	-10.4256
▁مصون	-10.4269
▁تروی	-10.4273
بل	-10.4293
▁کوچکتر	-10.4298
▁کاست	-10.4304
▁کمربند	-10.4307
▁برزیلی	-10.4308
▁فیلتر	-10.431
▁روستای	-10.4326
▁سرا	-10.4327
▁ناراحت	-10.4332
▁نوار	-10.4339
▁بنگلادش	-10.4341
▁اعتقاد	-10.4341
▁تعقیب	-10.4341
▁شمخانی	-10.4341
▁محوطه	-10.4341
▁پارالمپیک	-10.4341
▁شارژ	-10.4341
▁وقایع	-10.4341
▁ناچار	-10.4341
▁خانوادگی	-10.4341
▁دماوند	-10.4341
▁تاکتیک	-10.4341
▁نوبخت	-10.4341
▁تماشاچی	-10.4342
▁تجلیل	-10.4342
▁بکشند	-10.4342
▁اخلال	-10.4342
▁بیاورد	-10.4342
▁خوشنام	-10.4343
▁۱۹۹۰	-10.4344
▁آرامگاه	-10.4345
▁مهرماه	-10.4345
▁متناسب	-10.4345
▁پیشتاز	-10.4347
▁نشیب	-10.4348
▁مخدر	-10.435
▁آرشیو	-10.4352
▁اعتیاد	-10.4356
▁بختیار	-10.436
▁فجر	-10.436
▁تعدیل	-10.4364
▁چراغ	-10.4367
▁تخلفات	-10.4367
▁ضایع	-10.4367
▁الحسن	-10.4368
▁احساسات	-10.4371
▁تکنولوژی	-10.4372
▁تعل	-10.4373
▁ستایش	-10.4374
▁محبوبیت	-10.4377
▁مالاریا	-10.4387
▁۹۱	-10.4388
▁مطالعات	-10.439
▁طنز	-10.4399
▁عبدی	-10.44
▁قبال	-10.4403
رای	-10.4404
▁ربط	-10.441
واسط	-10.4413
▁پایدار	-10.4413
▁شدیدتر	-10.4414
▁جف	-10.4423
جاسوسی	-10.4427
▁تعامل	-10.4428
▁گلف	-10.4428
▁بشار	-10.4433
▁تقابل	-10.4434
▁ط	-10.444
▁کشند	-10.4444
ممکن	-10.4451
▁کشاند	-10.4454
▁۷۳	-10.4458
نگره	-10.4459
▁هواپیماهای	-10.4466
کم	-10.4466
▁کشتار	-10.4471
۱۵	-10.4479
▁نمادهای	-10.4483
مراسم	-10.4484
▁تصمیمات	-10.4487
ناد	-10.4492
▁عرف	-10.4495
نفع	-10.4495
▁روزی	-10.4496
▁گانه	-10.4503
▁همانند	-10.4511
▁شمسی	-10.4512
▁موازی	-10.4514
▁بل	-10.4521
▁معترض	-10.4528
▁سل	-10.4532
▁نکردن	-10.4533
▁اسد	-10.4534
۱۳	-10.4539
آنتونی	-10.4543
▁روزمر	-10.4545
▁نان	-10.4549
▁ایمان	-10.4552
▁جنس	-10.4552
▁اختلا	-10.4559
▁کپی	-10.4566
▁سین	-10.4571
زن	-10.4579
گرفته	-10.4585
▁اذ	-10.4593
زیگ	-10.4593
▁ثروتمندتر	-10.4595
▁دپ	-10.4598
▁سومی	-10.4607
جو	-10.4608
▁روستایی	-10.4614
صاف	-10.4615
چین	-10.4615
گذاری	-10.4617
▁انتقادها	-10.4621
▁نژادی	-10.4622
زم	-10.4625
▁ویزا	-10.4631
▁ور	-10.4631
▁مزار	-10.4636
▁پورتو	-10.4637
▁درآورد	-10.4648
▁۷۴	-10.4655
▁نامزدها	-10.4663
وپن	-10.4666
▁اید	-10.4668
دا	-10.467
قات	-10.4674
▁سرو	-10.4681
▁بس	-10.469
▁کام	-10.471
▁محور	-10.4712
رنو	-10.4717
▁پوش	-10.4723
یژن	-10.4764
▁سلف	-10.4764
▁کشت	-10.4786
▁اسپ	-10.4789
▁شبه	-10.4793
اتی	-10.4827
▁برداشتن	-10.4833
▁اظهارنظر	-10.4835
▁آنک	-10.4837
پل	-10.4856
سل	-10.4858
▁مأمور	-10.4858
▁شو	-10.486
▁مخصوص	-10.4861
▁۳۶	-10.4863
▁شه	-10.4863
▁گیاه	-10.4866
▁سامسونگ	-10.4867
▁زریاب	-10.4867
▁پرطرفدار	-10.4867
▁استخدام	-10.4867
▁مشکوک	-10.4867
▁سکونت	-10.4867
▁ترسناک	-10.4867
▁دارا	-10.4868
▁بیفتد	-10.4868
▁معدود	-10.4869
▁اسپرت	-10.487
ژانس	-10.487
▁مرجع	-10.4871
▁بهبهان	-10.4871
▁خفیف	-10.4871
▁وفادار	-10.4872
▁برتری	-10.4873
▁سان	-10.4873
▁بمانند	-10.4874
▁غزنی	-10.4878
▁دانشکد	-10.488
▁توجیه	-10.4881
▁عنکبوت	-10.4882
▁غیاب	-10.4883
▁تسلیم	-10.4883
▁رفاه	-10.4883
▁۲۰۰۴	-10.4883
▁گم	-10.4884
▁نادرست	-10.4885
▁هشتگ	-10.4885
▁بوکسور	-10.4886
▁گوی	-10.4886
▁دستاوردهای	-10.4892
▁نیجر	-10.4893
▁علاقمندان	-10.4894
▁سادات	-10.4896
▁قطار	-10.4896
▁غالب	-10.4897
▁کیانوش	-10.4899
▁ایلنا	-10.49
▁سیاستمداران	-10.4903
▁نکنند	-10.4903
لک	-10.4909
▁ناو	-10.4909
▁تعادل	-10.491
▁گیاهان	-10.4913
▁روبروست	-10.492
▁کمتری	-10.4924
▁کیفر	-10.4925
▁داریوش	-10.4934
▁تخیل	-10.4935
▁سناتور	-10.4936
▁انت	-10.4936
▁۱۳۵	-10.4942
▁اسپوت	-10.4945
▁بهر	-10.4945
▁شوید	-10.4946
ماده	-10.4948
▁دارید	-10.4955
▁برنز	-10.4957
خیره	-10.497
▁کاربرد	-10.4972
▁ایا	-10.5
افت	-10.5003
▁رادیویی	-10.5006
▁شر	-10.5017
▁داشتیم	-10.5019
▁اکس	-10.5019
▁گزارشگران	-10.5021
▁آمدند	-10.5024
نواک	-10.5024
▁آمریکاست	-10.5029
مدیر	-10.5031
رات	-10.5045
▁جوز	-10.5064
رهای	-10.5065
▁تش	-10.5071
▁دهک	-10.5073
▁سیزده	-10.5074
▁تمرکز	-10.5086
محققان	-10.5089
▁۶۸	-10.5089
▁یافتند	-10.5098
▁آرا	-10.5099
اخیرا	-10.5115
▁نیش	-10.5118
▁کیست	-10.5123
گو	-10.5129
▁۴۶	-10.5132
▁اعضا	-10.5137
▁آقا	-10.5145
اداری	-10.5158
▁جلال	-10.5169
▁کاغذ	-10.5169
▁روستا	-10.5182
رسان	-10.5182
▁مرس	-10.5189
▁مصاد	-10.5199
سر	-10.5202
دور	-10.5203
عب	-10.5209
▁نامدار	-10.5212
▁دقت	-10.5212
▁شناسان	-10.5213
▁وجه	-10.5213
▁استاین	-10.5214
▁ژوز	-10.5219
▁رقص	-10.5226
▁حداد	-10.5227
▁آباد	-10.5232
▁اقلی	-10.5239
▁ظهر	-10.5244
▁کادی	-10.5245
▁خوانندگ	-10.5246
مهدی	-10.5253
▁تعهداتش	-10.5253
ریک	-10.5263
▁هروی	-10.5281
▁مادری	-10.5284
▁صند	-10.5285
رین	-10.5289
مرکز	-10.5289
دیگر	-10.529
▁۷۲	-10.5303
▁زبا	-10.5312
گون	-10.5317
▁نوزدهم	-10.5323
▁برگ	-10.5334
▁فیل	-10.5335
▁بینیم	-10.5339
▁یاری	-10.5346
فاد	-10.5347
▁وحشی	-10.5353
▁خارا	-10.5356
▁گنجی	-10.538
اوی	-10.5383
▁خل	-10.5394
▁مقا	-10.5394
▁مکزیک	-10.54
▁معیار	-10.5412
نک	-10.5413
▁الانبیا	-10.5422
▁المستقبل	-10.5422
▁نتانیاهو	-10.5422
▁چرنکوف	-10.5422
▁اتوبوس	-10.5422
▁دریابندری	-10.5422
▁صداوسیما	-10.5422
▁امیرشاهی	-10.5422
▁شلوغ	-10.5423
▁غربالگری	-10.5423
▁تضمین	-10.5423
شمار	-10.5423
▁مدیترانه	-10.5423
▁آسمایی	-10.5424
▁خیانت	-10.5424
▁پشتیبان	-10.5424
▁آشوری	-10.5427
▁ساویز	-10.5427
گراندپری	-10.5427
یلی	-10.5428
▁کوهستان	-10.5429
▁۲۰۳۰	-10.5429
▁ببینند	-10.543
▁مقرر	-10.5431
▁مسایل	-10.5434
▁حدی	-10.5436
▁حجاب	-10.5437
▁حساسیت	-10.5438
▁استراتژی	-10.5438
▁توفان	-10.544
▁تعبیر	-10.5442
راب	-10.5444
▁انگشت	-10.5447
▁لبخند	-10.5449
برخ	-10.5449
▁نفری	-10.5456
▁تاریک	-10.5458
▁همینطور	-10.5471
▁اصلاحات	-10.5472
وداع	-10.5473
▁مقیم	-10.5477
درصد	-10.5479
▁دیپلمات	-10.5482
▁کاردن	-10.5501
شیبا	-10.5502
▁ارا	-10.551
کاب	-10.551
▁صفحات	-10.5523
▁لاری	-10.5523
▁هرگ	-10.5524
انس	-10.5526
▁هوادار	-10.5544
بون	-10.5549
صب	-10.5551
▁نمادی	-10.5565
یچ	-10.5568
▁نداشتن	-10.5573
▁مرتب	-10.5573
▁شیلی	-10.5577
▁مسیرهای	-10.5592
▁ابرا	-10.5593
▁انتقالات	-10.5593
▁بدی	-10.5606
▁چوب	-10.5611
▁بنیادی	-10.5617
▁منصور	-10.5619
▁مغاز	-10.5624
▁پولی	-10.5633
▁شهریار	-10.5638
وطن	-10.5643
خی	-10.5648
▁باستانی	-10.566
▁ارد	-10.5665
▁عم	-10.5685
▁تقدی	-10.569
علیرضا	-10.5691
▁کردستان	-10.5697
جایی	-10.5702
▁نظم	-10.5709
▁دوازده	-10.5716
▁سازد	-10.5726
▁کامپیوتر	-10.5737
▁اخلاق	-10.5738
سکی	-10.5739
اقد	-10.5747
▁رحم	-10.5748
۷۰	-10.5754
▁گلزن	-10.5764
▁کلام	-10.5771
▁نسبتا	-10.5778
▁نجف	-10.5782
▁کلان	-10.5792
برایتون	-10.5802
لاتین	-10.5808
▁برگشته	-10.5808
▁دف	-10.5811
هدف	-10.582
▁حاکم	-10.5821
▁کشیدن	-10.5822
آمار	-10.5833
▁شهیدی	-10.5837
هام	-10.5841
▁قومی	-10.5846
▁قطبی	-10.5856
▁یکسال	-10.586
۰۰۰	-10.5864
▁روبرت	-10.5867
▁موکو	-10.5878
ساسی	-10.5884
▁تلف	-10.5887
▁گازی	-10.5892
حافظه	-10.5894
▁آفرین	-10.5912
کان	-10.5914
▁دستک	-10.5917
▁نیا	-10.5922
▁تبادل	-10.5932
خر	-10.5937
رق	-10.5939
▁دربار	-10.5945
▁تثب	-10.5952
▁تحقیر	-10.5953
▁مکرر	-10.597
یعن	-10.5976
▁درس	-10.5979
▁خرابکار	-10.598
تمرکز	-10.5981
الی	-10.5992
▁فرج	-10.5994
▁فرانک	-10.5994
لاشه	-10.5994
تل	-10.5996
▁مختل	-10.6002
▁مصدوم	-10.6006
▁باستان	-10.6007
▁آسوشیتدپرس	-10.6011
▁نوشیدن	-10.6011
▁تأیید	-10.6011
▁اوباما	-10.6011
▁ازبکستان	-10.6011
▁مصلحت	-10.6011
▁حرکات	-10.6012
▁زیرساخت	-10.6012
▁۱۳۹۵	-10.6014
▁تالار	-10.6014
▁سردبیر	-10.6014
▁بپردازد	-10.6014
▁خلاقیت	-10.6014
▁بگیرید	-10.6015
▁خستگی	-10.6016
▁صح	-10.6016
▁ناشناخت	-10.6017
▁۱۵۰۰	-10.6018
▁برگردد	-10.6018
▁اسرار	-10.6019
▁پایبند	-10.6021
▁دیدگاه	-10.6021
▁فروپاشی	-10.6022
اف	-10.6023
▁حباب	-10.6024
▁مداخل	-10.6024
دربند	-10.6025
سیویر	-10.6027
▁بلومبرگ	-10.6028
▁بیلسا	-10.6028
▁گرمایش	-10.6028
▁آشفت	-10.6028
▁مسافت	-10.6029
▁مرگش	-10.6031
گشایی	-10.6032
▁خرسند	-10.6033
▁بقایای	-10.6036
▁ناتوان	-10.6037
▁غفوری	-10.6038
▁پار	-10.6039
نظرسنجی	-10.604
▁شایعات	-10.6043
▁شانه	-10.6044
▁رانندگی	-10.6045
▁دستیابی	-10.6046
▁توخل	-10.6047
▁سکوت	-10.6049
▁بافت	-10.6052
▁دهندگان	-10.6056
▁پرهی	-10.6058
▁متنوع	-10.606
صخره	-10.6061
ختم	-10.607
▁ابوال	-10.6073
▁سنبل	-10.6077
▁سربازان	-10.6079
اضی	-10.6079
یحی	-10.6085
▁چهاردهم	-10.6087
بازار	-10.6092
▁رایج	-10.6092
▁فیس	-10.6095
▁عزم	-10.6096
▁اسک	-10.6106
▁نکردند	-10.6112
▁ادعاهای	-10.6123
▁قوس	-10.6124
ایح	-10.6136
باشگاه	-10.614
▁ناآرامی	-10.6151
▁مهاجران	-10.6153
▁لح	-10.6159
▁شانزدهم	-10.616
غال	-10.6161
▁ریچارد	-10.6163
▁رسم	-10.6173
▁همکار	-10.6177
▁رزم	-10.6186
هرانا	-10.6196
ایت	-10.6203
لات	-10.6209
▁سیم	-10.6209
▁نوید	-10.6212
▁سارا	-10.6214
▁مهمان	-10.6228
تلاف	-10.6229
▁فل	-10.6231
رقابت	-10.6235
▁پیرو	-10.6236
▁ظه	-10.6242
▁۸۲	-10.6246
▁خطی	-10.6259
▁انجامید	-10.6263
حل	-10.628
▁قرض	-10.6293
▁ماد	-10.63
▁حریفان	-10.6304
پژوهشگران	-10.6305
▁خطای	-10.6314
▁میل	-10.6319
▁سختگیر	-10.632
▁گرگ	-10.6332
▁قض	-10.6343
▁داروها	-10.6344
▁الیز	-10.6347
▁سعد	-10.6374
▁مرزها	-10.6374
▁۱۳۹	-10.6379
نز	-10.6383
▁پروازها	-10.6395
▁بازارها	-10.6399
▁محدودیتها	-10.6412
▁داوری	-10.6413
۲۰۰	-10.6416
▁قائ	-10.6421
▁نوشتن	-10.6425
▁تحقیقی	-10.6426
علاو	-10.6433
آبادی	-10.6438
کمیت	-10.6442
▁۹۰۰	-10.6463
▁حو	-10.6471
اع	-10.6476
۴۰	-10.6477
▁وب	-10.6496
قرض	-10.6511
مرگ	-10.6514
▁نداد	-10.652
فی	-10.6545
وله	-10.6548
▁منته	-10.6548
▁مایل	-10.6552
▁اصول	-10.6563
▁درخشانی	-10.657
▁ویدئوی	-10.6571
▁۶۱	-10.6577
▁منظر	-10.658
دهنده	-10.6597
▁سرنشین	-10.6614
▁گفتگوهای	-10.6629
▁آتالانتا	-10.6636
▁شطرنج	-10.6636
▁مغناطیس	-10.6636
▁ابتکار	-10.6636
▁ثامن	-10.6636
▁بلاروس	-10.6637
▁شباهت	-10.6637
▁متاثر	-10.6637
▁سوپرلیگ	-10.6637
▁منفجر	-10.6638
▁زغال	-10.6639
▁مطلوب	-10.6639
▁مجاهد	-10.6639
▁بگوییم	-10.664
▁طعم	-10.6641
▁ابهام	-10.6642
▁سیارک	-10.6645
▁یادبود	-10.6647
▁اردوگاه	-10.665
جوبی	-10.665
▁فضلی	-10.6651
ضعف	-10.6652
▁طارمی	-10.6653
▁کریسمس	-10.6653
▁لامبورگینی	-10.6654
▁غیرنظامی	-10.6654
▁اعتراف	-10.6655
لم	-10.6661
▁رصد	-10.6661
▁پراید	-10.6661
منه	-10.6662
▁ببیند	-10.6665
▁دشمنان	-10.6671
▁کمپین	-10.6673
▁گابریل	-10.6674
▁گشود	-10.6675
▁ندیده	-10.6676
▁آبادان	-10.6676
▁نزول	-10.6676
گه	-10.6677
▁جابجا	-10.668
▁عارف	-10.6685
▁۱۳۶	-10.669
▁تیرماه	-10.6697
▁آگاهی	-10.67
قی	-10.67
▁قاب	-10.6702
▁بنکسی	-10.6711
اینها	-10.6711
▁فرض	-10.6714
تیک	-10.6716
▁بدنی	-10.6716
مد	-10.6719
▁زور	-10.6721
قص	-10.6721
▁ریزش	-10.6732
شهر	-10.6737
▁آلن	-10.6741
▁الگوی	-10.6745
برگ	-10.6746
▁علیر	-10.6754
ایش	-10.6759
▁تابعیت	-10.6761
▁ریخت	-10.6766
▁اعطا	-10.677
▁۱۹۰	-10.6778
▁دخترش	-10.678
خاطر	-10.6781
▁بولت	-10.6781
▁انتخابی	-10.6787
▁حکمتی	-10.6791
هز	-10.6793
▁مستقیما	-10.6796
▁نوجوانان	-10.6797
▁سید	-10.6798
▁خوست	-10.6812
▁فین	-10.6814
رگس	-10.6817
▁معیشتی	-10.6818
رانه	-10.6819
ائ	-10.682
▁پیشرفته	-10.6825
▁خیال	-10.6831
مایک	-10.6832
▁الزام	-10.6846
▁شناسد	-10.6849
▁سیام	-10.6852
الدین	-10.6853
▁پلی	-10.6856
▁تند	-10.6862
▁نشانی	-10.6863
دین	-10.687
▁یکسان	-10.6877
▁یکبار	-10.6878
▁مسیحی	-10.6887
نشینی	-10.6903
وح	-10.6907
▁دیدارهای	-10.6914
▁واحدها	-10.692
ندی	-10.6926
انتظار	-10.6928
▁پارس	-10.6931
مارک	-10.6934
منابع	-10.6935
کرد	-10.6938
▁درخش	-10.6949
بینی	-10.6955
▁بلوک	-10.6966
▁مهندس	-10.6976
▁دوازدهم	-10.6979
▁نق	-10.6985
عداد	-10.6992
▁مشت	-10.7
▁گرایان	-10.7003
▁ات	-10.7007
▁فوریت	-10.701
▁افکاری	-10.7011
▁اح	-10.7011
ربی	-10.7044
رینگ	-10.7045
▁کارگردانان	-10.7045
بازی	-10.7051
▁مق	-10.7051
حمید	-10.7052
▁مهاجمان	-10.7069
▁اعما	-10.7072
▁صفرها	-10.7072
▁۱۹۶۰	-10.7079
▁چیزهای	-10.7084
هنورد	-10.7085
▁ماری	-10.7091
▁گزارشها	-10.7094
▁داروهای	-10.7105
▁فور	-10.7108
▁اعت	-10.7108
▁درج	-10.7109
▁سلطانی	-10.7109
گفت	-10.7116
▁منصوری	-10.7116
▁پروان	-10.7117
مرث	-10.7122
▁۳۵۰	-10.7123
خان	-10.7145
امیر	-10.7147
▁موجودی	-10.7157
خواهند	-10.7157
ایب	-10.7172
▁ابلاغی	-10.7177
تعدادی	-10.7187
سانه	-10.7189
▁عل	-10.7194
▁شیش	-10.7206
▁استخر	-10.7212
▁پیشرو	-10.7222
▁جانور	-10.7226
▁نویی	-10.7229
▁دیو	-10.7246
تولید	-10.7257
▁دردسر	-10.7259
عی	-10.726
▁شمس	-10.7285
▁شهردار	-10.7292
▁همجنس	-10.7301
▁واضح	-10.7302
▁مکتوب	-10.7302
▁ارکستر	-10.7302
▁تفسیر	-10.7302
▁وحشتناک	-10.7302
▁فروزش	-10.7303
▁ببینیم	-10.7303
▁بفروشد	-10.7304
▁آپارتمان	-10.7304
▁اثبات	-10.7305
▁مواضع	-10.7305
▁پیشکسوت	-10.7305
▁مکتب	-10.7306
▁فرایند	-10.7306
▁امواج	-10.7306
▁ثانوی	-10.7307
▁ارزشمند	-10.7307
▁تمدن	-10.7308
▁کووید۱۹	-10.7308
▁تغذیه	-10.7308
▁آشام	-10.7309
▁۱۹۹۸	-10.731
▁بازنگری	-10.731
▁۱۹۴۰	-10.731
▁حاکمیت	-10.7311
▁پالاس	-10.7311
▁وصل	-10.7311
▁مبدا	-10.7311
ساب	-10.7314
▁خادم	-10.7315
▁زنجان	-10.7316
ظاهر	-10.7316
▁پررنگ	-10.7317
▁اکتشاف	-10.732
▁خسارات	-10.7321
▁ماهیگیر	-10.7324
ستگی	-10.7327
▁نیسان	-10.7327
▁ستارگان	-10.7327
▁۵۹	-10.7329
▁سارس	-10.7332
برنامه	-10.7333
▁عاشقانه	-10.7335
آمیز	-10.7336
▁گلایه	-10.7337
دغدغه	-10.7338
▁ترافیک	-10.7339
▁مدرک	-10.734
▁انحصار	-10.7341
▁اسنپ	-10.7341
چهار	-10.7345
▁هلی	-10.7348
تکب	-10.7349
وخامت	-10.7354
▁گرسنگ	-10.7356
▁نمایشنامه	-10.7357
▁سانتریفیوژهای	-10.7359
▁والدین	-10.7363
▁مرتضی	-10.7364
▁اندازد	-10.7367
▁نمکی	-10.7367
▁ریالی	-10.7371
▁خواهر	-10.7372
▁جلد	-10.7379
▁زهره	-10.7383
▁ادب	-10.7391
▁عصب	-10.7393
▁پیتر	-10.7395
▁وار	-10.7399
▁شاپو	-10.7402
▁تغییری	-10.7402
▁بردارد	-10.7405
▁بیل	-10.7412
▁عقل	-10.7416
▁فرق	-10.7416
▁سون	-10.7418
▁امپراتوری	-10.7425
مانع	-10.7426
سانی	-10.7431
تنها	-10.7443
دترا	-10.7453
▁ماندگار	-10.7457
▁حتما	-10.7457
▁زک	-10.746
مول	-10.7461
▁ذهنی	-10.7463
▁دنیاست	-10.7465
▁دهلی	-10.7467
مجلس	-10.7472
▁ایرج	-10.7474
باز	-10.7478
▁۹۳	-10.7492
▁ببر	-10.7492
▁اتکا	-10.7499
▁زایی	-10.7511
▁شهید	-10.7518
▁دانشجویی	-10.7519
▁خر	-10.7522
▁۸۶	-10.7535
زمان	-10.7542
گل	-10.7543
باب	-10.7556
▁هفدهم	-10.7557
▁وجو	-10.7564
خانواده	-10.7567
▁هکرها	-10.7572
▁وع	-10.7579
▁سوا	-10.7586
▁پوشاند	-10.7586
▁۱۹۵	-10.7587
فصل	-10.7601
▁تاریکی	-10.7602
▁ایکس	-10.7608
▁کوبا	-10.7613
▁نظرات	-10.7618
ناشناس	-10.7623
ژان	-10.7624
▁املا	-10.7628
ودی	-10.7628
▁دم	-10.7629
صندوق	-10.7633
▁مهل	-10.7635
▁لحن	-10.7638
▁مغ	-10.7658
▁حی	-10.766
▁انیس	-10.7662
▁خریده	-10.7666
تاسف	-10.7671
سن	-10.7679
کارشناسان	-10.768
▁ایر	-10.7685
▁نک	-10.7699
وایی	-10.7701
وارد	-10.7705
لور	-10.7712
▁ارگ	-10.774
▁ورشکست	-10.7747
▁الهی	-10.7759
▁ناامید	-10.7768
▁نف	-10.7772
فرج	-10.7782
▁روال	-10.7784
▁میکروب	-10.7791
▁خالص	-10.7793
▁اپرای	-10.7793
▁کرو	-10.7799
سوزی	-10.78
▁قند	-10.7807
▁تحرک	-10.7815
▁عمران	-10.7823
▁احساسی	-10.7827
▁شریف	-10.7836
همه	-10.785
▁احس	-10.7854
نصف	-10.7857
▁۵۳	-10.7863
آخری	-10.7864
ناک	-10.7901
▁مندان	-10.7909
تحول	-10.7911
▁نوآور	-10.7912
▁اد	-10.7931
▁کاریر	-10.7957
صره	-10.7957
▁پهپاد	-10.7963
درفتار	-10.7976
▁ظ	-10.7983
▁ساک	-10.7987
پرو	-10.7991
▁جست	-10.7993
▁تایم	-10.7999
▁ژنو	-10.8003
▁خانوار	-10.8003
▁وگوی	-10.8013
سب	-10.8014
زده	-10.8015
▁مشکات	-10.8016
▁اتیوپی	-10.8017
▁جامائیکا	-10.8017
▁فلسفه	-10.8017
▁ملاحظ	-10.8017
▁بدخشان	-10.8017
▁وروورت	-10.8017
▁هیأت	-10.8017
▁پلامر	-10.8017
▁رژیم	-10.8017
▁پوتین	-10.8017
▁کالبد	-10.8018
▁برشمرد	-10.8018
▁راپینو	-10.8018
▁مثلث	-10.8018
▁ارجاع	-10.8019
▁سوگوار	-10.8019
▁تایتان	-10.802
▁احتیاط	-10.802
▁تصاحب	-10.8021
▁پرت	-10.8022
▁پنگوئن	-10.8022
▁آنفیلد	-10.8022
▁۱۹۷۰	-10.8024
▁تکنیک	-10.8025
▁قرمزها	-10.8025
▁احکام	-10.8027
▁ناقض	-10.8028
▁آمبول	-10.8031
پاتی	-10.8031
▁معالج	-10.8032
سوم	-10.8032
▁ببرند	-10.8034
▁مزرعه	-10.8034
▁شرح	-10.8035
▁حسرت	-10.8037
▁مرکل	-10.8038
▁مسترز	-10.8039
▁قائم	-10.804
▁گرایش	-10.8041
▁۱۹۸۰	-10.8041
▁مولوی	-10.8042
▁برسند	-10.8046
▁تمرینات	-10.8047
▁پرند	-10.805
▁شوش	-10.8051
▁خشن	-10.8055
▁آلزایمر	-10.8059
▁نارس	-10.8061
▁خلوت	-10.8062
▁گردش	-10.8067
▁ماشه	-10.8068
▁سیبری	-10.8069
▁جزایر	-10.8071
▁هرمز	-10.8072
▁انداختند	-10.8073
▁نویسندگ	-10.8083
▁رنجر	-10.8084
▁دندان	-10.8087
▁زی	-10.809
▁گذارند	-10.8095
▁رضایی	-10.8099
▁مثل	-10.8099
▁پاهای	-10.8108
▁۹۴	-10.8111
▁مقدم	-10.8115
▁شناسند	-10.8119
▁نکات	-10.812
یرت	-10.8132
خته	-10.8134
▁۱۹۴	-10.8137
▁لوو	-10.8141
▁لیور	-10.8152
▁رایزن	-10.8156
▁میهمان	-10.8172
▁مست	-10.8175
▁شنیدن	-10.8178
▁مقر	-10.8184
▁۶۴	-10.8189
رونمای	-10.8208
▁توریست	-10.8211
▁قم	-10.8211
▁ادوارد	-10.8218
▁وزرای	-10.8222
▁سرگرمی	-10.8227
▁۷۶	-10.8232
▁بارداری	-10.8233
▁نماند	-10.8234
همچنین	-10.8236
▁آرزوی	-10.8239
دلال	-10.8245
سیتی	-10.8246
خواست	-10.8248
جای	-10.8253
▁سم	-10.8265
▁کشم	-10.8268
▁نزدیکان	-10.8268
انصراف	-10.8268
دیه	-10.8276
▁تیک	-10.8279
جیغ	-10.8283
▁تحری	-10.8283
▁برایم	-10.8286
سفر	-10.8333
یلیون	-10.8334
▁فخر	-10.8337
پرسپولیس	-10.8338
مپ	-10.834
▁غم	-10.8351
▁فیلمبردار	-10.8354
▁خوانی	-10.8355
اقتصاد	-10.8355
فنی	-10.8364
▁افتادن	-10.8367
▁کارفرمای	-10.837
انتشار	-10.8371
▁آما	-10.8376
نمایندگان	-10.8388
▁۱۳۴	-10.8389
سلسل	-10.8409
▁اموا	-10.8411
چرا	-10.8417
▁بازنشستگ	-10.8428
فدرر	-10.8443
برید	-10.8453
▁۷۸	-10.8453
محمدجواد	-10.8468
▁اصولگرای	-10.8472
سرعت	-10.8475
همین	-10.8476
روزنامه	-10.8488
▁غل	-10.8492
کوبی	-10.8503
▁رخت	-10.851
شماری	-10.8511
حرفه	-10.8515
شت	-10.8517
▁قا	-10.8523
▁اقبال	-10.8527
▁اجبار	-10.8537
شش	-10.8537
▁چی	-10.854
▁تونس	-10.8543
ائل	-10.8549
جمه	-10.8553
▁آثارش	-10.8554
▁نابود	-10.8556
رویس	-10.856
لقی	-10.8561
▁ویرجی	-10.8562
▁هل	-10.857
ندگان	-10.8571
▁قراردادهای	-10.8574
▁اسحاق	-10.8575
▁سطو	-10.858
▁منطق	-10.858
▁لوکا	-10.8583
▁شون	-10.8596
نیا	-10.8601
▁اله	-10.8618
▁ماهها	-10.8627
▁سوری	-10.8629
▁گویی	-10.8635
▁مسیری	-10.8645
▁جنای	-10.8653
شاه	-10.8669
۹۱	-10.8671
▁مالکان	-10.8684
▁برجا	-10.8685
▁خزان	-10.8688
لاق	-10.8698
رخی	-10.8707
▁بانکها	-10.8708
▁بگوی	-10.871
۲۰	-10.8723
▁شجاع	-10.8731
▁کول	-10.8731
▁دشمن	-10.8745
أ	-10.8747
▁مشوق	-10.8747
▁دستاورد	-10.8749
▁سانتریفیوژ	-10.8761
▁پرآ	-10.8766
▁دستیار	-10.8772
داشته	-10.8773
▁نورد	-10.8773
لر	-10.8777
▁شیکاگو	-10.8786
▁مستضعفان	-10.8786
▁تزئین	-10.8786
▁پیرامون	-10.8786
▁کانسپت	-10.8786
▁رستگار	-10.8786
▁دردناک	-10.8786
▁نظرهای	-10.8786
▁خرچنگ	-10.8786
▁تخفیف	-10.8786
▁نوازنده	-10.8786
▁تای	-10.8786
▁مسموم	-10.8786
▁ووهان	-10.8787
▁زودهنگام	-10.8787
▁بوزمن	-10.8787
▁کولمن	-10.8787
▁الماس	-10.8787
▁هواشناسی	-10.8787
▁کمبریج	-10.8787
▁واریز	-10.8789
▁یخچال	-10.8789
▁ارتقا	-10.8789
▁تعاون	-10.8789
▁ریورا	-10.879
▁نصیب	-10.879
▁بسیج	-10.879
▁پاکبان	-10.879
▁خدایاری	-10.879
▁الاجل	-10.8791
▁اذیت	-10.8793
نفتی	-10.8793
▁زیدان	-10.8793
▁اشعار	-10.8794
▁نوزاد	-10.8797
▁مبالغ	-10.8799
▁علایم	-10.8799
فینیتی	-10.8799
▁نعمت	-10.8802
▁رت	-10.8805
▁میز	-10.8805
▁گواهی	-10.8806
▁جناح	-10.8807
▁دوش	-10.8809
▁نامگذاری	-10.8809
▁پستاندار	-10.881
▁نقص	-10.881
▁خراب	-10.8811
▁خبرها	-10.8812
▁پناهندگ	-10.8812
▁آلود	-10.8812
▁۱۹۷	-10.8814
گیر	-10.8814
▁معوقه	-10.882
▁زم	-10.882
▁غلط	-10.8821
▁صحیح	-10.8824
▁معیارهای	-10.8827
▁گذراندن	-10.8831
▁زادگاه	-10.8831
▁رولینگ	-10.8833
▁ضدحمل	-10.8835
▁قبرس	-10.8836
▁فیزیکدان	-10.8836
▁مردگان	-10.8838
سپری	-10.884
لیون	-10.8843
▁متولی	-10.8851
▁شستا	-10.8855
▁محض	-10.8856
▁رونالدینیو	-10.8857
▁ناب	-10.8859
▁شوخی	-10.8861
ارتاک	-10.8864
▁پژو	-10.8866
▁آندری	-10.8871
▁ماهشهر	-10.8877
▁پیرلو	-10.8883
▁۱۸۰	-10.8885
▁انداختن	-10.8885
▁مخلو	-10.8886
▁رجب	-10.8887
▁مغول	-10.8888
▁۶۵۰	-10.889
▁صریح	-10.8891
▁فضانوردان	-10.8892
▁محکم	-10.8893
▁دهید	-10.8895
▁اپراتورها	-10.8896
▁پردرآمد	-10.8898
▁خلیل	-10.8904
▁۴۷	-10.8909
▁ایراد	-10.8913
▁درختان	-10.8915
لس	-10.8915
▁حام	-10.8916
▁رساندند	-10.8921
▁درآمده	-10.8922
▁بقای	-10.8923
▁دیوی	-10.8924
▁پسرش	-10.8926
سابقه	-10.8933
▁ژ	-10.8934
▁رفتارهای	-10.8939
▁امو	-10.8942
▁تار	-10.8943
▁تخصص	-10.8954
▁اعظم	-10.8957
▁شمایل	-10.8959
▁ساری	-10.896
▁مراود	-10.896
▁کودتای	-10.8969
▁بگیر	-10.8969
▁هیولای	-10.8972
▁شغلی	-10.8975
▁کمپ	-10.8976
شکل	-10.8979
▁ردیاب	-10.8984
لینی	-10.8991
▁ژو	-10.8991
▁قطعات	-10.8995
▁صاف	-10.9002
ائیل	-10.9004
روس	-10.9008
▁کرج	-10.901
ضی	-10.9013
تخا	-10.9021
▁دیدم	-10.9026
دالله	-10.9026
▁فرخ	-10.9028
▁آرزوهای	-10.9038
▁ادار	-10.9042
▁شام	-10.9043
▁پیچ	-10.9054
▁جانش	-10.9067
▁۴۱	-10.9094
▁نای	-10.9106
▁لرز	-10.9111
پرها	-10.9113
واره	-10.9119
دام	-10.9122
▁جاهای	-10.9126
شر	-10.9126
▁کین	-10.9128
ستین	-10.9131
▁وگوهای	-10.9138
▁لاس	-10.914
خورده	-10.9143
▁کاوا	-10.9146
کت	-10.9159
برگزار	-10.916
▁استاندارد	-10.916
▁سلام	-10.9165
▁وظایف	-10.9167
▁۵۸	-10.917
▁برف	-10.9171
▁توس	-10.9177
▁کنی	-10.9179
آژانس	-10.918
▁الکل	-10.9202
بورس	-10.9204
▁آمریکای	-10.9207
▁اق	-10.9208
▁زحمت	-10.9213
▁۸۳	-10.9215
▁آس	-10.9219
زین	-10.9224
▁مسا	-10.9232
▁بدین	-10.9233
▁منصو	-10.9236
دونالد	-10.9241
طرف	-10.9241
▁عزیز	-10.9246
انش	-10.9259
▁ایوان	-10.926
▁عزیزان	-10.9261
▁استودیو	-10.9262
صالح	-10.9263
▁درگذشته	-10.9265
▁ویدئو	-10.9296
▁شرم	-10.9296
▁گیل	-10.93
▁محسوس	-10.9301
رافائل	-10.9302
▁کمدی	-10.9304
سو	-10.931
▁گا	-10.9315
خواه	-10.9315
خیم	-10.9324
▁محا	-10.9324
پای	-10.9325
امضاکنندگان	-10.9345
▁زخم	-10.9351
▁معنا	-10.9354
▁پهلو	-10.9359
سپاری	-10.9361
▁آنهاست	-10.9368
▁مردمی	-10.9372
▁میلاد	-10.9375
عادت	-10.9375
شنگ	-10.9377
هین	-10.9387
▁۲۰۲	-10.9401
▁شانزده	-10.9414
▁کیت	-10.9416
▁عمو	-10.942
▁کارتو	-10.942
▁پیچید	-10.9427
تصاویر	-10.9428
▁متیو	-10.9434
۲۴	-10.9443
▁هستی	-10.9444
سایه	-10.9446
وانند	-10.9447
باع	-10.9461
حریم	-10.9468
▁همچ	-10.9472
میم	-10.9472
▁مساو	-10.9473
کردن	-10.9484
▁نیو	-10.9489
چرخه	-10.9495
▁احمدشا	-10.9499
▁همتای	-10.9519
▁۵۱	-10.952
▁دلال	-10.9522
▁اندیش	-10.9525
▁دانشگاهی	-10.9538
▁شع	-10.954
▁هرکس	-10.9546
خبر	-10.9547
یج	-10.9549
▁پیر	-10.9555
▁شوت	-10.9562
▁علاقمند	-10.9576
▁استدر	-10.9596
▁بوفالو	-10.9601
▁تشری	-10.9607
▁معلم	-10.9614
واقع	-10.9615
غیب	-10.9616
فیلد	-10.9618
▁آلومینیوم	-10.9619
▁فزاینده	-10.9619
▁پروتئین	-10.9619
▁پومپئو	-10.9619
▁دگرگون	-10.9619
▁ایوانکوویچ	-10.9619
▁سرتاسر	-10.9619
▁اپیدمی	-10.9619
▁تفکیک	-10.9619
▁غرامت	-10.9619
▁ویتنام	-10.9619
▁ربیعی	-10.9619
▁محترم	-10.9619
▁رئوف	-10.9619
▁مستاجر	-10.9619
▁البرز	-10.9619
▁اسراییل	-10.9619
▁خاشقچی	-10.962
▁وگاس	-10.962
▁قضاوت	-10.962
▁سرماخورد	-10.962
▁خاشق	-10.962
▁گیگز	-10.962
▁بسازد	-10.9621
▁نامناسب	-10.9621
▁تعزیری	-10.9621
▁وودز	-10.9621
▁مکلف	-10.9621
▁مارسیال	-10.9622
▁بیافتد	-10.9624
▁۱۳۹۶	-10.9624
▁گرفتم	-10.9625
▁بگذارند	-10.9626
▁دوستداران	-10.9627
▁عصبانی	-10.9627
▁عقاب	-10.9628
▁لگن	-10.9632
▁استفانو	-10.9632
▁روانشناس	-10.9634
▁تهاجمی	-10.9634
▁رمزارز	-10.9635
▁۱۹۶	-10.9636
▁ندارم	-10.9637
وظ	-10.9637
▁تلفات	-10.9639
رطوب	-10.964
▁انستیتو	-10.964
▁جونیور	-10.9641
▁ژیمناست	-10.9641
▁هوندا	-10.9641
▁شناگر	-10.9645
▁سرشار	-10.9645
▁پرستاران	-10.9645
▁فروغ	-10.9646
▁قفس	-10.9647
▁انتها	-10.9649
▁سازندگان	-10.965
▁رایگان	-10.9654
▁دیدیم	-10.9657
▁فیلیپین	-10.966
۲۳	-10.9663
▁نژادپرستانه	-10.9665
▁۸۹	-10.9667
▁تص	-10.9667
▁جزییات	-10.9668
▁آنتی	-10.9672
▁نادری	-10.9679
عارض	-10.9685
▁ندهد	-10.9686
▁دایر	-10.9686
▁امت	-10.9686
▁خیام	-10.9687
▁عضلا	-10.9689
مر	-10.969
▁فوتبالی	-10.9691
عشی	-10.971
▁برعکس	-10.9711
▁ناوگان	-10.9715
▁گزینش	-10.9719
▁کتک	-10.9722
▁ژنرا	-10.9723
شیو	-10.9728
▁استونز	-10.9734
▁کارگروه	-10.9737
▁جنر	-10.9737
▁نهفته	-10.9738
▁رامش	-10.9738
یسم	-10.9741
نگیز	-10.9741
مال	-10.9743
▁سکسک	-10.9747
پا	-10.9751
▁امتیازات	-10.9764
▁معاش	-10.9768
▁گردند	-10.9778
▁مرادی	-10.9778
▁پریش	-10.978
▁مض	-10.9783
▁اغل	-10.9791
▁ساسانی	-10.9792
▁شایست	-10.9792
▁دنیل	-10.9794
▁بور	-10.9794
▁انوش	-10.98
اظ	-10.9802
▁بوق	-10.9804
▁جفت	-10.9813
▁دوری	-10.9819
▁ماندند	-10.982
▁نامی	-10.9826
▁کینگ	-10.9829
▁بانو	-10.983
گیل	-10.9834
▁کلیسای	-10.9842
نشان	-10.9844
▁استرس	-10.9852
▁گروگانگیر	-10.9853
▁سالان	-10.9855
قبل	-10.9866
گفتگو	-10.9871
▁باختری	-10.9873
▁تهدیدهای	-10.9897
دگان	-10.9898
▁حاجی	-10.9906
۲۹	-10.9909
ستی	-10.9911
▁رحمت	-10.9912
▁کالای	-10.9915
صرف	-10.9916
▁اچ	-10.9917
▁صدم	-10.9918
▁وارن	-10.992
آغاز	-10.992
▁پائی	-10.9936
▁دادیم	-10.9942
▁کت	-10.9947
▁گوهر	-10.9952
▁استیون	-10.9956
فا	-10.9966
▁معاین	-10.9982
▁نگر	-10.999
▁مهندسی	-10.9994
▁بلو	-11.0021
▁۱۳۰	-11.0025
یزر	-11.0027
▁رنگین	-11.0029
▁یگان	-11.0031
▁ولد	-11.0054
▁بازوی	-11.0054
▁سام	-11.0059
اطلاعات	-11.0062
▁پرتر	-11.0063
خت	-11.0071
واکنش	-11.0082
▁رویس	-11.0082
وزن	-11.0084
▁۱۴۰	-11.0084
زنی	-11.0094
رگ	-11.0099
لمپ	-11.0099
▁۱۷۶	-11.0101
مدت	-11.0103
▁نیکل	-11.0103
▁رایان	-11.0105
▁موهای	-11.0107
سیلوا	-11.0111
فته	-11.0114
جیره	-11.0123
▁یاب	-11.0124
▁گور	-11.0126
▁میلی	-11.0128
▁قبر	-11.013
▁باقر	-11.0134
▁جولی	-11.0135
یونایتد	-11.0137
▁رانت	-11.0142
▁اسکو	-11.0148
جمعیت	-11.016
▁بناها	-11.0162
ضان	-11.0171
قو	-11.0172
پول	-11.0179
وکی	-11.018
فعالان	-11.0184
▁تراز	-11.0186
▁مند	-11.0189
▁جورجی	-11.0191
▁مواقع	-11.0194
▁۹۲	-11.0197
▁باورن	-11.0197
ارغ	-11.0203
ذل	-11.0205
▁برفی	-11.0205
همیلتون	-11.0205
هشدار	-11.0208
لتی	-11.0213
یاس	-11.0215
ویکتور	-11.0218
▁خار	-11.0218
▁روحی	-11.0219
▁ریوی	-11.0225
ارت	-11.0231
یز	-11.0248
▁معیشت	-11.0266
▁عالم	-11.0269
▁سرگرم	-11.027
وازم	-11.0291
▁سیار	-11.0291
▁دانشجوی	-11.0313
مای	-11.0334
▁گرمی	-11.0334
▁۵۴	-11.0337
▁مدتها	-11.034
نوعی	-11.0341
حلال	-11.035
▁تولیدکنند	-11.0357
راجر	-11.0369
▁بینید	-11.038
▁نمود	-11.0385
۴۶	-11.0387
▁ته	-11.0391
نال	-11.0398
▁میرزا	-11.0401
لاب	-11.0405
ندان	-11.0407
▁ترکی	-11.0407
▁پوشان	-11.041
▁نرفت	-11.0423
▁چشمان	-11.0426
هار	-11.0437
▁درام	-11.044
▁فی	-11.0457
▁اک	-11.0472
▁کوب	-11.0474
فون	-11.048
▁تیره	-11.049
▁چال	-11.0494
▁آشنای	-11.0499
▁سازه	-11.0512
انت	-11.0519
▁۸۷	-11.0519
▁آبراموویچ	-11.0528
▁جاپلقی	-11.0528
▁کارداشیان	-11.0528
▁کرگدن	-11.0528
▁بوچانی	-11.0528
▁مظنون	-11.0528
▁مصیبت	-11.0528
▁مونتاژ	-11.0528
▁گریبان	-11.0528
▁یونسکو	-11.0528
▁کامبوج	-11.0528
▁لاجورد	-11.0528
▁سنگاپور	-11.0529
▁تضاد	-11.0529
▁آشپز	-11.0529
▁فرسایش	-11.0529
▁گاگا	-11.0529
▁قزاقستان	-11.0529
▁گردنبند	-11.0529
▁پاراگوئه	-11.053
▁فحش	-11.053
▁۱۹۷۳	-11.0531
▁حرارت	-11.0531
▁متوفی	-11.0531
▁آویو	-11.0531
▁بفروشند	-11.0532
▁روشنفکر	-11.0532
▁کفتر	-11.0532
▁کاشف	-11.0532
▁بشردوستانه	-11.0533
▁۱۹۶۶	-11.0533
▁۱۹۶۷	-11.0534
▁خردسال	-11.0534
▁فطر	-11.0534
▁قارچ	-11.0534
▁بفتا	-11.0535
▁خوابی	-11.0536
▁آوازخوان	-11.0537
▁کلینیک	-11.0537
▁ادارات	-11.0537
▁تکامل	-11.0538
▁لق	-11.0538
▁اشکال	-11.0542
▁نپال	-11.0543
▁زیارت	-11.0545
▁یوسف	-11.0546
▁انباشت	-11.0546
بپرس	-11.0546
▁قسط	-11.0547
▁مطالبات	-11.0549
▁حاتمی	-11.0549
▁ترانزیت	-11.0549
▁بتهوون	-11.0552
▁نامجو	-11.0552
▁قورباغه	-11.0552
▁هشتصد	-11.0554
▁خلاق	-11.0555
▁۲۰۰۶	-11.0555
پر	-11.0556
▁موعد	-11.0556
▁پذیری	-11.0558
▁سولو	-11.0559
۱۷	-11.0559
▁اشنویه	-11.0564
▁مایع	-11.0564
په	-11.0565
▁بوئن	-11.0566
▁پلاک	-11.0566
▁متحدان	-11.0567
▁گناه	-11.0568
▁ماهیچه	-11.0568
▁متروکه	-11.057
▁بنجام	-11.0575
▁بذر	-11.0579
▁فتاح	-11.0581
▁خوشبخت	-11.0582
▁خوشحالم	-11.0582
▁جمشید	-11.0583
▁توئیت	-11.0584
▁کوپتر	-11.0585
▁کاران	-11.0587
شو	-11.059
▁گره	-11.059
▁اینجا	-11.0602
▁پرشور	-11.0605
گا	-11.0605
▁ندانست	-11.0606
رشد	-11.0607
▁جعفر	-11.061
▁مستندساز	-11.0611
مندان	-11.0612
▁معاد	-11.0612
ویر	-11.0616
▁چرخش	-11.0618
▁پناه	-11.0626
▁نشانگر	-11.063
▁آرش	-11.0632
▁متخلفان	-11.0634
▁باشم	-11.0646
▁شعارهای	-11.0653
▁باختند	-11.0658
▁اقیانوسیه	-11.066
▁پویا	-11.066
▁وکلای	-11.0661
لوت	-11.0662
۹۹	-11.0664
▁ذات	-11.0666
دوست	-11.0671
▁گرجستانی	-11.0674
▁زنگ	-11.0675
▁پادمان	-11.0677
▁مال	-11.0683
▁وحشت	-11.0687
▁کشمی	-11.0687
ازما	-11.0688
▁درشت	-11.069
▁مب	-11.069
▁نداشتم	-11.0691
آقازاده	-11.0693
▁ضر	-11.0693
▁سوگ	-11.0695
▁جیل	-11.0702
▁کثیر	-11.0703
اهید	-11.0708
گوف	-11.0713
▁معین	-11.0715
▁نگارش	-11.0719
▁کوهن	-11.072
▁بشریت	-11.0721
▁کوپا	-11.0729
▁مسال	-11.0732
▁سهامدار	-11.0734
▁بازیار	-11.0735
نر	-11.0736
▁درانی	-11.0749
▁نوشتند	-11.076
▁جد	-11.077
پذیر	-11.0778
▁کاف	-11.0784
▁مولان	-11.0793
▁وادار	-11.0796
یکپا	-11.0804
▁عا	-11.0805
▁پاتر	-11.0817
▁شادی	-11.0818
▁سامان	-11.0828
▁رقبای	-11.0833
پتون	-11.0837
▁رنگی	-11.084
▁کیا	-11.0846
بادی	-11.0859
▁هما	-11.0864
▁بوم	-11.0866
روح	-11.0868
▁عج	-11.0875
گبا	-11.0876
اله	-11.0876
▁رومانی	-11.0878
▁گارد	-11.0884
▁یار	-11.0885
▁شرمن	-11.0888
▁مانند	-11.089
ورا	-11.0894
▁صبا	-11.0896
▁سبد	-11.0909
▁مارچ	-11.0915
▁مصا	-11.0919
▁پانزدهم	-11.0925
▁پنجش	-11.0927
حق	-11.0938
▁پیری	-11.0944
▁مضر	-11.0944
زمینی	-11.0944
مسی	-11.0949
▁مباد	-11.0953
نان	-11.0959
▁حدادی	-11.096
مسابقات	-11.0965
▁همر	-11.0967
ائم	-11.0968
تنوع	-11.0971
▁گردانند	-11.0973
▁قاسمی	-11.0974
▁ماس	-11.0997
▁یخی	-11.1001
▁حرم	-11.102
▁جواهر	-11.1024
▁نیافت	-11.1026
▁نوی	-11.1029
▁روزبه	-11.1035
▁دود	-11.1036
عان	-11.1036
▁۶۲	-11.1041
▁سومو	-11.106
▁لخت	-11.106
▁برهم	-11.1063
▁محرک	-11.1068
مکش	-11.1072
▁لیست	-11.1075
▁معا	-11.108
▁دینی	-11.1082
▁ممیز	-11.1087
نوردی	-11.1093
سیو	-11.1099
ترکیه	-11.1103
▁کور	-11.111
▁گویا	-11.1111
بیه	-11.1111
کرونا	-11.1116
▁افق	-11.1116
▁۸۱	-11.1121
▁ریو	-11.1131
▁مجرم	-11.1133
▁روسا	-11.1133
▁گودا	-11.1144
مارادونا	-11.1147
ناب	-11.1148
▁ماریا	-11.1151
مو	-11.1152
غه	-11.1153
خوان	-11.1154
▁بزرگان	-11.1154
چشم	-11.1158
ارو	-11.1164
▁گردید	-11.1167
چلسی	-11.1169
▁نیاورد	-11.1174
▁پری	-11.1179
▁ژن	-11.118
زادگان	-11.1184
▁توفیق	-11.1189
انجمن	-11.1194
▁رفتم	-11.1196
جاد	-11.1196
موسس	-11.1198
▁هشدارهای	-11.12
▁شیفت	-11.1208
▁نما	-11.1211
نشست	-11.1213
▁بازرگان	-11.1216
▁برآمد	-11.1218
نخست	-11.1222
▁عواقب	-11.1224
▁ویروسی	-11.1228
انا	-11.1241
الیاس	-11.1243
دوف	-11.1256
▁۱۱۰	-11.1271
لیسب	-11.1275
▁رکوردها	-11.128
▁تام	-11.1283
▁ژاک	-11.1286
▁چارل	-11.1296
احی	-11.1302
▁جنی	-11.1303
▁فهمید	-11.1307
▁لطف	-11.1309
رج	-11.131
▁رخداد	-11.131
▁۳۲۰	-11.1313
▁قوت	-11.1313
▁۶۳	-11.1316
▁ابو	-11.1323
▁بدتری	-11.1337
▁بهانه	-11.1339
▁نیازها	-11.134
▁طب	-11.1347
▁ذی	-11.1348
▁اسل	-11.1356
ومی	-11.1357
شما	-11.136
▁سپید	-11.1372
اکثریت	-11.1375
▁اکرا	-11.1376
▁فرزندش	-11.1379
یاپی	-11.1379
جیب	-11.1393
▁دادم	-11.1404
▁مبا	-11.1406
تصور	-11.1407
▁سروده	-11.1408
▁زانوی	-11.141
ضرر	-11.1418
▁دول	-11.1418
هی	-11.1426
تینو	-11.1427
خط	-11.1434
▁۸۴	-11.1435
▁اکبری	-11.1442
سلیم	-11.1447
▁پیشگام	-11.1457
▁باتر	-11.146
▁کوبید	-11.146
▁جوش	-11.146
بالغ	-11.1486
صدایی	-11.1493
▁ابداع	-11.1504
▁تصویربردار	-11.1508
لیگ	-11.1514
▁موزیک	-11.1517
بیست	-11.1519
▁تسهیل	-11.1523
▁آغداشلو	-11.1528
▁زاکربرگ	-11.1528
▁الگوریتم	-11.1528
▁تلسکوپ	-11.1528
▁بلانشت	-11.1528
▁ابرنواختر	-11.1528
▁مائوریت	-11.1529
▁زاکانی	-11.1529
▁اقتدار	-11.1529
عت	-11.1529
▁مسوول	-11.1529
▁باکتری	-11.1529
▁اعصاب	-11.1529
▁آژیر	-11.1529
یضا	-11.1529
▁گلمکانی	-11.1529
▁آموزگار	-11.1529
▁پرایس	-11.153
▁یهودی	-11.153
▁جاودان	-11.1531
پوچ	-11.1531
▁آنکارا	-11.1531
▁معتمد	-11.1531
▁واگیر	-11.1532
▁طناب	-11.1532
▁فال	-11.1533
▁نارضای	-11.1534
▁بدهکار	-11.1536
▁مستعار	-11.1536
▁پابند	-11.1536
▁اکسید	-11.1539
▁سلتیک	-11.1539
زاری	-11.154
▁کلمات	-11.1541
▁بارچا	-11.1541
کید	-11.1542
▁بخرد	-11.1542
▁ابولا	-11.1543
▁آث	-11.1543
▁فروشندگان	-11.1545
▁نجوا	-11.1546
▁عسل	-11.1546
▁طبع	-11.1549
▁قبیل	-11.155
▁بدانند	-11.1551
تصاعد	-11.1552
▁اقامتگاه	-11.1553
▁سولشر	-11.1554
▁تأسیس	-11.1554
▁رخشانه	-11.1554
▁خزر	-11.1555
▁ناپولی	-11.1556
▁حبیب	-11.1556
عفون	-11.1557
▁تبریک	-11.1557
▁داوود	-11.1558
پائولو	-11.1558
رف	-11.1559
روسیا	-11.156
▁کادیس	-11.1567
▁دیابت	-11.157
▁تعویض	-11.1571
▁بگویند	-11.1572
▁نامعلوم	-11.1574
▁کریم	-11.1575
▁اندرکاران	-11.1576
▁منکر	-11.1577
▁گرامی	-11.1577
▁ندادن	-11.1578
▁صید	-11.1579
▁۱۸۵	-11.158
اوش	-11.1582
▁گوییم	-11.1582
▁افزاید	-11.1584
▁مخصوصا	-11.1589
▁تصدی	-11.1589
▁اشخاص	-11.159
ماری	-11.1592
▁مورل	-11.1593
▁نامشخص	-11.1595
▁کنزو	-11.1598
▁کشتند	-11.1601
▁مسترد	-11.1601
▁جیپ	-11.1602
▁بیم	-11.1604
▁انگل	-11.1606
▁جرج	-11.1614
▁آرمان	-11.1616
▁کج	-11.1618
▁فورا	-11.1622
▁۱۳۹۰	-11.1632
▁کلیپ	-11.1637
▁فار	-11.1639
▁آنا	-11.1643
▁مسن	-11.1645
خواهید	-11.1645
اعلام	-11.1648
▁خد	-11.166
۷۵	-11.1664
▁گدار	-11.1671
▁اقتصاددان	-11.1671
▁محتوی	-11.1675
▁حر	-11.1679
▁دشت	-11.1682
▁امریکا	-11.1682
▁حضرت	-11.1682
بخشی	-11.1687
ویچ	-11.1693
▁برگردانده	-11.1694
بریتی	-11.1699
▁عظیمی	-11.1701
بهار	-11.1701
▁بروم	-11.1702
▁سالیانه	-11.1703
نم	-11.1704
▁کلم	-11.1704
▁سینماگران	-11.1708
▁صمیمی	-11.171
مک	-11.1713
▁پینگ	-11.1715
▁گرفتیم	-11.1716
▁یوو	-11.1717
▁گذاشتند	-11.1717
▁خواندند	-11.1721
▁فیروز	-11.1725
▁ژور	-11.1729
▁یاوری	-11.173
▁اصطلاحا	-11.1735
▁بالی	-11.1736
▁رکوردهای	-11.1736
▁ویدیوهای	-11.1745
▁فرحی	-11.1749
گروهی	-11.1755
▁نهایتا	-11.1758
▁قاعد	-11.1758
▁اصلاحی	-11.1762
▁نیافته	-11.177
▁هول	-11.1776
▁درخشید	-11.1777
▁شیمی	-11.1778
▁گرمای	-11.1785
▁اسپورت	-11.1786
▁نشدنی	-11.179
▁چر	-11.1793
▁وض	-11.1793
برداری	-11.1794
▁مانور	-11.1794
▁علوی	-11.1795
▁شکستن	-11.1796
فظ	-11.1796
▁دانشگر	-11.1799
▁گرای	-11.1801
▁ریخته	-11.1803
▁طل	-11.1808
▁نشدند	-11.1812
▁جراحت	-11.1823
یقه	-11.1836
▁تم	-11.1837
▁تیل	-11.1838
▁منجم	-11.184
▁خاوری	-11.1841
▁عمدی	-11.1842
▁تحریمها	-11.185
▁کریر	-11.1874
لوب	-11.1875
فلاتو	-11.1876
الکس	-11.1884
هکرها	-11.1886
▁کلاین	-11.1888
خامن	-11.189
▁بورگ	-11.189
▁فنل	-11.1892
▁پیامک	-11.1897
▁تابستانی	-11.1898
▁معل	-11.1903
▁کشتن	-11.1906
میلیون	-11.1911
▁سرما	-11.1911
طرح	-11.1919
ولت	-11.1928
▁مبارک	-11.1938
▁بازجوی	-11.1945
داده	-11.1948
کاهش	-11.1968
▁کاندیدا	-11.1976
▁رامی	-11.1984
▁سالی	-11.1987
▁تندی	-11.199
علت	-11.1998
فلیک	-11.2001
ایل	-11.2003
▁دوج	-11.2007
گذار	-11.2013
▁کامپیوتری	-11.202
انتخابات	-11.2021
▁گفتن	-11.2027
▁ارمن	-11.2027
▁توانی	-11.2028
▁گویم	-11.2041
حضور	-11.2041
▁شوهر	-11.2047
▁آدام	-11.2052
▁تدری	-11.206
▁گال	-11.206
▁لوان	-11.2071
▁درآمدزا	-11.2076
▁مبت	-11.2079
نیف	-11.2082
تعداد	-11.2083
▁مصرفی	-11.2089
▁دزد	-11.2096
تصمیم	-11.2103
لین	-11.2105
▁قطعا	-11.2108
▁استادان	-11.2112
▁احسا	-11.2113
▁افتتاحی	-11.2116
▁هادی	-11.2119
▁نخب	-11.212
▁آموخت	-11.2121
▁مزای	-11.2122
هره	-11.2132
▁نوا	-11.2132
زو	-11.2135
شا	-11.215
▁محف	-11.2155
▁شعبان	-11.2155
▁پذیرفت	-11.2156
آلمان	-11.2161
راق	-11.2166
▁بخشید	-11.2177
▁مخ	-11.2177
▁قی	-11.2179
جام	-11.2186
▁جرد	-11.2187
آمریکایی	-11.2189
ویل	-11.2197
ولان	-11.2199
جد	-11.2204
حقق	-11.2217
▁هراس	-11.223
▁مسیح	-11.2231
▁لوا	-11.2232
تحقیقات	-11.224
▁سینو	-11.2246
▁نظری	-11.2261
▁نوین	-11.2264
تلاش	-11.2264
قصد	-11.2265
وژه	-11.2278
نقاشی	-11.2281
▁فتحی	-11.2287
سفارت	-11.2289
مجتب	-11.2293
کلوپ	-11.2296
منتقدان	-11.2297
هادی	-11.2298
▁مارکو	-11.2303
رهبر	-11.2305
تایسون	-11.2307
▁آف	-11.2313
▁جس	-11.2326
ملک	-11.2335
منازع	-11.2338
مقامات	-11.2342
▁پیگیر	-11.2344
۹۳	-11.2344
▁حفا	-11.2361
▁وگوها	-11.2365
دال	-11.2366
▁حفر	-11.2372
کند	-11.2374
▁فروشند	-11.238
قدرت	-11.238
اسکو	-11.2389
گوئر	-11.2394
▁مهد	-11.2395
حض	-11.2396
وحید	-11.2414
خواهیم	-11.2415
▁پنا	-11.2417
▁پال	-11.2426
▁نزدیکتر	-11.2429
نج	-11.2433
خوشایند	-11.2435
▁برپا	-11.2437
نیروی	-11.2441
برد	-11.2441
۴۲	-11.2442
▁فرح	-11.2453
▁وث	-11.2456
▁تیتر	-11.2468
▁وح	-11.2468
واز	-11.2475
▁مقد	-11.2476
ومبل	-11.248
لف	-11.2484
▁بلی	-11.2495
اه	-11.2496
بانی	-11.2502
واد	-11.2505
▁بارز	-11.2506
▁خواستم	-11.2511
▁مدرس	-11.2512
▁پراکن	-11.2522
▁نمازی	-11.253
▁پیمانکار	-11.2533
خانقا	-11.2538
▁تابو	-11.2543
▁دادخواه	-11.2543
اید	-11.2545
▁گرب	-11.2562
اران	-11.2569
▁الع	-11.2572
ویک	-11.2572
▁دیوانه	-11.258
▁اندرکار	-11.259
▁سیاستمدار	-11.2597
رتب	-11.26
▁اصالت	-11.2602
▁پوک	-11.2606
جر	-11.2612
▁فرانسیس	-11.2612
▁متغیر	-11.2614
▁تعمیر	-11.2618
▁بزن	-11.2624
▁سفت	-11.2626
▁فرضی	-11.2633
▁بارور	-11.2635
▁جزئی	-11.2639
▁انیمیشن	-11.2639
▁بلایندرز	-11.2639
▁جغرافیای	-11.2639
▁رفسنجان	-11.2639
▁اوربیتر	-11.2639
▁جاذبه	-11.2639
▁خنثی	-11.2639
▁مستثن	-11.2639
▁تورنتو	-11.2639
▁بلغارستان	-11.2639
▁اختراع	-11.2639
▁مقتدر	-11.264
▁دفاتر	-11.264
▁مضاعف	-11.264
▁هلمند	-11.264
▁اسپایدر	-11.264
▁تجدد	-11.264
▁ذیبخش	-11.264
▁آرتتا	-11.264
▁مینیاتور	-11.264
▁بنتلی	-11.264
▁قاعدتا	-11.264
▁اخ	-11.2641
▁کومله	-11.2641
▁عنصر	-11.2641
▁سانتیمتر	-11.2641
▁اینفانتی	-11.2641
▁کفایت	-11.2641
▁خودکفا	-11.2641
▁تجدیدنظر	-11.2642
▁رغبت	-11.2642
▁فرنود	-11.2642
▁بیاورند	-11.2643
▁کلکسیون	-11.2643
▁کلر	-11.2647
▁برگردیم	-11.2647
دت	-11.2648
▁ضوابط	-11.2648
▁چسب	-11.2649
▁مخرب	-11.2649
▁پابرجاست	-11.2649
▁بغلان	-11.265
▁۱۳۵۰	-11.265
▁بصر	-11.2651
▁اسمیت	-11.2651
▁استقراض	-11.2651
▁آهسته	-11.2652
مجانی	-11.2653
▁ناچیز	-11.2655
▁مطلبی	-11.2655
▁تنگنا	-11.2656
▁تربیت	-11.2657
▁لشگر	-11.2657
▁عروق	-11.2658
▁اخترشناس	-11.266
▁کدخدایی	-11.266
▁انصاری	-11.2664
▁گسل	-11.2664
▁آغوش	-11.2665
▁موکل	-11.2665
▁ادل	-11.2666
▁دبیرستان	-11.2667
▁خانمان	-11.2667
▁سردرگم	-11.2667
▁سیگنال	-11.2667
▁منظم	-11.2669
▁وکارها	-11.2669
▁ندهند	-11.267
▁ایال	-11.2671
▁تقلب	-11.2674
▁نشوند	-11.2676
▁آرایشگاه	-11.2677
۶۷	-11.2679
▁مخاطب	-11.2681
▁قدردان	-11.2682
رایت	-11.2683
▁دوتار	-11.2688
▁کانادایی	-11.2689
▁پارکور	-11.2689
▁سیگار	-11.2691
▁خویش	-11.2691
▁دژ	-11.2692
▁هیچکس	-11.2695
▁بالگرد	-11.2698
جوزپ	-11.27
لپ	-11.27
▁پهن	-11.2701
▁استقامت	-11.2702
▁حکیم	-11.2704
▁کارولین	-11.2705
▁جادوی	-11.271
کنون	-11.2712
▁مساحت	-11.2714
▁جنگند	-11.2714
▁گیلان	-11.2716
▁یابند	-11.272
▁پردازند	-11.2725
همگی	-11.2726
▁شکوه	-11.2728
▁محو	-11.2731
▁پیشگامان	-11.2732
سئول	-11.2732
▁سینماگر	-11.2734
▁تعلیم	-11.2734
▁شانگ	-11.2735
حصول	-11.2737
▁کوشید	-11.2741
▁گودال	-11.2743
▁غیبت	-11.2745
▁کامیاب	-11.2747
▁اختیارات	-11.2755
▁هولم	-11.2756
▁هوشیاری	-11.2756
▁سادگی	-11.2757
▁لبنانی	-11.2759
▁قوم	-11.276
دیمیر	-11.2761
▁راستش	-11.2771
▁هامون	-11.2775
▁شهرک	-11.2776
▁سفی	-11.2777
▁طرفی	-11.2782
ارومیه	-11.2782
نجیره	-11.2783
موسیقی	-11.2788
▁گهر	-11.2789
تاب	-11.2789
▁بگوید	-11.2792
▁مادی	-11.2797
▁پاد	-11.28
▁اشتباهات	-11.28
▁دستیاران	-11.2802
▁اینستاگرامش	-11.2803
▁آرت	-11.2813
▁کوس	-11.2828
▁عمیقا	-11.2832
▁بیانسه	-11.2833
▁خدای	-11.2837
▁منقل	-11.2841
▁مهندسان	-11.2843
▁پسند	-11.2843
▁مرت	-11.2845
▁گازها	-11.2846
▁سرمای	-11.2847
بویایی	-11.2848
▁سفره	-11.2851
دوستانه	-11.2853
کینگ	-11.2854
▁کلدی	-11.2856
▁پیمود	-11.2864
▁کشیدند	-11.2866
▁اعدا	-11.2868
▁په	-11.2869
▁یزد	-11.2869
▁القا	-11.2873
▁اضافی	-11.2874
شنا	-11.2874
▁لوک	-11.2885
▁فابی	-11.2901
۲۸	-11.2902
▁حاد	-11.2903
▁ارگان	-11.2905
▁عکاسان	-11.2907
▁اسعد	-11.2911
▁ازسر	-11.2915
نها	-11.2916
▁لیتر	-11.2919
۶۰	-11.2921
▁آلایند	-11.2922
▁منظره	-11.2923
کلاهبرداری	-11.2934
▁پیداست	-11.2941
▁شل	-11.2947
پو	-11.2947
▁خیز	-11.2953
رود	-11.2957
▁نیستیم	-11.2964
▁معما	-11.2968
▁بکند	-11.297
▁مزایای	-11.2973
ستیک	-11.3001
▁سنج	-11.3002
ریس	-11.3007
▁شکستگی	-11.3008
▁منک	-11.302
طبی	-11.3027
▁برآورده	-11.3031
ابق	-11.3035
▁موس	-11.304
یافته	-11.3049
▁حشر	-11.305
▁ساختند	-11.3063
▁بجا	-11.3063
یکه	-11.3063
سلط	-11.3065
اهی	-11.3068
شیپ	-11.308
درون	-11.3082
ویروس	-11.3086
▁ساید	-11.3088
تهران	-11.3096
▁قبا	-11.3097
▁سیمون	-11.31
▁کاوه	-11.3101
▁معمای	-11.3108
▁صده	-11.3116
سیما	-11.3119
▁راکت	-11.3122
▁بازگو	-11.3124
تور	-11.3126
بریتانیا	-11.3126
ستانگ	-11.3129
▁اصولگرا	-11.3133
▁مول	-11.3138
ملی	-11.3139
یسی	-11.3142
▁سردار	-11.3143
▁سیر	-11.3151
▁دایی	-11.3153
▁کلاه	-11.3162
یسون	-11.3168
▁بله	-11.3177
ضا	-11.3186
۵۸	-11.3196
▁سرش	-11.3199
▁گاو	-11.3201
ابلو	-11.3203
▁زلا	-11.3204
قرب	-11.3207
▁سفرش	-11.3211
تحریم	-11.3211
ستند	-11.3213
▁برگرداند	-11.3213
زار	-11.3216
ینی	-11.3217
ریان	-11.3219
▁درز	-11.3223
▁ماست	-11.3236
ایه	-11.3236
▁بازدیدکنند	-11.3248
▁میلیاردر	-11.3249
داستان	-11.3251
دلیل	-11.327
بجای	-11.3278
مورد	-11.3283
دفتر	-11.3287
▁کبد	-11.3288
▁اروپاست	-11.3293
اکی	-11.3296
شرایط	-11.3296
▁قب	-11.3319
▁شوق	-11.3322
ورهای	-11.3323
▁۴۵۰	-11.3328
وانی	-11.3338
تار	-11.3347
▁مسافری	-11.3348
اردو	-11.3363
صاب	-11.3367
▁گرما	-11.337
▁ولا	-11.3373
درگذشت	-11.338
جیک	-11.3381
▁ساع	-11.3383
فه	-11.3388
سخ	-11.3395
قدس	-11.3396
▁قاتل	-11.3397
کمتر	-11.3398
پرونده	-11.3401
▁موثری	-11.3403
▁چار	-11.3404
مذاکرات	-11.3412
▁درو	-11.3416
راض	-11.3417
ئوری	-11.3419
خون	-11.3419
▁هفده	-11.3419
▁عطا	-11.3425
▁جیم	-11.3431
▁مغزش	-11.3438
اعضای	-11.3441
یپ	-11.3442
▁تبعید	-11.3443
▁گردهم	-11.3444
مانیا	-11.3447
گارت	-11.3449
▁۸۸	-11.3449
نزا	-11.3454
▁صدد	-11.3464
دریچ	-11.3472
▁گرانتر	-11.3479
جانی	-11.3481
▁رقبا	-11.3488
زیر	-11.3488
خطر	-11.3493
▁علما	-11.3494
هنگام	-11.35
▁همگ	-11.3501
مزمن	-11.3502
(	-11.3502
▁آرزو	-11.3503
حادثه	-11.351
سرجی	-11.3511
▁اجتماع	-11.3519
▁گز	-11.3519
ملو	-11.353
▁فهم	-11.353
▁گردشگر	-11.3539
سعود	-11.354
▁الن	-11.354
لندر	-11.3544
▁لاش	-11.3546
سایت	-11.3547
مطابق	-11.3549
▁بیگ	-11.355
امین	-11.3552
فرگوس	-11.3552
منظور	-11.3554
غلام	-11.3556
کانادا	-11.3557
▁خاور	-11.356
اتریش	-11.3562
بفرستید	-11.3562
▁امری	-11.3564
ریچارد	-11.3568
تم	-11.3568
▁عزادار	-11.3572
اداره	-11.3573
▁نر	-11.3573
قبض	-11.3573
ندرت	-11.3574
بحث	-11.358
زود	-11.358
نفوذ	-11.3581
سری	-11.359
▁پروازهایش	-11.3591
الت	-11.3592
▁کودتا	-11.3593
▁کلاهبردار	-11.3596
▁استعمار	-11.3599
▁جنگی	-11.3599
▁شفا	-11.36
▁کروناست	-11.36
▁پرید	-11.3603
دیدار	-11.3605
جک	-11.3607
کاوه	-11.3614
▁ثا	-11.3621
▁قطرک	-11.3622
▁سیلی	-11.3622
زاک	-11.3623
▁ناآرام	-11.3624
دادستان	-11.3626
▁تران	-11.3627
▁قربان	-11.363
فل	-11.364
▁صوت	-11.3643
یخ	-11.3648
▁اوار	-11.3665
▁رائو	-11.3667
بیح	-11.3669
آیا	-11.3677
بهم	-11.3678
▁گیم	-11.3683
ناس	-11.3684
جامع	-11.3692
ماجرای	-11.3694
▁سفارشی	-11.3702
▁نهادی	-11.3703
خیر	-11.3704
نمایند	-11.3705
▁مشهورتر	-11.3712
▁آرم	-11.3723
یع	-11.3725
▁شکوف	-11.3734
۱۱	-11.3764
زاد	-11.3769
مرغ	-11.377
▁کوهنورد	-11.3786
رچه	-11.3787
▁هجدهم	-11.3791
رم	-11.3792
اط	-11.38
▁کلور	-11.3803
▁ارت	-11.3804
تلتی	-11.3811
▁رسن	-11.3816
حث	-11.3821
▁شاگرد	-11.3826
ریت	-11.3831
دلان	-11.3832
▁مقاوم	-11.3834
▁قل	-11.3835
▁سفرها	-11.3835
کمی	-11.3843
▁پالا	-11.3844
رالله	-11.3848
▁معلول	-11.3851
▁درها	-11.386
▁جور	-11.3863
▁تقریب	-11.3864
وئرنیک	-11.3872
▁بایر	-11.3889
▁احداث	-11.3889
▁اوگوپوگو	-11.3889
▁پاختاکور	-11.3889
▁کانگورو	-11.3889
▁بیندازند	-11.3889
▁پولیتزر	-11.3889
▁تویوتا	-11.3889
▁طغیان	-11.3889
▁اقتباس	-11.3889
▁اولیانوف	-11.3889
▁بلوچ	-11.3889
▁کاسموس	-11.3889
▁ناگزیر	-11.389
▁اردکانیان	-11.389
▁گریگوریان	-11.389
▁یادماندنی	-11.389
▁اسرارآمیز	-11.389
▁کمونیست	-11.389
▁ژی	-11.389
▁لشکر	-11.389
▁مقصود	-11.389
▁فرناند	-11.389
▁هیدرو	-11.3891
▁تکواندو	-11.3891
▁متمایز	-11.3891
▁۱۹۳	-11.3891
▁احوال	-11.3891
▁ارژن	-11.3893
▁برسانند	-11.3893
▁مرضیه	-11.3893
▁متصل	-11.3893
▁مرموز	-11.3893
▁سرسخت	-11.3895
جیمزباند	-11.3895
▁مکالمات	-11.3895
▁یقین	-11.3895
▁نوازندگان	-11.3895
▁نورالله	-11.3896
▁محصولاتش	-11.3897
▁شنوایی	-11.3899
▁برگردند	-11.3899
▁عضلانی	-11.3901
▁مختاری	-11.3901
▁بیدار	-11.3902
▁رژه	-11.3903
▁۱۹۲۰	-11.3904
▁تمیز	-11.3904
▁لبخندها	-11.3905
▁هالپ	-11.3905
▁بایستند	-11.3905
لاله	-11.3906
▁اشکالات	-11.3907
▁رفیق	-11.3907
▁تلویح	-11.3909
▁ابهامات	-11.3909
▁رکوردشکن	-11.391
کاراکاس	-11.3911
▁بخواهید	-11.3914
پرس	-11.3915
▁سکت	-11.3917
▁سیدنی	-11.3919
▁نابسامان	-11.392
▁اتصال	-11.392
▁الاکلنگ	-11.392
▁ایسلند	-11.392
▁شم	-11.392
▁خرمشهر	-11.3921
▁دادخواست	-11.3922
▁سفیددره	-11.3924
▁ماخ	-11.3924
▁پیانو	-11.3925
▁کیلوولت	-11.3925
▁گرافیک	-11.3927
▁هاپک	-11.3928
▁صراحت	-11.3929
▁نورمحمد	-11.393
▁منفرد	-11.393
▁چابک	-11.393
▁سحرگاه	-11.3931
▁متکی	-11.3932
▁پناهند	-11.3933
▁لورک	-11.3935
▁معاونان	-11.3937
▁مشروب	-11.394
▁ملکشا	-11.394
▁دریانورد	-11.3941
▁رودکی	-11.3942
▁مأموریت	-11.3943
▁هلندی	-11.3943
▁شکننده	-11.3946
▁تحصیلات	-11.3947
▁ترابی	-11.3948
▁پردازش	-11.3948
▁دیسک	-11.3948
هالیفیلد	-11.3952
▁تناقض	-11.3954
▁ریسک	-11.3956
▁فرندز	-11.3963
▁گیلبرت	-11.3963
▁عزت	-11.3965
▁ونگر	-11.3966
عضو	-11.3966
▁بزرگسالان	-11.3972
▁سولار	-11.3974
عطوف	-11.3977
▁بدنشان	-11.3978
یگر	-11.3981
اوران	-11.3985
▁استیو	-11.3986
نوش	-11.3988
▁بتوانی	-11.3988
▁کوش	-11.3993
▁پناهجوی	-11.3993
▁انتقام	-11.3997
▁ساترا	-11.3998
▁گردیم	-11.3999
▁مهمانان	-11.4001
▁کامران	-11.4006
▁سرگردان	-11.4006
▁برنگشت	-11.4009
▁دوندگان	-11.4012
▁شن	-11.4015
▁شخصا	-11.4016
▁واپس	-11.4024
بزرگ	-11.4028
تفرق	-11.4032
▁ول	-11.4041
▁بهت	-11.4055
▁مینا	-11.4074
▁خطا	-11.4074
▁تجمعات	-11.4082
▁صحرای	-11.4085
▁خم	-11.4086
▁والتر	-11.4087
▁متحدانش	-11.4089
▁سکوها	-11.4096
▁جوی	-11.4109
▁غیربو	-11.411
▁هانز	-11.4123
یار	-11.4128
▁بیورن	-11.4128
▁ضیا	-11.4129
ظه	-11.4135
▁نایا	-11.4136
پیر	-11.4138
رش	-11.4138
▁بدنش	-11.4155
تصویر	-11.4156
▁جاست	-11.4159
▁نیکولا	-11.416
▁بازیافت	-11.4178
▁لینک	-11.4183
کنیم	-11.4183
▁نگرفت	-11.4183
انک	-11.4186
▁بازنده	-11.4188
اور	-11.4189
شدن	-11.419
▁راهنمای	-11.4192
▁اینچ	-11.4198
بند	-11.4213
▁قان	-11.4215
▁فضاپیمای	-11.4216
▁بفرستید	-11.4228
▁کریس	-11.4238
▁نیوز	-11.4242
▁شرک	-11.4243
لسون	-11.4244
▁لطفی	-11.425
بته	-11.4251
فش	-11.4252
▁هوادارانش	-11.4266
نیوز	-11.4267
▁همگان	-11.4271
▁عمد	-11.4272
راتی	-11.4275
ادا	-11.4279
جانب	-11.4289
۵۷	-11.4293
منی	-11.4295
▁سنی	-11.4297
▁مجرمان	-11.4303
▁آوا	-11.4309
▁۷۹	-11.4314
پاش	-11.4321
أی	-11.4323
▁آلبر	-11.4326
▁پذیرای	-11.4326
▁بالاست	-11.4327
▁خلا	-11.433
▁محب	-11.4332
▁توفیقی	-11.4336
▁تحق	-11.4338
▁جرا	-11.4341
زیه	-11.4344
▁زودرس	-11.436
فتن	-11.4367
باتری	-11.4369
سنگ	-11.4379
▁ناقل	-11.4381
▁راد	-11.4386
لینگ	-11.4386
▁عطف	-11.4391
وزی	-11.4393
▁امیدهای	-11.4393
رها	-11.4394
وجیه	-11.4401
▁خند	-11.4402
لتیک	-11.4406
▁پوستر	-11.4423
▁داروین	-11.4423
ائب	-11.4426
▁گیتار	-11.4436
وویچ	-11.445
▁افزودن	-11.4457
▁بخشیده	-11.4461
▁بخواهد	-11.4464
▁مصم	-11.447
▁لوپ	-11.4474
موج	-11.4477
تراشه	-11.4485
▁رز	-11.4495
▁برگرداندن	-11.4496
▁فول	-11.4498
▁پشتو	-11.4507
وندی	-11.4509
▁فش	-11.4516
▁برگزارکنند	-11.4521
▁دقتی	-11.4524
جهان	-11.4538
اطم	-11.4538
▁گیت	-11.4541
اراک	-11.4545
▁میدهد	-11.4547
سام	-11.4548
▁پنس	-11.4549
رشاد	-11.4553
▁نوآوران	-11.4567
میته	-11.4575
▁فشارهای	-11.4577
▁ربای	-11.4579
▁وات	-11.4582
▁سرم	-11.4584
▁نب	-11.4585
نوان	-11.4591
▁پینک	-11.4591
▁سانتا	-11.4596
▁۴۲۰	-11.4601
چل	-11.4604
▁بهرامی	-11.4606
▁رف	-11.4612
▁۷۵۰	-11.4612
نشین	-11.462
▁کارفرما	-11.4625
▁باریک	-11.4639
اشی	-11.4643
شتم	-11.4646
▁مردن	-11.465
مع	-11.4654
▁گلی	-11.4656
پولیس	-11.4659
▁کنیا	-11.4659
بان	-11.4665
اکبر	-11.4668
▁آبهای	-11.4685
▁سنگر	-11.4687
۱۲	-11.469
▁افش	-11.4702
پادمان	-11.4703
نور	-11.4705
▁سوئ	-11.4707
▁اجراهای	-11.4711
▁مصر	-11.4715
▁اسا	-11.4716
آفرینی	-11.4725
افتاده	-11.4729
▁توق	-11.4731
حداکثر	-11.4735
سوس	-11.4736
▁بش	-11.4737
رمان	-11.4742
▁ملته	-11.4746
ماتیک	-11.4757
▁نشستن	-11.4763
▁عفون	-11.4769
▁لوف	-11.4777
مسابقه	-11.478
امید	-11.4787
دمای	-11.4792
▁قف	-11.4793
رنج	-11.4795
مزد	-11.4797
▁شارل	-11.4797
کاظم	-11.4802
▁۱۳۳	-11.4802
بازداشت	-11.4803
▁عدل	-11.4808
مایه	-11.4808
▁رفراند	-11.481
▁گذاریم	-11.4814
زندگی	-11.4826
مشخص	-11.4827
▁کامپیوترها	-11.4831
▁الس	-11.4837
▁تبع	-11.4844
نقل	-11.4847
دینگ	-11.4852
تورهای	-11.4857
▁ریاضی	-11.486
افشاری	-11.4861
▁هیل	-11.4863
▁سکان	-11.4863
▁سناریو	-11.4881
پیروز	-11.4894
تاج	-11.4895
کارگران	-11.4902
▁طو	-11.4902
هواداران	-11.4908
▁انسانها	-11.4912
▁برآوردها	-11.4913
شاپی	-11.4916
تنیس	-11.492
گز	-11.4921
منچستر	-11.4921
۶۳	-11.4922
ارزش	-11.4927
▁نش	-11.4927
▁پوشیدن	-11.4931
تجرب	-11.4932
تاتنهام	-11.4934
اوپک	-11.4934
ظن	-11.4936
▁حاج	-11.4938
▁ولت	-11.494
فاصل	-11.4946
▁ادوار	-11.4952
▁برخاست	-11.4952
▁گدا	-11.4953
ادت	-11.4954
اسپانیا	-11.4956
جوکوویچ	-11.496
فضل	-11.4965
کسل	-11.4967
▁پژ	-11.4967
کتاب	-11.4971
فرهاد	-11.4972
گاوا	-11.4974
ورانه	-11.4979
محمدرضا	-11.4979
▁نبو	-11.4982
ایدو	-11.4983
▁اشتباهی	-11.4984
هماهنگ	-11.4988
▁کارل	-11.499
اسناد	-11.4994
تحلیلگر	-11.5006
وکیل	-11.5012
▁داش	-11.5014
▁دانا	-11.5017
▁ضم	-11.5023
هیچ	-11.5028
اندن	-11.5031
▁بلندپرواز	-11.5034
جن	-11.5035
رگیری	-11.5036
▁آلت	-11.5039
▁کلیسا	-11.504
دولتی	-11.5041
▁ناصری	-11.5042
جله	-11.505
▁نوردی	-11.505
▁اشت	-11.5076
رغ	-11.5076
▁موسسا	-11.5077
۴۹	-11.508
▁امپراتور	-11.5085
نقش	-11.5091
▁شورش	-11.5093
▁بیتل	-11.5098
▁مشتاق	-11.5101
رسیدن	-11.5103
نجی	-11.5104
▁کانت	-11.5105
اعظم	-11.5107
▁مری	-11.5115
اژ	-11.5118
هفتصد	-11.5128
آلود	-11.5129
▁شیع	-11.5141
▁شنید	-11.5148
▁همب	-11.5152
زیان	-11.5161
دوزی	-11.5161
دارا	-11.5162
▁گوسفند	-11.5166
مری	-11.5169
گرفتن	-11.5171
▁پرتو	-11.5178
بال	-11.5182
لیس	-11.5189
یخته	-11.5191
▁باردار	-11.5199
تازه	-11.52
بود	-11.5216
آبی	-11.5218
دایی	-11.5222
▁محوری	-11.5228
▁متو	-11.5232
▁کارند	-11.5237
اویر	-11.525
▁جیمی	-11.5255
▁کوید	-11.5259
▁جنب	-11.5264
نگرانی	-11.5276
▁استانداری	-11.5285
▁سازوکار	-11.5293
جل	-11.5301
▁مخابر	-11.5302
▁کولبر	-11.531
▁حکمی	-11.5312
▁اورشلیم	-11.5318
▁فیلسوف	-11.5318
▁محتاط	-11.5318
▁انقطاع	-11.5318
▁عناوین	-11.5318
▁تدفین	-11.5318
▁ناخودآگاه	-11.5318
▁سمفونی	-11.5318
▁ارواح	-11.5318
▁اصغر	-11.5318
▁النصر	-11.5318
▁رزیدن	-11.5318
▁کرمانشاه	-11.5318
▁انزوا	-11.5319
▁قتالی	-11.5319
▁تذکر	-11.5319
▁کانتینر	-11.5319
▁کوشنر	-11.5319
▁ماراکانا	-11.5319
▁هریرود	-11.5319
▁کرمانپور	-11.5319
▁فرهیخت	-11.5319
▁تدارک	-11.5319
بازد	-11.5319
▁بکاهند	-11.532
▁جهرمی	-11.532
▁باشکوه	-11.532
▁ران	-11.532
▁طلسم	-11.5321
▁ظالمانه	-11.5321
▁واجد	-11.5321
▁۱۹۷۹	-11.5321
▁بدانید	-11.5321
▁ترشح	-11.5322
▁قرآن	-11.5322
▁روانچی	-11.5322
▁کواچ	-11.5323
▁ویلسون	-11.5323
▁کاسپی	-11.5323
▁نابرابر	-11.5323
▁عالیشاه	-11.5323
▁آرسن	-11.5323
▁امپر	-11.5326
▁فرنگی	-11.5327
▁درآید	-11.5328
▁بزاق	-11.5328
▁پرجمعیت	-11.5328
▁سازگار	-11.5328
▁ضابط	-11.5329
▁۱۳۶۰	-11.5329
▁بنویس	-11.5329
▁متضاد	-11.5329
▁قبرستان	-11.533
▁نیابد	-11.533
▁۱۹۹۵	-11.533
▁بنشیند	-11.5331
▁مراکش	-11.5331
موث	-11.5331
▁۱۹۹۴	-11.5332
▁مردادماه	-11.5332
▁بیولوژیک	-11.5332
▁خودمختار	-11.5332
▁انتصاب	-11.5333
▁مولف	-11.5335
▁جملات	-11.5335
▁فرستد	-11.5338
▁جاسک	-11.5339
▁بخورد	-11.534
▁بگذارم	-11.534
▁داگ	-11.5341
▁لامرد	-11.5342
▁حواس	-11.5342
▁سازوکارهای	-11.5342
▁برویم	-11.5345
کوس	-11.5347
شکاف	-11.5347
▁تجربیات	-11.5348
▁فلزات	-11.5349
▁برونته	-11.535
▁تخل	-11.5351
▁هک	-11.5351
▁مارلی	-11.5354
▁نیفتاد	-11.5354
سیزدهم	-11.5355
بینند	-11.536
▁یونسی	-11.5361
▁معلولان	-11.5361
▁راسخ	-11.5362
▁۱۹۶۸	-11.5362
▁آگوست	-11.5369
▁کروات	-11.5372
▁ایستادند	-11.5372
▁نورستان	-11.5373
ادین	-11.5374
▁بازتاب	-11.5374
▁ژنوم	-11.5377
▁فلامینگوها	-11.5377
▁ویرانگر	-11.5378
صریح	-11.5381
کاران	-11.5382
▁خاکستر	-11.5382
▁توبین	-11.5387
ئه	-11.5388
▁رستم	-11.5389
▁اجداد	-11.5389
▁گرگور	-11.5392
▁ندادند	-11.5395
▁فهیم	-11.54
▁ماوریک	-11.5403
▁رول	-11.5403
▁فیروزجا	-11.5404
▁تعرض	-11.5406
▁ناشده	-11.5408
▁سرخک	-11.541
▁مسبب	-11.5412
فین	-11.5413
نیچ	-11.5415
▁لاپورتا	-11.5419
کافی	-11.5422
▁جذابیت	-11.5422
▁توقع	-11.5423
▁زالی	-11.5425
▁خوشبین	-11.5429
▁پروست	-11.5429
▁درمی	-11.5433
▁رخدادهای	-11.5436
بدی	-11.5438
▁مطلق	-11.5442
▁کمربندهای	-11.5442
▁ابزارهای	-11.5443
▁دلتا	-11.5448
▁ترقی	-11.5449
▁صرب	-11.545
▁یوس	-11.5455
نسون	-11.5458
زاب	-11.5459
▁رادیوی	-11.5459
▁خریدن	-11.5463
▁ریختن	-11.5464
▁بدهم	-11.5466
▁دردسرهای	-11.547
چال	-11.5479
▁لیبی	-11.5484
▁درمیان	-11.5485
چهل	-11.5485
▁توسان	-11.5485
▁باختر	-11.5488
▁ثور	-11.5489
▁فاضل	-11.5493
▁نایاب	-11.5494
اچو	-11.5496
▁مهیب	-11.5496
▁گرو	-11.5499
▁فرستادن	-11.5501
▁بزرگسال	-11.5504
▁کجاست	-11.5504
▁امی	-11.5511
▁ترا	-11.552
▁مادام	-11.5521
▁محدودی	-11.5526
گرنه	-11.5528
▁راشد	-11.5528
▁سانچ	-11.553
▁لط	-11.553
▁خوابیدن	-11.5537
▁عز	-11.554
▁ریگ	-11.5545
تاکنون	-11.5547
وده	-11.5549
▁خران	-11.5553
▁شنای	-11.5556
▁بدهید	-11.5562
▁کارلو	-11.5565
▁پارکر	-11.5568
▁عثمانی	-11.5569
سارت	-11.5571
کشته	-11.5578
▁یوآن	-11.558
▁پهنه	-11.558
▁حسابدار	-11.558
▁مای	-11.5581
▁ورق	-11.5585
▁اجت	-11.5585
▁بلک	-11.5591
▁کولاک	-11.5591
▁بگذاری	-11.5595
▁اتو	-11.5597
▁طاق	-11.5598
بد	-11.5602
▁پردازی	-11.5602
▁گریخت	-11.5602
فروش	-11.5603
۸۹	-11.5605
ومین	-11.561
▁فروند	-11.5614
▁آذری	-11.5626
▁خصوصیات	-11.5626
▁احتیا	-11.5629
▁مجادل	-11.5632
▁تخ	-11.5632
▁سیلا	-11.5633
▁خفا	-11.5637
▁بهزاد	-11.5638
▁چاق	-11.5639
▁جراحان	-11.5649
▁توبی	-11.5665
۳۶۰	-11.5667
▁جوانا	-11.5668
کسیون	-11.5673
▁ناک	-11.5675
نفت	-11.5675
▁نویسد	-11.5681
▁آز	-11.5682
▁بلید	-11.5695
۶۱	-11.5702
▁نیل	-11.5705
▁اینست	-11.5705
دنظر	-11.5709
شمارش	-11.5712
ننده	-11.5721
▁کوپر	-11.5722
▁بروید	-11.5723
ادگی	-11.5727
▁حف	-11.5734
گشاد	-11.5736
▁بازگشتند	-11.5739
▁نزدیکانش	-11.5744
▁منازع	-11.5745
▁نبودند	-11.5745
▁شکم	-11.5748
▁پسران	-11.5749
زیو	-11.575
روسا	-11.5751
تخیلی	-11.5752
۹۷	-11.5764
▁شاد	-11.5765
▁قانونگذار	-11.5768
دند	-11.5774
▁سف	-11.5784
۹۴	-11.5784
ازاد	-11.5785
لبان	-11.5796
عادی	-11.5807
▁جودوکا	-11.5813
▁خوشی	-11.5819
▁پاسخگوی	-11.5823
رتر	-11.5832
نوی	-11.5833
▁زیبای	-11.5836
▁دیدند	-11.5839
پرسینگ	-11.5841
لث	-11.5845
▁بستند	-11.585
یامک	-11.5851
▁پیامبر	-11.5852
▁چای	-11.5858
▁ویر	-11.586
بورد	-11.5864
شک	-11.5875
▁۱۷۳	-11.5876
▁درهم	-11.5878
▁بوی	-11.5891
▁وزار	-11.5897
▁آنگل	-11.5898
▁نظرش	-11.5905
▁بدنم	-11.5913
▁مجتب	-11.5918
▁بسر	-11.5926
▁نوب	-11.5927
▁نیستم	-11.5929
▁سرگذاشت	-11.5933
▁تقلا	-11.594
▁زوم	-11.5941
▁مستندهای	-11.5945
برده	-11.5947
▁کویت	-11.5947
اکتی	-11.5961
▁رشید	-11.5972
▁درسی	-11.5976
▁لوکه	-11.5979
▁دعا	-11.5994
▁فضاپیما	-11.5995
فرانس	-11.5995
راک	-11.5998
▁هاروی	-11.5998
▁شعرهای	-11.6002
گرایی	-11.6004
انزا	-11.6009
▁نجفی	-11.6018
▁کری	-11.6019
▁فری	-11.6026
▁فریب	-11.6029
▁شیب	-11.6034
کری	-11.6035
ندگی	-11.6037
نفر	-11.6042
ائی	-11.6056
▁آپ	-11.6057
▁مذک	-11.6058
▁مهمتر	-11.6064
▁کارتر	-11.6066
▁کریستی	-11.6067
ونته	-11.6071
▁فیش	-11.6078
▁آشو	-11.6079
صول	-11.6102
▁حول	-11.6103
هور	-11.6114
▁دانستن	-11.6114
کست	-11.6116
کور	-11.6127
▁نانو	-11.6128
▁بخشهای	-11.6132
کول	-11.6133
▁امیرم	-11.6139
کانا	-11.6147
لای	-11.6148
رب	-11.6156
دخت	-11.6158
▁فرهنگیان	-11.616
▁نیکلا	-11.6164
▁گلو	-11.6189
▁رسی	-11.6201
▁پیت	-11.6203
▁امیدی	-11.6206
روند	-11.6209
گرا	-11.6215
▁نخ	-11.6216
▁کارتون	-11.622
▁برنا	-11.6222
۲۲	-11.6223
▁بخشد	-11.6223
اثر	-11.6226
▁پرستار	-11.6227
وجه	-11.6237
▁ناشر	-11.6238
▁ماریان	-11.6239
▁شکنی	-11.6245
وتی	-11.625
▁اغ	-11.6254
▁اسکان	-11.6255
▁بفهم	-11.6257
۹۶	-11.6262
حقوق	-11.6266
▁اب	-11.6268
▁درسال	-11.6278
مانس	-11.6292
▁شار	-11.6295
کارآمد	-11.6307
▁نیامد	-11.6307
لیات	-11.6338
▁مگ	-11.6338
▁دوید	-11.6344
صف	-11.6348
▁دوگان	-11.6355
ردی	-11.6355
کسین	-11.6362
خودرو	-11.6365
▁جع	-11.6373
وفس	-11.6377
▁نواخت	-11.6385
نگا	-11.6385
▁ترانس	-11.6409
ناظر	-11.641
۰۱	-11.6411
▁سپرد	-11.6412
▁غرو	-11.6415
ستر	-11.6429
ائو	-11.643
درآمد	-11.6432
مرد	-11.6442
ندرسون	-11.6464
همکاری	-11.6472
▁لوح	-11.648
▁آپو	-11.6483
رکورد	-11.6486
سیاس	-11.6493
رفته	-11.6495
ابتدا	-11.6498
▁توا	-11.6503
فرانسه	-11.6509
▁حک	-11.6512
▁آرزوها	-11.6517
لد	-11.6519
▁پاسخگو	-11.6526
اعت	-11.6529
پاسخ	-11.653
امه	-11.653
▁بارش	-11.6533
ترکیب	-11.6539
▁شناختن	-11.6547
▁بلخی	-11.6553
جشنواره	-11.6555
نتایج	-11.6556
نژاد	-11.6556
جواد	-11.6565
قهرمانی	-11.6572
نچ	-11.6573
استرالیا	-11.6577
▁دز	-11.6579
وحد	-11.658
▁گاردی	-11.6582
▁کورت	-11.6586
▁فک	-11.6586
گمرک	-11.6595
دلایل	-11.6597
تشکر	-11.6597
جنجال	-11.66
▁هرد	-11.6609
شعر	-11.6609
▁بادی	-11.6611
▁نظ	-11.6611
حاشیه	-11.6616
راجع	-11.6616
▁سوز	-11.6617
آکادمی	-11.6627
▁هیولا	-11.663
قاسم	-11.663
▁مافی	-11.663
کوئین	-11.6632
▁..	-11.6648
سریع	-11.6649
دختر	-11.665
آرامکو	-11.6653
۸۴	-11.6655
خشکسالی	-11.6655
▁کیمی	-11.6657
ویش	-11.6664
تخصصی	-11.6668
لستر	-11.6671
▁مورف	-11.6678
تابعیت	-11.6679
آزادی	-11.6682
▁دلیلش	-11.6687
دقیق	-11.6693
▁یادگار	-11.6694
ولا	-11.6694
▁مذهب	-11.6697
▁مزایا	-11.6707
▁سیری	-11.6713
گردون	-11.6714
▁الی	-11.672
حساب	-11.6724
▁سلیمان	-11.6729
▁باخ	-11.6731
ویی	-11.674
کمه	-11.6747
غوری	-11.6748
▁هواپیماها	-11.6748
▁گار	-11.675
▁پرز	-11.6754
▁حیا	-11.6757
▁۱۶۰	-11.6759
▁استبا	-11.6768
فو	-11.6775
▁تروریست	-11.6779
کرده	-11.6782
طری	-11.6784
▁۲۰۵	-11.6791
▁تشک	-11.6794
جسمی	-11.6796
▁سانتو	-11.6813
باد	-11.6814
▁قضائی	-11.6816
نقدر	-11.6819
▁موسی	-11.6822
ملا	-11.6824
▁صدایش	-11.6828
کریست	-11.683
▁فلور	-11.683
▁عط	-11.6832
▁هرج	-11.6835
▁متخلف	-11.6838
نفی	-11.6843
▁پاب	-11.6845
کیت	-11.6848
ضرور	-11.6852
▁رویز	-11.6858
▁دزدی	-11.686
▁گرین	-11.6862
گردانده	-11.6866
سنگر	-11.6872
گران	-11.6874
جات	-11.6878
▁غور	-11.6879
▁روم	-11.6881
نرخ	-11.6882
واقعی	-11.6885
کنند	-11.689
▁تراک	-11.6891
▁کوارت	-11.6897
▁یوآ	-11.69
▁قوز	-11.6906
آر	-11.6914
زائ	-11.6925
▁آزمو	-11.6932
▁ماز	-11.6941
▁بازده	-11.6946
عظم	-11.6951
اتیو	-11.6955
▁گریه	-11.6955
لیه	-11.6957
▁شدیم	-11.6962
▁مکاتب	-11.6965
محسن	-11.6966
طل	-11.6973
▁نامند	-11.6978
فیروز	-11.6981
▁قزاق	-11.6984
▁اختاپوس	-11.6985
▁روزافزون	-11.6985
▁سخاوتمند	-11.6985
▁لومامبا	-11.6985
▁پلتفرم	-11.6985
▁ژئوفیزیک	-11.6985
▁ژئوپلیتیک	-11.6985
▁انحراف	-11.6985
▁سزاوار	-11.6985
▁هژمون	-11.6985
▁بیضائی	-11.6985
▁سانتیگراد	-11.6985
▁اوقاف	-11.6985
▁لاوروف	-11.6985
▁هامبورگ	-11.6985
▁بولونیا	-11.6985
▁سارقان	-11.6985
▁غلیظ	-11.6985
▁دانچیچ	-11.6985
▁انسولین	-11.6985
▁چمپیون	-11.6985
▁التحصیل	-11.6985
▁قیصر	-11.6985
▁مصداق	-11.6985
▁اقوام	-11.6985
▁فلاکت	-11.6985
▁باچان	-11.6985
▁تظاهرکنندگان	-11.6985
▁سیرجان	-11.6985
▁ذوالنور	-11.6985
▁دوبلور	-11.6986
▁لاتکس	-11.6986
▁وسواس	-11.6986
▁میچام	-11.6986
▁اوزون	-11.6986
▁بلندپایه	-11.6986
▁حصبه	-11.6986
▁کارائیب	-11.6986
▁موازات	-11.6987
▁شکارچی	-11.6987
▁جوامع	-11.6987
▁پاستور	-11.6987
▁حیثیت	-11.6987
▁دشتکی	-11.6987
▁نیچر	-11.6987
▁ترفند	-11.6987
▁نیرومند	-11.6987
▁ظلم	-11.6987
▁نابویایی	-11.6987
ترا	-11.6988
▁ارباب	-11.6988
▁ارمجانی	-11.6988
▁مقادیر	-11.6989
▁مشروعیت	-11.6989
▁تتلو	-11.6989
▁خلوتگر	-11.699
▁زیراتمی	-11.699
▁ببینم	-11.699
▁منفعت	-11.6991
ژگان	-11.6991
▁ژائو	-11.6991
▁متوازن	-11.6991
▁سعیدپور	-11.6992
▁فیصل	-11.6992
▁مغایر	-11.6993
▁مالزی	-11.6993
▁بریجز	-11.6995
▁محفظه	-11.6995
▁جرارد	-11.6995
▁زوایا	-11.6997
▁خویشتن	-11.7
▁نکشید	-11.7
▁سهیم	-11.7002
▁تایی	-11.7003
▁اتلان	-11.7003
▁پرشمار	-11.7003
▁چوپ	-11.7003
▁ببریم	-11.7005
قندهار	-11.7005
▁هندرسون	-11.7006
▁نگیرد	-11.7007
▁ریاضیات	-11.7007
▁فلسطینیان	-11.7008
▁لوگو	-11.7009
▁تحرکات	-11.701
▁جلیل	-11.7013
▁دیرتر	-11.7015
▁اسلو	-11.7016
▁یاسم	-11.7017
▁پرستون	-11.7018
▁کابوس	-11.7018
▁هنگفت	-11.7019
▁سندی	-11.702
▁قمار	-11.7022
رخ	-11.7024
▁اجساد	-11.7024
▁اسکورسیزی	-11.7025
▁سحابی	-11.7025
▁متغیرهای	-11.7025
▁توازن	-11.7027
▁فرسود	-11.7028
بالاحصار	-11.7029
▁سیاهپوست	-11.7029
▁حوض	-11.7029
صنوف	-11.7029
▁خطاهای	-11.703
▁مختصر	-11.7035
▁وزرا	-11.7038
▁همفکر	-11.704
▁رکس	-11.7041
▁لغز	-11.7042
▁ملوان	-11.7043
گوگوش	-11.7046
▁سرپوش	-11.7046
▁کبیری	-11.7047
▁بگیرم	-11.7048
▁دروغگو	-11.7048
▁صیاد	-11.7051
▁آویز	-11.7053
▁اسکات	-11.7054
▁مناسبات	-11.7055
▁متقابل	-11.7057
ثه	-11.7062
نعیم	-11.7063
▁علیزاده	-11.7063
تک	-11.7064
۴۴	-11.7067
▁لغت	-11.707
▁مزد	-11.7073
▁وفا	-11.7074
▁گاردن	-11.7078
▁تفکر	-11.7081
زد	-11.7081
مرور	-11.7082
لسک	-11.7083
▁سلیق	-11.7083
▁۱۳۱	-11.7083
عادل	-11.7095
▁خرس	-11.7105
سود	-11.7107
▁نیمروز	-11.7107
موتو	-11.7109
▁لندر	-11.711
باط	-11.711
▁توانمند	-11.7112
وادا	-11.7114
▁چرخید	-11.7114
▁تاکسیران	-11.7115
شریف	-11.7121
▁ویدئوهای	-11.7121
▁مجرد	-11.7121
▁ایلام	-11.7124
یتا	-11.7125
کین	-11.7125
▁حسگرها	-11.7127
رزمی	-11.7128
▁منت	-11.7135
لیت	-11.7141
▁نثر	-11.7142
شوند	-11.7144
روف	-11.715
▁رفقا	-11.715
▁حوال	-11.7152
▁عناب	-11.7152
▁افزارهای	-11.7158
▁اثرگذار	-11.716
معدنچی	-11.7162
▁وانگ	-11.7168
میلیارد	-11.717
▁تسلی	-11.7173
▁آسا	-11.7175
▁اکثرا	-11.7179
▁کانل	-11.7184
انگ	-11.7189
▁رازهای	-11.7192
▁نازک	-11.7195
▁روا	-11.7197
▁مشاه	-11.7198
میمون	-11.7199
▁نازل	-11.7205
۱۹۶۵	-11.7207
▁محاف	-11.7207
گت	-11.7209
▁ربکا	-11.7224
▁لندرو	-11.7224
▁گوها	-11.7225
خشنود	-11.7227
▁کوچه	-11.723
▁دیرو	-11.7231
▁دفع	-11.7232
▁کشورهاست	-11.7235
مور	-11.7238
▁انکار	-11.7239
▁طبقات	-11.7245
ذره	-11.7245
رسید	-11.7249
▁متال	-11.7249
▁بدهیم	-11.7252
▁پترو	-11.7264
دوغا	-11.7267
۲۷	-11.727
▁بپذیر	-11.727
▁شدیدتری	-11.7271
ارسل	-11.7275
▁نیافتن	-11.7277
▁عی	-11.7284
▁اظهارنظرهای	-11.7284
▁لیو	-11.7289
▁موسیقیدان	-11.7303
▁روده	-11.7305
▁کریستین	-11.7305
▁ترسد	-11.7307
▁مراد	-11.7309
▁رج	-11.7312
▁صداها	-11.7316
▁اسپا	-11.7321
▁تشکیلات	-11.7322
▁پاسدار	-11.7324
حضا	-11.7324
بک	-11.7328
▁طر	-11.7334
▁خوردند	-11.7344
▁غذاخور	-11.7345
▁سیاستگذار	-11.7347
▁بچ	-11.7347
وستون	-11.7347
▁رباب	-11.7349
▁گراند	-11.7351
▁منفور	-11.7354
قد	-11.736
▁بریج	-11.7363
▁معاهد	-11.7369
▁روبات	-11.737
لال	-11.737
▁دیوارهای	-11.7372
▁سالمند	-11.7379
مش	-11.7379
▁هجدهمی	-11.7382
▁تیموری	-11.7392
نوایی	-11.7401
دوستان	-11.7405
فرنو	-11.7406
▁اقسا	-11.7407
برآورد	-11.7408
▁میلیچ	-11.7417
▁بدویا	-11.7417
▁راهکار	-11.7422
▁سوییس	-11.7424
آور	-11.7428
▁خوشایند	-11.7432
▁۱۷۴	-11.7437
▁غزل	-11.7437
اسکورت	-11.7441
زنان	-11.7441
▁کمیاب	-11.7442
حاملگی	-11.7443
پزشک	-11.7443
▁بیکاران	-11.7444
▁آئ	-11.7447
▁قبض	-11.7449
▁حریر	-11.7454
▁افول	-11.7459
▁مشخصات	-11.7465
▁ایرانسل	-11.747
▁آرمی	-11.7471
الیز	-11.7472
▁چاب	-11.7481
▁کیپ	-11.7486
صیل	-11.7498
▁دنی	-11.7502
▁نصیر	-11.7508
▁عینک	-11.7508
سانس	-11.7512
کام	-11.7521
▁رسند	-11.7522
تحرک	-11.7527
▁سناریوها	-11.7527
ورود	-11.7529
▁ماهان	-11.753
▁سرب	-11.7533
▁همهمه	-11.7538
▁بقا	-11.7539
▁نپذیرفت	-11.7545
▁پاش	-11.7546
▁تبر	-11.7546
دانی	-11.7553
آفرین	-11.7564
▁سوزاند	-11.7566
دهم	-11.758
ژن	-11.7582
▁آمونی	-11.7585
▁موت	-11.7587
▁توسل	-11.7595
گردانی	-11.7599
راد	-11.7601
▁گردون	-11.7605
▁تونسی	-11.7606
▁نبی	-11.7612
▁نماید	-11.7617
عطا	-11.7618
▁شروط	-11.7626
▁فرز	-11.7626
▁رانگل	-11.7627
جف	-11.7629
راحتی	-11.7639
▁رایانه	-11.7642
▁قبای	-11.7654
▁منامه	-11.7658
نشأ	-11.766
گذشت	-11.7667
شوه	-11.7673
▁غوری	-11.7678
▁امضاکنند	-11.7681
کران	-11.7682
۰۵	-11.769
▁سوپ	-11.7705
غلو	-11.7708
▁اتم	-11.7713
▁قصر	-11.7714
▁۶۹	-11.772
▁اوکا	-11.773
▁زنیم	-11.7731
۳۹	-11.7736
انند	-11.7736
ولین	-11.7737
▁بون	-11.7751
وثر	-11.7764
▁نفربر	-11.7769
اتح	-11.7775
پاری	-11.778
سترسیتی	-11.7783
نمای	-11.7793
▁گذران	-11.7796
وران	-11.7803
▁شکستند	-11.7812
▁استوایی	-11.7813
وین	-11.7818
زبان	-11.7819
▁پیا	-11.7824
▁ناکار	-11.7832
▁وول	-11.7836
ولکس	-11.7855
▁سردست	-11.786
▁آلم	-11.786
▁گوستا	-11.7863
ناوب	-11.7863
▁سک	-11.7873
▁سیرو	-11.7875
▁آندریا	-11.7878
اتور	-11.7884
▁خش	-11.7885
وفون	-11.7888
▁شاهدان	-11.7903
▁شالی	-11.7906
فرشی	-11.7907
جیان	-11.7912
اصل	-11.7913
▁کرایس	-11.7914
جمهوری	-11.7924
▁لوس	-11.7927
شم	-11.7933
آنچ	-11.7935
▁شرعی	-11.7937
▁رویاهای	-11.7944
آباد	-11.7947
وپ	-11.7949
▁راوی	-11.7951
▁چتر	-11.796
ویا	-11.7961
قهرمان	-11.7961
▁افرا	-11.7972
حکم	-11.7973
▁حقوقدان	-11.7973
▁سوخته	-11.7978
ولوژی	-11.7978
شن	-11.7979
▁داو	-11.798
▁باگ	-11.7985
▁محبوبش	-11.7992
▁عر	-11.7999
▁همسو	-11.8
نویس	-11.8009
بن	-11.802
▁تنی	-11.8023
ونی	-11.8025
▁بازنش	-11.8025
▁اجزا	-11.8029
▁ربود	-11.8029
۷۷	-11.8029
▁تیز	-11.803
▁آزاری	-11.8034
پایان	-11.8048
هو	-11.8049
▁شرع	-11.8051
▁کنو	-11.8056
▁نیاورده	-11.8065
تمایل	-11.8067
▁محر	-11.808
▁شکن	-11.8086
▁بزو	-11.8086
توافق	-11.809
ژه	-11.8092
▁ستا	-11.8098
ینز	-11.8102
قای	-11.8103
▁۱۸۹	-11.8105
واکسن	-11.8108
▁زیباتر	-11.8115
تالیا	-11.8123
درهای	-11.8125
▁بازه	-11.8127
اطی	-11.8133
لستون	-11.8134
▁اسید	-11.8135
▁ارج	-11.815
رالزمان	-11.815
▁نوپا	-11.8151
▁سفال	-11.8151
▁همخوان	-11.8159
ژ	-11.8162
دید	-11.8166
▁اط	-11.8181
▁عکسها	-11.8183
دانه	-11.8186
▁شست	-11.819
▁پارو	-11.8191
خنده	-11.8197
▁دلو	-11.8198
نولد	-11.8202
یکا	-11.821
ماشین	-11.8216
▁نخواست	-11.822
فعالیت	-11.8223
▁دویدن	-11.8224
بندی	-11.823
فیه	-11.8234
▁بازگرد	-11.8236
▁والا	-11.8237
▁لک	-11.8237
رعه	-11.8239
وست	-11.8243
▁سکو	-11.8258
نیو	-11.8261
پرداخت	-11.8262
۶۶	-11.8262
▁دبی	-11.8267
شروع	-11.8272
نای	-11.8274
▁کلک	-11.8276
▁فرودست	-11.8278
▁شناورها	-11.828
الف	-11.8281
▁ماتی	-11.8288
▁شدایران	-11.829
مکن	-11.8292
▁پرداز	-11.8293
بیماری	-11.8293
▁لن	-11.8294
امک	-11.8297
تیو	-11.8304
▁اقام	-11.8328
اعتراض	-11.8334
▁سونا	-11.8334
عربستان	-11.8351
▁گلوی	-11.8353
▁سازهای	-11.8355
ساز	-11.8358
▁خودس	-11.8359
رایم	-11.836
کشورهای	-11.8363
۶۲	-11.8366
اپ	-11.8367
▁قامت	-11.837
▁مرب	-11.8372
▁گرینو	-11.8378
موضوع	-11.8379
۲۰۲۰	-11.839
▁همسران	-11.839
نگین	-11.8398
وینچ	-11.8402
بازیکنان	-11.8403
▁دخ	-11.8404
آزمایش	-11.8407
ساعت	-11.8407
▁بدان	-11.8408
شکست	-11.8416
▁بم	-11.8421
محدودیت	-11.8425
▁کارهایش	-11.8435
انتخاب	-11.8442
قرنطینه	-11.8442
مرز	-11.8448
کشتی	-11.8449
▁اتکای	-11.845
نندگان	-11.8452
ریا	-11.8453
فرد	-11.8453
نگی	-11.8479
یغ	-11.8482
۴۵	-11.8483
بارسلونا	-11.8485
▁نگفت	-11.8486
دوران	-11.8486
▁دن	-11.8491
لایه	-11.8495
احتمال	-11.8496
خروج	-11.8499
نگاه	-11.8501
ایتالیا	-11.8507
خبرنگار	-11.8508
کانس	-11.8509
بله	-11.8513
▁مساعد	-11.8518
سقوط	-11.8533
▁سوزان	-11.8534
▁بنده	-11.8537
تعلل	-11.854
▁هرجا	-11.8541
عملکرد	-11.8543
▁ماریو	-11.8548
جنگ	-11.8549
▁خب	-11.8569
▁شجاعی	-11.8571
پوش	-11.8573
فرمانده	-11.8576
رویترز	-11.858
▁سرور	-11.858
مجید	-11.8582
بنای	-11.8583
مالک	-11.8586
یانت	-11.8587
دبیر	-11.8587
پروتکل	-11.8587
۹۵	-11.8589
▁بایست	-11.8589
قسمت	-11.8593
▁لیبر	-11.8601
رئال	-11.8603
رکود	-11.8606
آذر	-11.861
جوایز	-11.861
اتفاقات	-11.8611
▁کمالی	-11.8612
لحظ	-11.8616
پالایشگاه	-11.8623
جویی	-11.8625
▁ساسان	-11.8628
رگاه	-11.863
اسماعیل	-11.8631
مناسبت	-11.8633
کیو	-11.8637
▁عثمان	-11.8641
▁۲۱۰	-11.8644
▁شرکا	-11.8645
اضطراب	-11.8645
توماس	-11.8649
▁نوزده	-11.8651
بیانسه	-11.8655
مستند	-11.8656
مکزیکو	-11.8659
اتهامات	-11.8661
عبدالله	-11.8664
جسد	-11.8666
▁دیگ	-11.8676
وسی	-11.8678
▁دانشجو	-11.8683
تاد	-11.8685
▁بازیکنانش	-11.8685
▁رون	-11.8696
سارا	-11.8705
ربکا	-11.8706
فرجام	-11.8706
منتظر	-11.8706
▁خانوارها	-11.871
ناتان	-11.8717
یح	-11.8718
کلی	-11.8724
مدیران	-11.8737
▁۳۸۰	-11.8744
تعجب	-11.8745
▁کوتاهتر	-11.8752
گزا	-11.8753
▁نمادها	-11.8753
▁خبرگ	-11.8753
▁رپ	-11.8753
لیگا	-11.8757
اگ	-11.8758
▁تجسم	-11.8761
مبا	-11.8776
▁نگا	-11.8782
حام	-11.8784
▁حوا	-11.8785
▁خانود	-11.8785
▁بازنگشت	-11.8786
فارم	-11.8788
▁کوما	-11.8794
روزهای	-11.88
تفاهم	-11.8803
وص	-11.8811
کشی	-11.8815
رفه	-11.8818
▁۱۰۲	-11.8821
▁باک	-11.8832
گاتی	-11.8839
▁مواج	-11.8842
یوید	-11.885
کوم	-11.8852
▁موفقی	-11.8858
▁هموطن	-11.8862
لازم	-11.8866
یال	-11.887
▁الگو	-11.8882
▁فلامینگو	-11.8899
ورد	-11.8901
انتقالات	-11.8911
بق	-11.8911
▁سبزی	-11.8917
▁یولیا	-11.892
ارا	-11.8923
میلان	-11.8928
باستان	-11.8931
کنفرانس	-11.8932
▁تجار	-11.8937
▁نامم	-11.8938
راندن	-11.8957
▁پدربزرگ	-11.8961
سوی	-11.8965
۳۰۰	-11.8968
رگبار	-11.897
▁فرزندانش	-11.8973
نگاره	-11.8974
▁مکالم	-11.8978
وزرای	-11.8979
گزار	-11.8985
▁آکسفام	-11.8985
▁ابتذال	-11.8985
▁تشعشع	-11.8985
▁ناپلئون	-11.8985
▁پدافند	-11.8985
▁پرتوافشانی	-11.8985
▁اوزبیک	-11.8985
▁مغانلو	-11.8985
▁بپیوندد	-11.8985
▁مارگاریتا	-11.8985
▁منسجم	-11.8985
▁بالیوود	-11.8985
▁خجالت	-11.8985
▁وبلاگ	-11.8985
▁عنابستانی	-11.8985
▁بنکدارپور	-11.8985
▁سانتیاگو	-11.8985
▁هیدروژن	-11.8985
▁دموکراسی	-11.8985
▁تنگاتنگ	-11.8985
▁پغمان	-11.8985
▁بیرمنگ	-11.8985
▁شرمسار	-11.8985
▁جگوار	-11.8985
▁ایرلاین	-11.8985
▁بیانجامد	-11.8985
▁غیرمجاز	-11.8985
▁نیکزاد	-11.8986
▁تمهید	-11.8986
▁غمگین	-11.8986
▁سوراخ	-11.8986
▁هیوستون	-11.8986
▁فکاهی	-11.8986
▁نقیض	-11.8986
▁فونینی	-11.8986
▁نباشید	-11.8986
▁بفرستند	-11.8987
▁سولیوان	-11.8987
▁بلوغ	-11.8987
▁پاندمی	-11.8987
▁بسپارد	-11.8988
مانه	-11.8988
▁شنویم	-11.8988
▁دامغان	-11.8988
▁ناخشنود	-11.8988
▁بفرستد	-11.8989
▁فاکتور	-11.8989
▁مخوف	-11.8989
▁لطیف	-11.8989
▁تمایز	-11.8989
▁فاسد	-11.8989
▁مادربزرگ	-11.8989
▁هنجار	-11.899
▁دیزل	-11.8991
▁پرسنل	-11.8991
▁تجسس	-11.8991
▁الاجراست	-11.8992
▁آوینی	-11.8992
▁منحنی	-11.8992
▁گوریل	-11.8992
▁بیضایی	-11.8992
▁امیدوارکننده	-11.8993
▁آلبانی	-11.8994
غذیه	-11.8994
▁بکشم	-11.8995
▁۲۰۳۵	-11.8995
▁فواید	-11.8995
▁معلولیت	-11.8995
▁روما	-11.8996
▁ژرف	-11.8996
▁گلیزر	-11.8997
حضرت	-11.8998
▁شادمان	-11.8998
▁وارث	-11.8998
▁شاهرود	-11.8998
الگو	-11.8999
▁رونالد	-11.8999
▁سمع	-11.9
برگر	-11.9
▁بانکوک	-11.9001
▁توفندها	-11.9002
▁مزیت	-11.9004
حک	-11.9004
▁شیرجه	-11.9005
▁الکسا	-11.9005
▁روانپزشک	-11.9005
▁ندارید	-11.9006
▁برنگرداند	-11.9007
▁جوابگوی	-11.9007
▁ثب	-11.9008
رفت	-11.9008
▁تون	-11.9009
▁لاهه	-11.901
▁محتمل	-11.901
▁بکنید	-11.9012
▁صفاری	-11.9012
▁زراعت	-11.9012
▁آصف	-11.9013
▁هجر	-11.9014
زامبی	-11.9014
ناگلزم	-11.9017
▁آپوف	-11.9018
▁امپرا	-11.9022
▁لرزاند	-11.9023
▁استرول	-11.9023
▁برنامک	-11.9024
▁زیباست	-11.9025
▁کریگ	-11.9025
▁معنادار	-11.9025
▁معصوم	-11.9025
جویان	-11.9026
▁تعمیرات	-11.9028
▁۱۹۱۸	-11.903
▁جانباخت	-11.9031
▁هنکس	-11.9031
▁چشید	-11.9032
▁برایانت	-11.9032
▁راجپوت	-11.9034
▁لافرته	-11.9034
▁همسایگان	-11.9034
▁هافکین	-11.9034
▁سرلشکر	-11.9035
▁ازبک	-11.9036
ادیو	-11.9042
▁فشارها	-11.9042
▁قرائت	-11.9043
▁۲۴۸	-11.9043
بیت	-11.9044
واشی	-11.9046
▁رجیس	-11.905
▁خاندان	-11.9051
▁امداد	-11.9051
▁چفرین	-11.9052
▁قبایل	-11.9053
▁فدریک	-11.9053
▁مجزا	-11.9054
▁نیلی	-11.9056
دستان	-11.9057
▁صیادان	-11.9059
▁واژگان	-11.9061
▁نزن	-11.9062
▁نیابت	-11.9063
گرانی	-11.9066
تمامی	-11.9068
▁مفسر	-11.9068
▁مشروع	-11.9069
▁گوگ	-11.9073
▁افراط	-11.9073
▁فالک	-11.9074
▁پرفسور	-11.9078
▁هادرون	-11.9081
▁لنز	-11.9083
▁یون	-11.9083
▁پائیز	-11.9087
▁انو	-11.9089
▁آنتوان	-11.909
▁معلومات	-11.9091
▁گلوب	-11.9097
▁بدیع	-11.9097
زیرو	-11.9103
▁موریس	-11.9108
▁سرت	-11.911
▁چسباند	-11.9114
حور	-11.9123
▁یادش	-11.9125
▁همدان	-11.9125
▁اخطارهای	-11.9126
▁مرج	-11.9128
▁فرشید	-11.9139
▁تشوی	-11.9144
وض	-11.9144
▁چون	-11.9147
یایی	-11.9152
▁یاسر	-11.9157
▁سوفی	-11.916
▁چاو	-11.916
▁آسپر	-11.9161
▁چانگ	-11.9164
▁کیس	-11.9164
▁انگ	-11.9165
▁فوتسی	-11.9169
گوئه	-11.9173
یکون	-11.9174
▁زشت	-11.9176
نتسب	-11.9176
▁مرمر	-11.9183
▁بخواهند	-11.9183
▁افشاری	-11.9185
▁شگرد	-11.9187
▁پربار	-11.9188
▁افزودند	-11.9188
▁کلانتر	-11.9189
▁فرستند	-11.919
▁ترکمان	-11.9192
▁برن	-11.9193
پالا	-11.9196
مادر	-11.9196
▁نرسیدن	-11.9209
▁نیوت	-11.921
▁رحیمی	-11.9212
▁راهکارهای	-11.9214
پانز	-11.9217
۱۹۶۴	-11.9221
▁حریری	-11.9221
ودن	-11.9224
▁غذاهای	-11.9224
▁مایا	-11.9233
▁ماهرویان	-11.9234
▁وفن	-11.9235
▁بوئین	-11.9236
▁لیمو	-11.9239
▁شمع	-11.924
ماگال	-11.9241
نزو	-11.9254
ورلد	-11.9258
▁همتایان	-11.9261
▁کوبی	-11.9263
فروشی	-11.9273
رگامو	-11.9276
▁کاو	-11.9277
▁ابول	-11.9279
▁مطمئنا	-11.9288
▁بینم	-11.9289
▁مواجهند	-11.9293
ضب	-11.9296
▁طاهری	-11.9296
▁۱۳۲	-11.9298
▁مسخ	-11.93
▁شایان	-11.93
▁سب	-11.9302
▁مشتاقان	-11.9307
سند	-11.931
▁باش	-11.9314
یلو	-11.9317
▁تهدیدات	-11.9324
میر	-11.9327
▁بیدگ	-11.9329
▁دارداین	-11.9332
حرف	-11.9336
▁مصو	-11.9345
بالا	-11.9351
▁فراخواند	-11.9358
▁الف	-11.9361
▁پرکار	-11.9362
▁ون	-11.9363
▁یزدان	-11.9372
▁شکوفا	-11.9379
▁ایل	-11.9384
وبیل	-11.9387
ادام	-11.939
▁افع	-11.9391
نزل	-11.9399
پچو	-11.94
▁نگهداشت	-11.9406
▁مکزیکو	-11.9411
سبد	-11.9422
▁غرور	-11.9432
مهربان	-11.9433
تناب	-11.9436
▁بگ	-11.9439
▁پترولی	-11.9442
▁صفا	-11.9442
▁تاثیرات	-11.9443
راماتیک	-11.9449
▁ویولن	-11.9453
▁آرین	-11.946
تناسب	-11.9461
غما	-11.9461
زیست	-11.9463
▁کشیم	-11.9463
یوآ	-11.9466
▁بعض	-11.9467
▁رسا	-11.9468
▁آورم	-11.9468
ستا	-11.9476
▁تراشید	-11.948
رن	-11.9483
میزان	-11.9488
▁پاور	-11.9493
فری	-11.9495
تعدد	-11.9497
بور	-11.9498
▁سازان	-11.9501
یمه	-11.9504
▁آندرس	-11.9504
راز	-11.9509
▁مجا	-11.9514
لوگ	-11.9517
▁نبردها	-11.9519
▁رازی	-11.9523
▁رزو	-11.9528
▁اینج	-11.9548
اندر	-11.9549
▁رویکردهای	-11.9561
خونی	-11.9566
رگز	-11.9568
▁شناختند	-11.9578
▁برا	-11.958
رومن	-11.9586
۳۲	-11.9591
▁رکسا	-11.9596
وکین	-11.9598
گوت	-11.9607
▁؛	-11.9609
▁پژوهشهای	-11.9611
لون	-11.9612
▁پشتکار	-11.9614
▁باکر	-11.9615
نشری	-11.9626
▁لات	-11.9626
▁شجاعت	-11.9634
وئر	-11.9638
▁عالمی	-11.9638
▁دارن	-11.9645
▁کنارش	-11.9659
▁صدایی	-11.9669
▁هزاره	-11.9684
▁میرود	-11.9685
▁سودجو	-11.9687
▁خودکار	-11.9692
هکرهای	-11.9697
ارش	-11.9698
▁تقی	-11.9698
▁وایت	-11.9711
فان	-11.9724
دیده	-11.9736
▁دانستم	-11.9737
شیر	-11.9737
شابه	-11.9745
مهم	-11.9754
▁تردیدهای	-11.9758
جری	-11.9758
وکس	-11.9764
▁فاطم	-11.9765
عل	-11.9765
امور	-11.9769
۹۸	-11.9772
وتو	-11.9778
مردم	-11.9787
▁درصدد	-11.9788
▁مینیا	-11.9794
▁لینگ	-11.9795
۳۷	-11.9798
▁یادم	-11.98
اپیش	-11.9802
▁هایپر	-11.9808
▁ساندر	-11.9813
▁کنسر	-11.9817
▁سامانی	-11.9818
▁میلیاردرها	-11.9828
گوید	-11.983
سپ	-11.9831
ادل	-11.9832
▁تحرکی	-11.9834
حالی	-11.9834
هایش	-11.9836
گنجی	-11.9836
▁ناامیدی	-11.9837
▁تعبی	-11.984
رویا	-11.9854
▁چهارده	-11.9856
▁کلو	-11.9858
▁ژیل	-11.9862
سان	-11.9864
▁موری	-11.9876
▁کد	-11.9877
گویم	-11.9878
▁بیانداز	-11.9884
▁مجل	-11.9886
▁مستع	-11.9886
یونان	-11.9887
▁تان	-11.9892
▁اپ	-11.9903
▁بشود	-11.9905
غی	-11.9907
▁مگو	-11.9914
سپاس	-11.9917
چنین	-11.9932
▁استرا	-11.9933
خوانده	-11.9933
▁پستان	-11.9936
اتنگ	-11.9952
▁آفرید	-11.9953
▁استوار	-11.9956
▁اصولی	-11.9963
ژی	-11.9975
▁کیل	-11.9976
بع	-11.9977
برت	-11.9981
▁شوراها	-11.9991
▁محص	-11.9993
مگان	-11.9999
▁گارس	-12.0001
▁تدا	-12.0005
▁استف	-12.0007
▁لول	-12.0008
▁استودیوی	-12.0013
وانیم	-12.0023
خوش	-12.0028
جماع	-12.003
▁دویچ	-12.0031
اشار	-12.0032
▁چهارمی	-12.0033
آمدی	-12.004
▁کلیت	-12.004
نمود	-12.0051
▁سلیم	-12.0052
▁دوسال	-12.0055
▁حکمت	-12.0058
ابل	-12.0059
▁برخاستن	-12.0067
▁فقی	-12.0072
ایان	-12.0075
▁پیکا	-12.0083
چر	-12.0087
▁کلینت	-12.0097
▁الیو	-12.0097
▁ژس	-12.01
▁مارین	-12.0106
▁شارپ	-12.0106
▁صلیب	-12.0109
▁شرکتها	-12.0123
لاخ	-12.0126
جاست	-12.0126
▁تپند	-12.0135
پانی	-12.0142
باف	-12.0144
▁دراین	-12.0148
▁اوجی	-12.0149
▁استر	-12.0157
▁آموختن	-12.0168
محمدی	-12.0179
▁مگن	-12.0196
تامی	-12.02
▁نتوان	-12.0201
▁هندو	-12.0206
یدی	-12.0206
▁علا	-12.0209
وکسل	-12.0215
▁یانگ	-12.022
▁آش	-12.0223
▁پارکین	-12.0224
▁موثرتر	-12.0224
▁آری	-12.0231
گرم	-12.0233
▁پیشنهادهای	-12.0236
▁شاپ	-12.0243
علم	-12.0243
اکس	-12.0249
▁جون	-12.0249
▁دیاب	-12.0255
▁فعالیتش	-12.0256
▁مدا	-12.0259
▁چکهای	-12.026
۳۵	-12.0261
سلطان	-12.0261
▁زنم	-12.0265
رژی	-12.0266
روج	-12.0284
▁کیلی	-12.0286
بایی	-12.0287
فعال	-12.0292
لکس	-12.0294
یدن	-12.0297
گرافی	-12.0301
شون	-12.0312
▁بلندهای	-12.0324
▁برو	-12.0334
▁ذهنش	-12.0335
▁مالت	-12.0339
انریک	-12.0343
▁بریتانیاست	-12.035
▁زیردریا	-12.0353
▁جید	-12.0355
▁دیواره	-12.0356
▁نیر	-12.0359
▁دیرین	-12.0393
▁درخشند	-12.0393
▁اپی	-12.0399
فای	-12.0406
▁گوا	-12.0414
ندر	-12.0419
▁فلی	-12.0427
▁سنگی	-12.0427
نجره	-12.043
ایکون	-12.044
▁عطار	-12.0448
▁نتوا	-12.0455
خل	-12.0455
▁فیزیوتراپ	-12.0461
▁سوسی	-12.0467
ریگو	-12.0468
ابراهیم	-12.0471
▁ستود	-12.0478
▁شمرد	-12.0489
▁تئو	-12.0496
شتر	-12.0496
سورها	-12.0497
▁دانل	-12.0499
رمند	-12.0501
▁پلک	-12.0505
▁حم	-12.0509
انده	-12.0516
▁هوک	-12.0522
▁مشخصا	-12.0532
▁محبو	-12.0544
▁فورب	-12.0545
نیس	-12.0548
رنوش	-12.0549
▁گراز	-12.0552
وگو	-12.0553
اقت	-12.0554
یناتور	-12.0566
اجرای	-12.0569
دالر	-12.057
وقی	-12.0574
▁قضا	-12.0574
▁صحبتها	-12.0575
▁خطری	-12.0575
▁قش	-12.0581
▁کان	-12.0585
▁مخاط	-12.0588
ارتوم	-12.0594
فشار	-12.0597
نسک	-12.06
اسرائیل	-12.0606
رل	-12.0606
لز	-12.0606
مانی	-12.061
شناسی	-12.0617
▁اشتها	-12.0617
افراد	-12.0617
فهمد	-12.0621
▁نات	-12.0622
خارج	-12.063
▁استانداردها	-12.0635
یاب	-12.0637
▁کاسی	-12.0646
ذاب	-12.0654
ریدار	-12.0657
▁استکه	-12.0659
▁محی	-12.066
▁نفی	-12.066
▁ارو	-12.066
رفتن	-12.0661
▁نابینا	-12.0668
▁۱۲۵	-12.0673
▁سرگرفت	-12.0681
مختار	-12.0691
▁شیرینی	-12.0694
کلیف	-12.0698
▁بیک	-12.0708
ترک	-12.0708
بازیکن	-12.0714
▁رومانیا	-12.0719
هنگ	-12.0724
▁الزاما	-12.0732
گستر	-12.0744
انیس	-12.0747
▁بازن	-12.0758
▁نبودن	-12.0763
▁شیرها	-12.0765
ماجرا	-12.0766
مشق	-12.0771
تح	-12.0776
▁رودر	-12.0781
راژ	-12.0782
حریف	-12.0785
ادعا	-12.0787
▁سنجی	-12.0798
▁یابی	-12.0806
شبن	-12.0812
ناسا	-12.082
▁العم	-12.083
اقدام	-12.0831
خوانند	-12.0834
ژهای	-12.0838
یلیچ	-12.0846
اشتن	-12.0849
انشهر	-12.0851
خضر	-12.0852
▁کاپ	-12.0861
▁کورو	-12.0865
▁کیف	-12.0872
آثار	-12.0876
فراگ	-12.0878
▁چش	-12.0879
قل	-12.0881
رآمیز	-12.0882
حکومت	-12.0884
▁خاکس	-12.089
▁سط	-12.0916
▁سیریا	-12.092
▁مونت	-12.0921
ینا	-12.0932
▁ورز	-12.0932
۲۱	-12.0939
صنعت	-12.094
اسب	-12.0941
۱۴۰۰	-12.0941
هانسی	-12.0941
لوح	-12.0943
متوقف	-12.0944
یتس	-12.0953
سینگ	-12.0958
صلاح	-12.0961
▁فراخوان	-12.0966
بوده	-12.097
ریکو	-12.0972
نهادهای	-12.0974
حذف	-12.0984
▁بیند	-12.0984
▁سرف	-12.0987
چاق	-12.0989
دنبال	-12.0992
عکاس	-12.0997
شکایت	-12.0997
جنوب	-12.0998
اعتراضات	-12.1002
▁سرزن	-12.1006
عملیات	-12.1012
تابستان	-12.1015
شواری	-12.1023
همیشه	-12.1025
▁بستگان	-12.1025
غدی	-12.1032
▁گرداند	-12.1037
سیاسی	-12.1037
▁لیک	-12.1038
۳۴	-12.1039
سفیر	-12.1045
گور	-12.1047
▁پان	-12.1048
▁بریم	-12.1051
برزیل	-12.1053
▁ماهنام	-12.1054
▁گرجستان	-12.1062
مطالع	-12.1062
کاملا	-12.1068
سوئیس	-12.1069
مدیریت	-12.108
تیراندازی	-12.1082
نچی	-12.1082
نویسندگان	-12.1083
درنا	-12.1083
کانال	-12.1085
▁اشا	-12.1085
مشاور	-12.1088
▁حض	-12.1088
خودروهای	-12.1089
کشف	-12.1089
▁ث	-12.1093
تخریب	-12.1093
امارات	-12.1099
گویی	-12.11
سیستم	-12.1111
شقان	-12.1112
بازارهای	-12.1118
بیل	-12.1119
▁وجوه	-12.1122
سپاهان	-12.1125
خاوران	-12.1131
▁اپراتور	-12.1132
سازنده	-12.1136
سیاستگذار	-12.114
▁سلب	-12.1142
▁حریفش	-12.1144
زای	-12.1144
ثروت	-12.1146
▁پناهجو	-12.1147
فول	-12.115
پیرلو	-12.1152
سناتور	-12.1153
▁سوت	-12.1154
اسحاق	-12.1154
فاضل	-12.1157
▁۱۰۹	-12.1159
هجوم	-12.116
داریوش	-12.1166
▁تبل	-12.1167
▁پولهای	-12.1168
نمی	-12.1169
▁۲۱۶	-12.1169
▁کامر	-12.1172
ینک	-12.1177
▁بخ	-12.1177
لیدز	-12.1177
کریس	-12.1179
مرح	-12.118
پینو	-12.1182
خزن	-12.1183
▁تولیدش	-12.119
رییس	-12.1197
▁دهی	-12.12
▁اظهارنظرها	-12.1203
▁علام	-12.1211
صمد	-12.1213
▁هوشیار	-12.1219
نوسان	-12.1227
۸۲	-12.1228
بدهی	-12.1231
▁همد	-12.1231
▁چرن	-12.1233
▁وزیری	-12.1235
ارآفرین	-12.1238
▁طاه	-12.1248
خیز	-12.1249
▁چیزها	-12.1249
▁دیپلم	-12.125
▁زندگیش	-12.1251
پپ	-12.1251
احسا	-12.1259
▁کیان	-12.1265
تعارف	-12.1274
▁دستی	-12.1274
زدی	-12.1276
مکرون	-12.1281
دنیل	-12.1286
▁کپ	-12.1288
بوک	-12.1288
شمالی	-12.1289
▁گی	-12.1293
جیل	-12.1293
درحالی	-12.1297
▁ریس	-12.1304
لزم	-12.1305
خه	-12.1307
تجمع	-12.1309
▁نگذاشت	-12.1311
رحیم	-12.1313
لیو	-12.1314
ناوگان	-12.1314
▁دلسوز	-12.1315
▁۲۰۷	-12.1316
بنی	-12.1318
صرب	-12.1319
▁لاب	-12.132
سبک	-12.132
▁محدو	-12.1321
▁اسکا	-12.1326
▁فاین	-12.1327
رسانی	-12.133
هموار	-12.133
▁فروخت	-12.1332
تکه	-12.1339
▁ایرلندی	-12.1339
▁جمل	-12.1347
ایده	-12.1348
وشن	-12.1352
▁جاد	-12.1355
هیه	-12.1362
▁شوخ	-12.1362
▁ناراحتی	-12.1363
وشکن	-12.1367
ریوس	-12.1373
▁جولیا	-12.1385
نشدنی	-12.1387
سبز	-12.1392
گمش	-12.1399
نکات	-12.14
▁سیت	-12.14
▁ردیفی	-12.14
▁موتورها	-12.1401
▁میشود	-12.1404
▁چغ	-12.1406
▁دستمزدها	-12.1408
▁کارآمد	-12.1409
خالی	-12.1409
▁تفنگ	-12.1412
حمدرضا	-12.1415
قایق	-12.1428
سترازنکا	-12.1429
▁کلن	-12.1432
▁محک	-12.1432
▁۲۶۰	-12.1433
▁۲۴۰	-12.1438
▁غواص	-12.144
▁همسایگ	-12.1441
الج	-12.1445
▁صحرا	-12.1449
▁پابرجا	-12.1462
▁کمپا	-12.1462
رزرو	-12.1468
▁سندر	-12.1468
سین	-12.1469
پوشان	-12.1469
▁واژگ	-12.1472
▁منظو	-12.1477
نار	-12.1478
▁دکترای	-12.1479
▁رحیم	-12.1481
▁ولاسکز	-12.1485
▁انقباض	-12.1485
▁بورکینافاسو	-12.1485
▁ترائوره	-12.1485
▁فیزیولوژی	-12.1485
▁مرتضوی	-12.1485
▁کوکائین	-12.1485
▁دگراندیش	-12.1485
▁ناسازگار	-12.1485
▁همقطاران	-12.1485
▁تمسخر	-12.1485
▁سوبرانا	-12.1485
▁بشنوند	-12.1485
▁ناپایدار	-12.1485
▁پرینسخرا	-12.1485
▁اکونومی	-12.1485
▁میکروسکوپ	-12.1485
▁یوردانس	-12.1485
▁سانفرانسیسکو	-12.1485
▁کاریکاتور	-12.1485
▁گانگستر	-12.1485
▁فانخیو	-12.1485
▁قیراط	-12.1485
▁ضرغام	-12.1485
▁بیندازد	-12.1485
▁فلسفی	-12.1485
▁متذکر	-12.1485
▁تشریفات	-12.1485
▁بشناسد	-12.1485
▁سمنزا	-12.1485
▁همجوار	-12.1485
▁اگنس	-12.1485
▁نافذ	-12.1485
▁بپرسید	-12.1485
▁کذب	-12.1485
▁فیو	-12.1485
▁الارض	-12.1485
▁محتکر	-12.1485
▁شریعت	-12.1485
▁ژنشنگ	-12.1485
▁نوترینو	-12.1485
▁فرخزاد	-12.1485
▁مجارستان	-12.1485
▁بازوبند	-12.1485
▁نذری	-12.1485
▁الاجرا	-12.1485
▁هکتار	-12.1486
▁گدوت	-12.1486
▁هولدینگ	-12.1486
▁سوینتن	-12.1486
▁سیلیکون	-12.1486
▁نافرجام	-12.1486
معجزه	-12.1486
▁تسخیر	-12.1486
▁بمیرد	-12.1487
▁مکوندی	-12.1487
▁انهدام	-12.1487
▁عواطف	-12.1487
▁مرزبندی	-12.1488
▁برگردانند	-12.1488
▁سیستماتیک	-12.1488
▁داینا	-12.1488
▁الاه	-12.1488
▁اوباش	-12.1488
▁ستیزانه	-12.1489
▁ستمگر	-12.1489
▁الخروج	-12.1489
▁عاقبت	-12.1489
▁مبتکر	-12.1489
▁ناخدا	-12.1489
▁صربستان	-12.149
▁باثبات	-12.149
▁فرازمینی	-12.149
▁نزاع	-12.149
▁الشع	-12.1491
▁فراهانی	-12.1491
▁بپردازند	-12.1491
▁علیشاهی	-12.1491
▁موثق	-12.1491
▁هیلتون	-12.1493
▁نویدبخش	-12.1494
▁کوئینز	-12.1495
▁گوترش	-12.1496
▁بزنید	-12.1497
▁فاضلاب	-12.1497
▁۱۳۸۰	-12.1497
▁سیندمی	-12.1498
▁غیرمعمول	-12.1498
▁فلسطینی	-12.1499
▁خوشبو	-12.15
▁بزنیم	-12.15
▁المپی	-12.15
▁سهمگین	-12.15
▁وجدان	-12.1501
آنگولا	-12.1502
▁نباشند	-12.1503
▁۱۳۸۶	-12.1503
▁ناظمی	-12.1504
▁همینگوی	-12.1504
▁سروصدا	-12.1504
▁پوینت	-12.1504
▁معابد	-12.1505
▁۱۹۴۴	-12.1505
▁بدوی	-12.1505
▁ونوس	-12.1506
▁کوچ	-12.1507
▁سفیدپوست	-12.1507
▁کانتونا	-12.1508
▁گنبد	-12.1508
▁عبادی	-12.151
ارزپاشی	-12.151
▁هراتی	-12.1511
▁ارتد	-12.1511
▁جداسازی	-12.1512
▁مقبول	-12.1512
▁بردارم	-12.1512
▁۲۲۰	-12.1514
سای	-12.1514
▁خودخواهانه	-12.1514
▁ایرویز	-12.1514
▁پرالتهاب	-12.1515
▁پورنو	-12.1515
▁لرزید	-12.1516
تورم	-12.1516
▁نشناخت	-12.1517
▁مکاتبات	-12.1517
▁عابران	-12.1518
▁باروک	-12.1519
▁سکس	-12.1519
▁نیکو	-12.1519
▁بیایند	-12.1519
پیمایی	-12.1519
▁بیگان	-12.1519
▁ریتم	-12.152
مایش	-12.152
▁ادینبور	-12.152
▁موزیکال	-12.1522
ضلع	-12.1523
شود	-12.1523
▁زهیر	-12.1524
▁سفیدپوستان	-12.1525
▁اسکلت	-12.1526
▁خورند	-12.1526
▁مرندی	-12.1529
▁منکین	-12.1529
متاز	-12.1529
▁تایوان	-12.1529
▁بازوهای	-12.153
ربین	-12.153
▁اغما	-12.1531
بیورن	-12.1531
▁ذوال	-12.1533
▁شنیدم	-12.1537
▁ند	-12.1539
▁آنچنان	-12.1539
▁روباه	-12.154
▁جویانه	-12.1545
▁قعر	-12.1545
▁بخوانند	-12.1546
▁بوفالوران	-12.1547
▁طاهر	-12.1547
▁۱۷۵	-12.155
تقی	-12.1552
▁بلاتکلیف	-12.1553
▁بنرهای	-12.1553
▁ناباور	-12.1553
لار	-12.1554
کثیر	-12.1555
تفلی	-12.1559
▁سموم	-12.1559
▁آموس	-12.1563
▁اهرم	-12.1564
▁همبازی	-12.1564
▁ملموس	-12.1566
▁لئون	-12.1568
ستراح	-12.1569
بشر	-12.1569
▁آبراه	-12.1569
▁نمودار	-12.1572
▁متما	-12.1572
▁دیلن	-12.1572
▁شنیدنش	-12.1577
▁داوی	-12.1578
▁مشاهدات	-12.1578
▁نداشتیم	-12.158
بنوی	-12.1581
▁هولو	-12.1581
سیاست	-12.1583
▁هشدارها	-12.1588
▁محصور	-12.1588
▁ساچ	-12.159
مانند	-12.159
▁شهباز	-12.1594
▁پیشگیر	-12.1595
راث	-12.1595
▁بامیه	-12.1595
▁ماجراجوی	-12.1596
▁چهارصد	-12.1598
▁خرابکارانه	-12.16
▁پاشیده	-12.16
سانسور	-12.16
▁۱۶۶	-12.1603
▁پیوندند	-12.1606
▁یوهان	-12.1606
▁معترضین	-12.1607
▁هریس	-12.1607
▁قهری	-12.1607
ریه	-12.161
▁گیج	-12.1611
▁مته	-12.1612
▁فرمانی	-12.1612
▁بت	-12.1612
▁غفاری	-12.1614
▁جذابی	-12.1614
▁لاین	-12.1614
رونا	-12.1615
▁ره	-12.1618
▁میناری	-12.1619
▁آغا	-12.1624
واگذار	-12.1624
جین	-12.1625
▁شیوا	-12.1625
▁گوارش	-12.1626
▁تماشگر	-12.1626
▁امیدورا	-12.1628
▁دانید	-12.1629
▁پرش	-12.163
▁بنین	-12.1631
نگوی	-12.1637
▁نرود	-12.1637
▁ربع	-12.1638
▁بحری	-12.1638
▁یادمان	-12.1638
▁هورن	-12.1639
۱۴۶	-12.1642
▁هالووین	-12.1643
▁رادیک	-12.1643
▁آوردیم	-12.1644
دیو	-12.1644
بولت	-12.1645
▁لویی	-12.1646
▁دلنشین	-12.1654
▁اتمر	-12.1654
▁بشنوید	-12.1654
▁چرخاند	-12.1654
▁قدیم	-12.1655
لاستیک	-12.1656
وشه	-12.166
▁افشاگر	-12.1663
▁هموطنان	-12.1663
▁دکترا	-12.1664
▁نمک	-12.1666
▁رباتیک	-12.1667
▁جوری	-12.1673
▁شنوند	-12.1675
▁دیوارنگار	-12.1677
دلی	-12.1681
▁معبد	-12.1682
▁پالیس	-12.1683
الفبا	-12.1686
▁گمارد	-12.169
▁بسط	-12.1695
▁نجومی	-12.1697
▁نگذاشته	-12.1698
▁محرومند	-12.1698
▁فراوانش	-12.1701
▁قدیس	-12.1702
بنز	-12.1703
▁فاکس	-12.1707
▁دیا	-12.1709
▁نوشتارها	-12.171
▁دارالا	-12.1713
▁چادر	-12.1714
▁گماشت	-12.172
▁ورزند	-12.172
لژی	-12.1723
▁مخالفند	-12.1729
میلیا	-12.1729
خانی	-12.1731
▁دورانگو	-12.1733
▁هزارتومان	-12.1733
▁آریا	-12.1734
مز	-12.1742
▁تختی	-12.1747
▁کثی	-12.1749
▁بنفش	-12.175
▁کبود	-12.1753
▁دستفروش	-12.1755
▁زاها	-12.1761
نیمه	-12.1768
▁چریک	-12.1769
▁دوقلوها	-12.1769
تس	-12.177
▁خیرخواه	-12.1773
هوش	-12.1782
▁پولها	-12.1788
▁الک	-12.1792
دس	-12.1793
روث	-12.1794
لیور	-12.1795
▁سودده	-12.18
▁ترسید	-12.18
▁مهن	-12.1803
▁برگشتند	-12.1803
▁دالان	-12.1807
▁معذ	-12.1808
▁فیض	-12.1817
▁هنرپیشگ	-12.1817
▁عزا	-12.183
▁پیمانکاران	-12.1838
▁صمد	-12.1842
الیف	-12.1844
▁کوواکس	-12.185
▁نبردی	-12.1853
▁درصورت	-12.1853
غام	-12.1859
▁مجاور	-12.186
ستحکم	-12.1868
▁بیو	-12.1881
▁اژدها	-12.1885
ساتبی	-12.1888
▁غر	-12.189
صال	-12.1891
▁درنظر	-12.1895
▁تجسمی	-12.1897
امد	-12.1897
▁قهر	-12.1901
فشان	-12.1905
درس	-12.191
▁گرافی	-12.1919
▁آمری	-12.1921
همراه	-12.1923
▁ازد	-12.193
▁نبرده	-12.1936
▁کلت	-12.1941
ختی	-12.1947
▁برنج	-12.1948
زمانی	-12.1953
انسان	-12.1953
▁سازندگ	-12.1955
ادیوم	-12.1955
انو	-12.196
▁مجلل	-12.1965
▁جزای	-12.1971
▁هیج	-12.1975
▁برسیم	-12.1975
ورای	-12.1976
▁پهنا	-12.1978
▁۷۶۰	-12.1978
رید	-12.198
▁فتو	-12.1982
▁فراگرفت	-12.1982
جمعه	-12.1995
▁ویسل	-12.2
▁شناسیم	-12.201
ولوو	-12.2014
مثبت	-12.2015
▁پرتوی	-12.2019
▁ترسم	-12.2022
۸۰۰	-12.2025
یری	-12.2027
صله	-12.2027
▁تحقی	-12.2027
▁کارکرد	-12.203
▁بلندپروازی	-12.2033
▁مجال	-12.2034
سالگی	-12.2042
ارگ	-12.2046
ارسیا	-12.2052
اخور	-12.2056
گذشته	-12.2069
▁چشمم	-12.207
▁بویی	-12.2079
▁والن	-12.2082
شاملو	-12.2087
▁منسو	-12.2088
یلند	-12.2089
شکی	-12.2101
▁برسید	-12.2105
▁بگذار	-12.2105
▁دوهزار	-12.2105
۶۸	-12.2107
ئیت	-12.2108
▁شیاد	-12.2111
▁ماجراهای	-12.2111
▁فرگوس	-12.2113
▁افتادند	-12.2114
جیح	-12.2124
▁نوک	-12.2128
اپور	-12.2131
▁آمو	-12.2135
سالار	-12.2136
▁انرو	-12.214
▁بلیک	-12.2146
۹۶۰	-12.2146
▁لارن	-12.2148
▁لید	-12.2151
▁سمی	-12.2154
▁وتو	-12.2159
قدیم	-12.2166
متری	-12.2169
پک	-12.2172
چهارم	-12.2172
▁هوم	-12.2178
▁وس	-12.2181
▁بولد	-12.2182
▁یدک	-12.2183
هان	-12.2183
▁۱۲۸	-12.2198
▁استعماری	-12.2205
▁بیکارشد	-12.2211
▁اوب	-12.2222
▁السی	-12.2223
یکروس	-12.2226
▁لایک	-12.2234
▁شغلهای	-12.2234
آلات	-12.2238
رمد	-12.224
▁بکنند	-12.2244
جمعی	-12.2247
هرزاد	-12.2247
ریحان	-12.2249
▁راهور	-12.2263
چندان	-12.2263
ارتی	-12.2267
چندی	-12.2268
اسنو	-12.2269
▁همای	-12.2276
دانف	-12.2281
ئل	-12.2284
رگذشت	-12.2299
انگر	-12.2303
▁گفتم	-12.2303
▁سیمین	-12.2316
خو	-12.2318
دری	-12.2319
▁آرنو	-12.2321
▁لوی	-12.2327
▁مث	-12.2328
▁ارغ	-12.2331
▁ناخ	-12.2338
▁کوئین	-12.2339
▁تاس	-12.2349
ستانه	-12.2359
▁گردآ	-12.2364
▁سیلوا	-12.2364
مسترد	-12.2364
اربی	-12.2389
زیا	-12.2393
نسل	-12.2399
وط	-12.2399
▁گروهها	-12.2401
▁مورخ	-12.2411
۰۳	-12.2414
▁امیلی	-12.2416
۸۷	-12.2428
تقبل	-12.2434
رث	-12.2439
▁راین	-12.2451
گشایش	-12.2452
▁بکر	-12.2457
▁هواپیماساز	-12.2462
میان	-12.2465
▁گاف	-12.2469
سمانی	-12.2471
▁آبه	-12.2482
▁سور	-12.2488
شیده	-12.2488
▁نوزدهمی	-12.2493
خاطره	-12.2509
▁دزدید	-12.2513
چای	-12.2518
▁فوتو	-12.2519
خود	-12.2527
خدم	-12.2534
▁دری	-12.2538
توم	-12.2553
▁پولدار	-12.256
ورس	-12.2562
▁نیافتاد	-12.2581
▁پرداختند	-12.2582
▁نحس	-12.2594
▁پرمخاط	-12.2594
▁اتوم	-12.2597
▁فراپا	-12.2597
یگ	-12.2598
واضع	-12.2598
▁لائو	-12.2609
ارل	-12.2612
هاب	-12.2614
طغ	-12.2619
▁نط	-12.2621
▁زدم	-12.2622
گارد	-12.2623
▁فیزیوتراپی	-12.2624
▁بگو	-12.2634
پن	-12.2638
اشک	-12.2642
▁رک	-12.266
▁تامی	-12.2661
لائو	-12.2665
▁قمر	-12.2679
▁گود	-12.2684
سگ	-12.2695
▁بایستی	-12.2698
▁بلوم	-12.2704
▁گزی	-12.2708
▁مدرنی	-12.2712
▁بفهمی	-12.2712
کسر	-12.2714
▁فیلی	-12.2714
ریکا	-12.2721
مداری	-12.2723
هشت	-12.2724
ونت	-12.2725
▁اراد	-12.2733
▁زهی	-12.2734
▁لنگ	-12.2742
وردی	-12.2747
▁رن	-12.2751
▁فره	-12.2754
کلا	-12.2764
▁مفتو	-12.2764
▁سریعتر	-12.2773
▁کورس	-12.2773
لانی	-12.2775
سول	-12.2776
باسی	-12.2778
موش	-12.2778
▁رقیبان	-12.2782
▁سراغش	-12.2783
پایه	-12.2787
درباره	-12.2788
ورز	-12.2788
میخ	-12.2795
▁زینب	-12.2795
▁گیران	-12.2796
▁اینگ	-12.2797
بریز	-12.2808
ورال	-12.2811
گرمی	-12.2815
۵۳	-12.2822
چنان	-12.2822
▁۲۰۶	-12.2829
۸۰۰۰	-12.2832
▁ماهیان	-12.2833
لاند	-12.2834
▁زمام	-12.2835
▁گرانش	-12.2846
ژیک	-12.2851
▁رودخ	-12.2853
روژ	-12.2855
سکار	-12.2855
رعلی	-12.2856
▁مدد	-12.2867
فلورای	-12.2869
▁شورشی	-12.2887
▁اعم	-12.2897
ئیل	-12.2906
▁پوشا	-12.2908
نگل	-12.2911
▁لیلا	-12.2912
▁لوین	-12.2915
۱۰	-12.2933
▁رسیم	-12.2936
▁استرلی	-12.2936
▁پرستاره	-12.2938
▁عس	-12.2943
▁چکی	-12.2953
رستان	-12.2953
▁بنیا	-12.2957
▁بهنا	-12.296
کیا	-12.2964
سپی	-12.2966
▁فرانس	-12.297
یرو	-12.2977
ذخا	-12.2992
▁اشع	-12.2996
شهری	-12.2996
۸۱	-12.2998
▁تخار	-12.3023
▁کنش	-12.3024
▁وود	-12.3027
▁نورال	-12.3028
سوار	-12.303
وخته	-12.3031
▁مشترکان	-12.3032
▁بلن	-12.3038
تد	-12.3046
▁دیدگ	-12.3047
سوری	-12.3058
ومان	-12.306
قانون	-12.3063
▁کانا	-12.3067
▁اوس	-12.3078
▁صعودش	-12.3086
▁چشمک	-12.3088
▁رگی	-12.309
اتب	-12.3095
گوین	-12.3096
▁فونت	-12.31
بسیار	-12.31
۴۰۰	-12.3108
▁وظایفش	-12.3121
▁چید	-12.3122
▁بکار	-12.3123
▁برچید	-12.313
نوا	-12.3139
▁نظار	-12.3141
۸۸	-12.3142
▁افراز	-12.3143
کسوت	-12.3147
بزرگتری	-12.3147
پرستانه	-12.3149
▁تسا	-12.3152
طوری	-12.3161
▁فرمین	-12.3162
عود	-12.317
▁انف	-12.3187
واری	-12.3197
لخ	-12.3201
▁والد	-12.3203
پژوه	-12.3204
اوبر	-12.321
▁خودرا	-12.3222
سید	-12.3227
تال	-12.3253
ورو	-12.3256
نگر	-12.3266
▁ترمی	-12.3267
▁مرم	-12.327
▁لین	-12.3279
▁آغ	-12.3297
خواهانه	-12.3299
متن	-12.3315
▁لمب	-12.3316
▁مشق	-12.3328
▁کربی	-12.3332
▁خدایا	-12.3352
▁۱۲۷	-12.3354
▁عاج	-12.3367
ونا	-12.3373
▁چنگ	-12.338
الوح	-12.3382
▁بندهای	-12.3382
طع	-12.339
هستند	-12.3391
▁زبانه	-12.3391
▁ویلر	-12.3399
▁جوانب	-12.3409
فاهی	-12.3415
ارث	-12.3416
طم	-12.3416
▁کشاورزان	-12.342
صدا	-12.3423
۱۰۰	-12.3433
▁ببری	-12.3435
لنگ	-12.3437
یض	-12.3452
▁کیش	-12.3456
۳۳	-12.3461
نادر	-12.3463
یلان	-12.3474
لیا	-12.3475
یزی	-12.3501
ناوند	-12.3505
▁خرمش	-12.3505
▁کارم	-12.3506
تاریخ	-12.3509
▁رهنو	-12.351
وبی	-12.3511
هند	-12.3513
سرین	-12.3527
▁عوا	-12.3528
سرتی	-12.3539
▁نگ	-12.354
▁وو	-12.3544
جران	-12.3546
نبه	-12.3547
▁خوار	-12.355
▁تویی	-12.3559
دروس	-12.3561
انستان	-12.357
▁جدیدتر	-12.3585
▁اندروز	-12.3589
جمله	-12.3594
ارق	-12.3605
صدای	-12.3619
بندند	-12.3624
▁رویاها	-12.3636
▁رزمند	-12.3636
▁تراژ	-12.3639
عمل	-12.364
▁۴۸۰	-12.3643
▁سول	-12.3643
▁بنزم	-12.3645
▁دولتها	-12.3648
تگان	-12.365
▁مارسل	-12.3652
▁آلیس	-12.3661
▁متح	-12.3664
آقا	-12.3669
ایرانی	-12.3679
منت	-12.3679
عد	-12.368
یوس	-12.3697
▁سلامتش	-12.37
▁دس	-12.37
▁کلانی	-12.3709
اوت	-12.3713
▁فرزان	-12.3715
▁انبارها	-12.3718
اتل	-12.372
▁دستش	-12.3722
لیل	-12.3731
▁زین	-12.374
روحانی	-12.3744
▁دره	-12.3747
یتز	-12.3749
وضعیت	-12.3753
محل	-12.3757
الکلی	-12.3761
بست	-12.3765
▁حائ	-12.3767
تغییر	-12.3767
پیدا	-12.3774
▁فران	-12.3775
شکنی	-12.3782
▁۱۵۲	-12.3784
کاظمی	-12.3784
▁کساد	-12.3789
▁گردی	-12.3792
تینگ	-12.3794
▁پرد	-12.3799
▁خص	-12.3806
▁میمن	-12.3815
▁اروپای	-12.3815
فال	-12.3823
خصوص	-12.3828
▁خائ	-12.3829
▁لیز	-12.3834
برابر	-12.3839
زاق	-12.3839
وتا	-12.3841
ورسوی	-12.3841
گوی	-12.3842
بنیا	-12.3845
▁بازیها	-12.3847
ولو	-12.386
ربه	-12.3864
▁غیرب	-12.3867
▁بهم	-12.3867
ناتور	-12.3868
انچین	-12.3877
▁ادین	-12.389
▁آبیار	-12.3895
▁هیو	-12.3907
ریاست	-12.3913
کمک	-12.3915
▁هوادارن	-12.392
امبو	-12.392
▁همسری	-12.392
▁ریل	-12.3926
حمایت	-12.393
داگ	-12.395
چگون	-12.3952
دوم	-12.3952
دانشگاه	-12.396
▁بنشین	-12.397
تفاوت	-12.3975
▁بخواهی	-12.3986
نیتو	-12.3988
▁۱۱۴	-12.4004
داخل	-12.4011
بودجه	-12.4016
نهایی	-12.4025
تحریر	-12.4042
تایید	-12.405
سرمربی	-12.4051
▁منه	-12.4058
یشان	-12.4063
▁شکس	-12.4074
▁کانتر	-12.4074
▁آسو	-12.4076
صراف	-12.4077
تونی	-12.4083
▁مجت	-12.4083
خرید	-12.4084
▁کولی	-12.4086
بیانیه	-12.4086
نند	-12.4086
یلد	-12.4088
نگه	-12.4091
رزاده	-12.41
شاهد	-12.41
▁آو	-12.4103
مسئول	-12.4109
انتقال	-12.4109
سپاه	-12.4111
قرارداد	-12.4112
▁الط	-12.4128
قامت	-12.4128
▁کوئ	-12.413
سالم	-12.4133
ورزشگاه	-12.4134
▁درازا	-12.4137
▁هنک	-12.4144
▁پاها	-12.4147
ظریف	-12.4153
رام	-12.4155
فینال	-12.4169
▁کامی	-12.4169
کمیس	-12.4171
▁آسود	-12.4173
جز	-12.4177
اتهام	-12.4177
انیا	-12.4177
فکر	-12.4181
یدند	-12.4196
نگو	-12.4196
▁نیکول	-12.4198
حرکت	-12.4209
چهارشنبه	-12.4226
تابلو	-12.4231
ماد	-12.4231
کابو	-12.4232
پارسال	-12.4233
صحبت	-12.4234
▁پنداشت	-12.4239
کوب	-12.424
اسکا	-12.424
جلسه	-12.4256
قطع	-12.4256
دستور	-12.4256
فات	-12.4257
واحد	-12.426
▁رهن	-12.4262
ندا	-12.4277
آتش	-12.4277
توییتر	-12.4278
حشم	-12.4285
درخواست	-12.4286
بحرین	-12.4288
چاپ	-12.4291
فرصت	-12.4292
ناتالی	-12.4293
▁ریلی	-12.4294
تغییرات	-12.4297
رابطه	-12.4298
برخورد	-12.4299
اظهارات	-12.4303
کودک	-12.4303
حکام	-12.4304
▁فعل	-12.4316
ئوس	-12.4317
قت	-12.4324
قدم	-12.4326
▁هجده	-12.4329
واشنگتن	-12.4331
ولتی	-12.4331
چپ	-12.4337
صعود	-12.4341
رح	-12.4341
▁سخنگو	-12.4346
اتاق	-12.435
▁سینا	-12.4351
▁لوب	-12.4353
شهرهای	-12.4354
تزریق	-12.4355
فیفا	-12.4356
توییت	-12.4357
▁ستیز	-12.4358
▁۳۵۰۰	-12.436
▁بدق	-12.436
مدیرعامل	-12.4363
هدایت	-12.4364
سرطان	-12.4365
مصرف	-12.4365
اصله	-12.4371
لومین	-12.4374
موارد	-12.4374
ساخته	-12.4375
وئیس	-12.4377
یامده	-12.4385
لوی	-12.4386
▁۱۸۸	-12.4386
فیک	-12.4391
▁ائ	-12.4394
ایسنا	-12.4396
اصلاح	-12.4397
سرپرست	-12.4397
آرسنال	-12.4399
اختلال	-12.4399
▁رشدی	-12.4403
اطمینان	-12.4403
فیسبوک	-12.4404
گواردیولا	-12.4404
مدیرکل	-12.4406
طالبان	-12.4408
ادبی	-12.441
ارجه	-12.4411
دیر	-12.4411
عصر	-12.4413
نژادپرست	-12.4414
نادال	-12.4415
پادشاه	-12.4415
▁نیت	-12.4419
▁وسائ	-12.442
بلژیک	-12.442
خودکشی	-12.4422
▁نشا	-12.4423
سرنوشت	-12.4425
بازدید	-12.4425
تجهیزات	-12.4428
▁الجز	-12.4429
اسپوت	-12.4429
تبعیض	-12.4429
▁۲۵۰۰	-12.4431
اندی	-12.4433
▁الکترودها	-12.4437
هیوندای	-12.4439
حراج	-12.4441
اولسان	-12.4443
منچستریونایتد	-12.4443
گار	-12.4447
عرص	-12.4447
واقعیت	-12.4447
▁اورگ	-12.445
وبسایت	-12.4451
رامش	-12.4454
عطرساز	-12.4455
ویلیام	-12.4457
کاوشگر	-12.4458
جلسات	-12.446
دیوان	-12.4462
سوال	-12.4466
انتقادات	-12.4466
مالاریا	-12.4469
▁۱۲۶	-12.4469
بنفش	-12.447
مرتضی	-12.4474
مهندسان	-12.4475
رونالدینیو	-12.4475
تیرماه	-12.4475
بنکسی	-12.4482
آلن	-12.4486
اطل	-12.4487
کجاست	-12.4489
کوبا	-12.4489
تهم	-12.449
پشت	-12.4494
اطبا	-12.4494
▁ولای	-12.4499
رمانی	-12.4499
جعفر	-12.45
اگون	-12.4501
گمانه	-12.4502
▁منح	-12.4503
امشب	-12.4504
جدال	-12.4505
▁تیرانداز	-12.4507
معمول	-12.4507
ساعد	-12.4507
مسلم	-12.4509
▁جهنم	-12.4513
▁واعظ	-12.4517
▁کتابدار	-12.4519
▁وکلا	-12.4524
رفتار	-12.4525
▁محتوا	-12.4525
▁اخت	-12.4526
پیمان	-12.4533
▁پابل	-12.4535
دادسرا	-12.4536
ستیو	-12.4538
▁نجوم	-12.4539
قچی	-12.4541
▁مطهر	-12.4542
پناه	-12.4543
▁دریاب	-12.4547
جنسی	-12.455
قبلا	-12.4554
طالب	-12.4558
دات	-12.4564
▁ادعاها	-12.4564
▁افزو	-12.4566
علنی	-12.4575
▁هیپ	-12.4576
مثل	-12.4586
متیو	-12.4586
جاز	-12.4598
غیبت	-12.4604
امضا	-12.4604
▁شغلها	-12.4605
▁دلخو	-12.4611
چون	-12.4615
اشته	-12.4616
▁۲۹۰	-12.4619
▁دایم	-12.4624
دوره	-12.4629
▁وینس	-12.463
فورا	-12.4644
حکمت	-12.4645
گذراند	-12.4652
صیر	-12.4655
▁محاکم	-12.4655
▁مبد	-12.4656
▁پورت	-12.4659
▁حرا	-12.4663
▁دهشت	-12.4663
▁دیوارها	-12.4666
▁دیف	-12.4672
شرط	-12.4674
زلزل	-12.4676
صل	-12.4681
مریکایی	-12.4681
▁معوق	-12.4681
▁منا	-12.4683
الا	-12.4683
▁خونی	-12.4685
▁آذ	-12.4687
خاطرات	-12.469
دومین	-12.4691
دخیل	-12.4692
▁مزارش	-12.4695
▁بخواب	-12.4699
▁ماورا	-12.47
سپورت	-12.4701
▁بارتو	-12.4702
شهرت	-12.4705
▁اصلان	-12.4707
▁اولیو	-12.4707
سنا	-12.4708
هنر	-12.4709
▁مختص	-12.4711
مسعود	-12.4719
▁پاکس	-12.4726
▁صمیم	-12.4729
مایند	-12.473
۷۸	-12.4736
جس	-12.4737
▁تابع	-12.4739
رشنا	-12.474
▁آتن	-12.4754
▁الاح	-12.4757
اسکار	-12.4763
مس	-12.4767
سوخت	-12.4768
▁الکترود	-12.4769
▁پیشا	-12.477
▁۳۳۰	-12.4775
ریزش	-12.478
طابق	-12.4783
▁متروک	-12.4784
روید	-12.4784
دیتر	-12.4785
▁کاتال	-12.4794
▁کانتون	-12.4798
▁قرائ	-12.4801
۳۸	-12.4802
▁مطبوع	-12.4803
▁نکنم	-12.4804
▁اجسا	-12.4806
▁دومی	-12.4807
نتینو	-12.4808
وث	-12.4808
ستراز	-12.4809
▁بازدیدها	-12.481
پارتمان	-12.481
اراگوئه	-12.4811
▁ظالم	-12.4811
▁فراور	-12.4812
تول	-12.4817
▁سریلانکا	-12.4818
▁لابراتوار	-12.4818
▁ابرکامپیوترها	-12.4818
▁ابوظبی	-12.4818
▁الکترومغناطیس	-12.4818
▁اکسیدکربن	-12.4818
▁ایزوتوپ	-12.4818
▁تمساح	-12.4818
▁سولوویوف	-12.4818
▁طنزپرداز	-12.4818
▁پنتاگون	-12.4818
▁ژئوپلتیک	-12.4818
▁یوکوکورا	-12.4818
▁غوغای	-12.4818
▁دیپلومات	-12.4818
▁زحمات	-12.4818
▁زاناردی	-12.4818
▁شقاقی	-12.4818
▁بیندازید	-12.4818
▁پوآرو	-12.4818
▁حوتاسفند	-12.4818
▁اسپانسر	-12.4818
▁دگرباش	-12.4818
▁استروئید	-12.4818
▁متعاقب	-12.4818
▁معشوق	-12.4818
▁هلیکوپتر	-12.4818
▁وبیتکو	-12.4818
▁مدودف	-12.4818
▁واکاندا	-12.4818
▁هورمون	-12.4818
▁خویشاوند	-12.4818
▁اوکلاه	-12.4818
▁مطیعی	-12.4818
▁نکونام	-12.4818
▁ابطحی	-12.4818
لئوپولد	-12.4818
▁جانبازان	-12.4818
▁هورایزن	-12.4818
▁واینالد	-12.4818
▁کاذب	-12.4818
▁جادوگر	-12.4819
▁مانیتور	-12.4819
▁مفاهیم	-12.4819
▁نگرائو	-12.4819
▁ویسکانس	-12.4819
فره	-12.4819
▁کمرشکن	-12.4819
▁استنشاق	-12.4819
▁شکوهمند	-12.4819
▁اسنوبرد	-12.482
لجستیک	-12.482
▁مهدیخانی	-12.482
▁سربگیرند	-12.482
▁عریض	-12.482
الشهدا	-12.482
▁گمپرت	-12.482
▁اساتید	-12.482
▁معضل	-12.482
▁نیفتند	-12.482
▁پاکیزگی	-12.4821
▁خرگوش	-12.4821
▁وصیت	-12.4821
▁اوتیسم	-12.4821
▁پلاکاردهایی	-12.4821
▁ناسیونالیس	-12.4821
۹۰	-12.4822
▁ووندر	-12.4822
▁بمانید	-12.4822
▁فورهند	-12.4822
▁مزاح	-12.4822
▁گریبانگیر	-12.4823
▁غیرعمد	-12.4823
▁مصادیق	-12.4824
▁مقتض	-12.4824
▁ندوشن	-12.4824
▁فرازمند	-12.4825
▁عقوبت	-12.4825
▁پردیس	-12.4825
▁سرمنشا	-12.4826
▁کلمبو	-12.4826
▁کالینز	-12.4826
▁ببخشد	-12.4827
▁ارنست	-12.4827
▁بکاهد	-12.4828
▁اوصاف	-12.4828
▁فیروزکو	-12.4828
▁بروکلی	-12.4828
▁فروزان	-12.4829
رافی	-12.4829
▁کلارک	-12.4829
▁درنوردید	-12.4829
▁تلاقی	-12.4829
تیاگو	-12.4829
▁ضدویروس	-12.4829
▁گاندو	-12.4829
▁سمنان	-12.4829
▁آسایش	-12.483
مویرگی	-12.4831
▁جانورشناس	-12.4831
▁پنهانکاری	-12.4832
▁معصومانه	-12.4832
▁مشکاتیان	-12.4832
▁بیاییم	-12.4833
▁آنالیز	-12.4833
▁بگریزد	-12.4833
▁هتلداران	-12.4833
▁دستگیرزاده	-12.4834
▁کوئیک	-12.4834
▁قاپید	-12.4834
▁سالوادور	-12.4835
▁بیایید	-12.4836
▁۱۳۲۳	-12.4836
▁۱۹۷۷	-12.4836
عقوب	-12.4837
مص	-12.4837
▁ومعرف	-12.4837
▁آبتین	-12.4837
▁مرورگر	-12.4837
▁سنجاب	-12.4838
▁آتلانتا	-12.4839
رتاک	-12.4839
▁نوازد	-12.484
▁بوسد	-12.484
▁بغل	-12.4841
▁متهیا	-12.4841
▁استبر	-12.4842
حی	-12.4842
▁۱۹۱۲	-12.4842
▁کوونی	-12.4842
بوم	-12.4843
دهی	-12.4843
▁کاسکی	-12.4843
▁۷۲۲	-12.4843
▁احمق	-12.4844
▁توکلی	-12.4844
▁دماغ	-12.4844
▁۱۹۳۹	-12.4844
پرت	-12.4845
▁روایات	-12.4845
▁عمارت	-12.4845
▁گریختند	-12.4845
▁وولف	-12.4845
▁بنگال	-12.4845
▁عوام	-12.4846
▁بگویید	-12.4846
▁بندپی	-12.4847
▁دفعات	-12.4847
▁فرمایش	-12.4849
▁شئون	-12.485
▁روسکو	-12.485
▁ضامن	-12.4853
▁ریاکاری	-12.4855
▁استمفورد	-12.4855
▁استیل	-12.4857
▁کوانت	-12.4858
دیوم	-12.4859
▁ولیحی	-12.4859
▁دمکرات	-12.4859
لگرام	-12.486
▁خیاط	-12.4863
تأسف	-12.4864
▁حماسی	-12.4865
▁اولترا	-12.4867
▁کولون	-12.4868
▁باغبان	-12.4874
▁داکا	-12.4875
ئرنیک	-12.4876
▁پراوی	-12.4877
یانی	-12.4878
▁کالینگ	-12.4879
تقابل	-12.488
▁اپوز	-12.4881
▁برادرز	-12.4881
▁عنف	-12.4882
▁۲۶۶	-12.4884
▁ملایم	-12.4885
▁سرمست	-12.4886
▁بنویسد	-12.4886
▁بیولوژی	-12.4887
▁رهنوش	-12.4887
نظار	-12.4888
▁رافا	-12.489
▁پردازیم	-12.4892
▁۲۳۹	-12.4892
▁بساط	-12.4893
▁امدادگر	-12.4895
▁گیگاب	-12.4895
▁دلا	-12.4899
▁باارزش	-12.49
▁نوگرا	-12.49
▁آپارت	-12.49
▁بازپرس	-12.49
▁بارکلی	-12.4902
▁بازدارند	-12.4907
▁نامطلوب	-12.4908
اردی	-12.4908
▁مگاصیص	-12.4908
▁لوکالکان	-12.4909
▁گاسکوئین	-12.4909
▁جنایات	-12.4909
▁ولگردها	-12.4909
نقا	-12.4912
▁همدلی	-12.4912
▁توتال	-12.4913
▁بیگم	-12.4914
▁منشور	-12.4917
▁نگشته	-12.4917
▁نومید	-12.4918
▁مالباخت	-12.4919
تراتو	-12.492
▁هیب	-12.492
▁۷۱	-12.492
رخوری	-12.4922
▁صداقت	-12.4923
▁آلترن	-12.4925
▁مخلوط	-12.4927
▁ناراحتند	-12.4927
▁وج	-12.4927
عاب	-12.4928
▁گزاف	-12.4928
▁ترمز	-12.493
▁الاصل	-12.4932
▁نهادها	-12.4934
وگند	-12.4937
رایش	-12.4938
▁۱۵۵	-12.4939
سرگ	-12.494
▁الاسلام	-12.4941
آخر	-12.4947
▁آلپ	-12.4949
ولاد	-12.4949
▁نهی	-12.495
▁قراردادها	-12.495
▁کورین	-12.4952
▁قرادادش	-12.4952
▁گرانبهای	-12.4952
▁استمقام	-12.4953
▁قلمرو	-12.4954
▁پوسترهای	-12.4954
▁رینت	-12.4955
▁تسایت	-12.4955
▁عمویی	-12.4957
نوم	-12.4958
▁۱۲۲	-12.4958
ینیو	-12.4968
▁کاوش	-12.4969
▁مشهود	-12.4971
▁ریختند	-12.4974
▁متش	-12.4977
کات	-12.4981
▁هملت	-12.4983
ریتز	-12.4984
▁تظاهر	-12.4992
بخت	-12.4993
▁پرتلا	-12.4993
رجب	-12.4993
▁رادارها	-12.5
▁نرسیدند	-12.5001
▁مستعد	-12.501
▁نزدند	-12.5012
▁معلمان	-12.5013
▁سرز	-12.5016
▁شاکی	-12.5018
▁آق	-12.5022
▁درگذشتمحمد	-12.5029
▁مشوقهای	-12.5029
▁بپیچ	-12.5031
▁لودو	-12.5031
خال	-12.5033
▁کوری	-12.5035
▁گزارشش	-12.5041
▁انعکاس	-12.5042
▁حادتر	-12.5043
▁باربارا	-12.5043
▁اردبی	-12.5044
▁گذراندم	-12.5044
کسان	-12.5045
▁اوساکا	-12.5046
زیچ	-12.5046
۴۸	-12.5047
رانگ	-12.5056
اسرای	-12.5059
▁افکند	-12.5061
▁احصا	-12.5063
▁آزاردید	-12.5065
▁پرداختن	-12.5065
▁گرکان	-12.5065
▁گردآمد	-12.5066
▁پرماجرا	-12.5067
نهاده	-12.507
▁خطاط	-12.5073
تص	-12.508
▁برخوردارند	-12.508
▁زدیم	-12.5082
گردها	-12.5087
نیز	-12.5087
▁خوانیم	-12.5094
▁منصف	-12.5094
وقف	-12.5107
▁نزند	-12.5121
▁آجر	-12.5121
▁کتا	-12.5127
▁واعظی	-12.5128
▁بروی	-12.5142
زیاد	-12.5142
▁نوشتاری	-12.5144
▁هلن	-12.5145
▁پهپادهای	-12.5154
▁فتوا	-12.5156
پار	-12.5157
▁مسلم	-12.5158
▁آغازکرده	-12.516
▁۱۹۲	-12.516
▁هانس	-12.5164
▁جوج	-12.5165
▁کاکس	-12.5167
سنده	-12.5169
▁روستاها	-12.5172
▁بولدو	-12.5173
▁درب	-12.5188
اگرا	-12.519
▁جنون	-12.519
▁برایان	-12.5192
زارها	-12.5194
▁مبتلای	-12.5194
نورلند	-12.5195
▁برجست	-12.5195
▁غیرقا	-12.5196
امدا	-12.5198
پراتور	-12.5204
▁دمید	-12.5205
پدر	-12.5208
بلنک	-12.5209
▁نگارم	-12.5211
▁محبت	-12.5213
▁چهلم	-12.5219
▁کوو	-12.5222
▁مارکان	-12.5224
▁ایستادن	-12.5226
▁کینگز	-12.5227
▁پسندید	-12.5233
▁روایتگر	-12.5237
انجیر	-12.5238
▁غنای	-12.5238
▁مومن	-12.524
▁ابزارک	-12.5241
تورباز	-12.5249
▁کوهنوردان	-12.5251
ریف	-12.5252
▁قبرهای	-12.5255
▁کورن	-12.5255
▁هال	-12.526
▁فاصل	-12.5261
▁الکترودهای	-12.5265
ارنوک	-12.5265
▁فرمانیه	-12.5269
پزی	-12.5271
غا	-12.5282
▁فرام	-12.5284
زبور	-12.5299
کشور	-12.5311
اتیک	-12.5315
▁آهنگی	-12.5317
▁فلا	-12.5319
▁تولی	-12.532
▁سرکو	-12.5327
▁ویز	-12.5335
▁موازن	-12.5342
▁ارمنی	-12.5345
▁تریل	-12.5352
▁جدیدش	-12.5353
یوئیت	-12.5353
طیب	-12.5354
تروئ	-12.5354
فراز	-12.5354
فوت	-12.5355
▁پناهندگان	-12.5361
▁ایندی	-12.5362
▁برازند	-12.5369
▁دائما	-12.5369
ضراب	-12.5375
کولبر	-12.5377
ثمی	-12.5378
تژیک	-12.538
▁صاحبش	-12.5382
الیستی	-12.5385
حاب	-12.5386
▁میگویند	-12.5387
▁واکسنی	-12.5388
▁حوت	-12.5396
قضی	-12.5396
لینک	-12.5399
▁بردیم	-12.5411
کلاسی	-12.5411
ستن	-12.5413
▁ترها	-12.5413
دپای	-12.542
رسون	-12.5421
▁نشاند	-12.5422
▁مهیا	-12.5425
استار	-12.5431
▁طلاق	-12.5432
▁افزای	-12.5433
▁فرما	-12.5436
▁نشرات	-12.5439
▁مظ	-12.5444
▁خاطراتی	-12.5449
▁آدمی	-12.5451
▁ایت	-12.5452
راست	-12.5453
▁آمر	-12.5455
▁قضای	-12.546
▁انریک	-12.5465
▁بک	-12.5466
▁نوآ	-12.5468
▁مولد	-12.547
▁شمش	-12.547
کشید	-12.5474
لام	-12.5475
پهن	-12.5479
▁فاخر	-12.548
▁شوی	-12.5485
شاد	-12.5487
یادی	-12.5491
▁رفتیم	-12.5494
▁درایو	-12.5497
▁یادگاری	-12.5497
سک	-12.5498
▁سالگ	-12.5499
▁برگر	-12.5503
▁کولبری	-12.5504
▁نها	-12.5507
قطعی	-12.5509
شمن	-12.5511
ریدلی	-12.5511
بیا	-12.5512
▁لاپ	-12.5514
▁پاپو	-12.5517
▁جولیان	-12.5534
▁نکردم	-12.5535
سایر	-12.5538
کای	-12.5541
▁لوت	-12.5549
▁جرئ	-12.5554
▁ایفل	-12.5559
▁الکسی	-12.5566
▁منش	-12.557
چو	-12.5601
هده	-12.5609
لول	-12.5617
▁خوانید	-12.5624
▁مضا	-12.5627
تاژ	-12.5628
اینس	-12.5631
یروس	-12.5631
▁آمل	-12.5634
▁بارس	-12.5635
ژیل	-12.564
▁دیسکی	-12.5645
▁چول	-12.565
▁تازیان	-12.565
اندا	-12.5652
▁بغ	-12.5657
کادی	-12.5663
شایست	-12.5663
▁انگلی	-12.5665
▁اجراست	-12.5665
▁بخوان	-12.5669
▁بریز	-12.567
▁نائ	-12.5674
▁مامن	-12.568
سکو	-12.5682
لخت	-12.5683
یکصد	-12.5689
زهای	-12.5691
ونز	-12.5697
▁دوب	-12.5702
▁آپار	-12.5706
عزیز	-12.5713
▁بازخوا	-12.572
پال	-12.5733
▁مسیریاب	-12.5733
ونکو	-12.5754
▁بوها	-12.5756
▁شدیک	-12.5766
یاد	-12.5767
رسد	-12.5767
پولیتیک	-12.5769
▁نوارها	-12.5772
فرود	-12.578
▁کوک	-12.5781
▁شناسانه	-12.5782
وتنبرگ	-12.5787
▁بلای	-12.5791
▁عص	-12.5792
▁نطق	-12.5793
▁هرچیز	-12.5794
▁شودبا	-12.5797
جهش	-12.5798
▁جویا	-12.5804
▁برایت	-12.581
▁ویچ	-12.5815
▁کیفی	-12.5816
مونت	-12.5822
▁اینترف	-12.5825
دمان	-12.5829
دافع	-12.5831
ترونیک	-12.5846
▁اکر	-12.5847
نسوخ	-12.5848
▁گله	-12.5852
▁خرو	-12.5857
شنود	-12.5868
▁لیر	-12.5869
▁گلشی	-12.5878
▁سالار	-12.588
▁یونه	-12.5887
قطر	-12.5887
باری	-12.5895
▁بری	-12.5897
عرض	-12.5898
▁بدبین	-12.5898
▁بلندگو	-12.5903
▁پریان	-12.5906
فائ	-12.5907
▁الم	-12.5924
قیق	-12.5927
▁هارد	-12.593
لب	-12.5936
▁آت	-12.5955
▁ایرانروزها	-12.5957
▁نشدم	-12.5959
نوری	-12.5969
تاس	-12.5972
▁قلو	-12.598
▁ننگ	-12.599
▁پذیرد	-12.5991
شانس	-12.5994
هفتم	-12.5995
قطب	-12.5995
▁شکو	-12.5999
نما	-12.6001
▁دال	-12.6004
▁کلاسیکو	-12.6007
▁موزی	-12.6008
یعی	-12.6011
▁بوکا	-12.6017
▁تنه	-12.6017
▁زیا	-12.6019
دول	-12.6034
▁انگیزش	-12.6049
کاسی	-12.605
▁تلا	-12.6052
▁بازد	-12.6055
▁ماندم	-12.606
▁پرشک	-12.6067
وفق	-12.6071
▁فهمیدن	-12.6079
▁تول	-12.608
▁فروشد	-12.6082
▁دستورات	-12.6085
شناس	-12.6093
▁کشو	-12.6096
روها	-12.6096
▁نفیس	-12.6098
زمین	-12.6105
ینگز	-12.611
▁دلجو	-12.6112
▁مانو	-12.6117
▁لوور	-12.6118
ربط	-12.612
▁گذا	-12.6127
▁گیریم	-12.6127
▁جووان	-12.6133
اح	-12.6136
▁لیم	-12.6137
▁رامین	-12.6143
سترش	-12.6144
متعارف	-12.6148
آمدن	-12.6152
▁سالفورد	-12.6165
▁حاکمان	-12.6167
مق	-12.6171
ردین	-12.6173
سد	-12.6174
باخ	-12.6175
▁اقیانوسی	-12.6176
▁تایلندی	-12.6181
▁روست	-12.6183
▁بطر	-12.6189
▁بنام	-12.619
▁معر	-12.6192
▁گرون	-12.62
▁آنجلی	-12.6213
هرمز	-12.6215
▁سالخورد	-12.6217
▁عذ	-12.6218
وازا	-12.6221
فرام	-12.6223
▁تعری	-12.6227
▁جنگیدن	-12.6238
▁پریا	-12.6243
▁تصو	-12.6249
▁فضاپیماها	-12.6249
▁صیا	-12.6252
زره	-12.6256
▁محم	-12.6256
▁هیپستره	-12.6259
دوگا	-12.6261
▁نکو	-12.6266
▁وک	-12.6269
▁ایروان	-12.627
عابد	-12.6273
▁مونش	-12.6276
▁مساعدت	-12.6282
خن	-12.6287
▁وایل	-12.6295
▁عبد	-12.6296
▁شغلش	-12.6296
▁دوک	-12.6297
▁اتفاقا	-12.6304
▁نایم	-12.6307
آمده	-12.6309
▁بز	-12.6309
دبی	-12.6311
▁فوب	-12.6318
▁درگذشتم	-12.6324
▁ویرجین	-12.6328
ورگ	-12.6335
نکو	-12.6335
ورش	-12.6346
▁انگیزد	-12.6347
۸۶	-12.6362
▁تبعیدی	-12.6366
تش	-12.6369
▁کامپیوترهای	-12.637
ینکی	-12.6374
▁سفیدش	-12.6386
▁بای	-12.6388
علیر	-12.6389
قاعد	-12.6413
▁شبان	-12.6417
▁راکل	-12.6424
دورا	-12.644
ذه	-12.6446
میانه	-12.6457
▁قه	-12.6457
وسط	-12.6457
۶۰۰	-12.6458
چک	-12.6463
▁پیس	-12.6465
لمن	-12.6467
راهه	-12.6468
فیو	-12.6469
▁پلت	-12.6476
▁یکصدم	-12.6477
برا	-12.6482
وود	-12.649
حسا	-12.649
▁تبعی	-12.6495
▁برت	-12.6508
ویق	-12.6509
▁شدگ	-12.651
مالیا	-12.6512
درومن	-12.6514
افی	-12.6521
استین	-12.6524
▁گوتر	-12.6525
خصوصا	-12.653
آمد	-12.6531
▁کرددر	-12.6541
ژو	-12.6571
▁تسل	-12.658
کرون	-12.658
▁روئی	-12.6583
▁معط	-12.659
سمن	-12.6591
▁چندسال	-12.6591
▁ریچ	-12.6596
▁نارا	-12.6611
▁میکروبی	-12.6614
▁وصدا	-12.6633
▁گیرم	-12.6634
▁سانت	-12.6634
▁مم	-12.6635
ناپس	-12.6645
سادگی	-12.6647
▁۱۱۹	-12.6648
جدید	-12.6653
ارز	-12.6653
ورنتین	-12.6654
▁زب	-12.6661
زستان	-12.6662
▁جفا	-12.6675
▁منجی	-12.6678
▁ممد	-12.669
ثر	-12.6691
▁خریدند	-12.67
▁دق	-12.6702
قبره	-12.6708
تعادل	-12.6708
روسازی	-12.6711
▁منو	-12.6722
الیزا	-12.6738
جروم	-12.6741
▁سرآمد	-12.6745
▁بیوا	-12.675
▁رام	-12.6752
▁زید	-12.6754
▁باختن	-12.6758
▁اندیشید	-12.6765
▁اض	-12.6769
قا	-12.6805
▁شهیر	-12.6809
▁پاشید	-12.6816
لج	-12.6828
فور	-12.6833
یانگ	-12.6838
▁کارن	-12.6838
لوژی	-12.6843
▁غز	-12.6844
▁میهن	-12.6854
زندگان	-12.6857
رمت	-12.686
یکل	-12.6863
▁ناگ	-12.6864
دوش	-12.6871
وشیرو	-12.6879
روش	-12.6894
▁ابد	-12.6904
▁غای	-12.6914
▁ویلی	-12.6914
پسون	-12.6914
ستردا	-12.6923
▁روبل	-12.6927
▁فد	-12.6939
▁افتند	-12.6941
▁شدمحمد	-12.6943
▁کسا	-12.6947
گیرند	-12.6955
▁نمودن	-12.6959
کستر	-12.6985
نواختر	-12.6988
▁بلندتر	-12.6992
۶۲۰	-12.7002
؟'	-12.7002
ورهم	-12.7009
▁پولاد	-12.701
دها	-12.7017
▁غیرم	-12.702
▁رویت	-12.703
والد	-12.7077
▁جبار	-12.7086
آم	-12.7087
▁دلم	-12.7095
۶۹	-12.7099
▁صلیبی	-12.7114
اچ	-12.7116
ایمن	-12.7116
▁شرو	-12.7129
اولیو	-12.7137
▁کارکنانش	-12.714
سافت	-12.7141
▁دوجا	-12.7141
▁نیمرخ	-12.7147
▁ضمی	-12.715
گراد	-12.7156
حقوقدانان	-12.7158
▁غیربورسی	-12.7167
▁دایان	-12.7168
جدی	-12.7172
▁نظران	-12.7187
یزلی	-12.7188
▁مصل	-12.719
▁غیرمت	-12.7191
پیشه	-12.7196
نوپ	-12.7197
▁نار	-12.7204
صلی	-12.7204
رند	-12.7214
افق	-12.7216
▁فنر	-12.7216
ردام	-12.723
▁سازمانها	-12.7232
▁حری	-12.7233
▁پش	-12.7238
کلت	-12.7244
▁ستد	-12.7246
▁بازم	-12.7251
▁بلاف	-12.7256
▁ایرانایران	-12.7261
فمن	-12.7284
▁نرفتن	-12.7287
▁مستن	-12.7299
▁گلش	-12.7307
▁خانو	-12.7341
▁آخ	-12.7347
نتس	-12.7348
▁متوس	-12.7352
▁جوانتر	-12.7364
▁ندا	-12.7368
▁سکوی	-12.7374
یران	-12.7383
▁کانتی	-12.7407
▁زینبی	-12.7411
▁کنسولی	-12.7417
▁فلین	-12.7418
▁جود	-12.7423
▁فرشت	-12.7427
▁وینگ	-12.7445
▁آست	-12.7479
▁رید	-12.7481
▁صل	-12.7487
▁سیب	-12.7488
▁آنه	-12.749
دلار	-12.7497
▁آزمود	-12.7503
▁خندد	-12.7504
صفر	-12.7512
استان	-12.7524
▁وای	-12.7528
▁داس	-12.7537
یتون	-12.7539
▁داران	-12.754
▁فون	-12.754
ئر	-12.7542
وژان	-12.7544
اعات	-12.7544
پیشین	-12.7567
▁مبه	-12.7569
ریز	-12.7579
▁کاس	-12.7583
▁بیس	-12.7584
۳۶	-12.7592
▁مترو	-12.7594
▁ونزوئلای	-12.7594
میسی	-12.7602
▁تز	-12.7603
▁دبیل	-12.7616
نیایی	-12.7623
جهانی	-12.7629
▁الو	-12.7634
آمارها	-12.7636
▁نخل	-12.7641
اشق	-12.7643
▁کنگو	-12.7659
▁جوانش	-12.7673
کمل	-12.768
یوشیت	-12.7682
پارد	-12.7687
دهد	-12.7697
یافت	-12.7699
استیل	-12.7707
مقابل	-12.7707
▁یورک	-12.771
عمر	-12.7711
▁پیراهنش	-12.7711
▁استعدادی	-12.773
خواهر	-12.7732
رال	-12.7734
▁۱۹ب	-12.7751
اسا	-12.7756
حقیقی	-12.7759
کارت	-12.7789
▁ایگ	-12.7791
▁پیل	-12.7801
▁شرا	-12.7807
فغان	-12.7807
▁سوریا	-12.7813
ئون	-12.7827
▁محمدحس	-12.7828
▁کالو	-12.7829
▁هیپستر	-12.7831
▁ترو	-12.7831
داول	-12.7839
▁بوات	-12.785
دای	-12.7853
توان	-12.7863
▁سبی	-12.7865
▁اقامتش	-12.7869
نیرو	-12.7873
نگولی	-12.7873
شیری	-12.788
▁نشو	-12.7894
▁بارد	-12.7904
عیار	-12.7905
رک	-12.7907
▁ایمیل	-12.7914
▁مین	-12.7919
▁بیشمار	-12.792
▁آزم	-12.7922
▁بکت	-12.7925
▁ایرا	-12.7931
وک	-12.794
مساعد	-12.7942
▁الگ	-12.7942
▁اعل	-12.7949
▁صر	-12.7955
سخت	-12.7957
خیو	-12.7965
فاج	-12.7969
ادزه	-12.7971
سران	-12.7976
▁۱۵سال	-12.7993
سیمون	-12.7994
ابو	-12.8
هیج	-12.8003
رساز	-12.8006
هاج	-12.8008
مدار	-12.801
انزلی	-12.8011
گانی	-12.8012
▁غی	-12.8014
▁لال	-12.8016
زند	-12.8017
▁زمانه	-12.8021
▁ارس	-12.8023
مب	-12.8024
▁عبداله	-12.8027
ورده	-12.803
ورها	-12.8036
تجا	-12.8037
▁واردکنند	-12.8041
ایم	-12.8044
▁اندر	-12.8046
شخصی	-12.8052
▁وز	-12.8058
خا	-12.8059
دیک	-12.8061
جنر	-12.8063
وارت	-12.8066
أت	-12.8067
▁هیچگ	-12.8072
▁زوا	-12.8072
▁شفی	-12.8074
▁آیزا	-12.8079
۴۷	-12.8083
ساندر	-12.8101
پنجاه	-12.8102
نزدیک	-12.8104
ارک	-12.8115
اخته	-12.8116
▁وزر	-12.8129
▁چیزور	-12.8132
سات	-12.8133
روهای	-12.8134
لکت	-12.8137
پوستان	-12.8138
هشتم	-12.8143
۲۶	-12.8144
▁سرن	-12.8152
کنت	-12.8154
▁راب	-12.8157
▁نول	-12.8159
عفو	-12.8169
اندرو	-12.817
یکن	-12.8177
دینامیک	-12.818
دندان	-12.8184
کنی	-12.8184
تحقیق	-12.8202
صه	-12.8202
▁فقیرتر	-12.8204
▁تحریر	-12.8206
ابه	-12.8211
دیبه	-12.8216
▁لم	-12.8227
▁تشخیصی	-12.8229
کوه	-12.8233
سپر	-12.8237
قیاف	-12.8242
تف	-12.825
▁فینل	-12.8253
▁ذهنم	-12.8256
▁کاپل	-12.8258
▁وایلر	-12.8258
گش	-12.8259
▁دژها	-12.8269
▁عن	-12.8274
▁نخوان	-12.8275
▁آلبا	-12.8309
عامل	-12.831
▁جاندار	-12.8327
▁بوستا	-12.8329
زمن	-12.8335
▁رادار	-12.8335
▁کارآ	-12.8338
رونالدو	-12.8354
▁زبر	-12.8355
راج	-12.8356
▁همت	-12.8361
▁گفتار	-12.8364
▁غد	-12.8367
آیی	-12.837
▁موک	-12.8388
▁سوش	-12.8394
دوی	-12.8398
حسی	-12.8399
گورک	-12.8403
▁صن	-12.8426
▁لیورپولی	-12.8427
▁بنت	-12.8437
اث	-12.844
ابات	-12.8443
توقف	-12.8449
ناعت	-12.8456
▁مثا	-12.8457
▁آتا	-12.8462
▁بازگردان	-12.8468
نترل	-12.8473
برجام	-12.8473
▁نیاوردن	-12.8491
دانش	-12.8492
سرع	-12.8495
▁افزا	-12.8505
لمان	-12.8506
▁بهمین	-12.8508
▁آنجل	-12.8508
ساخت	-12.8509
ورتینگ	-12.8512
▁هوگ	-12.8516
ماجد	-12.8522
▁فلورا	-12.8524
▁میشی	-12.8535
▁چیپ	-12.8536
نیت	-12.8539
میلادی	-12.8545
▁محصولش	-12.8551
خلاقی	-12.8556
ونتی	-12.8558
ومئ	-12.8569
▁اون	-12.8575
▁عمرم	-12.8575
▁حالش	-12.8585
۵۵	-12.8593
ورزش	-12.8593
▁خاو	-12.8607
سمی	-12.8609
▁سرگ	-12.861
▁فلای	-12.8625
دریافت	-12.8626
▁ماهر	-12.863
باغ	-12.8639
▁سویی	-12.8642
قاب	-12.8642
▁ورزید	-12.8642
ترامپ	-12.8648
▁بلد	-12.8649
▁لیپ	-12.8656
اینک	-12.866
درینو	-12.8661
شیروان	-12.8661
یور	-12.8663
اویل	-12.8673
▁همکاریها	-12.8681
▁ندار	-12.8689
نوشته	-12.8689
رصدخان	-12.8693
اگان	-12.8699
مربوط	-12.8704
▁گذرانی	-12.8705
▁لج	-12.872
وازی	-12.8722
▁نورا	-12.8729
گردیده	-12.873
▁''	-12.8741
طریق	-12.8751
شناخت	-12.876
المپیک	-12.877
تکین	-12.8774
حمله	-12.8776
▁اعلا	-12.8777
▁استعفاها	-12.879
نسیون	-12.8802
▁کرون	-12.8805
عبدالم	-12.8808
کیه	-12.8814
▁کالی	-12.8815
دنی	-12.8819
▁کولا	-12.8822
تاثیر	-12.8826
▁هری	-12.883
پیس	-12.8831
نوار	-12.8835
▁زل	-12.8836
گرایان	-12.8839
خواهان	-12.8844
صادرات	-12.8844
▁راهبر	-12.8846
▁ایش	-12.8851
▁سع	-12.8853
لوف	-12.8854
هیجان	-12.8859
نامزد	-12.8864
هنه	-12.887
تز	-12.887
انقلاب	-12.8871
▁۱۰۵	-12.8876
نمایش	-12.8876
لغو	-12.8876
▁تریست	-12.8877
آگاهی	-12.8883
ستقر	-12.8885
یاط	-12.8885
رنیک	-12.8885
▁سالیان	-12.8888
سوخته	-12.8894
▁وینفر	-12.8895
لوئی	-12.8904
▁گرده	-12.8914
گلستان	-12.8915
پرای	-12.8916
انتقاد	-12.892
▁آنگو	-12.8921
جوان	-12.8925
الگرد	-12.8925
وضع	-12.893
گذران	-12.8933
▁نگرفتن	-12.8934
وناک	-12.8937
▁رسو	-12.8941
یدکی	-12.8943
▁تاخت	-12.8944
▁انتظا	-12.8945
یدا	-12.8946
یچی	-12.8947
نیروهای	-12.8952
زمه	-12.8953
مصاحبه	-12.8959
معاملات	-12.896
لرز	-12.8969
ژدهای	-12.8971
▁رابی	-12.8986
بحران	-12.8989
گوش	-12.899
▁خفت	-12.8991
اقبال	-12.8997
وام	-12.8999
خری	-12.9001
▁نوای	-12.9002
طول	-12.9014
طه	-12.9015
مارس	-12.9023
ارپنت	-12.9025
شهروندان	-12.9026
▁بازاری	-12.9028
نواز	-12.9041
آبان	-12.9043
ربات	-12.9051
کنترل	-12.9053
اسک	-12.9054
اختیار	-12.9059
تقریبا	-12.9064
اعدام	-12.9066
ناوال	-12.9069
سترد	-12.9071
واردات	-12.9071
قض	-12.9076
انفجار	-12.9079
تولد	-12.9085
قوانین	-12.9086
ماسک	-12.9087
معروف	-12.9093
مونیک	-12.9094
رایان	-12.9095
فرید	-12.9097
کالا	-12.9099
قف	-12.9107
اغر	-12.9108
اختلاف	-12.9108
یلانی	-12.9108
فهرست	-12.9109
کوتاه	-12.9113
جت	-12.9118
خورشید	-12.9119
روسیه	-12.912
نل	-12.9121
▁آقازاد	-12.9123
ضمن	-12.9125
رقم	-12.9129
▁سخ	-12.9129
▁کندایران	-12.9152
کمپ	-12.9156
نسی	-12.9158
▁کلیو	-12.9159
توسعه	-12.9163
فساد	-12.9165
▁اعلامی	-12.9168
پاریس	-12.9177
▁ناتو	-12.9179
▁چپگرا	-12.9181
حا	-12.9182
عمده	-12.9195
▁درشبا	-12.9196
قوی	-12.9197
اردیبهشت	-12.9206
▁دوند	-12.9206
دحال	-12.9208
▁دوقلو	-12.9209
مجوز	-12.9215
▁گردان	-12.9216
اسطوره	-12.9218
علاقه	-12.9222
برسد	-12.9223
عبدالرحم	-12.9226
ساختمان	-12.9228
نفتکش	-12.9229
۱۳۹۹	-12.9233
قاچاق	-12.9236
▁بالاگ	-12.9239
شور	-12.924
▁نویسند	-12.9245
کلاس	-12.9245
▁دریاها	-12.925
معترضان	-12.9251
▁دشوارتر	-12.9259
سمت	-12.9264
▁آنتون	-12.9264
▁تئاترها	-12.9265
رنجر	-12.9267
▁مدی	-12.927
خودروساز	-12.9272
▁کردید	-12.9275
شتابند	-12.9276
صبح	-12.9276
بازنشستگان	-12.9278
عوامل	-12.928
نگران	-12.9281
کمبود	-12.9281
▁کشاندن	-12.9284
▁نیروها	-12.929
الیا	-12.9291
تاسیسات	-12.9298
ماموران	-12.9299
معمار	-12.9303
معمولا	-12.9303
سخنان	-12.9305
اسف	-12.9308
فراموش	-12.9309
عجیب	-12.9311
غیر	-12.9313
اذ	-12.9316
اشا	-12.9318
پنجشنبه	-12.9319
جراح	-12.9323
ازدواج	-12.9323
خیابان	-12.9325
تماشاگر	-12.9328
جامعه	-12.933
▁الکتریک	-12.9335
ورن	-12.9336
تسلا	-12.9337
آلودگی	-12.9337
▁کارتونی	-12.9338
یوونتوس	-12.934
بریت	-12.9341
▁مختا	-12.9345
ماموریت	-12.9345
آدام	-12.9349
▁همجنسگرا	-12.9352
روبرت	-12.9358
مشکل	-12.9358
پایگاه	-12.9358
انجی	-12.9363
ربا	-12.9364
مجله	-12.9365
▁پوستش	-12.9365
▁کارتن	-12.9365
سوئد	-12.9366
▁وکا	-12.9367
▁میکرو	-12.9369
ایستگاه	-12.9372
خاورمیانه	-12.9372
سرکوب	-12.9374
ساکو	-12.9375
کشن	-12.9377
تماشاگران	-12.9377
تکمیل	-12.9377
کیفیت	-12.9379
قاضی	-12.9388
▁حسگر	-12.9388
صادق	-12.9388
اوا	-12.9389
▁طع	-12.939
▁ماسی	-12.939
کریستیان	-12.9392
پانزده	-12.9395
عشق	-12.9396
ردند	-12.9397
فروشگاه	-12.9398
پژوهش	-12.9399
تالاب	-12.9399
پلاستیک	-12.9401
نابودی	-12.9401
پیوند	-12.9403
الکسا	-12.9403
تدریج	-12.9407
منچسترسیتی	-12.9409
نچه	-12.9409
ناپذیر	-12.941
سطح	-12.9411
▁مالدار	-12.9414
اورتون	-12.9415
ایرباس	-12.9415
موکورمایکوزیس	-12.9416
▁دینا	-12.9419
خانوارهای	-12.942
اشتغال	-12.9421
غریب	-12.9421
سرزمین	-12.9421
گوگل	-12.9421
دایناسور	-12.9422
استادیوم	-12.9423
حاف	-12.9424
انوس	-12.9425
پرورش	-12.9425
▁بازجو	-12.9426
تسهیلات	-12.9426
والی	-12.9427
محبت	-12.9427
ابعاد	-12.9429
مارتین	-12.943
جواب	-12.943
صحرا	-12.9431
فرونشست	-12.9432
وستهم	-12.9433
تماشای	-12.9434
▁ناخوش	-12.9434
انصاریان	-12.9436
تکنولوژی	-12.9436
نمایندگی	-12.9436
بیروت	-12.9438
کیانوش	-12.9441
درمان	-12.9442
کبیر	-12.9443
چهاردهم	-12.9445
کارلوس	-12.9446
▁موق	-12.9446
گابریل	-12.945
مجری	-12.945
سوزاند	-12.9451
استراتژی	-12.9451
لبخند	-12.9452
کوپتر	-12.9452
مریخ	-12.9452
دیوار	-12.9453
آلزایمر	-12.9454
فیزیکدان	-12.9456
اوساکا	-12.9456
مسئولین	-12.9457
راموس	-12.9457
مهاجمان	-12.9457
لاپورتا	-12.9458
فردا	-12.9458
توخل	-12.9458
شواهد	-12.946
▁ساق	-12.946
بشنوید	-12.9461
جمشید	-12.9462
سسه	-12.9462
کلیسای	-12.9463
مزایای	-12.9463
باربارا	-12.9464
پیتا	-12.9464
آموز	-12.9465
اسنپ	-12.9465
خوشبخت	-12.9465
هالووین	-12.9467
دیوارنگار	-12.9467
نهام	-12.9467
اشخاص	-12.9469
بهبود	-12.9469
انحصار	-12.947
گیلبرت	-12.947
فرندز	-12.9471
طاهر	-12.9471
جزییات	-12.9472
ماوریک	-12.9472
عالی	-12.9473
▁درآو	-12.9473
▁قبرها	-12.9474
رانندگان	-12.9477
ماهشهر	-12.948
وکلای	-12.948
▁سرگی	-12.9481
جاشوا	-12.9483
ذهن	-12.9484
ایلنا	-12.9487
ساترا	-12.9488
ارکان	-12.9488
▁قزوین	-12.9489
روزها	-12.949
گزارشگران	-12.9491
همسایه	-12.9493
سولار	-12.9493
نرهای	-12.9495
پانزدهم	-12.9496
منشا	-12.9497
باقی	-12.9497
فتاح	-12.9498
راس	-12.95
مگ	-12.9502
یونیست	-12.9502
▁سانتریفیوژها	-12.9502
▁آقاخان	-12.9506
گرانتر	-12.9507
ترافیک	-12.9507
سادات	-12.9507
لوم	-12.951
تاریخی	-12.9511
اکولوژی	-12.9511
▁نارنج	-12.9514
کنزو	-12.9515
▁همزی	-12.9516
صحیح	-12.9517
نیاز	-12.9518
قبرس	-12.9519
ناور	-12.9519
بنیاد	-12.9519
معاش	-12.952
نروژ	-12.952
ریختن	-12.9521
▁کالیفرنیای	-12.9521
ایرنا	-12.9522
فشارها	-12.9525
رولینگ	-12.9526
آرمی	-12.9527
کریستین	-12.9528
کارلو	-12.9533
رژ	-12.9535
▁غفار	-12.9536
▁تهرانی	-12.9538
۱۶۰	-12.9542
▁برع	-12.9543
مامور	-12.9546
فرگوسن	-12.9548
ریاک	-12.9549
اقتصاددان	-12.955
شکوف	-12.9553
▁گرسن	-12.9553
تماس	-12.9557
ئین	-12.9558
بندر	-12.9558
مدارگ	-12.956
رحمان	-12.956
▁رخدادها	-12.9563
نمادهای	-12.9564
▁اکرم	-12.9568
ثور	-12.9571
وزش	-12.9574
▁دوخت	-12.9576
مسلح	-12.958
▁سلین	-12.958
ریال	-12.9581
پیکر	-12.9581
هیز	-12.9584
▁شدنش	-12.9585
ارگردان	-12.9592
ستانی	-12.9592
ارتش	-12.9596
یورو	-12.9596
یگز	-12.9599
خبرهای	-12.96
بریج	-12.9604
سینمای	-12.9608
ثار	-12.961
پیشرفته	-12.961
▁امیدها	-12.9611
نوع	-12.9612
فاو	-12.9613
تعارض	-12.9617
گردیم	-12.9619
▁تهرا	-12.9624
▁۱۰۷	-12.9625
جیپ	-12.9625
سروده	-12.9629
لطف	-12.9631
▁هرسال	-12.9633
نکن	-12.9633
زلی	-12.9636
▁دوشان	-12.9636
▁دیپ	-12.9637
رسانده	-12.9639
رهبران	-12.9639
درخت	-12.9653
بایدن	-12.9654
ریل	-12.9656
نجف	-12.9658
کانی	-12.9659
رسا	-12.9662
▁لومب	-12.967
صفح	-12.9671
▁استخوانی	-12.9679
▁غفور	-12.9683
مالی	-12.9685
کینگز	-12.9685
گردند	-12.9687
▁خسرو	-12.9693
دستگیری	-12.9694
▁افسا	-12.9694
▁کامب	-12.9698
▁سپاس	-12.9699
▁ترانزی	-12.9703
وجی	-12.9703
سور	-12.9703
▁گیگا	-12.9707
▁اپلیکیش	-12.9712
فرخ	-12.9712
تناقض	-12.9713
مفس	-12.9714
ابوال	-12.9719
▁گارا	-12.9724
▁قراداد	-12.9726
فاق	-12.9726
▁مسلما	-12.9727
ستایش	-12.9734
ریسک	-12.9741
رخه	-12.9745
یابد	-12.9748
مالا	-12.975
غات	-12.9751
▁یونا	-12.9752
▁شانز	-12.9757
باخته	-12.9762
▁انگلستا	-12.9763
رار	-12.9765
▁صنع	-12.9768
هنری	-12.9771
برگرفت	-12.9772
▁خست	-12.9772
رحمانی	-12.9774
▁بپرداز	-12.9777
▁بندها	-12.9778
▁غافل	-12.9781
شرکتهای	-12.9782
▁پک	-12.9783
توری	-12.9783
الان	-12.9788
پزشکان	-12.9792
▁آشتی	-12.9793
اتمی	-12.9795
ذیر	-12.9796
▁بارکین	-12.9798
یکشنبه	-12.9798
ندگرن	-12.9798
▁پالی	-12.9799
▁صب	-12.9803
ودگی	-12.9803
نصر	-12.9806
دف	-12.9807
▁بشنوی	-12.9808
آشنای	-12.9808
کارزار	-12.9809
کون	-12.9811
▁۱۲۱	-12.9813
موزگار	-12.9814
▁آریزونا	-12.9818
▁گالاپاگوس	-12.9818
زیرخاکی	-12.9818
▁آکروبات	-12.9818
▁اورنیتودیر	-12.9818
▁بدردنخور	-12.9818
▁بولگاکف	-12.9818
▁ثلاثه	-12.9818
▁رآکتور	-12.9818
▁رادیوتلسکوپ	-12.9818
▁سمرقندی	-12.9818
▁میهایلوویچ	-12.9818
▁نیشیکوری	-12.9818
▁هوآیفنگ	-12.9818
▁پترزبورگ	-12.9818
▁کداخدایی	-12.9818
▁دیکتاتور	-12.9818
▁فراماسون	-12.9818
▁نپاشید	-12.9818
▁هادیانفر	-12.9818
▁سپاسگزار	-12.9818
▁هخامنشی	-12.9818
▁حناچی	-12.9818
▁زرتشت	-12.9818
▁فخرالدینی	-12.9818
▁مددکاران	-12.9818
▁هنجارشکن	-12.9818
▁نپایید	-12.9818
▁روانشناختی	-12.9818
▁مالوچی	-12.9818
▁زاپاتا	-12.9818
▁واچارا	-12.9818
▁موناکو	-12.9818
▁رنگارنگ	-12.9818
▁نیفتد	-12.9818
▁آزارنکا	-12.9818
▁سمنگان	-12.9818
▁اسمیتسونی	-12.9819
ناملموس	-12.9819
▁فینچر	-12.9819
▁بلموندو	-12.9819
▁فمینیست	-12.9819
▁اقتدارگرا	-12.9819
▁فاحش	-12.9819
▁نردبان	-12.9819
▁انتقلات	-12.982
▁ریزتراشه	-12.982
▁خونسرد	-12.982
▁آنفلو	-12.982
▁گلاسگو	-12.982
▁بیاموز	-12.982
▁مخترع	-12.9821
▁جوکووی	-12.9821
▁فلفل	-12.9821
▁قدرناشناس	-12.9821
▁یکپارچ	-12.9821
▁آسایشگاه	-12.9821
▁نگذارند	-12.9822
▁متقلب	-12.9822
▁واتسون	-12.9822
▁غرابت	-12.9822
▁عبادت	-12.9822
▁باواریا	-12.9822
▁بولیوی	-12.9823
▁اکلاه	-12.9823
▁پرستو	-12.9823
▁ماراکا	-12.9823
▁بشناسیم	-12.9823
▁بیاوریم	-12.9823
▁بااستعداد	-12.9823
▁صابری	-12.9824
▁بکشاند	-12.9824
▁حصار	-12.9824
▁بنکدار	-12.9824
▁آسانژ	-12.9824
▁هایپریون	-12.9824
▁ورزیدند	-12.9824
▁بسازند	-12.9825
▁ابرقهرمانی	-12.9825
▁ندارمآی	-12.9825
▁۱۷۴۷	-12.9826
تکاپو	-12.9826
▁نباشیم	-12.9826
گذرانی	-12.9827
▁بمانیم	-12.9827
▁لامپ	-12.9827
▁بغض	-12.9828
▁کربلا	-12.9828
▁برلیناله	-12.9828
▁مهمانپذیر	-12.9829
▁الشعرای	-12.9829
▁حیث	-12.9829
▁گنجایش	-12.9829
▁پرتفو	-12.9829
فتارها	-12.9831
▁بالادستی	-12.9831
▁بزهکار	-12.9831
▁پرستویی	-12.9832
▁انسداد	-12.9832
▁خمیس	-12.9833
▁بیکینی	-12.9833
▁آلتر	-12.9833
کپلر	-12.9835
▁متنعم	-12.9835
▁فض	-12.9835
وستان	-12.9835
جوانی	-12.9835
▁گندم	-12.9836
▁شیمیدان	-12.9837
▁مقاطع	-12.9837
▁نرفتیم	-12.9838
▁اتوبان	-12.9838
▁عنایت	-12.9839
▁سمینار	-12.9839
▁شیطان	-12.9839
▁موریسون	-12.984
▁نامتناسب	-12.984
▁نامتعارف	-12.9841
▁کلارین	-12.9841
یاری	-12.9841
▁برنگردد	-12.9842
▁جوبیل	-12.9842
کادمیم	-12.9843
▁دزدیدند	-12.9843
▁خرچ	-12.9843
▁نشیمن	-12.9845
▁برمودا	-12.9846
▁تایماز	-12.9846
▁شرافت	-12.9847
▁سندیکا	-12.9847
▁۱۳۵۵	-12.9848
رصد	-12.9848
شاهزاد	-12.9848
▁بیابند	-12.9849
▁سردادند	-12.985
▁زوکر	-12.9853
▁لنکش	-12.9853
▁شمشیر	-12.9854
▁پلینز	-12.9855
▁فراقانونی	-12.9855
▁کلودیون	-12.9855
▁انجیل	-12.9856
▁پاسداشت	-12.9856
▁ضدکرونا	-12.9859
یکیشن	-12.9859
▁یوکو	-12.986
▁نئ	-12.9861
روم	-12.9861
▁کتابخوان	-12.9862
▁خانلو	-12.9862
▁سپی	-12.9863
▁وروو	-12.9863
▁رخشان	-12.9864
اچی	-12.9864
▁اوتنز	-12.9865
▁کوروت	-12.9865
▁امثال	-12.9866
▁خاورشناس	-12.9868
انصاری	-12.9871
▁تکریم	-12.9873
▁۵۵۶	-12.9875
▁کسوف	-12.9875
▁رعیت	-12.9879
▁جاشو	-12.9879
نوس	-12.988
▁چرچ	-12.988
▁نامهربان	-12.9883
چلو	-12.9883
▁گرانفروش	-12.9883
▁زردشت	-12.9884
▁مقل	-12.9884
▁چاقو	-12.9886
▁نرسانده	-12.9886
▁آلابا	-12.9887
▁تویتت	-12.9888
▁اینچنین	-12.9889
▁عابر	-12.9889
▁فلاح	-12.9889
▁تبهکار	-12.989
▁آناتول	-12.9891
وتنز	-12.9892
▁نترس	-12.9892
▁برآید	-12.9893
▁خندند	-12.9895
منتف	-12.9896
▁رازگشای	-12.9897
▁ویلای	-12.9897
▁آرشی	-12.9897
▁ندانستند	-12.9898
بعدا	-12.99
▁الاغ	-12.9902
▁پدربزرگش	-12.9902
▁مبل	-12.9902
▁بازگردند	-12.9903
▁نخاع	-12.9903
▁بیولو	-12.9904
سترول	-12.9905
▁داوو	-12.9906
▁لنفو	-12.9909
▁بایستد	-12.991
▁اکشن	-12.9912
▁مرغوب	-12.9913
جاری	-12.9915
▁غواصان	-12.9919
▁اسطور	-12.992
▁همدستان	-12.9923
▁عبرت	-12.9924
لقو	-12.9924
خلال	-12.9925
باند	-12.9927
▁پوشاندند	-12.9928
▁کوبیدند	-12.9928
ستشوی	-12.9929
▁بگریز	-12.9929
وبار	-12.9932
▁پروس	-12.9933
▁شهرزاد	-12.9934
▁آتلانت	-12.9934
▁رئ	-12.9937
▁اسفن	-12.9939
▁باورم	-12.9939
▁برافر	-12.9939
▁پشم	-12.9941
عطف	-12.9942
▁آلک	-12.9947
▁افروختن	-12.9948
خمری	-12.9948
▁شلو	-12.9953
▁ریسمان	-12.9953
▁متنف	-12.9955
▁فروتن	-12.9956
▁تهدیدها	-12.9956
▁میزنند	-12.9957
▁انقضا	-12.9958
▁تعصب	-12.9959
▁گابر	-12.996
پیانیست	-12.996
▁بسازم	-12.9966
▁نگرفتم	-12.9968
▁آشتیان	-12.9968
▁ابداعات	-12.9968
باکرگی	-12.9969
ناو	-12.9969
ارکز	-12.9972
حاک	-12.9973
▁ساس	-12.9975
▁اختر	-12.9977
فرانسیسکو	-12.9981
▁آدمکها	-12.9981
بدین	-12.9984
▁رقصیدن	-12.9984
سف	-12.9987
▁مطب	-12.9989
▁سندگرن	-12.999
تروف	-12.9999
▁بیهوش	-13
اینتس	-13.0003
دارد	-13.0006
▁خراش	-13.0007
آندر	-13.0007
▁هالیف	-13.0008
طاب	-13.0013
▁مسیرها	-13.0014
پشمک	-13.0014
▁دات	-13.0019
▁آلما	-13.0021
یکایی	-13.0021
▁تفنگدار	-13.0024
▁نکردیم	-13.0024
فرانک	-13.0028
همچن	-13.0029
استیون	-13.0031
▁اصالتا	-13.0032
▁استنلی	-13.0033
الیس	-13.0033
▁بزرگوار	-13.0035
▁عبدالح	-13.0038
▁جالبند	-13.0038
▁پاندا	-13.0041
▁کاتالو	-13.0044
▁بیندیش	-13.0049
▁خونبار	-13.0051
▁نیافتند	-13.0052
▁استعدادیاب	-13.0052
وادور	-13.0054
▁جوانمرد	-13.0055
▁خف	-13.0056
ودزاده	-13.0056
فردو	-13.0058
▁آنتیگو	-13.0059
▁بکاه	-13.006
▁رسیدبر	-13.0062
استفان	-13.0064
▁لافت	-13.0069
بقای	-13.0074
▁شتابزد	-13.0075
▁کیار	-13.0078
▁متکب	-13.008
▁موکور	-13.008
روا	-13.0081
رختک	-13.0082
▁شایعند	-13.0083
قول	-13.0086
▁مذا	-13.0087
▁فلام	-13.0089
ضطر	-13.009
▁متفکر	-13.0091
تباهی	-13.0092
غور	-13.0094
▁خرابکاران	-13.0098
▁خرنامه	-13.0098
اتان	-13.0101
▁نرسد	-13.0102
▁هاشم	-13.0103
▁فراخواندن	-13.0103
▁آبخو	-13.0104
▁ناخوا	-13.0106
▁رساندیم	-13.011
پابلیک	-13.0111
▁تابعی	-13.0115
کوف	-13.0119
منوچ	-13.0122
سکری	-13.0123
▁فرسا	-13.0127
▁متنفری	-13.0131
سیاه	-13.0135
▁اکرمی	-13.0135
▁اولیان	-13.0135
شکاران	-13.0136
▁سایتش	-13.0137
نکردن	-13.0139
▁ازآن	-13.0139
▁مونتری	-13.0143
▁اکولوژی	-13.0146
▁آقاخانی	-13.0147
▁نواز	-13.0149
۷۲	-13.0149
▁ناکا	-13.0153
خب	-13.0156
ضیا	-13.0156
▁قزوینی	-13.0158
▁مأ	-13.0158
تمالا	-13.0165
▁کوچی	-13.0169
رتون	-13.0173
▁آسم	-13.0175
▁درانتخابات	-13.0185
▁اثرها	-13.0186
▁هندرس	-13.0188
▁ناراحتم	-13.0189
▁گسست	-13.0193
▁زیربنا	-13.0195
پرش	-13.0196
گلی	-13.0196
▁ندادم	-13.0201
رباتی	-13.0204
▁دستچین	-13.0204
الین	-13.0213
▁شبستری	-13.0216
▁والنتین	-13.0217
کاتان	-13.0217
▁مقالات	-13.0222
▁الگوهای	-13.0223
▁تحص	-13.0228
▁خسروی	-13.0229
لیف	-13.0233
▁فلات	-13.0234
▁موکورمایکوزیس	-13.0236
رایزن	-13.024
شریک	-13.0241
▁۶۳۰	-13.0247
▁کبیر	-13.0249
▁حسی	-13.025
▁انیستی	-13.0256
▁کاونت	-13.0259
▁اکستر	-13.0265
شگران	-13.0269
▁بکنیم	-13.0271
▁مکررا	-13.0281
روسکوپ	-13.0285
▁طالب	-13.0297
▁اسکندر	-13.0298
▁فرستادند	-13.0305
▁همجنسگرای	-13.0324
موفق	-13.0326
رزا	-13.0329
فولک	-13.0332
▁بردارند	-13.0333
بورگ	-13.0334
بکار	-13.0335
▁تبرهای	-13.0339
▁گذراندند	-13.0344
▁متاسفم	-13.0345
▁ریچار	-13.0349
زیرا	-13.0351
▁نیس	-13.0359
▁خوابید	-13.0362
▁درخشد	-13.0366
▁خیری	-13.0369
مولان	-13.037
▁استانها	-13.0371
رض	-13.0371
▁وسکو	-13.0376
▁نبوی	-13.0378
▁گلد	-13.0379
▁کالین	-13.0379
▁جهنمی	-13.0383
▁نوش	-13.0383
▁مارلو	-13.0383
احس	-13.0387
▁فریم	-13.039
▁بخوابان	-13.0391
ریخت	-13.0395
▁احرا	-13.0407
خامت	-13.041
وشو	-13.0412
▁انگی	-13.0414
▁قایقران	-13.0417
▁مکید	-13.0425
▁بازنگشته	-13.0426
شستا	-13.0428
▁سرلش	-13.043
توس	-13.0431
▁مارگار	-13.0434
▁کون	-13.0437
▁حدف	-13.044
▁میکند	-13.0443
▁زیور	-13.0452
ولز	-13.0454
تراژ	-13.0457
▁مسجدی	-13.0468
▁ترسند	-13.047
▁مهرا	-13.0473
مرک	-13.0473
مینا	-13.0474
اهواز	-13.0475
▁یلدا	-13.0483
▁گوسفندان	-13.0483
▁بخوانی	-13.0489
▁فلم	-13.049
▁دلسوزان	-13.0491
رجی	-13.0492
شبانه	-13.0492
▁زر	-13.0492
▁مستر	-13.0495
▁استکرونا	-13.0496
▁مط	-13.0497
▁اندیشی	-13.0498
تمن	-13.05
▁کبری	-13.05
▁بنی	-13.0505
خسار	-13.0505
نکس	-13.0506
اتین	-13.0507
گزین	-13.0509
▁داستانها	-13.0522
▁کابلی	-13.0524
▁آژا	-13.0527
چیده	-13.0533
تحقیقی	-13.055
مرا	-13.0552
▁حمیدی	-13.056
▁نگذشته	-13.0573
حد	-13.059
▁مجم	-13.059
امرویل	-13.061
▁آوازم	-13.061
قش	-13.0612
الیات	-13.0618
بورک	-13.062
ونگر	-13.0621
وهای	-13.0621
▁سرام	-13.0621
فرمانی	-13.0625
تهام	-13.0626
▁چم	-13.0626
▁بارکی	-13.0626
ونک	-13.0628
روت	-13.063
▁مجد	-13.0636
▁نپرداخت	-13.0637
انگلر	-13.0641
▁ارم	-13.0646
اندومی	-13.0649
وتاس	-13.0658
▁کارآگاه	-13.066
راکتور	-13.0664
▁درآمدن	-13.0664
▁فقرا	-13.0668
رمو	-13.0671
▁موندی	-13.0692
رئی	-13.0705
▁آفریدندم	-13.0714
امت	-13.0722
ئیه	-13.0727
▁وایز	-13.074
▁کالیفرنیایی	-13.0741
▁فرانکن	-13.0745
فیف	-13.0754
▁ماگا	-13.0759
گفتار	-13.076
اقلان	-13.0768
▁معتر	-13.0771
طنت	-13.0772
▁تندر	-13.0778
▁بورسی	-13.0793
▁هیکل	-13.0795
زهره	-13.08
بوس	-13.0802
صی	-13.0804
▁هوانو	-13.0806
حرم	-13.0812
ایف	-13.0832
فتند	-13.0832
اعی	-13.0835
▁مشغولند	-13.0843
خاش	-13.0844
▁استادی	-13.0846
▁استادکار	-13.0856
دوج	-13.0857
درمیان	-13.0859
ناکا	-13.0859
▁حوز	-13.0861
▁وکیلش	-13.0862
تلاق	-13.0866
▁زدنند	-13.0869
▁بوگو	-13.0873
▁تقو	-13.0874
▁دمش	-13.0875
▁طبل	-13.0879
▁جلا	-13.088
▁نونو	-13.0883
انندگان	-13.0886
▁رقابتها	-13.0887
زانه	-13.089
جریان	-13.089
روری	-13.0891
یانه	-13.0893
▁دریابا	-13.0893
نتر	-13.0895
▁اندرو	-13.0896
▁هارو	-13.0897
فهیم	-13.09
حبو	-13.09
پسند	-13.0903
داند	-13.0905
سرخ	-13.0907
ماخ	-13.0908
▁الان	-13.091
ستار	-13.0912
▁بشوی	-13.0917
▁اندبا	-13.0924
کلیه	-13.093
▁کردآ	-13.0934
▁موی	-13.0948
▁دانی	-13.0968
ضیه	-13.0971
▁هاینر	-13.0974
▁دستبند	-13.0976
▁سلط	-13.0976
زان	-13.0978
▁عطش	-13.098
کوش	-13.0986
▁چپگرای	-13.0989
▁برخوردند	-13.1003
هارت	-13.1003
ئ	-13.1004
جزایر	-13.1005
▁اندازند	-13.1008
توحید	-13.1015
▁اسپری	-13.1018
▁افغانی	-13.1018
لیپین	-13.1024
لبی	-13.1031
▁فراه	-13.1032
▁فرزندانم	-13.1039
ازار	-13.1043
رهایش	-13.1045
▁نترسید	-13.1047
امیلی	-13.1053
▁فریبی	-13.1054
ئولی	-13.1055
بعیدی	-13.1055
موت	-13.1058
وئی	-13.1061
۹۳۹	-13.1062
▁اشتری	-13.1062
نست	-13.1077
▁نوده	-13.1083
یرویز	-13.1091
▁هایما	-13.1092
فرانسی	-13.1092
ژیر	-13.1092
▁کاشت	-13.1093
شعب	-13.11
▁اندی	-13.1103
▁استدفتر	-13.1103
وتک	-13.1107
سلی	-13.1109
پارات	-13.1114
پذیری	-13.1116
رزم	-13.1118
یچک	-13.112
رامین	-13.112
کاریر	-13.1131
حکیم	-13.1133
کلاغ	-13.1136
یدگی	-13.1142
▁وآمدها	-13.1153
ینس	-13.1154
زاوی	-13.1156
هامر	-13.1159
داستانی	-13.1164
صالحی	-13.1174
▁بستگانش	-13.1177
▁حماس	-13.1181
بوش	-13.1182
▁امپ	-13.1183
یرشا	-13.1183
▁هد	-13.1192
همان	-13.12
▁همدست	-13.12
▁ساد	-13.1203
▁جوا	-13.1205
وپنجاه	-13.121
ولاتش	-13.1215
▁چرم	-13.1223
▁تغییرهای	-13.1224
سمعی	-13.1225
بردن	-13.1226
فیر	-13.123
فاخر	-13.1231
▁ببخش	-13.1232
▁تد	-13.1232
▁سبیل	-13.1235
نتال	-13.1235
▁جهاندار	-13.1242
یابانی	-13.1245
العمل	-13.1259
چس	-13.1261
اغت	-13.1269
ادرش	-13.127
▁سیو	-13.1273
باوری	-13.1277
نشینان	-13.1278
لاس	-13.1279
رالم	-13.1283
نخ	-13.1283
ویت	-13.1285
توپ	-13.129
فوتبال	-13.1294
هاوس	-13.1297
▁السلط	-13.1298
ابراهیمی	-13.13
یسه	-13.1307
▁جاس	-13.1315
سیلو	-13.1322
▁صو	-13.1324
▁میانجی	-13.1325
▁پژوه	-13.1339
عاش	-13.1345
▁تورب	-13.1349
۵۳۰	-13.1352
سوا	-13.1357
▁بوردو	-13.1367
رکنا	-13.137
▁بندند	-13.1407
▁متاب	-13.1411
▁آرن	-13.1413
▁قای	-13.1415
▁بورد	-13.1423
رپر	-13.1424
▁ماتیس	-13.1437
▁برچی	-13.1438
میل	-13.1445
بیز	-13.1452
▁آنف	-13.1455
▁هاف	-13.1456
▁براندا	-13.1456
ونتو	-13.1457
▁مکث	-13.1457
▁ایز	-13.1461
زاز	-13.1465
خوار	-13.147
شکر	-13.1471
▁نکاست	-13.1472
حج	-13.1473
▁دیری	-13.1475
اطب	-13.1479
▁مضرا	-13.1487
ازن	-13.1494
▁ژست	-13.1497
۳۹۰	-13.1497
اض	-13.15
تاق	-13.1504
▁سح	-13.1506
▁درهایش	-13.1522
آما	-13.1523
▁اکسی	-13.1525
تایی	-13.1533
ارگری	-13.1533
▁رادو	-13.1545
سامی	-13.1548
▁امروزش	-13.1553
والدین	-13.1558
گفتگوی	-13.1571
ودم	-13.1579
▁فردای	-13.1581
موتورها	-13.1582
▁توم	-13.1582
▁مهلک	-13.159
داخته	-13.1593
▁لاف	-13.1597
کالیف	-13.1607
▁میانشان	-13.1612
▁بده	-13.1617
▁پنجاهم	-13.1618
▁آیر	-13.1622
توت	-13.1636
عبدالو	-13.1651
▁غیرع	-13.1674
۹۱۲	-13.1679
▁بستگ	-13.1687
▁مافیا	-13.1687
▁شیپ	-13.1688
یوآن	-13.1688
▁یوشی	-13.169
▁اورن	-13.1701
۸۰	-13.1719
دوستد	-13.1719
▁گذرا	-13.1725
▁گلها	-13.1725
غفو	-13.1733
نزی	-13.1739
▁جرو	-13.1741
رساندن	-13.1746
بوق	-13.1748
▁زال	-13.1749
اص	-13.1751
انکی	-13.1756
▁هرمی	-13.1758
▁ترد	-13.1758
▁مستم	-13.177
▁اندمحمد	-13.1774
▁برسان	-13.1785
بندهای	-13.1792
▁پانز	-13.1794
۶۵	-13.18
شرف	-13.1802
ارمی	-13.1803
لاشی	-13.1809
▁مورفی	-13.1812
۴۱	-13.1814
▁برنگرد	-13.1815
جنب	-13.1821
▁عاشقان	-13.1826
رزی	-13.1832
▁انس	-13.1836
▁بگری	-13.1848
۱۵۰	-13.1852
اطع	-13.1872
▁دربر	-13.189
الم	-13.1893
▁عواقبی	-13.191
یمون	-13.1915
▁مزا	-13.1918
بوه	-13.1923
شبی	-13.1932
برند	-13.1935
▁رسوب	-13.1936
▁نقوی	-13.1942
نتین	-13.1946
▁نگو	-13.1951
گوئ	-13.1952
▁زای	-13.1955
▁پلات	-13.1955
▁نداری	-13.1964
تین	-13.1966
▁انتقالش	-13.1968
▁نابینای	-13.1971
▁ساختم	-13.1981
▁صور	-13.1984
▁بلندق	-13.1991
شرق	-13.1991
ساکن	-13.1995
امر	-13.1999
الگری	-13.2002
▁گردم	-13.2004
▁میانسال	-13.2015
واکس	-13.2015
▁دینامی	-13.202
بهر	-13.2043
▁بیگانگ	-13.2045
▁کارول	-13.2058
▁مرک	-13.2072
بگ	-13.2072
یرانی	-13.2082
▁پسرم	-13.2089
▁خی	-13.2096
تصدی	-13.2101
▁فراو	-13.2102
تنبور	-13.2103
▁میکردند	-13.2122
▁نقط	-13.2124
▁مقدا	-13.2134
▁بکن	-13.2137
▁عاشورا	-13.2138
▁نیستید	-13.2141
اهد	-13.2144
▁نظرها	-13.2145
▁صدرا	-13.2146
زلا	-13.2147
▁چهارتا	-13.215
پیک	-13.2155
▁بایس	-13.2163
یچه	-13.2169
▁آیوا	-13.2171
انگیز	-13.2171
توگراف	-13.2171
خواند	-13.2176
▁صفت	-13.2179
▁تحم	-13.2179
▁پاراد	-13.2179
یابان	-13.2182
دستی	-13.2188
▁۴۸۰۰	-13.2194
هرام	-13.2202
▁برگشتن	-13.2203
تحری	-13.2217
افه	-13.2223
▁میلو	-13.2224
▁فاک	-13.2236
لگو	-13.2237
گره	-13.2239
▁دورا	-13.2245
▁اورت	-13.2261
▁آه	-13.2279
رواقع	-13.2279
بستگ	-13.2283
مشاهی	-13.2293
دریایی	-13.2307
▁آنتو	-13.2312
▁رق	-13.2317
▁شودیک	-13.2323
والدی	-13.2324
رهنگ	-13.233
▁الری	-13.2335
▁جوید	-13.2343
اروس	-13.2346
الش	-13.2347
▁حدود۲	-13.2348
تمع	-13.235
▁بیاور	-13.235
▁کامیونی	-13.2353
استاد	-13.2363
▁البد	-13.2367
▁بادام	-13.2372
▁بط	-13.2374
▁پذیرفتن	-13.2377
▁هید	-13.2389
▁آلو	-13.239
غر	-13.2394
▁کریک	-13.2395
خاس	-13.2396
▁ویرا	-13.2397
قراض	-13.2401
▁آبرو	-13.2404
ضری	-13.241
لگار	-13.2418
▁صفو	-13.2422
اتاگو	-13.2424
لندن	-13.2426
▁دوبل	-13.2429
تعرض	-13.243
▁دلی	-13.2437
ترود	-13.2439
▁میا	-13.2441
▁گلاس	-13.245
یمن	-13.2456
▁یوت	-13.2473
یلتون	-13.2473
فرنی	-13.2475
▁موتورس	-13.2476
افات	-13.2477
▁صنو	-13.2487
مغان	-13.2488
▁فعالند	-13.2498
▁ناخو	-13.2506
کتور	-13.2518
ویژ	-13.252
لید	-13.2524
آب	-13.2525
رکز	-13.2538
درت	-13.2543
حذ	-13.2546
تروسپ	-13.2548
ریستو	-13.2551
▁حمی	-13.2565
صدق	-13.2571
▁صفات	-13.2577
دیس	-13.2589
▁تورس	-13.2595
سیس	-13.2619
▁درآور	-13.2619
▁واحده	-13.262
ملامت	-13.2621
خیل	-13.263
▁کشمیر	-13.2631
۵۶	-13.2643
▁کشا	-13.2645
راکت	-13.2647
▁اسحاقی	-13.2657
شاهی	-13.267
سط	-13.2672
طح	-13.2681
▁هرل	-13.2688
▁صادرکنن	-13.2698
پش	-13.2699
راتو	-13.2699
▁درگذشتگ	-13.2703
نزمن	-13.2729
▁اقبالی	-13.2734
▁کاش	-13.2743
▁پز	-13.2743
▁پون	-13.2763
۵۰۰	-13.277
▁اطلا	-13.2773
▁گردهما	-13.2789
کاوا	-13.2793
▁استخرا	-13.2796
صادف	-13.2797
سماع	-13.2803
چمن	-13.2805
یویا	-13.2806
مینی	-13.2813
▁قاتلی	-13.282
یگان	-13.2834
▁مدلی	-13.2837
میتسو	-13.2838
سیل	-13.2841
▁آسیاب	-13.2851
نوشتن	-13.2859
▁شکا	-13.2867
مردی	-13.2873
▁باردو	-13.2885
لیز	-13.2895
▁پیوندان	-13.2897
رابی	-13.2903
جده	-13.2906
تمان	-13.2915
انف	-13.2915
خار	-13.2918
▁ویول	-13.292
▁هنرش	-13.2922
▁شودبر	-13.2922
لنگر	-13.2923
مرت	-13.2941
لیتو	-13.2943
صور	-13.2957
منوعیت	-13.2961
▁بول	-13.2963
عش	-13.2964
معی	-13.297
▁مراو	-13.2973
مارش	-13.2993
گوپ	-13.2993
وفن	-13.2994
▁شهره	-13.3002
وچی	-13.3004
هد	-13.3009
▁تعزی	-13.3015
ریح	-13.3019
▁نامیدن	-13.3023
انگشت	-13.3025
گاری	-13.3041
▁دیز	-13.3058
جب	-13.306
الری	-13.3106
سترون	-13.311
مارکان	-13.3111
الک	-13.3112
▁خور	-13.3131
بوت	-13.3147
آخ	-13.3149
▁مواقعی	-13.3159
▁ایوب	-13.3168
▁آوریم	-13.3177
وصف	-13.3184
▁بازارگردان	-13.3185
دخواهان	-13.3185
▁تحر	-13.3188
▁درسا	-13.3192
▁مشو	-13.3195
تنی	-13.3197
۷۶	-13.3209
رع	-13.3209
سکین	-13.321
▁اتل	-13.3219
▁نامد	-13.3227
▁بمان	-13.3248
هلن	-13.3255
وستا	-13.3277
دهای	-13.3278
▁حما	-13.3286
عاده	-13.329
▁عبدالر	-13.3295
▁ناه	-13.3332
▁عادلا	-13.3336
رشا	-13.3336
▁الب	-13.3337
باق	-13.3343
افشانی	-13.3354
▁همپ	-13.3359
▁درگذشتند	-13.3362
تیس	-13.3363
عفر	-13.3376
سرفصل	-13.3376
لیخ	-13.3378
تراپ	-13.3384
ونده	-13.3403
▁هادس	-13.3413
▁بوسی	-13.3437
ائوس	-13.3438
فرت	-13.3438
▁بالدار	-13.3439
▁پاکیز	-13.3451
▁برسم	-13.3451
مایی	-13.3466
▁شف	-13.3468
رائ	-13.3472
▁زحمتش	-13.3473
دخواهانه	-13.3474
▁کاغذها	-13.3478
چا	-13.3478
اقش	-13.3479
خواستند	-13.3485
▁نامزده	-13.3496
▁ضخ	-13.3501
▁شهنا	-13.3505
لوگر	-13.3506
یاق	-13.3516
سولا	-13.3521
مترو	-13.3531
قتی	-13.3532
▁عار	-13.3561
آلا	-13.3568
حده	-13.3569
نجش	-13.3585
ژیو	-13.3586
لیاتی	-13.3598
دیوی	-13.3601
زوئ	-13.3605
▁کاستل	-13.361
دیکت	-13.3613
گلدار	-13.3615
▁سروک	-13.3618
رسیده	-13.3619
▁معای	-13.362
مام	-13.3624
▁مسج	-13.3626
▁برانداز	-13.3629
▁گنا	-13.3633
شهره	-13.3637
▁امنی	-13.365
برمی	-13.3655
روزی	-13.3659
وسازی	-13.3665
مج	-13.3669
هفت	-13.3683
▁یورد	-13.3688
▁کشورروز	-13.3719
▁انج	-13.3769
▁فدا	-13.3777
لمینگ	-13.3793
دینسو	-13.3794
لیان	-13.3795
▁بیفت	-13.3804
شستن	-13.3821
▁روشها	-13.3851
▁پاشی	-13.3857
الق	-13.3859
سکول	-13.3859
میرز	-13.3876
▁تارهای	-13.3881
نگون	-13.3887
▁مندل	-13.3891
▁مئ	-13.3895
تگاه	-13.3896
انتوس	-13.3911
یتی	-13.3916
ذو	-13.3935
ایستند	-13.3936
بودن	-13.3948
▁هواس	-13.3971
▁تمل	-13.3981
▁تاریکتر	-13.3987
۲۶۰	-13.3995
▁پاشیدن	-13.3998
▁هامحمد	-13.4029
▁فیور	-13.403
بوتی	-13.4047
لوده	-13.405
وشند	-13.4065
▁جل	-13.4069
▁یونیو	-13.4072
یوه	-13.4075
پتا	-13.4078
روژان	-13.4087
یندازیم	-13.4096
▁نخرید	-13.4098
ویس	-13.4099
موم	-13.4106
یوز	-13.4115
عکسی	-13.4121
▁پین	-13.4122
▁پات	-13.4123
▁بنو	-13.4124
▁سرخورد	-13.4125
اپیما	-13.4125
وزه	-13.4143
معه	-13.4145
رنت	-13.415
▁راپ	-13.415
▁ونت	-13.4178
پروف	-13.419
▁اکو	-13.4194
▁ناتالی	-13.4215
گلیسم	-13.4218
▁نبات	-13.4219
▁هاس	-13.4228
▁مفت	-13.4232
چار	-13.4241
ورتون	-13.4249
پورت	-13.4263
▁دوتای	-13.4275
▁شکای	-13.4307
دهه	-13.4327
▁جمهوریخواه	-13.4328
عدد	-13.4329
فرا	-13.433
یلدا	-13.4338
کاس	-13.434
▁ِ	-13.4367
اندازیم	-13.437
▁نصر	-13.4373
▁تباه	-13.4388
زبین	-13.4389
رشدی	-13.4389
لاغ	-13.4396
جار	-13.4397
پوآ	-13.4412
▁ننوشت	-13.4416
بانان	-13.4431
▁مونتا	-13.4443
▁باشی	-13.4455
▁جیو	-13.4458
یما	-13.4463
لدی	-13.4465
▁میک	-13.4469
▁غا	-13.4473
▁برگز	-13.4478
رجمه	-13.4482
▁ویلیس	-13.4486
فولا	-13.4491
▁کاندید	-13.4495
کورت	-13.45
قناع	-13.4508
امن	-13.4513
▁جنگید	-13.4525
▁هچ	-13.4546
▁یافتم	-13.4547
عط	-13.455
لن	-13.4563
▁کازو	-13.4563
ندیس	-13.4565
یای	-13.4567
▁پخت	-13.4578
▁بردار	-13.4584
▁اسلون	-13.4592
بشار	-13.4595
نسا	-13.4596
گرفت	-13.4602
برتو	-13.4626
▁مرده	-13.4639
نتو	-13.4649
نگت	-13.466
▁گنجا	-13.4668
▁کاملتر	-13.4686
▁متع	-13.4692
کاک	-13.4696
▁راهگشای	-13.4707
خریدند	-13.4716
دهند	-13.4723
گد	-13.4724
فونی	-13.4727
خور	-13.4735
▁اشکان	-13.4742
یارا	-13.475
لبه	-13.475
▁چت	-13.4783
▁پوشی	-13.4783
▁جنگجو	-13.479
بورسی۳	-13.4791
▁تازی	-13.4804
▁۲۱۸	-13.4805
وای	-13.4807
ویلا	-13.4827
تامین	-13.483
لع	-13.483
ساس	-13.4837
▁جش	-13.4851
▁مف	-13.4858
▁طلبی	-13.4862
▁سرایی	-13.4884
ارهای	-13.4885
▁نع	-13.489
ودرو	-13.4895
▁آذربایجانی	-13.4895
والو	-13.4907
اینده	-13.4909
میلیاردی	-13.4914
▁گیتاری	-13.4919
▁کوپ	-13.4928
▁ورند	-13.4929
وییچ	-13.4934
۳۱۴	-13.494
▁امرال	-13.4942
▁مفا	-13.4956
▁آین	-13.4958
▁نخود	-13.4984
اسم	-13.4995
زمایش	-13.5009
▁خاش	-13.5024
پیچ	-13.5055
سینا	-13.5059
ستمز	-13.5083
▁ممل	-13.5097
شای	-13.5112
▁۱۷۸	-13.5119
مدان	-13.5129
▁نابی	-13.5138
راکسی	-13.5142
▁ادوا	-13.5145
نتوس	-13.5147
پسر	-13.5163
▁تجر	-13.518
رسیویر	-13.5186
ناتی	-13.5199
وو	-13.5203
امان	-13.5204
ولشوی	-13.5209
یاهو	-13.5232
▁لیری	-13.5241
بروس	-13.5248
برو	-13.5249
▁کاد	-13.5281
سالت	-13.5285
▁رسیدم	-13.529
▁پاشو	-13.5292
قان	-13.5294
▁آیو	-13.5297
▁لار	-13.5299
ضو	-13.5314
ایز	-13.5325
ازهای	-13.5327
تیر	-13.535
خوف	-13.5364
هران	-13.5367
▁رباتی	-13.5368
▁نعل	-13.5394
▁کاره	-13.542
زمی	-13.5427
کال	-13.5434
▁عبدالو	-13.5435
▁میشو	-13.5438
ژا	-13.546
ندن	-13.5468
اخلاق	-13.547
لویی	-13.5471
برآوردها	-13.5478
▁ماکرو	-13.5479
نائو	-13.5487
۵۲	-13.5496
غدار	-13.5502
دآور	-13.5502
▁هوی	-13.5503
دخا	-13.5507
۱۶۵	-13.5514
▁پلن	-13.5516
▁استم	-13.553
بای	-13.5532
سوب	-13.5549
فیت	-13.5557
لیزا	-13.5566
شعا	-13.5569
▁ظاهرش	-13.5571
شتی	-13.5584
پلی	-13.5603
▁انصا	-13.5603
▁فاطمی	-13.5607
رگان	-13.561
▁سپاری	-13.5626
▁معال	-13.5635
هراب	-13.564
زما	-13.5641
نداشته	-13.5642
قید	-13.5649
زنده	-13.565
▁نیای	-13.5652
لیوان	-13.5652
▁سیس	-13.5654
صادر	-13.566
▁چرخی	-13.5667
▁هلا	-13.5668
▁زندگ	-13.5672
▁فروشگاهها	-13.5729
▁سوزن	-13.5734
یابند	-13.574
رعب	-13.574
انیان	-13.5757
انتری	-13.5761
▁تلک	-13.5765
▁تزار	-13.5767
نحل	-13.5793
رنامه	-13.5797
بلا	-13.58
چهر	-13.5801
نورد	-13.5803
▁کنت	-13.5828
لیچ	-13.5836
''	-13.5842
نازل	-13.5859
▁شنوی	-13.5876
چیزی	-13.5877
قر	-13.5881
▁صی	-13.589
▁سروی	-13.5894
▁هکر	-13.5913
نقیب	-13.5913
▁۴۱۰	-13.5918
مراه	-13.5924
اکا	-13.5935
منصف	-13.5937
اسپاس	-13.5942
ادر	-13.5955
مفهوم	-13.5957
قدان	-13.5974
سازان	-13.5974
▁دلت	-13.5975
گاس	-13.5977
بگذاری	-13.599
یتو	-13.5992
▁میزبانان	-13.6012
▁مقی	-13.6015
یدئو	-13.6031
ائیز	-13.6039
رانر	-13.6043
ناقل	-13.605
▁گلای	-13.606
▁ایزد	-13.6061
▁ندید	-13.6064
۰۹	-13.6083
ئن	-13.6085
ارزیا	-13.6093
▁بشمر	-13.6093
شین	-13.6094
▁قدی	-13.6097
▁وسو	-13.6114
▁عموی	-13.6118
سیام	-13.6123
دقت	-13.6129
المللی	-13.6143
تخم	-13.6185
▁تراش	-13.6193
▁میلیونر	-13.6197
▁توص	-13.6206
نون	-13.6211
جور	-13.622
▁درآمدش	-13.6228
▁کیک	-13.6233
اردن	-13.6249
ریتا	-13.6291
▁ببند	-13.6302
قویا	-13.6307
▁دریابی	-13.6332
▁زیرو	-13.6341
فتی	-13.6348
نف	-13.6353
آشو	-13.6363
رنا	-13.6368
▁میلیاردی	-13.6376
▁سوگن	-13.6381
▁ساو	-13.6381
خوا	-13.6387
▁هانت	-13.6388
رستی	-13.6392
ستره	-13.6404
▁اسکور	-13.6432
فروشیم	-13.6436
▁جسی	-13.6441
زش	-13.6441
گدا	-13.6443
▁ایما	-13.6448
بیلی	-13.6456
▁بسا	-13.6458
▁ابت	-13.6464
زگی	-13.6467
وریکو	-13.6467
▁اینه	-13.6486
▁ویو	-13.6487
گسترد	-13.6497
آینده	-13.6521
بح	-13.6538
نهم	-13.6556
▁هاستل	-13.6563
ورانگو	-13.6565
وساز	-13.6566
ردیف	-13.6576
▁آنگ	-13.6579
یلمن	-13.6579
▁بازگشتن	-13.6585
▁مجرای	-13.6592
لودی	-13.6594
▁بکش	-13.66
کیف	-13.6601
فرش	-13.662
وروف	-13.6629
کولی	-13.6635
کنار	-13.6654
اپل	-13.6656
ابلاغ	-13.666
▁سمپ	-13.6662
میشل	-13.6664
انشان	-13.6674
تفا	-13.6675
▁میلانی	-13.6677
جباری	-13.6682
نتا	-13.669
لگی	-13.6693
امگاه	-13.6698
نسیم	-13.6699
دش	-13.6702
بهانه	-13.6708
▁اطرافش	-13.6713
▁ماندگارتر	-13.6718
▁خودستا	-13.6729
▁جهانبخ	-13.6732
▁اوک	-13.6732
۹۲	-13.6746
▁ماموری	-13.6752
فتا	-13.6771
هاپ	-13.6776
▁مصد	-13.6786
▁پارت	-13.68
▁گنب	-13.681
نونی	-13.6812
دلفی	-13.6814
▁یوور	-13.6821
ندین	-13.6823
▁اندبر	-13.6827
عصب	-13.6837
نبع	-13.6854
بدن	-13.6854
تاکو	-13.686
▁چل	-13.6861
یمز	-13.6879
رایی	-13.6885
▁پاکی	-13.6896
نگار	-13.69
▁ثق	-13.6902
سکانس	-13.6924
▁ساند	-13.694
▁دوروت	-13.6948
چیچ	-13.6955
یرا	-13.6964
▁بیماریهای	-13.6979
عات	-13.6992
▁اودی	-13.7
آماد	-13.7001
برم	-13.7002
▁پاترو	-13.7003
▁صفی	-13.7004
ندازه	-13.7012
گلو	-13.7012
▁راکد	-13.7014
نطور	-13.7014
▁زوئ	-13.7018
▁منص	-13.7041
▁دیگرش	-13.7046
۸۳	-13.7049
آزاد	-13.7051
مبل	-13.7059
▁هردو	-13.706
دسازی	-13.7074
▁ضرو	-13.7077
▁میکر	-13.7081
▁پارکها	-13.709
آزمو	-13.7122
رنده	-13.7131
▁بارت	-13.7136
اتفاق	-13.7149
هدی	-13.7153
▁جها	-13.7161
▁زیرین	-13.7162
همسر	-13.7163
کاه	-13.7164
▁رفتارش	-13.717
▁پره	-13.7184
▁ابری	-13.7191
▁بخشند	-13.7212
▁میدا	-13.7227
دامس	-13.7241
▁طبا	-13.7246
واس	-13.7249
پارل	-13.7249
▁هزارم	-13.7257
ندتر	-13.726
نهاد	-13.727
انزی	-13.7275
روشی	-13.7278
عملی	-13.728
▁شدشه	-13.728
ستگاه	-13.7292
مود	-13.7307
اهت	-13.7311
دز	-13.7341
دونا	-13.7343
ونومی	-13.7346
وژ	-13.7348
رزهای	-13.735
میو	-13.7352
ماند	-13.7358
ساری	-13.7362
حات	-13.7364
▁ورای	-13.737
هوا	-13.737
گام	-13.7372
▁آسای	-13.7379
موس	-13.739
سهام	-13.7396
▁معت	-13.7397
لامت	-13.7408
▁فص	-13.7415
یورنس	-13.7428
برهای	-13.7429
چن	-13.7438
▁خاوی	-13.7452
اتوری	-13.7454
سپیر	-13.7458
▁برخوردها	-13.7459
دمین	-13.7474
نشا	-13.7497
یاروی	-13.7501
حیط	-13.7503
ثی	-13.7507
روفی	-13.7507
وبین	-13.7508
پنسا	-13.7512
امنیت	-13.7514
هید	-13.7514
▁معاند	-13.7514
▁واری	-13.7521
▁مخاطبانم	-13.7521
کونی	-13.7524
اصم	-13.7534
اکمل	-13.7554
انورا	-13.7557
اروی	-13.7559
۰۷	-13.756
کثی	-13.7572
▁گسترد	-13.7578
▁هوشی	-13.7584
لدو	-13.7584
رعامل	-13.7586
▁سلمانی	-13.7589
تلویزیون	-13.7603
▁مائو	-13.7609
عراق	-13.7647
مبارز	-13.7649
▁پرگا	-13.7649
اورز	-13.7657
سینما	-13.7659
بازگش	-13.7663
دران	-13.7681
▁سازیم	-13.7692
ئیز	-13.7698
ریتانی	-13.7709
ریض	-13.7712
▁ایمپ	-13.7719
افکا	-13.7723
▁درخشیدن	-13.7733
پوزی	-13.7753
▁ارگانی	-13.7784
متهم	-13.7788
بازگشت	-13.7789
یوتی	-13.7794
▁عرا	-13.7799
یستی	-13.7811
▁دب	-13.7811
کلور	-13.7823
رمی	-13.7827
جزی	-13.7828
▁رسال	-13.7842
ولد	-13.7844
▁رنجی	-13.7851
بوری	-13.7855
آمدتر	-13.786
نسه	-13.7868
دیم	-13.7872
اشبور	-13.7885
وئن	-13.7885
▁متهما	-13.7904
تعطیل	-13.7912
▁جما	-13.7916
رینیو	-13.792
▁پوس	-13.7924
▁کراس	-13.7933
▁آدا	-13.7938
یشی	-13.7941
انرژی	-13.7947
وانگ	-13.7951
فرهنگ	-13.7952
ناپولی	-13.797
ارسال	-13.7973
رآباد	-13.7976
گسترده	-13.7979
▁الق	-13.7983
▁پدی	-13.7987
کنشی	-13.7988
رمیم	-13.8003
▁آوی	-13.8037
تأ	-13.804
▁کفا	-13.8041
گم	-13.8044
کودکان	-13.8044
▁مخد	-13.8049
▁کود	-13.8053
▁تعذی	-13.8065
▁تعار	-13.8089
ارتباط	-13.8096
قریب	-13.8102
▁پد	-13.8108
ارج	-13.811
▁ممت	-13.811
ندنی	-13.8118
▁متخ	-13.8127
جلو	-13.8128
اسفند	-13.8136
دستگاه	-13.8152
ذر	-13.8152
کشورها	-13.8177
▁تض	-13.8179
▁هدفم	-13.8185
جانبدار	-13.8187
مشکلات	-13.8194
▁آد	-13.82
پزشکی	-13.8201
▁چان	-13.8206
▁جودود	-13.822
▁فعالی	-13.822
وکسین	-13.8231
دارهای	-13.8234
ائیه	-13.8234
▁برادرها	-13.8236
نقی	-13.8239
نکی	-13.8243
امنیتی	-13.8244
▁رقصند	-13.8255
▁ردی	-13.8259
طراح	-13.8271
نعط	-13.8288
▁تراشی	-13.8294
طب	-13.8295
اتکلیف	-13.8301
▁متض	-13.8305
ونس	-13.8306
سریال	-13.8322
▁۱۷۷	-13.8337
پروژه	-13.8339
یتسو	-13.834
▁گوتنب	-13.8352
نفرانس	-13.8352
پاس	-13.8361
رساند	-13.8366
▁هان	-13.8383
نظام	-13.8385
مگر	-13.839
مبتلا	-13.8405
▁محبوبی	-13.8408
▁هیس	-13.8412
شق	-13.8416
خواهم	-13.8418
ابلوی	-13.842
یگری	-13.8425
▁مفص	-13.8426
زارهای	-13.8438
شامل	-13.8438
کوچک	-13.8442
مصوب	-13.8442
بگیرد	-13.8462
شیا	-13.8471
▁پارسا	-13.8476
احتمالا	-13.8477
گردد	-13.848
بلیت	-13.8492
▁تاثیرگذارتر	-13.8494
کارگردان	-13.8494
▁،	-13.8498
عکاسی	-13.8507
▁۱۷۱۰	-13.8514
ونزوئلا	-13.8517
دفاع	-13.8523
آوریل	-13.8526
آرژانتین	-13.8531
▁آزمای	-13.8536
▁چرت	-13.8537
▁بودا	-13.8537
تجارت	-13.8539
واپسی	-13.8542
▁موسیق	-13.8542
سرا	-13.8544
برنده	-13.8557
جدول	-13.8559
▁بازها	-13.856
لاد	-13.856
مذاکر	-13.856
مقایس	-13.8562
▁تقل	-13.8563
بایرن	-13.8563
پرواز	-13.8564
▁بونو	-13.8575
فضای	-13.8581
ترو	-13.8582
اونت	-13.8588
نظارت	-13.8605
نکا	-13.8609
اعمال	-13.861
عدالت	-13.8612
▁کارا	-13.8615
مناطق	-13.8619
▁قرا	-13.8619
پروازهای	-13.8625
تهدید	-13.863
▁بوهای	-13.8632
طن	-13.8633
سراسر	-13.8634
موفقیت	-13.8637
بیرون	-13.8642
تصویری	-13.8643
۰۲	-13.8649
وپولیت	-13.8653
پرا	-13.8658
▁کرای	-13.8659
رعایت	-13.8665
عم	-13.8669
وئید	-13.8683
▁بازند	-13.8689
▁گیره	-13.8689
مواجه	-13.869
افغان	-13.8691
بالای	-13.8692
بریتانیایی	-13.8697
۲۰۲۱	-13.8697
▁رین	-13.871
▁پاین	-13.8712
معتقد	-13.872
ورزشی	-13.8722
سخنران	-13.8723
سلان	-13.8724
▁استنا	-13.8731
موافقت	-13.874
جشن	-13.8744
شدنی	-13.8744
▁درآم	-13.8748
اوراق	-13.8755
▁زنج	-13.8758
طبیعی	-13.876
آید	-13.8766
▁انح	-13.8767
فرهنگی	-13.8775
موسی	-13.8776
گذارد	-13.8786
▁نسی	-13.8791
▁بگذ	-13.8796
شکار	-13.8799
مالیات	-13.88
پاکستان	-13.8804
اینترنت	-13.8813
اکثر	-13.8817
برداشت	-13.882
تحلیل	-13.8823
دریا	-13.8832
شاعر	-13.8834
کشاورز	-13.884
▁یولی	-13.8845
موزه	-13.8847
خلاف	-13.885
سکوت	-13.8852
مضا	-13.8854
ابر	-13.8855
زنش	-13.8856
▁افز	-13.8857
اتم	-13.8858
آموزش	-13.8867
افزوده	-13.8873
عدی	-13.8879
آلبوم	-13.888
نیویورک	-13.8886
پیام	-13.8886
نسان	-13.8892
ایا	-13.8894
بهشت	-13.8896
صولا	-13.8898
▁گلا	-13.89
لوکه	-13.8908
مردان	-13.8908
یدمن	-13.8912
کارکنان	-13.8914
معامل	-13.8919
▁الا	-13.8923
سهیل	-13.8924
ارتر	-13.8934
▁مارکی	-13.8935
نوامبر	-13.894
درحال	-13.8941
دارایی	-13.8942
اهمیت	-13.8943
جنگل	-13.8945
▁لگ	-13.8945
نوشت	-13.8946
کنسرت	-13.8958
زخمی	-13.8964
▁فیلترکنند	-13.8965
آهنگ	-13.897
مخالفت	-13.8971
هاست	-13.8971
سلمان	-13.8974
زندانیان	-13.8975
جنس	-13.8977
صنایع	-13.8983
فرودگاه	-13.8987
حفاظت	-13.8988
متعل	-13.8991
قربانیان	-13.8994
ارقام	-13.8996
آسمان	-13.8997
اینستاگرام	-13.8998
آنلاین	-13.9003
دستمزد	-13.9003
▁باشگا	-13.9004
اقل	-13.9006
تأم	-13.9009
موشک	-13.9021
فرزند	-13.9023
حزب	-13.9023
نرم	-13.9034
نحو	-13.9035
▁راهکارها	-13.9042
اخبار	-13.9044
صلاحیت	-13.9049
طرفداران	-13.9051
اماتیک	-13.9051
ستایی	-13.9053
سوپر	-13.9053
▁۱۸۷	-13.9054
▁حسا	-13.9068
▁پایا	-13.9075
شعار	-13.9076
▁ایج	-13.9079
رویکرد	-13.9081
تصوی	-13.9085
یمو	-13.9089
کلمبیا	-13.909
▁گوست	-13.9093
تمدید	-13.9094
▁منط	-13.9097
▁مخف	-13.9097
متخصص	-13.9098
خزان	-13.9099
پارلمان	-13.9099
▁۱۷۹	-13.9099
داوطلبان	-13.9101
تکرار	-13.9101
سوریه	-13.9107
یلیارد	-13.9108
▁نشاندن	-13.9109
دختران	-13.9112
پرتاب	-13.9112
مدرسه	-13.9112
محمو	-13.9113
سپار	-13.9115
۲۰۱۵	-13.9117
مسئ	-13.912
گردان	-13.9123
زمستان	-13.9123
کارشناس	-13.9127
نتونیو	-13.9129
آفریقا	-13.913
قتصاد	-13.9131
دستورالعمل	-13.9131
▁ناهم	-13.9134
نیروگاه	-13.9135
شفاف	-13.9137
رقیب	-13.9137
چشمگیر	-13.9138
▁راهگشا	-13.9139
ژنرا	-13.914
قتل	-13.9141
تخلف	-13.9141
استاندار	-13.9143
برادر	-13.9149
جیمز	-13.9151
روایت	-13.9151
▁نیمو	-13.9152
فوریه	-13.9154
هواپیمای	-13.9154
خسارت	-13.9156
اصلی	-13.9158
دسامبر	-13.9162
سعی	-13.9163
▁غنا	-13.9165
ابتدای	-13.9165
▁امروزی	-13.9166
ائیم	-13.9166
غافلگیر	-13.9166
متولد	-13.9166
تخت	-13.9167
قضایی	-13.9172
پهلوی	-13.9177
▁شهرتش	-13.9183
علائم	-13.9183
شصت	-13.9184
رالد	-13.9186
تقوی	-13.9186
روغن	-13.9186
مسافر	-13.9189
هافبک	-13.9191
مجازات	-13.9193
▁نقاشان	-13.9194
سکا	-13.9194
تاسیس	-13.9196
▁مارتا	-13.9204
تقاضای	-13.9208
محبوب	-13.9216
ستری	-13.9219
موقع	-13.9219
پاییز	-13.9224
انع	-13.9225
فایل	-13.9226
تحولات	-13.9226
وانا	-13.9229
بازرسان	-13.9229
امکانات	-13.9232
اسپوتین	-13.9234
مرجان	-13.9234
مطلب	-13.9238
تراکتور	-13.9239
محکومیت	-13.924
یفا	-13.9241
ماع	-13.9243
فرار	-13.9243
▁۱۲۴	-13.9243
فیوری	-13.9244
مثال	-13.9246
رادیو	-13.9246
ساعات	-13.9254
سپت	-13.9254
مطمئن	-13.9256
برگزیت	-13.9269
مداران	-13.927
یترات	-13.9271
خطوط	-13.9272
ویلموتس	-13.9273
▁عظ	-13.9274
دلجو	-13.9276
کالاهای	-13.928
تروریست	-13.9282
▁یاس	-13.9284
مذهبی	-13.9284
چالش	-13.9285
انوا	-13.9286
گزارشگر	-13.9287
یاران	-13.9288
سیده	-13.9291
بوندس	-13.9291
بامداد	-13.9292
▁لیپی	-13.9293
وسایل	-13.9294
▁۱۰۵۰	-13.9296
نیوزیلند	-13.9299
فریاد	-13.9299
▁پرکارت	-13.9301
معارف	-13.9304
ولسوال	-13.9304
فراگیر	-13.9306
اوکراین	-13.9309
نکرده	-13.931
▁گرانبها	-13.9316
برخلاف	-13.9317
برانکو	-13.932
دانمارک	-13.932
[...]
