{
  "src_word2id": {
    "<pad>": 0,
    "<s>": 1,
    "</s>": 2,
    "<unk>": 3,
    "ی": 4,
    ".": 5,
    "ه": 6,
    "▁است": 7,
    "▁": 8,
    "▁می": 9,
    "▁های": 10,
    "▁ایران": 11,
    "▁شده": 12,
    "،": 13,
    "▁سال": 14,
    "▁بود": 15,
    "▁یک": 16,
    "▁ها": 17,
    "▁شد": 18,
    "▁کرده": 19,
    "▁تصویر": 20,
    "▁ای": 21,
    "▁کرد": 22,
    "منبع": 23,
    "▁بر": 24,
    "ان": 25,
    "▁شود": 26,
    "▁گفته": 27,
    "▁دو": 28,
    "▁کند": 29,
    "▁خود": 30,
    "؛": 31,
    "ن": 32,
    "▁اند": 33,
    "▁کرونا": 34,
    "▁در": 35,
    "ت": 36,
    "ش": 37,
    "▁آمریکا": 38,
    "▁پیش": 39,
    "▁ماه": 40,
    "▁گزارش": 41,
    "▁کشور": 42,
    "▁روز": 43,
    "▁فوتبال": 44,
    "▁بی": 45,
    "▁تیم": 46,
    "▁بازی": 47,
    "▁ا": 48,
    "▁گفت": 49,
    "▁دارد": 50,
    "▁دهد": 51,
    "▁کار": 52,
    "▁اعلام": 53,
    "ین": 54,
    "▁م": 55,
    "▁قرار": 56,
    "▁کنند": 57,
    "▁دیگر": 58,
    "▁شرکت": 59,
    "▁داده": 60,
    "▁هزار": 61,
    "▁یا": 62,
    "▁به": 63,
    "▁و": 64,
    "▁دولت": 65,
    "▁دست": 66,
    "▁رئیس": 67,
    "▁با": 68,
    "م": 69,
    "▁بین": 70,
    "▁خواهد": 71,
    "▁سه": 72,
    "▁پس": 73,
    "▁گذشته": 74,
    "▁آقای": 75,
    "▁جهان": 76,
    "▁ب": 77,
    "▁گوید": 78,
    "▁هر": 79,
    "▁بار": 80,
    "▁درباره": 81,
    "▁لیگ": 82,
    "▁تهران": 83,
    "▁درصد": 84,
    "▁آنها": 85,
    "در": 86,
    "▁جدید": 87,
    "▁دلیل": 88,
    "▁افزایش": 89,
    "▁داد": 90,
    "▁میلیون": 91,
    "▁بوده": 92,
    "▁نفر": 93,
    "ر": 94,
    "ب": 95,
    "▁یکی": 96,
    "▁چند": 97,
    "ا": 98,
    "'": 99,
    "▁قیمت": 100,
    "▁بعد": 101,
    "های": 102,
    "▁'": 103,
    "این": 104,
    "▁افغانستان": 105,
    "▁سازمان": 106,
    "▁ملی": 107,
    "▁از": 108,
    "▁جهانی": 109,
    ":": 110,
    "▁هفته": 111,
    "▁بازار": 112,
    "▁حال": 113,
    "د": 114,
    "▁همه": 115,
    "▁فیلم": 116,
    "▁ویروس": 117,
    "▁نمی": 118,
    "▁خبر": 119,
    "▁جمهوری": 120,
    "▁برگزار": 121,
    "▁ترین": 122,
    "▁نام": 123,
    "▁عنوان": 124,
    "▁نظر": 125,
    "▁مورد": 126,
    "▁باید": 127,
    "▁دلار": 128,
    "▁نفت": 129,
    "▁هستند": 130,
    "▁داشت": 131,
    "▁ت": 132,
    "▁علی": 133,
    "▁گرفته": 134,
    "▁وزارت": 135,
    "▁مجلس": 136,
    "▁بیش": 137,
    "▁روی": 138,
    "▁تولید": 139,
    "▁کردند": 140,
    "ند": 141,
    "▁شب": 142,
    "▁امروز": 143,
    "▁نیست": 144,
    "▁اروپا": 145,
    "▁شدن": 146,
    "▁سر": 147,
    "▁بزرگ": 148,
    "▁سی": 149,
    "▁آغاز": 150,
    "▁بودند": 151,
    "▁کاهش": 152,
    "▁چین": 153,
    "▁مقابل": 154,
    "▁ن": 155,
    "ع": 156,
    "به": 157,
    "▁اخیر": 158,
    "▁نیز": 159,
    "▁وزیر": 160,
    "ل": 161,
    "▁بریتانیا": 162,
    "▁بانک": 163,
    "▁بیشتر": 164,
    "▁را": 165,
    "▁همچنین": 166,
    "▁پایان": 167,
    "▁حدود": 168,
    "▁نشان": 169,
    "▁تحریم": 170,
    "▁راه": 171,
    "▁داشته": 172,
    "▁آن": 173,
    "▁ایرانی": 174,
    "▁برنامه": 175,
    "▁زمان": 176,
    "▁انجام": 177,
    "که": 178,
    "▁اول": 179,
    "▁اقتصادی": 180,
    "▁حضور": 181,
    "▁ف": 182,
    "▁باشگاه": 183,
    "▁اش": 184,
    "▁باشد": 185,
    "ز": 186,
    "▁تر": 187,
    "▁صورت": 188,
    "▁باز": 189,
    "▁اساس": 190,
    "▁اولین": 191,
    "▁شیو": 192,
    "▁منتشر": 193,
    "▁توافق": 194,
    "ات": 195,
    "▁واکسن": 196,
    "▁هایی": 197,
    "ری": 198,
    "▁بخش": 199,
    "▁استفاده": 200,
    "▁شهر": 201,
    "▁جمله": 202,
    "▁فصل": 203,
    "له": 204,
    "▁گل": 205,
    "دامه": 206,
    "▁میان": 207,
    "س": 208,
    "آقای": 209,
    "▁شوند": 210,
    "▁وجود": 211,
    "▁رسید": 212,
    "▁مردم": 213,
    "؟": 214,
    "▁زندگی": 215,
    "▁گروه": 216,
    "▁س": 217,
    "▁حقوق": 218,
    "▁مسابقه": 219,
    "▁ر": 220,
    "▁چهار": 221,
    "▁مسابقات": 222,
    "▁میلیارد": 223,
    "▁دارند": 224,
    "▁کم": 225,
    "▁المللی": 226,
    "▁همین": 227,
    "▁جام": 228,
    "او": 229,
    "▁مقام": 230,
    "انه": 231,
    "ترین": 232,
    "و": 233,
    "▁تنها": 234,
    "▁تومان": 235,
    "▁خواست": 236,
    "▁گیری": 237,
    "▁زنان": 238,
    "▁ارز": 239,
    "▁حالی": 240,
    "▁ک": 241,
    "▁شدند": 242,
    "▁شرایط": 243,
    "▁تمام": 244,
    "▁د": 245,
    "▁ماشین": 246,
    "▁زیاد": 247,
    "▁وقت": 248,
    "▁غیر": 249,
    "▁گرفت": 250,
    "▁تواند": 251,
    "▁خانه": 252,
    "گی": 253,
    "▁آینده": 254,
    "▁۲۰": 255,
    "▁اسلامی": 256,
    "▁بسیاری": 257,
    "▁فعالیت": 258,
    "▁تلاش": 259,
    "عث": 260,
    "▁برتر": 261,
    "▁بیماری": 262,
    "▁کردن": 263,
    "▁قبل": 264,
    "▁وارد": 265,
    "▁اجتماعی": 266,
    "▁افراد": 267,
    "▁کشورهای": 268,
    "▁محمد": 269,
    "رسی": 270,
    "▁دوران": 271,
    "▁خارجه": 272,
    "▁وضعیت": 273,
    "▁امسال": 274,
    "▁انتخابات": 275,
    "▁هیچ": 276,
    "▁اقتصاد": 277,
    "▁بورس": 278,
    "▁ساله": 279,
    "▁نرخ": 280,
    "▁روحانی": 281,
    "▁مختلف": 282,
    "▁طور": 283,
    "▁سوی": 284,
    "▁توان": 285,
    "ق": 286,
    "یه": 287,
    "▁مرکزی": 288,
    "▁نزدیک": 289,
    "▁قهرمان": 290,
    "▁تصمیم": 291,
    "▁بسیار": 292,
    "▁فروش": 293,
    "نه": 294,
    "▁کمک": 295,
    "▁گویند": 296,
    "▁تغییر": 297,
    "▁ولی": 298,
    "▁پی": 299,
    "▁مدت": 300,
    "▁طرح": 301,
    "▁خانواده": 302,
    "▁رسان": 303,
    "▁قهرمانی": 304,
    "▁زمین": 305,
    "▁جای": 306,
    "▁ریاست": 307,
    "▁حالا": 308,
    "▁تازه": 309,
    "▁ه": 310,
    "▁سرمایه": 311,
    "▁مجموع": 312,
    "▁نخست": 313,
    "▁پول": 314,
    "▁برابر": 315,
    "▁دوره": 316,
    "▁استان": 317,
    "▁دهه": 318,
    "▁جان": 319,
    "▁تاریخ": 320,
    "▁پنج": 321,
    "▁۱۹": 322,
    "▁مهم": 323,
    "▁اثر": 324,
    "▁برجام": 325,
    "▁همراه": 326,
    "شان": 327,
    "▁نه": 328,
    "ک": 329,
    "▁دوم": 330,
    "▁شروع": 331,
    "قط": 332,
    "شورای": 333,
    "▁اطلاعات": 334,
    "▁پیدا": 335,
    "▁بعضی": 336,
    "▁شکست": 337,
    "▁موسیقی": 338,
    "▁اصلی": 339,
    "▁پرسپولیس": 340,
    "یت": 341,
    "▁۴": 342,
    "▁منطقه": 343,
    "▁رسمی": 344,
    "▁برای": 345,
    "▁منبع": 346,
    "ار": 347,
    "زه": 348,
    "ده": 349,
    "▁مرکز": 350,
    "یک": 351,
    "▁رقابت": 352,
    "▁۵": 353,
    "▁آمار": 354,
    "▁خودرو": 355,
    "▁رسیده": 356,
    "▁هسته": 357,
    "▁زن": 358,
    "▁نقش": 359,
    "▁استقلال": 360,
    "▁درگذشت": 361,
    "▁کنار": 362,
    "▁توجه": 363,
    "▁پر": 364,
    "▁سهام": 365,
    "▁آژانس": 366,
    "▁۱۰": 367,
    "▁عکس": 368,
    "▁دنیا": 369,
    "▁آمریکایی": 370,
    "▁نوشته": 371,
    "▁نیمه": 372,
    "▁سفر": 373,
    "ایی": 374,
    "▁زیر": 375,
    "ست": 376,
    "▁کل": 377,
    "▁برخ": 378,
    "▁واکنش": 379,
    "▁دی": 380,
    "▁که": 381,
    "▁حاضر": 382,
    "▁میلادی": 383,
    "▁مراسم": 384,
    "▁حمله": 385,
    "▁رفت": 386,
    "با": 387,
    "▁جمهور": 388,
    "▁۲": 389,
    "▁اعتراض": 390,
    "▁حمایت": 391,
    "▁تب": 392,
    "▁بالا": 393,
    "▁کمتر": 394,
    "▁یافته": 395,
    "▁انتشار": 396,
    "ثبت": 397,
    "▁عرض": 398,
    "نامه": 399,
    "ها": 400,
    "▁بازیکن": 401,
    "▁کتاب": 402,
    "▁دنبال": 403,
    "▁فرانسه": 404,
    "▁ش": 405,
    "▁رو": 406,
    "▁آلمان": 407,
    "▁فدراسیون": 408,
    "▁ممکن": 409,
    "▁شش": 410,
    "▁نشده": 411,
    "گان": 412,
    "▁مالی": 413,
    "▁همکاری": 414,
    "▁اینک": 415,
    "▁سیاسی": 416,
    "نی": 417,
    "▁کنیم": 418,
    "بر": 419,
    "توسط": 420,
    "▁عربستان": 421,
    "شنبه": 422,
    "▁سازی": 423,
    "▁دریافت": 424,
    "▁دور": 425,
    "▁آب": 426,
    "▁آ": 427,
    "▁بودجه": 428,
    "▁ترامپ": 429,
    "▁پرداخت": 430,
    "▁طی": 431,
    "▁هم": 432,
    "▁او": 433,
    "▁تعداد": 434,
    "▁موج": 435,
    "▁جا": 436,
    "▁موضوع": 437,
    "▁۲۰۲۰": 438,
    "▁اتحاد": 439,
    "▁گذاری": 440,
    "▁کشتی": 441,
    "▁خرید": 442,
    "▁قهرمانان": 443,
    "▁دهند": 444,
    "▁پیروز": 445,
    "▁شمار": 446,
    "▁الله": 447,
    "▁نهایی": 448,
    "▁خبرگزا": 449,
    "▁پرونده": 450,
    "▁دانشگاه": 451,
    "▁اشار": 452,
    "▁آزاد": 453,
    "▁انرژی": 454,
    "▁ندارد": 455,
    "▁ویژه": 456,
    "▁ساعت": 457,
    "▁اجرای": 458,
    "▁مبارز": 459,
    "▁رسد": 460,
    "▁ترکیه": 461,
    "▁سابق": 462,
    "▁روند": 463,
    "▁پ": 464,
    "▁بدو": 465,
    "▁بازداشت": 466,
    "اکنون": 467,
    "▁این": 468,
    "▁همان": 469,
    "▁بازیکنان": 470,
    "▁چنین": 471,
    "▁عراق": 472,
    "▁دولتی": 473,
    "▁سیاست": 474,
    "▁مربوط": 475,
    "▁آمده": 476,
    "▁اقدام": 477,
    "حتی": 478,
    "▁مدیر": 479,
    "دیل": 480,
    "▁قابل": 481,
    "▁طریق": 482,
    "▁هدف": 483,
    "▁ابتلا": 484,
    "ِ": 485,
    "کسب": 486,
    "▁کر": 487,
    "▁رشد": 488,
    "از": 489,
    "▁دیدار": 490,
    "▁صد": 491,
    "▁مذاکرات": 492,
    "ای": 493,
    "▁ح": 494,
    "گیری": 495,
    "▁خام": 496,
    "▁تایید": 497,
    "▁زبان": 498,
    "▁کننده": 499,
    "▁درآمد": 500,
    "▁ورزش": 501,
    "▁زمانی": 502,
    "▁خارجی": 503,
    "▁هشدار": 504,
    "▁متهم": 505,
    "▁۳": 506,
    "▁مرگ": 507,
    "جه": 508,
    "▁اتمی": 509,
    "▁آزمایش": 510,
    "▁خواهند": 511,
    "▁نیاز": 512,
    "▁بهداشت": 513,
    "▁یافت": 514,
    "▁میزان": 515,
    "▁فاصله": 516,
    "▁ایجاد": 517,
    "▁زمینه": 518,
    "▁ساخت": 519,
    "▁تلویزیون": 520,
    "▁ده": 521,
    "▁نمایش": 522,
    "▁بیمارستان": 523,
    "▁نامه": 524,
    "▁زده": 525,
    "▁کشته": 526,
    "▁حسن": 527,
    "▁ج": 528,
    "▁خارج": 529,
    "▁مشخص": 530,
    "▁جریان": 531,
    "▁سرمربی": 532,
    "▁مرد": 533,
    "▁نیم": 534,
    "▁آسیا": 535,
    ")": 536,
    "▁لیورپول": 537,
    "▁لغو": 538,
    "چه": 539,
    "▁بشر": 540,
    "ینه": 541,
    "▁هفت": 542,
    "نوز": 543,
    "▁جنوبی": 544,
    "▁معاون": 545,
    "▁امنیت": 546,
    "▁انسان": 547,
    "▁بازگشت": 548,
    "▁زندان": 549,
    "▁محدودیت": 550,
    "▁انگلیس": 551,
    "▁۶": 552,
    "▁اعضای": 553,
    "▁آثار": 554,
    "▁نمایندگان": 555,
    "▁پلیس": 556,
    "▁نا": 557,
    "می": 558,
    "▁سوم": 559,
    "▁دیده": 560,
    "▁دادگاه": 561,
    "▁روسیه": 562,
    "▁محل": 563,
    "▁جلو": 564,
    "▁.": 565,
    "▁چرا": 566,
    "▁بیانیه": 567,
    "▁تاثیر": 568,
    "▁قانون": 569,
    "▁کامل": 570,
    "▁(": 571,
    "▁نمایند": 572,
    "▁رهبر": 573,
    "▁خطر": 574,
    "▁صندوق": 575,
    "▁قطع": 576,
    "▁سخنگوی": 577,
    "▁کمی": 578,
    "▁خط": 579,
    "▁عضو": 580,
    "▁نگاه": 581,
    "▁طرف": 582,
    "▁حکومت": 583,
    "ون": 584,
    "▁متحده": 585,
    "▁بالای": 586,
    "▁لندن": 587,
    "▁ارزش": 588,
    "▁اسرائیل": 589,
    "▁نسبت": 590,
    "▁سابقه": 591,
    "▁سخت": 592,
    "▁سطح": 593,
    "▁امنیتی": 594,
    "▁آی": 595,
    "▁نبود": 596,
    "▁شورا": 597,
    "▁تعطیل": 598,
    "▁المپیک": 599,
    "▁رود": 600,
    "▁رد": 601,
    "▁خاطر": 602,
    "▁ساخته": 603,
    "▁سن": 604,
    "▁جو": 605,
    "▁برد": 606,
    "▁کابل": 607,
    "▁مدل": 608,
    "▁شناخت": 609,
    "▁همزمان": 610,
    "▁انتخاب": 611,
    "▁صادرات": 612,
    "▁خوب": 613,
    "▁طول": 614,
    "▁نامزد": 615,
    "▁عمومی": 616,
    "▁سپاه": 617,
    "▁مرح": 618,
    "▁سو": 619,
    "▁جاری": 620,
    "▁گسترده": 621,
    "▁قرنطینه": 622,
    "▁افت": 623,
    "▁قرارداد": 624,
    "▁نقل": 625,
    "▁حکم": 626,
    "▁تح": 627,
    "▁تو": 628,
    "▁آخری": 629,
    "▁مرغ": 630,
    "▁دوبار": 631,
    "▁توانست": 632,
    "▁نشست": 633,
    "▁ام": 634,
    "▁انقلاب": 635,
    "▁شکل": 636,
    "روز": 637,
    "▁پزشکی": 638,
    "▁سالگی": 639,
    "▁جنگ": 640,
    "▁امتیاز": 641,
    "▁هز": 642,
    "▁چهارم": 643,
    "▁بخشی": 644,
    "▁مطرح": 645,
    "مین": 646,
    "▁دیگری": 647,
    "الات": 648,
    "▁جلسه": 649,
    "▁رکورد": 650,
    "▁۱۳": 651,
    "▁کودکان": 652,
    "▁شدید": 653,
    "▁۳۰": 654,
    "▁ظریف": 655,
    "▁۲۰۰": 656,
    "▁برنده": 657,
    "▁داستان": 658,
    "▁جدی": 659,
    "▁چ": 660,
    "▁بهتری": 661,
    "یم": 662,
    "▁امور": 663,
    "▁۲۵": 664,
    "▁صنعت": 665,
    "▁تع": 666,
    "▁انتقال": 667,
    "اما": 668,
    "▁اتهام": 669,
    "▁ارائه": 670,
    "▁روزهای": 671,
    "▁قو": 672,
    "▁تنیس": 673,
    "▁منابع": 674,
    "▁فشار": 675,
    "▁ورزشگاه": 676,
    "▁۲۰۱۹": 677,
    "▁چهر": 678,
    "▁معرف": 679,
    "▁حرکت": 680,
    "▁نظامی": 681,
    "ره": 682,
    "▁هوای": 683,
    "▁انتظار": 684,
    "▁دستگاه": 685,
    "▁رای": 686,
    "▁نکرده": 687,
    "▁متوقف": 688,
    "▁گرفتن": 689,
    "▁ترک": 690,
    "▁۱۴۰۰": 691,
    "▁اتفاق": 692,
    "▁بایدن": 693,
    "▁برق": 694,
    "▁رفته": 695,
    "▁اروپایی": 696,
    "▁ارتباط": 697,
    "▁دانست": 698,
    "▁اسفند": 699,
    "ال": 700,
    "▁رقم": 701,
    "ف": 702,
    "▁فینال": 703,
    "ور": 704,
    "▁ورزشی": 705,
    "▁کسان": 706,
    "▁۹": 707,
    "▁خودش": 708,
    "▁پیشین": 709,
    "▁چگون": 710,
    "▁عالی": 711,
    "▁آیا": 712,
    "خیلی": 713,
    "▁نفتی": 714,
    "دون": 715,
    "▁چشم": 716,
    "▁۷": 717,
    "-": 718,
    "▁انتقاد": 719,
    "ازه": 720,
    "وز": 721,
    "▁هنر": 722,
    "▁۱۵": 723,
    "▁نیروهای": 724,
    "▁تورم": 725,
    "▁۱": 726,
    "▁آبان": 727,
    "▁تاریخی": 728,
    "▁نگرانی": 729,
    "ج": 730,
    "▁ورود": 731,
    "▁پاسخ": 732,
    "▁وی": 733,
    "▁کس": 734,
    "▁فعال": 735,
    "▁اجرا": 736,
    "▁شدت": 737,
    "▁محکوم": 738,
    "▁فروردین": 739,
    "▁داشتند": 740,
    "▁الکتریکی": 741,
    "▁معاملات": 742,
    "▁دونالد": 743,
    "▁مصاحبه": 744,
    "▁خانم": 745,
    "▁بشک": 746,
    "▁آنچ": 747,
    "▁آزادی": 748,
    "▁طراح": 749,
    "▁مربی": 750,
    "▁گیرد": 751,
    "▁داخلی": 752,
    "▁مانده": 753,
    "ستاره": 754,
    "▁مشکلات": 755,
    "▁طولانی": 756,
    "▁کشید": 757,
    "▁قرن": 758,
    "▁اج": 759,
    "▁جمعیت": 760,
    "دی": 761,
    "▁همچن": 762,
    "▁موسس": 763,
    "▁مسئولان": 764,
    "▁بست": 765,
    "▁۱۲": 766,
    "▁قدرت": 767,
    "▁سیستم": 768,
    "سی": 769,
    "▁آمد": 770,
    "▁حساب": 771,
    "▁نوشت": 772,
    "▁دوشنبه": 773,
    "▁مصوب": 774,
    "▁روزنامه": 775,
    "▁کووید": 776,
    "▁تصوی": 777,
    "▁بحران": 778,
    "▁امضا": 779,
    "▁نوع": 780,
    "▁گذاشته": 781,
    "▁باشند": 782,
    "▁خروج": 783,
    "▁بارسلونا": 784,
    "▁هنگام": 785,
    "▁جامعه": 786,
    "▁سریال": 787,
    "▁کنترل": 788,
    "▁غنی": 789,
    "▁تحقیق": 790,
    "▁سایر": 791,
    "وی": 792,
    "ستاد": 793,
    "▁تشکیل": 794,
    "▁مشکل": 795,
    "▁باقی": 796,
    "▁تجاری": 797,
    "۸": 798,
    "▁گاز": 799,
    "▁امکان": 800,
    "▁نهاد": 801,
    "▁احتمال": 802,
    "▁ایتالیا": 803,
    "▁ملل": 804,
    "▁تحقیقات": 805,
    "▁بنزین": 806,
    "▁ابتدای": 807,
    "خانه": 808,
    "▁دادند": 809,
    "بی": 810,
    "▁شاخص": 811,
    "▁دستور": 812,
    "▁فرهنگ": 813,
    "تی": 814,
    "▁بینی": 815,
    "▁نیروی": 816,
    "▁قبلی": 817,
    "▁بد": 818,
    "▁دادن": 819,
    "▁محلی": 820,
    "▁سیاه": 821,
    "▁۱۱": 822,
    "▁حذف": 823,
    "▁شامل": 824,
    "▁فکر": 825,
    "▁ممنوع": 826,
    "▁سیتی": 827,
    "▁ماسک": 828,
    "پس": 829,
    "حه": 830,
    "▁ترکیب": 831,
    "▁فن": 832,
    "▁داخل": 833,
    "▁ضرب": 834,
    "▁مبتلا": 835,
    "▁پروژه": 836,
    "▁فارسی": 837,
    "▁بهتر": 838,
    "▁هند": 839,
    "▁پشت": 840,
    "▁نو": 841,
    "▁میزبان": 842,
    "▁علت": 843,
    "▁ع": 844,
    "▁دار": 845,
    "▁ناشی": 846,
    "▁واحد": 847,
    "▁بودن": 848,
    "▁بیشتری": 849,
    "▁اس": 850,
    "▁تجرب": 851,
    "▁متفاوت": 852,
    "▁آوریل": 853,
    "▁زیست": 854,
    "▁عامل": 855,
    "▁تک": 856,
    "▁یاد": 857,
    "▁گو": 858,
    "▁اف": 859,
    "▁شماری": 860,
    "▁صحبت": 861,
    "▁کارگران": 862,
    "▁بندی": 863,
    "▁تن": 864,
    "▁مسی": 865,
    "▁ترتیب": 866,
    "▁خبرنگار": 867,
    "▁سینما": 868,
    "▁واردات": 869,
    "گاه": 870,
    "▁اختیار": 871,
    "▁پایین": 872,
    "▁اعدام": 873,
    "▁شهروندان": 874,
    "▁نظام": 875,
    "▁فضایی": 876,
    "▁جنوب": 877,
    "▁بگیرد": 878,
    "▁چهارشنبه": 879,
    "▁هنری": 880,
    "▁بلند": 881,
    "▁طبق": 882,
    "▁کوچک": 883,
    "رفع": 884,
    "▁خوانده": 885,
    "نتی": 886,
    "▁عمل": 887,
    "▁جمعه": 888,
    "▁روبرو": 889,
    "▁محیط": 890,
    "▁احیا": 891,
    "▁۵۰": 892,
    "▁فرهنگی": 893,
    "▁کنید": 894,
    "▁۲۲": 895,
    "▁دقیقه": 896,
    "▁شان": 897,
    "▁نژاد": 898,
    "▁زد": 899,
    "▁آسیب": 900,
    "▁چپ": 901,
    "▁محمود": 902,
    "▁مسئول": 903,
    "▁احتمالا": 904,
    "▁شهرهای": 905,
    "▁تاکید": 906,
    "▁شجریان": 907,
    "▁پارسال": 908,
    "▁سقوط": 909,
    "▁مشترک": 910,
    "▁خون": 911,
    "▁بارها": 912,
    "▁فضای": 913,
    "سیون": 914,
    "▁محدود": 915,
    "▁۸": 916,
    "▁نویسنده": 917,
    "▁درخواست": 918,
    "▁دلایل": 919,
    "▁شما": 920,
    "یین": 921,
    "۴": 922,
    "▁تقریبا": 923,
    "▁نتایج": 924,
    "▁مارادونا": 925,
    "▁ان": 926,
    "▁بتوان": 927,
    "▁سوخت": 928,
    "۲": 929,
    "▁دفاع": 930,
    "▁نگهبان": 931,
    "▁شاهد": 932,
    "▁لازم": 933,
    "▁اقدامات": 934,
    "▁خصوصی": 935,
    "▁یع": 936,
    "▁شاید": 937,
    "▁صفر": 938,
    "▁آتش": 939,
    "▁موارد": 940,
    "▁فرد": 941,
    "▁یونایتد": 942,
    "▁تاکنون": 943,
    "▁انفجار": 944,
    "▁تامین": 945,
    "▁اسکار": 946,
    "▁برده": 947,
    "▁نقاشی": 948,
    "▁احمد": 949,
    "▁درگیر": 950,
    "▁وین": 951,
    "▁شکایت": 952,
    "▁کوتاه": 953,
    "▁معروف": 954,
    "▁۲۰۱": 955,
    "▁جدول": 956,
    "▁قوانین": 957,
    "مه": 958,
    "▁آورد": 959,
    "▁حرفه": 960,
    "▁حل": 961,
    "▁هواپیمایی": 962,
    "▁افتاد": 963,
    "▁۴۰": 964,
    "▁گ": 965,
    "▁لای": 966,
    "▁گذشت": 967,
    "▁مواد": 968,
    "▁جشنواره": 969,
    "نگ": 970,
    "▁جز": 971,
    "▁کنم": 972,
    "▁کلی": 973,
    "▁سنت": 974,
    "▁کالا": 975,
    "▁رییس": 976,
    "لی": 977,
    "▁بیرون": 978,
    "▁یکشنبه": 979,
    "▁متر": 980,
    "▁قانونی": 981,
    "▁اختلاف": 982,
    "▁مرتبط": 983,
    "▁هواداران": 984,
    "▁۱۷": 985,
    "▁دسترس": 986,
    "▁۶۰": 987,
    "▁قرمز": 988,
    "▁مسیر": 989,
    "▁درمان": 990,
    "▁نظیر": 991,
    "▁بخوانید": 992,
    "▁فهرست": 993,
    "▁چاپ": 994,
    "▁همیشه": 995,
    "▁اعتراضات": 996,
    "▁زاده": 997,
    "▁مه": 998,
    "▁قطر": 999,
    "انی": 1000,
    "▁نقطه": 1001,
    "▁تجارت": 1002,
    "▁نسل": 1003,
    "▁۱۴": 1004,
    "▁سرعت": 1005,
    "▁آخر": 1006,
    "▁واقع": 1007,
    "▁موفق": 1008,
    "▁مقایس": 1009,
    "▁ق": 1010,
    "حفظ": 1011,
    "▁اولی": 1012,
    "▁سمت": 1013,
    "▁اخیرا": 1014,
    "▁شمال": 1015,
    "▁انگیز": 1016,
    "یی": 1017,
    "▁اطلاع": 1018,
    "▁توییتر": 1019,
    "▁کارگردان": 1020,
    "مان": 1021,
    "▁بایرن": 1022,
    "▁۹۸": 1023,
    "▁هشت": 1024,
    "▁سراسر": 1025,
    "علی": 1026,
    "▁قصد": 1027,
    "▁گون": 1028,
    "▁بیست": 1029,
    "▁ولایت": 1030,
    "سازی": 1031,
    "▁اتاق": 1032,
    "▁برسد": 1033,
    "▁هایش": 1034,
    "▁غرب": 1035,
    "▁مارس": 1036,
    "▁ونزوئلا": 1037,
    "▁ما": 1038,
    "▁دارایی": 1039,
    "ایران": 1040,
    "▁هوا": 1041,
    "▁رنگ": 1042,
    "▁مجدد": 1043,
    "▁ماند": 1044,
    "▁اوپک": 1045,
    "▁سلامت": 1046,
    "▁رسیدن": 1047,
    "▁چیزی": 1048,
    "▁حد": 1049,
    "▁نظارت": 1050,
    "▁عملکرد": 1051,
    "▁گفتگو": 1052,
    "▁پیشنهاد": 1053,
    "▁۱۶": 1054,
    "▁ال": 1055,
    "▁علاو": 1056,
    "▁صفح": 1057,
    "▁سوار": 1058,
    "تیج": 1059,
    "▁اعمال": 1060,
    "▁فعالان": 1061,
    "▁مشابه": 1062,
    "▁آستان": 1063,
    "▁فوت": 1064,
    "▁آماده": 1065,
    "▁باخت": 1066,
    "▁روشن": 1067,
    "▁هنو": 1068,
    "▁گروهی": 1069,
    "▁مذاکر": 1070,
    "▁کاری": 1071,
    "▁آرژانتین": 1072,
    "▁عدالت": 1073,
    "▁کشف": 1074,
    "▁عملیات": 1075,
    "▁پاریس": 1076,
    "▁جهش": 1077,
    "▁زنده": 1078,
    "▁عد": 1079,
    "▁کاملا": 1080,
    "▁خوانند": 1081,
    "▁پرواز": 1082,
    "▁علمی": 1083,
    "▁فرصت": 1084,
    "▁مشهور": 1085,
    "▁تصاویر": 1086,
    "▁پخ": 1087,
    "▁اداره": 1088,
    "▁نهادهای": 1089,
    "▁حق": 1090,
    "▁جمع": 1091,
    "۶": 1092,
    "▁عباس": 1093,
    "▁پایتخت": 1094,
    "▁فساد": 1095,
    "▁عمده": 1096,
    "▁نگران": 1097,
    "۵": 1098,
    "▁بدن": 1099,
    "▁صادر": 1100,
    "▁شناس": 1101,
    "▁مناطق": 1102,
    "▁رابطه": 1103,
    "وابط": 1104,
    "▁موزه": 1105,
    "▁منچستر": 1106,
    "▁اینترنت": 1107,
    "براز": 1108,
    "▁چلسی": 1109,
    "وع": 1110,
    "▁تهدید": 1111,
    "▁کشورها": 1112,
    "▁ابتدا": 1113,
    "▁ندارند": 1114,
    "▁بحرین": 1115,
    "▁کمیت": 1116,
    "▁قلب": 1117,
    "▁بازیگر": 1118,
    "▁مهر": 1119,
    "▁مواجه": 1120,
    "▁منتقل": 1121,
    "▁توپ": 1122,
    "▁حادثه": 1123,
    "▁یورو": 1124,
    "▁قضایی": 1125,
    "▁هرات": 1126,
    "▁تاج": 1127,
    "▁توصیف": 1128,
    "▁ارشد": 1129,
    "▁موفقیت": 1130,
    "▁من": 1131,
    "▁تغییرات": 1132,
    "▁مردان": 1133,
    "▁دهم": 1134,
    "▁کن": 1135,
    "▁تابستان": 1136,
    "▁رمان": 1137,
    "▁چه": 1138,
    "▁توسعه": 1139,
    "▁استرالیا": 1140,
    "▁احمدی": 1141,
    "▁سود": 1142,
    "▁میدان": 1143,
    "اساس": 1144,
    "یر": 1145,
    "▁بالاتر": 1146,
    "▁تا": 1147,
    "▁بریتانیایی": 1148,
    "▁واقعی": 1149,
    "▁بال": 1150,
    "▁پروازهای": 1151,
    "▁افغان": 1152,
    "▁مهدی": 1153,
    "▁ل": 1154,
    "▁دچار": 1155,
    "▁مسکن": 1156,
    "▁رعایت": 1157,
    "▁۲۰۲۱": 1158,
    "عودی": 1159,
    "▁تهی": 1160,
    "▁برخورد": 1161,
    "▁گر": 1162,
    "▁انگلستان": 1163,
    "▁۵۰۰": 1164,
    "▁سایت": 1165,
    "▁آید": 1166,
    "▁ماهه": 1167,
    "▁پیام": 1168,
    "▁ژوئن": 1169,
    "▁خوزستان": 1170,
    "▁مجازی": 1171,
    "▁خصوص": 1172,
    "▁ارزی": 1173,
    "بیشتر": 1174,
    "▁پا": 1175,
    "۱": 1176,
    "▁صدا": 1177,
    "ول": 1178,
    "▁کودک": 1179,
    "▁چیز": 1180,
    "▁سفید": 1181,
    "▁شعر": 1182,
    "▁توضیح": 1183,
    "▁ملت": 1184,
    "▁مجبور": 1185,
    "▁دوست": 1186,
    "▁واکسین": 1187,
    "▁مانع": 1188,
    "نمایی": 1189,
    "▁کارگر": 1190,
    "▁رفتن": 1191,
    "▁مالیات": 1192,
    "▁مصرف": 1193,
    "▁عبور": 1194,
    "▁پور": 1195,
    "▁خواند": 1196,
    "▁حوزه": 1197,
    "▁اجا": 1198,
    "▁سفیر": 1199,
    "▁مل": 1200,
    "▁پدر": 1201,
    "ممنوعیت": 1202,
    "▁کدام": 1203,
    "▁جنسی": 1204,
    "▁جوان": 1205,
    "▁دختر": 1206,
    "▁رانند": 1207,
    "▁خالی": 1208,
    "▁اضاف": 1209,
    "▁معتقد": 1210,
    "عده": 1211,
    "▁دنیای": 1212,
    "▁بهمن": 1213,
    "▁اوراق": 1214,
    "▁کنندگان": 1215,
    "نده": 1216,
    "▁فدرر": 1217,
    "▁کنون": 1218,
    "▁۱۰۰": 1219,
    "▁مشغول": 1220,
    "▁پل": 1221,
    "▁افتاده": 1222,
    "▁بهبود": 1223,
    "▁دومین": 1224,
    "▁سنگ": 1225,
    "▁۲۳": 1226,
    "▁خواهان": 1227,
    "▁۱۸": 1228,
    "▁انداز": 1229,
    "▁تاجیکستان": 1230,
    "▁مجوز": 1231,
    "▁اظهارات": 1232,
    "▁سخنران": 1233,
    "▁دانند": 1234,
    "▁سنگین": 1235,
    "اخر": 1236,
    "▁کارخان": 1237,
    "▁پژوهش": 1238,
    "▁دریا": 1239,
    "▁ایالت": 1240,
    "ام": 1241,
    "▁تی": 1242,
    "طور": 1243,
    "یا": 1244,
    "گر": 1245,
    "▁طلا": 1246,
    "▁حداقل": 1247,
    "▁کانال": 1248,
    "▁۲۴": 1249,
    "▁گمرک": 1250,
    "▁اجرایی": 1251,
    "▁بحث": 1252,
    "▁سوریه": 1253,
    "▁امام": 1254,
    "▁رساند": 1255,
    "▁سریع": 1256,
    "▁مقررات": 1257,
    "▁معامل": 1258,
    "▁مادرید": 1259,
    "▁پنجم": 1260,
    "▁پیشتر": 1261,
    "▁تاتنهام": 1262,
    "▁بو": 1263,
    "▁فرمانده": 1264,
    "یون": 1265,
    "▁قطعی": 1266,
    "▁مثبت": 1267,
    "▁حت": 1268,
    "اس": 1269,
    "▁نشد": 1270,
    "▁۹۰": 1271,
    "▁نقدینگی": 1272,
    "▁پاسداران": 1273,
    "▁تجمع": 1274,
    "▁طبیعی": 1275,
    "▁موافقت": 1276,
    "▁رکود": 1277,
    "▁حسین": 1278,
    "▁حریف": 1279,
    "▁زود": 1280,
    "▁مستند": 1281,
    "۳": 1282,
    "▁روش": 1283,
    "▁انگلیسی": 1284,
    "▁گردد": 1285,
    "▁زدن": 1286,
    "▁محمو": 1287,
    "دو": 1288,
    "▁سا": 1289,
    "▁اسپانیا": 1290,
    "▁مدیریت": 1291,
    "▁خاک": 1292,
    "▁کنونی": 1293,
    "وایل": 1294,
    "▁بازارهای": 1295,
    "▁روزانه": 1296,
    "▁فیفا": 1297,
    "▁قدیمی": 1298,
    "▁مرداد": 1299,
    "▁۲۱": 1300,
    "▁تشخیص": 1301,
    "▁حرف": 1302,
    "ید": 1303,
    "▁ژاپن": 1304,
    "▁دید": 1305,
    "محمد": 1306,
    "▁خ": 1307,
    "▁هوشمند": 1308,
    "▁رشت": 1309,
    "▁وزن": 1310,
    "▁صدای": 1311,
    "ستان": 1312,
    "▁عهد": 1313,
    "▁مادر": 1314,
    "▁وضع": 1315,
    "▁امیدوار": 1316,
    "▁مک": 1317,
    "▁آوری": 1318,
    "▁تقوی": 1319,
    "▁پای": 1320,
    "▁دکتر": 1321,
    "▁اردیبهشت": 1322,
    "▁۱۳۹۹": 1323,
    "▁علاقه": 1324,
    "▁جایی": 1325,
    "تر": 1326,
    "▁گذاشت": 1327,
    "▁دفتر": 1328,
    "▁صحنه": 1329,
    "▁رخ": 1330,
    "▁آورده": 1331,
    "▁سعید": 1332,
    "▁دقیق": 1333,
    "▁رفتار": 1334,
    "▁مرز": 1335,
    "▁دانشمندان": 1336,
    "▁گذار": 1337,
    "▁کیلومتر": 1338,
    "▁وابست": 1339,
    "▁جزئیات": 1340,
    "▁یابد": 1341,
    "▁قتل": 1342,
    "▁اسطوره": 1343,
    "▁امید": 1344,
    "▁نفتکش": 1345,
    "▁پوند": 1346,
    "▁بنا": 1347,
    "▁آبی": 1348,
    "▁فارس": 1349,
    "▁مد": 1350,
    "▁صدر": 1351,
    "▁کارشناسان": 1352,
    "▁فنی": 1353,
    "▁مستقیم": 1354,
    "▁تومانی": 1355,
    "▁مونیخ": 1356,
    "▁بن": 1357,
    "▁سرشناس": 1358,
    "▁ظرف": 1359,
    "▁نشود": 1360,
    "▁قدم": 1361,
    "▁مر": 1362,
    "فورد": 1363,
    "▁بنابر": 1364,
    "▁۲۸": 1365,
    "▁صعود": 1366,
    "▁زندانی": 1367,
    "▁معنای": 1368,
    "▁آلمانی": 1369,
    "▁اوت": 1370,
    "▁ساز": 1371,
    "▁مت": 1372,
    "▁راست": 1373,
    "▁افزوده": 1374,
    "▁زنی": 1375,
    "▁قالیباف": 1376,
    "▁العاده": 1377,
    "▁خرداد": 1378,
    "▁موقعیت": 1379,
    "▁دوچرخه": 1380,
    "▁معادل": 1381,
    "▁پذیر": 1382,
    "▁رویترز": 1383,
    "▁ز": 1384,
    "▁دین": 1385,
    "▁دبیر": 1386,
    "▁نداشته": 1387,
    "یزه": 1388,
    "▁فو": 1389,
    "▁دل": 1390,
    "▁درست": 1391,
    "۹": 1392,
    "▁جدا": 1393,
    "▁مقامات": 1394,
    "▁هنرمند": 1395,
    "▁گوش": 1396,
    "▁جنگل": 1397,
    "▁بهار": 1398,
    "▁نقاط": 1399,
    "▁مدافع": 1400,
    "▁نوبل": 1401,
    "▁صبح": 1402,
    "▁جشن": 1403,
    "▁هدایت": 1404,
    "▁واشنگتن": 1405,
    "▁سوئیس": 1406,
    "▁جنجال": 1407,
    "▁منف": 1408,
    "▁گیرند": 1409,
    "▁مغز": 1410,
    "۰۰": 1411,
    "▁اساسی": 1412,
    "▁روایت": 1413,
    "▁تورنمنت": 1414,
    "▁فراهم": 1415,
    "▁دوربین": 1416,
    "▁پاکستان": 1417,
    "▁مبتلایان": 1418,
    "▁قاچاق": 1419,
    "▁ضد": 1420,
    "▁نوری": 1421,
    "پ": 1422,
    "▁برزیل": 1423,
    "▁آموزش": 1424,
    "▁رئال": 1425,
    "▁موجود": 1426,
    "▁بیکار": 1427,
    "▁خواهیم": 1428,
    "▁شخصی": 1429,
    "ح": 1430,
    "ویه": 1431,
    "▁ساختمان": 1432,
    "اخ": 1433,
    "▁محمدرضا": 1434,
    "▁برداشت": 1435,
    "▁خودروهای": 1436,
    "▁بهداشتی": 1437,
    "▁مجله": 1438,
    "▁شخصیت": 1439,
    "▁کا": 1440,
    "اسیون": 1441,
    "▁خورده": 1442,
    "▁عرب": 1443,
    "▁چک": 1444,
    "▁تحویل": 1445,
    "▁راهی": 1446,
    "▁صلح": 1447,
    "▁معتبر": 1448,
    "▁استقبال": 1449,
    "▁دانش": 1450,
    "▁دارو": 1451,
    "کی": 1452,
    "▁کشاورز": 1453,
    "▁پوست": 1454,
    "▁ظاهر": 1455,
    "▁مهار": 1456,
    "▁حزب": 1457,
    "▁خانگی": 1458,
    "▁چیست": 1459,
    "▁مدعی": 1460,
    "▁نویس": 1461,
    "کنندگان": 1462,
    "▁قسمت": 1463,
    "▁مایک": 1464,
    "▁صف": 1465,
    "▁مالک": 1466,
    "▁سینمای": 1467,
    "▁خورد": 1468,
    "▁ژان": 1469,
    "▁پیشرفت": 1470,
    "▁یو": 1471,
    "▁آمازون": 1472,
    "▁بهادار": 1473,
    "▁اشتباه": 1474,
    "▁تزریق": 1475,
    "▁کاربران": 1476,
    "▁قبلا": 1477,
    "▁فوریه": 1478,
    "خش": 1479,
    "▁شاه": 1480,
    "یات": 1481,
    "۰": 1482,
    "داری": 1483,
    "▁-": 1484,
    "فدراسیون": 1485,
    "▁خورشیدی": 1486,
    "▁اصلاح": 1487,
    "▁دریایی": 1488,
    "▁آلبوم": 1489,
    "▁خدمات": 1490,
    "▁ارتش": 1491,
    "▁هستیم": 1492,
    "▁ارسال": 1493,
    "▁داریم": 1494,
    "▁نشری": 1495,
    "▁فعلی": 1496,
    "▁کالاهای": 1497,
    "رد": 1498,
    "خواهد": 1499,
    "کسی": 1500,
    "▁استاد": 1501,
    "▁ایمن": 1502,
    "گاهی": 1503,
    "▁ادبیات": 1504,
    "▁شی": 1505,
    "▁پروتکل": 1506,
    "▁شرق": 1507,
    "▁متعل": 1508,
    "▁همسر": 1509,
    "▁ژوئیه": 1510,
    "▁عجیب": 1511,
    "▁لحظ": 1512,
    "▁فوری": 1513,
    "▁مدیران": 1514,
    "▁تعهدات": 1515,
    "▁خودروساز": 1516,
    "▁مجید": 1517,
    "خ": 1518,
    "▁متوسط": 1519,
    "▁غربی": 1520,
    "▁رضا": 1521,
    "▁ناز": 1522,
    "▁بیت": 1523,
    "▁قضائیه": 1524,
    "▁کمبود": 1525,
    "▁معترضان": 1526,
    "ساوی": 1527,
    "▁یکدیگر": 1528,
    "▁عادی": 1529,
    "▁سفارت": 1530,
    "▁نداشت": 1531,
    "▁میلان": 1532,
    "▁فر": 1533,
    "▁دختران": 1534,
    "هرگز": 1535,
    "▁اقیانوس": 1536,
    "▁۲۶": 1537,
    "▁بیمار": 1538,
    "▁برگشت": 1539,
    "▁شاعر": 1540,
    "▁نیویورک": 1541,
    "▁مسلح": 1542,
    "▁نوامبر": 1543,
    "▁مطالع": 1544,
    "▁هاست": 1545,
    "▁سینمایی": 1546,
    "▁نخواه": 1547,
    "▁احساس": 1548,
    "▁ایم": 1549,
    "▁بازرگانی": 1550,
    "سازمان": 1551,
    "▁تیر": 1552,
    "▁عین": 1553,
    "نقض": 1554,
    "▁بلوچستان": 1555,
    "▁نت": 1556,
    "▁اهمیت": 1557,
    "▁خلق": 1558,
    "▁سرطان": 1559,
    "▁معمولا": 1560,
    "▁کوین": 1561,
    "▁گرفتند": 1562,
    "▁زخمی": 1563,
    "فرانسوی": 1564,
    "▁مهاجم": 1565,
    "▁کارهای": 1566,
    "▁واقعیت": 1567,
    "▁چندان": 1568,
    "▁نهایت": 1569,
    "▁محرم": 1570,
    "▁مشا": 1571,
    "▁اختصاص": 1572,
    "ازگی": 1573,
    "▁سهم": 1574,
    "رکت": 1575,
    "▁نشر": 1576,
    "▁غذا": 1577,
    "▁برقرار": 1578,
    "گ": 1579,
    "سال": 1580,
    "۷": 1581,
    "▁کارکنان": 1582,
    "▁نگه": 1583,
    "▁منج": 1584,
    "ترانه": 1585,
    "▁آهنگ": 1586,
    "▁۲۰۱۷": 1587,
    "تان": 1588,
    "نین": 1589,
    "روازه": 1590,
    "▁حذفی": 1591,
    "▁جمعی": 1592,
    "توجه": 1593,
    "▁مکان": 1594,
    "▁توییت": 1595,
    "▁سرخ": 1596,
    "▁گستر": 1597,
    "▁گام": 1598,
    "▁لباس": 1599,
    "▁عوامل": 1600,
    "▁نحو": 1601,
    "▁عق": 1602,
    "▁ماموران": 1603,
    "▁حاشیه": 1604,
    "▁تیراندازی": 1605,
    "▁توقف": 1606,
    "▁کلوپ": 1607,
    "▁مخالفان": 1608,
    "▁سعی": 1609,
    "اوری": 1610,
    "▁۷۰": 1611,
    "▁سهمی": 1612,
    "▁لو": 1613,
    "▁موشک": 1614,
    "▁اوج": 1615,
    "یروز": 1616,
    "▁احتمالی": 1617,
    "▁اصل": 1618,
    "▁دریای": 1619,
    "▁شهروند": 1620,
    "نیوم": 1621,
    "▁زاد": 1622,
    "▁ارقام": 1623,
    "▁خوش": 1624,
    "▁محصولات": 1625,
    "▁کنسرت": 1626,
    "▁مدیرعامل": 1627,
    "من": 1628,
    "▁فردی": 1629,
    "▁باره": 1630,
    "▁صوتی": 1631,
    "▁تمامی": 1632,
    "▁مو": 1633,
    "▁هست": 1634,
    "▁کرونای": 1635,
    "▁تصور": 1636,
    "▁زندانیان": 1637,
    "▁فردا": 1638,
    "رضا": 1639,
    "وزارت": 1640,
    "▁سپاهان": 1641,
    "▁کشورش": 1642,
    "▁مبلغ": 1643,
    "▁هموار": 1644,
    "▁تماس": 1645,
    "▁امارات": 1646,
    "▁واگذار": 1647,
    "▁پنجشنبه": 1648,
    "▁نویسندگان": 1649,
    "قیف": 1650,
    "مقام": 1651,
    "▁مخالفت": 1652,
    "▁تلفن": 1653,
    "تنظیم": 1654,
    "نا": 1655,
    "▁تقاضا": 1656,
    "▁بعدی": 1657,
    "▁۳۱": 1658,
    "▁۳۰۰": 1659,
    "▁برود": 1660,
    "▁آزار": 1661,
    "▁اورا": 1662,
    "▁بنز": 1663,
    "▁متعدد": 1664,
    "▁شهریور": 1665,
    "▁حفاظت": 1666,
    "▁چالش": 1667,
    "▁ایسنا": 1668,
    "▁مرزی": 1669,
    "▁مسافران": 1670,
    "سته": 1671,
    "▁جایگاه": 1672,
    "▁بیماران": 1673,
    "▁رافائل": 1674,
    "▁داشتن": 1675,
    "▁پست": 1676,
    "▁پژوهشگران": 1677,
    "قانونی": 1678,
    "▁ماجرا": 1679,
    "▁دا": 1680,
    "▁توکیو": 1681,
    "▁مشمول": 1682,
    "▁صنایع": 1683,
    "▁اخبار": 1684,
    "▁تسلا": 1685,
    "▁رونالدو": 1686,
    "▁فایل": 1687,
    "▁۳۵": 1688,
    "▁دشوار": 1689,
    "دار": 1690,
    "▁فوتبالیست": 1691,
    "▁مارک": 1692,
    "▁کافی": 1693,
    "دولت": 1694,
    "▁مربیان": 1695,
    "▁علیرضا": 1696,
    "باید": 1697,
    "ط": 1698,
    "داد": 1699,
    "وس": 1700,
    "▁۹۹": 1701,
    "▁ساکن": 1702,
    "ران": 1703,
    "کس": 1704,
    "رده": 1705,
    "▁سند": 1706,
    "▁خشونت": 1707,
    "▁زاغری": 1708,
    "▁حاصل": 1709,
    "▁دسته": 1710,
    "▁اجاره": 1711,
    "▁اخراج": 1712,
    "▁ایستگاه": 1713,
    "▁بازنشستگان": 1714,
    "▁ابلاغ": 1715,
    "تیم": 1716,
    "▁توصی": 1717,
    "▁امیر": 1718,
    "▁انجمن": 1719,
    "▁راجر": 1720,
    "▁داند": 1721,
    "گری": 1722,
    "امبر": 1723,
    "▁نتوانست": 1724,
    "حسین": 1725,
    "▁برمی": 1726,
    "▁سکه": 1727,
    "▁شرقی": 1728,
    "▁مجری": 1729,
    "▁اصفهان": 1730,
    "▁مسدود": 1731,
    "▁ناگهان": 1732,
    "▁سراوان": 1733,
    "▁نگهداری": 1734,
    "▁نزدیکی": 1735,
    "▁صلاحیت": 1736,
    "▁آسمان": 1737,
    "▁عصر": 1738,
    "▁سلیمانی": 1739,
    "وم": 1740,
    "▁پاس": 1741,
    "▁ملک": 1742,
    "لیک": 1743,
    "غلب": 1744,
    "▁ورزشکاران": 1745,
    "را": 1746,
    "▁مشاور": 1747,
    "▁دیوان": 1748,
    "▁الملل": 1749,
    "▁اوپ": 1750,
    "▁لی": 1751,
    "▁حسینی": 1752,
    "▁خیابان": 1753,
    "▁اندازی": 1754,
    "▁قاسم": 1755,
    "▁نمو": 1756,
    "▁فرزند": 1757,
    "▁ورزشکار": 1758,
    "▁۸۰": 1759,
    "▁اینستاگرام": 1760,
    "▁اجلاس": 1761,
    "▁۱۳۹۸": 1762,
    "▁بقیه": 1763,
    "▁طبیعت": 1764,
    "▁پلاس": 1765,
    "▁فرودگاه": 1766,
    "▁دستمزد": 1767,
    "▁تاسیسات": 1768,
    "▁فضا": 1769,
    "▁نادال": 1770,
    "▁طالبان": 1771,
    "تبه": 1772,
    "ونه": 1773,
    "▁گلستان": 1774,
    "▁ناظر": 1775,
    "▁سخنان": 1776,
    "ته": 1777,
    "▁نور": 1778,
    "▁مناسب": 1779,
    "▁تست": 1780,
    "▁اسرائیلی": 1781,
    "هایی": 1782,
    "▁کارها": 1783,
    "▁موتور": 1784,
    "▁رادیو": 1785,
    "▁جراح": 1786,
    "▁هواپیمای": 1787,
    "قب": 1788,
    "▁ثابت": 1789,
    "▁توزیع": 1790,
    "▁نجات": 1791,
    "▁شمالی": 1792,
    "▁آنلاین": 1793,
    "▁برجسته": 1794,
    "▁سوپر": 1795,
    "▁خیریه": 1796,
    "▁حکام": 1797,
    "▁صرف": 1798,
    "▁جوایز": 1799,
    "▁صراف": 1800,
    "▁کردیم": 1801,
    "▁موقت": 1802,
    "خانم": 1803,
    "▁جوکوویچ": 1804,
    "▁سوال": 1805,
    "خبرگزا": 1806,
    "▁روزها": 1807,
    "▁ادبی": 1808,
    "▁باور": 1809,
    "▁گران": 1810,
    "یان": 1811,
    "▁تقاضای": 1812,
    "یابی": 1813,
    "▁۲۹": 1814,
    "علوم": 1815,
    "▁تمرین": 1816,
    "▁اکتبر": 1817,
    "▁آذر": 1818,
    "▁تاخیر": 1819,
    "▁مواردی": 1820,
    "▁بدهی": 1821,
    "▁بوکس": 1822,
    "▁قربانیان": 1823,
    "▁لیون": 1824,
    "▁برادر": 1825,
    "شیدا": 1826,
    "▁مج": 1827,
    "▁مطابق": 1828,
    "▁داروی": 1829,
    "▁اکبر": 1830,
    "▁چهل": 1831,
    "ما": 1832,
    "▁عبدال": 1833,
    "▁تری": 1834,
    "▁تعوی": 1835,
    "▁خدم": 1836,
    "▁حیات": 1837,
    "▁فرار": 1838,
    "▁کمیس": 1839,
    "▁کردم": 1840,
    "▁رویکرد": 1841,
    "▁گرم": 1842,
    "▁ماهی": 1843,
    "جا": 1844,
    "▁کاپیتان": 1845,
    "▁سلطنت": 1846,
    "▁افتخار": 1847,
    "▁بعدا": 1848,
    "▁معرض": 1849,
    "▁فراموش": 1850,
    "▁حاکی": 1851,
    "▁ضمن": 1852,
    "▁تخریب": 1853,
    "▁مالکی": 1854,
    "بس": 1855,
    "▁مراجع": 1856,
    "انجام": 1857,
    "رنگ": 1858,
    "▁گذارد": 1859,
    "▁آمیز": 1860,
    "▁مخالف": 1861,
    "گرد": 1862,
    "▁دادستان": 1863,
    "▁فرستاده": 1864,
    "▁عدد": 1865,
    "وق": 1866,
    "▁سیما": 1867,
    "شته": 1868,
    "یکی": 1869,
    "▁هنرپیشه": 1870,
    "▁موضع": 1871,
    "ضاع": 1872,
    "▁هواپیما": 1873,
    "▁رسما": 1874,
    "▁پرو": 1875,
    "▁وگو": 1876,
    "▁منتظر": 1877,
    "▁فرهاد": 1878,
    "▁دیدن": 1879,
    "▁اتریش": 1880,
    "▁دارای": 1881,
    "▁خورشید": 1882,
    "گزارش": 1883,
    "▁اتفاقات": 1884,
    "▁خیل": 1885,
    "▁منتقدان": 1886,
    "▁غذای": 1887,
    "▁شبانه": 1888,
    "▁بازگرداند": 1889,
    "▁محبوب": 1890,
    "▁الدین": 1891,
    "▁گفتند": 1892,
    "▁رقیب": 1893,
    "▁قضاییه": 1894,
    "▁ض": 1895,
    "▁نیستند": 1896,
    "▁حمل": 1897,
    "▁حس": 1898,
    "▁ارزها": 1899,
    "▁درجه": 1900,
    "▁جودو": 1901,
    "بط": 1902,
    "▁ویمبلدون": 1903,
    "▁مسئ": 1904,
    "▁قبول": 1905,
    "▁تئاتر": 1906,
    "▁پرس": 1907,
    "▁هماهنگ": 1908,
    "چند": 1909,
    "اره": 1910,
    "اب": 1911,
    "▁همتی": 1912,
    "است": 1913,
    "▁خاص": 1914,
    "▁وام": 1915,
    "یست": 1916,
    "▁آل": 1917,
    "▁اطراف": 1918,
    "سون": 1919,
    "▁محمدی": 1920,
    "افسانه": 1921,
    "▁محسو": 1922,
    "تا": 1923,
    "رئیس": 1924,
    "▁محروم": 1925,
    "▁کارشناس": 1926,
    "▁گیر": 1927,
    "▁مشهد": 1928,
    "▁مسائل": 1929,
    "▁نداریم": 1930,
    "▁دعوت": 1931,
    "قدر": 1932,
    "▁نگار": 1933,
    "▁مقصد": 1934,
    "▁وکیل": 1935,
    "▁ازدواج": 1936,
    "▁گذرد": 1937,
    "ود": 1938,
    "▁میانه": 1939,
    "▁روانی": 1940,
    "▁سپت": 1941,
    "رسدس": 1942,
    "شویی": 1943,
    "▁حقیق": 1944,
    "▁پسر": 1945,
    "▁لس": 1946,
    "▁صاحب": 1947,
    "▁بنیاد": 1948,
    "▁حقوقی": 1949,
    "▁فرمو": 1950,
    "▁عمیق": 1951,
    "اندازه": 1952,
    "▁تحصیل": 1953,
    "▁پایه": 1954,
    "▁بلینکن": 1955,
    "▁تمدید": 1956,
    "▁خاطره": 1957,
    "▁آلودگی": 1958,
    "▁ساحل": 1959,
    "سه": 1960,
    "▁توانسته": 1961,
    "▁بیان": 1962,
    "▁طرفداران": 1963,
    "▁آرام": 1964,
    "▁کلاس": 1965,
    "▁کارمندان": 1966,
    "اد": 1967,
    "▁مراقب": 1968,
    "اری": 1969,
    "هر": 1970,
    "▁جواد": 1971,
    "▁آور": 1972,
    "▁بزرگتری": 1973,
    "▁ژا": 1974,
    "▁افزود": 1975,
    "▁دستگیر": 1976,
    "وه": 1977,
    "▁رحمان": 1978,
    "▁پیوست": 1979,
    "برای": 1980,
    "▁آنجلس": 1981,
    "▁نارنجی": 1982,
    "▁سرپرست": 1983,
    "▁گرانی": 1984,
    "▁سامانه": 1985,
    "▁نداده": 1986,
    "▁هنرمندان": 1987,
    "▁۳۲": 1988,
    "▁چنان": 1989,
    "▁قول": 1990,
    "دست": 1991,
    "▁کشوری": 1992,
    "۱۶": 1993,
    "▁نماد": 1994,
    "▁بالاتری": 1995,
    "▁الهام": 1996,
    "▁متخصص": 1997,
    "▁زمستان": 1998,
    "▁متولد": 1999,
    "▁لوکس": 2000,
    "▁فرا": 2001,
    "▁۲۰۱۵": 2002,
    "▁ناپذیر": 2003,
    "▁نسخ": 2004,
    "▁اطمینان": 2005,
    "▁آرسنال": 2006,
    "▁فیوری": 2007,
    "▁مدیرکل": 2008,
    "▁اهل": 2009,
    "▁سبک": 2010,
    "▁آکادمی": 2011,
    "▁شناسا": 2012,
    "▁ریز": 2013,
    "▁شغل": 2014,
    "بول": 2015,
    "▁اضطرار": 2016,
    "▁دام": 2017,
    "▁بندر": 2018,
    "▁درک": 2019,
    "▁انتخاباتی": 2020,
    "▁یخ": 2021,
    "شب": 2022,
    "▁ابراهیم": 2023,
    "یل": 2024,
    "▁ترس": 2025,
    "▁نقاش": 2026,
    "▁شهرت": 2027,
    "▁تکرار": 2028,
    "▁هشتم": 2029,
    "▁ژافره": 2030,
    "▁اسکاتلند": 2031,
    "▁سرنگون": 2032,
    "▁مصنوعی": 2033,
    "▁جبران": 2034,
    "▁بان": 2035,
    "▁عرص": 2036,
    "▁رانندگان": 2037,
    "▁مس": 2038,
    "▁گاه": 2039,
    "▁بند": 2040,
    "▁جلوی": 2041,
    "کش": 2042,
    "▁وقف": 2043,
    "▁جوانان": 2044,
    "▁ناسا": 2045,
    "▁نهم": 2046,
    "لان": 2047,
    "اسی": 2048,
    "▁سوزی": 2049,
    "▁پارک": 2050,
    "...": 2051,
    "▁نکرد": 2052,
    "▁تخت": 2053,
    "شاره": 2054,
    "▁جذاب": 2055,
    "▁موثر": 2056,
    "پیش": 2057,
    "▁اعتبار": 2058,
    "▁تشویق": 2059,
    "▁شاغل": 2060,
    "▁خسارت": 2061,
    "▁کلمبیا": 2062,
    "▁پرتاب": 2063,
    "▁شناسی": 2064,
    "▁فیسبوک": 2065,
    "▁کوه": 2066,
    "▁محافظ": 2067,
    "▁مدرسه": 2068,
    "وثی": 2069,
    "حسن": 2070,
    "▁باغ": 2071,
    "▁موسو": 2072,
    "▁دوستان": 2073,
    "▁کادر": 2074,
    "وئل": 2075,
    "▁اطلاعی": 2076,
    "▁اسکی": 2077,
    "▁نفس": 2078,
    "▁بلا": 2079,
    "وید": 2080,
    "▁مشاهد": 2081,
    "▁نامداری": 2082,
    "▁دامن": 2083,
    "▁حالت": 2084,
    "▁پدرش": 2085,
    "عهد": 2086,
    "▁جامع": 2087,
    "هفته": 2088,
    "▁کالیفرنیا": 2089,
    "▁زند": 2090,
    "▁هیئت": 2091,
    "▁مراکز": 2092,
    "▁آکسفورد": 2093,
    "▁ژرمن": 2094,
    "▁خطرناک": 2095,
    "▁متوالی": 2096,
    "▁صدرنشین": 2097,
    "▁جیمز": 2098,
    "▁تبریز": 2099,
    "▁یوونتوس": 2100,
    "▁متحد": 2101,
    "▁دانیم": 2102,
    "▁شفاف": 2103,
    "▁درون": 2104,
    "▁مشتریان": 2105,
    "▁تولد": 2106,
    "▁نیازمند": 2107,
    "▁خلی": 2108,
    "▁جه": 2109,
    "وازه": 2110,
    "▁یمن": 2111,
    "همزمان": 2112,
    "ئی": 2113,
    "▁پن": 2114,
    "▁بخت": 2115,
    "▁متن": 2116,
    "رت": 2117,
    "▁دما": 2118,
    "▁جذب": 2119,
    "▁نطنز": 2120,
    "▁الحاق": 2121,
    "▁فعلا": 2122,
    "▁پارلمان": 2123,
    "▁حملات": 2124,
    "▁جلب": 2125,
    "▁اهواز": 2126,
    "▁پایگاه": 2127,
    "▁هویت": 2128,
    "▁ماموریت": 2129,
    "▁گشایش": 2130,
    "ذیب": 2131,
    "▁برخوردار": 2132,
    "▁ترجم": 2133,
    "▁تأ": 2134,
    "▁تماشاگران": 2135,
    "▁امیدواری": 2136,
    "▁گری": 2137,
    "کل": 2138,
    "▁داوطلبان": 2139,
    "▁گوشت": 2140,
    "ناصر": 2141,
    "▁بستر": 2142,
    "▁محققان": 2143,
    "هم": 2144,
    "▁شبی": 2145,
    "▁استعفا": 2146,
    "▁مجاز": 2147,
    "▁تماشاگر": 2148,
    "▁مسجد": 2149,
    "تمام": 2150,
    "کار": 2151,
    "▁گشت": 2152,
    "▁دیپلما": 2153,
    "▁پاری": 2154,
    "▁شصت": 2155,
    "▁گواردیولا": 2156,
    "▁عکاسی": 2157,
    "▁مسعود": 2158,
    "▁۴۲": 2159,
    "▁حامل": 2160,
    "کره": 2161,
    "سیم": 2162,
    "▁زودتر": 2163,
    "▁شانس": 2164,
    "▁قوی": 2165,
    "▁واقعا": 2166,
    "▁نرم": 2167,
    "▁آفریقای": 2168,
    "لو": 2169,
    "▁ست": 2170,
    "▁رویداد": 2171,
    "▁۳۳": 2172,
    "▁آفریقا": 2173,
    "▁انداخته": 2174,
    "▁روان": 2175,
    "یده": 2176,
    "▁پزشک": 2177,
    "▁برداری": 2178,
    "▁اظهار": 2179,
    "▁لبنان": 2180,
    "▁پنجاه": 2181,
    "▁کیلوگرم": 2182,
    "▁۱۳۹۷": 2183,
    "▁نادر": 2184,
    "▁مریخ": 2185,
    "▁شگفت": 2186,
    "نویه": 2187,
    "▁برآورد": 2188,
    "ماه": 2189,
    "▁جسد": 2190,
    "▁درحالی": 2191,
    "▁ثانی": 2192,
    "▁تایسون": 2193,
    "▁نشدن": 2194,
    "▁صدو": 2195,
    "زاده": 2196,
    "▁۹۷": 2197,
    "▁پیگیری": 2198,
    "ابت": 2199,
    "▁ساده": 2200,
    "فسور": 2201,
    "▁ابر": 2202,
    "▁همچو": 2203,
    "صد": 2204,
    "▁سرود": 2205,
    "۱۸": 2206,
    "▁نس": 2207,
    "▁اقدامی": 2208,
    "▁آنتونی": 2209,
    "▁نوجوان": 2210,
    "▁هفتم": 2211,
    "▁چشمگیر": 2212,
    "▁فرود": 2213,
    "▁بسکتبال": 2214,
    "▁دیجیتال": 2215,
    "▁انتظامی": 2216,
    "▁نیروگاه": 2217,
    "▁۲۷": 2218,
    "▁کیفیت": 2219,
    "▁شهرستان": 2220,
    "▁کیلومتری": 2221,
    "▁ایرنا": 2222,
    "▁پادشاه": 2223,
    "▁آشنا": 2224,
    "▁حراج": 2225,
    "▁مقدار": 2226,
    "▁دهیم": 2227,
    "شرکت": 2228,
    "▁شاهین": 2229,
    "▁ایتالیایی": 2230,
    "▁اسناد": 2231,
    "▁مسافر": 2232,
    "▁پزشکان": 2233,
    "▁دقیقا": 2234,
    "▁کلیه": 2235,
    "▁عید": 2236,
    "▁عمر": 2237,
    "▁هرچ": 2238,
    "▁ایستاده": 2239,
    "▁ماجرای": 2240,
    "بانک": 2241,
    "▁دیوار": 2242,
    "▁سخن": 2243,
    "یش": 2244,
    "گفته": 2245,
    "▁فرم": 2246,
    "غم": 2247,
    "▁شرکتهای": 2248,
    "▁هی": 2249,
    "▁رهبری": 2250,
    "جمع": 2251,
    "رو": 2252,
    "▁۴۵": 2253,
    "▁تعلیق": 2254,
    "▁بماند": 2255,
    "▁دسامبر": 2256,
    "▁هلند": 2257,
    "▁عشق": 2258,
    "▁کلید": 2259,
    "▁سری": 2260,
    "▁ثبات": 2261,
    "▁هن": 2262,
    "▁تبعیض": 2263,
    "▁بلژیک": 2264,
    "▁مسئولیت": 2265,
    "▁بدهد": 2266,
    "▁نوسان": 2267,
    "▁همسرش": 2268,
    "▁ژاپنی": 2269,
    "▁آلوده": 2270,
    "▁فراز": 2271,
    "▁جنسیت": 2272,
    "▁توانای": 2273,
    "▁شاملو": 2274,
    "▁شهرداری": 2275,
    "درآمدهای": 2276,
    "▁تق": 2277,
    "اگر": 2278,
    "▁اسدی": 2279,
    "اپی": 2280,
    "بعضی": 2281,
    "▁بازدید": 2282,
    "▁اسب": 2283,
    "▁تخم": 2284,
    "مدال": 2285,
    "▁سفرهای": 2286,
    "▁معمول": 2287,
    "▁یافتن": 2288,
    "▁تحلیل": 2289,
    "▁پاک": 2290,
    "▁امر": 2291,
    "▁اعتماد": 2292,
    "▁تعریف": 2293,
    "▁۴۰۰": 2294,
    "▁کی": 2295,
    "▁میراث": 2296,
    "▁دستورالعمل": 2297,
    "▁روغن": 2298,
    "▁ساعات": 2299,
    "▁تحولات": 2300,
    "▁نامش": 2301,
    "▁اتفاقی": 2302,
    "▁آواز": 2303,
    "▁خبرساز": 2304,
    "▁اسپانیایی": 2305,
    "▁امشب": 2306,
    "▁سوئد": 2307,
    "▁آرایش": 2308,
    "یوم": 2309,
    "گین": 2310,
    "▁علنی": 2311,
    "▁حداکثر": 2312,
    "▁محصول": 2313,
    "▁خشک": 2314,
    "▁آمدن": 2315,
    "▁قال": 2316,
    "▁آسان": 2317,
    "▁پهلوی": 2318,
    "تکلیف": 2319,
    "▁مناسبت": 2320,
    "خمین": 2321,
    "▁شهری": 2322,
    "غول": 2323,
    "▁ذهن": 2324,
    "▁کارزار": 2325,
    "باقر": 2326,
    "▁تپ": 2327,
    "بنابر": 2328,
    "▁کارت": 2329,
    "▁جی": 2330,
    "▁نوروزی": 2331,
    "▁پرتغال": 2332,
    "▁معن": 2333,
    "▁پنهان": 2334,
    "▁مشاغل": 2335,
    "▁عبارت": 2336,
    "▁گروسی": 2337,
    "کا": 2338,
    "▁رونق": 2339,
    "▁تنفس": 2340,
    "▁بگیرند": 2341,
    "لاک": 2342,
    "▁زهرا": 2343,
    "▁مثال": 2344,
    "▁تکمیل": 2345,
    "▁هوش": 2346,
    "▁مطلب": 2347,
    "▁کالاها": 2348,
    "▁شویم": 2349,
    "▁خودکشی": 2350,
    "▁پالایشگاه": 2351,
    "▁ملایی": 2352,
    "▁برگزید": 2353,
    "رز": 2354,
    "▁چرخ": 2355,
    "▁نفوذ": 2356,
    "▁بردن": 2357,
    "▁تابلو": 2358,
    "▁تعرف": 2359,
    "کته": 2360,
    "▁۱۵۰": 2361,
    "۱۴": 2362,
    "▁رویدادها": 2363,
    "▁دوز": 2364,
    "▁بازگش": 2365,
    "▁خاصی": 2366,
    "سعید": 2367,
    "▁عکاس": 2368,
    "▁مان": 2369,
    "▁اع": 2370,
    "فت": 2371,
    "▁کش": 2372,
    "▁محاسب": 2373,
    "▁مار": 2374,
    "جی": 2375,
    "آزادسازی": 2376,
    "▁جزیر": 2377,
    "▁پرچم": 2378,
    "▁رویا": 2379,
    "▁عمدتا": 2380,
    "▁اتومبیل": 2381,
    "▁حکایت": 2382,
    "▁گرنداسلم": 2383,
    "▁اندونزی": 2384,
    "▁غیرمستقیم": 2385,
    "▁اولویت": 2386,
    "▁تاسیس": 2387,
    "▁دیپلماتیک": 2388,
    "▁تردد": 2389,
    "▁علائم": 2390,
    "▁محرومیت": 2391,
    "▁اقلیم": 2392,
    "▁قایق": 2393,
    "▁غافلگیر": 2394,
    "▁کانون": 2395,
    "▁وسیع": 2396,
    "▁وایلد": 2397,
    "▁ششم": 2398,
    "▁پوشش": 2399,
    "▁مبن": 2400,
    "▁ردیف": 2401,
    "▁ویدیوی": 2402,
    "▁خمینی": 2403,
    "▁معلوم": 2404,
    "▁سرنوشت": 2405,
    "▁پکن": 2406,
    "▁ریال": 2407,
    "▁سازنده": 2408,
    "▁سیست": 2409,
    "▁عبدالله": 2410,
    "اک": 2411,
    "▁خواب": 2412,
    "جسم": 2413,
    "▁زدند": 2414,
    "▁۳۴": 2415,
    "▁دلاری": 2416,
    "▁برنت": 2417,
    "خالت": 2418,
    "▁کنگ": 2419,
    "▁مسافرت": 2420,
    "▁فیزیک": 2421,
    "▁خاتم": 2422,
    "▁چارچوب": 2423,
    "▁نیمکت": 2424,
    "▁فراتر": 2425,
    "▁بابا": 2426,
    "▁۲۰۱۱": 2427,
    "▁هافبک": 2428,
    "▁هفتاد": 2429,
    "▁پاییز": 2430,
    "▁فروخته": 2431,
    "▁شواهد": 2432,
    "▁آهن": 2433,
    "▁خطیب": 2434,
    "▁یادآور": 2435,
    "▁تجا": 2436,
    "▁سرکوب": 2437,
    "▁تماشای": 2438,
    "▁تفاوت": 2439,
    "▁جری": 2440,
    "▁کانادا": 2441,
    "▁دهنده": 2442,
    "▁منظور": 2443,
    "نجر": 2444,
    "شی": 2445,
    "▁اص": 2446,
    "▁آم": 2447,
    "شدید": 2448,
    "▁کجا": 2449,
    "▁عملا": 2450,
    "▁بازرس": 2451,
    "▁ضرور": 2452,
    "▁تحول": 2453,
    "▁ویژ": 2454,
    "▁موقع": 2455,
    "▁مالیاتی": 2456,
    "▁اختلال": 2457,
    "▁برج": 2458,
    "▁لستر": 2459,
    "▁بیستم": 2460,
    "▁نامزدهای": 2461,
    "▁بهای": 2462,
    "▁موافق": 2463,
    "▁گزین": 2464,
    "▁لذت": 2465,
    "▁حوادث": 2466,
    "▁واگن": 2467,
    "▁خفاش": 2468,
    "▁داور": 2469,
    "▁باشیم": 2470,
    "▁مقدمات": 2471,
    "▁خلاف": 2472,
    "ریمه": 2473,
    "▁تالاب": 2474,
    "▁مجازات": 2475,
    "▁نژادپرست": 2476,
    "▁شهرسازی": 2477,
    "وند": 2478,
    "▁طلای": 2479,
    "▁رمز": 2480,
    "▁صادق": 2481,
    "▁ار": 2482,
    "▁خرد": 2483,
    "▁حج": 2484,
    "کن": 2485,
    "▁صورتی": 2486,
    "وال": 2487,
    "▁غلام": 2488,
    "▁ریش": 2489,
    "▁مادرش": 2490,
    "▁خان": 2491,
    "▁شک": 2492,
    "▁عطر": 2493,
    "واع": 2494,
    "بستری": 2495,
    "▁برند": 2496,
    "▁نامید": 2497,
    "▁پرده": 2498,
    "آ": 2499,
    "پدیده": 2500,
    "▁تردید": 2501,
    "▁عفو": 2502,
    "▁بودم": 2503,
    "ص": 2504,
    "▁هیا": 2505,
    "وش": 2506,
    "▁هتل": 2507,
    "▁دائم": 2508,
    "▁پژوهشگر": 2509,
    "▁تماشا": 2510,
    "دکتر": 2511,
    "آزمایی": 2512,
    "▁معدن": 2513,
    "داران": 2514,
    "▁آشکار": 2515,
    "▁سلول": 2516,
    "▁حیوانات": 2517,
    "▁تراکتور": 2518,
    "▁سهامداران": 2519,
    "وقت": 2520,
    "▁خاورمیانه": 2521,
    "▁مستقل": 2522,
    "▁فرگوسن": 2523,
    "▁اینتر": 2524,
    "▁تجهیزات": 2525,
    "▁سپرده": 2526,
    "سقف": 2527,
    "قرار": 2528,
    "▁نوروز": 2529,
    "▁مدنی": 2530,
    "▁ناکام": 2531,
    "▁جانب": 2532,
    "▁انداخت": 2533,
    "▁طلب": 2534,
    "▁مدرن": 2535,
    "▁راحت": 2536,
    "▁فا": 2537,
    "▁استاندار": 2538,
    "ذ": 2539,
    "▁اسکن": 2540,
    "ورت": 2541,
    "▁پو": 2542,
    "پی": 2543,
    "لت": 2544,
    "▁تاپ": 2545,
    "▁فولک": 2546,
    "▁پیوسته": 2547,
    "▁عظیم": 2548,
    "قابل": 2549,
    "▁۶۰۰": 2550,
    "▁نمای": 2551,
    "▁رها": 2552,
    "▁تسلیحات": 2553,
    "▁جستجو": 2554,
    "▁مورینیو": 2555,
    "▁منافع": 2556,
    "▁بگذارد": 2557,
    "▁منع": 2558,
    "رون": 2559,
    "▁میناوند": 2560,
    "▁مخفی": 2561,
    "▁دفاعی": 2562,
    "▁جانشین": 2563,
    "▁اورتون": 2564,
    "▁شرط": 2565,
    "▁هیجان": 2566,
    "▁آرامش": 2567,
    "▁هو": 2568,
    "▁آماد": 2569,
    "▁کنفرانس": 2570,
    "▁نمایشگاه": 2571,
    "▁برون": 2572,
    "▁درخشان": 2573,
    "کو": 2574,
    "▁مذهبی": 2575,
    "▁شهرها": 2576,
    "▁اجباری": 2577,
    "▁جورج": 2578,
    "بین": 2579,
    "▁فقر": 2580,
    "▁جک": 2581,
    "پیچیده": 2582,
    "▁ذخ": 2583,
    "▁خشم": 2584,
    "▁ایست": 2585,
    "▁مدار": 2586,
    "لا": 2587,
    "باره": 2588,
    "▁بردند": 2589,
    "ساله": 2590,
    "▁کارش": 2591,
    "▁آر": 2592,
    "▁بودیم": 2593,
    "▁درآمدها": 2594,
    "وزیر": 2595,
    "▁خودروسازی": 2596,
    "یو": 2597,
    "بار": 2598,
    "▁مطمئن": 2599,
    "▁مص": 2600,
    "▁پاپ": 2601,
    "مت": 2602,
    "▁فرمان": 2603,
    "▁اقلام": 2604,
    "▁مازندران": 2605,
    "▁پیامدهای": 2606,
    "▁خاتمی": 2607,
    "▁نباشد": 2608,
    "▁طبری": 2609,
    "▁خطاب": 2610,
    "سبب": 2611,
    "▁برگزیت": 2612,
    "▁تدریج": 2613,
    "▁جواب": 2614,
    "▁جم": 2615,
    "▁زانو": 2616,
    "▁تعطیلات": 2617,
    "▁مرجان": 2618,
    "▁سفارش": 2619,
    "▁مهاجرت": 2620,
    "▁امکانات": 2621,
    "▁بازرسان": 2622,
    "▁اسماعیل": 2623,
    "▁تل": 2624,
    "▁ذ": 2625,
    "▁فرماندار": 2626,
    "▁گردشگری": 2627,
    "▁نمایندگی": 2628,
    "▁همکاران": 2629,
    "ولی": 2630,
    "▁اتهامات": 2631,
    "▁رحمانی": 2632,
    "▁نشین": 2633,
    "▁طلبان": 2634,
    "▁نابودی": 2635,
    "▁ایفا": 2636,
    "▁طوری": 2637,
    "نس": 2638,
    "زی": 2639,
    "▁بازیگران": 2640,
    "▁گزارشگر": 2641,
    "▁فروشگاه": 2642,
    "▁کو": 2643,
    "▁حامی": 2644,
    "▁مرور": 2645,
    "▁قدر": 2646,
    "▁مهمتری": 2647,
    "▁۷۰۰": 2648,
    "▁خریدار": 2649,
    "▁رهبران": 2650,
    "▁دان": 2651,
    "▁تور": 2652,
    "ینگ": 2653,
    "▁فراوان": 2654,
    "▁ماندن": 2655,
    "▁بغداد": 2656,
    "▁معاصر": 2657,
    "▁خراسان": 2658,
    "▁هالیوود": 2659,
    "▁مشروط": 2660,
    "▁اصلا": 2661,
    "▁آموز": 2662,
    "▁ارشاد": 2663,
    "▁عذر": 2664,
    "▁صادرکنندگان": 2665,
    "▁ماراتن": 2666,
    "▁عمق": 2667,
    "▁هاشمی": 2668,
    "▁فولا": 2669,
    "▁اولسان": 2670,
    "▁اپل": 2671,
    "▁رم": 2672,
    "▁محکومیت": 2673,
    "▁رسانی": 2674,
    "▁خاوران": 2675,
    "▁مخاطبان": 2676,
    "▁نماز": 2677,
    "▁سلمان": 2678,
    "▁۴۴": 2679,
    "▁اکثر": 2680,
    "پور": 2681,
    "▁پیمان": 2682,
    "▁قد": 2683,
    "▁هجوم": 2684,
    "حدود": 2685,
    "ابی": 2686,
    "▁بخار": 2687,
    "فاصله": 2688,
    "▁اقامت": 2689,
    "گانه": 2690,
    "▁اندک": 2691,
    "▁اوران": 2692,
    "▁محمدجواد": 2693,
    "▁روس": 2694,
    "الب": 2695,
    "امروز": 2696,
    "نوبت": 2697,
    "▁قله": 2698,
    "▁یازده": 2699,
    "▁۱۹۸": 2700,
    "افزایش": 2701,
    "▁انگار": 2702,
    "▁حلق": 2703,
    "▁جر": 2704,
    "▁رس": 2705,
    "▁عاشق": 2706,
    "حمل": 2707,
    "▁کلاسیک": 2708,
    "▁۹۵": 2709,
    "▁۳۷": 2710,
    "▁نود": 2711,
    "▁وال": 2712,
    "کاری": 2713,
    "▁آدم": 2714,
    "▁ماهوار": 2715,
    "▁گوشی": 2716,
    "▁بیمه": 2717,
    "▁بوشهر": 2718,
    "▁زیرا": 2719,
    "سم": 2720,
    "▁وحش": 2721,
    "▁۷۵": 2722,
    "▁عوارض": 2723,
    "▁احترام": 2724,
    "▁جایگزین": 2725,
    "▁یوفا": 2726,
    "▁اماکن": 2727,
    "▁اسلام": 2728,
    "▁سرقت": 2729,
    "▁تجدید": 2730,
    "▁معارف": 2731,
    "ئو": 2732,
    "چ": 2733,
    "▁بزند": 2734,
    "▁لمس": 2735,
    "▁ارتباطات": 2736,
    "▁سانسور": 2737,
    "▁گذر": 2738,
    "▁قلع": 2739,
    "۲۰۱۲": 2740,
    "▁سبز": 2741,
    "▁فق": 2742,
    "▁فرو": 2743,
    "▁عزاداری": 2744,
    "▁شنا": 2745,
    "▁داری": 2746,
    "▁برقی": 2747,
    "▁۳۹": 2748,
    "وری": 2749,
    "اند": 2750,
    "▁تحلیلگر": 2751,
    "▁زنند": 2752,
    "▁حمید": 2753,
    "خواهی": 2754,
    "▁ذو": 2755,
    "▁خیر": 2756,
    "▁قر": 2757,
    "بری": 2758,
    "▁تنگ": 2759,
    "▁کسر": 2760,
    "▁گمان": 2761,
    "لند": 2762,
    "قیمت": 2763,
    "▁کارمند": 2764,
    "▁عاص": 2765,
    "▁آموزشی": 2766,
    "یوان": 2767,
    "آن": 2768,
    "▁قاجار": 2769,
    "▁آفتاب": 2770,
    "▁رستوران": 2771,
    "▁خلاص": 2772,
    "رسمی": 2773,
    "طئ": 2774,
    "▁جانسون": 2775,
    "▁طوفان": 2776,
    "▁علم": 2777,
    "▁نمایشگر": 2778,
    "▁فریاد": 2779,
    "▁وستهم": 2780,
    "▁پوشید": 2781,
    "▁درحال": 2782,
    "▁هیوندای": 2783,
    "▁سوالات": 2784,
    "▁مستمر": 2785,
    "▁تاثیرگذار": 2786,
    "▁ی": 2787,
    "▁دانستند": 2788,
    "▁قلم": 2789,
    "▁۶۵": 2790,
    "▁نیرو": 2791,
    "▁بهشت": 2792,
    "▁سرای": 2793,
    "▁نی": 2794,
    "مجموع": 2795,
    "▁سرد": 2796,
    "تو": 2797,
    "▁اور": 2798,
    "▁مسئولین": 2799,
    "▁افسر": 2800,
    "حال": 2801,
    "▁شریفی": 2802,
    "▁طیف": 2803,
    "▁پیراهن": 2804,
    "▁خوردن": 2805,
    "▁آسیای": 2806,
    "▁کشد": 2807,
    "فر": 2808,
    "راحل": 2809,
    "▁خواه": 2810,
    "▁اردو": 2811,
    "ابط": 2812,
    "دم": 2813,
    "چی": 2814,
    "▁آتی": 2815,
    "▁فان": 2816,
    "▁یاران": 2817,
    "▁عام": 2818,
    "▁معمار": 2819,
    "▁۴۹": 2820,
    "▁پرفروش": 2821,
    "▁عادل": 2822,
    "هزار": 2823,
    "▁دانشمند": 2824,
    "تواند": 2825,
    "▁مطل": 2826,
    "▁تاکسی": 2827,
    "▁سوئیسی": 2828,
    "دگی": 2829,
    "▁دبلیو": 2830,
    "▁فرآیند": 2831,
    "▁گوناگون": 2832,
    "▁سلاح": 2833,
    "▁سایپا": 2834,
    "▁مطبوعات": 2835,
    "▁صمت": 2836,
    "▁عراقچی": 2837,
    "▁جنبش": 2838,
    "▁مکانی": 2839,
    "▁وسایل": 2840,
    "▁خطوط": 2841,
    "▁فای": 2842,
    "حت": 2843,
    "▁مقاومت": 2844,
    "ادی": 2845,
    "▁پلاستیک": 2846,
    "▁بنیان": 2847,
    "▁حیدر": 2848,
    "▁برندگان": 2849,
    "▁۵۷": 2850,
    "▁وانت": 2851,
    "▁شوک": 2852,
    "▁نگرفته": 2853,
    "▁داستانی": 2854,
    "▁آگاه": 2855,
    "▁بلیت": 2856,
    "▁زیبایی": 2857,
    "▁سالها": 2858,
    "▁خواهم": 2859,
    "▁دایک": 2860,
    "▁بطور": 2861,
    "▁بلخ": 2862,
    "▁اوبر": 2863,
    "▁باند": 2864,
    "▁همیلتون": 2865,
    "▁فرستاد": 2866,
    "▁فکری": 2867,
    "▁عادت": 2868,
    "وخیم": 2869,
    "▁صالح": 2870,
    "▁ذر": 2871,
    "▁حا": 2872,
    "▁بازنشست": 2873,
    "▁کریست": 2874,
    "▁آزمایشگاه": 2875,
    "▁فلیک": 2876,
    "▁تف": 2877,
    "▁ضعیف": 2878,
    "▁یور": 2879,
    "بنا": 2880,
    "▁بهایی": 2881,
    "رچند": 2882,
    "▁توجهی": 2883,
    "لوله": 2884,
    "▁شورو": 2885,
    "▁دارم": 2886,
    "▁قیمتها": 2887,
    "▁جیب": 2888,
    "▁ادعای": 2889,
    "ظ": 2890,
    "▁سد": 2891,
    "▁وسط": 2892,
    "▁۵۵": 2893,
    "▁تبلیغ": 2894,
    "▁تصادف": 2895,
    "▁تائید": 2896,
    "▁آنفلوآنزا": 2897,
    "▁شوماخر": 2898,
    "سخنگوی": 2899,
    "▁انفرادی": 2900,
    "▁۱۹۸۶": 2901,
    "▁مور": 2902,
    "▁مصدومیت": 2903,
    "▁مدارس": 2904,
    "▁بورل": 2905,
    "▁باشید": 2906,
    "▁بدهند": 2907,
    "▁دانشجویان": 2908,
    "▁دیگو": 2909,
    "۱۹": 2910,
    "اجی": 2911,
    "▁شتاب": 2912,
    "▁استادیوم": 2913,
    "▁ضرورت": 2914,
    "طی": 2915,
    "▁نداشتند": 2916,
    "▁پدید": 2917,
    "▁شنیده": 2918,
    "خراج": 2919,
    "▁عملی": 2920,
    "▁سپ": 2921,
    "▁راز": 2922,
    "رویی": 2923,
    "▁جنبه": 2924,
    "آمریکا": 2925,
    "▁شور": 2926,
    "▁کریستیان": 2927,
    "▁سرباز": 2928,
    "▁مع": 2929,
    "▁حب": 2930,
    "غ": 2931,
    "▁عبوری": 2932,
    "▁قطب": 2933,
    "▁معاف": 2934,
    "▁قص": 2935,
    "▁سیل": 2936,
    "▁سالم": 2937,
    "▁افزار": 2938,
    "▁هنگ": 2939,
    "داشت": 2940,
    "▁حساس": 2941,
    "▁راستی": 2942,
    "▁باد": 2943,
    "▁مهاجر": 2944,
    "نکه": 2945,
    "▁ریه": 2946,
    "▁چندی": 2947,
    "ریزی": 2948,
    "اش": 2949,
    "▁سراسری": 2950,
    "▁روح": 2951,
    "▁مقال": 2952,
    "▁نسب": 2953,
    "▁جرم": 2954,
    "▁مح": 2955,
    "احل": 2956,
    "ظیف": 2957,
    "▁منتقد": 2958,
    "▁شعار": 2959,
    "فق": 2960,
    "▁ارتفاع": 2961,
    "▁تدابیر": 2962,
    "▁کهکشان": 2963,
    "▁استراماچونی": 2964,
    "▁دهقان": 2965,
    "▁ترجیح": 2966,
    "▁مرا": 2967,
    "▁بکشد": 2968,
    "▁مترجم": 2969,
    "خیص": 2970,
    "اولین": 2971,
    "▁لاریجانی": 2972,
    "امسال": 2973,
    "▁ولسوال": 2974,
    "▁زلزله": 2975,
    "▁قادر": 2976,
    "▁همسایه": 2977,
    "▁پیاده": 2978,
    "▁غریب": 2979,
    "▁ببرد": 2980,
    "▁مطهری": 2981,
    "▁گوگل": 2982,
    "▁اختلافات": 2983,
    "▁مسکو": 2984,
    "▁روزگار": 2985,
    "▁اهدا": 2986,
    "پیشتر": 2987,
    "▁ارزان": 2988,
    "▁قار": 2989,
    "▁تمایل": 2990,
    "▁مطالب": 2991,
    "▁رسیدند": 2992,
    "▁تروریستی": 2993,
    "ازی": 2994,
    "▁محافظت": 2995,
    "دن": 2996,
    "صوفی": 2997,
    "▁آزمایی": 2998,
    "▁۲۵۰": 2999,
    "▁شا": 3000,
    "▁منشا": 3001,
    "ریم": 3002,
    "▁کیلو": 3003,
    "▁ریاض": 3004,
    "▁فتح": 3005,
    "▁نرسیده": 3006,
    "▁ربات": 3007,
    "تون": 3008,
    "اقات": 3009,
    "▁ویدئویی": 3010,
    "▁متشک": 3011,
    "▁باب": 3012,
    "▁ادا": 3013,
    "▁روزه": 3014,
    "▁وسی": 3015,
    "اجع": 3016,
    "▁اگر": 3017,
    "▁زا": 3018,
    "▁ضرر": 3019,
    "▁ژنتیکی": 3020,
    "رداد": 3021,
    "▁قاطع": 3022,
    "▁غار": 3023,
    "▁کف": 3024,
    "اده": 3025,
    "▁ویدیو": 3026,
    "▁پارسی": 3027,
    "جونز": 3028,
    "▁بدتر": 3029,
    "▁هجومی": 3030,
    "افغانستان": 3031,
    "تری": 3032,
    "▁صادقی": 3033,
    "▁درمانی": 3034,
    "▁متاسف": 3035,
    "▁ستار": 3036,
    "▁صادرکنند": 3037,
    "▁تگزاس": 3038,
    "▁همیشگی": 3039,
    "▁دوپینگ": 3040,
    "▁دقایق": 3041,
    "▁افکن": 3042,
    "▁بازگردد": 3043,
    "▁۲۰۱۰": 3044,
    "▁بوندس": 3045,
    "▁ویلموتس": 3046,
    "▁تلخ": 3047,
    "▁نکنید": 3048,
    "▁هشتاد": 3049,
    "▁سرویس": 3050,
    "▁نقد": 3051,
    "▁ایرباس": 3052,
    "▁نروژ": 3053,
    "▁لوئی": 3054,
    "نو": 3055,
    "▁آورند": 3056,
    "▁درخت": 3057,
    "▁جلسات": 3058,
    "▁جدایی": 3059,
    "▁وبسایت": 3060,
    "▁منچستریونایتد": 3061,
    "▁تعهد": 3062,
    "▁ولز": 3063,
    "مند": 3064,
    "فرین": 3065,
    "▁پرسش": 3066,
    "▁۱۹۹": 3067,
    "▁راهبرد": 3068,
    "▁ادعا": 3069,
    "▁فرش": 3070,
    "▁عروس": 3071,
    "▁باری": 3072,
    "▁هستم": 3073,
    "دل": 3074,
    "▁۳۸": 3075,
    "تصاب": 3076,
    "▁موش": 3077,
    "▁پپ": 3078,
    "وف": 3079,
    "▁موضوعات": 3080,
    "▁افشار": 3081,
    "▁شکاف": 3082,
    "التی": 3083,
    "موند": 3084,
    "▁انبار": 3085,
    "▁شناور": 3086,
    "نظر": 3087,
    "▁سلطان": 3088,
    "▁سگ": 3089,
    "▁افتد": 3090,
    "▁شیرین": 3091,
    "▁کمال": 3092,
    "▁خواستند": 3093,
    "▁ترور": 3094,
    "▁امان": 3095,
    "▁استخوان": 3096,
    "نیم": 3097,
    "▁شکار": 3098,
    "اکان": 3099,
    "▁گمانه": 3100,
    "▁درهای": 3101,
    "ایر": 3102,
    "▁نقدی": 3103,
    "▁بازیگری": 3104,
    "شه": 3105,
    "ستون": 3106,
    "▁خال": 3107,
    "▁وا": 3108,
    "▁یکم": 3109,
    "رگن": 3110,
    "خرج": 3111,
    "امی": 3112,
    "پوری": 3113,
    "۳۱": 3114,
    "۴۳": 3115,
    "▁شایع": 3116,
    "▁۹۶": 3117,
    "ازم": 3118,
    "نش": 3119,
    "▁ص": 3120,
    "▁پانصد": 3121,
    "▁خداحافظ": 3122,
    "▁تلفیق": 3123,
    "▁پرافتخار": 3124,
    "▁برانگیخت": 3125,
    "▁واژه": 3126,
    "▁پرندگان": 3127,
    "▁بروکسل": 3128,
    "▁برانگیز": 3129,
    "▁شیراز": 3130,
    "▁پردازد": 3131,
    "▁بامداد": 3132,
    "عبدال": 3133,
    "▁خبرهای": 3134,
    "▁تبار": 3135,
    "▁محاکمه": 3136,
    "▁محاسبات": 3137,
    "▁مدارک": 3138,
    "▁اشتغال": 3139,
    "غان": 3140,
    "▁منچسترسیتی": 3141,
    "▁پرورش": 3142,
    "▁خاطرات": 3143,
    "پنج": 3144,
    "▁نم": 3145,
    "▁انصاریان": 3146,
    "▁معمولی": 3147,
    "▁کهن": 3148,
    "▁فیلمساز": 3149,
    "▁تس": 3150,
    "▁فلز": 3151,
    "▁قدس": 3152,
    "▁ظاهرا": 3153,
    "▁نزد": 3154,
    "▁جن": 3155,
    "▁برایش": 3156,
    "▁برکنار": 3157,
    "▁گذاشتن": 3158,
    "▁تبلیغات": 3159,
    "▁منار": 3160,
    "▁کرام": 3161,
    "▁قدمت": 3162,
    "▁محسن": 3163,
    "▁گفتگوها": 3164,
    "▁کاربر": 3165,
    "▁کتی": 3166,
    "آوری": 3167,
    "مانده": 3168,
    "▁کال": 3169,
    "▁یازدهم": 3170,
    "التهاب": 3171,
    "ث": 3172,
    "▁سران": 3173,
    "▁افشا": 3174,
    "▁پوری": 3175,
    "شده": 3176,
    "نام": 3177,
    "بورن": 3178,
    "▁والی": 3179,
    "▁پانزده": 3180,
    "▁ری": 3181,
    "▁اصطلاح": 3182,
    "باران": 3183,
    "▁زیان": 3184,
    "▁اهدای": 3185,
    "▁موسوی": 3186,
    "▁خوک": 3187,
    "احض": 3188,
    "سا": 3189,
    "▁مشتری": 3190,
    "ارد": 3191,
    "رانی": 3192,
    "▁خوشحال": 3193,
    "▁کیو": 3194,
    "▁اوست": 3195,
    "▁راند": 3196,
    "▁فیلیپ": 3197,
    "▁اعزام": 3198,
    "▁تأثیر": 3199,
    "▁اطلس": 3200,
    "▁مفید": 3201,
    "▁امتحان": 3202,
    "▁فلوریدا": 3203,
    "▁الکترونیک": 3204,
    "▁گورستان": 3205,
    "▁فردوسی": 3206,
    "▁۲۰۲۲": 3207,
    "▁ودیعه": 3208,
    "▁اقلیمی": 3209,
    "▁قدرتمند": 3210,
    "▁یادداشت": 3211,
    "▁منزل": 3212,
    "▁مسکونی": 3213,
    "▁کمرنگ": 3214,
    "▁لحا": 3215,
    "▁خلو": 3216,
    "▁برخلاف": 3217,
    "▁تدو": 3218,
    "▁آنقدر": 3219,
    "▁استرازنکا": 3220,
    "▁مفهوم": 3221,
    "زر": 3222,
    "▁ابعاد": 3223,
    "▁مارتین": 3224,
    "▁حضورش": 3225,
    "▁قاضی": 3226,
    "استقلال": 3227,
    "▁محتوای": 3228,
    "▁زوج": 3229,
    "▁کاوشگر": 3230,
    "▁لحظات": 3231,
    "▁خوان": 3232,
    "خره": 3233,
    "▁سرزمین": 3234,
    "▁گذراند": 3235,
    "ماهی": 3236,
    "▁ذخا": 3237,
    "▁زرد": 3238,
    "▁تفاهم": 3239,
    "▁جمال": 3240,
    "▁گرا": 3241,
    "ض": 3242,
    "▁دادسرا": 3243,
    "وات": 3244,
    "▁گردن": 3245,
    "▁لب": 3246,
    "۸۵": 3247,
    "▁کریمی": 3248,
    "▁کیم": 3249,
    "محمود": 3250,
    "مل": 3251,
    "▁فاز": 3252,
    "دانشمندان": 3253,
    "▁عزیزی": 3254,
    "▁خوا": 3255,
    "▁مبادل": 3256,
    "▁فراری": 3257,
    "لحق": 3258,
    "مون": 3259,
    "▁پیست": 3260,
    "▁نبرد": 3261,
    "▁باشگاهی": 3262,
    "▁۴۸": 3263,
    "نیک": 3264,
    "دان": 3265,
    "▁ناصر": 3266,
    "▁پیشگیری": 3267,
    "▁داوطلب": 3268,
    "▁موشکی": 3269,
    "▁بشری": 3270,
    "▁پیوند": 3271,
    "▁تاک": 3272,
    "ناز": 3273,
    "طفی": 3274,
    "واک": 3275,
    "▁بوش": 3276,
    "▁شعب": 3277,
    "جان": 3278,
    "وا": 3279,
    "▁باخته": 3280,
    "▁بعید": 3281,
    "▁گرد": 3282,
    "رس": 3283,
    "یس": 3284,
    "▁موبایل": 3285,
    "▁انقراض": 3286,
    "▁منحصر": 3287,
    "▁والیبال": 3288,
    "▁رضوی": 3289,
    "▁موانع": 3290,
    "▁فلوید": 3291,
    "▁پتروشیمی": 3292,
    "▁بنیانگذار": 3293,
    "▁تحمیل": 3294,
    "▁کریکت": 3295,
    "▁ویلیام": 3296,
    "▁برساند": 3297,
    "▁ثمر": 3298,
    "▁باران": 3299,
    "▁نیوزیلند": 3300,
    "▁دموکرات": 3301,
    "▁اهداف": 3302,
    "▁قرص": 3303,
    "▁کربن": 3304,
    "▁بیاید": 3305,
    "▁راس": 3306,
    "▁مسلمان": 3307,
    "▁راموس": 3308,
    "▁بخصوص": 3309,
    "▁همسان": 3310,
    "▁جوانی": 3311,
    "▁جنایت": 3312,
    "▁ثروت": 3313,
    "▁قریب": 3314,
    "▁خودروی": 3315,
    "▁کابین": 3316,
    "▁زاهد": 3317,
    "▁صنف": 3318,
    "لیورپول": 3319,
    "▁منوچ": 3320,
    "▁توماس": 3321,
    "خارجه": 3322,
    "عباس": 3323,
    "▁اضطراب": 3324,
    "▁فرزندان": 3325,
    "حالا": 3326,
    "▁سالن": 3327,
    "▁تاب": 3328,
    "عه": 3329,
    "▁درد": 3330,
    "▁وق": 3331,
    "▁سانتی": 3332,
    "▁کاسته": 3333,
    "▁یونان": 3334,
    "▁جدال": 3335,
    "▁جهانگیری": 3336,
    "▁رساندن": 3337,
    "شد": 3338,
    "▁ویکتور": 3339,
    "▁چا": 3340,
    "سیا": 3341,
    "▁اوکراین": 3342,
    "▁بروند": 3343,
    "▁صادراتی": 3344,
    "▁شیر": 3345,
    "▁خیابانی": 3346,
    "▁ایرانیان": 3347,
    "▁خواهی": 3348,
    "▁سیا": 3349,
    "▁دوام": 3350,
    "وت": 3351,
    "▁عموم": 3352,
    "ویز": 3353,
    "▁راک": 3354,
    "▁اوکراینی": 3355,
    "حص": 3356,
    "یف": 3357,
    "▁منتف": 3358,
    "▁راستا": 3359,
    "بو": 3360,
    "▁گروگان": 3361,
    "▁میر": 3362,
    "▁بها": 3363,
    "▁وست": 3364,
    "اول": 3365,
    "▁ویران": 3366,
    "▁ابزار": 3367,
    "▁پیک": 3368,
    "▁آرای": 3369,
    "▁آیین": 3370,
    "▁داغ": 3371,
    "آنها": 3372,
    "بیش": 3373,
    "▁رغ": 3374,
    "▁بران": 3375,
    "▁۷۷": 3376,
    "صورت": 3377,
    "▁محقق": 3378,
    "▁نیوک": 3379,
    "کر": 3380,
    "▁سیف": 3381,
    "▁کشی": 3382,
    "▁آبادی": 3383,
    "▁دادگستری": 3384,
    "▁لالیگا": 3385,
    "▁اکسیژن": 3386,
    "▁تروریسم": 3387,
    "▁تظاهرات": 3388,
    "▁لهستان": 3389,
    "▁حیوان": 3390,
    "▁مخابرات": 3391,
    "نت": 3392,
    "▁محدودیتهای": 3393,
    "▁دانمارک": 3394,
    "▁برانکو": 3395,
    "▁کارگزار": 3396,
    "▁سنا": 3397,
    "▁عفونت": 3398,
    "▁مقصر": 3399,
    "▁نهاده": 3400,
    "▁تسهیلات": 3401,
    "▁دایناسور": 3402,
    "▁تج": 3403,
    "▁بزرگتر": 3404,
    "▁مکرون": 3405,
    "▁صلاح": 3406,
    "▁مبنا": 3407,
    "▁نکند": 3408,
    "▁شریک": 3409,
    "▁صرفا": 3410,
    "▁نیما": 3411,
    "احمد": 3412,
    "▁غ": 3413,
    "▁عطرساز": 3414,
    "معاون": 3415,
    "▁صعودی": 3416,
    "▁صاحبان": 3417,
    "▁جهاد": 3418,
    "▁آگ": 3419,
    "▁خانوارهای": 3420,
    "▁یکصد": 3421,
    "▁دراز": 3422,
    "▁۰": 3423,
    "▁میلیاردها": 3424,
    "▁پیوستن": 3425,
    "▁سای": 3426,
    "▁آندر": 3427,
    "▁شخص": 3428,
    "▁فراگیر": 3429,
    "▁آهنگساز": 3430,
    "خالص": 3431,
    "▁اپرا": 3432,
    "طبق": 3433,
    "▁آذربایجان": 3434,
    "▁هاوس": 3435,
    "▁نص": 3436,
    "نادیده": 3437,
    "گروه": 3438,
    "▁خودم": 3439,
    "۵۰": 3440,
    "▁دیر": 3441,
    "▁افکار": 3442,
    "▁شاهزاد": 3443,
    "▁جلالی": 3444,
    "▁ساختار": 3445,
    "تنش": 3446,
    "▁کرمان": 3447,
    "▁مقطع": 3448,
    "▁فقیر": 3449,
    "▁خا": 3450,
    "کدام": 3451,
    "▁استعداد": 3452,
    "▁امین": 3453,
    "▁دستگیری": 3454,
    "▁شدم": 3455,
    "▁تبلیغاتی": 3456,
    "▁قراردادش": 3457,
    "یشه": 3458,
    "▁شیری": 3459,
    "▁رفتند": 3460,
    "▁توانم": 3461,
    "▁نشت": 3462,
    "▁۶۷": 3463,
    "▁مون": 3464,
    "وریا": 3465,
    "اسل": 3466,
    "▁اسم": 3467,
    "ناف": 3468,
    "▁قوا": 3469,
    "▁صالحی": 3470,
    "▁۵۶": 3471,
    "▁گرفتار": 3472,
    "▁دروغ": 3473,
    "▁اسپی": 3474,
    "▁موظف": 3475,
    "▁اصرار": 3476,
    "خصیص": 3477,
    "▁ناحیه": 3478,
    "▁تفریح": 3479,
    "▁انبوه": 3480,
    "▁ببینید": 3481,
    "▁خوراک": 3482,
    "▁بدانیم": 3483,
    "▁رولز": 3484,
    "▁شکنجه": 3485,
    "▁لزوم": 3486,
    "▁اپلیکیشن": 3487,
    "▁تخلف": 3488,
    "▁خاموش": 3489,
    "▁عروسک": 3490,
    "▁پالایشگاهی": 3491,
    "عنوان": 3492,
    "▁مبادلات": 3493,
    "▁فسیل": 3494,
    "▁رابرت": 3495,
    "▁گردشگران": 3496,
    "▁جالب": 3497,
    "▁بازماند": 3498,
    "▁مرخص": 3499,
    "▁بامیان": 3500,
    "جم": 3501,
    "▁ایرلند": 3502,
    "▁اشرف": 3503,
    "▁بیروت": 3504,
    "وریس": 3505,
    "▁موجودات": 3506,
    "▁اسلم": 3507,
    "وجود": 3508,
    "▁صبر": 3509,
    "▁فدرال": 3510,
    "▁لیدز": 3511,
    "اق": 3512,
    "▁قربانی": 3513,
    "▁رویای": 3514,
    "اج": 3515,
    "▁شاهکار": 3516,
    "▁گرند": 3517,
    "▁دانم": 3518,
    "▁بینند": 3519,
    "مار": 3520,
    "▁پذیرفته": 3521,
    "▁بدل": 3522,
    "▁سپر": 3523,
    "شاخص": 3524,
    "▁دورت": 3525,
    "▁خودران": 3526,
    "بسیاری": 3527,
    "▁هامر": 3528,
    "▁ایام": 3529,
    "▁اریک": 3530,
    "▁آمارها": 3531,
    "▁تقویم": 3532,
    "فن": 3533,
    "▁حیاتی": 3534,
    "▁ژنتیک": 3535,
    "▁گلزنی": 3536,
    "▁افتتاح": 3537,
    "▁رنج": 3538,
    "داوم": 3539,
    "▁آوردن": 3540,
    "▁بریت": 3541,
    "▁خودروها": 3542,
    "▁شوم": 3543,
    "عوض": 3544,
    "ویژه": 3545,
    "▁تاز": 3546,
    "▁سراغ": 3547,
    "▁تکان": 3548,
    "بت": 3549,
    "▁مش": 3550,
    "کننده": 3551,
    "▁بستن": 3552,
    "▁مرزهای": 3553,
    "▁کامیون": 3554,
    "▁عکسی": 3555,
    "▁تصویری": 3556,
    "▁فروشی": 3557,
    "وان": 3558,
    "▁صحن": 3559,
    "▁۵۲": 3560,
    "▁برکناری": 3561,
    "۲۵": 3562,
    "▁تورمی": 3563,
    "راه": 3564,
    "شار": 3565,
    "▁پرسید": 3566,
    "▁خواندن": 3567,
    "▁بوک": 3568,
    "▁فضانورد": 3569,
    "▁زیبا": 3570,
    "▁بمب": 3571,
    "▁جعل": 3572,
    "▁اخطار": 3573,
    "بعد": 3574,
    "شدت": 3575,
    "▁سحر": 3576,
    "فع": 3577,
    "▁دژپسند": 3578,
    "▁منتخب": 3579,
    "▁سئوال": 3580,
    "▁بندرعباس": 3581,
    "▁جسم": 3582,
    "▁بزوس": 3583,
    "▁تبعات": 3584,
    "▁رمزارزها": 3585,
    "▁زنگنه": 3586,
    "▁متعهد": 3587,
    "▁ایستاد": 3588,
    "▁ذکر": 3589,
    "▁علامت": 3590,
    "▁تسلیت": 3591,
    "▁ونیز": 3592,
    "▁متقاضی": 3593,
    "وار": 3594,
    "▁تلگرام": 3595,
    "▁۸۰۰": 3596,
    "▁رضایت": 3597,
    "▁شاگردان": 3598,
    "▁مداوم": 3599,
    "▁سرنشینان": 3600,
    "▁برلین": 3601,
    "▁حداکثری": 3602,
    "▁بدر": 3603,
    "▁کیهان": 3604,
    "▁روسی": 3605,
    "قه": 3606,
    "▁ترسیم": 3607,
    "▁یمانی": 3608,
    "▁طلایی": 3609,
    "▁استرالیایی": 3610,
    "▁ناجی": 3611,
    "▁امن": 3612,
    "▁آیند": 3613,
    "▁پیکر": 3614,
    "▁تعجب": 3615,
    "▁اشک": 3616,
    "▁مامور": 3617,
    "ونگ": 3618,
    "بخش": 3619,
    "۳۰": 3620,
    "یشب": 3621,
    "مسئولان": 3622,
    "▁انتقادات": 3623,
    "هالی": 3624,
    "وب": 3625,
    "یب": 3626,
    "▁ترکمن": 3627,
    "دادگاه": 3628,
    "▁ویلا": 3629,
    "ظهر": 3630,
    "▁کنسول": 3631,
    "روی": 3632,
    "▁عضوی": 3633,
    "▁نرسید": 3634,
    "▁ثروتمند": 3635,
    "▁عقید": 3636,
    "▁کوچکی": 3637,
    "ردن": 3638,
    "▁کاظم": 3639,
    "▁گنج": 3640,
    "▁داشتم": 3641,
    "▁ملا": 3642,
    "عکس": 3643,
    "گن": 3644,
    "یره": 3645,
    "▁تایلند": 3646,
    "خوانی": 3647,
    "▁لا": 3648,
    "▁الکس": 3649,
    "▁خو": 3650,
    "وفر": 3651,
    "▁جاسوس": 3652,
    "▁ویل": 3653,
    "▁سیزدهم": 3654,
    "شاید": 3655,
    "▁حافظ": 3656,
    "زا": 3657,
    "▁دهان": 3658,
    "▁مغزی": 3659,
    "▁انتقادهای": 3660,
    "▁فرید": 3661,
    "▁پالایش": 3662,
    "▁اشتراک": 3663,
    "▁پادتن": 3664,
    "▁استثنا": 3665,
    "▁ناپدید": 3666,
    "▁سایبری": 3667,
    "▁داغستان": 3668,
    "▁یوگا": 3669,
    "▁لنون": 3670,
    "▁بگیریم": 3671,
    "▁بزنند": 3672,
    "فیلم": 3673,
    "▁مگا": 3674,
    "▁استراحت": 3675,
    "▁ویلیامز": 3676,
    "▁استراتژیک": 3677,
    "▁کانری": 3678,
    "▁غرق": 3679,
    "▁طرفدار": 3680,
    "▁مرگبار": 3681,
    "▁پناهجویان": 3682,
    "بچه": 3683,
    "▁خرند": 3684,
    "▁تندرو": 3685,
    "▁فرونشست": 3686,
    "▁جاشوا": 3687,
    "▁کارلوس": 3688,
    "▁ناامن": 3689,
    "تن": 3690,
    "▁۱۲۰": 3691,
    "▁سالمندان": 3692,
    "▁شاعران": 3693,
    "▁تاجیک": 3694,
    "▁ضربات": 3695,
    "▁پراکند": 3696,
    "▁لیس": 3697,
    "▁توضیحات": 3698,
    "▁شاخ": 3699,
    "▁طرز": 3700,
    "آی": 3701,
    "▁گفتگوی": 3702,
    "▁خریداران": 3703,
    "▁کاشی": 3704,
    "▁احت": 3705,
    "استفاده": 3706,
    "▁لیگا": 3707,
    "▁کلود": 3708,
    "▁همرسان": 3709,
    "▁خشکسالی": 3710,
    "▁آرامکو": 3711,
    "▁استون": 3712,
    "▁آوردند": 3713,
    "▁پرسی": 3714,
    "▁زو": 3715,
    "▁مستق": 3716,
    "تب": 3717,
    "▁وحید": 3718,
    "▁خدا": 3719,
    "▁نیک": 3720,
    "▁کما": 3721,
    "▁۱۳۸": 3722,
    "اتحاد": 3723,
    "▁سینماها": 3724,
    "▁استعفای": 3725,
    "ضعیف": 3726,
    "▁اما": 3727,
    "ادورو": 3728,
    "▁گریز": 3729,
    "▁واسط": 3730,
    "انکن": 3731,
    "▁دعوا": 3732,
    "▁بهرام": 3733,
    "▁اشیا": 3734,
    "▁جبه": 3735,
    "▁روب": 3736,
    "▁ساختن": 3737,
    "▁جین": 3738,
    "▁بازگشا": 3739,
    "▁هندی": 3740,
    "▁رئیسی": 3741,
    "▁ازای": 3742,
    "▁اوین": 3743,
    "▁رش": 3744,
    "▁کلا": 3745,
    "فاش": 3746,
    "پلیس": 3747,
    "الله": 3748,
    "لق": 3749,
    "▁اوا": 3750,
    "▁۱۳۷": 3751,
    "▁مصون": 3752,
    "▁تروی": 3753,
    "بل": 3754,
    "▁کوچکتر": 3755,
    "▁کاست": 3756,
    "▁کمربند": 3757,
    "▁برزیلی": 3758,
    "▁فیلتر": 3759,
    "▁روستای": 3760,
    "▁سرا": 3761,
    "▁ناراحت": 3762,
    "▁نوار": 3763,
    "▁بنگلادش": 3764,
    "▁اعتقاد": 3765,
    "▁تعقیب": 3766,
    "▁شمخانی": 3767,
    "▁محوطه": 3768,
    "▁پارالمپیک": 3769,
    "▁شارژ": 3770,
    "▁وقایع": 3771,
    "▁ناچار": 3772,
    "▁خانوادگی": 3773,
    "▁دماوند": 3774,
    "▁تاکتیک": 3775,
    "▁نوبخت": 3776,
    "▁تماشاچی": 3777,
    "▁تجلیل": 3778,
    "▁بکشند": 3779,
    "▁اخلال": 3780,
    "▁بیاورد": 3781,
    "▁خوشنام": 3782,
    "▁۱۹۹۰": 3783,
    "▁آرامگاه": 3784,
    "▁مهرماه": 3785,
    "▁متناسب": 3786,
    "▁پیشتاز": 3787,
    "▁نشیب": 3788,
    "▁مخدر": 3789,
    "▁آرشیو": 3790,
    "▁اعتیاد": 3791,
    "▁بختیار": 3792,
    "▁فجر": 3793,
    "▁تعدیل": 3794,
    "▁چراغ": 3795,
    "▁تخلفات": 3796,
    "▁ضایع": 3797,
    "▁الحسن": 3798,
    "▁احساسات": 3799,
    "▁تکنولوژی": 3800,
    "▁تعل": 3801,
    "▁ستایش": 3802,
    "▁محبوبیت": 3803,
    "▁مالاریا": 3804,
    "▁۹۱": 3805,
    "▁مطالعات": 3806,
    "▁طنز": 3807,
    "▁عبدی": 3808,
    "▁قبال": 3809,
    "رای": 3810,
    "▁ربط": 3811,
    "واسط": 3812,
    "▁پایدار": 3813,
    "▁شدیدتر": 3814,
    "▁جف": 3815,
    "جاسوسی": 3816,
    "▁تعامل": 3817,
    "▁گلف": 3818,
    "▁بشار": 3819,
    "▁تقابل": 3820,
    "▁ط": 3821,
    "▁کشند": 3822,
    "ممکن": 3823,
    "▁کشاند": 3824,
    "▁۷۳": 3825,
    "نگره": 3826,
    "▁هواپیماهای": 3827,
    "کم": 3828,
    "▁کشتار": 3829,
    "۱۵": 3830,
    "▁نمادهای": 3831,
    "مراسم": 3832,
    "▁تصمیمات": 3833,
    "ناد": 3834,
    "▁عرف": 3835,
    "نفع": 3836,
    "▁روزی": 3837,
    "▁گانه": 3838,
    "▁همانند": 3839,
    "▁شمسی": 3840,
    "▁موازی": 3841,
    "▁بل": 3842,
    "▁معترض": 3843,
    "▁سل": 3844,
    "▁نکردن": 3845,
    "▁اسد": 3846,
    "۱۳": 3847,
    "آنتونی": 3848,
    "▁روزمر": 3849,
    "▁نان": 3850,
    "▁ایمان": 3851,
    "▁جنس": 3852,
    "▁اختلا": 3853,
    "▁کپی": 3854,
    "▁سین": 3855,
    "زن": 3856,
    "گرفته": 3857,
    "▁اذ": 3858,
    "زیگ": 3859,
    "▁ثروتمندتر": 3860,
    "▁دپ": 3861,
    "▁سومی": 3862,
    "جو": 3863,
    "▁روستایی": 3864,
    "صاف": 3865,
    "چین": 3866,
    "گذاری": 3867,
    "▁انتقادها": 3868,
    "▁نژادی": 3869,
    "زم": 3870,
    "▁ویزا": 3871,
    "▁ور": 3872,
    "▁مزار": 3873,
    "▁پورتو": 3874,
    "▁درآورد": 3875,
    "▁۷۴": 3876,
    "▁نامزدها": 3877,
    "وپن": 3878,
    "▁اید": 3879,
    "دا": 3880,
    "قات": 3881,
    "▁سرو": 3882,
    "▁بس": 3883,
    "▁کام": 3884,
    "▁محور": 3885,
    "رنو": 3886,
    "▁پوش": 3887,
    "یژن": 3888,
    "▁سلف": 3889,
    "▁کشت": 3890,
    "▁اسپ": 3891,
    "▁شبه": 3892,
    "اتی": 3893,
    "▁برداشتن": 3894,
    "▁اظهارنظر": 3895,
    "▁آنک": 3896,
    "پل": 3897,
    "سل": 3898,
    "▁مأمور": 3899,
    "▁شو": 3900,
    "▁مخصوص": 3901,
    "▁۳۶": 3902,
    "▁شه": 3903,
    "▁گیاه": 3904,
    "▁سامسونگ": 3905,
    "▁زریاب": 3906,
    "▁پرطرفدار": 3907,
    "▁استخدام": 3908,
    "▁مشکوک": 3909,
    "▁سکونت": 3910,
    "▁ترسناک": 3911,
    "▁دارا": 3912,
    "▁بیفتد": 3913,
    "▁معدود": 3914,
    "▁اسپرت": 3915,
    "ژانس": 3916,
    "▁مرجع": 3917,
    "▁بهبهان": 3918,
    "▁خفیف": 3919,
    "▁وفادار": 3920,
    "▁برتری": 3921,
    "▁سان": 3922,
    "▁بمانند": 3923,
    "▁غزنی": 3924,
    "▁دانشکد": 3925,
    "▁توجیه": 3926,
    "▁عنکبوت": 3927,
    "▁غیاب": 3928,
    "▁تسلیم": 3929,
    "▁رفاه": 3930,
    "▁۲۰۰۴": 3931,
    "▁گم": 3932,
    "▁نادرست": 3933,
    "▁هشتگ": 3934,
    "▁بوکسور": 3935,
    "▁گوی": 3936,
    "▁دستاوردهای": 3937,
    "▁نیجر": 3938,
    "▁علاقمندان": 3939,
    "▁سادات": 3940,
    "▁قطار": 3941,
    "▁غالب": 3942,
    "▁کیانوش": 3943,
    "▁ایلنا": 3944,
    "▁سیاستمداران": 3945,
    "▁نکنند": 3946,
    "لک": 3947,
    "▁ناو": 3948,
    "▁تعادل": 3949,
    "▁گیاهان": 3950,
    "▁روبروست": 3951,
    "▁کمتری": 3952,
    "▁کیفر": 3953,
    "▁داریوش": 3954,
    "▁تخیل": 3955,
    "▁سناتور": 3956,
    "▁انت": 3957,
    "▁۱۳۵": 3958,
    "▁اسپوت": 3959,
    "▁بهر": 3960,
    "▁شوید": 3961,
    "ماده": 3962,
    "▁دارید": 3963,
    "▁برنز": 3964,
    "خیره": 3965,
    "▁کاربرد": 3966,
    "▁ایا": 3967,
    "افت": 3968,
    "▁رادیویی": 3969,
    "▁شر": 3970,
    "▁داشتیم": 3971,
    "▁اکس": 3972,
    "▁گزارشگران": 3973,
    "▁آمدند": 3974,
    "نواک": 3975,
    "▁آمریکاست": 3976,
    "مدیر": 3977,
    "رات": 3978,
    "▁جوز": 3979,
    "رهای": 3980,
    "▁تش": 3981,
    "▁دهک": 3982,
    "▁سیزده": 3983,
    "▁تمرکز": 3984,
    "محققان": 3985,
    "▁۶۸": 3986,
    "▁یافتند": 3987,
    "▁آرا": 3988,
    "اخیرا": 3989,
    "▁نیش": 3990,
    "▁کیست": 3991,
    "گو": 3992,
    "▁۴۶": 3993,
    "▁اعضا": 3994,
    "▁آقا": 3995,
    "اداری": 3996,
    "▁جلال": 3997,
    "▁کاغذ": 3998,
    "▁روستا": 3999,
    "رسان": 4000,
    "▁مرس": 4001,
    "▁مصاد": 4002,
    "سر": 4003,
    "دور": 4004,
    "عب": 4005,
    "▁نامدار": 4006,
    "▁دقت": 4007,
    "▁شناسان": 4008,
    "▁وجه": 4009,
    "▁استاین": 4010,
    "▁ژوز": 4011,
    "▁رقص": 4012,
    "▁حداد": 4013,
    "▁آباد": 4014,
    "▁اقلی": 4015,
    "▁ظهر": 4016,
    "▁کادی": 4017,
    "▁خوانندگ": 4018,
    "مهدی": 4019,
    "▁تعهداتش": 4020,
    "ریک": 4021,
    "▁هروی": 4022,
    "▁مادری": 4023,
    "▁صند": 4024,
    "رین": 4025,
    "مرکز": 4026,
    "دیگر": 4027,
    "▁۷۲": 4028,
    "▁زبا": 4029,
    "گون": 4030,
    "▁نوزدهم": 4031,
    "▁برگ": 4032,
    "▁فیل": 4033,
    "▁بینیم": 4034,
    "▁یاری": 4035,
    "فاد": 4036,
    "▁وحشی": 4037,
    "▁خارا": 4038,
    "▁گنجی": 4039,
    "اوی": 4040,
    "▁خل": 4041,
    "▁مقا": 4042,
    "▁مکزیک": 4043,
    "▁معیار": 4044,
    "نک": 4045,
    "▁الانبیا": 4046,
    "▁المستقبل": 4047,
    "▁نتانیاهو": 4048,
    "▁چرنکوف": 4049,
    "▁اتوبوس": 4050,
    "▁دریابندری": 4051,
    "▁صداوسیما": 4052,
    "▁امیرشاهی": 4053,
    "▁شلوغ": 4054,
    "▁غربالگری": 4055,
    "▁تضمین": 4056,
    "شمار": 4057,
    "▁مدیترانه": 4058,
    "▁آسمایی": 4059,
    "▁خیانت": 4060,
    "▁پشتیبان": 4061,
    "▁آشوری": 4062,
    "▁ساویز": 4063,
    "گراندپری": 4064,
    "یلی": 4065,
    "▁کوهستان": 4066,
    "▁۲۰۳۰": 4067,
    "▁ببینند": 4068,
    "▁مقرر": 4069,
    "▁مسایل": 4070,
    "▁حدی": 4071,
    "▁حجاب": 4072,
    "▁حساسیت": 4073,
    "▁استراتژی": 4074,
    "▁توفان": 4075,
    "▁تعبیر": 4076,
    "راب": 4077,
    "▁انگشت": 4078,
    "▁لبخند": 4079,
    "برخ": 4080,
    "▁نفری": 4081,
    "▁تاریک": 4082,
    "▁همینطور": 4083,
    "▁اصلاحات": 4084,
    "وداع": 4085,
    "▁مقیم": 4086,
    "درصد": 4087,
    "▁دیپلمات": 4088,
    "▁کاردن": 4089,
    "شیبا": 4090,
    "▁ارا": 4091,
    "کاب": 4092,
    "▁صفحات": 4093,
    "▁لاری": 4094,
    "▁هرگ": 4095,
    "انس": 4096,
    "▁هوادار": 4097,
    "بون": 4098,
    "صب": 4099,
    "▁نمادی": 4100,
    "یچ": 4101,
    "▁نداشتن": 4102,
    "▁مرتب": 4103,
    "▁شیلی": 4104,
    "▁مسیرهای": 4105,
    "▁ابرا": 4106,
    "▁انتقالات": 4107,
    "▁بدی": 4108,
    "▁چوب": 4109,
    "▁بنیادی": 4110,
    "▁منصور": 4111,
    "▁مغاز": 4112,
    "▁پولی": 4113,
    "▁شهریار": 4114,
    "وطن": 4115,
    "خی": 4116,
    "▁باستانی": 4117,
    "▁ارد": 4118,
    "▁عم": 4119,
    "▁تقدی": 4120,
    "علیرضا": 4121,
    "▁کردستان": 4122,
    "جایی": 4123,
    "▁نظم": 4124,
    "▁دوازده": 4125,
    "▁سازد": 4126,
    "▁کامپیوتر": 4127,
    "▁اخلاق": 4128,
    "سکی": 4129,
    "اقد": 4130,
    "▁رحم": 4131,
    "۷۰": 4132,
    "▁گلزن": 4133,
    "▁کلام": 4134,
    "▁نسبتا": 4135,
    "▁نجف": 4136,
    "▁کلان": 4137,
    "برایتون": 4138,
    "لاتین": 4139,
    "▁برگشته": 4140,
    "▁دف": 4141,
    "هدف": 4142,
    "▁حاکم": 4143,
    "▁کشیدن": 4144,
    "آمار": 4145,
    "▁شهیدی": 4146,
    "هام": 4147,
    "▁قومی": 4148,
    "▁قطبی": 4149,
    "▁یکسال": 4150,
    "۰۰۰": 4151,
    "▁روبرت": 4152,
    "▁موکو": 4153,
    "ساسی": 4154,
    "▁تلف": 4155,
    "▁گازی": 4156,
    "حافظه": 4157,
    "▁آفرین": 4158,
    "کان": 4159,
    "▁دستک": 4160,
    "▁نیا": 4161,
    "▁تبادل": 4162,
    "خر": 4163,
    "رق": 4164,
    "▁دربار": 4165,
    "▁تثب": 4166,
    "▁تحقیر": 4167,
    "▁مکرر": 4168,
    "یعن": 4169,
    "▁درس": 4170,
    "▁خرابکار": 4171,
    "تمرکز": 4172,
    "الی": 4173,
    "▁فرج": 4174,
    "▁فرانک": 4175,
    "لاشه": 4176,
    "تل": 4177,
    "▁مختل": 4178,
    "▁مصدوم": 4179,
    "▁باستان": 4180,
    "▁آسوشیتدپرس": 4181,
    "▁نوشیدن": 4182,
    "▁تأیید": 4183,
    "▁اوباما": 4184,
    "▁ازبکستان": 4185,
    "▁مصلحت": 4186,
    "▁حرکات": 4187,
    "▁زیرساخت": 4188,
    "▁۱۳۹۵": 4189,
    "▁تالار": 4190,
    "▁سردبیر": 4191,
    "▁بپردازد": 4192,
    "▁خلاقیت": 4193,
    "▁بگیرید": 4194,
    "▁خستگی": 4195,
    "▁صح": 4196,
    "▁ناشناخت": 4197,
    "▁۱۵۰۰": 4198,
    "▁برگردد": 4199,
    "▁اسرار": 4200,
    "▁پایبند": 4201,
    "▁دیدگاه": 4202,
    "▁فروپاشی": 4203,
    "اف": 4204,
    "▁حباب": 4205,
    "▁مداخل": 4206,
    "دربند": 4207,
    "سیویر": 4208,
    "▁بلومبرگ": 4209,
    "▁بیلسا": 4210,
    "▁گرمایش": 4211,
    "▁آشفت": 4212,
    "▁مسافت": 4213,
    "▁مرگش": 4214,
    "گشایی": 4215,
    "▁خرسند": 4216,
    "▁بقایای": 4217,
    "▁ناتوان": 4218,
    "▁غفوری": 4219,
    "▁پار": 4220,
    "نظرسنجی": 4221,
    "▁شایعات": 4222,
    "▁شانه": 4223,
    "▁رانندگی": 4224,
    "▁دستیابی": 4225,
    "▁توخل": 4226,
    "▁سکوت": 4227,
    "▁بافت": 4228,
    "▁دهندگان": 4229,
    "▁پرهی": 4230,
    "▁متنوع": 4231,
    "صخره": 4232,
    "ختم": 4233,
    "▁ابوال": 4234,
    "▁سنبل": 4235,
    "▁سربازان": 4236,
    "اضی": 4237,
    "یحی": 4238,
    "▁چهاردهم": 4239,
    "بازار": 4240,
    "▁رایج": 4241,
    "▁فیس": 4242,
    "▁عزم": 4243,
    "▁اسک": 4244,
    "▁نکردند": 4245,
    "▁ادعاهای": 4246,
    "▁قوس": 4247,
    "ایح": 4248,
    "باشگاه": 4249,
    "▁ناآرامی": 4250,
    "▁مهاجران": 4251,
    "▁لح": 4252,
    "▁شانزدهم": 4253,
    "غال": 4254,
    "▁ریچارد": 4255,
    "▁رسم": 4256,
    "▁همکار": 4257,
    "▁رزم": 4258,
    "هرانا": 4259,
    "ایت": 4260,
    "لات": 4261,
    "▁سیم": 4262,
    "▁نوید": 4263,
    "▁سارا": 4264,
    "▁مهمان": 4265,
    "تلاف": 4266,
    "▁فل": 4267,
    "رقابت": 4268,
    "▁پیرو": 4269,
    "▁ظه": 4270,
    "▁۸۲": 4271,
    "▁خطی": 4272,
    "▁انجامید": 4273,
    "حل": 4274,
    "▁قرض": 4275,
    "▁ماد": 4276,
    "▁حریفان": 4277,
    "پژوهشگران": 4278,
    "▁خطای": 4279,
    "▁میل": 4280,
    "▁سختگیر": 4281,
    "▁گرگ": 4282,
    "▁قض": 4283,
    "▁داروها": 4284,
    "▁الیز": 4285,
    "▁سعد": 4286,
    "▁مرزها": 4287,
    "▁۱۳۹": 4288,
    "نز": 4289,
    "▁پروازها": 4290,
    "▁بازارها": 4291,
    "▁محدودیتها": 4292,
    "▁داوری": 4293,
    "۲۰۰": 4294,
    "▁قائ": 4295,
    "▁نوشتن": 4296,
    "▁تحقیقی": 4297,
    "علاو": 4298,
    "آبادی": 4299,
    "کمیت": 4300,
    "▁۹۰۰": 4301,
    "▁حو": 4302,
    "اع": 4303,
    "۴۰": 4304,
    "▁وب": 4305,
    "قرض": 4306,
    "مرگ": 4307,
    "▁نداد": 4308,
    "فی": 4309,
    "وله": 4310,
    "▁منته": 4311,
    "▁مایل": 4312,
    "▁اصول": 4313,
    "▁درخشانی": 4314,
    "▁ویدئوی": 4315,
    "▁۶۱": 4316,
    "▁منظر": 4317,
    "دهنده": 4318,
    "▁سرنشین": 4319,
    "▁گفتگوهای": 4320,
    "▁آتالانتا": 4321,
    "▁شطرنج": 4322,
    "▁مغناطیس": 4323,
    "▁ابتکار": 4324,
    "▁ثامن": 4325,
    "▁بلاروس": 4326,
    "▁شباهت": 4327,
    "▁متاثر": 4328,
    "▁سوپرلیگ": 4329,
    "▁منفجر": 4330,
    "▁زغال": 4331,
    "▁مطلوب": 4332,
    "▁مجاهد": 4333,
    "▁بگوییم": 4334,
    "▁طعم": 4335,
    "▁ابهام": 4336,
    "▁سیارک": 4337,
    "▁یادبود": 4338,
    "▁اردوگاه": 4339,
    "جوبی": 4340,
    "▁فضلی": 4341,
    "ضعف": 4342,
    "▁طارمی": 4343,
    "▁کریسمس": 4344,
    "▁لامبورگینی": 4345,
    "▁غیرنظامی": 4346,
    "▁اعتراف": 4347,
    "لم": 4348,
    "▁رصد": 4349,
    "▁پراید": 4350,
    "منه": 4351,
    "▁ببیند": 4352,
    "▁دشمنان": 4353,
    "▁کمپین": 4354,
    "▁گابریل": 4355,
    "▁گشود": 4356,
    "▁ندیده": 4357,
    "▁آبادان": 4358,
    "▁نزول": 4359,
    "گه": 4360,
    "▁جابجا": 4361,
    "▁عارف": 4362,
    "▁۱۳۶": 4363,
    "▁تیرماه": 4364,
    "▁آگاهی": 4365,
    "قی": 4366,
    "▁قاب": 4367,
    "▁بنکسی": 4368,
    "اینها": 4369,
    "▁فرض": 4370,
    "تیک": 4371,
    "▁بدنی": 4372,
    "مد": 4373,
    "▁زور": 4374,
    "قص": 4375,
    "▁ریزش": 4376,
    "شهر": 4377,
    "▁آلن": 4378,
    "▁الگوی": 4379,
    "برگ": 4380,
    "▁علیر": 4381,
    "ایش": 4382,
    "▁تابعیت": 4383,
    "▁ریخت": 4384,
    "▁اعطا": 4385,
    "▁۱۹۰": 4386,
    "▁دخترش": 4387,
    "خاطر": 4388,
    "▁بولت": 4389,
    "▁انتخابی": 4390,
    "▁حکمتی": 4391,
    "هز": 4392,
    "▁مستقیما": 4393,
    "▁نوجوانان": 4394,
    "▁سید": 4395,
    "▁خوست": 4396,
    "▁فین": 4397,
    "رگس": 4398,
    "▁معیشتی": 4399,
    "رانه": 4400,
    "ائ": 4401,
    "▁پیشرفته": 4402,
    "▁خیال": 4403,
    "مایک": 4404,
    "▁الزام": 4405,
    "▁شناسد": 4406,
    "▁سیام": 4407,
    "الدین": 4408,
    "▁پلی": 4409,
    "▁تند": 4410,
    "▁نشانی": 4411,
    "دین": 4412,
    "▁یکسان": 4413,
    "▁یکبار": 4414,
    "▁مسیحی": 4415,
    "نشینی": 4416,
    "وح": 4417,
    "▁دیدارهای": 4418,
    "▁واحدها": 4419,
    "ندی": 4420,
    "انتظار": 4421,
    "▁پارس": 4422,
    "مارک": 4423,
    "منابع": 4424,
    "کرد": 4425,
    "▁درخش": 4426,
    "بینی": 4427,
    "▁بلوک": 4428,
    "▁مهندس": 4429,
    "▁دوازدهم": 4430,
    "▁نق": 4431,
    "عداد": 4432,
    "▁مشت": 4433,
    "▁گرایان": 4434,
    "▁ات": 4435,
    "▁فوریت": 4436,
    "▁افکاری": 4437,
    "▁اح": 4438,
    "ربی": 4439,
    "رینگ": 4440,
    "▁کارگردانان": 4441,
    "بازی": 4442,
    "▁مق": 4443,
    "حمید": 4444,
    "▁مهاجمان": 4445,
    "▁اعما": 4446,
    "▁صفرها": 4447,
    "▁۱۹۶۰": 4448,
    "▁چیزهای": 4449,
    "هنورد": 4450,
    "▁ماری": 4451,
    "▁گزارشها": 4452,
    "▁داروهای": 4453,
    "▁فور": 4454,
    "▁اعت": 4455,
    "▁درج": 4456,
    "▁سلطانی": 4457,
    "گفت": 4458,
    "▁منصوری": 4459,
    "▁پروان": 4460,
    "مرث": 4461,
    "▁۳۵۰": 4462,
    "خان": 4463,
    "امیر": 4464,
    "▁موجودی": 4465,
    "خواهند": 4466,
    "ایب": 4467,
    "▁ابلاغی": 4468,
    "تعدادی": 4469,
    "سانه": 4470,
    "▁عل": 4471,
    "▁شیش": 4472,
    "▁استخر": 4473,
    "▁پیشرو": 4474,
    "▁جانور": 4475,
    "▁نویی": 4476,
    "▁دیو": 4477,
    "تولید": 4478,
    "▁دردسر": 4479,
    "عی": 4480,
    "▁شمس": 4481,
    "▁شهردار": 4482,
    "▁همجنس": 4483,
    "▁واضح": 4484,
    "▁مکتوب": 4485,
    "▁ارکستر": 4486,
    "▁تفسیر": 4487,
    "▁وحشتناک": 4488,
    "▁فروزش": 4489,
    "▁ببینیم": 4490,
    "▁بفروشد": 4491,
    "▁آپارتمان": 4492,
    "▁اثبات": 4493,
    "▁مواضع": 4494,
    "▁پیشکسوت": 4495,
    "▁مکتب": 4496,
    "▁فرایند": 4497,
    "▁امواج": 4498,
    "▁ثانوی": 4499,
    "▁ارزشمند": 4500,
    "▁تمدن": 4501,
    "▁کووید۱۹": 4502,
    "▁تغذیه": 4503,
    "▁آشام": 4504,
    "▁۱۹۹۸": 4505,
    "▁بازنگری": 4506,
    "▁۱۹۴۰": 4507,
    "▁حاکمیت": 4508,
    "▁پالاس": 4509,
    "▁وصل": 4510,
    "▁مبدا": 4511,
    "ساب": 4512,
    "▁خادم": 4513,
    "▁زنجان": 4514,
    "ظاهر": 4515,
    "▁پررنگ": 4516,
    "▁اکتشاف": 4517,
    "▁خسارات": 4518,
    "▁ماهیگیر": 4519,
    "ستگی": 4520,
    "▁نیسان": 4521,
    "▁ستارگان": 4522,
    "▁۵۹": 4523,
    "▁سارس": 4524,
    "برنامه": 4525,
    "▁عاشقانه": 4526,
    "آمیز": 4527,
    "▁گلایه": 4528,
    "دغدغه": 4529,
    "▁ترافیک": 4530,
    "▁مدرک": 4531,
    "▁انحصار": 4532,
    "▁اسنپ": 4533,
    "چهار": 4534,
    "▁هلی": 4535,
    "تکب": 4536,
    "وخامت": 4537,
    "▁گرسنگ": 4538,
    "▁نمایشنامه": 4539,
    "▁سانتریفیوژهای": 4540,
    "▁والدین": 4541,
    "▁مرتضی": 4542,
    "▁اندازد": 4543,
    "▁نمکی": 4544,
    "▁ریالی": 4545,
    "▁خواهر": 4546,
    "▁جلد": 4547,
    "▁زهره": 4548,
    "▁ادب": 4549,
    "▁عصب": 4550,
    "▁پیتر": 4551,
    "▁وار": 4552,
    "▁شاپو": 4553,
    "▁تغییری": 4554,
    "▁بردارد": 4555,
    "▁بیل": 4556,
    "▁عقل": 4557,
    "▁فرق": 4558,
    "▁سون": 4559,
    "▁امپراتوری": 4560,
    "مانع": 4561,
    "سانی": 4562,
    "تنها": 4563,
    "دترا": 4564,
    "▁ماندگار": 4565,
    "▁حتما": 4566,
    "▁زک": 4567,
    "مول": 4568,
    "▁ذهنی": 4569,
    "▁دنیاست": 4570,
    "▁دهلی": 4571,
    "مجلس": 4572,
    "▁ایرج": 4573,
    "باز": 4574,
    "▁۹۳": 4575,
    "▁ببر": 4576,
    "▁اتکا": 4577,
    "▁زایی": 4578,
    "▁شهید": 4579,
    "▁دانشجویی": 4580,
    "▁خر": 4581,
    "▁۸۶": 4582,
    "زمان": 4583,
    "گل": 4584,
    "باب": 4585,
    "▁هفدهم": 4586,
    "▁وجو": 4587,
    "خانواده": 4588,
    "▁هکرها": 4589,
    "▁وع": 4590,
    "▁سوا": 4591,
    "▁پوشاند": 4592,
    "▁۱۹۵": 4593,
    "فصل": 4594,
    "▁تاریکی": 4595,
    "▁ایکس": 4596,
    "▁کوبا": 4597,
    "▁نظرات": 4598,
    "ناشناس": 4599,
    "ژان": 4600,
    "▁املا": 4601,
    "ودی": 4602,
    "▁دم": 4603,
    "صندوق": 4604,
    "▁مهل": 4605,
    "▁لحن": 4606,
    "▁مغ": 4607,
    "▁حی": 4608,
    "▁انیس": 4609,
    "▁خریده": 4610,
    "تاسف": 4611,
    "سن": 4612,
    "کارشناسان": 4613,
    "▁ایر": 4614,
    "▁نک": 4615,
    "وایی": 4616,
    "وارد": 4617,
    "لور": 4618,
    "▁ارگ": 4619,
    "▁ورشکست": 4620,
    "▁الهی": 4621,
    "▁ناامید": 4622,
    "▁نف": 4623,
    "فرج": 4624,
    "▁روال": 4625,
    "▁میکروب": 4626,
    "▁خالص": 4627,
    "▁اپرای": 4628,
    "▁کرو": 4629,
    "سوزی": 4630,
    "▁قند": 4631,
    "▁تحرک": 4632,
    "▁عمران": 4633,
    "▁احساسی": 4634,
    "▁شریف": 4635,
    "همه": 4636,
    "▁احس": 4637,
    "نصف": 4638,
    "▁۵۳": 4639,
    "آخری": 4640,
    "ناک": 4641,
    "▁مندان": 4642,
    "تحول": 4643,
    "▁نوآور": 4644,
    "▁اد": 4645,
    "▁کاریر": 4646,
    "صره": 4647,
    "▁پهپاد": 4648,
    "درفتار": 4649,
    "▁ظ": 4650,
    "▁ساک": 4651,
    "پرو": 4652,
    "▁جست": 4653,
    "▁تایم": 4654,
    "▁ژنو": 4655,
    "▁خانوار": 4656,
    "▁وگوی": 4657,
    "سب": 4658,
    "زده": 4659,
    "▁مشکات": 4660,
    "▁اتیوپی": 4661,
    "▁جامائیکا": 4662,
    "▁فلسفه": 4663,
    "▁ملاحظ": 4664,
    "▁بدخشان": 4665,
    "▁وروورت": 4666,
    "▁هیأت": 4667,
    "▁پلامر": 4668,
    "▁رژیم": 4669,
    "▁پوتین": 4670,
    "▁کالبد": 4671,
    "▁برشمرد": 4672,
    "▁راپینو": 4673,
    "▁مثلث": 4674,
    "▁ارجاع": 4675,
    "▁سوگوار": 4676,
    "▁تایتان": 4677,
    "▁احتیاط": 4678,
    "▁تصاحب": 4679,
    "▁پرت": 4680,
    "▁پنگوئن": 4681,
    "▁آنفیلد": 4682,
    "▁۱۹۷۰": 4683,
    "▁تکنیک": 4684,
    "▁قرمزها": 4685,
    "▁احکام": 4686,
    "▁ناقض": 4687,
    "▁آمبول": 4688,
    "پاتی": 4689,
    "▁معالج": 4690,
    "سوم": 4691,
    "▁ببرند": 4692,
    "▁مزرعه": 4693,
    "▁شرح": 4694,
    "▁حسرت": 4695,
    "▁مرکل": 4696,
    "▁مسترز": 4697,
    "▁قائم": 4698,
    "▁گرایش": 4699,
    "▁۱۹۸۰": 4700,
    "▁مولوی": 4701,
    "▁برسند": 4702,
    "▁تمرینات": 4703,
    "▁پرند": 4704,
    "▁شوش": 4705,
    "▁خشن": 4706,
    "▁آلزایمر": 4707,
    "▁نارس": 4708,
    "▁خلوت": 4709,
    "▁گردش": 4710,
    "▁ماشه": 4711,
    "▁سیبری": 4712,
    "▁جزایر": 4713,
    "▁هرمز": 4714,
    "▁انداختند": 4715,
    "▁نویسندگ": 4716,
    "▁رنجر": 4717,
    "▁دندان": 4718,
    "▁زی": 4719,
    "▁گذارند": 4720,
    "▁رضایی": 4721,
    "▁مثل": 4722,
    "▁پاهای": 4723,
    "▁۹۴": 4724,
    "▁مقدم": 4725,
    "▁شناسند": 4726,
    "▁نکات": 4727,
    "یرت": 4728,
    "خته": 4729,
    "▁۱۹۴": 4730,
    "▁لوو": 4731,
    "▁لیور": 4732,
    "▁رایزن": 4733,
    "▁میهمان": 4734,
    "▁مست": 4735,
    "▁شنیدن": 4736,
    "▁مقر": 4737,
    "▁۶۴": 4738,
    "رونمای": 4739,
    "▁توریست": 4740,
    "▁قم": 4741,
    "▁ادوارد": 4742,
    "▁وزرای": 4743,
    "▁سرگرمی": 4744,
    "▁۷۶": 4745,
    "▁بارداری": 4746,
    "▁نماند": 4747,
    "همچنین": 4748,
    "▁آرزوی": 4749,
    "دلال": 4750,
    "سیتی": 4751,
    "خواست": 4752,
    "جای": 4753,
    "▁سم": 4754,
    "▁کشم": 4755,
    "▁نزدیکان": 4756,
    "انصراف": 4757,
    "دیه": 4758,
    "▁تیک": 4759,
    "جیغ": 4760,
    "▁تحری": 4761,
    "▁برایم": 4762,
    "سفر": 4763,
    "یلیون": 4764,
    "▁فخر": 4765,
    "پرسپولیس": 4766,
    "مپ": 4767,
    "▁غم": 4768,
    "▁فیلمبردار": 4769,
    "▁خوانی": 4770,
    "اقتصاد": 4771,
    "فنی": 4772,
    "▁افتادن": 4773,
    "▁کارفرمای": 4774,
    "انتشار": 4775,
    "▁آما": 4776,
    "نمایندگان": 4777,
    "▁۱۳۴": 4778,
    "سلسل": 4779,
    "▁اموا": 4780,
    "چرا": 4781,
    "▁بازنشستگ": 4782,
    "فدرر": 4783,
    "برید": 4784,
    "▁۷۸": 4785,
    "محمدجواد": 4786,
    "▁اصولگرای": 4787,
    "سرعت": 4788,
    "همین": 4789,
    "روزنامه": 4790,
    "▁غل": 4791,
    "کوبی": 4792,
    "▁رخت": 4793,
    "شماری": 4794,
    "حرفه": 4795,
    "شت": 4796,
    "▁قا": 4797,
    "▁اقبال": 4798,
    "▁اجبار": 4799,
    "شش": 4800,
    "▁چی": 4801,
    "▁تونس": 4802,
    "ائل": 4803,
    "جمه": 4804,
    "▁آثارش": 4805,
    "▁نابود": 4806,
    "رویس": 4807,
    "لقی": 4808,
    "▁ویرجی": 4809,
    "▁هل": 4810,
    "ندگان": 4811,
    "▁قراردادهای": 4812,
    "▁اسحاق": 4813,
    "▁سطو": 4814,
    "▁منطق": 4815,
    "▁لوکا": 4816,
    "▁شون": 4817,
    "نیا": 4818,
    "▁اله": 4819,
    "▁ماهها": 4820,
    "▁سوری": 4821,
    "▁گویی": 4822,
    "▁مسیری": 4823,
    "▁جنای": 4824,
    "شاه": 4825,
    "۹۱": 4826,
    "▁مالکان": 4827,
    "▁برجا": 4828,
    "▁خزان": 4829,
    "لاق": 4830,
    "رخی": 4831,
    "▁بانکها": 4832,
    "▁بگوی": 4833,
    "۲۰": 4834,
    "▁شجاع": 4835,
    "▁کول": 4836,
    "▁دشمن": 4837,
    "أ": 4838,
    "▁مشوق": 4839,
    "▁دستاورد": 4840,
    "▁سانتریفیوژ": 4841,
    "▁پرآ": 4842,
    "▁دستیار": 4843,
    "داشته": 4844,
    "▁نورد": 4845,
    "لر": 4846,
    "▁شیکاگو": 4847,
    "▁مستضعفان": 4848,
    "▁تزئین": 4849,
    "▁پیرامون": 4850,
    "▁کانسپت": 4851,
    "▁رستگار": 4852,
    "▁دردناک": 4853,
    "▁نظرهای": 4854,
    "▁خرچنگ": 4855,
    "▁تخفیف": 4856,
    "▁نوازنده": 4857,
    "▁تای": 4858,
    "▁مسموم": 4859,
    "▁ووهان": 4860,
    "▁زودهنگام": 4861,
    "▁بوزمن": 4862,
    "▁کولمن": 4863,
    "▁الماس": 4864,
    "▁هواشناسی": 4865,
    "▁کمبریج": 4866,
    "▁واریز": 4867,
    "▁یخچال": 4868,
    "▁ارتقا": 4869,
    "▁تعاون": 4870,
    "▁ریورا": 4871,
    "▁نصیب": 4872,
    "▁بسیج": 4873,
    "▁پاکبان": 4874,
    "▁خدایاری": 4875,
    "▁الاجل": 4876,
    "▁اذیت": 4877,
    "نفتی": 4878,
    "▁زیدان": 4879,
    "▁اشعار": 4880,
    "▁نوزاد": 4881,
    "▁مبالغ": 4882,
    "▁علایم": 4883,
    "فینیتی": 4884,
    "▁نعمت": 4885,
    "▁رت": 4886,
    "▁میز": 4887,
    "▁گواهی": 4888,
    "▁جناح": 4889,
    "▁دوش": 4890,
    "▁نامگذاری": 4891,
    "▁پستاندار": 4892,
    "▁نقص": 4893,
    "▁خراب": 4894,
    "▁خبرها": 4895,
    "▁پناهندگ": 4896,
    "▁آلود": 4897,
    "▁۱۹۷": 4898,
    "گیر": 4899,
    "▁معوقه": 4900,
    "▁زم": 4901,
    "▁غلط": 4902,
    "▁صحیح": 4903,
    "▁معیارهای": 4904,
    "▁گذراندن": 4905,
    "▁زادگاه": 4906,
    "▁رولینگ": 4907,
    "▁ضدحمل": 4908,
    "▁قبرس": 4909,
    "▁فیزیکدان": 4910,
    "▁مردگان": 4911,
    "سپری": 4912,
    "لیون": 4913,
    "▁متولی": 4914,
    "▁شستا": 4915,
    "▁محض": 4916,
    "▁رونالدینیو": 4917,
    "▁ناب": 4918,
    "▁شوخی": 4919,
    "ارتاک": 4920,
    "▁پژو": 4921,
    "▁آندری": 4922,
    "▁ماهشهر": 4923,
    "▁پیرلو": 4924,
    "▁۱۸۰": 4925,
    "▁انداختن": 4926,
    "▁مخلو": 4927,
    "▁رجب": 4928,
    "▁مغول": 4929,
    "▁۶۵۰": 4930,
    "▁صریح": 4931,
    "▁فضانوردان": 4932,
    "▁محکم": 4933,
    "▁دهید": 4934,
    "▁اپراتورها": 4935,
    "▁پردرآمد": 4936,
    "▁خلیل": 4937,
    "▁۴۷": 4938,
    "▁ایراد": 4939,
    "▁درختان": 4940,
    "لس": 4941,
    "▁حام": 4942,
    "▁رساندند": 4943,
    "▁درآمده": 4944,
    "▁بقای": 4945,
    "▁دیوی": 4946,
    "▁پسرش": 4947,
    "سابقه": 4948,
    "▁ژ": 4949,
    "▁رفتارهای": 4950,
    "▁امو": 4951,
    "▁تار": 4952,
    "▁تخصص": 4953,
    "▁اعظم": 4954,
    "▁شمایل": 4955,
    "▁ساری": 4956,
    "▁مراود": 4957,
    "▁کودتای": 4958,
    "▁بگیر": 4959,
    "▁هیولای": 4960,
    "▁شغلی": 4961,
    "▁کمپ": 4962,
    "شکل": 4963,
    "▁ردیاب": 4964,
    "لینی": 4965,
    "▁ژو": 4966,
    "▁قطعات": 4967,
    "▁صاف": 4968,
    "ائیل": 4969,
    "روس": 4970,
    "▁کرج": 4971,
    "ضی": 4972,
    "تخا": 4973,
    "▁دیدم": 4974,
    "دالله": 4975,
    "▁فرخ": 4976,
    "▁آرزوهای": 4977,
    "▁ادار": 4978,
    "▁شام": 4979,
    "▁پیچ": 4980,
    "▁جانش": 4981,
    "▁۴۱": 4982,
    "▁نای": 4983,
    "▁لرز": 4984,
    "پرها": 4985,
    "واره": 4986,
    "دام": 4987,
    "▁جاهای": 4988,
    "شر": 4989,
    "▁کین": 4990,
    "ستین": 4991,
    "▁وگوهای": 4992,
    "▁لاس": 4993,
    "خورده": 4994,
    "▁کاوا": 4995,
    "کت": 4996,
    "برگزار": 4997,
    "▁استاندارد": 4998,
    "▁سلام": 4999,
    "▁وظایف": 5000,
    "▁۵۸": 5001,
    "▁برف": 5002,
    "▁توس": 5003,
    "▁کنی": 5004,
    "آژانس": 5005,
    "▁الکل": 5006,
    "بورس": 5007,
    "▁آمریکای": 5008,
    "▁اق": 5009,
    "▁زحمت": 5010,
    "▁۸۳": 5011,
    "▁آس": 5012,
    "زین": 5013,
    "▁مسا": 5014,
    "▁بدین": 5015,
    "▁منصو": 5016,
    "دونالد": 5017,
    "طرف": 5018,
    "▁عزیز": 5019,
    "انش": 5020,
    "▁ایوان": 5021,
    "▁عزیزان": 5022,
    "▁استودیو": 5023,
    "صالح": 5024,
    "▁درگذشته": 5025,
    "▁ویدئو": 5026,
    "▁شرم": 5027,
    "▁گیل": 5028,
    "▁محسوس": 5029,
    "رافائل": 5030,
    "▁کمدی": 5031,
    "سو": 5032,
    "▁گا": 5033,
    "خواه": 5034,
    "خیم": 5035,
    "▁محا": 5036,
    "پای": 5037,
    "امضاکنندگان": 5038,
    "▁زخم": 5039,
    "▁معنا": 5040,
    "▁پهلو": 5041,
    "سپاری": 5042,
    "▁آنهاست": 5043,
    "▁مردمی": 5044,
    "▁میلاد": 5045,
    "عادت": 5046,
    "شنگ": 5047,
    "هین": 5048,
    "▁۲۰۲": 5049,
    "▁شانزده": 5050,
    "▁کیت": 5051,
    "▁عمو": 5052,
    "▁کارتو": 5053,
    "▁پیچید": 5054,
    "تصاویر": 5055,
    "▁متیو": 5056,
    "۲۴": 5057,
    "▁هستی": 5058,
    "سایه": 5059,
    "وانند": 5060,
    "باع": 5061,
    "حریم": 5062,
    "▁همچ": 5063,
    "میم": 5064,
    "▁مساو": 5065,
    "کردن": 5066,
    "▁نیو": 5067,
    "چرخه": 5068,
    "▁احمدشا": 5069,
    "▁همتای": 5070,
    "▁۵۱": 5071,
    "▁دلال": 5072,
    "▁اندیش": 5073,
    "▁دانشگاهی": 5074,
    "▁شع": 5075,
    "▁هرکس": 5076,
    "خبر": 5077,
    "یج": 5078,
    "▁پیر": 5079,
    "▁شوت": 5080,
    "▁علاقمند": 5081,
    "▁استدر": 5082,
    "▁بوفالو": 5083,
    "▁تشری": 5084,
    "▁معلم": 5085,
    "واقع": 5086,
    "غیب": 5087,
    "فیلد": 5088,
    "▁آلومینیوم": 5089,
    "▁فزاینده": 5090,
    "▁پروتئین": 5091,
    "▁پومپئو": 5092,
    "▁دگرگون": 5093,
    "▁ایوانکوویچ": 5094,
    "▁سرتاسر": 5095,
    "▁اپیدمی": 5096,
    "▁تفکیک": 5097,
    "▁غرامت": 5098,
    "▁ویتنام": 5099,
    "▁ربیعی": 5100,
    "▁محترم": 5101,
    "▁رئوف": 5102,
    "▁مستاجر": 5103,
    "▁البرز": 5104,
    "▁اسراییل": 5105,
    "▁خاشقچی": 5106,
    "▁وگاس": 5107,
    "▁قضاوت": 5108,
    "▁سرماخورد": 5109,
    "▁خاشق": 5110,
    "▁گیگز": 5111,
    "▁بسازد": 5112,
    "▁نامناسب": 5113,
    "▁تعزیری": 5114,
    "▁وودز": 5115,
    "▁مکلف": 5116,
    "▁مارسیال": 5117,
    "▁بیافتد": 5118,
    "▁۱۳۹۶": 5119,
    "▁گرفتم": 5120,
    "▁بگذارند": 5121,
    "▁دوستداران": 5122,
    "▁عصبانی": 5123,
    "▁عقاب": 5124,
    "▁لگن": 5125,
    "▁استفانو": 5126,
    "▁روانشناس": 5127,
    "▁تهاجمی": 5128,
    "▁رمزارز": 5129,
    "▁۱۹۶": 5130,
    "▁ندارم": 5131,
    "وظ": 5132,
    "▁تلفات": 5133,
    "رطوب": 5134,
    "▁انستیتو": 5135,
    "▁جونیور": 5136,
    "▁ژیمناست": 5137,
    "▁هوندا": 5138,
    "▁شناگر": 5139,
    "▁سرشار": 5140,
    "▁پرستاران": 5141,
    "▁فروغ": 5142,
    "▁قفس": 5143,
    "▁انتها": 5144,
    "▁سازندگان": 5145,
    "▁رایگان": 5146,
    "▁دیدیم": 5147,
    "▁فیلیپین": 5148,
    "۲۳": 5149,
    "▁نژادپرستانه": 5150,
    "▁۸۹": 5151,
    "▁تص": 5152,
    "▁جزییات": 5153,
    "▁آنتی": 5154,
    "▁نادری": 5155,
    "عارض": 5156,
    "▁ندهد": 5157,
    "▁دایر": 5158,
    "▁امت": 5159,
    "▁خیام": 5160,
    "▁عضلا": 5161,
    "مر": 5162,
    "▁فوتبالی": 5163,
    "عشی": 5164,
    "▁برعکس": 5165,
    "▁ناوگان": 5166,
    "▁گزینش": 5167,
    "▁کتک": 5168,
    "▁ژنرا": 5169,
    "شیو": 5170,
    "▁استونز": 5171,
    "▁کارگروه": 5172,
    "▁جنر": 5173,
    "▁نهفته": 5174,
    "▁رامش": 5175,
    "یسم": 5176,
    "نگیز": 5177,
    "مال": 5178,
    "▁سکسک": 5179,
    "پا": 5180,
    "▁امتیازات": 5181,
    "▁معاش": 5182,
    "▁گردند": 5183,
    "▁مرادی": 5184,
    "▁پریش": 5185,
    "▁مض": 5186,
    "▁اغل": 5187,
    "▁ساسانی": 5188,
    "▁شایست": 5189,
    "▁دنیل": 5190,
    "▁بور": 5191,
    "▁انوش": 5192,
    "اظ": 5193,
    "▁بوق": 5194,
    "▁جفت": 5195,
    "▁دوری": 5196,
    "▁ماندند": 5197,
    "▁نامی": 5198,
    "▁کینگ": 5199,
    "▁بانو": 5200,
    "گیل": 5201,
    "▁کلیسای": 5202,
    "نشان": 5203,
    "▁استرس": 5204,
    "▁گروگانگیر": 5205,
    "▁سالان": 5206,
    "قبل": 5207,
    "گفتگو": 5208,
    "▁باختری": 5209,
    "▁تهدیدهای": 5210,
    "دگان": 5211,
    "▁حاجی": 5212,
    "۲۹": 5213,
    "ستی": 5214,
    "▁رحمت": 5215,
    "▁کالای": 5216,
    "صرف": 5217,
    "▁اچ": 5218,
    "▁صدم": 5219,
    "▁وارن": 5220,
    "آغاز": 5221,
    "▁پائی": 5222,
    "▁دادیم": 5223,
    "▁کت": 5224,
    "▁گوهر": 5225,
    "▁استیون": 5226,
    "فا": 5227,
    "▁معاین": 5228,
    "▁نگر": 5229,
    "▁مهندسی": 5230,
    "▁بلو": 5231,
    "▁۱۳۰": 5232,
    "یزر": 5233,
    "▁رنگین": 5234,
    "▁یگان": 5235,
    "▁ولد": 5236,
    "▁بازوی": 5237,
    "▁سام": 5238,
    "اطلاعات": 5239,
    "▁پرتر": 5240,
    "خت": 5241,
    "واکنش": 5242,
    "▁رویس": 5243,
    "وزن": 5244,
    "▁۱۴۰": 5245,
    "زنی": 5246,
    "رگ": 5247,
    "لمپ": 5248,
    "▁۱۷۶": 5249,
    "مدت": 5250,
    "▁نیکل": 5251,
    "▁رایان": 5252,
    "▁موهای": 5253,
    "سیلوا": 5254,
    "فته": 5255,
    "جیره": 5256,
    "▁یاب": 5257,
    "▁گور": 5258,
    "▁میلی": 5259,
    "▁قبر": 5260,
    "▁باقر": 5261,
    "▁جولی": 5262,
    "یونایتد": 5263,
    "▁رانت": 5264,
    "▁اسکو": 5265,
    "جمعیت": 5266,
    "▁بناها": 5267,
    "ضان": 5268,
    "قو": 5269,
    "پول": 5270,
    "وکی": 5271,
    "فعالان": 5272,
    "▁تراز": 5273,
    "▁مند": 5274,
    "▁جورجی": 5275,
    "▁مواقع": 5276,
    "▁۹۲": 5277,
    "▁باورن": 5278,
    "ارغ": 5279,
    "ذل": 5280,
    "▁برفی": 5281,
    "همیلتون": 5282,
    "هشدار": 5283,
    "لتی": 5284,
    "یاس": 5285,
    "ویکتور": 5286,
    "▁خار": 5287,
    "▁روحی": 5288,
    "▁ریوی": 5289,
    "ارت": 5290,
    "یز": 5291,
    "▁معیشت": 5292,
    "▁عالم": 5293,
    "▁سرگرم": 5294,
    "وازم": 5295,
    "▁سیار": 5296,
    "▁دانشجوی": 5297,
    "مای": 5298,
    "▁گرمی": 5299,
    "▁۵۴": 5300,
    "▁مدتها": 5301,
    "نوعی": 5302,
    "حلال": 5303,
    "▁تولیدکنند": 5304,
    "راجر": 5305,
    "▁بینید": 5306,
    "▁نمود": 5307,
    "۴۶": 5308,
    "▁ته": 5309,
    "نال": 5310,
    "▁میرزا": 5311,
    "لاب": 5312,
    "ندان": 5313,
    "▁ترکی": 5314,
    "▁پوشان": 5315,
    "▁نرفت": 5316,
    "▁چشمان": 5317,
    "هار": 5318,
    "▁درام": 5319,
    "▁فی": 5320,
    "▁اک": 5321,
    "▁کوب": 5322,
    "فون": 5323,
    "▁تیره": 5324,
    "▁چال": 5325,
    "▁آشنای": 5326,
    "▁سازه": 5327,
    "انت": 5328,
    "▁۸۷": 5329,
    "▁آبراموویچ": 5330,
    "▁جاپلقی": 5331,
    "▁کارداشیان": 5332,
    "▁کرگدن": 5333,
    "▁بوچانی": 5334,
    "▁مظنون": 5335,
    "▁مصیبت": 5336,
    "▁مونتاژ": 5337,
    "▁گریبان": 5338,
    "▁یونسکو": 5339,
    "▁کامبوج": 5340,
    "▁لاجورد": 5341,
    "▁سنگاپور": 5342,
    "▁تضاد": 5343,
    "▁آشپز": 5344,
    "▁فرسایش": 5345,
    "▁گاگا": 5346,
    "▁قزاقستان": 5347,
    "▁گردنبند": 5348,
    "▁پاراگوئه": 5349,
    "▁فحش": 5350,
    "▁۱۹۷۳": 5351,
    "▁حرارت": 5352,
    "▁متوفی": 5353,
    "▁آویو": 5354,
    "▁بفروشند": 5355,
    "▁روشنفکر": 5356,
    "▁کفتر": 5357,
    "▁کاشف": 5358,
    "▁بشردوستانه": 5359,
    "▁۱۹۶۶": 5360,
    "▁۱۹۶۷": 5361,
    "▁خردسال": 5362,
    "▁فطر": 5363,
    "▁قارچ": 5364,
    "▁بفتا": 5365,
    "▁خوابی": 5366,
    "▁آوازخوان": 5367,
    "▁کلینیک": 5368,
    "▁ادارات": 5369,
    "▁تکامل": 5370,
    "▁لق": 5371,
    "▁اشکال": 5372,
    "▁نپال": 5373,
    "▁زیارت": 5374,
    "▁یوسف": 5375,
    "▁انباشت": 5376,
    "بپرس": 5377,
    "▁قسط": 5378,
    "▁مطالبات": 5379,
    "▁حاتمی": 5380,
    "▁ترانزیت": 5381,
    "▁بتهوون": 5382,
    "▁نامجو": 5383,
    "▁قورباغه": 5384,
    "▁هشتصد": 5385,
    "▁خلاق": 5386,
    "▁۲۰۰۶": 5387,
    "پر": 5388,
    "▁موعد": 5389,
    "▁پذیری": 5390,
    "▁سولو": 5391,
    "۱۷": 5392,
    "▁اشنویه": 5393,
    "▁مایع": 5394,
    "په": 5395,
    "▁بوئن": 5396,
    "▁پلاک": 5397,
    "▁متحدان": 5398,
    "▁گناه": 5399,
    "▁ماهیچه": 5400,
    "▁متروکه": 5401,
    "▁بنجام": 5402,
    "▁بذر": 5403,
    "▁فتاح": 5404,
    "▁خوشبخت": 5405,
    "▁خوشحالم": 5406,
    "▁جمشید": 5407,
    "▁توئیت": 5408,
    "▁کوپتر": 5409,
    "▁کاران": 5410,
    "شو": 5411,
    "▁گره": 5412,
    "▁اینجا": 5413,
    "▁پرشور": 5414,
    "گا": 5415,
    "▁ندانست": 5416,
    "رشد": 5417,
    "▁جعفر": 5418,
    "▁مستندساز": 5419,
    "مندان": 5420,
    "▁معاد": 5421,
    "ویر": 5422,
    "▁چرخش": 5423,
    "▁پناه": 5424,
    "▁نشانگر": 5425,
    "▁آرش": 5426,
    "▁متخلفان": 5427,
    "▁باشم": 5428,
    "▁شعارهای": 5429,
    "▁باختند": 5430,
    "▁اقیانوسیه": 5431,
    "▁پویا": 5432,
    "▁وکلای": 5433,
    "لوت": 5434,
    "۹۹": 5435,
    "▁ذات": 5436,
    "دوست": 5437,
    "▁گرجستانی": 5438,
    "▁زنگ": 5439,
    "▁پادمان": 5440,
    "▁مال": 5441,
    "▁وحشت": 5442,
    "▁کشمی": 5443,
    "ازما": 5444,
    "▁درشت": 5445,
    "▁مب": 5446,
    "▁نداشتم": 5447,
    "آقازاده": 5448,
    "▁ضر": 5449,
    "▁سوگ": 5450,
    "▁جیل": 5451,
    "▁کثیر": 5452,
    "اهید": 5453,
    "گوف": 5454,
    "▁معین": 5455,
    "▁نگارش": 5456,
    "▁کوهن": 5457,
    "▁بشریت": 5458,
    "▁کوپا": 5459,
    "▁مسال": 5460,
    "▁سهامدار": 5461,
    "▁بازیار": 5462,
    "نر": 5463,
    "▁درانی": 5464,
    "▁نوشتند": 5465,
    "▁جد": 5466,
    "پذیر": 5467,
    "▁کاف": 5468,
    "▁مولان": 5469,
    "▁وادار": 5470,
    "یکپا": 5471,
    "▁عا": 5472,
    "▁پاتر": 5473,
    "▁شادی": 5474,
    "▁سامان": 5475,
    "▁رقبای": 5476,
    "پتون": 5477,
    "▁رنگی": 5478,
    "▁کیا": 5479,
    "بادی": 5480,
    "▁هما": 5481,
    "▁بوم": 5482,
    "روح": 5483,
    "▁عج": 5484,
    "گبا": 5485,
    "اله": 5486,
    "▁رومانی": 5487,
    "▁گارد": 5488,
    "▁یار": 5489,
    "▁شرمن": 5490,
    "▁مانند": 5491,
    "ورا": 5492,
    "▁صبا": 5493,
    "▁سبد": 5494,
    "▁مارچ": 5495,
    "▁مصا": 5496,
    "▁پانزدهم": 5497,
    "▁پنجش": 5498,
    "حق": 5499,
    "▁پیری": 5500,
    "▁مضر": 5501,
    "زمینی": 5502,
    "مسی": 5503,
    "▁مباد": 5504,
    "نان": 5505,
    "▁حدادی": 5506,
    "مسابقات": 5507,
    "▁همر": 5508,
    "ائم": 5509,
    "تنوع": 5510,
    "▁گردانند": 5511,
    "▁قاسمی": 5512,
    "▁ماس": 5513,
    "▁یخی": 5514,
    "▁حرم": 5515,
    "▁جواهر": 5516,
    "▁نیافت": 5517,
    "▁نوی": 5518,
    "▁روزبه": 5519,
    "▁دود": 5520,
    "عان": 5521,
    "▁۶۲": 5522,
    "▁سومو": 5523,
    "▁لخت": 5524,
    "▁برهم": 5525,
    "▁محرک": 5526,
    "مکش": 5527,
    "▁لیست": 5528,
    "▁معا": 5529,
    "▁دینی": 5530,
    "▁ممیز": 5531,
    "نوردی": 5532,
    "سیو": 5533,
    "ترکیه": 5534,
    "▁کور": 5535,
    "▁گویا": 5536,
    "بیه": 5537,
    "کرونا": 5538,
    "▁افق": 5539,
    "▁۸۱": 5540,
    "▁ریو": 5541,
    "▁مجرم": 5542,
    "▁روسا": 5543,
    "▁گودا": 5544,
    "مارادونا": 5545,
    "ناب": 5546,
    "▁ماریا": 5547,
    "مو": 5548,
    "غه": 5549,
    "خوان": 5550,
    "▁بزرگان": 5551,
    "چشم": 5552,
    "ارو": 5553,
    "▁گردید": 5554,
    "چلسی": 5555,
    "▁نیاورد": 5556,
    "▁پری": 5557,
    "▁ژن": 5558,
    "زادگان": 5559,
    "▁توفیق": 5560,
    "انجمن": 5561,
    "▁رفتم": 5562,
    "جاد": 5563,
    "موسس": 5564,
    "▁هشدارهای": 5565,
    "▁شیفت": 5566,
    "▁نما": 5567,
    "نشست": 5568,
    "▁بازرگان": 5569,
    "▁برآمد": 5570,
    "نخست": 5571,
    "▁عواقب": 5572,
    "▁ویروسی": 5573,
    "انا": 5574,
    "الیاس": 5575,
    "دوف": 5576,
    "▁۱۱۰": 5577,
    "لیسب": 5578,
    "▁رکوردها": 5579,
    "▁تام": 5580,
    "▁ژاک": 5581,
    "▁چارل": 5582,
    "احی": 5583,
    "▁جنی": 5584,
    "▁فهمید": 5585,
    "▁لطف": 5586,
    "رج": 5587,
    "▁رخداد": 5588,
    "▁۳۲۰": 5589,
    "▁قوت": 5590,
    "▁۶۳": 5591,
    "▁ابو": 5592,
    "▁بدتری": 5593,
    "▁بهانه": 5594,
    "▁نیازها": 5595,
    "▁طب": 5596,
    "▁ذی": 5597,
    "▁اسل": 5598,
    "ومی": 5599,
    "شما": 5600,
    "▁سپید": 5601,
    "اکثریت": 5602,
    "▁اکرا": 5603,
    "▁فرزندش": 5604,
    "یاپی": 5605,
    "جیب": 5606,
    "▁دادم": 5607,
    "▁مبا": 5608,
    "تصور": 5609,
    "▁سروده": 5610,
    "▁زانوی": 5611,
    "ضرر": 5612,
    "▁دول": 5613,
    "هی": 5614,
    "تینو": 5615,
    "خط": 5616,
    "▁۸۴": 5617,
    "▁اکبری": 5618,
    "سلیم": 5619,
    "▁پیشگام": 5620,
    "▁باتر": 5621,
    "▁کوبید": 5622,
    "▁جوش": 5623,
    "بالغ": 5624,
    "صدایی": 5625,
    "▁ابداع": 5626,
    "▁تصویربردار": 5627,
    "لیگ": 5628,
    "▁موزیک": 5629,
    "بیست": 5630,
    "▁تسهیل": 5631,
    "▁آغداشلو": 5632,
    "▁زاکربرگ": 5633,
    "▁الگوریتم": 5634,
    "▁تلسکوپ": 5635,
    "▁بلانشت": 5636,
    "▁ابرنواختر": 5637,
    "▁مائوریت": 5638,
    "▁زاکانی": 5639,
    "▁اقتدار": 5640,
    "عت": 5641,
    "▁مسوول": 5642,
    "▁باکتری": 5643,
    "▁اعصاب": 5644,
    "▁آژیر": 5645,
    "یضا": 5646,
    "▁گلمکانی": 5647,
    "▁آموزگار": 5648,
    "▁پرایس": 5649,
    "▁یهودی": 5650,
    "▁جاودان": 5651,
    "پوچ": 5652,
    "▁آنکارا": 5653,
    "▁معتمد": 5654,
    "▁واگیر": 5655,
    "▁طناب": 5656,
    "▁فال": 5657,
    "▁نارضای": 5658,
    "▁بدهکار": 5659,
    "▁مستعار": 5660,
    "▁پابند": 5661,
    "▁اکسید": 5662,
    "▁سلتیک": 5663,
    "زاری": 5664,
    "▁کلمات": 5665,
    "▁بارچا": 5666,
    "کید": 5667,
    "▁بخرد": 5668,
    "▁ابولا": 5669,
    "▁آث": 5670,
    "▁فروشندگان": 5671,
    "▁نجوا": 5672,
    "▁عسل": 5673,
    "▁طبع": 5674,
    "▁قبیل": 5675,
    "▁بدانند": 5676,
    "تصاعد": 5677,
    "▁اقامتگاه": 5678,
    "▁سولشر": 5679,
    "▁تأسیس": 5680,
    "▁رخشانه": 5681,
    "▁خزر": 5682,
    "▁ناپولی": 5683,
    "▁حبیب": 5684,
    "عفون": 5685,
    "▁تبریک": 5686,
    "▁داوود": 5687,
    "پائولو": 5688,
    "رف": 5689,
    "روسیا": 5690,
    "▁کادیس": 5691,
    "▁دیابت": 5692,
    "▁تعویض": 5693,
    "▁بگویند": 5694,
    "▁نامعلوم": 5695,
    "▁کریم": 5696,
    "▁اندرکاران": 5697,
    "▁منکر": 5698,
    "▁گرامی": 5699,
    "▁ندادن": 5700,
    "▁صید": 5701,
    "▁۱۸۵": 5702,
    "اوش": 5703,
    "▁گوییم": 5704,
    "▁افزاید": 5705,
    "▁مخصوصا": 5706,
    "▁تصدی": 5707,
    "▁اشخاص": 5708,
    "ماری": 5709,
    "▁مورل": 5710,
    "▁نامشخص": 5711,
    "▁کنزو": 5712,
    "▁کشتند": 5713,
    "▁مسترد": 5714,
    "▁جیپ": 5715,
    "▁بیم": 5716,
    "▁انگل": 5717,
    "▁جرج": 5718,
    "▁آرمان": 5719,
    "▁کج": 5720,
    "▁فورا": 5721,
    "▁۱۳۹۰": 5722,
    "▁کلیپ": 5723,
    "▁فار": 5724,
    "▁آنا": 5725,
    "▁مسن": 5726,
    "خواهید": 5727,
    "اعلام": 5728,
    "▁خد": 5729,
    "۷۵": 5730,
    "▁گدار": 5731,
    "▁اقتصاددان": 5732,
    "▁محتوی": 5733,
    "▁حر": 5734,
    "▁دشت": 5735,
    "▁امریکا": 5736,
    "▁حضرت": 5737,
    "بخشی": 5738,
    "ویچ": 5739,
    "▁برگردانده": 5740,
    "بریتی": 5741,
    "▁عظیمی": 5742,
    "بهار": 5743,
    "▁بروم": 5744,
    "▁سالیانه": 5745,
    "نم": 5746,
    "▁کلم": 5747,
    "▁سینماگران": 5748,
    "▁صمیمی": 5749,
    "مک": 5750,
    "▁پینگ": 5751,
    "▁گرفتیم": 5752,
    "▁یوو": 5753,
    "▁گذاشتند": 5754,
    "▁خواندند": 5755,
    "▁فیروز": 5756,
    "▁ژور": 5757,
    "▁یاوری": 5758,
    "▁اصطلاحا": 5759,
    "▁بالی": 5760,
    "▁رکوردهای": 5761,
    "▁ویدیوهای": 5762,
    "▁فرحی": 5763,
    "گروهی": 5764,
    "▁نهایتا": 5765,
    "▁قاعد": 5766,
    "▁اصلاحی": 5767,
    "▁نیافته": 5768,
    "▁هول": 5769,
    "▁درخشید": 5770,
    "▁شیمی": 5771,
    "▁گرمای": 5772,
    "▁اسپورت": 5773,
    "▁نشدنی": 5774,
    "▁چر": 5775,
    "▁وض": 5776,
    "برداری": 5777,
    "▁مانور": 5778,
    "▁علوی": 5779,
    "▁شکستن": 5780,
    "فظ": 5781,
    "▁دانشگر": 5782,
    "▁گرای": 5783,
    "▁ریخته": 5784,
    "▁طل": 5785,
    "▁نشدند": 5786,
    "▁جراحت": 5787,
    "یقه": 5788,
    "▁تم": 5789,
    "▁تیل": 5790,
    "▁منجم": 5791,
    "▁خاوری": 5792,
    "▁عمدی": 5793,
    "▁تحریمها": 5794,
    "▁کریر": 5795,
    "لوب": 5796,
    "فلاتو": 5797,
    "الکس": 5798,
    "هکرها": 5799,
    "▁کلاین": 5800,
    "خامن": 5801,
    "▁بورگ": 5802,
    "▁فنل": 5803,
    "▁پیامک": 5804,
    "▁تابستانی": 5805,
    "▁معل": 5806,
    "▁کشتن": 5807,
    "میلیون": 5808,
    "▁سرما": 5809,
    "طرح": 5810,
    "ولت": 5811,
    "▁مبارک": 5812,
    "▁بازجوی": 5813,
    "داده": 5814,
    "کاهش": 5815,
    "▁کاندیدا": 5816,
    "▁رامی": 5817,
    "▁سالی": 5818,
    "▁تندی": 5819,
    "علت": 5820,
    "فلیک": 5821,
    "ایل": 5822,
    "▁دوج": 5823,
    "گذار": 5824,
    "▁کامپیوتری": 5825,
    "انتخابات": 5826,
    "▁گفتن": 5827,
    "▁ارمن": 5828,
    "▁توانی": 5829,
    "▁گویم": 5830,
    "حضور": 5831,
    "▁شوهر": 5832,
    "▁آدام": 5833,
    "▁تدری": 5834,
    "▁گال": 5835,
    "▁لوان": 5836,
    "▁درآمدزا": 5837,
    "▁مبت": 5838,
    "نیف": 5839,
    "تعداد": 5840,
    "▁مصرفی": 5841,
    "▁دزد": 5842,
    "تصمیم": 5843,
    "لین": 5844,
    "▁قطعا": 5845,
    "▁استادان": 5846,
    "▁احسا": 5847,
    "▁افتتاحی": 5848,
    "▁هادی": 5849,
    "▁نخب": 5850,
    "▁آموخت": 5851,
    "▁مزای": 5852,
    "هره": 5853,
    "▁نوا": 5854,
    "زو": 5855,
    "شا": 5856,
    "▁محف": 5857,
    "▁شعبان": 5858,
    "▁پذیرفت": 5859,
    "آلمان": 5860,
    "راق": 5861,
    "▁بخشید": 5862,
    "▁مخ": 5863,
    "▁قی": 5864,
    "جام": 5865,
    "▁جرد": 5866,
    "آمریکایی": 5867,
    "ویل": 5868,
    "ولان": 5869,
    "جد": 5870,
    "حقق": 5871,
    "▁هراس": 5872,
    "▁مسیح": 5873,
    "▁لوا": 5874,
    "تحقیقات": 5875,
    "▁سینو": 5876,
    "▁نظری": 5877,
    "▁نوین": 5878,
    "تلاش": 5879,
    "قصد": 5880,
    "وژه": 5881,
    "نقاشی": 5882,
    "▁فتحی": 5883,
    "سفارت": 5884,
    "مجتب": 5885,
    "کلوپ": 5886,
    "منتقدان": 5887,
    "هادی": 5888,
    "▁مارکو": 5889,
    "رهبر": 5890,
    "تایسون": 5891,
    "▁آف": 5892,
    "▁جس": 5893,
    "ملک": 5894,
    "منازع": 5895,
    "مقامات": 5896,
    "▁پیگیر": 5897,
    "۹۳": 5898,
    "▁حفا": 5899,
    "▁وگوها": 5900,
    "دال": 5901,
    "▁حفر": 5902,
    "کند": 5903,
    "▁فروشند": 5904,
    "قدرت": 5905,
    "اسکو": 5906,
    "گوئر": 5907,
    "▁مهد": 5908,
    "حض": 5909,
    "وحید": 5910,
    "خواهیم": 5911,
    "▁پنا": 5912,
    "▁پال": 5913,
    "▁نزدیکتر": 5914,
    "نج": 5915,
    "خوشایند": 5916,
    "▁برپا": 5917,
    "نیروی": 5918,
    "برد": 5919,
    "۴۲": 5920,
    "▁فرح": 5921,
    "▁وث": 5922,
    "▁تیتر": 5923,
    "▁وح": 5924,
    "واز": 5925,
    "▁مقد": 5926,
    "ومبل": 5927,
    "لف": 5928,
    "▁بلی": 5929,
    "اه": 5930,
    "بانی": 5931,
    "واد": 5932,
    "▁بارز": 5933,
    "▁خواستم": 5934,
    "▁مدرس": 5935,
    "▁پراکن": 5936,
    "▁نمازی": 5937,
    "▁پیمانکار": 5938,
    "خانقا": 5939,
    "▁تابو": 5940,
    "▁دادخواه": 5941,
    "اید": 5942,
    "▁گرب": 5943,
    "اران": 5944,
    "▁الع": 5945,
    "ویک": 5946,
    "▁دیوانه": 5947,
    "▁اندرکار": 5948,
    "▁سیاستمدار": 5949,
    "رتب": 5950,
    "▁اصالت": 5951,
    "▁پوک": 5952,
    "جر": 5953,
    "▁فرانسیس": 5954,
    "▁متغیر": 5955,
    "▁تعمیر": 5956,
    "▁بزن": 5957,
    "▁سفت": 5958,
    "▁فرضی": 5959,
    "▁بارور": 5960,
    "▁جزئی": 5961,
    "▁انیمیشن": 5962,
    "▁بلایندرز": 5963,
    "▁جغرافیای": 5964,
    "▁رفسنجان": 5965,
    "▁اوربیتر": 5966,
    "▁جاذبه": 5967,
    "▁خنثی": 5968,
    "▁مستثن": 5969,
    "▁تورنتو": 5970,
    "▁بلغارستان": 5971,
    "▁اختراع": 5972,
    "▁مقتدر": 5973,
    "▁دفاتر": 5974,
    "▁مضاعف": 5975,
    "▁هلمند": 5976,
    "▁اسپایدر": 5977,
    "▁تجدد": 5978,
    "▁ذیبخش": 5979,
    "▁آرتتا": 5980,
    "▁مینیاتور": 5981,
    "▁بنتلی": 5982,
    "▁قاعدتا": 5983,
    "▁اخ": 5984,
    "▁کومله": 5985,
    "▁عنصر": 5986,
    "▁سانتیمتر": 5987,
    "▁اینفانتی": 5988,
    "▁کفایت": 5989,
    "▁خودکفا": 5990,
    "▁تجدیدنظر": 5991,
    "▁رغبت": 5992,
    "▁فرنود": 5993,
    "▁بیاورند": 5994,
    "▁کلکسیون": 5995,
    "▁کلر": 5996,
    "▁برگردیم": 5997,
    "دت": 5998,
    "▁ضوابط": 5999,
    "▁چسب": 6000,
    "▁مخرب": 6001,
    "▁پابرجاست": 6002,
    "▁بغلان": 6003,
    "▁۱۳۵۰": 6004,
    "▁بصر": 6005,
    "▁اسمیت": 6006,
    "▁استقراض": 6007,
    "▁آهسته": 6008,
    "مجانی": 6009,
    "▁ناچیز": 6010,
    "▁مطلبی": 6011,
    "▁تنگنا": 6012,
    "▁تربیت": 6013,
    "▁لشگر": 6014,
    "▁عروق": 6015,
    "▁اخترشناس": 6016,
    "▁کدخدایی": 6017,
    "▁انصاری": 6018,
    "▁گسل": 6019,
    "▁آغوش": 6020,
    "▁موکل": 6021,
    "▁ادل": 6022,
    "▁دبیرستان": 6023,
    "▁خانمان": 6024,
    "▁سردرگم": 6025,
    "▁سیگنال": 6026,
    "▁منظم": 6027,
    "▁وکارها": 6028,
    "▁ندهند": 6029,
    "▁ایال": 6030,
    "▁تقلب": 6031,
    "▁نشوند": 6032,
    "▁آرایشگاه": 6033,
    "۶۷": 6034,
    "▁مخاطب": 6035,
    "▁قدردان": 6036,
    "رایت": 6037,
    "▁دوتار": 6038,
    "▁کانادایی": 6039,
    "▁پارکور": 6040,
    "▁سیگار": 6041,
    "▁خویش": 6042,
    "▁دژ": 6043,
    "▁هیچکس": 6044,
    "▁بالگرد": 6045,
    "جوزپ": 6046,
    "لپ": 6047,
    "▁پهن": 6048,
    "▁استقامت": 6049,
    "▁حکیم": 6050,
    "▁کارولین": 6051,
    "▁جادوی": 6052,
    "کنون": 6053,
    "▁مساحت": 6054,
    "▁جنگند": 6055,
    "▁گیلان": 6056,
    "▁یابند": 6057,
    "▁پردازند": 6058,
    "همگی": 6059,
    "▁شکوه": 6060,
    "▁محو": 6061,
    "▁پیشگامان": 6062,
    "سئول": 6063,
    "▁سینماگر": 6064,
    "▁تعلیم": 6065,
    "▁شانگ": 6066,
    "حصول": 6067,
    "▁کوشید": 6068,
    "▁گودال": 6069,
    "▁غیبت": 6070,
    "▁کامیاب": 6071,
    "▁اختیارات": 6072,
    "▁هولم": 6073,
    "▁هوشیاری": 6074,
    "▁سادگی": 6075,
    "▁لبنانی": 6076,
    "▁قوم": 6077,
    "دیمیر": 6078,
    "▁راستش": 6079,
    "▁هامون": 6080,
    "▁شهرک": 6081,
    "▁سفی": 6082,
    "▁طرفی": 6083,
    "ارومیه": 6084,
    "نجیره": 6085,
    "موسیقی": 6086,
    "▁گهر": 6087,
    "تاب": 6088,
    "▁بگوید": 6089,
    "▁مادی": 6090,
    "▁پاد": 6091,
    "▁اشتباهات": 6092,
    "▁دستیاران": 6093,
    "▁اینستاگرامش": 6094,
    "▁آرت": 6095,
    "▁کوس": 6096,
    "▁عمیقا": 6097,
    "▁بیانسه": 6098,
    "▁خدای": 6099,
    "▁منقل": 6100,
    "▁مهندسان": 6101,
    "▁پسند": 6102,
    "▁مرت": 6103,
    "▁گازها": 6104,
    "▁سرمای": 6105,
    "بویایی": 6106,
    "▁سفره": 6107,
    "دوستانه": 6108,
    "کینگ": 6109,
    "▁کلدی": 6110,
    "▁پیمود": 6111,
    "▁کشیدند": 6112,
    "▁اعدا": 6113,
    "▁په": 6114,
    "▁یزد": 6115,
    "▁القا": 6116,
    "▁اضافی": 6117,
    "شنا": 6118,
    "▁لوک": 6119,
    "▁فابی": 6120,
    "۲۸": 6121,
    "▁حاد": 6122,
    "▁ارگان": 6123,
    "▁عکاسان": 6124,
    "▁اسعد": 6125,
    "▁ازسر": 6126,
    "نها": 6127,
    "▁لیتر": 6128,
    "۶۰": 6129,
    "▁آلایند": 6130,
    "▁منظره": 6131,
    "کلاهبرداری": 6132,
    "▁پیداست": 6133,
    "▁شل": 6134,
    "پو": 6135,
    "▁خیز": 6136,
    "رود": 6137,
    "▁نیستیم": 6138,
    "▁معما": 6139,
    "▁بکند": 6140,
    "▁مزایای": 6141,
    "ستیک": 6142,
    "▁سنج": 6143,
    "ریس": 6144,
    "▁شکستگی": 6145,
    "▁منک": 6146,
    "طبی": 6147,
    "▁برآورده": 6148,
    "ابق": 6149,
    "▁موس": 6150,
    "یافته": 6151,
    "▁حشر": 6152,
    "▁ساختند": 6153,
    "▁بجا": 6154,
    "یکه": 6155,
    "سلط": 6156,
    "اهی": 6157,
    "شیپ": 6158,
    "درون": 6159,
    "ویروس": 6160,
    "▁ساید": 6161,
    "تهران": 6162,
    "▁قبا": 6163,
    "▁سیمون": 6164,
    "▁کاوه": 6165,
    "▁معمای": 6166,
    "▁صده": 6167,
    "سیما": 6168,
    "▁راکت": 6169,
    "▁بازگو": 6170,
    "تور": 6171,
    "بریتانیا": 6172,
    "ستانگ": 6173,
    "▁اصولگرا": 6174,
    "▁مول": 6175,
    "ملی": 6176,
    "یسی": 6177,
    "▁سردار": 6178,
    "▁سیر": 6179,
    "▁دایی": 6180,
    "▁کلاه": 6181,
    "یسون": 6182,
    "▁بله": 6183,
    "ضا": 6184,
    "۵۸": 6185,
    "▁سرش": 6186,
    "▁گاو": 6187,
    "ابلو": 6188,
    "▁زلا": 6189,
    "قرب": 6190,
    "▁سفرش": 6191,
    "تحریم": 6192,
    "ستند": 6193,
    "▁برگرداند": 6194,
    "زار": 6195,
    "ینی": 6196,
    "ریان": 6197,
    "▁درز": 6198,
    "▁ماست": 6199,
    "ایه": 6200,
    "▁بازدیدکنند": 6201,
    "▁میلیاردر": 6202,
    "داستان": 6203,
    "دلیل": 6204,
    "بجای": 6205,
    "مورد": 6206,
    "دفتر": 6207,
    "▁کبد": 6208,
    "▁اروپاست": 6209,
    "اکی": 6210,
    "شرایط": 6211,
    "▁قب": 6212,
    "▁شوق": 6213,
    "ورهای": 6214,
    "▁۴۵۰": 6215,
    "وانی": 6216,
    "تار": 6217,
    "▁مسافری": 6218,
    "اردو": 6219,
    "صاب": 6220,
    "▁گرما": 6221,
    "▁ولا": 6222,
    "درگذشت": 6223,
    "جیک": 6224,
    "▁ساع": 6225,
    "فه": 6226,
    "سخ": 6227,
    "قدس": 6228,
    "▁قاتل": 6229,
    "کمتر": 6230,
    "پرونده": 6231,
    "▁موثری": 6232,
    "▁چار": 6233,
    "مذاکرات": 6234,
    "▁درو": 6235,
    "راض": 6236,
    "ئوری": 6237,
    "خون": 6238,
    "▁هفده": 6239,
    "▁عطا": 6240,
    "▁جیم": 6241,
    "▁مغزش": 6242,
    "اعضای": 6243,
    "یپ": 6244,
    "▁تبعید": 6245,
    "▁گردهم": 6246,
    "مانیا": 6247,
    "گارت": 6248,
    "▁۸۸": 6249,
    "نزا": 6250,
    "▁صدد": 6251,
    "دریچ": 6252,
    "▁گرانتر": 6253,
    "جانی": 6254,
    "▁رقبا": 6255,
    "زیر": 6256,
    "خطر": 6257,
    "▁علما": 6258,
    "هنگام": 6259,
    "▁همگ": 6260,
    "مزمن": 6261,
    "(": 6262,
    "▁آرزو": 6263,
    "حادثه": 6264,
    "سرجی": 6265,
    "▁اجتماع": 6266,
    "▁گز": 6267,
    "ملو": 6268,
    "▁فهم": 6269,
    "▁گردشگر": 6270,
    "سعود": 6271,
    "▁الن": 6272,
    "لندر": 6273,
    "▁لاش": 6274,
    "سایت": 6275,
    "مطابق": 6276,
    "▁بیگ": 6277,
    "امین": 6278,
    "فرگوس": 6279,
    "منظور": 6280,
    "غلام": 6281,
    "کانادا": 6282,
    "▁خاور": 6283,
    "اتریش": 6284,
    "بفرستید": 6285,
    "▁امری": 6286,
    "ریچارد": 6287,
    "تم": 6288,
    "▁عزادار": 6289,
    "اداره": 6290,
    "▁نر": 6291,
    "قبض": 6292,
    "ندرت": 6293,
    "بحث": 6294,
    "زود": 6295,
    "نفوذ": 6296,
    "سری": 6297,
    "▁پروازهایش": 6298,
    "الت": 6299,
    "▁کودتا": 6300,
    "▁کلاهبردار": 6301,
    "▁استعمار": 6302,
    "▁جنگی": 6303,
    "▁شفا": 6304,
    "▁کروناست": 6305,
    "▁پرید": 6306,
    "دیدار": 6307,
    "جک": 6308,
    "کاوه": 6309,
    "▁ثا": 6310,
    "▁قطرک": 6311,
    "▁سیلی": 6312,
    "زاک": 6313,
    "▁ناآرام": 6314,
    "دادستان": 6315,
    "▁تران": 6316,
    "▁قربان": 6317,
    "فل": 6318,
    "▁صوت": 6319,
    "یخ": 6320,
    "▁اوار": 6321,
    "▁رائو": 6322,
    "بیح": 6323,
    "آیا": 6324,
    "بهم": 6325,
    "▁گیم": 6326,
    "ناس": 6327,
    "جامع": 6328,
    "ماجرای": 6329,
    "▁سفارشی": 6330,
    "▁نهادی": 6331,
    "خیر": 6332,
    "نمایند": 6333,
    "▁مشهورتر": 6334,
    "▁آرم": 6335,
    "یع": 6336,
    "▁شکوف": 6337,
    "۱۱": 6338,
    "زاد": 6339,
    "مرغ": 6340,
    "▁کوهنورد": 6341,
    "رچه": 6342,
    "▁هجدهم": 6343,
    "رم": 6344,
    "اط": 6345,
    "▁کلور": 6346,
    "▁ارت": 6347,
    "تلتی": 6348,
    "▁رسن": 6349,
    "حث": 6350,
    "▁شاگرد": 6351,
    "ریت": 6352,
    "دلان": 6353,
    "▁مقاوم": 6354,
    "▁قل": 6355,
    "▁سفرها": 6356,
    "کمی": 6357,
    "▁پالا": 6358,
    "رالله": 6359,
    "▁معلول": 6360,
    "▁درها": 6361,
    "▁جور": 6362,
    "▁تقریب": 6363,
    "وئرنیک": 6364,
    "▁بایر": 6365,
    "▁احداث": 6366,
    "▁اوگوپوگو": 6367,
    "▁پاختاکور": 6368,
    "▁کانگورو": 6369,
    "▁بیندازند": 6370,
    "▁پولیتزر": 6371,
    "▁تویوتا": 6372,
    "▁طغیان": 6373,
    "▁اقتباس": 6374,
    "▁اولیانوف": 6375,
    "▁بلوچ": 6376,
    "▁کاسموس": 6377,
    "▁ناگزیر": 6378,
    "▁اردکانیان": 6379,
    "▁گریگوریان": 6380,
    "▁یادماندنی": 6381,
    "▁اسرارآمیز": 6382,
    "▁کمونیست": 6383,
    "▁ژی": 6384,
    "▁لشکر": 6385,
    "▁مقصود": 6386,
    "▁فرناند": 6387,
    "▁هیدرو": 6388,
    "▁تکواندو": 6389,
    "▁متمایز": 6390,
    "▁۱۹۳": 6391,
    "▁احوال": 6392,
    "▁ارژن": 6393,
    "▁برسانند": 6394,
    "▁مرضیه": 6395,
    "▁متصل": 6396,
    "▁مرموز": 6397,
    "▁سرسخت": 6398,
    "جیمزباند": 6399,
    "▁مکالمات": 6400,
    "▁یقین": 6401,
    "▁نوازندگان": 6402,
    "▁نورالله": 6403,
    "▁محصولاتش": 6404,
    "▁شنوایی": 6405,
    "▁برگردند": 6406,
    "▁عضلانی": 6407,
    "▁مختاری": 6408,
    "▁بیدار": 6409,
    "▁رژه": 6410,
    "▁۱۹۲۰": 6411,
    "▁تمیز": 6412,
    "▁لبخندها": 6413,
    "▁هالپ": 6414,
    "▁بایستند": 6415,
    "لاله": 6416,
    "▁اشکالات": 6417,
    "▁رفیق": 6418,
    "▁تلویح": 6419,
    "▁ابهامات": 6420,
    "▁رکوردشکن": 6421,
    "کاراکاس": 6422,
    "▁بخواهید": 6423,
    "پرس": 6424,
    "▁سکت": 6425,
    "▁سیدنی": 6426,
    "▁نابسامان": 6427,
    "▁اتصال": 6428,
    "▁الاکلنگ": 6429,
    "▁ایسلند": 6430,
    "▁شم": 6431,
    "▁خرمشهر": 6432,
    "▁دادخواست": 6433,
    "▁سفیددره": 6434,
    "▁ماخ": 6435,
    "▁پیانو": 6436,
    "▁کیلوولت": 6437,
    "▁گرافیک": 6438,
    "▁هاپک": 6439,
    "▁صراحت": 6440,
    "▁نورمحمد": 6441,
    "▁منفرد": 6442,
    "▁چابک": 6443,
    "▁سحرگاه": 6444,
    "▁متکی": 6445,
    "▁پناهند": 6446,
    "▁لورک": 6447,
    "▁معاونان": 6448,
    "▁مشروب": 6449,
    "▁ملکشا": 6450,
    "▁دریانورد": 6451,
    "▁رودکی": 6452,
    "▁مأموریت": 6453,
    "▁هلندی": 6454,
    "▁شکننده": 6455,
    "▁تحصیلات": 6456,
    "▁ترابی": 6457,
    "▁پردازش": 6458,
    "▁دیسک": 6459,
    "هالیفیلد": 6460,
    "▁تناقض": 6461,
    "▁ریسک": 6462,
    "▁فرندز": 6463,
    "▁گیلبرت": 6464,
    "▁عزت": 6465,
    "▁ونگر": 6466,
    "عضو": 6467,
    "▁بزرگسالان": 6468,
    "▁سولار": 6469,
    "عطوف": 6470,
    "▁بدنشان": 6471,
    "یگر": 6472,
    "اوران": 6473,
    "▁استیو": 6474,
    "نوش": 6475,
    "▁بتوانی": 6476,
    "▁کوش": 6477,
    "▁پناهجوی": 6478,
    "▁انتقام": 6479,
    "▁ساترا": 6480,
    "▁گردیم": 6481,
    "▁مهمانان": 6482,
    "▁کامران": 6483,
    "▁سرگردان": 6484,
    "▁برنگشت": 6485,
    "▁دوندگان": 6486,
    "▁شن": 6487,
    "▁شخصا": 6488,
    "▁واپس": 6489,
    "بزرگ": 6490,
    "تفرق": 6491,
    "▁ول": 6492,
    "▁بهت": 6493,
    "▁مینا": 6494,
    "▁خطا": 6495,
    "▁تجمعات": 6496,
    "▁صحرای": 6497,
    "▁خم": 6498,
    "▁والتر": 6499,
    "▁متحدانش": 6500,
    "▁سکوها": 6501,
    "▁جوی": 6502,
    "▁غیربو": 6503,
    "▁هانز": 6504,
    "یار": 6505,
    "▁بیورن": 6506,
    "▁ضیا": 6507,
    "ظه": 6508,
    "▁نایا": 6509,
    "پیر": 6510,
    "رش": 6511,
    "▁بدنش": 6512,
    "تصویر": 6513,
    "▁جاست": 6514,
    "▁نیکولا": 6515,
    "▁بازیافت": 6516,
    "▁لینک": 6517,
    "کنیم": 6518,
    "▁نگرفت": 6519,
    "انک": 6520,
    "▁بازنده": 6521,
    "اور": 6522,
    "شدن": 6523,
    "▁راهنمای": 6524,
    "▁اینچ": 6525,
    "بند": 6526,
    "▁قان": 6527,
    "▁فضاپیمای": 6528,
    "▁بفرستید": 6529,
    "▁کریس": 6530,
    "▁نیوز": 6531,
    "▁شرک": 6532,
    "لسون": 6533,
    "▁لطفی": 6534,
    "بته": 6535,
    "فش": 6536,
    "▁هوادارانش": 6537,
    "نیوز": 6538,
    "▁همگان": 6539,
    "▁عمد": 6540,
    "راتی": 6541,
    "ادا": 6542,
    "جانب": 6543,
    "۵۷": 6544,
    "منی": 6545,
    "▁سنی": 6546,
    "▁مجرمان": 6547,
    "▁آوا": 6548,
    "▁۷۹": 6549,
    "پاش": 6550,
    "أی": 6551,
    "▁آلبر": 6552,
    "▁پذیرای": 6553,
    "▁بالاست": 6554,
    "▁خلا": 6555,
    "▁محب": 6556,
    "▁توفیقی": 6557,
    "▁تحق": 6558,
    "▁جرا": 6559,
    "زیه": 6560,
    "▁زودرس": 6561,
    "فتن": 6562,
    "باتری": 6563,
    "سنگ": 6564,
    "▁ناقل": 6565,
    "▁راد": 6566,
    "لینگ": 6567,
    "▁عطف": 6568,
    "وزی": 6569,
    "▁امیدهای": 6570,
    "رها": 6571,
    "وجیه": 6572,
    "▁خند": 6573,
    "لتیک": 6574,
    "▁پوستر": 6575,
    "▁داروین": 6576,
    "ائب": 6577,
    "▁گیتار": 6578,
    "وویچ": 6579,
    "▁افزودن": 6580,
    "▁بخشیده": 6581,
    "▁بخواهد": 6582,
    "▁مصم": 6583,
    "▁لوپ": 6584,
    "موج": 6585,
    "تراشه": 6586,
    "▁رز": 6587,
    "▁برگرداندن": 6588,
    "▁فول": 6589,
    "▁پشتو": 6590,
    "وندی": 6591,
    "▁فش": 6592,
    "▁برگزارکنند": 6593,
    "▁دقتی": 6594,
    "جهان": 6595,
    "اطم": 6596,
    "▁گیت": 6597,
    "اراک": 6598,
    "▁میدهد": 6599,
    "سام": 6600,
    "▁پنس": 6601,
    "رشاد": 6602,
    "▁نوآوران": 6603,
    "میته": 6604,
    "▁فشارهای": 6605,
    "▁ربای": 6606,
    "▁وات": 6607,
    "▁سرم": 6608,
    "▁نب": 6609,
    "نوان": 6610,
    "▁پینک": 6611,
    "▁سانتا": 6612,
    "▁۴۲۰": 6613,
    "چل": 6614,
    "▁بهرامی": 6615,
    "▁رف": 6616,
    "▁۷۵۰": 6617,
    "نشین": 6618,
    "▁کارفرما": 6619,
    "▁باریک": 6620,
    "اشی": 6621,
    "شتم": 6622,
    "▁مردن": 6623,
    "مع": 6624,
    "▁گلی": 6625,
    "پولیس": 6626,
    "▁کنیا": 6627,
    "بان": 6628,
    "اکبر": 6629,
    "▁آبهای": 6630,
    "▁سنگر": 6631,
    "۱۲": 6632,
    "▁افش": 6633,
    "پادمان": 6634,
    "نور": 6635,
    "▁سوئ": 6636,
    "▁اجراهای": 6637,
    "▁مصر": 6638,
    "▁اسا": 6639,
    "آفرینی": 6640,
    "افتاده": 6641,
    "▁توق": 6642,
    "حداکثر": 6643,
    "سوس": 6644,
    "▁بش": 6645,
    "رمان": 6646,
    "▁ملته": 6647,
    "ماتیک": 6648,
    "▁نشستن": 6649,
    "▁عفون": 6650,
    "▁لوف": 6651,
    "مسابقه": 6652,
    "امید": 6653,
    "دمای": 6654,
    "▁قف": 6655,
    "رنج": 6656,
    "مزد": 6657,
    "▁شارل": 6658,
    "کاظم": 6659,
    "▁۱۳۳": 6660,
    "بازداشت": 6661,
    "▁عدل": 6662,
    "مایه": 6663,
    "▁رفراند": 6664,
    "▁گذاریم": 6665,
    "زندگی": 6666,
    "مشخص": 6667,
    "▁کامپیوترها": 6668,
    "▁الس": 6669,
    "▁تبع": 6670,
    "نقل": 6671,
    "دینگ": 6672,
    "تورهای": 6673,
    "▁ریاضی": 6674,
    "افشاری": 6675,
    "▁هیل": 6676,
    "▁سکان": 6677,
    "▁سناریو": 6678,
    "پیروز": 6679,
    "تاج": 6680,
    "کارگران": 6681,
    "▁طو": 6682,
    "هواداران": 6683,
    "▁انسانها": 6684,
    "▁برآوردها": 6685,
    "شاپی": 6686,
    "تنیس": 6687,
    "گز": 6688,
    "منچستر": 6689,
    "۶۳": 6690,
    "ارزش": 6691,
    "▁نش": 6692,
    "▁پوشیدن": 6693,
    "تجرب": 6694,
    "تاتنهام": 6695,
    "اوپک": 6696,
    "ظن": 6697,
    "▁حاج": 6698,
    "▁ولت": 6699,
    "فاصل": 6700,
    "▁ادوار": 6701,
    "▁برخاست": 6702,
    "▁گدا": 6703,
    "ادت": 6704,
    "اسپانیا": 6705,
    "جوکوویچ": 6706,
    "فضل": 6707,
    "کسل": 6708,
    "▁پژ": 6709,
    "کتاب": 6710,
    "فرهاد": 6711,
    "گاوا": 6712,
    "ورانه": 6713,
    "محمدرضا": 6714,
    "▁نبو": 6715,
    "ایدو": 6716,
    "▁اشتباهی": 6717,
    "هماهنگ": 6718,
    "▁کارل": 6719,
    "اسناد": 6720,
    "تحلیلگر": 6721,
    "وکیل": 6722,
    "▁داش": 6723,
    "▁دانا": 6724,
    "▁ضم": 6725,
    "هیچ": 6726,
    "اندن": 6727,
    "▁بلندپرواز": 6728,
    "جن": 6729,
    "رگیری": 6730,
    "▁آلت": 6731,
    "▁کلیسا": 6732,
    "دولتی": 6733,
    "▁ناصری": 6734,
    "جله": 6735,
    "▁نوردی": 6736,
    "▁اشت": 6737,
    "رغ": 6738,
    "▁موسسا": 6739,
    "۴۹": 6740,
    "▁امپراتور": 6741,
    "نقش": 6742,
    "▁شورش": 6743,
    "▁بیتل": 6744,
    "▁مشتاق": 6745,
    "رسیدن": 6746,
    "نجی": 6747,
    "▁کانت": 6748,
    "اعظم": 6749,
    "▁مری": 6750,
    "اژ": 6751,
    "هفتصد": 6752,
    "آلود": 6753,
    "▁شیع": 6754,
    "▁شنید": 6755,
    "▁همب": 6756,
    "زیان": 6757,
    "دوزی": 6758,
    "دارا": 6759,
    "▁گوسفند": 6760,
    "مری": 6761,
    "گرفتن": 6762,
    "▁پرتو": 6763,
    "بال": 6764,
    "لیس": 6765,
    "یخته": 6766,
    "▁باردار": 6767,
    "تازه": 6768,
    "بود": 6769,
    "آبی": 6770,
    "دایی": 6771,
    "▁محوری": 6772,
    "▁متو": 6773,
    "▁کارند": 6774,
    "اویر": 6775,
    "▁جیمی": 6776,
    "▁کوید": 6777,
    "▁جنب": 6778,
    "نگرانی": 6779,
    "▁استانداری": 6780,
    "▁سازوکار": 6781,
    "جل": 6782,
    "▁مخابر": 6783,
    "▁کولبر": 6784,
    "▁حکمی": 6785,
    "▁اورشلیم": 6786,
    "▁فیلسوف": 6787,
    "▁محتاط": 6788,
    "▁انقطاع": 6789,
    "▁عناوین": 6790,
    "▁تدفین": 6791,
    "▁ناخودآگاه": 6792,
    "▁سمفونی": 6793,
    "▁ارواح": 6794,
    "▁اصغر": 6795,
    "▁النصر": 6796,
    "▁رزیدن": 6797,
    "▁کرمانشاه": 6798,
    "▁انزوا": 6799,
    "▁قتالی": 6800,
    "▁تذکر": 6801,
    "▁کانتینر": 6802,
    "▁کوشنر": 6803,
    "▁ماراکانا": 6804,
    "▁هریرود": 6805,
    "▁کرمانپور": 6806,
    "▁فرهیخت": 6807,
    "▁تدارک": 6808,
    "بازد": 6809,
    "▁بکاهند": 6810,
    "▁جهرمی": 6811,
    "▁باشکوه": 6812,
    "▁ران": 6813,
    "▁طلسم": 6814,
    "▁ظالمانه": 6815,
    "▁واجد": 6816,
    "▁۱۹۷۹": 6817,
    "▁بدانید": 6818,
    "▁ترشح": 6819,
    "▁قرآن": 6820,
    "▁روانچی": 6821,
    "▁کواچ": 6822,
    "▁ویلسون": 6823,
    "▁کاسپی": 6824,
    "▁نابرابر": 6825,
    "▁عالیشاه": 6826,
    "▁آرسن": 6827,
    "▁امپر": 6828,
    "▁فرنگی": 6829,
    "▁درآید": 6830,
    "▁بزاق": 6831,
    "▁پرجمعیت": 6832,
    "▁سازگار": 6833,
    "▁ضابط": 6834,
    "▁۱۳۶۰": 6835,
    "▁بنویس": 6836,
    "▁متضاد": 6837,
    "▁قبرستان": 6838,
    "▁نیابد": 6839,
    "▁۱۹۹۵": 6840,
    "▁بنشیند": 6841,
    "▁مراکش": 6842,
    "موث": 6843,
    "▁۱۹۹۴": 6844,
    "▁مردادماه": 6845,
    "▁بیولوژیک": 6846,
    "▁خودمختار": 6847,
    "▁انتصاب": 6848,
    "▁مولف": 6849,
    "▁جملات": 6850,
    "▁فرستد": 6851,
    "▁جاسک": 6852,
    "▁بخورد": 6853,
    "▁بگذارم": 6854,
    "▁داگ": 6855,
    "▁لامرد": 6856,
    "▁حواس": 6857,
    "▁سازوکارهای": 6858,
    "▁برویم": 6859,
    "کوس": 6860,
    "شکاف": 6861,
    "▁تجربیات": 6862,
    "▁فلزات": 6863,
    "▁برونته": 6864,
    "▁تخل": 6865,
    "▁هک": 6866,
    "▁مارلی": 6867,
    "▁نیفتاد": 6868,
    "سیزدهم": 6869,
    "بینند": 6870,
    "▁یونسی": 6871,
    "▁معلولان": 6872,
    "▁راسخ": 6873,
    "▁۱۹۶۸": 6874,
    "▁آگوست": 6875,
    "▁کروات": 6876,
    "▁ایستادند": 6877,
    "▁نورستان": 6878,
    "ادین": 6879,
    "▁بازتاب": 6880,
    "▁ژنوم": 6881,
    "▁فلامینگوها": 6882,
    "▁ویرانگر": 6883,
    "صریح": 6884,
    "کاران": 6885,
    "▁خاکستر": 6886,
    "▁توبین": 6887,
    "ئه": 6888,
    "▁رستم": 6889,
    "▁اجداد": 6890,
    "▁گرگور": 6891,
    "▁ندادند": 6892,
    "▁فهیم": 6893,
    "▁ماوریک": 6894,
    "▁رول": 6895,
    "▁فیروزجا": 6896,
    "▁تعرض": 6897,
    "▁ناشده": 6898,
    "▁سرخک": 6899,
    "▁مسبب": 6900,
    "فین": 6901,
    "نیچ": 6902,
    "▁لاپورتا": 6903,
    "کافی": 6904,
    "▁جذابیت": 6905,
    "▁توقع": 6906,
    "▁زالی": 6907,
    "▁خوشبین": 6908,
    "▁پروست": 6909,
    "▁درمی": 6910,
    "▁رخدادهای": 6911,
    "بدی": 6912,
    "▁مطلق": 6913,
    "▁کمربندهای": 6914,
    "▁ابزارهای": 6915,
    "▁دلتا": 6916,
    "▁ترقی": 6917,
    "▁صرب": 6918,
    "▁یوس": 6919,
    "نسون": 6920,
    "زاب": 6921,
    "▁رادیوی": 6922,
    "▁خریدن": 6923,
    "▁ریختن": 6924,
    "▁بدهم": 6925,
    "▁دردسرهای": 6926,
    "چال": 6927,
    "▁لیبی": 6928,
    "▁درمیان": 6929,
    "چهل": 6930,
    "▁توسان": 6931,
    "▁باختر": 6932,
    "▁ثور": 6933,
    "▁فاضل": 6934,
    "▁نایاب": 6935,
    "اچو": 6936,
    "▁مهیب": 6937,
    "▁گرو": 6938,
    "▁فرستادن": 6939,
    "▁بزرگسال": 6940,
    "▁کجاست": 6941,
    "▁امی": 6942,
    "▁ترا": 6943,
    "▁مادام": 6944,
    "▁محدودی": 6945,
    "گرنه": 6946,
    "▁راشد": 6947,
    "▁سانچ": 6948,
    "▁لط": 6949,
    "▁خوابیدن": 6950,
    "▁عز": 6951,
    "▁ریگ": 6952,
    "تاکنون": 6953,
    "وده": 6954,
    "▁خران": 6955,
    "▁شنای": 6956,
    "▁بدهید": 6957,
    "▁کارلو": 6958,
    "▁پارکر": 6959,
    "▁عثمانی": 6960,
    "سارت": 6961,
    "کشته": 6962,
    "▁یوآن": 6963,
    "▁پهنه": 6964,
    "▁حسابدار": 6965,
    "▁مای": 6966,
    "▁ورق": 6967,
    "▁اجت": 6968,
    "▁بلک": 6969,
    "▁کولاک": 6970,
    "▁بگذاری": 6971,
    "▁اتو": 6972,
    "▁طاق": 6973,
    "بد": 6974,
    "▁پردازی": 6975,
    "▁گریخت": 6976,
    "فروش": 6977,
    "۸۹": 6978,
    "ومین": 6979,
    "▁فروند": 6980,
    "▁آذری": 6981,
    "▁خصوصیات": 6982,
    "▁احتیا": 6983,
    "▁مجادل": 6984,
    "▁تخ": 6985,
    "▁سیلا": 6986,
    "▁خفا": 6987,
    "▁بهزاد": 6988,
    "▁چاق": 6989,
    "▁جراحان": 6990,
    "▁توبی": 6991,
    "۳۶۰": 6992,
    "▁جوانا": 6993,
    "کسیون": 6994,
    "▁ناک": 6995,
    "نفت": 6996,
    "▁نویسد": 6997,
    "▁آز": 6998,
    "▁بلید": 6999,
    "۶۱": 7000,
    "▁نیل": 7001,
    "▁اینست": 7002,
    "دنظر": 7003,
    "شمارش": 7004,
    "ننده": 7005,
    "▁کوپر": 7006,
    "▁بروید": 7007,
    "ادگی": 7008,
    "▁حف": 7009,
    "گشاد": 7010,
    "▁بازگشتند": 7011,
    "▁نزدیکانش": 7012,
    "▁منازع": 7013,
    "▁نبودند": 7014,
    "▁شکم": 7015,
    "▁پسران": 7016,
    "زیو": 7017,
    "روسا": 7018,
    "تخیلی": 7019,
    "۹۷": 7020,
    "▁شاد": 7021,
    "▁قانونگذار": 7022,
    "دند": 7023,
    "▁سف": 7024,
    "۹۴": 7025,
    "ازاد": 7026,
    "لبان": 7027,
    "عادی": 7028,
    "▁جودوکا": 7029,
    "▁خوشی": 7030,
    "▁پاسخگوی": 7031,
    "رتر": 7032,
    "نوی": 7033,
    "▁زیبای": 7034,
    "▁دیدند": 7035,
    "پرسینگ": 7036,
    "لث": 7037,
    "▁بستند": 7038,
    "یامک": 7039,
    "▁پیامبر": 7040,
    "▁چای": 7041,
    "▁ویر": 7042,
    "بورد": 7043,
    "شک": 7044,
    "▁۱۷۳": 7045,
    "▁درهم": 7046,
    "▁بوی": 7047,
    "▁وزار": 7048,
    "▁آنگل": 7049,
    "▁نظرش": 7050,
    "▁بدنم": 7051,
    "▁مجتب": 7052,
    "▁بسر": 7053,
    "▁نوب": 7054,
    "▁نیستم": 7055,
    "▁سرگذاشت": 7056,
    "▁تقلا": 7057,
    "▁زوم": 7058,
    "▁مستندهای": 7059,
    "برده": 7060,
    "▁کویت": 7061,
    "اکتی": 7062,
    "▁رشید": 7063,
    "▁درسی": 7064,
    "▁لوکه": 7065,
    "▁دعا": 7066,
    "▁فضاپیما": 7067,
    "فرانس": 7068,
    "راک": 7069,
    "▁هاروی": 7070,
    "▁شعرهای": 7071,
    "گرایی": 7072,
    "انزا": 7073,
    "▁نجفی": 7074,
    "▁کری": 7075,
    "▁فری": 7076,
    "▁فریب": 7077,
    "▁شیب": 7078,
    "کری": 7079,
    "ندگی": 7080,
    "نفر": 7081,
    "ائی": 7082,
    "▁آپ": 7083,
    "▁مذک": 7084,
    "▁مهمتر": 7085,
    "▁کارتر": 7086,
    "▁کریستی": 7087,
    "ونته": 7088,
    "▁فیش": 7089,
    "▁آشو": 7090,
    "صول": 7091,
    "▁حول": 7092,
    "هور": 7093,
    "▁دانستن": 7094,
    "کست": 7095,
    "کور": 7096,
    "▁نانو": 7097,
    "▁بخشهای": 7098,
    "کول": 7099,
    "▁امیرم": 7100,
    "کانا": 7101,
    "لای": 7102,
    "رب": 7103,
    "دخت": 7104,
    "▁فرهنگیان": 7105,
    "▁نیکلا": 7106,
    "▁گلو": 7107,
    "▁رسی": 7108,
    "▁پیت": 7109,
    "▁امیدی": 7110,
    "روند": 7111,
    "گرا": 7112,
    "▁نخ": 7113,
    "▁کارتون": 7114,
    "▁برنا": 7115,
    "۲۲": 7116,
    "▁بخشد": 7117,
    "اثر": 7118,
    "▁پرستار": 7119,
    "وجه": 7120,
    "▁ناشر": 7121,
    "▁ماریان": 7122,
    "▁شکنی": 7123,
    "وتی": 7124,
    "▁اغ": 7125,
    "▁اسکان": 7126,
    "▁بفهم": 7127,
    "۹۶": 7128,
    "حقوق": 7129,
    "▁اب": 7130,
    "▁درسال": 7131,
    "مانس": 7132,
    "▁شار": 7133,
    "کارآمد": 7134,
    "▁نیامد": 7135,
    "لیات": 7136,
    "▁مگ": 7137,
    "▁دوید": 7138,
    "صف": 7139,
    "▁دوگان": 7140,
    "ردی": 7141,
    "کسین": 7142,
    "خودرو": 7143,
    "▁جع": 7144,
    "وفس": 7145,
    "▁نواخت": 7146,
    "نگا": 7147,
    "▁ترانس": 7148,
    "ناظر": 7149,
    "۰۱": 7150,
    "▁سپرد": 7151,
    "▁غرو": 7152,
    "ستر": 7153,
    "ائو": 7154,
    "درآمد": 7155,
    "مرد": 7156,
    "ندرسون": 7157,
    "همکاری": 7158,
    "▁لوح": 7159,
    "▁آپو": 7160,
    "رکورد": 7161,
    "سیاس": 7162,
    "رفته": 7163,
    "ابتدا": 7164,
    "▁توا": 7165,
    "فرانسه": 7166,
    "▁حک": 7167,
    "▁آرزوها": 7168,
    "لد": 7169,
    "▁پاسخگو": 7170,
    "اعت": 7171,
    "پاسخ": 7172,
    "امه": 7173,
    "▁بارش": 7174,
    "ترکیب": 7175,
    "▁شناختن": 7176,
    "▁بلخی": 7177,
    "جشنواره": 7178,
    "نتایج": 7179,
    "نژاد": 7180,
    "جواد": 7181,
    "قهرمانی": 7182,
    "نچ": 7183,
    "استرالیا": 7184,
    "▁دز": 7185,
    "وحد": 7186,
    "▁گاردی": 7187,
    "▁کورت": 7188,
    "▁فک": 7189,
    "گمرک": 7190,
    "دلایل": 7191,
    "تشکر": 7192,
    "جنجال": 7193,
    "▁هرد": 7194,
    "شعر": 7195,
    "▁بادی": 7196,
    "▁نظ": 7197,
    "حاشیه": 7198,
    "راجع": 7199,
    "▁سوز": 7200,
    "آکادمی": 7201,
    "▁هیولا": 7202,
    "قاسم": 7203,
    "▁مافی": 7204,
    "کوئین": 7205,
    "▁..": 7206,
    "سریع": 7207,
    "دختر": 7208,
    "آرامکو": 7209,
    "۸۴": 7210,
    "خشکسالی": 7211,
    "▁کیمی": 7212,
    "ویش": 7213,
    "تخصصی": 7214,
    "لستر": 7215,
    "▁مورف": 7216,
    "تابعیت": 7217,
    "آزادی": 7218,
    "▁دلیلش": 7219,
    "دقیق": 7220,
    "▁یادگار": 7221,
    "ولا": 7222,
    "▁مذهب": 7223,
    "▁مزایا": 7224,
    "▁سیری": 7225,
    "گردون": 7226,
    "▁الی": 7227,
    "حساب": 7228,
    "▁سلیمان": 7229,
    "▁باخ": 7230,
    "ویی": 7231,
    "کمه": 7232,
    "غوری": 7233,
    "▁هواپیماها": 7234,
    "▁گار": 7235,
    "▁پرز": 7236,
    "▁حیا": 7237,
    "▁۱۶۰": 7238,
    "▁استبا": 7239,
    "فو": 7240,
    "▁تروریست": 7241,
    "کرده": 7242,
    "طری": 7243,
    "▁۲۰۵": 7244,
    "▁تشک": 7245,
    "جسمی": 7246,
    "▁سانتو": 7247,
    "باد": 7248,
    "▁قضائی": 7249,
    "نقدر": 7250,
    "▁موسی": 7251,
    "ملا": 7252,
    "▁صدایش": 7253,
    "کریست": 7254,
    "▁فلور": 7255,
    "▁عط": 7256,
    "▁هرج": 7257,
    "▁متخلف": 7258,
    "نفی": 7259,
    "▁پاب": 7260,
    "کیت": 7261,
    "ضرور": 7262,
    "▁رویز": 7263,
    "▁دزدی": 7264,
    "▁گرین": 7265,
    "گردانده": 7266,
    "سنگر": 7267,
    "گران": 7268,
    "جات": 7269,
    "▁غور": 7270,
    "▁روم": 7271,
    "نرخ": 7272,
    "واقعی": 7273,
    "کنند": 7274,
    "▁تراک": 7275,
    "▁کوارت": 7276,
    "▁یوآ": 7277,
    "▁قوز": 7278,
    "آر": 7279,
    "زائ": 7280,
    "▁آزمو": 7281,
    "▁ماز": 7282,
    "▁بازده": 7283,
    "عظم": 7284,
    "اتیو": 7285,
    "▁گریه": 7286,
    "لیه": 7287,
    "▁شدیم": 7288,
    "▁مکاتب": 7289,
    "محسن": 7290,
    "طل": 7291,
    "▁نامند": 7292,
    "فیروز": 7293,
    "▁قزاق": 7294,
    "▁اختاپوس": 7295,
    "▁روزافزون": 7296,
    "▁سخاوتمند": 7297,
    "▁لومامبا": 7298,
    "▁پلتفرم": 7299,
    "▁ژئوفیزیک": 7300,
    "▁ژئوپلیتیک": 7301,
    "▁انحراف": 7302,
    "▁سزاوار": 7303,
    "▁هژمون": 7304,
    "▁بیضائی": 7305,
    "▁سانتیگراد": 7306,
    "▁اوقاف": 7307,
    "▁لاوروف": 7308,
    "▁هامبورگ": 7309,
    "▁بولونیا": 7310,
    "▁سارقان": 7311,
    "▁غلیظ": 7312,
    "▁دانچیچ": 7313,
    "▁انسولین": 7314,
    "▁چمپیون": 7315,
    "▁التحصیل": 7316,
    "▁قیصر": 7317,
    "▁مصداق": 7318,
    "▁اقوام": 7319,
    "▁فلاکت": 7320,
    "▁باچان": 7321,
    "▁تظاهرکنندگان": 7322,
    "▁سیرجان": 7323,
    "▁ذوالنور": 7324,
    "▁دوبلور": 7325,
    "▁لاتکس": 7326,
    "▁وسواس": 7327,
    "▁میچام": 7328,
    "▁اوزون": 7329,
    "▁بلندپایه": 7330,
    "▁حصبه": 7331,
    "▁کارائیب": 7332,
    "▁موازات": 7333,
    "▁شکارچی": 7334,
    "▁جوامع": 7335,
    "▁پاستور": 7336,
    "▁حیثیت": 7337,
    "▁دشتکی": 7338,
    "▁نیچر": 7339,
    "▁ترفند": 7340,
    "▁نیرومند": 7341,
    "▁ظلم": 7342,
    "▁نابویایی": 7343,
    "ترا": 7344,
    "▁ارباب": 7345,
    "▁ارمجانی": 7346,
    "▁مقادیر": 7347,
    "▁مشروعیت": 7348,
    "▁تتلو": 7349,
    "▁خلوتگر": 7350,
    "▁زیراتمی": 7351,
    "▁ببینم": 7352,
    "▁منفعت": 7353,
    "ژگان": 7354,
    "▁ژائو": 7355,
    "▁متوازن": 7356,
    "▁سعیدپور": 7357,
    "▁فیصل": 7358,
    "▁مغایر": 7359,
    "▁مالزی": 7360,
    "▁بریجز": 7361,
    "▁محفظه": 7362,
    "▁جرارد": 7363,
    "▁زوایا": 7364,
    "▁خویشتن": 7365,
    "▁نکشید": 7366,
    "▁سهیم": 7367,
    "▁تایی": 7368,
    "▁اتلان": 7369,
    "▁پرشمار": 7370,
    "▁چوپ": 7371,
    "▁ببریم": 7372,
    "قندهار": 7373,
    "▁هندرسون": 7374,
    "▁نگیرد": 7375,
    "▁ریاضیات": 7376,
    "▁فلسطینیان": 7377,
    "▁لوگو": 7378,
    "▁تحرکات": 7379,
    "▁جلیل": 7380,
    "▁دیرتر": 7381,
    "▁اسلو": 7382,
    "▁یاسم": 7383,
    "▁پرستون": 7384,
    "▁کابوس": 7385,
    "▁هنگفت": 7386,
    "▁سندی": 7387,
    "▁قمار": 7388,
    "رخ": 7389,
    "▁اجساد": 7390,
    "▁اسکورسیزی": 7391,
    "▁سحابی": 7392,
    "▁متغیرهای": 7393,
    "▁توازن": 7394,
    "▁فرسود": 7395,
    "بالاحصار": 7396,
    "▁سیاهپوست": 7397,
    "▁حوض": 7398,
    "صنوف": 7399,
    "▁خطاهای": 7400,
    "▁مختصر": 7401,
    "▁وزرا": 7402,
    "▁همفکر": 7403,
    "▁رکس": 7404,
    "▁لغز": 7405,
    "▁ملوان": 7406,
    "گوگوش": 7407,
    "▁سرپوش": 7408,
    "▁کبیری": 7409,
    "▁بگیرم": 7410,
    "▁دروغگو": 7411,
    "▁صیاد": 7412,
    "▁آویز": 7413,
    "▁اسکات": 7414,
    "▁مناسبات": 7415,
    "▁متقابل": 7416,
    "ثه": 7417,
    "نعیم": 7418,
    "▁علیزاده": 7419,
    "تک": 7420,
    "۴۴": 7421,
    "▁لغت": 7422,
    "▁مزد": 7423,
    "▁وفا": 7424,
    "▁گاردن": 7425,
    "▁تفکر": 7426,
    "زد": 7427,
    "مرور": 7428,
    "لسک": 7429,
    "▁سلیق": 7430,
    "▁۱۳۱": 7431,
    "عادل": 7432,
    "▁خرس": 7433,
    "سود": 7434,
    "▁نیمروز": 7435,
    "موتو": 7436,
    "▁لندر": 7437,
    "باط": 7438,
    "▁توانمند": 7439,
    "وادا": 7440,
    "▁چرخید": 7441,
    "▁تاکسیران": 7442,
    "شریف": 7443,
    "▁ویدئوهای": 7444,
    "▁مجرد": 7445,
    "▁ایلام": 7446,
    "یتا": 7447,
    "کین": 7448,
    "▁حسگرها": 7449,
    "رزمی": 7450,
    "▁منت": 7451,
    "لیت": 7452,
    "▁نثر": 7453,
    "شوند": 7454,
    "روف": 7455,
    "▁رفقا": 7456,
    "▁حوال": 7457,
    "▁عناب": 7458,
    "▁افزارهای": 7459,
    "▁اثرگذار": 7460,
    "معدنچی": 7461,
    "▁وانگ": 7462,
    "میلیارد": 7463,
    "▁تسلی": 7464,
    "▁آسا": 7465,
    "▁اکثرا": 7466,
    "▁کانل": 7467,
    "انگ": 7468,
    "▁رازهای": 7469,
    "▁نازک": 7470,
    "▁روا": 7471,
    "▁مشاه": 7472,
    "میمون": 7473,
    "▁نازل": 7474,
    "۱۹۶۵": 7475,
    "▁محاف": 7476,
    "گت": 7477,
    "▁ربکا": 7478,
    "▁لندرو": 7479,
    "▁گوها": 7480,
    "خشنود": 7481,
    "▁کوچه": 7482,
    "▁دیرو": 7483,
    "▁دفع": 7484,
    "▁کشورهاست": 7485,
    "مور": 7486,
    "▁انکار": 7487,
    "▁طبقات": 7488,
    "ذره": 7489,
    "رسید": 7490,
    "▁متال": 7491,
    "▁بدهیم": 7492,
    "▁پترو": 7493,
    "دوغا": 7494,
    "۲۷": 7495,
    "▁بپذیر": 7496,
    "▁شدیدتری": 7497,
    "ارسل": 7498,
    "▁نیافتن": 7499,
    "▁عی": 7500,
    "▁اظهارنظرهای": 7501,
    "▁لیو": 7502,
    "▁موسیقیدان": 7503,
    "▁روده": 7504,
    "▁کریستین": 7505,
    "▁ترسد": 7506,
    "▁مراد": 7507,
    "▁رج": 7508,
    "▁صداها": 7509,
    "▁اسپا": 7510,
    "▁تشکیلات": 7511,
    "▁پاسدار": 7512,
    "حضا": 7513,
    "بک": 7514,
    "▁طر": 7515,
    "▁خوردند": 7516,
    "▁غذاخور": 7517,
    "▁سیاستگذار": 7518,
    "▁بچ": 7519,
    "وستون": 7520,
    "▁رباب": 7521,
    "▁گراند": 7522,
    "▁منفور": 7523,
    "قد": 7524,
    "▁بریج": 7525,
    "▁معاهد": 7526,
    "▁روبات": 7527,
    "لال": 7528,
    "▁دیوارهای": 7529,
    "▁سالمند": 7530,
    "مش": 7531,
    "▁هجدهمی": 7532,
    "▁تیموری": 7533,
    "نوایی": 7534,
    "دوستان": 7535,
    "فرنو": 7536,
    "▁اقسا": 7537,
    "برآورد": 7538,
    "▁میلیچ": 7539,
    "▁بدویا": 7540,
    "▁راهکار": 7541,
    "▁سوییس": 7542,
    "آور": 7543,
    "▁خوشایند": 7544,
    "▁۱۷۴": 7545,
    "▁غزل": 7546,
    "اسکورت": 7547,
    "زنان": 7548,
    "▁کمیاب": 7549,
    "حاملگی": 7550,
    "پزشک": 7551,
    "▁بیکاران": 7552,
    "▁آئ": 7553,
    "▁قبض": 7554,
    "▁حریر": 7555,
    "▁افول": 7556,
    "▁مشخصات": 7557,
    "▁ایرانسل": 7558,
    "▁آرمی": 7559,
    "الیز": 7560,
    "▁چاب": 7561,
    "▁کیپ": 7562,
    "صیل": 7563,
    "▁دنی": 7564,
    "▁نصیر": 7565,
    "▁عینک": 7566,
    "سانس": 7567,
    "کام": 7568,
    "▁رسند": 7569,
    "تحرک": 7570,
    "▁سناریوها": 7571,
    "ورود": 7572,
    "▁ماهان": 7573,
    "▁سرب": 7574,
    "▁همهمه": 7575,
    "▁بقا": 7576,
    "▁نپذیرفت": 7577,
    "▁پاش": 7578,
    "▁تبر": 7579,
    "دانی": 7580,
    "آفرین": 7581,
    "▁سوزاند": 7582,
    "دهم": 7583,
    "ژن": 7584,
    "▁آمونی": 7585,
    "▁موت": 7586,
    "▁توسل": 7587,
    "گردانی": 7588,
    "راد": 7589,
    "▁گردون": 7590,
    "▁تونسی": 7591,
    "▁نبی": 7592,
    "▁نماید": 7593,
    "عطا": 7594,
    "▁شروط": 7595,
    "▁فرز": 7596,
    "▁رانگل": 7597,
    "جف": 7598,
    "راحتی": 7599,
    "▁رایانه": 7600,
    "▁قبای": 7601,
    "▁منامه": 7602,
    "نشأ": 7603,
    "گذشت": 7604,
    "شوه": 7605,
    "▁غوری": 7606,
    "▁امضاکنند": 7607,
    "کران": 7608,
    "۰۵": 7609,
    "▁سوپ": 7610,
    "غلو": 7611,
    "▁اتم": 7612,
    "▁قصر": 7613,
    "▁۶۹": 7614,
    "▁اوکا": 7615,
    "▁زنیم": 7616,
    "۳۹": 7617,
    "انند": 7618,
    "ولین": 7619,
    "▁بون": 7620,
    "وثر": 7621,
    "▁نفربر": 7622,
    "اتح": 7623,
    "پاری": 7624,
    "سترسیتی": 7625,
    "نمای": 7626,
    "▁گذران": 7627,
    "وران": 7628,
    "▁شکستند": 7629,
    "▁استوایی": 7630,
    "وین": 7631,
    "زبان": 7632,
    "▁پیا": 7633,
    "▁ناکار": 7634,
    "▁وول": 7635,
    "ولکس": 7636,
    "▁سردست": 7637,
    "▁آلم": 7638,
    "▁گوستا": 7639,
    "ناوب": 7640,
    "▁سک": 7641,
    "▁سیرو": 7642,
    "▁آندریا": 7643,
    "اتور": 7644,
    "▁خش": 7645,
    "وفون": 7646,
    "▁شاهدان": 7647,
    "▁شالی": 7648,
    "فرشی": 7649,
    "جیان": 7650,
    "اصل": 7651,
    "▁کرایس": 7652,
    "جمهوری": 7653,
    "▁لوس": 7654,
    "شم": 7655,
    "آنچ": 7656,
    "▁شرعی": 7657,
    "▁رویاهای": 7658,
    "آباد": 7659,
    "وپ": 7660,
    "▁راوی": 7661,
    "▁چتر": 7662,
    "ویا": 7663,
    "قهرمان": 7664,
    "▁افرا": 7665,
    "حکم": 7666,
    "▁حقوقدان": 7667,
    "▁سوخته": 7668,
    "ولوژی": 7669,
    "شن": 7670,
    "▁داو": 7671,
    "▁باگ": 7672,
    "▁محبوبش": 7673,
    "▁عر": 7674,
    "▁همسو": 7675,
    "نویس": 7676,
    "بن": 7677,
    "▁تنی": 7678,
    "ونی": 7679,
    "▁بازنش": 7680,
    "▁اجزا": 7681,
    "▁ربود": 7682,
    "۷۷": 7683,
    "▁تیز": 7684,
    "▁آزاری": 7685,
    "پایان": 7686,
    "هو": 7687,
    "▁شرع": 7688,
    "▁کنو": 7689,
    "▁نیاورده": 7690,
    "تمایل": 7691,
    "▁محر": 7692,
    "▁شکن": 7693,
    "▁بزو": 7694,
    "توافق": 7695,
    "ژه": 7696,
    "▁ستا": 7697,
    "ینز": 7698,
    "قای": 7699,
    "▁۱۸۹": 7700,
    "واکسن": 7701,
    "▁زیباتر": 7702,
    "تالیا": 7703,
    "درهای": 7704,
    "▁بازه": 7705,
    "اطی": 7706,
    "لستون": 7707,
    "▁اسید": 7708,
    "▁ارج": 7709,
    "رالزمان": 7710,
    "▁نوپا": 7711,
    "▁سفال": 7712,
    "▁همخوان": 7713,
    "ژ": 7714,
    "دید": 7715,
    "▁اط": 7716,
    "▁عکسها": 7717,
    "دانه": 7718,
    "▁شست": 7719,
    "▁پارو": 7720,
    "خنده": 7721,
    "▁دلو": 7722,
    "نولد": 7723,
    "یکا": 7724,
    "ماشین": 7725,
    "▁نخواست": 7726,
    "فعالیت": 7727,
    "▁دویدن": 7728,
    "بندی": 7729,
    "فیه": 7730,
    "▁بازگرد": 7731,
    "▁والا": 7732,
    "▁لک": 7733,
    "رعه": 7734,
    "وست": 7735,
    "▁سکو": 7736,
    "نیو": 7737,
    "پرداخت": 7738,
    "۶۶": 7739,
    "▁دبی": 7740,
    "شروع": 7741,
    "نای": 7742,
    "▁کلک": 7743,
    "▁فرودست": 7744,
    "▁شناورها": 7745,
    "الف": 7746,
    "▁ماتی": 7747,
    "▁شدایران": 7748,
    "مکن": 7749,
    "▁پرداز": 7750,
    "بیماری": 7751,
    "▁لن": 7752,
    "امک": 7753,
    "تیو": 7754,
    "▁اقام": 7755,
    "اعتراض": 7756,
    "▁سونا": 7757,
    "عربستان": 7758,
    "▁گلوی": 7759,
    "▁سازهای": 7760,
    "ساز": 7761,
    "▁خودس": 7762,
    "رایم": 7763,
    "کشورهای": 7764,
    "۶۲": 7765,
    "اپ": 7766,
    "▁قامت": 7767,
    "▁مرب": 7768,
    "▁گرینو": 7769,
    "موضوع": 7770,
    "۲۰۲۰": 7771,
    "▁همسران": 7772,
    "نگین": 7773,
    "وینچ": 7774,
    "بازیکنان": 7775,
    "▁دخ": 7776,
    "آزمایش": 7777,
    "ساعت": 7778,
    "▁بدان": 7779,
    "شکست": 7780,
    "▁بم": 7781,
    "محدودیت": 7782,
    "▁کارهایش": 7783,
    "انتخاب": 7784,
    "قرنطینه": 7785,
    "مرز": 7786,
    "کشتی": 7787,
    "▁اتکای": 7788,
    "نندگان": 7789,
    "ریا": 7790,
    "فرد": 7791,
    "نگی": 7792,
    "یغ": 7793,
    "۴۵": 7794,
    "بارسلونا": 7795,
    "▁نگفت": 7796,
    "دوران": 7797,
    "▁دن": 7798,
    "لایه": 7799,
    "احتمال": 7800,
    "خروج": 7801,
    "نگاه": 7802,
    "ایتالیا": 7803,
    "خبرنگار": 7804,
    "کانس": 7805,
    "بله": 7806,
    "▁مساعد": 7807,
    "سقوط": 7808,
    "▁سوزان": 7809,
    "▁بنده": 7810,
    "تعلل": 7811,
    "▁هرجا": 7812,
    "عملکرد": 7813,
    "▁ماریو": 7814,
    "جنگ": 7815,
    "▁خب": 7816,
    "▁شجاعی": 7817,
    "پوش": 7818,
    "فرمانده": 7819,
    "رویترز": 7820,
    "▁سرور": 7821,
    "مجید": 7822,
    "بنای": 7823,
    "مالک": 7824,
    "یانت": 7825,
    "دبیر": 7826,
    "پروتکل": 7827,
    "۹۵": 7828,
    "▁بایست": 7829,
    "قسمت": 7830,
    "▁لیبر": 7831,
    "رئال": 7832,
    "رکود": 7833,
    "آذر": 7834,
    "جوایز": 7835,
    "اتفاقات": 7836,
    "▁کمالی": 7837,
    "لحظ": 7838,
    "پالایشگاه": 7839,
    "جویی": 7840,
    "▁ساسان": 7841,
    "رگاه": 7842,
    "اسماعیل": 7843,
    "مناسبت": 7844,
    "کیو": 7845,
    "▁عثمان": 7846,
    "▁۲۱۰": 7847,
    "▁شرکا": 7848,
    "اضطراب": 7849,
    "توماس": 7850,
    "▁نوزده": 7851,
    "بیانسه": 7852,
    "مستند": 7853,
    "مکزیکو": 7854,
    "اتهامات": 7855,
    "عبدالله": 7856,
    "جسد": 7857,
    "▁دیگ": 7858,
    "وسی": 7859,
    "▁دانشجو": 7860,
    "تاد": 7861,
    "▁بازیکنانش": 7862,
    "▁رون": 7863,
    "سارا": 7864,
    "ربکا": 7865,
    "فرجام": 7866,
    "منتظر": 7867,
    "▁خانوارها": 7868,
    "ناتان": 7869,
    "یح": 7870,
    "کلی": 7871,
    "مدیران": 7872,
    "▁۳۸۰": 7873,
    "تعجب": 7874,
    "▁کوتاهتر": 7875,
    "گزا": 7876,
    "▁نمادها": 7877,
    "▁خبرگ": 7878,
    "▁رپ": 7879,
    "لیگا": 7880,
    "اگ": 7881,
    "▁تجسم": 7882,
    "مبا": 7883,
    "▁نگا": 7884,
    "حام": 7885,
    "▁حوا": 7886,
    "▁خانود": 7887,
    "▁بازنگشت": 7888,
    "فارم": 7889,
    "▁کوما": 7890,
    "روزهای": 7891,
    "تفاهم": 7892,
    "وص": 7893,
    "کشی": 7894,
    "رفه": 7895,
    "▁۱۰۲": 7896,
    "▁باک": 7897,
    "گاتی": 7898,
    "▁مواج": 7899,
    "یوید": 7900,
    "کوم": 7901,
    "▁موفقی": 7902,
    "▁هموطن": 7903,
    "لازم": 7904,
    "یال": 7905,
    "▁الگو": 7906,
    "▁فلامینگو": 7907,
    "ورد": 7908,
    "انتقالات": 7909,
    "بق": 7910,
    "▁سبزی": 7911,
    "▁یولیا": 7912,
    "ارا": 7913,
    "میلان": 7914,
    "باستان": 7915,
    "کنفرانس": 7916,
    "▁تجار": 7917,
    "▁نامم": 7918,
    "راندن": 7919,
    "▁پدربزرگ": 7920,
    "سوی": 7921,
    "۳۰۰": 7922,
    "رگبار": 7923,
    "▁فرزندانش": 7924,
    "نگاره": 7925,
    "▁مکالم": 7926,
    "وزرای": 7927,
    "گزار": 7928,
    "▁آکسفام": 7929,
    "▁ابتذال": 7930,
    "▁تشعشع": 7931,
    "▁ناپلئون": 7932,
    "▁پدافند": 7933,
    "▁پرتوافشانی": 7934,
    "▁اوزبیک": 7935,
    "▁مغانلو": 7936,
    "▁بپیوندد": 7937,
    "▁مارگاریتا": 7938,
    "▁منسجم": 7939,
    "▁بالیوود": 7940,
    "▁خجالت": 7941,
    "▁وبلاگ": 7942,
    "▁عنابستانی": 7943,
    "▁بنکدارپور": 7944,
    "▁سانتیاگو": 7945,
    "▁هیدروژن": 7946,
    "▁دموکراسی": 7947,
    "▁تنگاتنگ": 7948,
    "▁پغمان": 7949,
    "▁بیرمنگ": 7950,
    "▁شرمسار": 7951,
    "▁جگوار": 7952,
    "▁ایرلاین": 7953,
    "▁بیانجامد": 7954,
    "▁غیرمجاز": 7955,
    "▁نیکزاد": 7956,
    "▁تمهید": 7957,
    "▁غمگین": 7958,
    "▁سوراخ": 7959,
    "▁هیوستون": 7960,
    "▁فکاهی": 7961,
    "▁نقیض": 7962,
    "▁فونینی": 7963,
    "▁نباشید": 7964,
    "▁بفرستند": 7965,
    "▁سولیوان": 7966,
    "▁بلوغ": 7967,
    "▁پاندمی": 7968,
    "▁بسپارد": 7969,
    "مانه": 7970,
    "▁شنویم": 7971,
    "▁دامغان": 7972,
    "▁ناخشنود": 7973,
    "▁بفرستد": 7974,
    "▁فاکتور": 7975,
    "▁مخوف": 7976,
    "▁لطیف": 7977,
    "▁تمایز": 7978,
    "▁فاسد": 7979,
    "▁مادربزرگ": 7980,
    "▁هنجار": 7981,
    "▁دیزل": 7982,
    "▁پرسنل": 7983,
    "▁تجسس": 7984,
    "▁الاجراست": 7985,
    "▁آوینی": 7986,
    "▁منحنی": 7987,
    "▁گوریل": 7988,
    "▁بیضایی": 7989,
    "▁امیدوارکننده": 7990,
    "▁آلبانی": 7991,
    "غذیه": 7992,
    "▁بکشم": 7993,
    "▁۲۰۳۵": 7994,
    "▁فواید": 7995,
    "▁معلولیت": 7996,
    "▁روما": 7997,
    "▁ژرف": 7998,
    "▁گلیزر": 7999,
    "حضرت": 8000,
    "▁شادمان": 8001,
    "▁وارث": 8002,
    "▁شاهرود": 8003,
    "الگو": 8004,
    "▁رونالد": 8005,
    "▁سمع": 8006,
    "برگر": 8007,
    "▁بانکوک": 8008,
    "▁توفندها": 8009,
    "▁مزیت": 8010,
    "حک": 8011,
    "▁شیرجه": 8012,
    "▁الکسا": 8013,
    "▁روانپزشک": 8014,
    "▁ندارید": 8015,
    "▁برنگرداند": 8016,
    "▁جوابگوی": 8017,
    "▁ثب": 8018,
    "رفت": 8019,
    "▁تون": 8020,
    "▁لاهه": 8021,
    "▁محتمل": 8022,
    "▁بکنید": 8023,
    "▁صفاری": 8024,
    "▁زراعت": 8025,
    "▁آصف": 8026,
    "▁هجر": 8027,
    "زامبی": 8028,
    "ناگلزم": 8029,
    "▁آپوف": 8030,
    "▁امپرا": 8031,
    "▁لرزاند": 8032,
    "▁استرول": 8033,
    "▁برنامک": 8034,
    "▁زیباست": 8035,
    "▁کریگ": 8036,
    "▁معنادار": 8037,
    "▁معصوم": 8038,
    "جویان": 8039,
    "▁تعمیرات": 8040,
    "▁۱۹۱۸": 8041,
    "▁جانباخت": 8042,
    "▁هنکس": 8043,
    "▁چشید": 8044,
    "▁برایانت": 8045,
    "▁راجپوت": 8046,
    "▁لافرته": 8047,
    "▁همسایگان": 8048,
    "▁هافکین": 8049,
    "▁سرلشکر": 8050,
    "▁ازبک": 8051,
    "ادیو": 8052,
    "▁فشارها": 8053,
    "▁قرائت": 8054,
    "▁۲۴۸": 8055,
    "بیت": 8056,
    "واشی": 8057,
    "▁رجیس": 8058,
    "▁خاندان": 8059,
    "▁امداد": 8060,
    "▁چفرین": 8061,
    "▁قبایل": 8062,
    "▁فدریک": 8063,
    "▁مجزا": 8064,
    "▁نیلی": 8065,
    "دستان": 8066,
    "▁صیادان": 8067,
    "▁واژگان": 8068,
    "▁نزن": 8069,
    "▁نیابت": 8070,
    "گرانی": 8071,
    "تمامی": 8072,
    "▁مفسر": 8073,
    "▁مشروع": 8074,
    "▁گوگ": 8075,
    "▁افراط": 8076,
    "▁فالک": 8077,
    "▁پرفسور": 8078,
    "▁هادرون": 8079,
    "▁لنز": 8080,
    "▁یون": 8081,
    "▁پائیز": 8082,
    "▁انو": 8083,
    "▁آنتوان": 8084,
    "▁معلومات": 8085,
    "▁گلوب": 8086,
    "▁بدیع": 8087,
    "زیرو": 8088,
    "▁موریس": 8089,
    "▁سرت": 8090,
    "▁چسباند": 8091,
    "حور": 8092,
    "▁یادش": 8093,
    "▁همدان": 8094,
    "▁اخطارهای": 8095,
    "▁مرج": 8096,
    "▁فرشید": 8097,
    "▁تشوی": 8098,
    "وض": 8099,
    "▁چون": 8100,
    "یایی": 8101,
    "▁یاسر": 8102,
    "▁سوفی": 8103,
    "▁چاو": 8104,
    "▁آسپر": 8105,
    "▁چانگ": 8106,
    "▁کیس": 8107,
    "▁انگ": 8108,
    "▁فوتسی": 8109,
    "گوئه": 8110,
    "یکون": 8111,
    "▁زشت": 8112,
    "نتسب": 8113,
    "▁مرمر": 8114,
    "▁بخواهند": 8115,
    "▁افشاری": 8116,
    "▁شگرد": 8117,
    "▁پربار": 8118,
    "▁افزودند": 8119,
    "▁کلانتر": 8120,
    "▁فرستند": 8121,
    "▁ترکمان": 8122,
    "▁برن": 8123,
    "پالا": 8124,
    "مادر": 8125,
    "▁نرسیدن": 8126,
    "▁نیوت": 8127,
    "▁رحیمی": 8128,
    "▁راهکارهای": 8129,
    "پانز": 8130,
    "۱۹۶۴": 8131,
    "▁حریری": 8132,
    "ودن": 8133,
    "▁غذاهای": 8134,
    "▁مایا": 8135,
    "▁ماهرویان": 8136,
    "▁وفن": 8137,
    "▁بوئین": 8138,
    "▁لیمو": 8139,
    "▁شمع": 8140,
    "ماگال": 8141,
    "نزو": 8142,
    "ورلد": 8143,
    "▁همتایان": 8144,
    "▁کوبی": 8145,
    "فروشی": 8146,
    "رگامو": 8147,
    "▁کاو": 8148,
    "▁ابول": 8149,
    "▁مطمئنا": 8150,
    "▁بینم": 8151,
    "▁مواجهند": 8152,
    "ضب": 8153,
    "▁طاهری": 8154,
    "▁۱۳۲": 8155,
    "▁مسخ": 8156,
    "▁شایان": 8157,
    "▁سب": 8158,
    "▁مشتاقان": 8159,
    "سند": 8160,
    "▁باش": 8161,
    "یلو": 8162,
    "▁تهدیدات": 8163,
    "میر": 8164,
    "▁بیدگ": 8165,
    "▁دارداین": 8166,
    "حرف": 8167,
    "▁مصو": 8168,
    "بالا": 8169,
    "▁فراخواند": 8170,
    "▁الف": 8171,
    "▁پرکار": 8172,
    "▁ون": 8173,
    "▁یزدان": 8174,
    "▁شکوفا": 8175,
    "▁ایل": 8176,
    "وبیل": 8177,
    "ادام": 8178,
    "▁افع": 8179,
    "نزل": 8180,
    "پچو": 8181,
    "▁نگهداشت": 8182,
    "▁مکزیکو": 8183,
    "سبد": 8184,
    "▁غرور": 8185,
    "مهربان": 8186,
    "تناب": 8187,
    "▁بگ": 8188,
    "▁پترولی": 8189,
    "▁صفا": 8190,
    "▁تاثیرات": 8191,
    "راماتیک": 8192,
    "▁ویولن": 8193,
    "▁آرین": 8194,
    "تناسب": 8195,
    "غما": 8196,
    "زیست": 8197,
    "▁کشیم": 8198,
    "یوآ": 8199,
    "▁بعض": 8200,
    "▁رسا": 8201,
    "▁آورم": 8202,
    "ستا": 8203,
    "▁تراشید": 8204,
    "رن": 8205,
    "میزان": 8206,
    "▁پاور": 8207,
    "فری": 8208,
    "تعدد": 8209,
    "بور": 8210,
    "▁سازان": 8211,
    "یمه": 8212,
    "▁آندرس": 8213,
    "راز": 8214,
    "▁مجا": 8215,
    "لوگ": 8216,
    "▁نبردها": 8217,
    "▁رازی": 8218,
    "▁رزو": 8219,
    "▁اینج": 8220,
    "اندر": 8221,
    "▁رویکردهای": 8222,
    "خونی": 8223,
    "رگز": 8224,
    "▁شناختند": 8225,
    "▁برا": 8226,
    "رومن": 8227,
    "۳۲": 8228,
    "▁رکسا": 8229,
    "وکین": 8230,
    "گوت": 8231,
    "▁؛": 8232,
    "▁پژوهشهای": 8233,
    "لون": 8234,
    "▁پشتکار": 8235,
    "▁باکر": 8236,
    "نشری": 8237,
    "▁لات": 8238,
    "▁شجاعت": 8239,
    "وئر": 8240,
    "▁عالمی": 8241,
    "▁دارن": 8242,
    "▁کنارش": 8243,
    "▁صدایی": 8244,
    "▁هزاره": 8245,
    "▁میرود": 8246,
    "▁سودجو": 8247,
    "▁خودکار": 8248,
    "هکرهای": 8249,
    "ارش": 8250,
    "▁تقی": 8251,
    "▁وایت": 8252,
    "فان": 8253,
    "دیده": 8254,
    "▁دانستم": 8255,
    "شیر": 8256,
    "شابه": 8257,
    "مهم": 8258,
    "▁تردیدهای": 8259,
    "جری": 8260,
    "وکس": 8261,
    "▁فاطم": 8262,
    "عل": 8263,
    "امور": 8264,
    "۹۸": 8265,
    "وتو": 8266,
    "مردم": 8267,
    "▁درصدد": 8268,
    "▁مینیا": 8269,
    "▁لینگ": 8270,
    "۳۷": 8271,
    "▁یادم": 8272,
    "اپیش": 8273,
    "▁هایپر": 8274,
    "▁ساندر": 8275,
    "▁کنسر": 8276,
    "▁سامانی": 8277,
    "▁میلیاردرها": 8278,
    "گوید": 8279,
    "سپ": 8280,
    "ادل": 8281,
    "▁تحرکی": 8282,
    "حالی": 8283,
    "هایش": 8284,
    "گنجی": 8285,
    "▁ناامیدی": 8286,
    "▁تعبی": 8287,
    "رویا": 8288,
    "▁چهارده": 8289,
    "▁کلو": 8290,
    "▁ژیل": 8291,
    "سان": 8292,
    "▁موری": 8293,
    "▁کد": 8294,
    "گویم": 8295,
    "▁بیانداز": 8296,
    "▁مجل": 8297,
    "▁مستع": 8298,
    "یونان": 8299,
    "▁تان": 8300,
    "▁اپ": 8301,
    "▁بشود": 8302,
    "غی": 8303,
    "▁مگو": 8304,
    "سپاس": 8305,
    "چنین": 8306,
    "▁استرا": 8307,
    "خوانده": 8308,
    "▁پستان": 8309,
    "اتنگ": 8310,
    "▁آفرید": 8311,
    "▁استوار": 8312,
    "▁اصولی": 8313,
    "ژی": 8314,
    "▁کیل": 8315,
    "بع": 8316,
    "برت": 8317,
    "▁شوراها": 8318,
    "▁محص": 8319,
    "مگان": 8320,
    "▁گارس": 8321,
    "▁تدا": 8322,
    "▁استف": 8323,
    "▁لول": 8324,
    "▁استودیوی": 8325,
    "وانیم": 8326,
    "خوش": 8327,
    "جماع": 8328,
    "▁دویچ": 8329,
    "اشار": 8330,
    "▁چهارمی": 8331,
    "آمدی": 8332,
    "▁کلیت": 8333,
    "نمود": 8334,
    "▁سلیم": 8335,
    "▁دوسال": 8336,
    "▁حکمت": 8337,
    "ابل": 8338,
    "▁برخاستن": 8339,
    "▁فقی": 8340,
    "ایان": 8341,
    "▁پیکا": 8342,
    "چر": 8343,
    "▁کلینت": 8344,
    "▁الیو": 8345,
    "▁ژس": 8346,
    "▁مارین": 8347,
    "▁شارپ": 8348,
    "▁صلیب": 8349,
    "▁شرکتها": 8350,
    "لاخ": 8351,
    "جاست": 8352,
    "▁تپند": 8353,
    "پانی": 8354,
    "باف": 8355,
    "▁دراین": 8356,
    "▁اوجی": 8357,
    "▁استر": 8358,
    "▁آموختن": 8359,
    "محمدی": 8360,
    "▁مگن": 8361,
    "تامی": 8362,
    "▁نتوان": 8363,
    "▁هندو": 8364,
    "یدی": 8365,
    "▁علا": 8366,
    "وکسل": 8367,
    "▁یانگ": 8368,
    "▁آش": 8369,
    "▁پارکین": 8370,
    "▁موثرتر": 8371,
    "▁آری": 8372,
    "گرم": 8373,
    "▁پیشنهادهای": 8374,
    "▁شاپ": 8375,
    "علم": 8376,
    "اکس": 8377,
    "▁جون": 8378,
    "▁دیاب": 8379,
    "▁فعالیتش": 8380,
    "▁مدا": 8381,
    "▁چکهای": 8382,
    "۳۵": 8383,
    "سلطان": 8384,
    "▁زنم": 8385,
    "رژی": 8386,
    "روج": 8387,
    "▁کیلی": 8388,
    "بایی": 8389,
    "فعال": 8390,
    "لکس": 8391,
    "یدن": 8392,
    "گرافی": 8393,
    "شون": 8394,
    "▁بلندهای": 8395,
    "▁برو": 8396,
    "▁ذهنش": 8397,
    "▁مالت": 8398,
    "انریک": 8399,
    "▁بریتانیاست": 8400,
    "▁زیردریا": 8401,
    "▁جید": 8402,
    "▁دیواره": 8403,
    "▁نیر": 8404,
    "▁دیرین": 8405,
    "▁درخشند": 8406,
    "▁اپی": 8407,
    "فای": 8408,
    "▁گوا": 8409,
    "ندر": 8410,
    "▁فلی": 8411,
    "▁سنگی": 8412,
    "نجره": 8413,
    "ایکون": 8414,
    "▁عطار": 8415,
    "▁نتوا": 8416,
    "خل": 8417,
    "▁فیزیوتراپ": 8418,
    "▁سوسی": 8419,
    "ریگو": 8420,
    "ابراهیم": 8421,
    "▁ستود": 8422,
    "▁شمرد": 8423,
    "▁تئو": 8424,
    "شتر": 8425,
    "سورها": 8426,
    "▁دانل": 8427,
    "رمند": 8428,
    "▁پلک": 8429,
    "▁حم": 8430,
    "انده": 8431,
    "▁هوک": 8432,
    "▁مشخصا": 8433,
    "▁محبو": 8434,
    "▁فورب": 8435,
    "نیس": 8436,
    "رنوش": 8437,
    "▁گراز": 8438,
    "وگو": 8439,
    "اقت": 8440,
    "یناتور": 8441,
    "اجرای": 8442,
    "دالر": 8443,
    "وقی": 8444,
    "▁قضا": 8445,
    "▁صحبتها": 8446,
    "▁خطری": 8447,
    "▁قش": 8448,
    "▁کان": 8449,
    "▁مخاط": 8450,
    "ارتوم": 8451,
    "فشار": 8452,
    "نسک": 8453,
    "اسرائیل": 8454,
    "رل": 8455,
    "لز": 8456,
    "مانی": 8457,
    "شناسی": 8458,
    "▁اشتها": 8459,
    "افراد": 8460,
    "فهمد": 8461,
    "▁نات": 8462,
    "خارج": 8463,
    "▁استانداردها": 8464,
    "یاب": 8465,
    "▁کاسی": 8466,
    "ذاب": 8467,
    "ریدار": 8468,
    "▁استکه": 8469,
    "▁محی": 8470,
    "▁نفی": 8471,
    "▁ارو": 8472,
    "رفتن": 8473,
    "▁نابینا": 8474,
    "▁۱۲۵": 8475,
    "▁سرگرفت": 8476,
    "مختار": 8477,
    "▁شیرینی": 8478,
    "کلیف": 8479,
    "▁بیک": 8480,
    "ترک": 8481,
    "بازیکن": 8482,
    "▁رومانیا": 8483,
    "هنگ": 8484,
    "▁الزاما": 8485,
    "گستر": 8486,
    "انیس": 8487,
    "▁بازن": 8488,
    "▁نبودن": 8489,
    "▁شیرها": 8490,
    "ماجرا": 8491,
    "مشق": 8492,
    "تح": 8493,
    "▁رودر": 8494,
    "راژ": 8495,
    "حریف": 8496,
    "ادعا": 8497,
    "▁سنجی": 8498,
    "▁یابی": 8499,
    "شبن": 8500,
    "ناسا": 8501,
    "▁العم": 8502,
    "اقدام": 8503,
    "خوانند": 8504,
    "ژهای": 8505,
    "یلیچ": 8506,
    "اشتن": 8507,
    "انشهر": 8508,
    "خضر": 8509,
    "▁کاپ": 8510,
    "▁کورو": 8511,
    "▁کیف": 8512,
    "آثار": 8513,
    "فراگ": 8514,
    "▁چش": 8515,
    "قل": 8516,
    "رآمیز": 8517,
    "حکومت": 8518,
    "▁خاکس": 8519,
    "▁سط": 8520,
    "▁سیریا": 8521,
    "▁مونت": 8522,
    "ینا": 8523,
    "▁ورز": 8524,
    "۲۱": 8525,
    "صنعت": 8526,
    "اسب": 8527,
    "۱۴۰۰": 8528,
    "هانسی": 8529,
    "لوح": 8530,
    "متوقف": 8531,
    "یتس": 8532,
    "سینگ": 8533,
    "صلاح": 8534,
    "▁فراخوان": 8535,
    "بوده": 8536,
    "ریکو": 8537,
    "نهادهای": 8538,
    "حذف": 8539,
    "▁بیند": 8540,
    "▁سرف": 8541,
    "چاق": 8542,
    "دنبال": 8543,
    "عکاس": 8544,
    "شکایت": 8545,
    "جنوب": 8546,
    "اعتراضات": 8547,
    "▁سرزن": 8548,
    "عملیات": 8549,
    "تابستان": 8550,
    "شواری": 8551,
    "همیشه": 8552,
    "▁بستگان": 8553,
    "غدی": 8554,
    "▁گرداند": 8555,
    "سیاسی": 8556,
    "▁لیک": 8557,
    "۳۴": 8558,
    "سفیر": 8559,
    "گور": 8560,
    "▁پان": 8561,
    "▁بریم": 8562,
    "برزیل": 8563,
    "▁ماهنام": 8564,
    "▁گرجستان": 8565,
    "مطالع": 8566,
    "کاملا": 8567,
    "سوئیس": 8568,
    "مدیریت": 8569,
    "تیراندازی": 8570,
    "نچی": 8571,
    "نویسندگان": 8572,
    "درنا": 8573,
    "کانال": 8574,
    "▁اشا": 8575,
    "مشاور": 8576,
    "▁حض": 8577,
    "خودروهای": 8578,
    "کشف": 8579,
    "▁ث": 8580,
    "تخریب": 8581,
    "امارات": 8582,
    "گویی": 8583,
    "سیستم": 8584,
    "شقان": 8585,
    "بازارهای": 8586,
    "بیل": 8587,
    "▁وجوه": 8588,
    "سپاهان": 8589,
    "خاوران": 8590,
    "▁اپراتور": 8591,
    "سازنده": 8592,
    "سیاستگذار": 8593,
    "▁سلب": 8594,
    "▁حریفش": 8595,
    "زای": 8596,
    "ثروت": 8597,
    "▁پناهجو": 8598,
    "فول": 8599,
    "پیرلو": 8600,
    "سناتور": 8601,
    "▁سوت": 8602,
    "اسحاق": 8603,
    "فاضل": 8604,
    "▁۱۰۹": 8605,
    "هجوم": 8606,
    "داریوش": 8607,
    "▁تبل": 8608,
    "▁پولهای": 8609,
    "نمی": 8610,
    "▁۲۱۶": 8611,
    "▁کامر": 8612,
    "ینک": 8613,
    "▁بخ": 8614,
    "لیدز": 8615,
    "کریس": 8616,
    "مرح": 8617,
    "پینو": 8618,
    "خزن": 8619,
    "▁تولیدش": 8620,
    "رییس": 8621,
    "▁دهی": 8622,
    "▁اظهارنظرها": 8623,
    "▁علام": 8624,
    "صمد": 8625,
    "▁هوشیار": 8626,
    "نوسان": 8627,
    "۸۲": 8628,
    "بدهی": 8629,
    "▁همد": 8630,
    "▁چرن": 8631,
    "▁وزیری": 8632,
    "ارآفرین": 8633,
    "▁طاه": 8634,
    "خیز": 8635,
    "▁چیزها": 8636,
    "▁دیپلم": 8637,
    "▁زندگیش": 8638,
    "پپ": 8639,
    "احسا": 8640,
    "▁کیان": 8641,
    "تعارف": 8642,
    "▁دستی": 8643,
    "زدی": 8644,
    "مکرون": 8645,
    "دنیل": 8646,
    "▁کپ": 8647,
    "بوک": 8648,
    "شمالی": 8649,
    "▁گی": 8650,
    "جیل": 8651,
    "درحالی": 8652,
    "▁ریس": 8653,
    "لزم": 8654,
    "خه": 8655,
    "تجمع": 8656,
    "▁نگذاشت": 8657,
    "رحیم": 8658,
    "لیو": 8659,
    "ناوگان": 8660,
    "▁دلسوز": 8661,
    "▁۲۰۷": 8662,
    "بنی": 8663,
    "صرب": 8664,
    "▁لاب": 8665,
    "سبک": 8666,
    "▁محدو": 8667,
    "▁اسکا": 8668,
    "▁فاین": 8669,
    "رسانی": 8670,
    "هموار": 8671,
    "▁فروخت": 8672,
    "تکه": 8673,
    "▁ایرلندی": 8674,
    "▁جمل": 8675,
    "ایده": 8676,
    "وشن": 8677,
    "▁جاد": 8678,
    "هیه": 8679,
    "▁شوخ": 8680,
    "▁ناراحتی": 8681,
    "وشکن": 8682,
    "ریوس": 8683,
    "▁جولیا": 8684,
    "نشدنی": 8685,
    "سبز": 8686,
    "گمش": 8687,
    "نکات": 8688,
    "▁سیت": 8689,
    "▁ردیفی": 8690,
    "▁موتورها": 8691,
    "▁میشود": 8692,
    "▁چغ": 8693,
    "▁دستمزدها": 8694,
    "▁کارآمد": 8695,
    "خالی": 8696,
    "▁تفنگ": 8697,
    "حمدرضا": 8698,
    "قایق": 8699,
    "سترازنکا": 8700,
    "▁کلن": 8701,
    "▁محک": 8702,
    "▁۲۶۰": 8703,
    "▁۲۴۰": 8704,
    "▁غواص": 8705,
    "▁همسایگ": 8706,
    "الج": 8707,
    "▁صحرا": 8708,
    "▁پابرجا": 8709,
    "▁کمپا": 8710,
    "رزرو": 8711,
    "▁سندر": 8712,
    "سین": 8713,
    "پوشان": 8714,
    "▁واژگ": 8715,
    "▁منظو": 8716,
    "نار": 8717,
    "▁دکترای": 8718,
    "▁رحیم": 8719,
    "▁ولاسکز": 8720,
    "▁انقباض": 8721,
    "▁بورکینافاسو": 8722,
    "▁ترائوره": 8723,
    "▁فیزیولوژی": 8724,
    "▁مرتضوی": 8725,
    "▁کوکائین": 8726,
    "▁دگراندیش": 8727,
    "▁ناسازگار": 8728,
    "▁همقطاران": 8729,
    "▁تمسخر": 8730,
    "▁سوبرانا": 8731,
    "▁بشنوند": 8732,
    "▁ناپایدار": 8733,
    "▁پرینسخرا": 8734,
    "▁اکونومی": 8735,
    "▁میکروسکوپ": 8736,
    "▁یوردانس": 8737,
    "▁سانفرانسیسکو": 8738,
    "▁کاریکاتور": 8739,
    "▁گانگستر": 8740,
    "▁فانخیو": 8741,
    "▁قیراط": 8742,
    "▁ضرغام": 8743,
    "▁بیندازد": 8744,
    "▁فلسفی": 8745,
    "▁متذکر": 8746,
    "▁تشریفات": 8747,
    "▁بشناسد": 8748,
    "▁سمنزا": 8749,
    "▁همجوار": 8750,
    "▁اگنس": 8751,
    "▁نافذ": 8752,
    "▁بپرسید": 8753,
    "▁کذب": 8754,
    "▁فیو": 8755,
    "▁الارض": 8756,
    "▁محتکر": 8757,
    "▁شریعت": 8758,
    "▁ژنشنگ": 8759,
    "▁نوترینو": 8760,
    "▁فرخزاد": 8761,
    "▁مجارستان": 8762,
    "▁بازوبند": 8763,
    "▁نذری": 8764,
    "▁الاجرا": 8765,
    "▁هکتار": 8766,
    "▁گدوت": 8767,
    "▁هولدینگ": 8768,
    "▁سوینتن": 8769,
    "▁سیلیکون": 8770,
    "▁نافرجام": 8771,
    "معجزه": 8772,
    "▁تسخیر": 8773,
    "▁بمیرد": 8774,
    "▁مکوندی": 8775,
    "▁انهدام": 8776,
    "▁عواطف": 8777,
    "▁مرزبندی": 8778,
    "▁برگردانند": 8779,
    "▁سیستماتیک": 8780,
    "▁داینا": 8781,
    "▁الاه": 8782,
    "▁اوباش": 8783,
    "▁ستیزانه": 8784,
    "▁ستمگر": 8785,
    "▁الخروج": 8786,
    "▁عاقبت": 8787,
    "▁مبتکر": 8788,
    "▁ناخدا": 8789,
    "▁صربستان": 8790,
    "▁باثبات": 8791,
    "▁فرازمینی": 8792,
    "▁نزاع": 8793,
    "▁الشع": 8794,
    "▁فراهانی": 8795,
    "▁بپردازند": 8796,
    "▁علیشاهی": 8797,
    "▁موثق": 8798,
    "▁هیلتون": 8799,
    "▁نویدبخش": 8800,
    "▁کوئینز": 8801,
    "▁گوترش": 8802,
    "▁بزنید": 8803,
    "▁فاضلاب": 8804,
    "▁۱۳۸۰": 8805,
    "▁سیندمی": 8806,
    "▁غیرمعمول": 8807,
    "▁فلسطینی": 8808,
    "▁خوشبو": 8809,
    "▁بزنیم": 8810,
    "▁المپی": 8811,
    "▁سهمگین": 8812,
    "▁وجدان": 8813,
    "آنگولا": 8814,
    "▁نباشند": 8815,
    "▁۱۳۸۶": 8816,
    "▁ناظمی": 8817,
    "▁همینگوی": 8818,
    "▁سروصدا": 8819,
    "▁پوینت": 8820,
    "▁معابد": 8821,
    "▁۱۹۴۴": 8822,
    "▁بدوی": 8823,
    "▁ونوس": 8824,
    "▁کوچ": 8825,
    "▁سفیدپوست": 8826,
    "▁کانتونا": 8827,
    "▁گنبد": 8828,
    "▁عبادی": 8829,
    "ارزپاشی": 8830,
    "▁هراتی": 8831,
    "▁ارتد": 8832,
    "▁جداسازی": 8833,
    "▁مقبول": 8834,
    "▁بردارم": 8835,
    "▁۲۲۰": 8836,
    "سای": 8837,
    "▁خودخواهانه": 8838,
    "▁ایرویز": 8839,
    "▁پرالتهاب": 8840,
    "▁پورنو": 8841,
    "▁لرزید": 8842,
    "تورم": 8843,
    "▁نشناخت": 8844,
    "▁مکاتبات": 8845,
    "▁عابران": 8846,
    "▁باروک": 8847,
    "▁سکس": 8848,
    "▁نیکو": 8849,
    "▁بیایند": 8850,
    "پیمایی": 8851,
    "▁بیگان": 8852,
    "▁ریتم": 8853,
    "مایش": 8854,
    "▁ادینبور": 8855,
    "▁موزیکال": 8856,
    "ضلع": 8857,
    "شود": 8858,
    "▁زهیر": 8859,
    "▁سفیدپوستان": 8860,
    "▁اسکلت": 8861,
    "▁خورند": 8862,
    "▁مرندی": 8863,
    "▁منکین": 8864,
    "متاز": 8865,
    "▁تایوان": 8866,
    "▁بازوهای": 8867,
    "ربین": 8868,
    "▁اغما": 8869,
    "بیورن": 8870,
    "▁ذوال": 8871,
    "▁شنیدم": 8872,
    "▁ند": 8873,
    "▁آنچنان": 8874,
    "▁روباه": 8875,
    "▁جویانه": 8876,
    "▁قعر": 8877,
    "▁بخوانند": 8878,
    "▁بوفالوران": 8879,
    "▁طاهر": 8880,
    "▁۱۷۵": 8881,
    "تقی": 8882,
    "▁بلاتکلیف": 8883,
    "▁بنرهای": 8884,
    "▁ناباور": 8885,
    "لار": 8886,
    "کثیر": 8887,
    "تفلی": 8888,
    "▁سموم": 8889,
    "▁آموس": 8890,
    "▁اهرم": 8891,
    "▁همبازی": 8892,
    "▁ملموس": 8893,
    "▁لئون": 8894,
    "ستراح": 8895,
    "بشر": 8896,
    "▁آبراه": 8897,
    "▁نمودار": 8898,
    "▁متما": 8899,
    "▁دیلن": 8900,
    "▁شنیدنش": 8901,
    "▁داوی": 8902,
    "▁مشاهدات": 8903,
    "▁نداشتیم": 8904,
    "بنوی": 8905,
    "▁هولو": 8906,
    "سیاست": 8907,
    "▁هشدارها": 8908,
    "▁محصور": 8909,
    "▁ساچ": 8910,
    "مانند": 8911,
    "▁شهباز": 8912,
    "▁پیشگیر": 8913,
    "راث": 8914,
    "▁بامیه": 8915,
    "▁ماجراجوی": 8916,
    "▁چهارصد": 8917,
    "▁خرابکارانه": 8918,
    "▁پاشیده": 8919,
    "سانسور": 8920,
    "▁۱۶۶": 8921,
    "▁پیوندند": 8922,
    "▁یوهان": 8923,
    "▁معترضین": 8924,
    "▁هریس": 8925,
    "▁قهری": 8926,
    "ریه": 8927,
    "▁گیج": 8928,
    "▁مته": 8929,
    "▁فرمانی": 8930,
    "▁بت": 8931,
    "▁غفاری": 8932,
    "▁جذابی": 8933,
    "▁لاین": 8934,
    "رونا": 8935,
    "▁ره": 8936,
    "▁میناری": 8937,
    "▁آغا": 8938,
    "واگذار": 8939,
    "جین": 8940,
    "▁شیوا": 8941,
    "▁گوارش": 8942,
    "▁تماشگر": 8943,
    "▁امیدورا": 8944,
    "▁دانید": 8945,
    "▁پرش": 8946,
    "▁بنین": 8947,
    "نگوی": 8948,
    "▁نرود": 8949,
    "▁ربع": 8950,
    "▁بحری": 8951,
    "▁یادمان": 8952,
    "▁هورن": 8953,
    "۱۴۶": 8954,
    "▁هالووین": 8955,
    "▁رادیک": 8956,
    "▁آوردیم": 8957,
    "دیو": 8958,
    "بولت": 8959,
    "▁لویی": 8960,
    "▁دلنشین": 8961,
    "▁اتمر": 8962,
    "▁بشنوید": 8963,
    "▁چرخاند": 8964,
    "▁قدیم": 8965,
    "لاستیک": 8966,
    "وشه": 8967,
    "▁افشاگر": 8968,
    "▁هموطنان": 8969,
    "▁دکترا": 8970,
    "▁نمک": 8971,
    "▁رباتیک": 8972,
    "▁جوری": 8973,
    "▁شنوند": 8974,
    "▁دیوارنگار": 8975,
    "دلی": 8976,
    "▁معبد": 8977,
    "▁پالیس": 8978,
    "الفبا": 8979,
    "▁گمارد": 8980,
    "▁بسط": 8981,
    "▁نجومی": 8982,
    "▁نگذاشته": 8983,
    "▁محرومند": 8984,
    "▁فراوانش": 8985,
    "▁قدیس": 8986,
    "بنز": 8987,
    "▁فاکس": 8988,
    "▁دیا": 8989,
    "▁نوشتارها": 8990,
    "▁دارالا": 8991,
    "▁چادر": 8992,
    "▁گماشت": 8993,
    "▁ورزند": 8994,
    "لژی": 8995,
    "▁مخالفند": 8996,
    "میلیا": 8997,
    "خانی": 8998,
    "▁دورانگو": 8999,
    "▁هزارتومان": 9000,
    "▁آریا": 9001,
    "مز": 9002,
    "▁تختی": 9003,
    "▁کثی": 9004,
    "▁بنفش": 9005,
    "▁کبود": 9006,
    "▁دستفروش": 9007,
    "▁زاها": 9008,
    "نیمه": 9009,
    "▁چریک": 9010,
    "▁دوقلوها": 9011,
    "تس": 9012,
    "▁خیرخواه": 9013,
    "هوش": 9014,
    "▁پولها": 9015,
    "▁الک": 9016,
    "دس": 9017,
    "روث": 9018,
    "لیور": 9019,
    "▁سودده": 9020,
    "▁ترسید": 9021,
    "▁مهن": 9022,
    "▁برگشتند": 9023,
    "▁دالان": 9024,
    "▁معذ": 9025,
    "▁فیض": 9026,
    "▁هنرپیشگ": 9027,
    "▁عزا": 9028,
    "▁پیمانکاران": 9029,
    "▁صمد": 9030,
    "الیف": 9031,
    "▁کوواکس": 9032,
    "▁نبردی": 9033,
    "▁درصورت": 9034,
    "غام": 9035,
    "▁مجاور": 9036,
    "ستحکم": 9037,
    "▁بیو": 9038,
    "▁اژدها": 9039,
    "ساتبی": 9040,
    "▁غر": 9041,
    "صال": 9042,
    "▁درنظر": 9043,
    "▁تجسمی": 9044,
    "امد": 9045,
    "▁قهر": 9046,
    "فشان": 9047,
    "درس": 9048,
    "▁گرافی": 9049,
    "▁آمری": 9050,
    "همراه": 9051,
    "▁ازد": 9052,
    "▁نبرده": 9053,
    "▁کلت": 9054,
    "ختی": 9055,
    "▁برنج": 9056,
    "زمانی": 9057,
    "انسان": 9058,
    "▁سازندگ": 9059,
    "ادیوم": 9060,
    "انو": 9061,
    "▁مجلل": 9062,
    "▁جزای": 9063,
    "▁هیج": 9064,
    "▁برسیم": 9065,
    "ورای": 9066,
    "▁پهنا": 9067,
    "▁۷۶۰": 9068,
    "رید": 9069,
    "▁فتو": 9070,
    "▁فراگرفت": 9071,
    "جمعه": 9072,
    "▁ویسل": 9073,
    "▁شناسیم": 9074,
    "ولوو": 9075,
    "مثبت": 9076,
    "▁پرتوی": 9077,
    "▁ترسم": 9078,
    "۸۰۰": 9079,
    "یری": 9080,
    "صله": 9081,
    "▁تحقی": 9082,
    "▁کارکرد": 9083,
    "▁بلندپروازی": 9084,
    "▁مجال": 9085,
    "سالگی": 9086,
    "ارگ": 9087,
    "ارسیا": 9088,
    "اخور": 9089,
    "گذشته": 9090,
    "▁چشمم": 9091,
    "▁بویی": 9092,
    "▁والن": 9093,
    "شاملو": 9094,
    "▁منسو": 9095,
    "یلند": 9096,
    "شکی": 9097,
    "▁برسید": 9098,
    "▁بگذار": 9099,
    "▁دوهزار": 9100,
    "۶۸": 9101,
    "ئیت": 9102,
    "▁شیاد": 9103,
    "▁ماجراهای": 9104,
    "▁فرگوس": 9105,
    "▁افتادند": 9106,
    "جیح": 9107,
    "▁نوک": 9108,
    "اپور": 9109,
    "▁آمو": 9110,
    "سالار": 9111,
    "▁انرو": 9112,
    "▁بلیک": 9113,
    "۹۶۰": 9114,
    "▁لارن": 9115,
    "▁لید": 9116,
    "▁سمی": 9117,
    "▁وتو": 9118,
    "قدیم": 9119,
    "متری": 9120,
    "پک": 9121,
    "چهارم": 9122,
    "▁هوم": 9123,
    "▁وس": 9124,
    "▁بولد": 9125,
    "▁یدک": 9126,
    "هان": 9127,
    "▁۱۲۸": 9128,
    "▁استعماری": 9129,
    "▁بیکارشد": 9130,
    "▁اوب": 9131,
    "▁السی": 9132,
    "یکروس": 9133,
    "▁لایک": 9134,
    "▁شغلهای": 9135,
    "آلات": 9136,
    "رمد": 9137,
    "▁بکنند": 9138,
    "جمعی": 9139,
    "هرزاد": 9140,
    "ریحان": 9141,
    "▁راهور": 9142,
    "چندان": 9143,
    "ارتی": 9144,
    "چندی": 9145,
    "اسنو": 9146,
    "▁همای": 9147,
    "دانف": 9148,
    "ئل": 9149,
    "رگذشت": 9150,
    "انگر": 9151,
    "▁گفتم": 9152,
    "▁سیمین": 9153,
    "خو": 9154,
    "دری": 9155,
    "▁آرنو": 9156,
    "▁لوی": 9157,
    "▁مث": 9158,
    "▁ارغ": 9159,
    "▁ناخ": 9160,
    "▁کوئین": 9161,
    "▁تاس": 9162,
    "ستانه": 9163,
    "▁گردآ": 9164,
    "▁سیلوا": 9165,
    "مسترد": 9166,
    "اربی": 9167,
    "زیا": 9168,
    "نسل": 9169,
    "وط": 9170,
    "▁گروهها": 9171,
    "▁مورخ": 9172,
    "۰۳": 9173,
    "▁امیلی": 9174,
    "۸۷": 9175,
    "تقبل": 9176,
    "رث": 9177,
    "▁راین": 9178,
    "گشایش": 9179,
    "▁بکر": 9180,
    "▁هواپیماساز": 9181,
    "میان": 9182,
    "▁گاف": 9183,
    "سمانی": 9184,
    "▁آبه": 9185,
    "▁سور": 9186,
    "شیده": 9187,
    "▁نوزدهمی": 9188,
    "خاطره": 9189,
    "▁دزدید": 9190,
    "چای": 9191,
    "▁فوتو": 9192,
    "خود": 9193,
    "خدم": 9194,
    "▁دری": 9195,
    "توم": 9196,
    "▁پولدار": 9197,
    "ورس": 9198,
    "▁نیافتاد": 9199,
    "▁پرداختند": 9200,
    "▁نحس": 9201,
    "▁پرمخاط": 9202,
    "▁اتوم": 9203,
    "▁فراپا": 9204,
    "یگ": 9205,
    "واضع": 9206,
    "▁لائو": 9207,
    "ارل": 9208,
    "هاب": 9209,
    "طغ": 9210,
    "▁نط": 9211,
    "▁زدم": 9212,
    "گارد": 9213,
    "▁فیزیوتراپی": 9214,
    "▁بگو": 9215,
    "پن": 9216,
    "اشک": 9217,
    "▁رک": 9218,
    "▁تامی": 9219,
    "لائو": 9220,
    "▁قمر": 9221,
    "▁گود": 9222,
    "سگ": 9223,
    "▁بایستی": 9224,
    "▁بلوم": 9225,
    "▁گزی": 9226,
    "▁مدرنی": 9227,
    "▁بفهمی": 9228,
    "کسر": 9229,
    "▁فیلی": 9230,
    "ریکا": 9231,
    "مداری": 9232,
    "هشت": 9233,
    "ونت": 9234,
    "▁اراد": 9235,
    "▁زهی": 9236,
    "▁لنگ": 9237,
    "وردی": 9238,
    "▁رن": 9239,
    "▁فره": 9240,
    "کلا": 9241,
    "▁مفتو": 9242,
    "▁سریعتر": 9243,
    "▁کورس": 9244,
    "لانی": 9245,
    "سول": 9246,
    "باسی": 9247,
    "موش": 9248,
    "▁رقیبان": 9249,
    "▁سراغش": 9250,
    "پایه": 9251,
    "درباره": 9252,
    "ورز": 9253,
    "میخ": 9254,
    "▁زینب": 9255,
    "▁گیران": 9256,
    "▁اینگ": 9257,
    "بریز": 9258,
    "ورال": 9259,
    "گرمی": 9260,
    "۵۳": 9261,
    "چنان": 9262,
    "▁۲۰۶": 9263,
    "۸۰۰۰": 9264,
    "▁ماهیان": 9265,
    "لاند": 9266,
    "▁زمام": 9267,
    "▁گرانش": 9268,
    "ژیک": 9269,
    "▁رودخ": 9270,
    "روژ": 9271,
    "سکار": 9272,
    "رعلی": 9273,
    "▁مدد": 9274,
    "فلورای": 9275,
    "▁شورشی": 9276,
    "▁اعم": 9277,
    "ئیل": 9278,
    "▁پوشا": 9279,
    "نگل": 9280,
    "▁لیلا": 9281,
    "▁لوین": 9282,
    "۱۰": 9283,
    "▁رسیم": 9284,
    "▁استرلی": 9285,
    "▁پرستاره": 9286,
    "▁عس": 9287,
    "▁چکی": 9288,
    "رستان": 9289,
    "▁بنیا": 9290,
    "▁بهنا": 9291,
    "کیا": 9292,
    "سپی": 9293,
    "▁فرانس": 9294,
    "یرو": 9295,
    "ذخا": 9296,
    "▁اشع": 9297,
    "شهری": 9298,
    "۸۱": 9299,
    "▁تخار": 9300,
    "▁کنش": 9301,
    "▁وود": 9302,
    "▁نورال": 9303,
    "سوار": 9304,
    "وخته": 9305,
    "▁مشترکان": 9306,
    "▁بلن": 9307,
    "تد": 9308,
    "▁دیدگ": 9309,
    "سوری": 9310,
    "ومان": 9311,
    "قانون": 9312,
    "▁کانا": 9313,
    "▁اوس": 9314,
    "▁صعودش": 9315,
    "▁چشمک": 9316,
    "▁رگی": 9317,
    "اتب": 9318,
    "گوین": 9319,
    "▁فونت": 9320,
    "بسیار": 9321,
    "۴۰۰": 9322,
    "▁وظایفش": 9323,
    "▁چید": 9324,
    "▁بکار": 9325,
    "▁برچید": 9326,
    "نوا": 9327,
    "▁نظار": 9328,
    "۸۸": 9329,
    "▁افراز": 9330,
    "کسوت": 9331,
    "بزرگتری": 9332,
    "پرستانه": 9333,
    "▁تسا": 9334,
    "طوری": 9335,
    "▁فرمین": 9336,
    "عود": 9337,
    "▁انف": 9338,
    "واری": 9339,
    "لخ": 9340,
    "▁والد": 9341,
    "پژوه": 9342,
    "اوبر": 9343,
    "▁خودرا": 9344,
    "سید": 9345,
    "تال": 9346,
    "ورو": 9347,
    "نگر": 9348,
    "▁ترمی": 9349,
    "▁مرم": 9350,
    "▁لین": 9351,
    "▁آغ": 9352,
    "خواهانه": 9353,
    "متن": 9354,
    "▁لمب": 9355,
    "▁مشق": 9356,
    "▁کربی": 9357,
    "▁خدایا": 9358,
    "▁۱۲۷": 9359,
    "▁عاج": 9360,
    "ونا": 9361,
    "▁چنگ": 9362,
    "الوح": 9363,
    "▁بندهای": 9364,
    "طع": 9365,
    "هستند": 9366,
    "▁زبانه": 9367,
    "▁ویلر": 9368,
    "▁جوانب": 9369,
    "فاهی": 9370,
    "ارث": 9371,
    "طم": 9372,
    "▁کشاورزان": 9373,
    "صدا": 9374,
    "۱۰۰": 9375,
    "▁ببری": 9376,
    "لنگ": 9377,
    "یض": 9378,
    "▁کیش": 9379,
    "۳۳": 9380,
    "نادر": 9381,
    "یلان": 9382,
    "لیا": 9383,
    "یزی": 9384,
    "ناوند": 9385,
    "▁خرمش": 9386,
    "▁کارم": 9387,
    "تاریخ": 9388,
    "▁رهنو": 9389,
    "وبی": 9390,
    "هند": 9391,
    "سرین": 9392,
    "▁عوا": 9393,
    "سرتی": 9394,
    "▁نگ": 9395,
    "▁وو": 9396,
    "جران": 9397,
    "نبه": 9398,
    "▁خوار": 9399,
    "▁تویی": 9400,
    "دروس": 9401,
    "انستان": 9402,
    "▁جدیدتر": 9403,
    "▁اندروز": 9404,
    "جمله": 9405,
    "ارق": 9406,
    "صدای": 9407,
    "بندند": 9408,
    "▁رویاها": 9409,
    "▁رزمند": 9410,
    "▁تراژ": 9411,
    "عمل": 9412,
    "▁۴۸۰": 9413,
    "▁سول": 9414,
    "▁بنزم": 9415,
    "▁دولتها": 9416,
    "تگان": 9417,
    "▁مارسل": 9418,
    "▁آلیس": 9419,
    "▁متح": 9420,
    "آقا": 9421,
    "ایرانی": 9422,
    "منت": 9423,
    "عد": 9424,
    "یوس": 9425,
    "▁سلامتش": 9426,
    "▁دس": 9427,
    "▁کلانی": 9428,
    "اوت": 9429,
    "▁فرزان": 9430,
    "▁انبارها": 9431,
    "اتل": 9432,
    "▁دستش": 9433,
    "لیل": 9434,
    "▁زین": 9435,
    "روحانی": 9436,
    "▁دره": 9437,
    "یتز": 9438,
    "وضعیت": 9439,
    "محل": 9440,
    "الکلی": 9441,
    "بست": 9442,
    "▁حائ": 9443,
    "تغییر": 9444,
    "پیدا": 9445,
    "▁فران": 9446,
    "شکنی": 9447,
    "▁۱۵۲": 9448,
    "کاظمی": 9449,
    "▁کساد": 9450,
    "▁گردی": 9451,
    "تینگ": 9452,
    "▁پرد": 9453,
    "▁خص": 9454,
    "▁میمن": 9455,
    "▁اروپای": 9456,
    "فال": 9457,
    "خصوص": 9458,
    "▁خائ": 9459,
    "▁لیز": 9460,
    "برابر": 9461,
    "زاق": 9462,
    "وتا": 9463,
    "ورسوی": 9464,
    "گوی": 9465,
    "بنیا": 9466,
    "▁بازیها": 9467,
    "ولو": 9468,
    "ربه": 9469,
    "▁غیرب": 9470,
    "▁بهم": 9471,
    "ناتور": 9472,
    "انچین": 9473,
    "▁ادین": 9474,
    "▁آبیار": 9475,
    "▁هیو": 9476,
    "ریاست": 9477,
    "کمک": 9478,
    "▁هوادارن": 9479,
    "امبو": 9480,
    "▁همسری": 9481,
    "▁ریل": 9482,
    "حمایت": 9483,
    "داگ": 9484,
    "چگون": 9485,
    "دوم": 9486,
    "دانشگاه": 9487,
    "▁بنشین": 9488,
    "تفاوت": 9489,
    "▁بخواهی": 9490,
    "نیتو": 9491,
    "▁۱۱۴": 9492,
    "داخل": 9493,
    "بودجه": 9494,
    "نهایی": 9495,
    "تحریر": 9496,
    "تایید": 9497,
    "سرمربی": 9498,
    "▁منه": 9499,
    "یشان": 9500,
    "▁شکس": 9501,
    "▁کانتر": 9502,
    "▁آسو": 9503,
    "صراف": 9504,
    "تونی": 9505,
    "▁مجت": 9506,
    "خرید": 9507,
    "▁کولی": 9508,
    "بیانیه": 9509,
    "نند": 9510,
    "یلد": 9511,
    "نگه": 9512,
    "رزاده": 9513,
    "شاهد": 9514,
    "▁آو": 9515,
    "مسئول": 9516,
    "انتقال": 9517,
    "سپاه": 9518,
    "قرارداد": 9519,
    "▁الط": 9520,
    "قامت": 9521,
    "▁کوئ": 9522,
    "سالم": 9523,
    "ورزشگاه": 9524,
    "▁درازا": 9525,
    "▁هنک": 9526,
    "▁پاها": 9527,
    "ظریف": 9528,
    "رام": 9529,
    "فینال": 9530,
    "▁کامی": 9531,
    "کمیس": 9532,
    "▁آسود": 9533,
    "جز": 9534,
    "اتهام": 9535,
    "انیا": 9536,
    "فکر": 9537,
    "یدند": 9538,
    "نگو": 9539,
    "▁نیکول": 9540,
    "حرکت": 9541,
    "چهارشنبه": 9542,
    "تابلو": 9543,
    "ماد": 9544,
    "کابو": 9545,
    "پارسال": 9546,
    "صحبت": 9547,
    "▁پنداشت": 9548,
    "کوب": 9549,
    "اسکا": 9550,
    "جلسه": 9551,
    "قطع": 9552,
    "دستور": 9553,
    "فات": 9554,
    "واحد": 9555,
    "▁رهن": 9556,
    "ندا": 9557,
    "آتش": 9558,
    "توییتر": 9559,
    "حشم": 9560,
    "درخواست": 9561,
    "بحرین": 9562,
    "چاپ": 9563,
    "فرصت": 9564,
    "ناتالی": 9565,
    "▁ریلی": 9566,
    "تغییرات": 9567,
    "رابطه": 9568,
    "برخورد": 9569,
    "اظهارات": 9570,
    "کودک": 9571,
    "حکام": 9572,
    "▁فعل": 9573,
    "ئوس": 9574,
    "قت": 9575,
    "قدم": 9576,
    "▁هجده": 9577,
    "واشنگتن": 9578,
    "ولتی": 9579,
    "چپ": 9580,
    "صعود": 9581,
    "رح": 9582,
    "▁سخنگو": 9583,
    "اتاق": 9584,
    "▁سینا": 9585,
    "▁لوب": 9586,
    "شهرهای": 9587,
    "تزریق": 9588,
    "فیفا": 9589,
    "توییت": 9590,
    "▁ستیز": 9591,
    "▁۳۵۰۰": 9592,
    "▁بدق": 9593,
    "مدیرعامل": 9594,
    "هدایت": 9595,
    "سرطان": 9596,
    "مصرف": 9597,
    "اصله": 9598,
    "لومین": 9599,
    "موارد": 9600,
    "ساخته": 9601,
    "وئیس": 9602,
    "یامده": 9603,
    "لوی": 9604,
    "▁۱۸۸": 9605,
    "فیک": 9606,
    "▁ائ": 9607,
    "ایسنا": 9608,
    "اصلاح": 9609,
    "سرپرست": 9610,
    "آرسنال": 9611,
    "اختلال": 9612,
    "▁رشدی": 9613,
    "اطمینان": 9614,
    "فیسبوک": 9615,
    "گواردیولا": 9616,
    "مدیرکل": 9617,
    "طالبان": 9618,
    "ادبی": 9619,
    "ارجه": 9620,
    "دیر": 9621,
    "عصر": 9622,
    "نژادپرست": 9623,
    "نادال": 9624,
    "پادشاه": 9625,
    "▁نیت": 9626,
    "▁وسائ": 9627,
    "بلژیک": 9628,
    "خودکشی": 9629,
    "▁نشا": 9630,
    "سرنوشت": 9631,
    "بازدید": 9632,
    "تجهیزات": 9633,
    "▁الجز": 9634,
    "اسپوت": 9635,
    "تبعیض": 9636,
    "▁۲۵۰۰": 9637,
    "اندی": 9638,
    "▁الکترودها": 9639,
    "هیوندای": 9640,
    "حراج": 9641,
    "اولسان": 9642,
    "منچستریونایتد": 9643,
    "گار": 9644,
    "عرص": 9645,
    "واقعیت": 9646,
    "▁اورگ": 9647,
    "وبسایت": 9648,
    "رامش": 9649,
    "عطرساز": 9650,
    "ویلیام": 9651,
    "کاوشگر": 9652,
    "جلسات": 9653,
    "دیوان": 9654,
    "سوال": 9655,
    "انتقادات": 9656,
    "مالاریا": 9657,
    "▁۱۲۶": 9658,
    "بنفش": 9659,
    "مرتضی": 9660,
    "مهندسان": 9661,
    "رونالدینیو": 9662,
    "تیرماه": 9663,
    "بنکسی": 9664,
    "آلن": 9665,
    "اطل": 9666,
    "کجاست": 9667,
    "کوبا": 9668,
    "تهم": 9669,
    "پشت": 9670,
    "اطبا": 9671,
    "▁ولای": 9672,
    "رمانی": 9673,
    "جعفر": 9674,
    "اگون": 9675,
    "گمانه": 9676,
    "▁منح": 9677,
    "امشب": 9678,
    "جدال": 9679,
    "▁تیرانداز": 9680,
    "معمول": 9681,
    "ساعد": 9682,
    "مسلم": 9683,
    "▁جهنم": 9684,
    "▁واعظ": 9685,
    "▁کتابدار": 9686,
    "▁وکلا": 9687,
    "رفتار": 9688,
    "▁محتوا": 9689,
    "▁اخت": 9690,
    "پیمان": 9691,
    "▁پابل": 9692,
    "دادسرا": 9693,
    "ستیو": 9694,
    "▁نجوم": 9695,
    "قچی": 9696,
    "▁مطهر": 9697,
    "پناه": 9698,
    "▁دریاب": 9699,
    "جنسی": 9700,
    "قبلا": 9701,
    "طالب": 9702,
    "دات": 9703,
    "▁ادعاها": 9704,
    "▁افزو": 9705,
    "علنی": 9706,
    "▁هیپ": 9707,
    "مثل": 9708,
    "متیو": 9709,
    "جاز": 9710,
    "غیبت": 9711,
    "امضا": 9712,
    "▁شغلها": 9713,
    "▁دلخو": 9714,
    "چون": 9715,
    "اشته": 9716,
    "▁۲۹۰": 9717,
    "▁دایم": 9718,
    "دوره": 9719,
    "▁وینس": 9720,
    "فورا": 9721,
    "حکمت": 9722,
    "گذراند": 9723,
    "صیر": 9724,
    "▁محاکم": 9725,
    "▁مبد": 9726,
    "▁پورت": 9727,
    "▁حرا": 9728,
    "▁دهشت": 9729,
    "▁دیوارها": 9730,
    "▁دیف": 9731,
    "شرط": 9732,
    "زلزل": 9733,
    "صل": 9734,
    "مریکایی": 9735,
    "▁معوق": 9736,
    "▁منا": 9737,
    "الا": 9738,
    "▁خونی": 9739,
    "▁آذ": 9740,
    "خاطرات": 9741,
    "دومین": 9742,
    "دخیل": 9743,
    "▁مزارش": 9744,
    "▁بخواب": 9745,
    "▁ماورا": 9746,
    "سپورت": 9747,
    "▁بارتو": 9748,
    "شهرت": 9749,
    "▁اصلان": 9750,
    "▁اولیو": 9751,
    "سنا": 9752,
    "هنر": 9753,
    "▁مختص": 9754,
    "مسعود": 9755,
    "▁پاکس": 9756,
    "▁صمیم": 9757,
    "مایند": 9758,
    "۷۸": 9759,
    "جس": 9760,
    "▁تابع": 9761,
    "رشنا": 9762,
    "▁آتن": 9763,
    "▁الاح": 9764,
    "اسکار": 9765,
    "مس": 9766,
    "سوخت": 9767,
    "▁الکترود": 9768,
    "▁پیشا": 9769,
    "▁۳۳۰": 9770,
    "ریزش": 9771,
    "طابق": 9772,
    "▁متروک": 9773,
    "روید": 9774,
    "دیتر": 9775,
    "▁کاتال": 9776,
    "▁کانتون": 9777,
    "▁قرائ": 9778,
    "۳۸": 9779,
    "▁مطبوع": 9780,
    "▁نکنم": 9781,
    "▁اجسا": 9782,
    "▁دومی": 9783,
    "نتینو": 9784,
    "وث": 9785,
    "ستراز": 9786,
    "▁بازدیدها": 9787,
    "پارتمان": 9788,
    "اراگوئه": 9789,
    "▁ظالم": 9790,
    "▁فراور": 9791,
    "تول": 9792,
    "▁سریلانکا": 9793,
    "▁لابراتوار": 9794,
    "▁ابرکامپیوترها": 9795,
    "▁ابوظبی": 9796,
    "▁الکترومغناطیس": 9797,
    "▁اکسیدکربن": 9798,
    "▁ایزوتوپ": 9799,
    "▁تمساح": 9800,
    "▁سولوویوف": 9801,
    "▁طنزپرداز": 9802,
    "▁پنتاگون": 9803,
    "▁ژئوپلتیک": 9804,
    "▁یوکوکورا": 9805,
    "▁غوغای": 9806,
    "▁دیپلومات": 9807,
    "▁زحمات": 9808,
    "▁زاناردی": 9809,
    "▁شقاقی": 9810,
    "▁بیندازید": 9811,
    "▁پوآرو": 9812,
    "▁حوتاسفند": 9813,
    "▁اسپانسر": 9814,
    "▁دگرباش": 9815,
    "▁استروئید": 9816,
    "▁متعاقب": 9817,
    "▁معشوق": 9818,
    "▁هلیکوپتر": 9819,
    "▁وبیتکو": 9820,
    "▁مدودف": 9821,
    "▁واکاندا": 9822,
    "▁هورمون": 9823,
    "▁خویشاوند": 9824,
    "▁اوکلاه": 9825,
    "▁مطیعی": 9826,
    "▁نکونام": 9827,
    "▁ابطحی": 9828,
    "لئوپولد": 9829,
    "▁جانبازان": 9830,
    "▁هورایزن": 9831,
    "▁واینالد": 9832,
    "▁کاذب": 9833,
    "▁جادوگر": 9834,
    "▁مانیتور": 9835,
    "▁مفاهیم": 9836,
    "▁نگرائو": 9837,
    "▁ویسکانس": 9838,
    "فره": 9839,
    "▁کمرشکن": 9840,
    "▁استنشاق": 9841,
    "▁شکوهمند": 9842,
    "▁اسنوبرد": 9843,
    "لجستیک": 9844,
    "▁مهدیخانی": 9845,
    "▁سربگیرند": 9846,
    "▁عریض": 9847,
    "الشهدا": 9848,
    "▁گمپرت": 9849,
    "▁اساتید": 9850,
    "▁معضل": 9851,
    "▁نیفتند": 9852,
    "▁پاکیزگی": 9853,
    "▁خرگوش": 9854,
    "▁وصیت": 9855,
    "▁اوتیسم": 9856,
    "▁پلاکاردهایی": 9857,
    "▁ناسیونالیس": 9858,
    "۹۰": 9859,
    "▁ووندر": 9860,
    "▁بمانید": 9861,
    "▁فورهند": 9862,
    "▁مزاح": 9863,
    "▁گریبانگیر": 9864,
    "▁غیرعمد": 9865,
    "▁مصادیق": 9866,
    "▁مقتض": 9867,
    "▁ندوشن": 9868,
    "▁فرازمند": 9869,
    "▁عقوبت": 9870,
    "▁پردیس": 9871,
    "▁سرمنشا": 9872,
    "▁کلمبو": 9873,
    "▁کالینز": 9874,
    "▁ببخشد": 9875,
    "▁ارنست": 9876,
    "▁بکاهد": 9877,
    "▁اوصاف": 9878,
    "▁فیروزکو": 9879,
    "▁بروکلی": 9880,
    "▁فروزان": 9881,
    "رافی": 9882,
    "▁کلارک": 9883,
    "▁درنوردید": 9884,
    "▁تلاقی": 9885,
    "تیاگو": 9886,
    "▁ضدویروس": 9887,
    "▁گاندو": 9888,
    "▁سمنان": 9889,
    "▁آسایش": 9890,
    "مویرگی": 9891,
    "▁جانورشناس": 9892,
    "▁پنهانکاری": 9893,
    "▁معصومانه": 9894,
    "▁مشکاتیان": 9895,
    "▁بیاییم": 9896,
    "▁آنالیز": 9897,
    "▁بگریزد": 9898,
    "▁هتلداران": 9899,
    "▁دستگیرزاده": 9900,
    "▁کوئیک": 9901,
    "▁قاپید": 9902,
    "▁سالوادور": 9903,
    "▁بیایید": 9904,
    "▁۱۳۲۳": 9905,
    "▁۱۹۷۷": 9906,
    "عقوب": 9907,
    "مص": 9908,
    "▁ومعرف": 9909,
    "▁آبتین": 9910,
    "▁مرورگر": 9911,
    "▁سنجاب": 9912,
    "▁آتلانتا": 9913,
    "رتاک": 9914,
    "▁نوازد": 9915,
    "▁بوسد": 9916,
    "▁بغل": 9917,
    "▁متهیا": 9918,
    "▁استبر": 9919,
    "حی": 9920,
    "▁۱۹۱۲": 9921,
    "▁کوونی": 9922,
    "بوم": 9923,
    "دهی": 9924,
    "▁کاسکی": 9925,
    "▁۷۲۲": 9926,
    "▁احمق": 9927,
    "▁توکلی": 9928,
    "▁دماغ": 9929,
    "▁۱۹۳۹": 9930,
    "پرت": 9931,
    "▁روایات": 9932,
    "▁عمارت": 9933,
    "▁گریختند": 9934,
    "▁وولف": 9935,
    "▁بنگال": 9936,
    "▁عوام": 9937,
    "▁بگویید": 9938,
    "▁بندپی": 9939,
    "▁دفعات": 9940,
    "▁فرمایش": 9941,
    "▁شئون": 9942,
    "▁روسکو": 9943,
    "▁ضامن": 9944,
    "▁ریاکاری": 9945,
    "▁استمفورد": 9946,
    "▁استیل": 9947,
    "▁کوانت": 9948,
    "دیوم": 9949,
    "▁ولیحی": 9950,
    "▁دمکرات": 9951,
    "لگرام": 9952,
    "▁خیاط": 9953,
    "تأسف": 9954,
    "▁حماسی": 9955,
    "▁اولترا": 9956,
    "▁کولون": 9957,
    "▁باغبان": 9958,
    "▁داکا": 9959,
    "ئرنیک": 9960,
    "▁پراوی": 9961,
    "یانی": 9962,
    "▁کالینگ": 9963,
    "تقابل": 9964,
    "▁اپوز": 9965,
    "▁برادرز": 9966,
    "▁عنف": 9967,
    "▁۲۶۶": 9968,
    "▁ملایم": 9969,
    "▁سرمست": 9970,
    "▁بنویسد": 9971,
    "▁بیولوژی": 9972,
    "▁رهنوش": 9973,
    "نظار": 9974,
    "▁رافا": 9975,
    "▁پردازیم": 9976,
    "▁۲۳۹": 9977,
    "▁بساط": 9978,
    "▁امدادگر": 9979,
    "▁گیگاب": 9980,
    "▁دلا": 9981,
    "▁باارزش": 9982,
    "▁نوگرا": 9983,
    "▁آپارت": 9984,
    "▁بازپرس": 9985,
    "▁بارکلی": 9986,
    "▁بازدارند": 9987,
    "▁نامطلوب": 9988,
    "اردی": 9989,
    "▁مگاصیص": 9990,
    "▁لوکالکان": 9991,
    "▁گاسکوئین": 9992,
    "▁جنایات": 9993,
    "▁ولگردها": 9994,
    "نقا": 9995,
    "▁همدلی": 9996,
    "▁توتال": 9997,
    "▁بیگم": 9998,
    "▁منشور": 9999,
    "▁نگشته": 10000,
    "▁نومید": 10001,
    "▁مالباخت": 10002,
    "تراتو": 10003,
    "▁هیب": 10004,
    "▁۷۱": 10005,
    "رخوری": 10006,
    "▁صداقت": 10007,
    "▁آلترن": 10008,
    "▁مخلوط": 10009,
    "▁ناراحتند": 10010,
    "▁وج": 10011,
    "عاب": 10012,
    "▁گزاف": 10013,
    "▁ترمز": 10014,
    "▁الاصل": 10015,
    "▁نهادها": 10016,
    "وگند": 10017,
    "رایش": 10018,
    "▁۱۵۵": 10019,
    "سرگ": 10020,
    "▁الاسلام": 10021,
    "آخر": 10022,
    "▁آلپ": 10023,
    "ولاد": 10024,
    "▁نهی": 10025,
    "▁قراردادها": 10026,
    "▁کورین": 10027,
    "▁قرادادش": 10028,
    "▁گرانبهای": 10029,
    "▁استمقام": 10030,
    "▁قلمرو": 10031,
    "▁پوسترهای": 10032,
    "▁رینت": 10033,
    "▁تسایت": 10034,
    "▁عمویی": 10035,
    "نوم": 10036,
    "▁۱۲۲": 10037,
    "ینیو": 10038,
    "▁کاوش": 10039,
    "▁مشهود": 10040,
    "▁ریختند": 10041,
    "▁متش": 10042,
    "کات": 10043,
    "▁هملت": 10044,
    "ریتز": 10045,
    "▁تظاهر": 10046,
    "بخت": 10047,
    "▁پرتلا": 10048,
    "رجب": 10049,
    "▁رادارها": 10050,
    "▁نرسیدند": 10051,
    "▁مستعد": 10052,
    "▁نزدند": 10053,
    "▁معلمان": 10054,
    "▁سرز": 10055,
    "▁شاکی": 10056,
    "▁آق": 10057,
    "▁درگذشتمحمد": 10058,
    "▁مشوقهای": 10059,
    "▁بپیچ": 10060,
    "▁لودو": 10061,
    "خال": 10062,
    "▁کوری": 10063,
    "▁گزارشش": 10064,
    "▁انعکاس": 10065,
    "▁حادتر": 10066,
    "▁باربارا": 10067,
    "▁اردبی": 10068,
    "▁گذراندم": 10069,
    "کسان": 10070,
    "▁اوساکا": 10071,
    "زیچ": 10072,
    "۴۸": 10073,
    "رانگ": 10074,
    "اسرای": 10075,
    "▁افکند": 10076,
    "▁احصا": 10077,
    "▁آزاردید": 10078,
    "▁پرداختن": 10079,
    "▁گرکان": 10080,
    "▁گردآمد": 10081,
    "▁پرماجرا": 10082,
    "نهاده": 10083,
    "▁خطاط": 10084,
    "تص": 10085,
    "▁برخوردارند": 10086,
    "▁زدیم": 10087,
    "گردها": 10088,
    "نیز": 10089,
    "▁خوانیم": 10090,
    "▁منصف": 10091,
    "وقف": 10092,
    "▁نزند": 10093,
    "▁آجر": 10094,
    "▁کتا": 10095,
    "▁واعظی": 10096,
    "▁بروی": 10097,
    "زیاد": 10098,
    "▁نوشتاری": 10099,
    "▁هلن": 10100,
    "▁پهپادهای": 10101,
    "▁فتوا": 10102,
    "پار": 10103,
    "▁مسلم": 10104,
    "▁آغازکرده": 10105,
    "▁۱۹۲": 10106,
    "▁هانس": 10107,
    "▁جوج": 10108,
    "▁کاکس": 10109,
    "سنده": 10110,
    "▁روستاها": 10111,
    "▁بولدو": 10112,
    "▁درب": 10113,
    "اگرا": 10114,
    "▁جنون": 10115,
    "▁برایان": 10116,
    "زارها": 10117,
    "▁مبتلای": 10118,
    "نورلند": 10119,
    "▁برجست": 10120,
    "▁غیرقا": 10121,
    "امدا": 10122,
    "پراتور": 10123,
    "▁دمید": 10124,
    "پدر": 10125,
    "بلنک": 10126,
    "▁نگارم": 10127,
    "▁محبت": 10128,
    "▁چهلم": 10129,
    "▁کوو": 10130,
    "▁مارکان": 10131,
    "▁ایستادن": 10132,
    "▁کینگز": 10133,
    "▁پسندید": 10134,
    "▁روایتگر": 10135,
    "انجیر": 10136,
    "▁غنای": 10137,
    "▁مومن": 10138,
    "▁ابزارک": 10139,
    "تورباز": 10140,
    "▁کوهنوردان": 10141,
    "ریف": 10142,
    "▁قبرهای": 10143,
    "▁کورن": 10144,
    "▁هال": 10145,
    "▁فاصل": 10146,
    "▁الکترودهای": 10147,
    "ارنوک": 10148,
    "▁فرمانیه": 10149,
    "پزی": 10150,
    "غا": 10151,
    "▁فرام": 10152,
    "زبور": 10153,
    "کشور": 10154,
    "اتیک": 10155,
    "▁آهنگی": 10156,
    "▁فلا": 10157,
    "▁تولی": 10158,
    "▁سرکو": 10159,
    "▁ویز": 10160,
    "▁موازن": 10161,
    "▁ارمنی": 10162,
    "▁تریل": 10163,
    "▁جدیدش": 10164,
    "یوئیت": 10165,
    "طیب": 10166,
    "تروئ": 10167,
    "فراز": 10168,
    "فوت": 10169,
    "▁پناهندگان": 10170,
    "▁ایندی": 10171,
    "▁برازند": 10172,
    "▁دائما": 10173,
    "ضراب": 10174,
    "کولبر": 10175,
    "ثمی": 10176,
    "تژیک": 10177,
    "▁صاحبش": 10178,
    "الیستی": 10179,
    "حاب": 10180,
    "▁میگویند": 10181,
    "▁واکسنی": 10182,
    "▁حوت": 10183,
    "قضی": 10184,
    "لینک": 10185,
    "▁بردیم": 10186,
    "کلاسی": 10187,
    "ستن": 10188,
    "▁ترها": 10189,
    "دپای": 10190,
    "رسون": 10191,
    "▁نشاند": 10192,
    "▁مهیا": 10193,
    "استار": 10194,
    "▁طلاق": 10195,
    "▁افزای": 10196,
    "▁فرما": 10197,
    "▁نشرات": 10198,
    "▁مظ": 10199,
    "▁خاطراتی": 10200,
    "▁آدمی": 10201,
    "▁ایت": 10202,
    "راست": 10203,
    "▁آمر": 10204,
    "▁قضای": 10205,
    "▁انریک": 10206,
    "▁بک": 10207,
    "▁نوآ": 10208,
    "▁مولد": 10209,
    "▁شمش": 10210,
    "کشید": 10211,
    "لام": 10212,
    "پهن": 10213,
    "▁فاخر": 10214,
    "▁شوی": 10215,
    "شاد": 10216,
    "یادی": 10217,
    "▁رفتیم": 10218,
    "▁درایو": 10219,
    "▁یادگاری": 10220,
    "سک": 10221,
    "▁سالگ": 10222,
    "▁برگر": 10223,
    "▁کولبری": 10224,
    "▁نها": 10225,
    "قطعی": 10226,
    "شمن": 10227,
    "ریدلی": 10228,
    "بیا": 10229,
    "▁لاپ": 10230,
    "▁پاپو": 10231,
    "▁جولیان": 10232,
    "▁نکردم": 10233,
    "سایر": 10234,
    "کای": 10235,
    "▁لوت": 10236,
    "▁جرئ": 10237,
    "▁ایفل": 10238,
    "▁الکسی": 10239,
    "▁منش": 10240,
    "چو": 10241,
    "هده": 10242,
    "لول": 10243,
    "▁خوانید": 10244,
    "▁مضا": 10245,
    "تاژ": 10246,
    "اینس": 10247,
    "یروس": 10248,
    "▁آمل": 10249,
    "▁بارس": 10250,
    "ژیل": 10251,
    "▁دیسکی": 10252,
    "▁چول": 10253,
    "▁تازیان": 10254,
    "اندا": 10255,
    "▁بغ": 10256,
    "کادی": 10257,
    "شایست": 10258,
    "▁انگلی": 10259,
    "▁اجراست": 10260,
    "▁بخوان": 10261,
    "▁بریز": 10262,
    "▁نائ": 10263,
    "▁مامن": 10264,
    "سکو": 10265,
    "لخت": 10266,
    "یکصد": 10267,
    "زهای": 10268,
    "ونز": 10269,
    "▁دوب": 10270,
    "▁آپار": 10271,
    "عزیز": 10272,
    "▁بازخوا": 10273,
    "پال": 10274,
    "▁مسیریاب": 10275,
    "ونکو": 10276,
    "▁بوها": 10277,
    "▁شدیک": 10278,
    "یاد": 10279,
    "رسد": 10280,
    "پولیتیک": 10281,
    "▁نوارها": 10282,
    "فرود": 10283,
    "▁کوک": 10284,
    "▁شناسانه": 10285,
    "وتنبرگ": 10286,
    "▁بلای": 10287,
    "▁عص": 10288,
    "▁نطق": 10289,
    "▁هرچیز": 10290,
    "▁شودبا": 10291,
    "جهش": 10292,
    "▁جویا": 10293,
    "▁برایت": 10294,
    "▁ویچ": 10295,
    "▁کیفی": 10296,
    "مونت": 10297,
    "▁اینترف": 10298,
    "دمان": 10299,
    "دافع": 10300,
    "ترونیک": 10301,
    "▁اکر": 10302,
    "نسوخ": 10303,
    "▁گله": 10304,
    "▁خرو": 10305,
    "شنود": 10306,
    "▁لیر": 10307,
    "▁گلشی": 10308,
    "▁سالار": 10309,
    "▁یونه": 10310,
    "قطر": 10311,
    "باری": 10312,
    "▁بری": 10313,
    "عرض": 10314,
    "▁بدبین": 10315,
    "▁بلندگو": 10316,
    "▁پریان": 10317,
    "فائ": 10318,
    "▁الم": 10319,
    "قیق": 10320,
    "▁هارد": 10321,
    "لب": 10322,
    "▁آت": 10323,
    "▁ایرانروزها": 10324,
    "▁نشدم": 10325,
    "نوری": 10326,
    "تاس": 10327,
    "▁قلو": 10328,
    "▁ننگ": 10329,
    "▁پذیرد": 10330,
    "شانس": 10331,
    "هفتم": 10332,
    "قطب": 10333,
    "▁شکو": 10334,
    "نما": 10335,
    "▁دال": 10336,
    "▁کلاسیکو": 10337,
    "▁موزی": 10338,
    "یعی": 10339,
    "▁بوکا": 10340,
    "▁تنه": 10341,
    "▁زیا": 10342,
    "دول": 10343,
    "▁انگیزش": 10344,
    "کاسی": 10345,
    "▁تلا": 10346,
    "▁بازد": 10347,
    "▁ماندم": 10348,
    "▁پرشک": 10349,
    "وفق": 10350,
    "▁فهمیدن": 10351,
    "▁تول": 10352,
    "▁فروشد": 10353,
    "▁دستورات": 10354,
    "شناس": 10355,
    "▁کشو": 10356,
    "روها": 10357,
    "▁نفیس": 10358,
    "زمین": 10359,
    "ینگز": 10360,
    "▁دلجو": 10361,
    "▁مانو": 10362,
    "▁لوور": 10363,
    "ربط": 10364,
    "▁گذا": 10365,
    "▁گیریم": 10366,
    "▁جووان": 10367,
    "اح": 10368,
    "▁لیم": 10369,
    "▁رامین": 10370,
    "سترش": 10371,
    "متعارف": 10372,
    "آمدن": 10373,
    "▁سالفورد": 10374,
    "▁حاکمان": 10375,
    "مق": 10376,
    "ردین": 10377,
    "سد": 10378,
    "باخ": 10379,
    "▁اقیانوسی": 10380,
    "▁تایلندی": 10381,
    "▁روست": 10382,
    "▁بطر": 10383,
    "▁بنام": 10384,
    "▁معر": 10385,
    "▁گرون": 10386,
    "▁آنجلی": 10387,
    "هرمز": 10388,
    "▁سالخورد": 10389,
    "▁عذ": 10390,
    "وازا": 10391,
    "فرام": 10392,
    "▁تعری": 10393,
    "▁جنگیدن": 10394,
    "▁پریا": 10395,
    "▁تصو": 10396,
    "▁فضاپیماها": 10397,
    "▁صیا": 10398,
    "زره": 10399,
    "▁محم": 10400,
    "▁هیپستره": 10401,
    "دوگا": 10402,
    "▁نکو": 10403,
    "▁وک": 10404,
    "▁ایروان": 10405,
    "عابد": 10406,
    "▁مونش": 10407,
    "▁مساعدت": 10408,
    "خن": 10409,
    "▁وایل": 10410,
    "▁عبد": 10411,
    "▁شغلش": 10412,
    "▁دوک": 10413,
    "▁اتفاقا": 10414,
    "▁نایم": 10415,
    "آمده": 10416,
    "▁بز": 10417,
    "دبی": 10418,
    "▁فوب": 10419,
    "▁درگذشتم": 10420,
    "▁ویرجین": 10421,
    "ورگ": 10422,
    "نکو": 10423,
    "ورش": 10424,
    "▁انگیزد": 10425,
    "۸۶": 10426,
    "▁تبعیدی": 10427,
    "تش": 10428,
    "▁کامپیوترهای": 10429,
    "ینکی": 10430,
    "▁سفیدش": 10431,
    "▁بای": 10432,
    "علیر": 10433,
    "قاعد": 10434,
    "▁شبان": 10435,
    "▁راکل": 10436,
    "دورا": 10437,
    "ذه": 10438,
    "میانه": 10439,
    "▁قه": 10440,
    "وسط": 10441,
    "۶۰۰": 10442,
    "چک": 10443,
    "▁پیس": 10444,
    "لمن": 10445,
    "راهه": 10446,
    "فیو": 10447,
    "▁پلت": 10448,
    "▁یکصدم": 10449,
    "برا": 10450,
    "وود": 10451,
    "حسا": 10452,
    "▁تبعی": 10453,
    "▁برت": 10454,
    "ویق": 10455,
    "▁شدگ": 10456,
    "مالیا": 10457,
    "درومن": 10458,
    "افی": 10459,
    "استین": 10460,
    "▁گوتر": 10461,
    "خصوصا": 10462,
    "آمد": 10463,
    "▁کرددر": 10464,
    "ژو": 10465,
    "▁تسل": 10466,
    "کرون": 10467,
    "▁روئی": 10468,
    "▁معط": 10469,
    "سمن": 10470,
    "▁چندسال": 10471,
[...]
