{
  "src_word2id": {
    "<pad>": 0,
    "<s>": 1,
    "</s>": 2,
    "<unk>": 3,
    "ی": 4,
    "ه": 5,
    ".": 6,
    "ان": 7,
    "م": 8,
    "ت": 9,
    "▁": 10,
    "د": 11,
    "ر": 12,
    "▁است": 13,
    "ش": 14,
    "ل": 15,
    "ا": 16,
    "ن": 17,
    "▁می": 18,
    "و": 19,
    "ب": 20,
    "س": 21,
    "▁های": 22,
    "▁ایران": 23,
    "ک": 24,
    "ق": 25,
    "▁م": 26,
    "ز": 27,
    "ند": 28,
    "ع": 29,
    "▁ت": 30,
    "ات": 31,
    "ور": 32,
    "ف": 33,
    "ار": 34,
    "▁ا": 35,
    "▁بر": 36,
    "▁سال": 37,
    "ح": 38,
    "▁شده": 39,
    "▁ن": 40,
    "،": 41,
    "ال": 42,
    "خ": 43,
    "▁آ": 44,
    "▁بود": 45,
    "ست": 46,
    "▁ها": 47,
    "▁یک": 48,
    "▁شد": 49,
    "ج": 50,
    "▁ف": 51,
    "ام": 52,
    "▁و": 53,
    "▁ای": 54,
    "▁ع": 55,
    "ص": 56,
    "▁ر": 57,
    "ین": 58,
    "▁ش": 59,
    "▁س": 60,
    "ده": 61,
    "های": 62,
    "پ": 63,
    "▁ب": 64,
    "ون": 65,
    "▁تصویر": 66,
    "▁ح": 67,
    "▁دو": 68,
    "ط": 69,
    "اد": 70,
    "▁کرد": 71,
    "▁کرده": 72,
    "▁در": 73,
    "▁ج": 74,
    "ری": 75,
    "▁خ": 76,
    "ای": 77,
    "منبع": 78,
    "گ": 79,
    "▁پ": 80,
    "▁شود": 81,
    "▁خود": 82,
    "▁کار": 83,
    "▁گفته": 84,
    "▁د": 85,
    "از": 86,
    "ید": 87,
    "▁با": 88,
    "▁کند": 89,
    "▁روز": 90,
    "؛": 91,
    "▁اند": 92,
    "ض": 93,
    "▁سر": 94,
    "▁پیش": 95,
    "▁بی": 96,
    "یت": 97,
    "در": 98,
    "اب": 99,
    "▁کرونا": 100,
    "▁ق": 101,
    "غ": 102,
    "تر": 103,
    "گر": 104,
    "▁به": 105,
    "بر": 106,
    "▁دست": 107,
    "▁ماه": 108,
    "ود": 109,
    "▁کشور": 110,
    "را": 111,
    "▁فر": 112,
    "▁ه": 113,
    "چ": 114,
    "اس": 115,
    "مان": 116,
    "ول": 117,
    "ما": 118,
    "نگ": 119,
    "ها": 120,
    "▁سو": 121,
    "▁گزارش": 122,
    "▁آمریکا": 123,
    "▁ص": 124,
    "▁یا": 125,
    "▁گفت": 126,
    "نا": 127,
    "▁رو": 128,
    "▁کنند": 129,
    "▁گ": 130,
    "▁تر": 131,
    "▁ک": 132,
    "۰": 133,
    "▁را": 134,
    "گاه": 135,
    "وی": 136,
    "▁دیگر": 137,
    "▁فوتبال": 138,
    "▁دولت": 139,
    "دی": 140,
    "▁چ": 141,
    "▁نا": 142,
    "▁بازی": 143,
    "▁دارد": 144,
    "یم": 145,
    "▁هر": 146,
    "ذ": 147,
    "ایی": 148,
    "▁پر": 149,
    "▁داد": 150,
    "لا": 151,
    "▁مع": 152,
    "▁مر": 153,
    "یر": 154,
    "▁دهد": 155,
    "اف": 156,
    "▁هم": 157,
    "▁تیم": 158,
    "▁بار": 159,
    "▁مت": 160,
    "ظ": 161,
    "▁اعلام": 162,
    "▁شرکت": 163,
    "▁بین": 164,
    "▁قرار": 165,
    "▁مو": 166,
    "▁نام": 167,
    "گی": 168,
    "لی": 169,
    "▁مس": 170,
    "▁ز": 171,
    "ث": 172,
    "با": 173,
    "▁هزار": 174,
    "▁داده": 175,
    "▁پس": 176,
    "نی": 177,
    "▁شهر": 178,
    "▁رئیس": 179,
    "▁باز": 180,
    "دا": 181,
    "▁سا": 182,
    "▁جهان": 183,
    "▁سه": 184,
    "خت": 185,
    "▁تو": 186,
    "▁خواهد": 187,
    "▁ل": 188,
    "▁دی": 189,
    "▁اس": 190,
    "رس": 191,
    "▁نو": 192,
    "ستان": 193,
    "▁گذشته": 194,
    "رو": 195,
    "▁آن": 196,
    "▁آقای": 197,
    "کن": 198,
    "▁۲": 199,
    "▁ام": 200,
    "▁کل": 201,
    "▁نفت": 202,
    "▁سی": 203,
    "یک": 204,
    "او": 205,
    "آ": 206,
    "▁گوید": 207,
    "▁من": 208,
    "این": 209,
    "▁کا": 210,
    "▁پی": 211,
    "▁رسید": 212,
    "▁او": 213,
    "اک": 214,
    "▁بعد": 215,
    "▁داشت": 216,
    "دار": 217,
    "▁چند": 218,
    "وش": 219,
    "▁درصد": 220,
    "انه": 221,
    "به": 222,
    "▁مح": 223,
    "ترین": 224,
    "مین": 225,
    "کار": 226,
    "▁قهرمان": 227,
    "▁باید": 228,
    "▁روی": 229,
    "▁ارز": 230,
    "۹": 231,
    "▁درباره": 232,
    "▁آنها": 233,
    "▁بازار": 234,
    "لو": 235,
    "▁کن": 236,
    "▁میلیون": 237,
    "سی": 238,
    "۸": 239,
    "▁جدید": 240,
    "زی": 241,
    "▁تهران": 242,
    "▁دلیل": 243,
    "▁نفر": 244,
    "▁از": 245,
    "▁لیگ": 246,
    "▁شا": 247,
    "▁افزایش": 248,
    "▁'": 249,
    "▁افغانستان": 250,
    "'": 251,
    "▁حال": 252,
    "▁خبر": 253,
    "۲": 254,
    "وم": 255,
    "اج": 256,
    "ران": 257,
    "▁ال": 258,
    "▁هفته": 259,
    "▁جو": 260,
    "گو": 261,
    "فت": 262,
    "وا": 263,
    "▁مج": 264,
    "▁قیمت": 265,
    "۱": 266,
    "▁بد": 267,
    "▁پا": 268,
    "▁جا": 269,
    "▁نظر": 270,
    "▁فیلم": 271,
    "▁اخیر": 272,
    "▁گر": 273,
    ":": 274,
    "▁اروپا": 275,
    "▁بیشتر": 276,
    "▁علی": 277,
    "▁۴": 278,
    "▁دلار": 279,
    "▁زمان": 280,
    "یل": 281,
    "▁شب": 282,
    "کر": 283,
    "فا": 284,
    "▁بریتانیا": 285,
    "▁سازمان": 286,
    "▁کم": 287,
    "فر": 288,
    "▁رفت": 289,
    "۵": 290,
    "له": 291,
    "▁ویروس": 292,
    "▁ملی": 293,
    "▁نمی": 294,
    "▁جمهوری": 295,
    "▁کو": 296,
    "▁نیست": 297,
    "کس": 298,
    "▁برگزار": 299,
    "▁بزرگ": 300,
    "▁بوده": 301,
    "▁بخش": 302,
    "▁اول": 303,
    "▁گرفت": 304,
    "بی": 305,
    "▁راه": 306,
    "▁تولید": 307,
    "▁همه": 308,
    "▁۳": 309,
    "▁هستند": 310,
    "▁مورد": 311,
    "▁ترین": 312,
    "گان": 313,
    "▁گرفته": 314,
    "▁مجلس": 315,
    "▁بالا": 316,
    "▁۱۹": 317,
    "▁جهانی": 318,
    "▁ورزش": 319,
    "▁امروز": 320,
    "وز": 321,
    "▁تع": 322,
    "▁عنوان": 323,
    "▁دار": 324,
    "▁بیش": 325,
    "مند": 326,
    "▁گل": 327,
    "۶": 328,
    "▁کاهش": 329,
    "وس": 330,
    "کی": 331,
    "▁اش": 332,
    "▁گو": 333,
    "▁کس": 334,
    "▁چین": 335,
    "▁زن": 336,
    "▁شدن": 337,
    "▁کر": 338,
    "▁وزارت": 339,
    "▁وزیر": 340,
    "▁مد": 341,
    "▁۹": 342,
    "کو": 343,
    "من": 344,
    "▁آغاز": 345,
    "ژ": 346,
    "۴": 347,
    "▁چهار": 348,
    "▁غ": 349,
    "سا": 350,
    "▁قبل": 351,
    "▁اساس": 352,
    "▁کردند": 353,
    "▁یافت": 354,
    "نه": 355,
    "▁حدود": 356,
    "۷": 357,
    "▁بانک": 358,
    "▁نیز": 359,
    "▁یکی": 360,
    "▁بودند": 361,
    "▁۲۰۱": 362,
    "▁نشان": 363,
    "▁اج": 364,
    "▁مقابل": 365,
    "▁بن": 366,
    "▁باشگاه": 367,
    "▁حضور": 368,
    "▁تا": 369,
    "▁محمد": 370,
    "▁تحریم": 371,
    "داد": 372,
    "نامه": 373,
    "▁پنج": 374,
    "۳": 375,
    "▁اقتصادی": 376,
    "کا": 377,
    "▁انجام": 378,
    "دن": 379,
    "▁برنامه": 380,
    "که": 381,
    "▁باشد": 382,
    "▁همچنین": 383,
    "▁گروه": 384,
    "▁ساخت": 385,
    "کل": 386,
    "▁زمین": 387,
    "▁نیم": 388,
    "▁صورت": 389,
    "خواه": 390,
    "▁داشته": 391,
    "▁پایان": 392,
    "▁آب": 393,
    "▁اولین": 394,
    "▁تومان": 395,
    "▁اف": 396,
    "▁توافق": 397,
    "▁منتشر": 398,
    "▁۶": 399,
    "داری": 400,
    "▁میلیارد": 401,
    "▁بل": 402,
    "قط": 403,
    "اق": 404,
    "▁۵": 405,
    "▁شیوع": 406,
    "▁مل": 407,
    "▁وارد": 408,
    "▁مقام": 409,
    "▁واکسن": 410,
    "▁جمع": 411,
    "▁هنر": 412,
    "▁رسان": 413,
    "گیری": 414,
    "▁بازیکن": 415,
    "پر": 416,
    "▁شوند": 417,
    "شان": 418,
    "▁آزاد": 419,
    "▁تاریخ": 420,
    "▁تمام": 421,
    "▁جمله": 422,
    "دامه": 423,
    "▁حقوق": 424,
    "▁استفاده": 425,
    "▁مردم": 426,
    "▁خارج": 427,
    "▁سن": 428,
    "▁شورا": 429,
    "▁خواست": 430,
    "▁۷": 431,
    "ندگان": 432,
    "زار": 433,
    "▁وجود": 434,
    "آقای": 435,
    "▁خودرو": 436,
    "▁ژ": 437,
    "▁همین": 438,
    "▁اع": 439,
    "مر": 440,
    "گیر": 441,
    "▁تغییر": 442,
    "▁غیر": 443,
    "▁توان": 444,
    "▁سابق": 445,
    "▁نزدیک": 446,
    "وار": 447,
    "▁مدیر": 448,
    "▁مسابقه": 449,
    "سازی": 450,
    "؟": 451,
    "▁المللی": 452,
    "▁دارند": 453,
    "▁فصل": 454,
    "▁پای": 455,
    "▁بو": 456,
    "▁نشد": 457,
    "▁زندگی": 458,
    "▁پو": 459,
    "دو": 460,
    "روز": 461,
    "۰۰": 462,
    "▁مسابقات": 463,
    "▁جان": 464,
    "▁مالی": 465,
    "▁فروش": 466,
    "▁اقتصاد": 467,
    "▁آینده": 468,
    "جو": 469,
    "▁اعتراض": 470,
    "▁تنها": 471,
    "▁ده": 472,
    "بار": 473,
    "▁اسلامی": 474,
    "▁نرخ": 475,
    "▁امنیت": 476,
    "▁ض": 477,
    "گذار": 478,
    "▁وضعیت": 479,
    "▁زا": 480,
    "▁نیرو": 481,
    "▁۱۰": 482,
    "▁گیری": 483,
    "▁یو": 484,
    "▁زد": 485,
    "▁خانه": 486,
    "▁ان": 487,
    "▁ماشین": 488,
    "▁جام": 489,
    "▁افراد": 490,
    "▁شدند": 491,
    "▁امسال": 492,
    "▁انتخابات": 493,
    "▁وقت": 494,
    "▁دوران": 495,
    "▁طور": 496,
    "▁دنیا": 497,
    "▁مهم": 498,
    "▁بیماری": 499,
    "صد": 500,
    "▁صد": 501,
    "▁هیچ": 502,
    "▁زندان": 503,
    "عث": 504,
    "▁میان": 505,
    "اکنون": 506,
    "▁شرایط": 507,
    "▁برای": 508,
    "▁شمار": 509,
    "ثبت": 510,
    "رضا": 511,
    "▁اقدام": 512,
    "▁برتر": 513,
    "▁خط": 514,
    "▁مار": 515,
    "▁جنوب": 516,
    "▁مرد": 517,
    "▁زنان": 518,
    "▁فعالیت": 519,
    "▁خارجه": 520,
    "▁حالی": 521,
    "سیون": 522,
    "▁روحانی": 523,
    "▁زیاد": 524,
    "▁اجتماعی": 525,
    "▁تلاش": 526,
    "▁کردن": 527,
    "▁بسیار": 528,
    "▁گویند": 529,
    "▁تصمیم": 530,
    "▁محل": 531,
    "▁بسیاری": 532,
    "▁احتمال": 533,
    "▁زیر": 534,
    "▁تواند": 535,
    "▁طرح": 536,
    "▁تازه": 537,
    "▁موج": 538,
    "▁سینما": 539,
    "▁نخست": 540,
    "نوز": 541,
    "▁کشورهای": 542,
    "▁منبع": 543,
    "▁مدت": 544,
    "▁دور": 545,
    "▁فرا": 546,
    "▁کمک": 547,
    "▁خانواده": 548,
    "▁مختلف": 549,
    "▁حالا": 550,
    "▁ولی": 551,
    "▁آمار": 552,
    "▁اطلاعات": 553,
    "▁مسئول": 554,
    "▁قانون": 555,
    "▁سفر": 556,
    "▁آر": 557,
    "▁بورس": 558,
    "▁کمی": 559,
    "▁کی": 560,
    "▁همراه": 561,
    "زن": 562,
    "▁هوا": 563,
    "▁پول": 564,
    "▁منطقه": 565,
    "▁۲۰": 566,
    "توسط": 567,
    "▁مرکزی": 568,
    "▁مشا": 569,
    "▁موسیقی": 570,
    "▁مرکز": 571,
    "▁اثر": 572,
    "▁طول": 573,
    "▁اجرای": 574,
    "▁هفت": 575,
    "▁قطع": 576,
    "▁آلمان": 577,
    "▁سرمایه": 578,
    "▁خرید": 579,
    "▁درگذشت": 580,
    "▁رسمی": 581,
    "▁نویس": 582,
    "▁مجموع": 583,
    "▁دوره": 584,
    "▁شکست": 585,
    "▁بعضی": 586,
    "▁عکس": 587,
    "ستاد": 588,
    "▁پرسپولیس": 589,
    "▁که": 590,
    "▁گرد": 591,
    "▁بهداشت": 592,
    "▁فرهنگ": 593,
    "▁نظام": 594,
    "▁ماند": 595,
    "▁بست": 596,
    "▁۸": 597,
    "▁واقع": 598,
    "▁ریاست": 599,
    "▁مشکل": 600,
    "▁دهه": 601,
    "▁توجه": 602,
    "▁لو": 603,
    "▁پیدا": 604,
    "▁سهام": 605,
    "▁برخ": 606,
    "▁آخر": 607,
    "▁۱۳": 608,
    "▁درآمد": 609,
    "▁اشار": 610,
    "▁داخل": 611,
    "▁اصلی": 612,
    "▁عمل": 613,
    "▁جمهور": 614,
    "▁موضوع": 615,
    "▁حمله": 616,
    "▁نقش": 617,
    "▁برجام": 618,
    "▁نوشته": 619,
    "▁قو": 620,
    "▁اینک": 621,
    "▁مراسم": 622,
    "▁برابر": 623,
    "▁این": 624,
    "▁رقابت": 625,
    "▁کامل": 626,
    "▁بررسی": 627,
    "▁شروع": 628,
    "▁میلادی": 629,
    "▁سیاست": 630,
    "▁فدراسیون": 631,
    "▁افت": 632,
    "▁کنار": 633,
    "▁دانشگاه": 634,
    "▁دهند": 635,
    "▁خر": 636,
    "▁لا": 637,
    "▁آمریکایی": 638,
    "▁گذاشت": 639,
    "▁دانش": 640,
    "▁نیاز": 641,
    "▁انگلیس": 642,
    "▁هسته": 643,
    "▁عراق": 644,
    "▁ویژ": 645,
    "▁ساعت": 646,
    "▁فعال": 647,
    "▁اسرائیل": 648,
    "▁کشتی": 649,
    "▁شر": 650,
    "▁حاضر": 651,
    "▁رهبر": 652,
    "▁نتیج": 653,
    "▁کمتر": 654,
    "▁نمایش": 655,
    "▁تعداد": 656,
    "▁سیاسی": 657,
    "▁۱۳۹": 658,
    "▁نهاد": 659,
    "▁کتاب": 660,
    "▁شناس": 661,
    "▁پرداخت": 662,
    "▁نگران": 663,
    "▁گذاری": 664,
    "▁خام": 665,
    "▁الله": 666,
    "▁ممکن": 667,
    "▁همکاری": 668,
    "▁طرف": 669,
    "▁خطر": 670,
    "▁ندارد": 671,
    "▁جنگ": 672,
    "▁واکنش": 673,
    "-": 674,
    "▁کنیم": 675,
    "▁اتفاق": 676,
    "▁خواند": 677,
    "▁تحقیق": 678,
    "▁خاطر": 679,
    "▁دنبال": 680,
    "▁شنبه": 681,
    "رونده": 682,
    "▁آورد": 683,
    "▁دریافت": 684,
    "▁نکرد": 685,
    "▁هدف": 686,
    "▁آژانس": 687,
    "▁حمایت": 688,
    "▁مادر": 689,
    "▁جایزه": 690,
    "▁عرض": 691,
    "▁آزمایش": 692,
    "▁طر": 693,
    "علی": 694,
    "▁ترکیه": 695,
    "▁رشد": 696,
    "▁جلو": 697,
    "▁صادرات": 698,
    "▁استقلال": 699,
    "▁ترامپ": 700,
    "▁بودجه": 701,
    "▁۲۰۲۰": 702,
    "▁انتشار": 703,
    "▁فرانسه": 704,
    "▁هواپیما": 705,
    "▁مرگ": 706,
    "▁دریا": 707,
    "▁۲۰۰": 708,
    "▁سپاه": 709,
    "▁نمایند": 710,
    "▁تعطیل": 711,
    "▁دقیق": 712,
    "▁هشدار": 713,
    "▁زبان": 714,
    "▁متهم": 715,
    "▁بشر": 716,
    "▁خبرگزا": 717,
    "▁رسد": 718,
    "▁انرژی": 719,
    "بدون": 720,
    "▁پیروز": 721,
    "▁محدودیت": 722,
    "▁کالا": 723,
    "▁افتاد": 724,
    "▁انداز": 725,
    "▁دیدار": 726,
    "▁عربستان": 727,
    "▁ابتلا": 728,
    "▁چنین": 729,
    "▁بازداشت": 730,
    "▁مذاکرات": 731,
    "▁۳۰": 732,
    ")": 733,
    "▁تاثیر": 734,
    "▁حکم": 735,
    "▁لیورپول": 736,
    "▁اتحاد": 737,
    "▁پرواز": 738,
    "▁هشت": 739,
    "▁تبدیل": 740,
    "▁تایید": 741,
    "▁توانست": 742,
    "▁تلویزیون": 743,
    "▁نامزد": 744,
    "▁حسن": 745,
    "▁قرارداد": 746,
    "▁میزان": 747,
    "▁۱۵": 748,
    "▁مشخص": 749,
    "▁چرا": 750,
    "▁قابل": 751,
    "▁محمو": 752,
    "▁کشته": 753,
    "▁چیز": 754,
    "▁(": 755,
    "ِ": 756,
    "▁بازگشت": 757,
    "▁ایجاد": 758,
    "▁صدا": 759,
    "▁خواهند": 760,
    "▁آسیا": 761,
    "▁انتقاد": 762,
    "▁خیل": 763,
    "▁دادگاه": 764,
    "▁مربوط": 765,
    "▁جریان": 766,
    "▁نهایی": 767,
    "▁دانست": 768,
    "▁سخت": 769,
    "▁۲۵": 770,
    "▁ابتدا": 771,
    "▁مبارز": 772,
    "▁عضو": 773,
    "▁چشم": 774,
    "▁نسبت": 775,
    "▁لغ": 776,
    "▁سرمربی": 777,
    "▁مبتلا": 778,
    "▁رکورد": 779,
    "▁نداشت": 780,
    "▁مخالف": 781,
    "▁جلس": 782,
    "▁انتخاب": 783,
    "▁فاصله": 784,
    "▁ایتالیا": 785,
    "▁روسیه": 786,
    "▁مجاز": 787,
    "خوان": 788,
    "▁خصوص": 789,
    "▁غرب": 790,
    "▁حکومت": 791,
    "▁احمد": 792,
    "▁آثار": 793,
    "▁صنعت": 794,
    "▁۱۲": 795,
    "▁موفق": 796,
    "▁ارتباط": 797,
    "▁داستان": 798,
    "▁دوبار": 799,
    "داشت": 800,
    "▁اتهام": 801,
    "▁ستار": 802,
    "▁نوشت": 803,
    "▁بیمارستان": 804,
    "▁اتمی": 805,
    "▁حرف": 806,
    "▁نقل": 807,
    "▁شناخت": 808,
    "▁۵۰": 809,
    "▁طلا": 810,
    "▁پلیس": 811,
    "▁اعضای": 812,
    "▁عمومی": 813,
    "▁کابل": 814,
    "▁مربی": 815,
    "▁سخن": 816,
    "▁امتیاز": 817,
    "▁سخنگوی": 818,
    "▁محکوم": 819,
    "▁معاون": 820,
    "▁نمایندگان": 821,
    "نشین": 822,
    "اخر": 823,
    "▁دختر": 824,
    "▁نبود": 825,
    "▁منابع": 826,
    "▁حذف": 827,
    "▁لندن": 828,
    "▁انتقال": 829,
    "▁بیانیه": 830,
    "▁انسان": 831,
    "▁همزمان": 832,
    "▁کووید": 833,
    "▁قدرت": 834,
    "▁کشید": 835,
    "▁پزشکی": 836,
    "▁نژاد": 837,
    "▁موارد": 838,
    "▁سطح": 839,
    "▁شامل": 840,
    "▁قرنطینه": 841,
    "أ": 842,
    "▁انقلاب": 843,
    "▁دفاع": 844,
    "▁نشست": 845,
    "▁فشار": 846,
    "▁صادر": 847,
    "▁خورد": 848,
    "▁المپیک": 849,
    "▁عالی": 850,
    "▁تحت": 851,
    "▁تنیس": 852,
    "▁صندوق": 853,
    "▁نقاش": 854,
    "▁چهر": 855,
    "▁مطرح": 856,
    "▁پاسخ": 857,
    "▁مسافر": 858,
    "▁انتظار": 859,
    "▁کوچک": 860,
    "▁معرف": 861,
    "▁گسترده": 862,
    "▁اظهار": 863,
    "▁امکان": 864,
    "▁پشت": 865,
    "▁تورم": 866,
    "▁مصاحبه": 867,
    "▁بحران": 868,
    "▁حساب": 869,
    "▁تماشا": 870,
    "▁ظریف": 871,
    "▁خوب": 872,
    "▁تصوی": 873,
    "▁خانم": 874,
    "▁اطلاع": 875,
    "▁حسین": 876,
    "▁متوقف": 877,
    "▁امضا": 878,
    "▁ممنوع": 879,
    "▁اسفند": 880,
    "▁جامعه": 881,
    "▁گیرد": 882,
    "▁مالک": 883,
    "▁ارائه": 884,
    "▁موسس": 885,
    "▁دونالد": 886,
    "▁نشر": 887,
    "▁بشک": 888,
    "▁طراح": 889,
    "▁فروردین": 890,
    "▁واحد": 891,
    "▁فینال": 892,
    "▁کیلومتر": 893,
    "▁۱۴۰۰": 894,
    "▁همچن": 895,
    "▁باشند": 896,
    "▁محدود": 897,
    "▁الکتریکی": 898,
    "▁قرن": 899,
    "▁روبرو": 900,
    "▁رقم": 901,
    "▁دوشنبه": 902,
    "▁جنسی": 903,
    "▁سراسر": 904,
    "▁ضرب": 905,
    "نجر": 906,
    "▁رانند": 907,
    "▁تشکیل": 908,
    "▁سیاه": 909,
    "▁مصوب": 910,
    "▁هنگام": 911,
    "▁ورود": 912,
    "▁۱۷": 913,
    "▁۱۱": 914,
    "▁اختلاف": 915,
    "▁اختیار": 916,
    "▁آسیب": 917,
    "▁محیط": 918,
    "▁کارشناس": 919,
    "▁افزود": 920,
    "▁خروج": 921,
    "▁چگون": 922,
    "▁سیستم": 923,
    "ً": 924,
    "▁قضایی": 925,
    "▁پژوهش": 926,
    "▁بتوان": 927,
    "حفظ": 928,
    "▁برخورد": 929,
    "▁انفجار": 930,
    "▁شجریان": 931,
    "▁تجاری": 932,
    "▁معمول": 933,
    "▁خودروساز": 934,
    "▁طبیع": 935,
    "▁امیدوار": 936,
    "▁قرمز": 937,
    "▁خبرنگار": 938,
    "▁پذیر": 939,
    "▁تجرب": 940,
    "▁بارسلونا": 941,
    "▁تقاضا": 942,
    "▁تاکید": 943,
    "▁کارگران": 944,
    "▁صحبت": 945,
    "▁۱۸": 946,
    "▁شاخص": 947,
    "▁شکایت": 948,
    "▁اسپانیا": 949,
    "▁متفاوت": 950,
    "▁منچستر": 951,
    "▁۱۴": 952,
    "محمد": 953,
    "▁ترتیب": 954,
    "▁مرتبط": 955,
    "▁کارگردان": 956,
    "▁شهروندان": 957,
    "▁غذا": 958,
    "▁میزبان": 959,
    "▁قوانین": 960,
    "▁لازم": 961,
    "▁ونزوئلا": 962,
    "▁ماسک": 963,
    "▁گذشت": 964,
    "▁درخواست": 965,
    "▁پروژه": 966,
    "▁مشترک": 967,
    "▁کنترل": 968,
    "▁صفح": 969,
    "▁عباس": 970,
    "▁بیرون": 971,
    "▁سقوط": 972,
    "▁خورشید": 973,
    "▁۱۶": 974,
    "▁توسعه": 975,
    "▁یکشنبه": 976,
    "▁طبق": 977,
    "▁استرالیا": 978,
    "▁نتایج": 979,
    "▁مصرف": 980,
    "▁فهرست": 981,
    "▁تهدید": 982,
    "▁بگیرد": 983,
    "▁قطر": 984,
    "▁مارادونا": 985,
    "▁چهارشنبه": 986,
    "▁همیشه": 987,
    "▁ادبی": 988,
    "▁نگهبان": 989,
    "▁ژاپن": 990,
    "▁کوتاه": 991,
    "▁روابط": 992,
    "▁نظیر": 993,
    "بنابر": 994,
    "▁سلامت": 995,
    "▁هواداران": 996,
    "▁تابستان": 997,
    "▁آماده": 998,
    "(": 999,
    "ئ": 1000
  }
}