ی	-3.17454
.	-3.43879
</s>	0
<unk>	0
ه	-3.64095
▁است	-4.10397
▁می	-4.21396
▁	-4.432
▁های	-4.61024
▁ایران	-4.68385
▁شده	-5.01996
،	-5.0591
▁سال	-5.17182
▁بود	-5.20587
▁یک	-5.21794
▁ها	-5.24685
▁شد	-5.28758
▁تصویر	-5.40273
▁کرده	-5.42817
▁ای	-5.43348
ان	-5.44093
▁کرد	-5.51209
ین	-5.58445
منبع	-5.58862
▁شود	-5.67718
▁بر	-5.69072
▁گفته	-5.69565
▁دو	-5.7679
▁کند	-5.77324
ش	-5.79464
؛	-5.80443
▁خود	-5.8095
▁اند	-5.84964
ت	-5.85714
▁کرونا	-5.86137
▁در	-6.0108
▁ماه	-6.04055
▁پیش	-6.0706
▁آمریکا	-6.08501
▁کشور	-6.08813
▁گزارش	-6.10139
▁روز	-6.10586
▁کار	-6.21883
▁م	-6.22828
م	-6.2441
▁بی	-6.25658
▁فوتبال	-6.26929
▁دارد	-6.28573
▁گفت	-6.31834
▁دهد	-6.31996
▁تیم	-6.32652
▁اعلام	-6.33407
▁کنند	-6.34599
▁بازی	-6.35342
▁دیگر	-6.35794
▁به	-6.36093
▁ا	-6.36702
ن	-6.37324
▁و	-6.37637
▁قرار	-6.38813
▁هزار	-6.4098
▁شرکت	-6.41165
▁دولت	-6.42635
▁دست	-6.43176
▁داده	-6.433
▁یا	-6.45059
▁رئیس	-6.47878
▁سه	-6.51185
▁جهان	-6.51445
▁با	-6.52246
▁بین	-6.53286
▁گذشته	-6.54188
▁خواهد	-6.56811
▁آقای	-6.57342
▁گوید	-6.57755
▁پس	-6.57912
▁هر	-6.58626
▁بار	-6.60868
ل	-6.61709
▁دربار	-6.63443
در	-6.64763
▁نفر	-6.66729
▁تهران	-6.66892
▁آنها	-6.68005
▁میلیون	-6.68217
▁دلیل	-6.70136
▁درصد	-6.70273
▁افزایش	-6.72127
▁چند	-6.73039
▁افغانستان	-6.73499
▁'	-6.74272
▁بعد	-6.74299
های	-6.74996
▁از	-6.75306
▁فیلم	-6.75945
'	-6.7596
ند	-6.76015
▁هفته	-6.76351
▁داد	-6.76898
این	-6.77689
▁حال	-6.79163
▁بوده	-6.79326
▁لیگ	-6.79348
▁نام	-6.8178
▁قیمت	-6.8221
▁بازار	-6.82292
▁جدید	-6.82401
س	-6.82636
:	-6.82696
▁دلار	-6.8298
ا	-6.83697
▁همچن	-6.84015
▁ملی	-6.84069
▁جهانی	-6.84911
▁یکی	-6.84927
▁خبر	-6.85406
▁نمی	-6.86378
▁سازمان	-6.86474
▁جمهوری	-6.87048
▁همه	-6.87057
▁ویروس	-6.87521
▁برگزار	-6.87618
▁هستند	-6.87812
د	-6.88266
▁مورد	-6.89578
▁تولید	-6.90187
▁عنوان	-6.90192
▁بزرگ	-6.90306
▁ترین	-6.91685
▁گرفته	-6.91764
▁باید	-6.9195
▁ف	-6.92038
▁نظر	-6.92228
▁بیشتر	-6.93473
ب	-6.93487
▁داشت	-6.93902
▁امروز	-6.94183
▁شدن	-6.94486
▁روی	-6.94737
▁نفت	-6.95017
▁کردند	-6.95116
▁بیش	-6.9665
▁مجلس	-6.97276
▁علی	-6.98361
ر	-6.98505
▁وزیر	-6.98934
▁شب	-6.98968
▁کاهش	-6.99371
ات	-6.99454
▁سر	-7.00353
▁نیست	-7.01148
▁خارج	-7.017
▁وزارت	-7.0193
▁چین	-7.02303
▁اروپا	-7.03475
▁بریتانیا	-7.03486
▁مقابل	-7.04385
▁اخیر	-7.0444
▁آغاز	-7.05409
▁نیز	-7.05415
▁بودند	-7.05824
▁حدود	-7.06015
ترین	-7.06133
▁سی	-7.06144
▁تر	-7.0631
▁نشان	-7.06842
▁را	-7.06866
▁ت	-7.06875
▁داشته	-7.0874
▁راه	-7.09198
ز	-7.10357
▁بانک	-7.10484
▁زمان	-7.1124
به	-7.11642
▁باشگاه	-7.11897
▁پایان	-7.12537
▁برنامه	-7.13585
▁حضور	-7.14047
▁باشد	-7.15064
▁اقتصادی	-7.15591
▁اول	-7.15747
▁انجام	-7.15866
▁منتشر	-7.16012
▁اساس	-7.16032
▁اش	-7.17759
▁واکسن	-7.17772
▁صورت	-7.18441
▁آن	-7.18846
▁اولین	-7.19214
▁باز	-7.19547
▁شهر	-7.19596
▁گل	-7.20321
که	-7.20692
▁تحریم	-7.21756
▁ب	-7.22702
دامه	-7.22966
▁استفاده	-7.23886
▁جمله	-7.24294
▁شیوع	-7.24502
▁شوند	-7.2469
▁میان	-7.25638
▁توافق	-7.26277
▁فصل	-7.26624
له	-7.26849
▁رسید	-7.26891
▁بخش	-7.26973
او	-7.27264
▁کم	-7.28309
▁گروه	-7.29083
آقای	-7.29763
▁شورا	-7.30408
▁زندگی	-7.30545
▁ایرانی	-7.30633
▁وجود	-7.31241
▁مسابقه	-7.31662
▁دی	-7.32435
▁میلیارد	-7.32435
▁ماشین	-7.33243
و	-7.33329
▁ارز	-7.34477
▁مسابقات	-7.34639
▁دارند	-7.34672
▁چهار	-7.34685
▁حقوق	-7.3473
▁مردم	-7.34752
▁همین	-7.35353
؟	-7.36015
گی	-7.36133
▁تمام	-7.37159
▁تومان	-7.37392
▁المللی	-7.37712
▁گیری	-7.37753
▁مقام	-7.38036
▁خواست	-7.38864
▁شدند	-7.39266
▁نزدیک	-7.40697
▁گرفت	-7.40853
▁تنها	-7.40991
▁غیر	-7.41229
▁وقت	-7.42204
▁تواند	-7.42431
▁جام	-7.42451
▁زنان	-7.42702
▁آینده	-7.43525
▁خانه	-7.44339
▁افراد	-7.44373
▁پ	-7.44935
ار	-7.45453
▁قبل	-7.45591
▁حالی	-7.45749
▁بیماری	-7.45782
▁وارد	-7.46314
▁نرخ	-7.46452
بدون	-7.46619
▁زیاد	-7.46704
▁هایی	-7.46787
▁بسیاری	-7.47442
▁اسلامی	-7.47582
▁۲۰	-7.47804
▁توان	-7.48189
▁گویند	-7.48553
▁برتر	-7.48566
▁کردن	-7.48605
▁شرایط	-7.48836
▁هیچ	-7.49112
▁دوران	-7.49223
▁فعالیت	-7.49383
▁اجتماعی	-7.4945
▁امسال	-7.49725
▁رسان	-7.49791
▁منبع	-7.50294
ها	-7.51872
شان	-7.51986
عث	-7.52083
▁محمد	-7.52132
▁انتخابات	-7.52203
▁تلاش	-7.5295
▁طور	-7.53082
▁تغییر	-7.53102
نوز	-7.5321
▁تازه	-7.53401
▁نه	-7.54139
▁مختلف	-7.54319
▁وضعیت	-7.54345
▁طرح	-7.54418
▁نخست	-7.5492
▁ولی	-7.5531
نه	-7.55354
قط	-7.55828
▁جان	-7.56347
▁مهم	-7.56696
▁سوی	-7.57005
▁کشورهای	-7.57161
▁زمین	-7.57582
▁فروش	-7.57928
▁تصمیم	-7.58004
▁روحانی	-7.58075
انه	-7.58602
▁قهرمان	-7.58839
▁برای	-7.59502
▁اقتصاد	-7.59927
▁بورس	-7.6044
▁خانواده	-7.60496
▁مدت	-7.60498
▁تاریخ	-7.60543
▁ریاست	-7.60757
▁پنج	-7.61349
▁کمک	-7.61436
▁دوم	-7.6158
▁حت	-7.61607
▁ساله	-7.61638
▁برابر	-7.61662
▁حالا	-7.62347
ثبت	-7.6241
▁درگذشت	-7.6243
▁بسیار	-7.62437
▁ن	-7.62486
▁ش	-7.62711
▁خودرو	-7.62985
یک	-7.632
▁اثر	-7.63476
▁پی	-7.63646
▁منطقه	-7.63693
▁مرکز	-7.64112
▁دهه	-7.64219
▁دوره	-7.6442
▁زن	-7.64469
▁مرکزی	-7.64822
▁ه	-7.6525
▁نقش	-7.65726
▁موسیقی	-7.65737
▁رسمی	-7.66053
▁پیدا	-7.663
▁آخر	-7.66732
▁سرمایه	-7.66746
▁همراه	-7.6697
▁برخ	-7.67479
شروع	-7.67679
▁پر	-7.67704
یت	-7.68352
▁س	-7.68363
نامه	-7.68375
▁آمار	-7.68375
▁کر	-7.68385
▁رقابت	-7.68655
▁بعضی	-7.68811
▁کنار	-7.69009
▁پول	-7.69474
▁عکس	-7.69692
▁۱۹	-7.69918
▁که	-7.70067
▁آمریکایی	-7.70141
▁قهرمانی	-7.70236
▁اینک	-7.70346
▁رسیده	-7.70349
▁نوشته	-7.70713
▁برجام	-7.70924
▁هسته	-7.7115
▁جمهور	-7.71305
▁اصلی	-7.71311
▁سفر	-7.71592
▁مراسم	-7.7266
▁اطلاعات	-7.72993
ک	-7.73179
▁دنیا	-7.73551
▁بالا	-7.73741
▁شکست	-7.73921
▁کل	-7.74036
▁نشده	-7.7418
▁بررسی	-7.74358
▁زیر	-7.74402
▁اعتراض	-7.74653
با	-7.74979
▁ویژ	-7.7519
▁دور	-7.7522
▁پرسپولیس	-7.75386
بر	-7.76085
▁ممکن	-7.76491
▁همکاری	-7.766
▁کمتر	-7.76708
▁توجه	-7.76815
▁استقلال	-7.77187
▁نتیج	-7.78202
گان	-7.78293
▁استان	-7.78599
▁۵	-7.78609
▁آزاد	-7.78757
▁کشتی	-7.79246
▁۱۰	-7.79256
▁اشار	-7.79394
▁شش	-7.79433
▁ساعت	-7.7964
▁دنبال	-7.7999
زاری	-7.801
▁حمله	-7.80302
▁آب	-7.8072
▁دانشگاه	-7.80733
▁جایزه	-7.81106
▁حاضر	-7.81449
▁عراق	-7.8145
▁حمایت	-7.81837
▁میلادی	-7.81997
▁رفت	-7.82151
▁او	-7.82329
▁این	-7.82343
▁یافته	-7.82604
▁واکنش	-7.82622
▁سیاسی	-7.82624
توسط	-7.8278
ور	-7.83457
▁پرداخت	-7.83593
▁خبرگ	-7.83655
▁ترکیه	-7.83822
▁۴	-7.83912
▁دریافت	-7.84093
▁بازیکن	-7.84468
▁فدراسیون	-7.848
ست	-7.85664
▁ده	-7.85789
▁آلمان	-7.85806
▁هم	-7.85942
▁الله	-7.86147
▁انتشار	-7.86845
▁مالی	-7.86889
▁دهند	-7.86964
▁کتاب	-7.87055
▁نیمه	-7.87138
▁۲	-7.87454
▁روند	-7.88052
▁خاطر	-7.88346
▁مدیر	-7.88348
▁سیاست	-7.88361
▁فرانسه	-7.88389
▁رشد	-7.88845
▁طی	-7.88888
▁انرژی	-7.89161
▁هدف	-7.90041
روز	-7.90058
▁مجموعه	-7.90342
▁رد	-7.90579
▁کمی	-7.90597
ِ	-7.90776
▁ندارد	-7.90777
▁عرض	-7.9079
▁ترامپ	-7.91192
▁مذاکرات	-7.91268
▁موضوع	-7.91529
▁بهداشت	-7.91582
▁شنبه	-7.91625
▁شمار	-7.91639
▁آژانس	-7.91655
▁اتحاد	-7.91688
▁گذاری	-7.91897
اکنون	-7.92034
▁کنیم	-7.92073
▁صد	-7.92961
)	-7.93669
▁سهام	-7.94096
▁۶	-7.94179
▁هشدار	-7.94359
▁رسد	-7.94529
▁سازی	-7.94833
▁ایجاد	-7.94955
▁آمده	-7.95055
▁خرید	-7.95162
▁اج	-7.95638
▁هفت	-7.95886
▁دیدار	-7.96199
▁مبارز	-7.96225
▁بازیکنان	-7.96293
▁آی	-7.96474
▁کشته	-7.96512
▁سابق	-7.96627
نی	-7.96689
▁خواهند	-7.96691
گیری	-7.96925
▁مربوط	-7.97089
▁متهم	-7.97104
▁طر	-7.97391
▁آزمایش	-7.97502
▁عربستان	-7.97538
▁چنین	-7.97545
▁یافت	-7.97691
یق	-7.9793
▁خام	-7.97968
▁رهبر	-7.98269
▁۲۰۲۰	-7.98413
▁بودجه	-7.98481
▁نامه	-7.98745
▁تایید	-7.9885
▁اقدام	-7.99034
کسب	-7.99198
▁(	-7.99331
▁تلویزیون	-7.99722
▁مرگ	-7.99849
▁زبان	-8.00222
رونده	-8.00454
▁نیاز	-8.00675
▁دادگاه	-8.00824
▁محل	-8.01068
▁اجرای	-8.01261
▁همان	-8.01488
▁پیروز	-8.0163
خانه	-8.01732
▁بازداشت	-8.02011
▁مرد	-8.02025
▁انسان	-8.02115
▁قهرمانان	-8.02181
از	-8.02454
▁بهتر	-8.02465
▁قابل	-8.02632
▁ورزش	-8.02868
▁بیمارستان	-8.02891
▁خارجی	-8.02925
▁ر	-8.02952
▁فاصله	-8.03113
▁حسن	-8.03158
▁نا	-8.03198
▁نهایی	-8.03395
▁دیده	-8.035
▁رو	-8.03575
▁تاثیر	-8.03708
▁خیل	-8.03801
▁۳	-8.03864
▁میزان	-8.03874
▁جنوبی	-8.03899
ال	-8.04053
یم	-8.04081
ازه	-8.04482
▁زده	-8.04492
▁خط	-8.0492
▁ساخت	-8.05403
▁ام	-8.05771
▁معاون	-8.05833
▁مشخص	-8.06113
▁تبدیل	-8.06157
▁قانون	-8.06243
▁ابتلا	-8.06292
▁سوم	-8.06491
▁جریان	-8.06638
▁مدل	-8.06735
▁درآمد	-8.0712
▁حکومت	-8.07608
▁زندان	-8.07928
▁محدودیت	-8.0796
▁صنعت	-8.08109
▁جلو	-8.08112
▁بشر	-8.08246
▁انگلیس	-8.08305
▁جو	-8.08348
▁تو	-8.08434
▁نمایش	-8.08525
▁لندن	-8.08562
▁آسیا	-8.08796
▁کس	-8.08855
▁تعطیل	-8.0945
▁زمینه	-8.09513
▁طول	-8.09535
▁منابع	-8.09621
▁شناخت	-8.09745
▁عضو	-8.10084
▁دولتی	-8.107
▁زمانی	-8.10823
▁امنیت	-8.1088
▁بازگشت	-8.109
▁تعداد	-8.10925
▁نگاه	-8.1113
▁آثار	-8.11183
▁نامزد	-8.1136
▁سالگی	-8.11753
▁رود	-8.11788
▁حکم	-8.1182
▁ساخته	-8.11837
▁تح	-8.1188
▁رای	-8.12286
▁صادرات	-8.12507
▁سرمربی	-8.12554
▁بیانیه	-8.12587
▁چیز	-8.12875
▁کننده	-8.12959
▁سطح	-8.1305
▁طرف	-8.13111
سیون	-8.13419
▁خطر	-8.13547
▁نمایند	-8.1356
▁کابل	-8.13562
▁چرا	-8.13615
▁جنگ	-8.1392
▁پلیس	-8.14259
▁روسیه	-8.14398
▁اتمی	-8.14583
▁نمایندگان	-8.14707
▁سخنگوی	-8.14865
▁دوبار	-8.1497
▁اعضای	-8.15088
▁لیورپول	-8.15724
▁برد	-8.15871
▁همزمان	-8.15926
طرح	-8.15972
▁سو	-8.1647
▁آ	-8.16524
▁عمومی	-8.16645
▁انتخاب	-8.1667
▁نقل	-8.16744
▁بست	-8.16801
▁شکل	-8.16805
▁تع	-8.16824
▁۲۰۰	-8.17064
▁سن	-8.17369
▁انقلاب	-8.17728
▁رکورد	-8.18113
▁نیم	-8.18132
▁جلس	-8.1818
▁بالای	-8.18332
▁ترک	-8.18337
▁اسرائیل	-8.18445
▁۲۵	-8.18451
▁پخ	-8.18492
۰۰	-8.18716
▁قرنطینه	-8.1883
▁ارزش	-8.19141
▁نسبت	-8.19265
▁۳۰	-8.19289
▁المپیک	-8.19358
▁جاری	-8.19369
▁تن	-8.19637
▁سپاه	-8.20019
▁امنیتی	-8.20067
▁گاز	-8.20116
▁سخت	-8.20236
▁کامل	-8.20343
▁برق	-8.20894
▁لغو	-8.20986
▁تنیس	-8.21033
▁گرفتن	-8.2176
▁شدید	-8.21852
چه	-8.21949
▁افت	-8.22202
▁ظریف	-8.22665
▁حرکت	-8.22673
▁نشست	-8.23121
▁ج	-8.24181
▁مرح	-8.24365
▁سابقه	-8.24455
ف	-8.24837
▁ارائه	-8.24914
▁سینما	-8.25021
ون	-8.25077
▁برنده	-8.25367
▁بایدن	-8.25473
▁آیا	-8.25493
▁گسترده	-8.255
▁متحده	-8.25573
▁هوای	-8.25634
▁پزشکی	-8.25861
▁چهر	-8.25876
▁ح	-8.25935
▁امور	-8.2613
▁توانست	-8.26184
▁روزهای	-8.26905
دی	-8.27049
▁امتیاز	-8.27136
▁فشار	-8.27218
▁نوشت	-8.27298
▁تورم	-8.27311
▁بخشی	-8.27549
▁انتقال	-8.2775
-	-8.27777
▁نگرانی	-8.27958
▁معرف	-8.28424
▁طراح	-8.28477
۸	-8.28554
▁نکرده	-8.28679
الات	-8.28728
▁هند	-8.28787
▁پاسخ	-8.29034
▁نوع	-8.29064
▁دانست	-8.29107
▁۱۲	-8.29299
▁هز	-8.29551
▁جای	-8.29841
▁کشید	-8.29968
▁جدی	-8.30115
▁متوقف	-8.30209
▁خوب	-8.30217
▁دادن	-8.30449
▁نو	-8.30627
▁کسان	-8.30783
▁عالی	-8.30817
▁اتفاق	-8.30835
مین	-8.3095
▁قو	-8.31032
▁چشم	-8.31214
▁۱۵	-8.31216
▁نظامی	-8.31409
▁بحران	-8.31465
▁ورود	-8.3148
▁جامعه	-8.31585
▁داخل	-8.31594
▁داستان	-8.3165
▁فرهنگی	-8.31675
▁آزادی	-8.31731
اما	-8.31739
▁خانم	-8.31948
▁دار	-8.31959
▁مصاحبه	-8.3205
▁مشکلات	-8.32117
▁قطع	-8.32182
▁رفته	-8.32314
▁گو	-8.32605
▁دستگاه	-8.32843
نگ	-8.32978
▁بلند	-8.33146
▁بشک	-8.33309
▁جا	-8.33529
▁گذاشته	-8.33582
▁خودش	-8.33657
▁چهارم	-8.33782
▁باشند	-8.33906
▁انتظار	-8.34639
▁فن	-8.34645
▁کلی	-8.3494
▁ارتباط	-8.3507
▁ورزشی	-8.35161
▁چ	-8.35231
▁شدت	-8.35243
▁دیگری	-8.35385
▁اسفند	-8.35812
▁کودکان	-8.36072
▁نهاد	-8.36216
▁داشتند	-8.36319
▁محکوم	-8.36382
▁فینال	-8.36444
▁سیستم	-8.36469
▁هنگام	-8.36491
▁عد	-8.36613
▁فرهنگ	-8.36823
۴	-8.36901
▁رقم	-8.37107
▁الکتریکی	-8.37129
▁۱۴۰۰	-8.37145
▁مارادونا	-8.37154
▁موسس	-8.37193
▁آبان	-8.37201
▁وی	-8.37431
▁نبود	-8.37588
▁مسئولان	-8.37601
▁فروردین	-8.37736
▁۲۰۱۹	-8.37756
▁چگون	-8.37762
▁ورزشگاه	-8.37799
▁آنچ	-8.37804
▁صندوق	-8.37824
▁قدرت	-8.37861
▁فعال	-8.37902
▁۷	-8.38142
▁پیشین	-8.3818
▁موج	-8.38369
▁مانده	-8.38421
▁تحقیقات	-8.38566
ستاد	-8.38761
▁انتقاد	-8.38783
▁تاریخی	-8.38863
▁ایتالیا	-8.38944
▁کووید	-8.39044
▁قرارداد	-8.39044
▁مصوب	-8.39048
▁بارسلونا	-8.39084
۵	-8.39332
▁تحقیق	-8.39433
▁فارسی	-8.39477
▁داخلی	-8.39547
▁جنوب	-8.4027
▁تصوی	-8.40272
▁اتهام	-8.40313
▁اروپایی	-8.40383
▁ال	-8.40655
▁۱	-8.40833
▁شامل	-8.40987
گاه	-8.41165
▁یع	-8.41211
▁جمعیت	-8.41266
▁آمد	-8.41538
▁بودن	-8.4164
▁دوشنبه	-8.41735
▁بتوان	-8.41741
▁اسکار	-8.41762
▁سیاه	-8.41913
▁مربی	-8.41977
▁مرغ	-8.42031
▁فکر	-8.42377
▁۹	-8.42379
▁یاد	-8.42418
▁نیروهای	-8.42508
ج	-8.42856
▁طولانی	-8.43114
▁دونالد	-8.43182
▁۱۳	-8.43428
▁ستار	-8.43614
▁روزنامه	-8.4367
▁مبتلا	-8.43765
▁قرن	-8.43828
▁معاملات	-8.43833
▁گیرد	-8.43839
▁نفتی	-8.43944
▁تک	-8.44341
▁شهرهای	-8.44409
▁کنید	-8.44496
▁اف	-8.44877
▁محیط	-8.45176
▁ناشی	-8.45195
▁خروج	-8.45203
▁دادند	-8.45213
▁سایر	-8.45265
▁دقیقه	-8.45269
ده	-8.45275
▁ماسک	-8.45287
وز	-8.4543
▁تشکیل	-8.45776
▁جشنواره	-8.45933
▁پشت	-8.46021
▁۲۲	-8.46279
▁قبلی	-8.46531
ینه	-8.46544
▁بینی	-8.46588
▁شکایت	-8.46625
▁هنر	-8.4667
▁دستور	-8.46998
▁امکان	-8.47209
▁مشکل	-8.47217
▁غنی	-8.47308
▁اجرا	-8.47408
▁پای	-8.47431
▁درمان	-8.47506
▁ممنوع	-8.47621
۲	-8.47634
▁شان	-8.47693
▁کارگران	-8.47714
▁شجریان	-8.48019
▁احتمال	-8.48029
▁پروژه	-8.48051
▁طبق	-8.48222
ایی	-8.48363
▁حساب	-8.48461
▁دسترس	-8.48479
▁هنری	-8.48764
سی	-8.48786
▁تامین	-8.48823
▁تجاری	-8.48829
▁ملل	-8.48849
ویه	-8.48881
▁محدود	-8.49474
▁سریال	-8.49502
▁واحد	-8.4957
▁تاکید	-8.50216
▁نویسنده	-8.50217
▁قوانین	-8.50227
▁کنم	-8.50353
▁فضای	-8.50548
▁نیروی	-8.50735
▁آسیب	-8.5095
▁بالاتر	-8.50983
▁محلی	-8.51076
▁علت	-8.51092
▁شاخص	-8.51158
▁واردات	-8.51236
▁متفاوت	-8.517
▁باقی	-8.51704
▁ضرب	-8.51849
▁۸	-8.51916
▁ان	-8.52136
لق	-8.52445
▁کنترل	-8.52462
▁درخواست	-8.52519
▁عامل	-8.52549
▁آورد	-8.52662
▁کارگردان	-8.52879
▁ابتدای	-8.53137
▁رنگ	-8.53216
▁نخواه	-8.53807
▁۱۱	-8.53921
▁مشترک	-8.53969
▁سنت	-8.54122
▁سیتی	-8.54398
▁۶۰	-8.54415
▁مسی	-8.54548
لی	-8.54627
▁ترتیب	-8.54738
▁آتش	-8.54763
▁تجرب	-8.5477
▁سوخت	-8.54774
▁رشت	-8.54896
▁شماری	-8.54988
▁چپ	-8.55019
▁قرمز	-8.55133
▁اولیه	-8.55176
▁کوچک	-8.55223
▁مسیر	-8.55393
▁فعالان	-8.55398
▁نگهبان	-8.55514
▁فهرست	-8.55518
▁ونزوئلا	-8.55518
▁صحبت	-8.55528
▁علاو	-8.55667
▁نقاشی	-8.55679
ری	-8.55829
▁بندی	-8.55848
▁تهدید	-8.56009
▁بد	-8.56048
▁گذشت	-8.56143
▁اختیار	-8.56212
▁آوریل	-8.56384
▁عباس	-8.56536
▁پایین	-8.56722
▁زد	-8.56722
▁شما	-8.56734
▁وین	-8.56821
سازی	-8.56859
▁چهارشنبه	-8.57084
▁یکشنبه	-8.57121
▁کوتاه	-8.57152
▁۴۰	-8.57464
▁حذف	-8.57756
▁روبرو	-8.57838
▁همیشه	-8.57876
▁خون	-8.57997
▁بنزین	-8.58141
ع	-8.58341
▁متر	-8.58479
پس	-8.58517
▁موارد	-8.5856
▁احمد	-8.58592
▁اعدام	-8.58676
▁مواد	-8.58711
▁جمعه	-8.58778
طور	-8.59102
▁هرات	-8.59376
▁نژاد	-8.59394
▁زاده	-8.59479
▁مسئول	-8.59484
▁بیرون	-8.59528
۷	-8.59529
▁ترکیب	-8.59539
▁صفح	-8.597
▁محمود	-8.59828
▁عمل	-8.60116
▁۵۰	-8.60287
▁روابط	-8.60401
ید	-8.60403
▁صادر	-8.60865
▁سراسر	-8.61049
بی	-8.61057
▁بگیرد	-8.61121
▁توپ	-8.61144
▁اتاق	-8.61145
▁رییس	-8.61163
▁چاپ	-8.61179
▁۱۴	-8.61281
▁شهروندان	-8.6138
▁شناسا	-8.61435
▁فرد	-8.61476
▁میزبان	-8.61666
▁حل	-8.61696
حفظ	-8.61936
▁آرژانتین	-8.61957
▁سمت	-8.62035
▁خصوصی	-8.62113
▁جز	-8.62359
گر	-8.62438
▁احتمالا	-8.6257
▁حرفه	-8.62597
براز	-8.62632
▁خوزستان	-8.62775
▁مرتبط	-8.62776
▁نقطه	-8.62778
▁آستان	-8.62797
▁هوا	-8.62935
▁جمع	-8.63049
▁قطر	-8.63066
▁خوانده	-8.63224
▁امضا	-8.63548
▁احیا	-8.6362
▁کیلومتر	-8.63678
▁سرعت	-8.63728
▁بدن	-8.63802
وق	-8.6417
▁اختلاف	-8.64389
▁گون	-8.64389
▁هشت	-8.64396
▁ولایت	-8.64468
▁انفجار	-8.64478
▁سلامت	-8.64483
▁دفاع	-8.64547
▁بارها	-8.64561
▁نظام	-8.64589
▁غرب	-8.646
▁ژان	-8.64628
▁هایش	-8.64632
▁قصد	-8.64825
▁اندازه	-8.64903
اساس	-8.64968
▁د	-8.65105
▁اخیرا	-8.65115
▁کالا	-8.65224
▁مصرف	-8.65429
▁مارس	-8.65527
▁برده	-8.65863
▁بیست	-8.65919
▁بازیگر	-8.6606
▁موفق	-8.6613
▁شاهد	-8.66204
▁سقوط	-8.66206
▁سرطان	-8.66249
▁۱۶	-8.66367
▁شاید	-8.66374
▁تاکنون	-8.6644
ق	-8.66509
▁نتایج	-8.67129
وی	-8.67222
▁جهش	-8.67231
▁کاملا	-8.67248
رفع	-8.67399
▁افتاد	-8.67635
▁لازم	-8.6793
▁معروف	-8.67942
۳	-8.67962
▁توییتر	-8.68028
ره	-8.68083
▁روشن	-8.68169
▁هواپیمایی	-8.68396
▁۱۷	-8.68654
▁فرصت	-8.68864
▁هواداران	-8.68929
▁کنندگان	-8.69183
▁پیشنهاد	-8.69571
▁ندارند	-8.69703
▁مناطق	-8.6971
▁اعمال	-8.6972
▁تقریبا	-8.69726
▁تجارت	-8.69729
▁پارسال	-8.69729
▁اطلاع	-8.69951
▁دارایی	-8.69958
▁واقع	-8.69994
▁گفتگو	-8.69999
▁نهادهای	-8.70099
▁شمال	-8.7026
▁مشهور	-8.70333
▁مرز	-8.7052
▁ماند	-8.70564
▁دهم	-8.70617
▁آماده	-8.70825
▁اداره	-8.70986
▁قانونی	-8.71102
▁تهی	-8.71189
▁رسیدن	-8.71319
▁استرالیا	-8.71423
▁ایمن	-8.71464
▁تجمع	-8.71492
▁افغان	-8.71506
▁نظیر	-8.71514
▁بریتانیایی	-8.71553
اخر	-8.71667
▁پاریس	-8.71759
▁کارگر	-8.7231
▁رعایت	-8.72437
▁باخت	-8.72451
▁یورو	-8.72678
▁رفتن	-8.72889
▁طلا	-8.72995
▁مذاکر	-8.7327
▁حادثه	-8.73397
▁۹۸	-8.73415
▁دلایل	-8.73431
▁عملیات	-8.73432
▁اقدامات	-8.73551
▁صفر	-8.73562
▁اعتراضات	-8.73633
▁تابستان	-8.73798
▁سنگ	-8.74012
▁مهر	-8.74031
▁رساند	-8.74066
▁۱۸	-8.741
▁توسعه	-8.74298
▁۲۰۲۱	-8.74312
▁عملکرد	-8.74334
▁اوپک	-8.7437
▁تصاویر	-8.7439
▁مردان	-8.74535
▁حد	-8.7484
▁خودروساز	-8.74867
اس	-8.74934
تر	-8.74977
▁پژوهش	-8.75089
▁منتق	-8.75106
▁پرواز	-8.75121
▁انگیز	-8.75178
▁مقایس	-8.75237
▁قلب	-8.75249
▁بحرین	-8.75262
▁کمیت	-8.75366
▁سود	-8.75712
▁زنده	-8.75768
▁فضایی	-8.75886
▁مل	-8.75892
▁رانند	-8.76152
▁تاجیکستان	-8.76192
▁دومین	-8.76205
▁کشف	-8.76233
▁مالیات	-8.76255
▁یونایتد	-8.76311
▁من	-8.77011
علی	-8.77048
▁مواجه	-8.77125
▁پایتخت	-8.77149
▁کن	-8.77311
▁خواننده	-8.77483
▁تاج	-8.77521
حه	-8.77774
▁پل	-8.77925
▁محمو	-8.78022
▁حق	-8.78059
▁برخورد	-8.78099
▁بخوانید	-8.78121
▁سفید	-8.78132
▁توصیف	-8.78138
▁فوت	-8.78219
▁نشد	-8.78479
▁اس	-8.78501
۶	-8.78723
▁مت	-8.78832
▁پور	-8.7905
▁واکسین	-8.79101
▁کاخ	-8.79168
نجر	-8.79487
▁سنگین	-8.79516
▁مجموع	-8.79534
▁۵۰۰	-8.79603
▁مد	-8.79777
▁بیکار	-8.79791
▁گروهی	-8.79925
▁موفقیت	-8.80158
▁خواهان	-8.80239
▁مانع	-8.80265
▁سریع	-8.80465
▁جنسی	-8.80611
▁تا	-8.80773
▁مشغول	-8.8109
▁مجدد	-8.81091
▁مشابه	-8.81152
▁صدا	-8.81333
▁سایت	-8.81383
▁گاه	-8.81597
▁خصوص	-8.81676
▁۲۰۱	-8.81897
▁لای	-8.81922
▁زیست	-8.81944
▁کنون	-8.8206
▁خاک	-8.82102
▁بهبود	-8.82125
▁کانال	-8.82152
▁کدام	-8.8236
▁روش	-8.82505
▁سوار	-8.82603
▁اسپانیا	-8.83068
نمایی	-8.83104
▁نظارت	-8.83121
▁مجبور	-8.83121
▁مجوز	-8.83133
▁گردد	-8.83157
▁حوز	-8.83173
▁گمرک	-8.83191
▁موافقت	-8.83231
مان	-8.83253
▁برسد	-8.83432
▁تغییرات	-8.83479
▁شاه	-8.8371
ایران	-8.83729
▁کشورها	-8.83932
ح	-8.84044
▁موزه	-8.8416
▁پیام	-8.84183
▁رکود	-8.84209
▁صدای	-8.84241
▁نسل	-8.84269
▁رمان	-8.84403
▁عمده	-8.84419
▁آید	-8.84572
ام	-8.8465
▁خالی	-8.85
▁محروم	-8.85054
عده	-8.85083
▁نگران	-8.85092
▁مه	-8.85163
▁عبور	-8.85217
▁فدرر	-8.85343
▁گذاشت	-8.85432
▁خواند	-8.85536
ممنوعیت	-8.85773
▁گذار	-8.86052
▁مستند	-8.86126
▁سفیر	-8.8631
▁نفتکش	-8.86319
▁بحث	-8.86363
▁رفتار	-8.86363
▁چلسی	-8.8637
▁۱۰۰	-8.86387
▁ابتدا	-8.86426
▁درواز	-8.8662
▁پدر	-8.86687
کس	-8.86828
▁خبرنگار	-8.86893
محمد	-8.87138
▁اضاف	-8.87283
▁ظرف	-8.8731
▁دچار	-8.87311
▁طبیعی	-8.8733
▁جدول	-8.87343
▁فساد	-8.87343
▁افتاده	-8.8739
▁تماشاگر	-8.87413
▁تی	-8.87513
▁مادر	-8.87522
▁واقعی	-8.87737
▁علمی	-8.87799
▁بیشتری	-8.87922
▁برداشت	-8.87994
وایل	-8.88137
▁پنجم	-8.88305
▁مجازی	-8.88307
▁حداقل	-8.88385
▁ژوئن	-8.88385
▁یابد	-8.88394
▁بال	-8.885
▁تاتنهام	-8.88512
▁بهمن	-8.88519
▁دریا	-8.88557
عودی	-8.88576
▁ک	-8.88578
▁پیشتر	-8.89048
▁خودروهای	-8.8908
▁ایالت	-8.89219
▁میدان	-8.89246
▁بستر	-8.89393
▁زخم	-8.89472
▁بن	-8.89478
▁اینترنت	-8.89481
▁منچستر	-8.89501
▁ارشد	-8.89502
می	-8.89563
▁احمدی	-8.89675
▁بازارهای	-8.90096
▁عهد	-8.90096
▁مک	-8.90124
▁درست	-8.90248
▁۲۳	-8.90604
▁جشن	-8.90619
▁دارو	-8.90628
▁دنیای	-8.90632
▁دفتر	-8.90707
▁بهار	-8.90816
▁کاری	-8.90882
▁مغز	-8.90988
▁جنگل	-8.91124
دو	-8.91207
▁حریف	-8.91286
▁وضع	-8.91625
▁حسین	-8.92062
▁۲۴	-8.92142
▁جدا	-8.92592
▁شعر	-8.92772
▁مادرید	-8.92858
▁مجله	-8.92887
▁لو	-8.9312
▁فارس	-8.93236
▁۹۰	-8.93269
▁رخ	-8.93449
▁کودک	-8.93481
▁پروازهای	-8.93768
۱	-8.93947
▁۱۳۹۹	-8.93969
▁-	-8.94026
▁قدیمی	-8.94166
ستان	-8.94236
▁ژاپن	-8.94367
▁کارشناسان	-8.94381
▁یو	-8.94391
▁امیدوار	-8.94538
▁سینمایی	-8.94608
وم	-8.94649
▁اورا	-8.94684
▁نشری	-8.94697
▁بنز	-8.9486
▁فنی	-8.94904
▁توضیح	-8.94997
▁صبح	-8.951
▁هدایت	-8.95113
▁پوند	-8.9516
▁دوست	-8.95226
▁تخم	-8.95267
▁حرف	-8.9558
▁سوئیس	-8.9561
▁پا	-8.95656
▁سعید	-8.9567
▁گوش	-8.95844
▁گر	-8.95919
▁دختر	-8.96099
▁خورد	-8.96253
▁حزب	-8.96262
▁معتقد	-8.96262
▁رابطه	-8.96278
▁عدالت	-8.96279
▁امیر	-8.96281
▁پاسداران	-8.96293
▁مهد	-8.96387
▁زدن	-8.96447
▁امید	-8.96622
▁سکه	-8.96725
▁موجود	-8.96757
تبه	-8.96919
▁تورنمنت	-8.9743
▁نقاط	-8.97431
▁کارکنان	-8.97439
▁قاچاق	-8.97453
▁اوراق	-8.97456
▁موجب	-8.97608
▁مخالفت	-8.97615
اسیون	-8.97737
▁ناز	-8.97842
▁۲۸	-8.97866
نیوم	-8.9796
▁اوت	-8.98008
ای	-8.98069
بیشتر	-8.98388
▁روزانه	-8.98548
▁انگلستان	-8.98624
▁اردیبهشت	-8.98629
▁سرشناس	-8.98632
۰	-8.98636
▁مقررات	-8.98639
▁ملت	-8.98701
▁ضد	-8.9871
▁بیمار	-8.9891
▁راست	-8.98924
▁سوریه	-8.98974
▁دید	-8.99035
▁شرق	-8.99053
▁صدر	-8.991
▁بیت	-8.99178
ریمه	-8.99319
▁منف	-8.99417
▁تقوی	-8.99636
▁دکتر	-8.99732
▁دین	-8.99744
▁ارتش	-8.99891
▁اظهارات	-8.99895
▁مکان	-8.99969
▁نویس	-8.99975
▁استاد	-9.00114
▁بنا	-9.00126
▁ریز	-9.00444
▁ماهه	-9.00526
▁دقیق	-9.00852
▁سند	-9.00909
▁فرستاد	-9.00941
▁فراهم	-9.01052
▁آلبوم	-9.01055
▁قتل	-9.01069
▁جنجال	-9.01114
▁همسر	-9.01496
▁کارهای	-9.01575
▁ترانه	-9.01625
▁چه	-9.01648
▁چندان	-9.01672
▁جایی	-9.0169
▁آموزش	-9.01875
▁آوری	-9.01938
▁زود	-9.02111
▁قضایی	-9.02142
▁احساس	-9.02211
▁ظاهر	-9.02272
▁قضائیه	-9.0228
▁تشخیص	-9.02281
▁بایرن	-9.02298
▁دانند	-9.02338
▁پوست	-9.02338
▁ساختمان	-9.0236
▁هستیم	-9.02402
▁امام	-9.02475
فورد	-9.02496
۹	-9.02585
وس	-9.02649
▁گستر	-9.02703
▁دانشمندان	-9.02813
پ	-9.02879
▁هنرمند	-9.03125
▁وابست	-9.03531
▁جزئیات	-9.0358
▁معادل	-9.03584
▁دل	-9.03593
▁نور	-9.03627
▁۲۱	-9.03769
▁علیرضا	-9.03862
▁آورده	-9.04031
▁قبلا	-9.04105
▁فرمو	-9.04132
▁آل	-9.04219
▁زنی	-9.04241
▁مثبت	-9.04348
وید	-9.04482
▁ارزی	-9.04559
یابی	-9.04589
ازگی	-9.04609
▁نداشته	-9.04646
▁حب	-9.04649
▁روایت	-9.04696
▁فیفا	-9.04837
▁رونالدو	-9.04855
▁سخنران	-9.04883
چند	-9.0497
▁وزن	-9.05022
یست	-9.05545
▁متع	-9.05638
▁غربی	-9.05909
▁اقیانوس	-9.05971
▁مستقیم	-9.0598
▁زاغری	-9.06078
▁استقبال	-9.06078
▁هوشمند	-9.06081
▁علاقه	-9.06087
▁تزریق	-9.06102
▁عجیب	-9.06105
▁جوان	-9.06111
▁دوربین	-9.06114
▁کمبود	-9.06121
▁رویترز	-9.06166
▁تیراندازی	-9.06291
▁کالاهای	-9.06325
▁زندانی	-9.06332
▁تعدادی	-9.0655
▁دریایی	-9.06565
▁چک	-9.06686
▁سینمای	-9.07043
▁مالک	-9.07213
یا	-9.07289
قیف	-9.07331
▁مسکن	-9.0738
▁مسدود	-9.07385
▁خانگی	-9.07415
▁تماس	-9.0742
▁دبیر	-9.07435
▁خدمات	-9.07453
▁مرداد	-9.07457
▁سفارت	-9.07466
▁نمو	-9.07587
▁مدیریت	-9.07629
▁قطعی	-9.07643
▁شخصیت	-9.07676
▁افزوده	-9.0769
▁مقامات	-9.07986
▁بنابر	-9.0799
▁خورشیدی	-9.08019
▁انگلیسی	-9.0808
▁دریای	-9.08087
دار	-9.08167
▁ما	-9.0822
کنندگان	-9.08235
▁شخصی	-9.08342
▁نهایت	-9.08587
▁قدم	-9.08591
▁فوری	-9.08647
▁پیشرفت	-9.08676
▁ژوئیه	-9.08692
▁قسمت	-9.0875
▁اخراج	-9.08792
▁خواهیم	-9.08808
▁محمدرضا	-9.08845
▁اجرایی	-9.09219
▁ساز	-9.0922
▁صحنه	-9.09364
▁متوسط	-9.09395
▁گ	-9.09581
▁پذیر	-9.09588
▁آلمانی	-9.0959
▁محصولات	-9.09766
▁گرفتند	-9.09766
▁بهداشتی	-9.10126
▁اوج	-9.10154
▁داریم	-9.10204
▁فعلی	-9.10369
▁بیماران	-9.10513
اوری	-9.1059
▁بازرگانی	-9.10686
▁رضا	-9.10824
▁هیا	-9.11047
▁غذا	-9.1109
▁توصی	-9.11351
▁فوریه	-9.1136
▁دوچرخه	-9.11377
▁مدعی	-9.11382
▁مدافع	-9.11406
▁طالبان	-9.11436
▁موقت	-9.1147
توجه	-9.11525
▁معترضان	-9.11554
▁آبی	-9.11746
▁پرو	-9.11749
▁مهار	-9.11751
▁هاست	-9.1195
▁سرخ	-9.1214
▁گرم	-9.12225
▁معنای	-9.12236
▁پیوست	-9.1243
▁ع	-9.12545
▁العاده	-9.12747
▁خرداد	-9.12752
▁معتبر	-9.12756
▁لحظ	-9.12762
▁صعود	-9.1277
▁موقعیت	-9.12781
▁رئال	-9.1279
▁جوایز	-9.1279
▁مجید	-9.1282
▁فرمانده	-9.12822
▁دانش	-9.12825
نقض	-9.12849
▁کوین	-9.12849
▁معمولا	-9.12851
▁حداکثر	-9.12858
▁کاربران	-9.12885
فدراسیون	-9.12911
غلب	-9.12975
▁ناظر	-9.12995
لو	-9.13197
▁ذخ	-9.13279
▁نداشت	-9.13822
اب	-9.13829
▁گران	-9.13904
▁ارسال	-9.14138
▁نشود	-9.14139
▁مبلغ	-9.14145
▁نوامبر	-9.14155
▁۲۰۱۷	-9.1417
▁مبتلایان	-9.14172
▁تقاضا	-9.14177
▁سیستان	-9.14243
▁۳۵	-9.14435
▁صوتی	-9.14471
کش	-9.14567
حسین	-9.14584
▁اساسی	-9.14642
▁۷۰	-9.14705
▁دستگیر	-9.15502
▁نقدینگی	-9.15545
▁مطالع	-9.15547
▁بلوچستان	-9.15547
▁پاکستان	-9.15556
▁مراجع	-9.15559
▁پنجشنبه	-9.15592
▁سوال	-9.15597
▁تخریب	-9.15606
▁اسطوره	-9.1564
مقام	-9.15654
▁غذای	-9.15702
▁مدیران	-9.15723
▁هموار	-9.15742
▁۳۰۰	-9.16231
▁۹۹	-9.1629
▁۳۱	-9.16436
▁فرزند	-9.16452
▁۲۶	-9.16564
▁درآمدهای	-9.16574
▁شهروند	-9.16612
▁جمعی	-9.16614
▁دما	-9.1672
▁اصلاح	-9.16775
▁صنایع	-9.16983
▁مسلح	-9.17
▁خلق	-9.1701
▁فایل	-9.17023
▁نیویورک	-9.17053
▁مجری	-9.17062
▁ماموران	-9.17102
▁کنونی	-9.17113
▁فردا	-9.17231
قانونی	-9.17347
▁تیر	-9.1748
▁کشاورز	-9.17932
▁صاحب	-9.18083
داری	-9.1812
▁خورده	-9.182
▁عق	-9.18334
▁نگهداری	-9.18431
▁لباس	-9.18442
▁مخالفان	-9.18772
▁دختران	-9.18974
▁زندانیان	-9.18982
▁برج	-9.19106
شب	-9.19254
▁حمل	-9.1945
▁سعی	-9.19803
▁مر	-9.19808
▁عرب	-9.1988
▁تحویل	-9.19896
▁سراوان	-9.19896
▁معرض	-9.199
▁آسمان	-9.19925
▁حاشیه	-9.19957
▁چالش	-9.19958
▁مایک	-9.20022
▁یکدیگر	-9.20037
▁هست	-9.20072
▁تصور	-9.20074
▁ساکن	-9.20085
نین	-9.20202
▁مسافران	-9.20241
▁درگیری	-9.20318
▁خبرنگاران	-9.20546
▁خوش	-9.20616
گ	-9.21188
نس	-9.21292
▁معامل	-9.21322
▁صلح	-9.21386
▁نتوانست	-9.21412
▁چیست	-9.21421
▁واشنگتن	-9.21432
▁آهنگ	-9.21452
سال	-9.21474
▁ادبیات	-9.21475
▁نویسندگان	-9.21522
▁گیرند	-9.21547
▁کردم	-9.21554
▁رافائل	-9.21581
سازمان	-9.2168
▁برود	-9.2168
نا	-9.2171
▁برزیل	-9.21737
▁تومانی	-9.21739
ایر	-9.21849
رنگ	-9.2185
▁نشر	-9.21884
▁نوری	-9.21913
▁مارک	-9.22044
▁شاعر	-9.22045
▁کشورش	-9.22087
▁جدیدی	-9.22162
▁مرزی	-9.22297
▁۸۰	-9.2239
▁احتمالی	-9.22514
▁آرام	-9.22554
▁پارک	-9.22619
▁عین	-9.22637
▁سپاهان	-9.2264
▁پست	-9.22752
▁توکیو	-9.22907
▁برگشت	-9.22914
▁دشوار	-9.23197
وزارت	-9.23219
▁داور	-9.2325
▁درگیر	-9.23379
▁چرخ	-9.23812
▁جراح	-9.23831
▁تمرین	-9.24343
▁محبوب	-9.24395
▁اهمیت	-9.24439
▁اختصاص	-9.24439
▁تاخیر	-9.2444
▁بهادار	-9.24444
▁اخبار	-9.2445
▁متعدد	-9.24453
▁صرف	-9.24477
▁مدیرعامل	-9.24487
▁پژوهشگران	-9.25039
▁ارزها	-9.2514
▁جودو	-9.25185
گرد	-9.25445
▁صف	-9.25517
▁سیما	-9.25689
▁راهی	-9.25704
ط	-9.25775
تا	-9.25799
▁بعدا	-9.25889
▁رادیو	-9.25903
اسی	-9.25931
▁تقاضای	-9.25965
▁عوامل	-9.26001
▁نحو	-9.26001
▁حاصل	-9.26004
▁۱۳۹۸	-9.26011
▁آمازون	-9.26012
▁تمدید	-9.26012
▁آنلاین	-9.26013
▁کنسرت	-9.2603
▁فرانسوی	-9.26031
▁جوکوویچ	-9.26128
▁کی	-9.26162
▁خدم	-9.26166
کار	-9.26199
رضا	-9.26268
▁چهل	-9.26326
جا	-9.26368
▁دیوان	-9.26571
▁خیابان	-9.26613
وال	-9.26716
▁مشا	-9.27111
▁اسرائیلی	-9.27135
▁دام	-9.27146
▁ادبی	-9.27169
▁ض	-9.2726
ول	-9.27306
▁۴۲	-9.27384
▁بازگشا	-9.27484
▁ماد	-9.27586
▁هنرپیشه	-9.27589
▁مراقب	-9.27593
▁توقف	-9.27594
▁اکتبر	-9.276
▁پالایشگاه	-9.27687
▁تلفن	-9.27738
▁عادی	-9.2778
▁روزها	-9.27974
دولت	-9.27992
▁دیدن	-9.28
▁برمی	-9.28485
▁پرس	-9.28662
▁مناسب	-9.28813
من	-9.28837
▁فر	-9.28986
▁توییت	-9.29137
▁اصفهان	-9.29201
▁تعویق	-9.29201
▁تسلا	-9.29204
▁ارقام	-9.29213
▁نوبل	-9.29221
▁لوکس	-9.2924
▁آلودگی	-9.29245
▁نادال	-9.29255
▁سبک	-9.29283
▁کارها	-9.29308
▁هواپیما	-9.29311
▁جواد	-9.29335
▁هماهنگ	-9.29373
▁نارنجی	-9.29379
اک	-9.29397
▁تعهدات	-9.29531
▁حذفی	-9.29556
تان	-9.29619
▁حیات	-9.2993
▁مالکی	-9.30079
▁بان	-9.30336
▁مهاجم	-9.30391
ما	-9.3052
کته	-9.30591
▁اشتباه	-9.30743
▁پدید	-9.30826
▁تئاتر	-9.30841
▁کاپیتان	-9.30841
▁قار	-9.3088
▁ایم	-9.30913
▁جایگاه	-9.30942
▁انجمن	-9.31036
▁آزار	-9.31052
▁راجر	-9.31087
▁مدرسه	-9.31087
▁کارمندان	-9.3112
▁اوپ	-9.31293
▁همچو	-9.3157
▁دستمزد	-9.31586
▁موتور	-9.31665
▁نوروز	-9.31852
▁مراک	-9.32218
▁جذب	-9.32507
▁حفاظت	-9.32508
▁نفس	-9.32508
▁ثابت	-9.32508
▁مونیخ	-9.3251
▁ثانی	-9.32526
▁مریخ	-9.32546
▁بازگرداند	-9.32577
▁وکیل	-9.32622
▁ضمن	-9.32626
▁گرند	-9.32679
▁زا	-9.32756
▁هنرمندان	-9.33096
▁واقعیت	-9.33118
یر	-9.33149
▁شبانه	-9.33162
▁کافی	-9.33178
▁اع	-9.3343
▁فرود	-9.33433
لیک	-9.33582
گری	-9.33689
رسدس	-9.33715
▁فردی	-9.33801
▁عبدال	-9.33957
▁قالیباف	-9.34202
▁بقیه	-9.34202
▁حاکی	-9.34211
▁عصر	-9.3426
▁واگذار	-9.34267
▁خشک	-9.34282
▁هواپیمای	-9.34283
▁فرهاد	-9.34344
▁گذارد	-9.34399
قدر	-9.34487
▁آمیز	-9.34554
▁پزشک	-9.3465
▁پن	-9.34673
خانم	-9.34742
رکت	-9.34777
▁داشتن	-9.34915
▁وگو	-9.35022
▁ابلاغ	-9.35112
▁مربیان	-9.35305
خبرگزا	-9.35365
▁حسینی	-9.35493
▁نهم	-9.35505
▁برجسته	-9.35928
▁متولد	-9.35928
▁ماموریت	-9.35948
▁جیمز	-9.35958
نده	-9.35961
▁حکام	-9.36009
▁نگه	-9.36022
▁لس	-9.3606
▁اتریش	-9.36161
▁برقرار	-9.36166
▁لیون	-9.36176
۱۶	-9.36228
▁اتفاقات	-9.3631
بط	-9.36412
برای	-9.36553
▁کوه	-9.36715
▁شغل	-9.36731
▁ذهن	-9.36766
▁سهم	-9.36771
▁آور	-9.36779
▁حس	-9.36883
▁سهمی	-9.36983
▁گیر	-9.37087
▁داروی	-9.37126
▁دامن	-9.37233
▁روان	-9.37247
▁اینستاگرام	-9.37363
▁بنیاد	-9.37427
▁لی	-9.37495
▁۲۹	-9.37571
▁مشاهد	-9.3761
▁پسر	-9.37668
تنظیم	-9.37681
▁خسارت	-9.37681
▁ناگهان	-9.37681
ذیب	-9.37684
▁نجات	-9.37685
▁صلاحیت	-9.37701
▁شهریور	-9.37714
▁بازنشستگان	-9.37717
▁همتی	-9.37737
امبر	-9.37749
▁گذرد	-9.37755
▁میراث	-9.37765
▁گلستان	-9.37829
▁ترس	-9.38023
▁موسو	-9.3805
واج	-9.38238
▁زند	-9.38308
▁ملک	-9.38384
▁درجه	-9.38515
باید	-9.38564
▁آذر	-9.388
▁آفریقا	-9.38864
۱۸	-9.38978
▁رقیب	-9.38984
▁اکبر	-9.39004
▁شناسی	-9.3927
علوم	-9.3932
▁تحصیل	-9.39377
▁شیو	-9.39396
▁بدهی	-9.39436
▁مسائل	-9.39467
▁مسئ	-9.3949
هر	-9.39496
▁رسما	-9.39496
▁ساحل	-9.39498
جمه	-9.39499
▁ایستگاه	-9.3951
▁باور	-9.39523
▁گام	-9.39632
▁اید	-9.39698
شار	-9.39706
▁پاس	-9.39754
وع	-9.39772
▁منتقدان	-9.39858
▁نکرد	-9.3988
▁ورزشکاران	-9.39886
▁اندازی	-9.39928
سون	-9.39944
▁برادر	-9.39956
رئیس	-9.40062
▁عدد	-9.40063
▁مخالف	-9.40446
▁خلی	-9.40456
▁مج	-9.4083
▁تمامی	-9.40935
ساوی	-9.40943
▁حج	-9.41026
▁گری	-9.4107
▁زاد	-9.41203
▁سلطنت	-9.41285
▁تردد	-9.41286
▁آنجلس	-9.413
▁امارات	-9.41346
▁نرم	-9.41352
▁ابراهیم	-9.41387
▁مطابق	-9.41446
▁ز	-9.41815
تیم	-9.41949
▁گمان	-9.42011
ود	-9.4203
▁گفتند	-9.42045
▁بند	-9.42101
▁مسافر	-9.42135
شیدا	-9.42135
▁اصل	-9.42363
▁جه	-9.42367
پیش	-9.42422
▁درک	-9.42445
▁اطلاعی	-9.42446
▁شمالی	-9.42471
▁سای	-9.42776
▁بیان	-9.42923
▁میلان	-9.42944
▁ست	-9.43045
▁افتخار	-9.43137
▁خشونت	-9.43137
▁مصنوعی	-9.43137
▁اجلاس	-9.43137
▁ایسنا	-9.43137
▁مشمول	-9.43144
▁پروتکل	-9.43172
▁محرم	-9.43174
▁سرپرست	-9.43241
▁تاسیسات	-9.43248
▁آکادمی	-9.43267
▁کلاس	-9.43329
▁مواردی	-9.43471
▁شیر	-9.43496
▁سلیمانی	-9.43585
▁ایتالیایی	-9.43628
▁محققان	-9.43722
▁ماجرا	-9.43725
▁داند	-9.43798
▁دارای	-9.43879
▁سامانه	-9.43977
▁شبی	-9.44053
▁شرقی	-9.44369
▁جاد	-9.44426
▁نگار	-9.44631
▁موثر	-9.44632
▁باب	-9.44691
▁ورزشکار	-9.44693
▁هرچ	-9.44723
▁کارشناس	-9.44763
ازم	-9.44805
▁آهن	-9.44907
▁توزیع	-9.45023
▁دیجیتال	-9.45023
▁شاغل	-9.45023
▁قبول	-9.45024
▁تشویق	-9.45025
ضاع	-9.45026
▁تولد	-9.45036
▁پنجاه	-9.45042
▁فرودگاه	-9.45052
▁پلاس	-9.4506
▁پدرش	-9.45074
▁هویت	-9.45083
▁تخت	-9.45144
▁رانندگان	-9.45144
▁بلا	-9.45213
ص	-9.45321
▁اطراف	-9.45373
▁دوستان	-9.45392
ینگ	-9.45396
▁سخنان	-9.45458
گزارش	-9.45724
▁گرانی	-9.45843
▁رهبری	-9.45857
لان	-9.45915
▁ازد	-9.46491
▁فرا	-9.46536
▁برآورد	-9.4663
▁فضا	-9.46653
▁الملل	-9.46678
▁اقلیم	-9.46706
ئی	-9.46819
▁۳۲	-9.46936
▁قالب	-9.46946
▁جبران	-9.46947
▁اجاره	-9.46954
▁سوپر	-9.46959
وئل	-9.46998
▁آرسنال	-9.47012
لاک	-9.47053
▁کلوپ	-9.47133
▁کردیم	-9.47147
▁قربانیان	-9.47177
▁توانای	-9.47209
▁دادستان	-9.47274
▁یخ	-9.47301
▁الدین	-9.47316
سا	-9.47828
▁توانسته	-9.48001
▁نقاش	-9.48197
انجام	-9.48583
▁نماد	-9.48702
▁شهرداری	-9.4874
▁دیوار	-9.48822
▁عمیق	-9.48824
▁جذاب	-9.48847
▁اتومبیل	-9.48907
▁حوادث	-9.48907
▁اعتبار	-9.48908
▁زمستان	-9.48911
شویی	-9.48916
▁الهام	-9.48924
▁اسکی	-9.48928
▁اهواز	-9.48942
▁ایرنا	-9.48948
▁عرص	-9.48969
▁خیریه	-9.48999
▁طرفداران	-9.49083
▁بازرس	-9.49158
▁موشک	-9.49226
▁ناسا	-9.49236
▁بندر	-9.49318
کن	-9.49457
▁قول	-9.49539
▁جوانان	-9.49597
دن	-9.4975
▁شهرت	-9.49788
▁گردشگری	-9.49822
▁خورشید	-9.49984
ئو	-9.50038
▁۴۵	-9.5007
▁خاص	-9.50109
▁بعدی	-9.50295
▁نیستند	-9.50312
▁ادار	-9.50367
▁رویکرد	-9.50791
▁عکاسی	-9.50797
▁جانب	-9.50809
▁محافظ	-9.50832
فسور	-9.50856
▁نطنز	-9.50907
▁مشهد	-9.50907
▁یوونتوس	-9.50945
▁فیسبوک	-9.50946
▁حراج	-9.5097
▁صراف	-9.50974
▁مشاور	-9.51022
▁تأ	-9.51061
▁سد	-9.51113
▁سپت	-9.51155
یو	-9.51199
▁کالاها	-9.51222
ستاره	-9.51307
▁بو	-9.51476
▁نداده	-9.51878
▁باره	-9.52072
اپی	-9.52593
▁مبن	-9.5281
▁کارت	-9.52838
▁قاسم	-9.52929
▁چنان	-9.52951
▁ذر	-9.52965
گانه	-9.52983
▁مجسمه	-9.52987
▁فیزیک	-9.53064
▁حملات	-9.53079
افسانه	-9.53102
▁رحمان	-9.53109
▁ریش	-9.53381
▁دیپلما	-9.53543
ناصر	-9.53791
همزمان	-9.53849
▁شناس	-9.53952
▁حقوقی	-9.5407
▁هوش	-9.54179
▁شک	-9.54407
▁سخن	-9.54471
یکی	-9.54639
▁محمدی	-9.54857
▁استعفا	-9.54858
▁جامع	-9.54911
▁دعوت	-9.55031
▁مقصد	-9.55068
▁فراموش	-9.55071
▁عشق	-9.55071
▁ناپذیر	-9.55079
▁بخت	-9.55085
▁پرتاب	-9.55085
▁آماد	-9.55128
▁فولاد	-9.55129
▁نیازمند	-9.55132
▁نبوده	-9.55134
▁منتظر	-9.55149
▁شهرستان	-9.55171
وف	-9.55176
▁برخوردار	-9.55178
▁هشتم	-9.55265
▁نامید	-9.55329
▁پزشکان	-9.55633
تمام	-9.55763
▁بابا	-9.55897
صد	-9.55906
▁افزود	-9.56263
▁کارزار	-9.56543
▁دوز	-9.56647
▁عکاس	-9.57
▁جلوی	-9.57042
▁متن	-9.57081
▁موضع	-9.57159
▁عذر	-9.57159
▁اسکاتلند	-9.5716
▁فعلا	-9.57167
▁۱۳۹۷	-9.57171
▁دانیم	-9.57195
▁گواردیولا	-9.572
▁تعرف	-9.57205
▁اطمینان	-9.57226
▁مستقل	-9.57229
▁مجاز	-9.57259
▁اهل	-9.57272
▁نژادپرست	-9.5728
▁ملایی	-9.5728
▁بازدید	-9.57425
▁فوتبالیست	-9.57517
▁سوزی	-9.57751
▁سرای	-9.57854
▁نشدن	-9.57867
▁تست	-9.57914
▁روانی	-9.58021
▁قوی	-9.5806
▁خان	-9.58061
مدال	-9.58148
مه	-9.58157
چ	-9.5824
▁هفتم	-9.58289
▁ق	-9.58783
▁محسو	-9.58941
بو	-9.58993
▁حامل	-9.59283
زاده	-9.59303
▁ویمبلدون	-9.59333
▁سرنگون	-9.59333
▁جلب	-9.59334
▁نداریم	-9.59334
▁رونق	-9.59336
▁بدهد	-9.5934
▁دسامبر	-9.59375
▁عید	-9.59409
▁آواز	-9.59419
▁اختلال	-9.59497
▁نامداری	-9.59525
▁مشتریان	-9.59541
▁شاملو	-9.59622
سر	-9.59629
▁۲۷	-9.59869
▁همسرش	-9.59882
▁مان	-9.6044
عهد	-9.60514
...	-9.6055
▁ششم	-9.60736
▁فرار	-9.60787
▁ایستاده	-9.60864
سکی	-9.61049
▁۴۰۰	-9.6108
▁آمدن	-9.61216
▁انتخاباتی	-9.61274
▁کیلومتری	-9.61387
جی	-9.61449
▁اسب	-9.61534
▁اندونزی	-9.61555
▁بسکتبال	-9.61555
▁ژافره	-9.61555
▁کالیفرنیا	-9.61555
▁پرچم	-9.61555
▁تنفس	-9.61556
▁تکرار	-9.61571
▁علائم	-9.61571
▁بگیرند	-9.6158
▁۲۰۱۵	-9.61625
▁نفوذ	-9.61681
▁پاک	-9.61784
صت	-9.61876
▁هلند	-9.61879
▁نمایندگی	-9.61882
▁اسپانیایی	-9.61936
چی	-9.62264
حمل	-9.62351
▁بردن	-9.62438
▁نود	-9.62568
▁نوروزی	-9.62688
▁چشمگیر	-9.62937
▁ژاپنی	-9.62977
▁متحد	-9.63039
▁مادرش	-9.63158
▁لح	-9.63283
داد	-9.63342
▁جر	-9.63371
▁معدن	-9.63412
آزادسازی	-9.63525
کو	-9.63628
رو	-9.63681
▁تاسیس	-9.63735
خراج	-9.63743
شدید	-9.63799
▁مشاغل	-9.63828
▁طبیعت	-9.63828
▁برگزید	-9.63828
▁ژرمن	-9.63829
▁تعلیق	-9.63833
▁رمز	-9.63885
▁بنیان	-9.63898
▁تبعیض	-9.639
▁تفاوت	-9.639
▁کیفیت	-9.63909
▁حقیق	-9.63913
▁یمن	-9.63918
▁خودکشی	-9.63921
▁مسعود	-9.63964
▁جسد	-9.63972
▁فروخته	-9.63987
▁انداخته	-9.63997
▁لبنان	-9.64109
▁۳۳	-9.64121
ض	-9.64129
▁محصول	-9.64393
▁تپ	-9.64405
▁پاری	-9.64466
▁زودتر	-9.64544
خواهی	-9.64602
▁اندک	-9.64607
▁نادر	-9.6481
دان	-9.64825
ذ	-9.65358
▁دسته	-9.65465
واع	-9.65599
▁روستای	-9.65716
▁رویداد	-9.66071
ماه	-9.66132
▁اعتماد	-9.66154
▁چارچوب	-9.66154
▁صدرنشین	-9.66158
▁شگفت	-9.66166
▁پنهان	-9.66171
▁وال	-9.66186
▁دستورالعمل	-9.66199
▁پکن	-9.66221
▁خیر	-9.66235
▁پادشاه	-9.6624
▁کانادا	-9.66313
▁دقیقا	-9.66361
▁گزین	-9.66364
▁هاشمی	-9.66416
▁قضاییه	-9.66451
▁ایفا	-9.66474
▁قله	-9.66528
▁مدرن	-9.66624
▁نشین	-9.6664
▁عمر	-9.66702
▁داوطلبان	-9.66706
▁کیو	-9.66805
▁نامش	-9.66832
▁جورج	-9.66847
▁گوشت	-9.66854
▁خاتمی	-9.6696
▁تری	-9.66974
▁یافتن	-9.67045
قیمت	-9.67312
شورای	-9.67524
▁مرزها	-9.67746
▁سفرهای	-9.67774
▁نوجوان	-9.68082
▁سرد	-9.68274
▁تحلیل	-9.68405
را	-9.68429
▁اظهار	-9.68437
▁ثبات	-9.68534
▁روغن	-9.68534
▁زهرا	-9.68535
▁انتظامی	-9.68535
▁بماند	-9.68543
▁شفاف	-9.68559
▁ساده	-9.68561
▁هفتاد	-9.68578
▁پایگاه	-9.68612
▁مهاجرت	-9.68704
▁اسناد	-9.68708
▁شهرسازی	-9.68766
▁عملا	-9.68855
▁حالت	-9.68881
▁۱۵۰	-9.68883
▁بودم	-9.68934
هفته	-9.68964
▁آنتونی	-9.69067
▁منع	-9.69086
▁معمول	-9.69143
▁درخشان	-9.69289
▁آلوده	-9.69354
▁راحت	-9.69467
▁خلاف	-9.6952
▁قر	-9.69564
رانی	-9.69608
بعضی	-9.69749
▁بازیگران	-9.69789
▁افزار	-9.69815
▁مع	-9.70141
▁یاران	-9.70372
▁انداخت	-9.70488
▁درد	-9.70542
▁۳۹	-9.70563
▁بهای	-9.70658
طفی	-9.70826
▁کسر	-9.70939
▁تصادف	-9.70973
▁عبارت	-9.70973
▁پارلمان	-9.70973
رگز	-9.70974
▁اولویت	-9.70975
▁تراکتور	-9.70979
▁عاص	-9.70982
▁استانبول	-9.70983
▁خطرناک	-9.70988
▁نفع	-9.70989
▁پانزده	-9.71021
▁گشایش	-9.7106
▁مجازات	-9.71097
▁مدیرکل	-9.71128
▁سازنده	-9.71138
وه	-9.71151
▁یادآور	-9.71159
▁مرور	-9.71161
▁پیچید	-9.71188
▁نامزدهای	-9.71195
▁فراز	-9.712
غول	-9.71296
▁اسماعیل	-9.71328
لر	-9.71334
▁شانس	-9.71478
▁اسدی	-9.71485
▁مطلب	-9.71679
▁استاندار	-9.71821
قب	-9.71864
▁اص	-9.71873
قرار	-9.71897
▁شاهین	-9.71904
▁انداز	-9.71951
▁خاصی	-9.72006
▁کف	-9.7214
▁خودروسازی	-9.72146
▁فولک	-9.72157
▁اور	-9.72235
▁معن	-9.72392
کل	-9.72415
▁چا	-9.72517
شرکت	-9.72556
▁۳۴	-9.7295
رسان	-9.73082
▁وحش	-9.73179
اگر	-9.73263
لا	-9.73302
اظ	-9.73417
گین	-9.7348
▁هتل	-9.73493
▁اقامت	-9.73494
▁ساعات	-9.73494
▁خطیب	-9.73503
▁دیپلماتیک	-9.73513
▁مقدمات	-9.73517
▁شواهد	-9.73522
▁متخصص	-9.73522
▁نوسان	-9.73586
▁سانسور	-9.73616
▁مسئولیت	-9.73661
▁لستر	-9.73672
▁پوشش	-9.73674
تصاب	-9.73711
▁۹۷	-9.73716
▁واقعا	-9.73777
▁مالیاتی	-9.73905
▁تعطیلات	-9.73954
دست	-9.74167
تون	-9.74169
▁تبار	-9.74211
▁ریال	-9.74321
حسن	-9.74373
▁سرود	-9.74538
گون	-9.74576
حدود	-9.74613
▁امیدواری	-9.74697
▁دان	-9.74747
دکتر	-9.74808
ریم	-9.7507
لند	-9.75173
▁سالن	-9.75365
▁وانت	-9.7543
▁بهتری	-9.75462
▁کلید	-9.75592
▁تاجیک	-9.75779
▁ضرور	-9.75885
▁تردید	-9.75898
▁اضطرار	-9.76038
▁تعریف	-9.76038
▁هالیوود	-9.76038
▁عوارض	-9.76038
▁مورینیو	-9.76038
▁گشت	-9.76043
▁فیوری	-9.76043
▁سلول	-9.76044
▁قلع	-9.76054
▁غافلگیر	-9.76058
▁۲۰۱۱	-9.76079
▁شویم	-9.7608
▁ماراتن	-9.76087
▁فرمان	-9.7613
▁خطاب	-9.76132
▁بهر	-9.76148
▁خرد	-9.76149
▁تحولات	-9.76177
▁منظور	-9.76281
▁محکومیت	-9.76298
احض	-9.76312
▁تجا	-9.76321
▁هی	-9.76416
▁مذهبی	-9.76455
گفته	-9.76607
▁مناسبت	-9.76643
▁ویدیوی	-9.76676
▁جک	-9.76759
▁ارد	-9.7682
▁امر	-9.76866
فت	-9.76896
▁ماندن	-9.76914
▁تل	-9.7696
▁آشنا	-9.76969
جمع	-9.76986
▁نیرو	-9.77018
▁قطب	-9.77031
▁مرا	-9.77215
وات	-9.77258
▁خواهی	-9.77298
▁شرکتهای	-9.77437
▁تماشای	-9.77528
▁طلب	-9.77848
▁قدر	-9.77874
▁فان	-9.77915
التی	-9.77928
▁درمانی	-9.7823
▁مدار	-9.78303
▁عطر	-9.78548
▁عاشق	-9.7861
▁ژنتیکی	-9.78621
▁جی	-9.78631
▁بلینکن	-9.78669
▁کیلوگرم	-9.7867
▁برکنار	-9.7867
▁ازبکستان	-9.78671
▁نباشد	-9.78673
▁کانون	-9.78678
▁تبریز	-9.78684
▁کربن	-9.7869
وخیم	-9.78699
▁رویا	-9.78701
▁بوکس	-9.78714
▁فرو	-9.78718
▁زاهد	-9.7872
▁نسخ	-9.7872
▁تالاب	-9.78722
▁مثال	-9.78725
▁صادرکنندگان	-9.78733
▁مرجان	-9.78771
▁بزرگتر	-9.78785
▁وقف	-9.78822
▁همکاران	-9.7883
▁ذو	-9.78913
▁سالم	-9.78941
▁رها	-9.7906
▁سپرده	-9.79105
▁تحول	-9.79169
▁سپر	-9.79228
بار	-9.79308
▁جنسیت	-9.79481
▁ماجرای	-9.79501
▁تماشا	-9.79725
▁کریمی	-9.79807
▁لب	-9.79833
▁مسئولین	-9.79942
آمریکا	-9.7997
▁۶۵	-9.80007
بته	-9.80029
▁مو	-9.80221
اسلم	-9.80235
▁میانه	-9.80278
▁توجهی	-9.80523
است	-9.80559
یره	-9.80646
▁بودیم	-9.80798
▁ری	-9.80879
▁تور	-9.80889
▁۷۰۰	-9.80954
غ	-9.80985
▁آر	-9.80985
▁فراوان	-9.8103
▁خواب	-9.81082
▁کارمند	-9.81132
▁هنرها	-9.81157
▁سالها	-9.81222
▁دهنده	-9.81247
▁بیستم	-9.81301
▁موقع	-9.81323
▁زنند	-9.81371
▁آذربایجان	-9.81372
▁کهکشان	-9.81372
▁گروسی	-9.81373
▁احترام	-9.81373
▁غزنی	-9.81373
▁باشیم	-9.81375
▁آشکار	-9.81376
▁داغ	-9.81376
▁سرنوشت	-9.81383
▁ناکام	-9.814
▁ردیف	-9.81405
▁کجا	-9.81411
▁فایزر	-9.81458
▁بهایی	-9.81469
▁کادر	-9.81513
▁باغ	-9.81562
نوبت	-9.81562
▁معلوم	-9.81575
▁۷۵	-9.81585
فرین	-9.81751
▁محافظت	-9.8176
▁برنت	-9.81865
▁گلزن	-9.81907
احل	-9.81972
▁سان	-9.82048
▁جزیر	-9.82121
▁صادقی	-9.82283
▁فروشگاه	-9.82313
▁۴۸	-9.8254
▁پیگیری	-9.82574
▁درون	-9.82687
ریک	-9.82748
▁درحالی	-9.82809
▁هجوم	-9.82855
بانک	-9.82957
▁اجباری	-9.83125
غم	-9.83344
▁دفاعی	-9.8372
▁پژوهشگر	-9.83838
سبب	-9.83839
▁موافق	-9.83866
▁بدتر	-9.83981
▁مشروط	-9.8415
▁جایگزین	-9.84151
▁عمدتا	-9.84152
▁کریستیان	-9.84163
▁پاییز	-9.84164
▁مسجد	-9.84165
▁هافبک	-9.84169
▁دایک	-9.84171
▁فراتر	-9.84173
▁خمینی	-9.84173
▁مقدار	-9.84182
▁برگزیت	-9.84203
▁بلژیک	-9.84203
▁پرتغال	-9.84204
▁اورتون	-9.84213
▁هشتاد	-9.84219
▁سقف	-9.84238
▁مخاطبان	-9.84255
▁شرط	-9.84263
▁پاپ	-9.84268
▁سوئد	-9.84287
▁خاورمیانه	-9.8432
▁خواهم	-9.84332
▁فقر	-9.84353
▁خبرساز	-9.84402
▁جسم	-9.84434
▁ل	-9.84437
▁دهیم	-9.84454
▁علن	-9.84506
▁سری	-9.84523
▁مسافرت	-9.84585
▁مساوی	-9.84713
▁اتهامات	-9.84737
کا	-9.84741
▁زدند	-9.8482
▁میر	-9.84853
تن	-9.84911
▁قطعه	-9.84945
خالت	-9.84983
▁حلق	-9.85047
▁اسکن	-9.85322
آزمای	-9.85403
یات	-9.85492
▁عظیم	-9.85597
▁بردند	-9.8561
بنا	-9.85653
۱۴	-9.85676
وثی	-9.85684
▁علم	-9.85707
▁برون	-9.85816
بنابر	-9.85821
وزیر	-9.8586
▁عفو	-9.8591
امروز	-9.85922
▁تب	-9.86117
▁نیمک	-9.86154
▁زیبای	-9.8622
▁باد	-9.86228
فر	-9.86466
▁مس	-9.86787
▁بچ	-9.86842
▁امضای	-9.86884
▁دائم	-9.86884
▁آکسفورد	-9.87007
▁اقلام	-9.87007
▁لذت	-9.87007
▁نساجی	-9.87007
▁تجدید	-9.87009
▁سلاح	-9.87009
▁جستجو	-9.87009
▁اماکن	-9.87013
▁بگذارد	-9.87016
▁وسیع	-9.87034
▁پرورش	-9.87047
▁جنبش	-9.87048
▁عراقچی	-9.8706
▁تکمیل	-9.87098
▁مدارس	-9.87126
▁خفاش	-9.87133
▁آرایش	-9.8714
▁مدنی	-9.87145
▁۱۹۸	-9.87197
▁ات	-9.87216
▁سرکوب	-9.87245
▁بوی	-9.87269
▁وام	-9.87577
اکان	-9.87632
قابل	-9.87652
رت	-9.8772
▁رویدادهای	-9.87728
آ	-9.87767
▁باند	-9.87799
▁مقال	-9.87882
تو	-9.87883
▁گور	-9.87906
▁پهلوی	-9.87982
▁برداری	-9.88011
▁آموزشی	-9.88103
▁تف	-9.88107
▁گذراند	-9.8814
▁اکثر	-9.88146
▁گرد	-9.88256
ث	-9.88305
▁ابر	-9.88451
▁انت	-9.88502
دل	-9.88575
باقر	-9.88678
سعید	-9.88723
▁صالح	-9.89079
▁اصلا	-9.89133
▁حافظ	-9.89201
حال	-9.8933
طی	-9.8939
▁هو	-9.89421
پور	-9.89531
▁کا	-9.89585
سه	-9.89694
▁قص	-9.897
▁رغ	-9.89837
▁تبلیغ	-9.89854
▁۹۶	-9.89863
▁بخار	-9.89948
▁رستوران	-9.89948
▁غیرمستقیم	-9.89948
▁مازندران	-9.89948
▁منافع	-9.89948
▁عمق	-9.89948
▁نصب	-9.89948
▁خطوط	-9.89955
▁لوئی	-9.8997
▁مصدومیت	-9.89972
▁بزند	-9.89982
▁تقس	-9.89988
▁تجهیزات	-9.90006
▁راز	-9.9001
▁حیوانات	-9.90016
▁شتاب	-9.90036
▁کاوشگر	-9.90043
▁منچسترسیتی	-9.9005
▁سنا	-9.90051
▁تدریج	-9.90053
▁کنفرانس	-9.90053
▁جواب	-9.90071
▁رحمانی	-9.90092
▁خاوران	-9.90169
▁فرماندار	-9.90212
▁شیش	-9.90257
▁ارتباطات	-9.90388
▁۰	-9.90409
▁شیری	-9.90435
▁آرامش	-9.90557
▁دانستند	-9.90557
▁واگ	-9.90659
▁خاطرات	-9.90711
رد	-9.9074
▁نابودی	-9.91086
برگ	-9.91112
اقات	-9.91348
▁گزارشگر	-9.91374
▁ساک	-9.9151
▁مص	-9.9158
▁خوان	-9.91598
▁لیس	-9.91689
خلاف	-9.91753
سخنگوی	-9.91753
رسمی	-9.91776
▁درحال	-9.91816
▁داری	-9.9201
▁شنا	-9.92043
۱۹	-9.9216
جو	-9.92169
▁نیمی	-9.92193
وا	-9.9228
فاصله	-9.92381
▁اتفاقی	-9.92411
▁ایست	-9.92568
▁آنک	-9.92616
▁گنج	-9.92669
مون	-9.92704
▁مار	-9.92883
▁بازنشست	-9.92889
کی	-9.92918
▁حساس	-9.92962
▁فرآیند	-9.92978
▁هیئت	-9.92978
▁روزگار	-9.92979
▁ترجیح	-9.92982
▁مستمر	-9.9299
▁پرفروش	-9.92994
▁کلمبیا	-9.93
▁قادر	-9.93002
▁پادتن	-9.93003
▁فاش	-9.93035
▁فیل	-9.93041
▁پلاستیک	-9.93043
▁تاثیرگذار	-9.93047
▁بهشت	-9.93075
▁جانشین	-9.93127
▁تائ	-9.93182
▁عبدالله	-9.93211
خره	-9.93271
▁ضرورت	-9.9332
▁اسم	-9.93322
▁غلام	-9.93393
▁آزمایشگاه	-9.93417
▁ضرر	-9.93436
▁نمای	-9.93569
▁امان	-9.93581
وقت	-9.9363
▁روب	-9.93739
▁خواه	-9.93834
▁کهن	-9.93842
▁نان	-9.9398
▁طلبان	-9.94048
▁طلایی	-9.94168
ناوند	-9.94232
عکس	-9.94279
▁نبرد	-9.94318
▁پیک	-9.9437
۵۰	-9.94427
مند	-9.94647
وند	-9.94711
▁سفارش	-9.94941
▁خاتم	-9.95026
▁صادق	-9.95118
▁فیلمساز	-9.9519
رگن	-9.95284
ناف	-9.95344
▁روح	-9.95352
رز	-9.9586
▁عام	-9.95887
نام	-9.96
ژه	-9.9601
رج	-9.96017
▁اعزام	-9.96103
▁تسلیحات	-9.96103
▁حکایت	-9.96103
▁آفتاب	-9.96103
▁فلوید	-9.96103
▁بامیان	-9.96107
▁بخصوص	-9.96112
▁مطبوعات	-9.96114
▁بدهند	-9.96116
▁مطالب	-9.96119
▁پتروش	-9.96142
▁هیجان	-9.96147
▁شوک	-9.96194
▁جانسون	-9.96201
▁آسان	-9.96213
▁اینتر	-9.96237
▁اپل	-9.96263
▁قایق	-9.96285
▁متوا	-9.96386
▁اختلافات	-9.96452
راه	-9.9646
▁اوبر	-9.9648
▁گذر	-9.96525
دا	-9.9659
▁۴۴	-9.96598
▁شناور	-9.96668
▁برند	-9.969
▁جم	-9.96973
▁نماز	-9.96987
هم	-9.97038
اد	-9.97064
▁مح	-9.97097
▁زیرا	-9.97165
▁مون	-9.9725
▁تاک	-9.97266
▁تاپ	-9.97287
▁بیمه	-9.97418
▁امین	-9.978
بون	-9.97835
یخ	-9.98
▁سوئیسی	-9.98017
▁ط	-9.98041
▁ابتلای	-9.98406
بسیاری	-9.98469
▁حا	-9.98714
نت	-9.98774
▁محاسب	-9.99238
▁عبوری	-9.9929
▁مطل	-9.99301
قاضی	-9.9932
▁آنفلوآنزا	-9.99329
▁خداحافظ	-9.99329
▁خراسان	-9.99329
▁قاجار	-9.99329
▁بغداد	-9.9933
▁معاصر	-9.9933
▁گوناگون	-9.99331
▁کانری	-9.99338
▁طبری	-9.99353
▁قدرتمند	-9.99359
ادورو	-9.99361
▁شهرها	-9.99372
▁عروسک	-9.99373
▁تاکسی	-9.99379
▁ایرباس	-9.99391
▁صند	-9.99408
▁آتی	-9.99416
▁قیمتها	-9.99438
▁فقیر	-9.99452
▁تمایل	-9.99508
▁سیل	-9.99522
اجع	-9.99533
▁توماس	-9.99596
▁ظاهرا	-9.99615
طئ	-9.99621
▁فکری	-9.99706
▁کارش	-9.9972
▁رویای	-9.99738
▁همیلتون	-9.99761
▁اردو	-9.99776
ناز	-9.99836
▁۲۵۰	-9.9991
فق	-9.99939
▁شنیده	-9.9999
▁خودم	-10
▁نی	-10.0009
جه	-10.001
▁منشا	-10.0012
اوش	-10.0018
▁روس	-10.0024
▁پو	-10.0051
▁رفتند	-10.0073
آن	-10.0078
▁۵۷	-10.0098
امی	-10.01
▁برایش	-10.0101
▁مند	-10.0144
پیشتر	-10.0146
امسال	-10.0147
▁۳۷	-10.015
▁رسیدند	-10.0153
▁ماهوار	-10.0155
▁ویدیو	-10.017
غان	-10.0192
▁مسال	-10.0196
▁هرگ	-10.02
▁۱۳۵	-10.0231
۲۰۱۲	-10.0234
▁درخت	-10.0245
پی	-10.0247
▁قلم	-10.0256
▁کلاسیک	-10.0256
▁شایع	-10.0257
▁آفریقای	-10.0263
▁سران	-10.0266
خیص	-10.0266
▁الکترونیک	-10.0266
▁تگزاس	-10.0266
▁موبایل	-10.0266
▁پیامدهای	-10.0266
▁سرقت	-10.0266
▁دقایق	-10.0267
▁منتقد	-10.0267
▁شوماخر	-10.0268
▁۲۰۲۲	-10.0268
▁مسکونی	-10.027
▁ربات	-10.0271
▁قبا	-10.0272
▁استادیوم	-10.0273
▁صمت	-10.0273
▁جاسوس	-10.0273
▁کشد	-10.0274
▁سرزمین	-10.0275
▁واژ	-10.0276
▁لمس	-10.0277
▁ارشاد	-10.0277
▁بیاید	-10.0278
▁زانو	-10.0281
▁بورل	-10.0282
لک	-10.0283
▁عادل	-10.0288
▁لحظات	-10.0289
▁تایسون	-10.0291
▁قد	-10.0299
▁نداشتند	-10.03
سل	-10.0302
▁شکاف	-10.0304
▁سا	-10.0309
ران	-10.0329
▁فاز	-10.0343
▁جیب	-10.0345
خ	-10.0348
▁ریه	-10.0351
نیک	-10.0366
▁راستا	-10.0376
آی	-10.0379
▁نگرفته	-10.0392
رویی	-10.0394
▁رم	-10.0405
نظر	-10.042
▁گرا	-10.0438
▁کاسته	-10.0445
کم	-10.045
▁باران	-10.0455
کر	-10.0465
وار	-10.0479
▁اسلام	-10.0483
▁خیابانی	-10.0487
انا	-10.0503
▁ویران	-10.0522
اولین	-10.0529
مت	-10.0544
▁آمارها	-10.0565
▁دانشمند	-10.0569
▁اسد	-10.0576
▁۵۵	-10.0578
جونز	-10.0579
▁مطمئن	-10.0601
▁خودروها	-10.061
▁الحاق	-10.0611
▁موانع	-10.0611
▁خلاص	-10.0611
▁باشید	-10.0611
▁پانصد	-10.0611
▁سایپا	-10.0611
▁بنیانگذار	-10.0612
▁یوفا	-10.0612
▁وسایل	-10.0613
▁۱۹۸۶	-10.0613
▁برانگیز	-10.0613
▁یادداشت	-10.0613
▁ولسوال	-10.0614
▁علامت	-10.0615
اینها	-10.0616
▁شکنج	-10.0616
▁۲۰۱۰	-10.0617
▁والی	-10.0617
▁اشتغال	-10.0618
▁اولسان	-10.0619
▁مقاومت	-10.0619
▁آدم	-10.0619
▁یاری	-10.0622
▁سهامداران	-10.0624
▁نمایشگر	-10.0624
▁وبسایت	-10.0627
▁۴۳	-10.0627
راضی	-10.063
▁قوا	-10.0631
▁بلیت	-10.0631
▁دانشجویان	-10.0634
▁شوم	-10.0636
▁ربط	-10.0638
▁گردن	-10.064
▁حمید	-10.0653
▁طلای	-10.0658
▁ایرانیان	-10.0663
▁ساختار	-10.0667
▁منته	-10.067
▁تج	-10.0682
▁سین	-10.0683
▁صادراتی	-10.0684
▁شعب	-10.0688
شهر	-10.0714
▁دونده	-10.0722
رون	-10.073
▁مزار	-10.073
▁حامی	-10.074
▁نرسیده	-10.0751
▁حضورش	-10.0752
▁سیار	-10.076
▁دوام	-10.0777
کاری	-10.078
▁مور	-10.0785
▁۳۸	-10.0786
▁انبار	-10.0818
▁گوشی	-10.0829
پلیس	-10.0846
آنها	-10.0852
▁اگر	-10.086
یل	-10.0865
▁باتر	-10.0867
▁کامپیوتر	-10.087
▁مگا	-10.0882
ویز	-10.0885
▁فتح	-10.0887
▁گروگان	-10.09
آوری	-10.0917
▁۹۵	-10.0921
هزار	-10.0922
▁سلطان	-10.0924
▁۳۶	-10.0924
رس	-10.0932
صاف	-10.0961
بهار	-10.0965
▁پرافتخار	-10.0968
▁ارتفاع	-10.0968
▁استراماچونی	-10.0968
▁پروتئین	-10.0968
▁ببینید	-10.0968
▁طوفان	-10.0968
▁بعید	-10.0968
▁ناحیه	-10.0968
▁برساند	-10.0968
▁سئوال	-10.0968
▁فردوسی	-10.0968
▁جالب	-10.0969
▁نیروگاه	-10.0971
▁دیگو	-10.0972
▁انگار	-10.0973
▁وستهم	-10.0976
▁سبز	-10.098
▁نقدی	-10.0981
▁معمار	-10.0997
▁دیر	-10.1006
▁یونان	-10.1013
▁شهری	-10.1015
▁تس	-10.1015
ابی	-10.1018
▁خریدار	-10.102
▁فرید	-10.1023
▁۵۶	-10.1029
▁اطل	-10.1037
▁پذیرفته	-10.1042
▁جلسات	-10.1043
▁موضوعات	-10.1051
▁نیک	-10.106
۳۱	-10.1068
▁یازدهم	-10.1101
▁اقدامی	-10.1101
▁مبادل	-10.1104
▁درهای	-10.1124
▁عزاداری	-10.1125
پنج	-10.1139
▁پرد	-10.1144
▁وایلد	-10.1166
▁وق	-10.1169
دگی	-10.1179
▁هل	-10.1204
▁غ	-10.1212
افزایش	-10.1217
▁۶۷	-10.1223
مار	-10.1233
▁اشک	-10.1239
راحل	-10.1252
▁داوطلب	-10.1253
▁بران	-10.1264
یده	-10.1271
حص	-10.1279
▁کمال	-10.1321
▁انفرادی	-10.1339
▁ثمر	-10.1339
▁نتانیاهو	-10.1339
▁نکنید	-10.1339
▁تفریح	-10.1339
▁تعدیل	-10.1339
▁بکشد	-10.1339
▁زلزله	-10.1339
▁تظاهرات	-10.134
▁تلفیق	-10.1341
▁مفهوم	-10.1341
▁فرگوسن	-10.1341
▁معافیت	-10.1342
▁زرد	-10.1342
▁ویلیام	-10.1342
▁تبعات	-10.1342
▁عمان	-10.1343
▁منزل	-10.1344
▁عفونت	-10.1344
▁۱۹۹	-10.1345
▁بیلسا	-10.1346
▁اشرف	-10.1348
▁مدارک	-10.1349
▁آهنگساز	-10.1352
▁ولز	-10.1353
▁آنقدر	-10.1356
▁مکرون	-10.1358
▁بهرام	-10.1359
▁سرنشینان	-10.1359
▁غار	-10.1361
▁نمایشگاه	-10.1361
▁برندگان	-10.1363
▁مطالعات	-10.1364
▁طیف	-10.1364
نادیده	-10.1367
▁تبلیغاتی	-10.1367
▁عملی	-10.1375
▁شورو	-10.1377
▁زک	-10.1383
▁عادت	-10.1384
▁افشار	-10.1394
اق	-10.1395
▁تروریستی	-10.1397
▁محمدجواد	-10.1399
▁جرم	-10.1402
▁نیوک	-10.1411
▁مای	-10.1422
▁بازرسان	-10.1442
گه	-10.1442
اول	-10.1467
▁ناصر	-10.1469
▁ایام	-10.1475
▁خبرهای	-10.1487
▁قاطع	-10.149
▁ویل	-10.149
زن	-10.1507
▁همای	-10.1521
▁خواستند	-10.1524
بل	-10.1532
▁ون	-10.1558
▁فریاد	-10.1564
▁خ	-10.1566
▁شر	-10.1568
عبدال	-10.1581
خالص	-10.1597
▁خست	-10.1603
برخ	-10.161
▁راند	-10.1615
شده	-10.1631
▁تنگ	-10.1634
▁جین	-10.1637
▁سپ	-10.1647
رداد	-10.1654
داشت	-10.166
▁محدودیتهای	-10.1664
▁محور	-10.1666
▁۴۹	-10.167
▁۱۲۰	-10.1677
▁اوکراین	-10.1695
▁ادعا	-10.1695
پپ	-10.1699
وریس	-10.1702
▁پوش	-10.1706
▁تبلیغات	-10.1706
▁ابزار	-10.1706
▁ناراحت	-10.1709
▁ایستاد	-10.1711
رنو	-10.1714
▁متاسف	-10.1715
▁فلز	-10.1717
▁مرخص	-10.1723
▁پیراهن	-10.1723
▁تعامل	-10.1723
▁مفید	-10.1723
▁مترجم	-10.1723
▁منحصر	-10.1723
▁دانمارک	-10.1724
▁یمانی	-10.1724
▁مسلمان	-10.1724
▁سانتی	-10.1725
▁مشورت	-10.1726
▁سم	-10.1726
▁زنگنه	-10.1726
▁رمزارزها	-10.1727
▁کارگزار	-10.1728
▁عروس	-10.1731
▁ستایش	-10.1731
▁ایلنا	-10.1741
عوض	-10.1741
▁مخفی	-10.1743
▁کریست	-10.1747
▁پیمان	-10.1747
▁اصلاحات	-10.1749
نیم	-10.175
▁لیدز	-10.1755
▁کیم	-10.1757
▁مطهری	-10.1767
▁گم	-10.1771
▁امکانات	-10.1777
▁گذاشتن	-10.1779
▁زیان	-10.178
▁کشی	-10.179
▁اقلیمی	-10.1791
▁خوردن	-10.1793
ابت	-10.1802
▁فراگیر	-10.1803
پرو	-10.181
▁قدس	-10.1819
▁پوشید	-10.1826
▁خودران	-10.1847
▁دارم	-10.1849
گل	-10.1863
شاهی	-10.1865
▁قربانی	-10.1879
مهدی	-10.1891
▁ایرلند	-10.1893
▁پیست	-10.1893
پل	-10.1905
وریا	-10.1917
▁بدی	-10.1918
▁بینند	-10.1935
▁فرم	-10.1942
▁۷۷	-10.1948
بین	-10.1969
▁شا	-10.1969
▁تخیل	-10.1975
▁کال	-10.1978
▁آم	-10.199
عباس	-10.2
دانشمندان	-10.2
محمود	-10.2001
▁آیند	-10.2006
▁تکان	-10.202
▁متشک	-10.2031
▁مغزی	-10.2032
ممکن	-10.2034
هالی	-10.2044
▁صدو	-10.2048
▁ور	-10.2049
▁افکن	-10.205
▁مهاجر	-10.205
▁رنج	-10.2058
▁کام	-10.206
میم	-10.2073
▁پالا	-10.208
▁باخته	-10.2088
▁محقق	-10.2092
جان	-10.2093
۳۰	-10.2094
▁۷۳	-10.2095
▁خوشحال	-10.2105
▁نقد	-10.2105
▁همجنس	-10.2112
▁حیوان	-10.2114
التهاب	-10.2118
▁مهندس	-10.2119
▁شعار	-10.2122
کننده	-10.2122
▁خلو	-10.2122
▁شطرنج	-10.2123
▁اخطار	-10.2123
▁محوطه	-10.2123
▁همیشگی	-10.2123
خصیص	-10.2123
▁مدیترانه	-10.2123
▁ناامن	-10.2123
▁هیأت	-10.2123
▁دادگستری	-10.2123
▁دادسرا	-10.2123
▁شارژ	-10.2123
▁وسط	-10.2123
▁تروریسم	-10.2124
▁نروژ	-10.2124
▁نکنند	-10.2124
▁لبخند	-10.2125
▁خوک	-10.2125
▁برانگیخت	-10.2125
▁کیلو	-10.2126
▁کریکت	-10.2126
▁ویلموتس	-10.2126
▁تلخ	-10.2127
▁قرص	-10.2127
▁نقص	-10.2128
▁شاخ	-10.2128
▁صبر	-10.2129
▁شیراز	-10.213
▁دموکرات	-10.2131
▁خشم	-10.2132
▁خرج	-10.2136
▁مسکو	-10.2138
ظیف	-10.2138
▁برلین	-10.2139
▁کرمان	-10.214
▁گوگل	-10.2142
بیش	-10.2144
▁۴۶	-10.2145
مرث	-10.2147
▁دانم	-10.2155
▁پروان	-10.2156
▁آیین	-10.2159
بورن	-10.2162
▁پیوستن	-10.2167
▁محتوای	-10.2168
▁سوالات	-10.217
جری	-10.2173
▁محسن	-10.2173
▁ویکتور	-10.2178
▁پیکر	-10.218
▁جنبه	-10.2181
▁موش	-10.2184
▁پراکند	-10.2185
▁خوانندگ	-10.2186
▁خواندن	-10.219
▁بوش	-10.2195
▁پرسی	-10.2197
یسم	-10.2198
▁افتد	-10.2199
▁پرسش	-10.2202
یف	-10.2205
▁وار	-10.2221
▁بدر	-10.2224
▁داشتم	-10.2229
▁بدل	-10.2229
▁ص	-10.2245
▁سیف	-10.2246
▁استعداد	-10.225
▁کشیدن	-10.2276
▁پستان	-10.2278
باران	-10.2279
اری	-10.2288
خیلی	-10.2289
▁نامدار	-10.2294
▁هاوس	-10.2298
▁بشری	-10.231
▁جهانگیری	-10.2313
▁دراز	-10.232
▁مرس	-10.233
▁آسیای	-10.234
نواک	-10.2351
بری	-10.2352
پوری	-10.2352
فا	-10.2361
زی	-10.2383
▁پارسی	-10.2407
▁لاش	-10.2409
ظهر	-10.2418
افغانستان	-10.2418
خارج	-10.242
یرت	-10.2422
احمد	-10.2422
▁معمولی	-10.2428
▁راهبر	-10.2429
یژن	-10.2439
▁باستانی	-10.2442
▁رقص	-10.2484
مجموعه	-10.2493
▁ارزان	-10.2496
▁اما	-10.2497
▁احت	-10.25
▁طب	-10.2504
▁ناو	-10.2507
▁۱۵۰۰	-10.251
▁میلیاردها	-10.2516
▁ریخت	-10.2525
▁تخلف	-10.2532
▁مخصوص	-10.2532
▁اقلی	-10.2533
▁حاکم	-10.2534
▁آباد	-10.2536
▁تاب	-10.2537
▁امتحان	-10.254
▁شمخانی	-10.254
▁کانسپت	-10.254
▁اصرار	-10.254
▁تحمیل	-10.254
▁طنز	-10.254
▁خوراک	-10.254
▁سلمان	-10.2541
▁سرویس	-10.2543
▁استراتژیک	-10.2544
▁حیدر	-10.2544
▁ژنتیک	-10.2548
▁هندی	-10.2548
▁زوج	-10.2548
▁هیوندای	-10.2548
▁منوچ	-10.2548
▁ویلیامز	-10.2549
▁ابوال	-10.2549
▁پیوند	-10.255
▁ثروت	-10.255
▁کارلوس	-10.2551
▁تعهد	-10.2552
▁پلاک	-10.2556
▁گردشگران	-10.2561
▁ناجی	-10.2566
▁کنگره	-10.2566
▁منار	-10.2567
▁صرفا	-10.257
▁تایم	-10.2571
▁فرزندان	-10.2571
▁ادعای	-10.2574
▁سرو	-10.2575
بخش	-10.2576
▁استخر	-10.2577
▁گفتگوها	-10.258
▁انتقادها	-10.2581
▁عطرساز	-10.2582
▁نای	-10.259
▁هنگ	-10.2592
▁دستیابی	-10.2596
▁بروند	-10.2606
▁جدایی	-10.2608
▁صادرکنند	-10.2611
تب	-10.2615
▁اموا	-10.2616
▁آوردند	-10.2617
یس	-10.2625
▁آوردن	-10.2632
▁قدمت	-10.2634
▁نورد	-10.2642
▁سل	-10.2656
▁تمرکز	-10.2657
▁نزد	-10.2681
▁کنگ	-10.2699
▁پرهی	-10.2699
▁پرسید	-10.2704
▁وسی	-10.2729
▁بستن	-10.273
▁۵۹	-10.2738
وت	-10.2744
▁ساختن	-10.2779
▁جوانی	-10.2781
واک	-10.2789
▁افشا	-10.2796
▁یازده	-10.2822
ونگ	-10.2825
▁ارا	-10.2828
▁تابلوی	-10.2834
▁توانم	-10.2845
▁پرند	-10.2847
شاخص	-10.2852
فیلم	-10.2854
▁معترض	-10.2889
▁کاش	-10.2906
▁بس	-10.2907
▁۱۳۹	-10.2919
▁مادری	-10.2933
▁افسر	-10.2936
▁بازیگری	-10.2954
▁مستق	-10.2956
▁مصاد	-10.2974
▁پارالمپیک	-10.2975
▁مقیم	-10.2975
▁دهقان	-10.2975
▁نکند	-10.2975
▁اکسیژن	-10.2975
▁سراغ	-10.2975
▁۹۱	-10.2975
▁بدانیم	-10.2976
▁مخابرات	-10.2977
▁فسیل	-10.2977
▁متقاضی	-10.2977
▁پردازد	-10.2977
▁کشاند	-10.2977
▁اهداف	-10.2977
▁جمال	-10.298
▁پرندگان	-10.2982
▁رابرت	-10.2984
▁غریب	-10.2984
▁ایراد	-10.2985
▁ببرد	-10.2987
▁محاسبات	-10.2987
▁کیفر	-10.2988
▁شخص	-10.2988
▁گلو	-10.2988
▁۵۲	-10.299
▁نسب	-10.299
▁دایناسور	-10.2992
▁اپرا	-10.2993
▁کاربر	-10.2994
▁اهدا	-10.2994
▁کاظم	-10.2994
▁سناتور	-10.2995
▁بجا	-10.2996
▁علاقمندان	-10.2997
▁اذ	-10.3002
▁ستارگان	-10.3005
▁آورند	-10.3005
▁نکردن	-10.3006
▁۱۳۷	-10.3009
▁تند	-10.3018
▁موشکی	-10.3027
▁بازماند	-10.3031
▁هستم	-10.3033
▁پوشاند	-10.3037
▁زور	-10.3037
▁جدال	-10.306
▁استرالیایی	-10.306
جیره	-10.3068
▁روسی	-10.3071
▁کت	-10.3074
رشو	-10.3075
▁ظه	-10.3091
▁ضعیف	-10.3096
▁روسا	-10.31
لینی	-10.3114
▁آزمای	-10.3141
▁عموم	-10.3156
▁گرایان	-10.3161
▁اندیش	-10.3171
▁کشت	-10.3177
▁ثروتمند	-10.3177
▁۸۰۰	-10.3186
گذاری	-10.3186
▁اسلم	-10.3187
▁بومی	-10.3191
▁جعل	-10.3197
حتی	-10.3206
▁بوک	-10.3216
▁راس	-10.3218
▁امن	-10.3222
الله	-10.3224
▁برقی	-10.3232
▁دف	-10.3238
▁وست	-10.3239
▁شدم	-10.3241
▁ادا	-10.3257
▁گفتگوی	-10.3275
واد	-10.3277
▁یکم	-10.3282
▁شریفی	-10.3283
ضعیف	-10.3304
استقلال	-10.3307
آخر	-10.3307
معاون	-10.3307
وان	-10.3311
وپن	-10.3315
▁گانه	-10.3316
▁صورتی	-10.333
▁داستانی	-10.3339
▁جن	-10.3354
▁راک	-10.3361
▁گیاه	-10.3385
▁مشتری	-10.3388
غال	-10.3389
▁اصطلاح	-10.3398
ناد	-10.3413
▁اخلال	-10.3429
▁تخصص	-10.3429
▁خانوادگی	-10.3429
▁دبلیو	-10.3429
▁رتکلیف	-10.3429
▁رضوی	-10.3429
▁استراحت	-10.3429
▁صنف	-10.3429
▁فلوریدا	-10.3429
▁بازگردد	-10.3429
▁لزوم	-10.3429
صوفی	-10.343
▁ونیز	-10.343
ژانس	-10.343
▁اپلیکیشن	-10.3431
▁رسول	-10.3432
▁خاموش	-10.3432
▁بوندس	-10.3433
▁ابعاد	-10.3433
▁مقطع	-10.3434
▁خرند	-10.3435
▁سلف	-10.3435
وطن	-10.3437
▁ترکمن	-10.3438
▁فتاح	-10.3439
▁مرگبار	-10.3439
ختم	-10.3439
▁راموس	-10.344
▁ترسیم	-10.3441
▁هامر	-10.3441
▁مالاریا	-10.3444
▁آشفت	-10.3445
▁شاگردان	-10.3445
▁۷۴	-10.3448
▁کمپین	-10.345
▁غالب	-10.3451
▁آموزان	-10.3451
▁سالمندان	-10.3453
▁وجه	-10.3457
▁دقت	-10.3457
▁ازای	-10.3459
▁اریک	-10.3464
▁احساسات	-10.3464
▁اوکراینی	-10.3466
▁افتتاح	-10.3466
▁سراسری	-10.347
▁افکار	-10.3471
▁لیور	-10.3485
▁دیپلمات	-10.3488
▁خانوارهای	-10.3488
▁عقید	-10.3494
▁تحلیلگر	-10.3501
یحی	-10.3507
▁نژادی	-10.3512
▁اسپ	-10.3522
▁اوست	-10.3522
▁نمکی	-10.3522
▁وزارتخانه	-10.3524
▁رساندن	-10.3525
▁طرز	-10.3537
لحق	-10.3557
۲۵	-10.3561
▁ریاض	-10.3608
▁حریفان	-10.3616
▁کاس	-10.3661
▁ویدئویی	-10.3668
▁هجومی	-10.3673
خته	-10.3674
لینگ	-10.3683
▁شاعران	-10.3703
خواست	-10.3725
▁گریز	-10.3727
▁مرغدار	-10.3731
▁لا	-10.3758
ستون	-10.3762
عداد	-10.3764
نر	-10.3773
▁آندر	-10.3775
▁۹۰۰	-10.3777
تمرکز	-10.378
طبق	-10.3783
استفاده	-10.3783
عنوان	-10.3783
کدام	-10.3784
گروه	-10.3823
▁رحم	-10.3824
▁کرو	-10.3827
▁قراردادش	-10.383
رق	-10.3843
▁فراری	-10.3861
▁طوری	-10.3869
ارغ	-10.3877
شمار	-10.3877
▁۱۳۶	-10.388
▁مامور	-10.3885
▁دردسر	-10.3894
▁دود	-10.3903
غذی	-10.3904
▁ارمنستان	-10.3905
▁استخدام	-10.3905
▁اعتراف	-10.3905
▁تأثیر	-10.3905
▁حرکات	-10.3905
▁غربالگری	-10.3905
▁فلسفه	-10.3905
▁منتخب	-10.3905
▁موظف	-10.3905
▁بروکسل	-10.3905
▁ذکر	-10.3905
▁نیوزیلند	-10.3905
▁خادم	-10.3905
▁شلوغ	-10.3906
▁لهستان	-10.3906
▁ثامن	-10.3906
▁کنسول	-10.3906
▁یوگا	-10.3906
▁تماشاچی	-10.3907
▁آگاه	-10.3907
▁لنون	-10.3907
▁پیاده	-10.3907
▁تلگرام	-10.3907
▁غرق	-10.3907
▁قطار	-10.3907
▁سرباز	-10.3908
▁خلاقیت	-10.3908
▁بامداد	-10.3909
▁اعطا	-10.3909
▁بزنند	-10.3911
▁جاستین	-10.3912
▁چراغ	-10.3913
▁متعهد	-10.3913
ماهی	-10.3913
▁رولز	-10.3913
▁رصد	-10.3913
▁نادرست	-10.3914
▁همسایه	-10.3915
▁فرونشست	-10.3915
▁فیلتر	-10.3917
▁منتف	-10.3922
▁ژوز	-10.3926
▁اندازد	-10.3926
▁تفاهم	-10.3927
▁سیاستمداران	-10.3929
▁صعودی	-10.3932
▁اح	-10.3934
▁امشب	-10.3938
▁۱۳۸	-10.3939
▁رانندگی	-10.3939
▁خشکسالی	-10.3939
▁پیشگیر	-10.394
▁توضیحات	-10.3945
▁نت	-10.3951
▁گیاهان	-10.3952
▁شکار	-10.3954
▁سازد	-10.3959
▁آگ	-10.3967
▁شور	-10.397
▁اعضا	-10.3983
▁انتقادهای	-10.3994
دوف	-10.3998
▁مغاز	-10.4002
▁آمدند	-10.4014
▁نامزدها	-10.4036
▁آرا	-10.4052
▁شهردار	-10.4057
لف	-10.4069
یون	-10.407
▁درس	-10.4078
▁چیزهای	-10.4127
اسل	-10.4137
تیک	-10.4147
کت	-10.4149
کسی	-10.4165
▁حیاتی	-10.4188
عه	-10.4204
▁شمسی	-10.4204
▁۱۹۴	-10.421
▁سیام	-10.4222
▁نمود	-10.4228
▁شه	-10.4248
▁ناب	-10.4255
اج	-10.4259
۶۰	-10.428
مراسم	-10.4283
مسئولان	-10.4298
▁کاست	-10.4307
▁وب	-10.4307
▁اله	-10.4314
▁شدیدتر	-10.4331
▁سیزدهم	-10.435
ادا	-10.4359
سیتی	-10.4361
▁فضانورد	-10.4365
▁کتی	-10.4385
سپاری	-10.4387
▁شاهکار	-10.44
▁دم	-10.4405
▁تعقیب	-10.4405
▁عضلا	-10.4405
▁خسارات	-10.4405
▁بیفتد	-10.4405
▁دروغ	-10.4405
▁یهودی	-10.4405
▁لالیگا	-10.4405
▁انبوه	-10.4406
▁خیانت	-10.4406
▁تضمین	-10.4406
▁تالار	-10.4406
▁بگویم	-10.4406
▁اسپرت	-10.4406
▁لاریجان	-10.4407
▁سایبری	-10.4407
▁اکسید	-10.4408
▁تکلیف	-10.4408
▁فجر	-10.4408
▁عنکبوت	-10.4409
▁مهرماه	-10.4409
▁کووید۱۹	-10.4409
▁مصون	-10.441
▁الحسن	-10.441
▁ارزشمند	-10.441
▁ناپدید	-10.4411
▁بزوس	-10.4411
▁طرفدار	-10.4411
▁دپ	-10.4413
▁متناسب	-10.4413
▁تندرو	-10.4415
▁جهاد	-10.4415
▁بیروت	-10.4415
▁جاشوا	-10.4416
▁۱۹۷	-10.4417
▁مبادلات	-10.4419
ژ	-10.4419
▁انصاریان	-10.4422
▁نظم	-10.4422
▁مداوم	-10.4422
▁مرتب	-10.4428
▁جزییات	-10.4428
▁۲۰۰۴	-10.4429
▁صلاح	-10.4429
▁کنزو	-10.4429
تلاف	-10.443
سم	-10.4434
اقد	-10.4435
▁فرانک	-10.4438
▁نوزدهم	-10.4443
▁خوا	-10.4446
▁تقابل	-10.4449
▁خند	-10.4458
▁پایدار	-10.4461
▁اوین	-10.4464
▁پیرو	-10.4476
▁آرامکو	-10.4483
▁جبه	-10.4484
▁نهاده	-10.4484
▁رویس	-10.4491
▁ماز	-10.4492
▁زیستی	-10.4495
▁روستا	-10.4509
▁خواهر	-10.4509
▁کشم	-10.4511
▁ترور	-10.4518
▁انگل	-10.4519
▁شناسان	-10.4522
▁کش	-10.4532
▁بها	-10.4534
▁پناهندگ	-10.4536
لوله	-10.4541
ناک	-10.4555
▁درانی	-10.4566
▁هواپیماهای	-10.457
▁گرفتار	-10.457
▁سرا	-10.4575
لور	-10.4579
▁دوحه	-10.4581
▁لوان	-10.4608
▁کاوا	-10.4615
مپ	-10.4624
▁ظهر	-10.4624
▁ماهیگیر	-10.4625
▁مادران	-10.4627
▁مسیحی	-10.4647
موند	-10.4647
▁کوچکتر	-10.4649
▁مهمان	-10.4654
▁تای	-10.4662
▁زو	-10.4662
▁نس	-10.467
▁یکسال	-10.4677
▁صحن	-10.4677
بانی	-10.4678
▁تار	-10.4689
ایتون	-10.469
▁دهان	-10.4704
▁۱۹۳	-10.4704
▁سینماها	-10.471
▁جف	-10.472
▁علیر	-10.4723
▁آمریکاست	-10.4725
▁الکس	-10.4735
▁همگ	-10.4736
رستان	-10.475
▁پلی	-10.4758
▁نیما	-10.4758
▁پوری	-10.4766
▁سید	-10.4772
▁داروهای	-10.4775
▁اکس	-10.4781
صورت	-10.4782
مارک	-10.4782
▁یکصد	-10.4782
عی	-10.4788
وجود	-10.4791
مرکز	-10.4802
گاهی	-10.4802
بعد	-10.4804
پژوهشگران	-10.4809
▁کپ	-10.481
پرس	-10.481
اتحاد	-10.481
جانب	-10.4815
▁خرابکار	-10.4817
دادگاه	-10.4817
انس	-10.4825
▁تام	-10.4826
▁کپی	-10.4826
حالا	-10.4829
▁شل	-10.4843
▁سرف	-10.4849
لم	-10.4861
سو	-10.4866
▁تلف	-10.488
▁ماس	-10.4888
▁کو	-10.4891
▁سون	-10.4895
بند	-10.4895
جایی	-10.4897
▁اختلا	-10.49
▁تاز	-10.492
▁مکزیک	-10.4924
▁ژن	-10.4924
▁سحر	-10.4927
▁مقدم	-10.493
▁فرج	-10.4931
▁آغداشلو	-10.4932
▁بفروشد	-10.4932
▁تدابیر	-10.4932
▁سامسونگ	-10.4932
▁وقایع	-10.4932
▁اعتقاد	-10.4932
▁بلوچ	-10.4932
▁فروپاشی	-10.4932
▁سیگار	-10.4932
▁نشیب	-10.4932
▁برگردد	-10.4932
▁تدوین	-10.4932
▁فدرال	-10.4932
▁ببیند	-10.4932
▁مکرر	-10.4932
▁مسافت	-10.4932
▁مسایل	-10.4932
▁انقراض	-10.4932
▁ابهام	-10.4933
▁زغال	-10.4933
▁بختیار	-10.4933
▁کابین	-10.4933
▁درآورد	-10.4933
▁دماوند	-10.4934
▁تقدی	-10.4934
▁سرتیپ	-10.4934
▁همسان	-10.4934
▁غیاب	-10.4934
▁استرازنکا	-10.4934
▁بوشهر	-10.4934
▁ببینند	-10.4935
▁اکتشاف	-10.4936
▁زنجان	-10.4941
▁دستاوردهای	-10.4941
▁همرسان	-10.4942
▁ترافیک	-10.4942
▁دعوا	-10.4942
▁کریسمس	-10.4942
▁ضایع	-10.4942
▁سادات	-10.4942
▁صحیح	-10.4942
▁کیانوش	-10.4942
▁چوب	-10.4944
▁تیرماه	-10.4945
▁موازی	-10.4947
▁تخلفات	-10.4948
▁الکل	-10.4948
▁استعفای	-10.4948
▁۶۸	-10.4949
▁سگ	-10.4949
▁منچستریونایتد	-10.495
▁محبوبیت	-10.4953
▁پیشرفته	-10.4953
▁پیر	-10.4954
▁رضایت	-10.4956
انصراف	-10.4957
▁کادی	-10.4958
▁روبرت	-10.4959
▁شوید	-10.4959
▁جنایت	-10.496
▁کاربرد	-10.4963
▁نوید	-10.4972
▁همینطور	-10.4976
▁مهاجران	-10.4991
▁رادیویی	-10.4992
▁صفحات	-10.4995
▁دهک	-10.4997
▁درختان	-10.5003
▁وحید	-10.5003
▁گلف	-10.5005
▁نکردند	-10.5006
▁شانزدهم	-10.501
▁شون	-10.5019
▁فیلمبردار	-10.5022
▁مبنای	-10.5027
▁قوس	-10.5032
▁گروگانگیر	-10.5034
نوایی	-10.5035
رشاد	-10.5071
▁داشتیم	-10.5079
▁اصول	-10.5098
شنگ	-10.51
شماری	-10.5125
▁کردستان	-10.5127
▁وزرای	-10.5135
قه	-10.5142
کور	-10.5143
▁سختگیر	-10.5148
▁باستان	-10.5148
▁مکانی	-10.5162
▁صالحی	-10.517
▁شیرین	-10.5171
▁شار	-10.5183
ایح	-10.5195
▁هروی	-10.5199
▁۶۲	-10.5204
▁نداد	-10.5213
▁گرای	-10.5223
▁ثروتمندتر	-10.5241
قص	-10.5251
▁۸۲	-10.5261
▁شی	-10.5278
▁معیشتی	-10.5285
▁عمو	-10.5287
مص	-10.5297
دیگر	-10.533
▁بینیم	-10.5338
رسی	-10.534
▁بوق	-10.5341
رقابت	-10.5365
▁برزیلی	-10.5372
لت	-10.5375
شاید	-10.5377
▁بناها	-10.5379
ساب	-10.5385
سلیم	-10.5393
وش	-10.5403
▁آلن	-10.5424
برنامه	-10.5432
▁تسلی	-10.5432
▁مری	-10.5438
▁مرگش	-10.5439
▁اهدای	-10.5461
▁اظهارنظر	-10.5468
▁کمربند	-10.5474
▁موکو	-10.5477
▁دوج	-10.5479
▁زبا	-10.5486
شیبا	-10.5487
▁مکتوب	-10.5487
▁نوشیدن	-10.5487
▁کارداشیان	-10.5487
▁المستقبل	-10.5487
▁معدود	-10.5487
▁اوباما	-10.5487
▁ثانوی	-10.5487
▁ندارم	-10.5487
▁رفاه	-10.5487
گراندپری	-10.5487
▁محاکم	-10.5488
▁ماندگار	-10.5488
▁آسمایی	-10.5488
▁شوهر	-10.5488
▁کامیون	-10.5488
▁مرجع	-10.5488
▁تایلند	-10.5488
▁آشوری	-10.5488
▁ناچار	-10.5488
▁بندرعباس	-10.5488
▁ساویز	-10.5489
▁مختل	-10.5489
▁ناامید	-10.5489
▁مارچ	-10.5489
▁متنوع	-10.549
وداع	-10.549
▁۱۳۹۶	-10.549
▁مداخل	-10.549
مجانی	-10.5491
▁معارف	-10.5491
▁توجیه	-10.5491
جوبی	-10.5491
▁مواضع	-10.5492
▁برانکو	-10.5493
▁استراتژی	-10.5493
اشا	-10.5493
▁خارا	-10.5494
▁کشتار	-10.5495
▁تکنولوژی	-10.5498
▁شیمی	-10.5499
▁۱۳۴	-10.5501
▁حباب	-10.5501
▁خرسند	-10.5503
▁قم	-10.5503
▁تعادل	-10.5503
تراشه	-10.5504
▁سکوت	-10.551
▁عصب	-10.5511
▁تونس	-10.5511
▁اسپوت	-10.5513
▁داریوش	-10.5513
▁کمرنگ	-10.5514
▁۴۷	-10.5516
▁کول	-10.5516
▁۶۴	-10.552
▁برنز	-10.552
▁دشمنان	-10.5522
▁کیست	-10.5522
▁دهید	-10.5524
▁تعجب	-10.5527
▁کشند	-10.5529
▁قبال	-10.5535
صخره	-10.5539
▁هفدهم	-10.5542
▁کاردن	-10.5546
▁اشیا	-10.5547
▁خال	-10.5551
۱۳	-10.5554
▁زیبا	-10.5554
▁خریداران	-10.5559
▁روزمر	-10.5565
▁ادعاهای	-10.5569
▁ریچارد	-10.5572
سن	-10.5574
▁عی	-10.5578
▁ارت	-10.5588
▁جانور	-10.5599
▁واسط	-10.56
▁شبه	-10.5621
▁آقا	-10.5622
▁برجا	-10.5625
▁همانند	-10.5641
عان	-10.5643
▁ببر	-10.5646
▁حکمتی	-10.5653
▁نوشتن	-10.5653
▁مرم	-10.5654
▁تحقیقی	-10.5666
بچه	-10.5668
▁حدی	-10.5669
▁ناآرامی	-10.5679
جد	-10.5688
▁آفریقایی	-10.5691
▁خدا	-10.5696
▁ادب	-10.5698
بدا	-10.57
لاق	-10.5701
▁سام	-10.571
▁کنیا	-10.5711
وارد	-10.5721
▁سول	-10.573
▁راستی	-10.573
▁انیس	-10.5736
▁منج	-10.5742
زاک	-10.5747
▁پسرش	-10.5763
بهم	-10.5782
▁پولی	-10.58
هرانا	-10.5806
▁عزیزی	-10.5811
▁کارگردانان	-10.5828
▁شهیدی	-10.5862
▁دخترش	-10.5869
▁جرد	-10.589
▁گال	-10.5913
لتیک	-10.5921
▁۷۸	-10.5923
▁برادرش	-10.5928
▁نوار	-10.593
▁سامان	-10.5945
بازار	-10.5949
محققان	-10.5952
گفتگو	-10.5953
لیورپول	-10.5953
باشگاه	-10.5953
فصل	-10.5955
مدت	-10.5956
علیرضا	-10.5959
هدف	-10.5963
▁تعهداتش	-10.5967
آمیز	-10.5971
شدت	-10.5975
▁آرای	-10.5987
چهار	-10.5997
دور	-10.6002
▁۱۹۰	-10.6005
▁ملا	-10.6008
▁عبد	-10.6017
گبا	-10.6029
بست	-10.6031
▁معیار	-10.6061
▁مقر	-10.6064
▁خراب	-10.6067
▁خرس	-10.6071
▁تحقیر	-10.6075
▁بنگلادش	-10.6075
▁تخفیف	-10.6075
▁گشود	-10.6076
▁بگوییم	-10.6076
▁مقصر	-10.6076
▁وصل	-10.6076
▁خفیف	-10.6076
▁خزر	-10.6076
▁سکونت	-10.6076
▁خیال	-10.6076
▁آموزگار	-10.6076
▁تأیید	-10.6076
▁نزول	-10.6076
▁سوگوار	-10.6076
▁منفجر	-10.6076
▁پیشتاز	-10.6076
▁خوست	-10.6076
▁ترسناک	-10.6077
▁احتیاط	-10.6077
▁خوشنام	-10.6077
▁سردبیر	-10.6078
▁پراید	-10.6078
زیگ	-10.6078
فلاتو	-10.6079
▁۱۹۹۰	-10.608
▁مزرعه	-10.608
▁ناتوان	-10.608
▁۱۹۹۸	-10.608
قدس	-10.6081
▁مدرک	-10.6081
▁کلینیک	-10.6081
▁سنبل	-10.6082
▁هشتگ	-10.6083
تاسف	-10.6084
▁۲۰۳۰	-10.6084
▁توخل	-10.6087
▁زیستگاه	-10.6089
▁حداد	-10.609
▁دیدگاه	-10.609
▁کلود	-10.609
▁ذی	-10.6091
▁شایعات	-10.6092
▁تسهیلات	-10.6094
▁نکات	-10.6096
▁کیهان	-10.61
▁بلوم	-10.6101
▁اضطراب	-10.6102
▁تسلیت	-10.6106
▁تحصیلات	-10.6107
▁گرایش	-10.6111
▁پناهجویان	-10.6112
▁شانه	-10.6117
▁گردند	-10.6119
▁بقایای	-10.612
▁دارید	-10.612
▁آگاهی	-10.6124
▁موجودات	-10.6124
▁جست	-10.613
▁سربازان	-10.6131
▁۱۹۵	-10.6132
▁رایج	-10.6132
▁بافت	-10.6133
▁گذارند	-10.6145
قریب	-10.615
▁کاوه	-10.6152
▁مایل	-10.6152
▁کلام	-10.616
▁نیا	-10.6162
نشین	-10.6167
▁انتقالات	-10.6173
▁سفی	-10.6175
▁هکرها	-10.6178
▁کوبا	-10.6181
▁قطعات	-10.6182
▁انتقادات	-10.6183
▁تقویم	-10.6185
▁یکسان	-10.6187
▁سیزده	-10.619
عشی	-10.6224
▁شاپو	-10.6231
زم	-10.6235
▁جنس	-10.6241
▁رخت	-10.6245
▁عالمی	-10.6252
▁شادی	-10.6254
▁۵۳	-10.6255
▁قض	-10.6259
▁بمب	-10.6259
▁قراردادهای	-10.6259
▁رزم	-10.6266
▁منصور	-10.6273
▁تصمیمات	-10.6273
▁تاریک	-10.6274
▁تابلو	-10.628
یمی	-10.6306
▁الگوی	-10.6307
باز	-10.6311
▁پروازها	-10.6315
▁فلیک	-10.6324
▁عکسی	-10.6336
▁ماری	-10.6336
▁شریف	-10.6337
▁لوکا	-10.6356
▁خودروی	-10.6373
▁برداشتن	-10.639
▁غم	-10.6395
▁پژو	-10.6408
داوم	-10.6415
شاه	-10.6418
▁جلالی	-10.6418
▁خطای	-10.6425
▁۴۱	-10.6473
▁مغ	-10.6483
▁رکوردهای	-10.6483
پر	-10.6492
بویایی	-10.6499
▁مالکان	-10.6502
▁پاد	-10.6504
مدیر	-10.6519
اف	-10.6528
۷۰	-10.6528
▁نیافت	-10.6544
خاطر	-10.6549
▁درخش	-10.6564
▁سطو	-10.6574
واسط	-10.6576
تولید	-10.6578
علاو	-10.658
▁نوآور	-10.6581
شیوع	-10.6583
پینگ	-10.659
زیه	-10.6591
دهنده	-10.6592
▁استاین	-10.6626
▁انتخابی	-10.6629
ابلو	-10.6631
▁لیگا	-10.6631
▁برف	-10.6643
▁انگشت	-10.6649
▁پارس	-10.665
▁همتای	-10.6652
مرگ	-10.6654
▁سانتریفیوژ	-10.6681
ویچ	-10.6684
حقق	-10.6685
پرها	-10.6688
▁قبر	-10.6691
رشد	-10.6694
▁مشکات	-10.6698
▁رمزارز	-10.6699
▁گابریل	-10.67
▁اتوبوس	-10.67
▁اشتراک	-10.67
▁تورنتو	-10.67
▁صداوسیما	-10.67
▁قائدی	-10.67
▁وحدت	-10.67
▁پیرامون	-10.67
▁طعم	-10.67
▁بفتا	-10.6701
▁نوبخت	-10.6701
▁مظاهری	-10.6701
▁تمدن	-10.6701
▁پاکبان	-10.6701
▁آپارتمان	-10.6701
▁ناشناخت	-10.6701
▁بگیرید	-10.6702
▁محض	-10.6702
▁آرشیو	-10.6702
▁جابجا	-10.6702
▁بپردازد	-10.6702
▁اتکا	-10.6703
▁بگیریم	-10.6703
هنورد	-10.6703
▁پایبند	-10.6703
خیم	-10.6703
▁فرایند	-10.6703
▁ویرجی	-10.6703
▁۱۳۹۵	-10.6704
▁بمانند	-10.6704
▁سالیوان	-10.6705
▁لامبورگینی	-10.6705
▁دانشکد	-10.6705
▁خزان	-10.6705
▁کوهستان	-10.6705
▁مقرر	-10.6706
▁۱۹۴۰	-10.6706
▁تجلی	-10.6706
▁نشت	-10.6707
▁حجاب	-10.6708
▁مخدر	-10.6709
▁استونز	-10.671
▁۱۴۰	-10.6712
▁مرتضی	-10.6713
▁آغوش	-10.6713
▁عقرب	-10.6713
▁حساسیت	-10.6713
یویا	-10.6715
▁ببرند	-10.6716
▁قفس	-10.672
▁بخواهی	-10.6723
▁رول	-10.6726
▁اسحاق	-10.6729
▁جمشید	-10.6729
▁قند	-10.6733
▁بولت	-10.6734
▁تدری	-10.6735
▁کج	-10.6738
▁بازارها	-10.6743
▁شناسند	-10.6744
▁جنای	-10.6745
▁عقل	-10.6753
شیر	-10.6757
▁مردگان	-10.6762
۲۳	-10.6764
▁پاهای	-10.6772
▁رفتارهای	-10.6777
▁دنیاست	-10.6778
تری	-10.678
▁ضربات	-10.6783
▁رایزن	-10.6787
▁جوز	-10.679
▁گذاشتند	-10.6791
▁تیک	-10.6796
▁سیر	-10.6799
نو	-10.6804
▁آبادی	-10.6815
گو	-10.6821
▁تروی	-10.6822
▁عمران	-10.6823
▁برگ	-10.6826
ایدو	-10.6826
▁پیشرو	-10.6827
▁گزارشگران	-10.6828
▁جاهای	-10.6834
▁دنی	-10.6881
سیویر	-10.6888
▁ایا	-10.689
▁نمادهای	-10.6901
▁۸۱	-10.6912
▁خالص	-10.6913
کسین	-10.6913
▁نق	-10.692
▁لم	-10.6924
▁بل	-10.6926
▁معیشت	-10.6934
▁منطق	-10.6939
▁شهید	-10.6942
▁کارفرمای	-10.6948
▁اجبار	-10.6949
گرفته	-10.6957
▁کمدی	-10.6962
لپ	-10.6971
هام	-10.6994
راتی	-10.6998
رسون	-10.7003
▁کیت	-10.7024
▁مهل	-10.7024
▁آفرین	-10.7025
اع	-10.7042
▁مهمتر	-10.7054
▁قومی	-10.7055
گن	-10.7056
ندگان	-10.7056
▁بلی	-10.7062
▁نرسید	-10.7066
نش	-10.7073
▁قش	-10.7104
▁ریاضی	-10.7108
وله	-10.7109
▁نظرات	-10.7112
▁۷۲	-10.7114
▁بیل	-10.7116
ملو	-10.7119
▁الی	-10.7123
▁منظر	-10.7127
وح	-10.713
بع	-10.7161
▁آثارش	-10.7185
▁چشمان	-10.7186
والی	-10.7186
▁۷۶	-10.7191
▁شع	-10.7194
▁کاغذ	-10.7199
تحول	-10.7232
▁بارز	-10.7241
خانواده	-10.7245
▁کنو	-10.7253
بومی	-10.7256
ناظر	-10.7256
الدین	-10.727
▁واحدها	-10.7281
▁درج	-10.7281
سخ	-10.7282
▁تثب	-10.7282
درصد	-10.7288
امیر	-10.729
▁فروشی	-10.7295
▁هوادار	-10.7295
کوبی	-10.7298
▁بور	-10.7303
یع	-10.7303
▁صدم	-10.731
▁دورت	-10.7321
▁کوچکی	-10.7323
جیب	-10.7328
سئول	-10.7328
▁معما	-10.7331
غه	-10.7334
▁چار	-10.734
▁سوئ	-10.7347
لوت	-10.7354
▁گارد	-10.7356
▁مأمور	-10.7361
▁اسرار	-10.7367
دغدغه	-10.7367
▁فزاینده	-10.7367
▁مایکروسافت	-10.7367
▁ناقض	-10.7367
▁واضح	-10.7367
▁پرطرفدار	-10.7367
▁گلمکانی	-10.7367
▁یونسکو	-10.7367
▁اپیدمی	-10.7367
▁غفوری	-10.7367
▁ابتکار	-10.7367
▁شباهت	-10.7367
▁بکشند	-10.7367
▁تبادل	-10.7367
▁وحشتناک	-10.7367
▁فلج	-10.7367
▁سعد	-10.7367
▁برآمد	-10.7367
▁سوپرلیگ	-10.7368
▁متاثر	-10.7368
▁لگن	-10.7368
▁سارس	-10.7368
▁توفان	-10.7369
▁گلایه	-10.7369
▁راپینو	-10.7369
▁پشتیبان	-10.7369
▁تشری	-10.737
▁ترانزیت	-10.737
▁وفادار	-10.7371
▁تعبیر	-10.7371
▁پورتو	-10.7371
▁زودهنگام	-10.7373
▁آشام	-10.7375
▁هستید	-10.7378
نظرسنجی	-10.7379
▁زهره	-10.7381
▁محکم	-10.7382
▁پرستاران	-10.7383
▁بنکسی	-10.7383
▁امواج	-10.7384
▁عاشقانه	-10.7384
▁نوازند	-10.7386
▁مخصوصا	-10.7387
▁گودال	-10.7387
▁مارتین	-10.739
▁عج	-10.74
▁فای	-10.7402
▁پائی	-10.7402
▁معاش	-10.7403
▁فیس	-10.7406
▁دهلی	-10.7415
احی	-10.7426
▁شناسد	-10.7427
▁بت	-10.7427
▁فضانوردان	-10.7428
کیو	-10.7428
۴۶	-10.7432
▁نیش	-10.7432
▁سیم	-10.7433
▁گیل	-10.7435
لاند	-10.7442
چین	-10.7443
▁روال	-10.7445
▁نداشتن	-10.7446
▁دهندگان	-10.7448
سلسل	-10.7457
▁خواندند	-10.7464
▁نداشتم	-10.7465
ستگی	-10.7467
▁زایی	-10.7469
▁ندیده	-10.7474
▁افتادن	-10.7498
▁لیست	-10.7499
▁گویی	-10.7503
▁بلوک	-10.751
▁نسبتا	-10.751
▁دوازدهم	-10.7511
▁پرت	-10.7511
▁احمدشا	-10.7513
نصف	-10.7514
لندر	-10.7523
▁کلا	-10.7533
▁۹۴	-10.7534
▁چال	-10.7537
ریت	-10.754
▁حاجی	-10.7541
▁تهدیدهای	-10.7558
▁رسم	-10.7558
▁کلاهبردار	-10.7559
▁بوتا	-10.756
رود	-10.7563
▁کاریر	-10.7563
▁زم	-10.7565
▁ریزش	-10.7566
▁هلی	-10.7568
▁دا	-10.7573
▁نویی	-10.7574
▁ویلا	-10.7576
▁دارا	-10.7578
آمار	-10.7589
▁یافتند	-10.7589
▁اکرا	-10.7608
▁تش	-10.762
▁نجف	-10.7621
▁استودیو	-10.7623
▁ویدئو	-10.7627
▁انجامید	-10.7634
▁استثنا	-10.7637
▁تحرک	-10.764
▁کلان	-10.7644
۱۵	-10.765
▁شهریار	-10.7653
جاست	-10.7654
▁شمس	-10.7659
▁سوگ	-10.766
▁شغلی	-10.7662
▁تاکتیکی	-10.7664
▁سرگرمی	-10.7664
▁آرزوی	-10.7664
▁خالق	-10.7667
برید	-10.7668
▁شمارش	-10.7674
▁قف	-10.7682
وفر	-10.7683
نز	-10.7687
▁داروها	-10.7687
▁معنا	-10.7687
کید	-10.7689
درفتار	-10.769
▁ماریا	-10.7692
▁نزدیکان	-10.7705
▁قرمزها	-10.771
▁یور	-10.7713
ولی	-10.7725
تکب	-10.7729
▁محدودیتها	-10.7738
▁ذهنی	-10.7745
بدترین	-10.7747
▁بازو	-10.7748
نک	-10.7762
سفر	-10.7773
▁راد	-10.7776
▁بریت	-10.7787
▁پرآ	-10.7802
▁قطبی	-10.7808
دایی	-10.781
▁وجو	-10.781
▁گا	-10.7852
▁تاریکی	-10.7857
▁۸۶	-10.7859
▁۶۱	-10.7879
▁درخشانی	-10.7903
کمیت	-10.7904
▁میرزا	-10.7911
▁دوازده	-10.7935
سیا	-10.7938
▁نگرفت	-10.7944
بریج	-10.7947
کره	-10.7948
▁کین	-10.7948
سوزی	-10.7951
هادی	-10.7955
انتظار	-10.7959
منابع	-10.7959
نمایندگان	-10.796
▁دال	-10.7964
▁۳۵۰	-10.7968
▁شهرک	-10.797
ترا	-10.7971
اش	-10.7972
▁آزمو	-10.7973
تنها	-10.7976
زا	-10.7979
رالله	-10.7981
▁شرم	-10.7994
▁حو	-10.7994
▁وا	-10.8
▁دوید	-10.8005
▁۸۵	-10.8006
▁مباد	-10.8018
▁۵۴	-10.802
▁خم	-10.8026
۴۰	-10.8032
▁دشمن	-10.8037
▁شنیدن	-10.8042
▁معلم	-10.8044
▁پیمانکار	-10.8044
فرج	-10.8057
▁فیلیپ	-10.8058
▁گوگ	-10.806
▁بانکها	-10.8062
▁دستاورد	-10.8069
کارآمد	-10.807
نوردی	-10.8071
▁مصدوم	-10.8075
▁کولبر	-10.8076
▁لرز	-10.8077
▁معاف	-10.8077
▁پالایش	-10.808
▁اشکال	-10.808
علت	-10.8081
▁استون	-10.8081
ناشناس	-10.8081
▁اثبات	-10.8081
▁الانبیا	-10.8081
▁باورنکردنی	-10.8081
▁بوچانی	-10.8081
▁جامائیکا	-10.8081
▁دژپسند	-10.8081
▁غرامت	-10.8081
▁پنگوئن	-10.8081
▁پوچتینو	-10.8081
▁زریاب	-10.8081
▁محترم	-10.8081
▁پلامر	-10.8081
▁ببینیم	-10.8081
▁کالبد	-10.8081
▁بیاورد	-10.8081
▁استعمار	-10.8081
▁وروورت	-10.8081
▁رولزرویس	-10.8082
▁ارجاع	-10.8082
▁آسوشیتد	-10.8082
ضعف	-10.8082
▁جرایم	-10.8082
▁والیبال	-10.8082
▁اتصال	-10.8082
▁بلاروس	-10.8082
▁مطلوب	-10.8082
▁جلد	-10.8082
▁قزاقستان	-10.8082
▁اعتنا	-10.8083
▁مسترز	-10.8083
▁تبعید	-10.8084
▁تایتان	-10.8084
▁بردارد	-10.8084
▁مکمل	-10.8084
▁نارضای	-10.8084
▁گردانند	-10.8085
لژی	-10.8086
▁احکام	-10.8086
▁تکنیک	-10.8087
▁انستیتو	-10.8087
▁اعتیاد	-10.8087
▁زحمت	-10.8087
فون	-10.8087
▁عزم	-10.8087
▁۱۹۸۰	-10.8088
▁بدانند	-10.8088
▁اردوگاه	-10.8089
فینیتی	-10.809
▁الزام	-10.8092
▁بوکسور	-10.8093
▁تنوع	-10.8093
▁مخفیانه	-10.8094
▁ران	-10.8096
▁آلزایمر	-10.8096
رگس	-10.8096
▁بوئین	-10.8098
▁شمایل	-10.8101
▁شوش	-10.8101
فاد	-10.8102
جیمزباند	-10.8104
▁شوت	-10.8104
▁مشت	-10.8104
▁شعارهای	-10.8105
▁قبرس	-10.8107
▁حبیب	-10.8108
▁کرایس	-10.8111
▁گرمایش	-10.8113
▁اقبال	-10.8115
▁پناهجوی	-10.812
▁شیع	-10.812
▁فیلیپین	-10.8121
▁پیتر	-10.8126
▁آنتی	-10.8128
غیب	-10.8129
▁فلسطینی	-10.8132
▁کرج	-10.8136
▁فیروز	-10.8138
▁نویسد	-10.8145
▁معوقه	-10.8154
▁گردش	-10.8155
▁نمایشنامه	-10.8155
▁تابعیت	-10.8164
▁آرش	-10.8165
▁شوخی	-10.8165
آبادی	-10.8173
▁برایم	-10.8176
▁باختند	-10.8178
مانع	-10.8181
▁میز	-10.819
▁پرتر	-10.821
▁گزارشها	-10.8211
▁بنیادی	-10.8211
▁سلطانی	-10.8217
جیغ	-10.8218
مسی	-10.8225
اطم	-10.8226
▁خطرات	-10.8236
ورا	-10.8242
▁نوشتند	-10.8248
بینی	-10.8251
۹۱	-10.8253
شنا	-10.8259
ظن	-10.8262
▁فال	-10.8268
همه	-10.8287
افت	-10.8288
▁فضلی	-10.8299
▁دیدارهای	-10.83
▁مهاجمان	-10.83
زنی	-10.8304
▁استخوان	-10.831
نال	-10.8318
روی	-10.8321
▁دادیم	-10.8323
▁گرمای	-10.8327
▁بارداری	-10.8339
▁شجاع	-10.8355
نیا	-10.8385
▁همکار	-10.8402
شک	-10.8411
▁فرض	-10.8418
▁جلال	-10.8419
دم	-10.8419
▁عزیز	-10.8423
▁گرین	-10.8423
▁گره	-10.8425
▁کودتای	-10.8436
▁دادم	-10.8448
▁کوش	-10.8458
▁دادخواه	-10.8475
▁زانوی	-10.8478
▁۵۸	-10.8486
▁موجودی	-10.8491
مل	-10.8492
یامک	-10.8502
دخت	-10.8504
▁دانشجویی	-10.8506
▁جیل	-10.8507
▁۶۵۰	-10.8511
▁نیکلا	-10.852
بازی	-10.8563
▁ار	-10.8585
▁۱۷۶	-10.8587
وازه	-10.8593
ایند	-10.8605
برد	-10.8607
▁منصوری	-10.861
هز	-10.8614
▁رش	-10.8615
▁فرخ	-10.8624
▁متیو	-10.8629
شته	-10.8629
▁۵۱	-10.8644
یسون	-10.8667
▁برگشته	-10.867
▁آلود	-10.8671
▁بهانه	-10.8672
پا	-10.8674
خورده	-10.8681
واشی	-10.8682
▁دانشجوی	-10.8697
▁پریش	-10.8708
▁راکت	-10.8713
▁۱۶۰	-10.8717
محمدجواد	-10.8727
کارشناسان	-10.8728
پرسپولیس	-10.8728
انتشار	-10.8729
مجلس	-10.8733
داستان	-10.8735
موسس	-10.8737
▁ایمان	-10.8741
اگ	-10.8743
کرونا	-10.8747
هکرها	-10.8748
▁نیازها	-10.875
اکبر	-10.8763
رهبر	-10.8774
گا	-10.8776
قات	-10.8778
عارض	-10.8784
مسترد	-10.8787
▁مض	-10.88
▁آرم	-10.8812
▁انوش	-10.8813
▁پناه	-10.8815
▁سرنشین	-10.8819
روزنامه	-10.8821
خان	-10.8822
▁یکبار	-10.8827
▁خانوار	-10.8833
▁مشوق	-10.8836
▁ندانست	-10.8837
▁رخداد	-10.8837
▁صح	-10.8838
▁تعمیر	-10.8842
باب	-10.8842
▁تخل	-10.8848
تلسکوپ	-10.8849
▁آلومینیوم	-10.8851
▁بدخشان	-10.8851
▁تصاحب	-10.8851
▁جغرافیای	-10.8851
▁رستگار	-10.8851
▁سرتاسر	-10.8851
▁لاجورد	-10.8851
▁مستضعفان	-10.8851
▁مشکوک	-10.8851
▁نصیب	-10.8851
▁تفکیک	-10.8851
▁سنگاپور	-10.8851
▁مسموم	-10.8851
▁ورشکست	-10.8851
رطوب	-10.8851
▁قسط	-10.8851
▁فطر	-10.8851
▁برشمرد	-10.8851
▁بنتلی	-10.8851
▁حضرت	-10.8851
▁دگرگون	-10.8851
▁فحش	-10.8851
▁بسیج	-10.8851
▁خرچنگ	-10.8851
▁متوفی	-10.8851
▁سرماخورد	-10.8851
▁آویو	-10.8851
▁فشرد	-10.8851
▁بوزمن	-10.8851
▁خدایاری	-10.8851
▁هواشناسی	-10.8852
▁ندهد	-10.8852
▁شرکا	-10.8852
▁هرمز	-10.8852
▁ارتقا	-10.8852
▁کولمن	-10.8852
▁ریل	-10.8852
▁ریورا	-10.8852
▁عارف	-10.8852
▁دشت	-10.8853
▁مکتب	-10.8854
▁مخلو	-10.8854
▁بهبهان	-10.8854
▁پاسخگو	-10.8855
▁توریست	-10.8855
▁اشعار	-10.8855
▁فریب	-10.8855
ابق	-10.8857
ائیل	-10.8858
▁عسل	-10.8859
▁نارس	-10.8859
▁فروغ	-10.8859
▁شفا	-10.8859
▁ویزا	-10.886
▁غلط	-10.886
▁حاکمیت	-10.8863
▁سیارک	-10.8863
▁۱۹۶۰	-10.8865
▁تلفات	-10.8865
▁ارگ	-10.8865
ایب	-10.8865
▁اخلاق	-10.8866
▁دایر	-10.8867
▁بازنشستگی	-10.8868
▁جیپ	-10.8871
▁آرمان	-10.8871
▁۲۰۰۱	-10.8871
▁حتما	-10.8874
▁رونالدینیو	-10.8876
▁دیدیم	-10.8879
▁ژاک	-10.8881
▁لخت	-10.8883
▁والدین	-10.8883
▁تیموری	-10.8884
▁زنگ	-10.8884
▁چهاردهم	-10.8885
▁اقتصاددان	-10.8886
▁میهمان	-10.8886
▁متروکه	-10.8886
▁پیرلو	-10.8888
▁ادارات	-10.8891
▁تیل	-10.8892
▁ناوگان	-10.8895
▁بالگرد	-10.8895
▁مواقع	-10.8897
▁پویا	-10.8901
▁سازه	-10.8906
▁رانت	-10.8907
کست	-10.8909
▁کانادایی	-10.8911
▁گرسنگ	-10.8912
▁افق	-10.8915
▁مستقیما	-10.892
▁مغول	-10.892
اژ	-10.8922
▁شام	-10.8924
ازاد	-10.8928
پارد	-10.893
▁آبادان	-10.8936
▁معط	-10.8937
▁معاین	-10.8937
پای	-10.8946
▁هجدهم	-10.8951
بخشی	-10.8957
▁نیو	-10.8961
▁گفتگوهای	-10.8964
داران	-10.8969
▁همر	-10.8974
▁رساندند	-10.8976
▁اعما	-10.8976
▁دلال	-10.8982
رکاب	-10.9
▁روم	-10.9003
امین	-10.9008
▁گلوب	-10.9016
▁سردار	-10.9019
▁مصل	-10.902
▁مرادی	-10.9022
▁خد	-10.9023
▁بورگ	-10.9028
▁لحن	-10.903
▁اراد	-10.9032
فع	-10.9035
وخامت	-10.904
▁اصولگرای	-10.906
▁بازخوان	-10.9062
▁پرتو	-10.9065
▁تان	-10.9072
▁ادوارد	-10.9074
هدیه	-10.9087
نم	-10.9088
۲۰	-10.9094
▁۸۷	-10.9119
▁آنهاست	-10.9129
تشکر	-10.9131
۶۲	-10.9139
أی	-10.9139
تور	-10.9153
▁وظایف	-10.9177
خواهد	-10.9179
سام	-10.9181
▁گرگ	-10.9187
بالغ	-10.9189
▁نوا	-10.9196
▁ژی	-10.9199
رینگ	-10.9229
▁ابلاغی	-10.9238
باره	-10.9239
▁وگوی	-10.924
▁اسپی	-10.9253
▁قربان	-10.9255
وستا	-10.9256
▁شاهزاد	-10.9256
▁وگوهای	-10.9258
▁امپراتور	-10.9262
▁امپراتوری	-10.9272
▁استیون	-10.929
▁بدین	-10.9299
▁هرکس	-10.931
کان	-10.9312
▁۸۸	-10.9326
▁جولی	-10.9329
▁بم	-10.9336
▁گذراندن	-10.9339
▁ایندی	-10.9353
▁پار	-10.9354
▁گازی	-10.9354
سرین	-10.9355
هید	-10.9387
نکور	-10.939
▁۸۹	-10.9395
یلیون	-10.94
▁مول	-10.9408
وب	-10.9423
وویچ	-10.9425
▁دینی	-10.943
▁مسیرها	-10.9432
▁نما	-10.9433
▁خوانند	-10.9443
▁بطر	-10.9464
▁منک	-10.9472
▁رایان	-10.9474
▁سب	-10.9484
سابقه	-10.9487
▁کینگ	-10.9488
▁اکا	-10.9492
▁گرفتم	-10.9514
گذشت	-10.9516
رچند	-10.9518
پول	-10.9524
▁رامی	-10.9532
دوست	-10.9534
ارو	-10.9542
خون	-10.9544
قرض	-10.9556
ریچارد	-10.9558
اسماعیل	-10.956
آنتونی	-10.956
کانادا	-10.9561
راجر	-10.9561
اخیرا	-10.9561
▁شانزده	-10.9561
فدرر	-10.9561
اعضای	-10.9562
واکنش	-10.9562
آژانس	-10.9564
انتخابات	-10.9566
کرد	-10.9577
خت	-10.9577
فعالان	-10.9579
صالح	-10.96
▁آندری	-10.9601
زاب	-10.9602
▁خبرها	-10.9608
▁افتتاحی	-10.9615
دریچ	-10.9626
▁خشن	-10.9637
▁عرف	-10.9639
▁علاقمند	-10.964
▁نوزاد	-10.9641
وایی	-10.9644
▁فو	-10.9652
تخا	-10.9653
همچن	-10.9654
مایک	-10.9654
▁۱۷۰	-10.9659
▁اپرای	-10.9659
سلط	-10.9668
▁پهپاد	-10.9669
▁ژنو	-10.9674
▁تسهیل	-10.9675
۲۴	-10.968
▁پوشان	-10.9683
مکعب	-10.9683
▁رئوف	-10.9684
▁اتیوپی	-10.9684
▁تزئین	-10.9684
▁دانچیچ	-10.9684
▁چرنکوف	-10.9684
▁کامبوج	-10.9684
▁جاذبه	-10.9684
▁اختراع	-10.9684
▁مصیبت	-10.9684
▁امتداد	-10.9684
▁علایم	-10.9684
▁ویتنام	-10.9684
▁البرز	-10.9684
▁طناب	-10.9684
▁تعزیری	-10.9684
▁زیارت	-10.9684
▁مونتاژ	-10.9684
▁نعمت	-10.9684
▁عواقب	-10.9684
▁مثلث	-10.9684
▁خیام	-10.9684
بالاحصار	-10.9684
▁روشنفکر	-10.9684
▁ذات	-10.9684
▁غیبت	-10.9684
▁گیگز	-10.9684
▁جواهر	-10.9685
▁بازنگری	-10.9685
▁زیرساخت	-10.9685
▁یادبود	-10.9685
▁اعصاب	-10.9685
▁چرب	-10.9685
▁فروزش	-10.9685
ارتاک	-10.9686
▁سازندگان	-10.9686
▁علوی	-10.9686
▁آث	-10.9686
▁جناح	-10.9687
صداق	-10.9687
▁وودز	-10.9687
▁مرکل	-10.9688
▁پاکستانی	-10.9688
▁باشم	-10.9689
▁پیچ	-10.9689
▁پیشکسوت	-10.969
▁ژیمناست	-10.969
▁ماشه	-10.969
▁مساحت	-10.9691
▁دورانگو	-10.9692
ومبل	-10.9692
▁غل	-10.9692
▁دبیرستان	-10.9693
▁شیفت	-10.9693
▁شیلی	-10.9696
حرفه	-10.9696
▁بازگو	-10.9696
▁مایع	-10.9697
▁ژور	-10.9697
▁رسن	-10.9697
▁ابهامات	-10.9699
شت	-10.97
▁تعویض	-10.9701
▁انحصار	-10.9701
۶۱	-10.9702
▁لیتر	-10.9704
▁کالای	-10.9704
▁متحدان	-10.9706
▁باختری	-10.9707
▁ساری	-10.9709
▁رامش	-10.9715
▁نامجو	-10.9718
▁فرق	-10.9718
لماس	-10.9719
▁ویدیوهای	-10.9719
▁فابی	-10.9723
▁حراست	-10.9725
شیپ	-10.9726
▁پذیرای	-10.9726
▁روبروست	-10.9729
▁عرفان	-10.9729
▁مهندسی	-10.9731
▁دن	-10.9732
▁اپراتورها	-10.9734
▁صریح	-10.9735
▁کارتو	-10.9736
▁رحمت	-10.9737
▁انداختن	-10.9738
▁تمرینات	-10.9738
▁جنر	-10.9739
▁گاو	-10.9741
▁پارکر	-10.9742
▁گیلان	-10.9742
▁سرمای	-10.9748
▁الیز	-10.9748
▁مستندساز	-10.9749
▁متخلفان	-10.9754
▁فرزندش	-10.9756
▁سانتریفیوژهای	-10.976
امضاکنندگان	-10.9764
▁حفر	-10.977
کام	-10.9772
▁ویدئوی	-10.9773
▁یوو	-10.9773
تاج	-10.9783
▁خلیل	-10.9788
خبر	-10.9789
▁رس	-10.9789
طرف	-10.9793
زمن	-10.9794
۹۹	-10.9797
نج	-10.9799
▁میلیاردر	-10.9817
▁گرجستانی	-10.9826
صدای	-10.983
▁بوئنو	-10.9842
▁نگارش	-10.9844
▁معاد	-10.9848
▁نوجوانان	-10.9849
▁ضر	-10.9863
▁عکاسان	-10.9868
▁یخی	-10.987
▁نمانده	-10.9875
۱۷	-10.988
▁قان	-10.988
▁فوریت	-10.9881
راق	-10.9889
▁۹۳	-10.9889
غی	-10.99
نما	-10.9901
▁تابو	-10.9904
▁جزای	-10.9904
▁ولا	-10.9911
▁اچ	-10.9916
▁بقای	-10.9928
▁غرو	-10.9936
▁یگان	-10.9945
ایف	-10.9954
▁بدنش	-10.997
رایش	-10.9971
ارمی	-10.9973
▁جنی	-10.9979
▁توس	-10.9982
▁نرفت	-10.9991
▁صاف	-10.9993
▁یار	-11.0004
▁سفارشی	-11.0009
وکی	-11.001
▁بینید	-11.0022
▁ریو	-11.0024
▁تص	-11.0026
▁استرس	-11.0027
کسر	-11.003
گیل	-11.0037
▁موسوی	-11.0038
▁ساو	-11.004
باط	-11.0057
▁مونت	-11.0082
▁اد	-11.0084
▁جهانبخ	-11.0099
▁توفیق	-11.0121
انکن	-11.0126
بیه	-11.013
▁گردشگر	-11.013
▁میکروب	-11.0137
خوان	-11.0146
▁کودتا	-11.0156
▁کان	-11.0169
▁میلاد	-11.0172
▁فق	-11.0176
▁مسیح	-11.0179
▁کیا	-11.0188
بت	-11.019
اکثریت	-11.0192
اراک	-11.0205
رات	-11.0207
▁سرور	-11.0214
▁نیل	-11.0214
▁نگفت	-11.0217
▁خالقی	-11.0227
▁رجب	-11.0232
▁میکل	-11.0246
▁بارور	-11.0252
▁آشنای	-11.0263
▁تندی	-11.0272
▁درآمدها	-11.0289
▁ریالی	-11.0295
▁میلی	-11.0296
▁فروشند	-11.0309
▁برفی	-11.0309
▁مقا	-11.0314
▁اعتراضی	-11.0316
▁بازیار	-11.0322
▁بدوی	-11.0323
▁بزو	-11.0331
▁دیوانه	-11.0334
▁نخ	-11.0356
▁استاندارد	-11.0372
▁کما	-11.0383
مانده	-11.0388
لیچ	-11.0392
▁خل	-11.0417
سنگ	-11.0424
▁۳۲۰	-11.0425
سوم	-11.0428
شما	-11.0433
▁رز	-11.0433
▁نظرهای	-11.0445
▁خر	-11.0445
رخ	-11.0453
زمان	-11.0453
اشی	-11.0453
پذیر	-11.0457
▁پراکن	-11.0457
▁سوری	-11.0467
یونایتد	-11.0469
همیلتون	-11.0469
غلام	-11.0469
ویکتور	-11.0469
رافائل	-11.047
صندوق	-11.0471
(	-11.0471
دونالد	-11.0471
آلمان	-11.0471
روابط	-11.0471
تحقیقات	-11.0473
لیگ	-11.0474
دلال	-11.0477
بررسی	-11.0479
چرا	-11.048
تهران	-11.0484
▁مضر	-11.0486
لقی	-11.0493
تلاش	-11.0494
▁مسن	-11.0495
▁ایر	-11.0511
▁تیره	-11.0512
فتن	-11.0512
▁سور	-11.0515
▁سینو	-11.0518
گشایی	-11.0521
زده	-11.0525
▁افکاری	-11.0526
▁بیگ	-11.053
آمریکایی	-11.0533
▁مال	-11.0536
وحید	-11.0541
▁گویا	-11.0545
▁سرش	-11.0545
سرعت	-11.0547
یوب	-11.0555
▁نویسندگ	-11.0563
▁راهنمای	-11.0564
▁آموز	-11.0564
▁لاری	-11.0575
▁متغیر	-11.058
▁گوف	-11.0583
فیلد	-11.0587
▁خلاق	-11.059
▁اقتدار	-11.0593
▁لابراتوار	-11.0593
▁بخرد	-11.0593
▁جاپلقی	-11.0593
▁دریابندری	-11.0593
▁ملاحظ	-11.0593
▁کرگدن	-11.0593
▁الاجل	-11.0593
▁بفروشند	-11.0593
▁رمضان	-11.0593
▁کالدرون	-11.0593
▁معالج	-11.0593
▁وگاس	-11.0593
▁تکامل	-11.0593
▁تضاد	-11.0593
▁رژیم	-11.0593
▁فخر	-11.0593
▁جونیور	-11.0593
▁خویش	-11.0593
▁اشنویه	-11.0593
گشاد	-11.0593
▁معاهد	-11.0594
▁کلانتری	-11.0594
▁یخچال	-11.0594
▁قضاوت	-11.0594
▁گریبان	-11.0594
▁گردنبند	-11.0594
▁پاراگوئه	-11.0594
▁آرتتا	-11.0594
▁واریز	-11.0594
پچو	-11.0594
▁دوستداران	-11.0595
ئرنیک	-11.0595
▁موکل	-11.0596
▁تنگنا	-11.0596
▁برسند	-11.0596
▁حرم	-11.0597
▁شرح	-11.0597
▁پرشور	-11.0597
▁استفانو	-11.0598
▁نوازندگان	-11.0599
▁کرمانشاه	-11.06
▁بتهوون	-11.06
▁تویوتا	-11.06
تناب	-11.0601
لفظ	-11.0601
▁تبریک	-11.0601
▁هشتصد	-11.0602
▁مائوریتس	-11.0602
▁۱۹۷۰	-11.0603
▁مینا	-11.0603
▁حریم	-11.0604
▁گرامی	-11.0604
▁کوبید	-11.0604
▁اقامتگاه	-11.0605
ئوری	-11.0605
▁فروشندگان	-11.0605
▁ثا	-11.0606
▁شرع	-11.0606
▁اذیت	-11.0606
دترا	-11.0607
▁بزن	-11.0608
نیروی	-11.0609
▁خوشبخت	-11.0612
▁شناگر	-11.0612
▁ندادن	-11.0614
▁متولی	-11.0615
▁درخشید	-11.0616
▁مبالغ	-11.0617
▁تهاجمی	-11.0617
▁۱۳۰	-11.0618
▁تبع	-11.0622
▁تصدی	-11.0624
▁حاد	-11.0626
▁نیس	-11.0629
▁اک	-11.063
▁گردید	-11.063
نوش	-11.0631
▁ودیعه	-11.0634
پانی	-11.0635
رام	-11.0635
▁پیشگامان	-11.0639
▁خوشحالم	-11.064
▁نوزادان	-11.0643
▁سینماگران	-11.0643
▁گردون	-11.0646
▁شاپ	-11.0647
▁اعظم	-11.0647
▁شورش	-11.0655
▁ارگان	-11.0656
بیل	-11.0659
یکپا	-11.0661
▁ماهشهر	-11.0661
▁خلوت	-11.0661
▁تیتر	-11.0661
▁بصر	-11.0673
▁امی	-11.0676
غا	-11.068
▁۷۹	-11.0681
جاد	-11.0683
▁خریده	-11.0683
شد	-11.0685
ذل	-11.0686
▁اولیان	-11.0687
▁افسران	-11.0691
▁سالیانه	-11.0692
▁کوهن	-11.0694
▁پیداست	-11.0717
▁جانش	-11.0719
▁منجم	-11.072
دنظر	-11.0721
▁ادل	-11.0722
▁گزینش	-11.0723
▁مصر	-11.0723
▁شعبان	-11.0725
▁تحریمها	-11.0726
▁آتا	-11.0728
کمی	-11.0731
▁تورین	-11.0736
▁قرض	-11.074
تفلی	-11.0748
▁امتیازات	-11.0751
▁کمپ	-11.0752
▁ماست	-11.0752
▁نشدند	-11.0759
▁دیدم	-11.0764
▁جعفری	-11.0764
▁اینستاگرامش	-11.0766
▁عط	-11.0768
▁محسوس	-11.0774
▁بانو	-11.0777
▁ماندند	-11.078
▁بوس	-11.0786
▁نخب	-11.0787
▁مندان	-11.0804
ویش	-11.0806
▁مزایای	-11.0812
▁محا	-11.0816
شر	-11.0829
▁صدد	-11.0831
▁گرانتر	-11.0844
▁پسرم	-11.0845
▁هادی	-11.0847
▁اندام	-11.0847
خه	-11.0852
یچ	-11.0852
زار	-11.0867
▁رنجر	-11.0885
فرانسی	-11.0888
▁مدتها	-11.0888
۶۳	-11.0893
▁مرت	-11.0903
▁برپا	-11.0909
▁رج	-11.0918
خمین	-11.0921
▁درمی	-11.0924
لاله	-11.0927
▁میلو	-11.0932
▁طیب	-11.0933
▁کلیسای	-11.0941
▁روحی	-11.0956
▁نامم	-11.097
▁جوج	-11.0975
▁مظ	-11.0986
▁کور	-11.099
گفت	-11.0997
بریتی	-11.1005
▁فهمید	-11.1009
▁زی	-11.1013
▁باقر	-11.1016
▁همب	-11.102
▁کلم	-11.1031
آور	-11.1039
▁بفهم	-11.1045
ستعار	-11.1047
زادگان	-11.107
▁بستگ	-11.1071
▁نیت	-11.1086
▁عظیمی	-11.109
▁بازرگان	-11.1091
▁شست	-11.1099
▁دوش	-11.1124
▁لطف	-11.1131
▁آرزو	-11.1137
▁بدنی	-11.1138
▁تون	-11.1149
▁تاکتیک	-11.1158
▁دانشجو	-11.1158
▁سرگرم	-11.1162
رم	-11.1167
▁دزد	-11.1188
▁ژو	-11.1189
▁درو	-11.1189
▁وگوها	-11.1189
وتو	-11.1193
▁گریه	-11.1195
▁هرد	-11.1223
خواه	-11.1224
▁قطرک	-11.1241
▁باریک	-11.1244
▁گودا	-11.1254
▁رکوردها	-11.1271
دفتر	-11.1277
رهای	-11.1277
▁جوش	-11.128
▁کریم	-11.1305
▁یوت	-11.1323
▁فردین	-11.1338
▁انتها	-11.1339
▁الن	-11.1353
مرد	-11.136
زمینی	-11.1361
▁کروناست	-11.1369
ولوژی	-11.1378
▁بله	-11.1393
الت	-11.1393
▁کشمی	-11.1399
▁تفسیر	-11.1409
راب	-11.1424
▁برآوردها	-11.143
▁فقی	-11.1437
▁خار	-11.1437
▁زدای	-11.1445
▁کنی	-11.1449
فرگوس	-11.1453
▁رنگی	-11.1453
۲۸	-11.1455
سول	-11.1458
هاب	-11.1463
▁سمی	-11.1465
▁مجرم	-11.1467
ضرر	-11.1469
اقتصاد	-11.147
انجمن	-11.147
عادت	-11.147
تاتنهام	-11.147
اسپانیا	-11.147
اطلاعات	-11.1471
تصور	-11.1471
تصمیم	-11.1471
مسابقات	-11.1471
حمید	-11.1471
چشم	-11.1471
چلسی	-11.1472
نخست	-11.1473
کاهش	-11.1474
گوف	-11.1474
کمتر	-11.1476
کاوه	-11.1476
اداره	-11.1477
زیر	-11.148
ترکیه	-11.1482
اتریش	-11.1485
رایان	-11.1497
نظامی	-11.1497
سایت	-11.1501
موج	-11.1515
بس	-11.152
▁سیا	-11.1528
لای	-11.1542
▁اب	-11.1544
▁اندرکار	-11.1547
نقل	-11.1548
▁سیاستمدار	-11.1549
▁معاونان	-11.1551
ینز	-11.1555
مال	-11.1573
میلیون	-11.1575
▁دستیار	-11.1576
▁منصو	-11.1581
▁آلبر	-11.1583
نگیز	-11.1584
ضاح	-11.159
▁آبراموویچ	-11.1593
▁آشپز	-11.1593
▁الگوریتم	-11.1593
▁ایوانکوویچ	-11.1593
▁خنثی	-11.1593
▁ربیعی	-11.1593
▁زاناردی	-11.1593
▁مشروب	-11.1593
▁پولیتزر	-11.1593
▁بلانشت	-11.1593
▁اسپایدر	-11.1593
▁سانتیمتر	-11.1593
▁نامناسب	-11.1593
▁ابداع	-11.1593
▁ناگزیر	-11.1593
▁نپال	-11.1593
▁بشردوستانه	-11.1593
▁انباشت	-11.1593
▁متمایز	-11.1593
▁بذر	-11.1593
▁ناپولی	-11.1593
▁موعد	-11.1593
▁زاکانی	-11.1593
▁ساسانی	-11.1593
▁آمبول	-11.1593
▁عنصر	-11.1593
▁برنگشت	-11.1593
▁قائل	-11.1593
▁ووهان	-11.1594
▁توقع	-11.1594
▁آژیر	-11.1594
▁خاشقچی	-11.1594
▁ذیبخش	-11.1594
▁آوازخوان	-11.1594
۱۹۶۵	-11.1594
▁آنکارا	-11.1594
▁جزئی	-11.1594
▁بدهکار	-11.1594
▁دردناک	-11.1594
▁بسازد	-11.1594
▁نکشید	-11.1595
▁دعا	-11.1595
▁شکارچی	-11.1595
اچو	-11.1595
▁مارسیال	-11.1595
▁پردرآمد	-11.1595
▁بارچا	-11.1595
خانقا	-11.1595
▁مصلحت	-11.1595
▁داوود	-11.1596
▁اجساد	-11.1596
▁وادار	-11.1596
▁منظم	-11.1596
▁حسرت	-11.1597
▁آلایند	-11.1598
▁ژنرا	-11.1598
▁گواهی	-11.1599
▁۱۹۲۰	-11.1599
▁صید	-11.1599
▁محفظه	-11.16
▁صراحت	-11.1601
▁مبارک	-11.1602
▁عصبانی	-11.1602
▁روانشناس	-11.1602
عادی	-11.1604
▁نامشخص	-11.1605
▁سانتو	-11.1606
▁بهزاد	-11.1606
لانتی	-11.1607
▁بخواهد	-11.1608
▁پردازند	-11.1609
▁قید	-11.1611
▁گدار	-11.1612
▁مورف	-11.1614
▁کادیس	-11.1615
▁زلا	-11.1615
▁بیورن	-11.1615
▁ناقل	-11.1618
▁نامگذاری	-11.162
▁نهفته	-11.1622
▁امریکا	-11.1626
▁لاس	-11.1626
▁ریسک	-11.1627
▁موها	-11.1627
▁بلک	-11.1627
▁مبت	-11.1628
▁گوییم	-11.163
▁القا	-11.163
▁نمادی	-11.1634
نفتی	-11.164
▁سهراب	-11.1641
▁رائو	-11.1646
▁خوار	-11.1648
▁رابین	-11.1649
کری	-11.1653
▁خیز	-11.1656
▁انداختند	-11.1658
▁کتک	-11.166
▁پستاندار	-11.166
▁کشتن	-11.1664
▁گناه	-11.1666
▁رخشانه	-11.1668
▁یاوری	-11.1669
▁مسبب	-11.1671
▁معیارهای	-11.1688
قیاس	-11.1688
▁مانند	-11.1692
▁مهمانان	-11.1692
▁ننگ	-11.1692
▁کارگروه	-11.1694
▁کانت	-11.1699
▁احسا	-11.1699
▁باگ	-11.17
▁بازجوی	-11.1713
جامع	-11.1715
▁وحشت	-11.1717
▁سپید	-11.172
▁ساترا	-11.1725
▁خش	-11.1731
▁وض	-11.1739
▁فشارها	-11.1744
▁پارچ	-11.175
▁شیوا	-11.1761
کسل	-11.1763
یاط	-11.1766
▁ایوان	-11.1766
▁معین	-11.1769
▁متحدانش	-11.1776
▁مخ	-11.1793
رگ	-11.1807
▁فرحی	-11.1811
روا	-11.1811
▁گار	-11.1818
▁ضیا	-11.1823
ایل	-11.1825
▁محصولاتش	-11.1842
▁برهم	-11.1853
▁یوسی	-11.187
▁ملته	-11.1882
▁نیاورد	-11.1889
نون	-11.1896
اتیو	-11.1898
▁موت	-11.1903
الیاس	-11.1904
▁کاشت	-11.1911
▁فین	-11.1913
▁خاوری	-11.1914
▁پرید	-11.1925
▁شرمن	-11.1925
▁درسی	-11.1929
▁پینگ	-11.1933
اقش	-11.1939
نزا	-11.194
خط	-11.194
ظه	-11.1942
▁الع	-11.1947
▁رقبای	-11.1958
ریس	-11.197
▁لوی	-11.1975
▁عمد	-11.1985
▁بلو	-11.1987
▁بروم	-11.1993
یانت	-11.2012
▁عمدی	-11.202
▁جنگند	-11.2021
ترک	-11.2028
▁سنگر	-11.2034
▁کلاین	-11.2035
رای	-11.2039
▁اکبری	-11.2041
▁درز	-11.2053
▁میلیاردرها	-11.2056
ارت	-11.2057
لقو	-11.2067
▁بیم	-11.2079
▁سهیم	-11.2081
▁هول	-11.2089
▁جند	-11.209
▁خوانی	-11.2091
واقع	-11.2096
▁آرت	-11.2112
ژان	-11.2125
▁آپو	-11.2139
تاب	-11.2145
▁مگ	-11.2146
رن	-11.2161
▁شکستن	-11.2162
▁موم	-11.2167
▁رفتم	-11.2176
لیون	-11.2177
نیف	-11.2193
لوب	-11.2202
ستند	-11.2209
تار	-11.2213
▁بخشید	-11.2238
جیک	-11.224
وظ	-11.224
جل	-11.2243
ترن	-11.2244
هرابی	-11.2248
▁گدا	-11.2252
▁بلخ	-11.2257
▁استثنای	-11.2261
پیر	-11.2267
▁کارفرما	-11.2268
▁نابود	-11.2279
▁اجتماع	-11.2282
ادین	-11.229
ملک	-11.2302
▁لیو	-11.2324
▁الگو	-11.2325
دلیل	-11.2336
▁۶۹	-11.2353
▁سرما	-11.2353
شو	-11.236
بیشترین	-11.2377
نفر	-11.2383
▁سیبر	-11.2392
گروهی	-11.2397
▁عل	-11.24
▁۹۲	-11.2403
تانک	-11.2426
گارت	-11.2461
امع	-11.2461
فور	-11.2468
▁نتوا	-11.247
▁عزیزان	-11.248
▁۱۸۰	-11.2496
پتون	-11.2499
▁ساع	-11.25
▁پناهند	-11.2503
گیر	-11.2517
صول	-11.2518
▁نگر	-11.2519
▁عا	-11.2524
▁صفرها	-11.2527
▁۸۳	-11.2567
خودرو	-11.2569
آلود	-11.2569
سیلوا	-11.2571
▁۱۱۰	-11.2577
تابعیت	-11.2577
شریف	-11.2579
ارزش	-11.2581
تصاویر	-11.2581
هماهنگ	-11.2581
مارادونا	-11.2582
رکورد	-11.2582
مذاکرات	-11.2582
نقاشی	-11.2582
حضور	-11.2582
آغاز	-11.2582
اعلام	-11.2582
تصویر	-11.2582
عضو	-11.2582
موسیقی	-11.2584
گور	-11.2586
مشخص	-11.2588
بحث	-11.259
قصد	-11.2594
کشته	-11.2596
▁خدای	-11.2598
نتیج	-11.2598
درگذشت	-11.26
▁هلندی	-11.2614
ستا	-11.2617
▁بیدار	-11.2619
پاش	-11.2623
▁کاران	-11.2627
هشدار	-11.2631
مول	-11.2631
▁فرانسیس	-11.2634
▁عت	-11.2637
▁مصرفی	-11.2637
▁گوهر	-11.264
لخ	-11.2641
روح	-11.2654
▁ژس	-11.2655
گراد	-11.2655
▁فرش	-11.2659
اران	-11.2662
▁مخاطب	-11.2667
ارد	-11.2669
▁درام	-11.2673
▁گوی	-11.2677
مرز	-11.268
ورت	-11.268
▁سلام	-11.2691
قل	-11.2695
▁گز	-11.2696
▁رومانی	-11.2698
فرید	-11.2699
ترانه	-11.2703
▁آکسفام	-11.2704
▁التحصیل	-11.2704
▁بلایندرز	-11.2704
▁حرارت	-11.2704
▁راهپیمایی	-11.2704
▁رفسنجان	-11.2704
▁شیکاگو	-11.2704
▁ضوابط	-11.2704
▁لومامبا	-11.2704
▁پدافند	-11.2704
▁تأسیس	-11.2704
▁عروق	-11.2704
▁دفاتر	-11.2704
▁فرستد	-11.2704
▁مجاهد	-11.2704
▁مضاعف	-11.2704
▁مسوول	-11.2704
▁نجوا	-11.2704
▁آهسته	-11.2704
▁تقلب	-11.2704
▁فرناند	-11.2704
▁خودکفا	-11.2704
▁محتوی	-11.2704
▁فرنود	-11.2704
▁باکتری	-11.2704
▁بگویند	-11.2704
▁توازن	-11.2704
▁ترشح	-11.2705
▁برگردند	-11.2705
▁فرسود	-11.2705
▁لامرد	-11.2705
▁اتومات	-11.2705
▁تعاون	-11.2705
▁فرسایش	-11.2705
▁کفایت	-11.2705
▁نیچر	-11.2705
▁کالینز	-11.2705
▁النصر	-11.2705
▁رغبت	-11.2705
▁قاعدتا	-11.2705
▁قاتل	-11.2705
تفرق	-11.2706
▁تبلت	-11.2706
▁ندهند	-11.2706
▁هلمند	-11.2706
▁اسپورت	-11.2706
ستثن	-11.2706
▁بنشیند	-11.2706
▁پیانو	-11.2706
▁۱۹۶۷	-11.2706
▁نیکولا	-11.2707
▁خلوتگر	-11.2707
▁حوض	-11.2707
▁بگذارند	-11.2707
▁۱۹۷۳	-11.2708
▁جون	-11.2708
▁مراود	-11.2708
▁خردسال	-11.2709
▁رشید	-11.2709
▁بیافتد	-11.2709
▁یادگار	-11.2709
▁منفرد	-11.271
▁تربیت	-11.271
▁گیتار	-11.2711
▁ونگر	-11.2711
▁۸۴	-11.2713
▁کوهنورد	-11.2713
▁آنفیلد	-11.2714
ائم	-11.2715
▁دلتا	-11.2715
دند	-11.2716
▁انتصاب	-11.2717
▁۱۳۵۰	-11.2718
▁آرایشگاه	-11.2718
▁رودکی	-11.2722
▁قاب	-11.2725
▁زادگاهش	-11.2725
قندهار	-11.2726
▁کوپتر	-11.2728
▁۱۷۳	-11.2729
▁درآمدزا	-11.2729
▁هاپک	-11.2729
▁شانگ	-11.2731
▁شخصا	-11.2734
▁کدخدایی	-11.2734
▁طاق	-11.2735
▁جرج	-11.2736
▁۲۰۰۶	-11.2741
▁معلولان	-11.2745
ادیو	-11.2746
▁نر	-11.2747
▁رکوردشکن	-11.2747
بیست	-11.2748
دربند	-11.2749
▁پرش	-11.2749
▁کانل	-11.275
▁مورل	-11.2751
▁پروست	-11.2752
▁کاتال	-11.2754
سیما	-11.2755
▁کویت	-11.2755
▁طاهر	-11.2755
▁اندرکاران	-11.2756
▁دستیاران	-11.2756
▁استقامت	-11.2758
▁قاعد	-11.2758
▁دوتار	-11.2758
▁سکوها	-11.276
▁صرب	-11.276
▁قارچ	-11.2762
جهان	-11.2764
▁کیمن	-11.2768
بینند	-11.2769
▁حفا	-11.2776
طاع	-11.2779
▁لینک	-11.278
▁بیانسه	-11.2781
▁یابند	-11.2781
▁مصم	-11.2784
▁جفت	-11.2784
▁معتمدی	-11.2786
جوزپ	-11.2787
▁نیمروز	-11.279
▁تراک	-11.2794
▁ساید	-11.2795
باع	-11.2798
۸۹	-11.2798
▁سارا	-11.28
▁سیمون	-11.2801
▁نهایتا	-11.2805
▁کلدی	-11.2812
▁ولد	-11.2812
حمله	-11.282
▁قاسمی	-11.2826
▁کجاست	-11.2826
دامس	-11.2833
▁نیوز	-11.2838
▁فضاپیمای	-11.2843
▁پسند	-11.2846
▁افزودن	-11.2849
▁اختیارات	-11.2851
▁هولم	-11.2855
▁وکلای	-11.2864
۹۳	-11.2866
مهربان	-11.2867
ونتی	-11.287
لاتین	-11.2872
جن	-11.2878
▁بازده	-11.2886
▁هراس	-11.289
▁مسافری	-11.2895
لث	-11.2897
▁گرما	-11.2903
▁دیدند	-11.2913
▁تاجیکان	-11.2915
▁هامون	-11.2923
گوئر	-11.2924
▁قوز	-11.2925
▁دنیل	-11.2927
▁جراحت	-11.2935
▁تراز	-11.294
▁حام	-11.2941
▁مشخصات	-11.2948
▁برگردانده	-11.2951
▁چرخش	-11.2953
▁کاپل	-11.2958
انزا	-11.2958
▁نیستم	-11.2962
خور	-11.2988
▁لوکه	-11.2988
▁ماتی	-11.299
أ	-11.299
▁دات	-11.3013
لز	-11.3022
▁اوار	-11.3026
فره	-11.303
▁لن	-11.3033
▁کامپیوترها	-11.3038
▁ریگ	-11.3041
▁کد	-11.3049
▁بروید	-11.3053
مالا	-11.3056
فرجام	-11.3056
کینگ	-11.3058
▁پرز	-11.3059
▁مکس	-11.3059
بورد	-11.307
▁پان	-11.3073
▁دول	-11.3079
قبل	-11.3083
▁دخ	-11.3086
▁کیلی	-11.3088
سوس	-11.309
▁حواس	-11.3092
ویژ	-11.3113
▁خریدن	-11.3124
فن	-11.3126
▁بنیا	-11.3127
▁پاش	-11.314
رنج	-11.3142
بورس	-11.3149
▁کران	-11.3151
▁لاب	-11.3153
▁راستش	-11.3163
قای	-11.3166
ریگو	-11.3168
▁نتوان	-11.3173
▁برگزارکنند	-11.3179
▁برآورده	-11.3188
▁کلاه	-11.3197
▁منظره	-11.3201
▁هشدارهای	-11.3208
▁طل	-11.3209
۴۲	-11.3215
دین	-11.3223
امید	-11.3238
▁چارل	-11.3239
▁مولان	-11.3251
جرد	-11.3256
▁کوب	-11.3269
روج	-11.3285
▁ناک	-11.33
▁چی	-11.3301
▁استادان	-11.3368
▁اخ	-11.3382
▁رپ	-11.3396
▁۲۰۲	-11.3399
▁جیمی	-11.3403
کنیم	-11.341
▁درگذشته	-11.3422
▁کوما	-11.3438
▁چای	-11.3438
▁قاطعان	-11.3438
▁فورا	-11.3442
▁داو	-11.3452
صیل	-11.3453
▁درها	-11.3462
دفو	-11.3466
▁پسران	-11.3472
▁ریوی	-11.3479
دالله	-11.3482
▁خلا	-11.3499
▁بادی	-11.3507
▁پیشا	-11.3509
▁رقبا	-11.351
سرجی	-11.3516
▁تصویربردار	-11.3517
▁ناآرام	-11.3521
▁آپ	-11.3525
▁بگیر	-11.3529
▁کلیسا	-11.353
▁پهلو	-11.3539
گرا	-11.3541
اور	-11.3544
وزن	-11.3551
▁پشتو	-11.3559
▁کاف	-11.3561
▁کمیاب	-11.3563
▁رسی	-11.3565
ویل	-11.3587
▁نمازی	-11.3606
▁۶۳	-11.361
▁پهن	-11.3613
▁سریعتر	-11.3617
فاصل	-11.3619
زره	-11.3626
▁اق	-11.3636
▁مطلبی	-11.3637
▁۱۳۲	-11.3639
▁سروده	-11.3642
▁فلا	-11.3647
▁منه	-11.3652
▁امری	-11.3664
▁شکوفا	-11.3674
▁استانداری	-11.3675
▁کوچ	-11.3685
ماد	-11.3691
▁نماند	-11.3698
لون	-11.3721
کلی	-11.3723
لین	-11.3726
یافته	-11.3728
▁سناریو	-11.3729
▁بیتل	-11.3734
▁پوشیدن	-11.3741
روند	-11.3742
ادی	-11.3751
▁کارل	-11.3755
▁سفرها	-11.376
▁۱۸۵	-11.3764
▁خطا	-11.3786
یقه	-11.3787
صرف	-11.3791
▁چم	-11.3792
پولیس	-11.3795
▁مغزش	-11.3795
▁پذیرفت	-11.3803
فته	-11.3806
▁لبنانی	-11.3806
▁نادری	-11.3807
▁تشی	-11.3819
مجتب	-11.3821
فضل	-11.3823
منظور	-11.383
قاسم	-11.3831
کلوپ	-11.3831
استرالیا	-11.3832
نتایج	-11.3832
مرغ	-11.3833
وزرای	-11.3833
سریع	-11.3837
آبی	-11.3843
خطر	-11.3844
پیروز	-11.3851
رحیم	-11.3854
نگرانی	-11.3856
▁متخلف	-11.3858
میدان	-11.3859
▁آنا	-11.3861
آیا	-11.3883
▁شنید	-11.3888
▁پیشگام	-11.389
▁چش	-11.3902
▁معلول	-11.3902
▁داران	-11.3912
▁شاگرد	-11.3913
عاش	-11.3927
▁مقاوم	-11.3927
وئی	-11.3929
▁عزا	-11.3934
▁افزای	-11.3936
▁فهم	-11.3938
▁بینم	-11.394
▁اصالت	-11.3941
حث	-11.3943
▁بوفالو	-11.3946
مسابقه	-11.3948
۹۰	-11.3948
▁گوها	-11.3952
▁آرسن	-11.3952
مغناطیس	-11.3954
▁ارکستر	-11.3954
▁اقتباس	-11.3954
▁سمرقند	-11.3954
▁عناوین	-11.3954
▁غیرمجاز	-11.3954
▁فیلسوف	-11.3954
▁ماسویدال	-11.3954
▁کانگورو	-11.3954
▁گریگوریان	-11.3954
▁گوسفند	-11.3954
▁سیاهپوست	-11.3954
▁۱۹۶۹	-11.3954
▁سینماگر	-11.3954
تصاعد	-11.3954
▁کادرفنی	-11.3954
▁بازنگشت	-11.3954
▁تجدد	-11.3954
▁چابک	-11.3954
▁حاتمی	-11.3954
▁خاشق	-11.3954
▁سیستماتیک	-11.3954
▁برگردیم	-11.3954
▁پیمود	-11.3954
▁ماراکانا	-11.3954
▁کلروک	-11.3954
▁سرلشکر	-11.3954
▁زائر	-11.3955
▁طلسم	-11.3955
▁گاگا	-11.3955
▁جاودان	-11.3955
▁ارژن	-11.3955
▁سانتیگراد	-11.3955
▁کبد	-11.3955
▁اکرم	-11.3955
▁مرضیه	-11.3955
▁منح	-11.3955
▁کوپر	-11.3955
▁ژنشنگ	-11.3955
▁قائم	-11.3955
▁۱۹۶۶	-11.3955
▁مجادل	-11.3955
▁سازندگی	-11.3955
▁نابرابر	-11.3955
▁پدربزرگ	-11.3955
▁قبیل	-11.3956
▁فیروزجا	-11.3956
▁۱۹۶۸	-11.3956
▁تجدیدنظر	-11.3956
▁بگوید	-11.3956
ارومیه	-11.3957
وتی	-11.3957
▁شاهرود	-11.3957
▁یونسی	-11.3957
ژهای	-11.3958
▁لط	-11.3958
▁مختاری	-11.3958
▁بیولوژیک	-11.3958
▁شیرجه	-11.3958
▁مولوی	-11.3958
▁پابرجاست	-11.3958
▁کاندیدا	-11.3959
▁ابدی	-11.3959
▁فرنگی	-11.3959
▁گسل	-11.3959
رقیز	-11.396
▁تعلیم	-11.396
▁برایانت	-11.396
▁معلولیت	-11.3961
▁صفوف	-11.3961
حام	-11.3961
▁تفکر	-11.3962
لانتا	-11.3962
▁۱۹۹۵	-11.3963
▁ناخوش	-11.3963
▁ناشر	-11.3964
▁الاکلنگ	-11.3964
▁سردرگم	-11.3964
▁نابسامان	-11.3964
▁اسنپ	-11.3964
▁خلبان	-11.3964
▁کیلوولت	-11.3964
▁۷۵۲	-11.3965
▁سحرگاه	-11.3965
▁سازوکارهای	-11.3965
▁محف	-11.3966
▁آویز	-11.3966
▁بکند	-11.3966
▁سلتیک	-11.3967
▁پابند	-11.3967
▁امیدوارکننده	-11.3969
اطبا	-11.3969
▁سفیددره	-11.3969
▁رژه	-11.3969
▁کانتر	-11.397
▁نورمحمد	-11.397
▁کنشگر	-11.3971
▁دراین	-11.3973
▁۷۵۰	-11.3973
▁لیبی	-11.3974
▁لبخندها	-11.3974
▁شکننده	-11.3974
▁پاسگاه	-11.3974
▁مأموریت	-11.3976
رضی	-11.3976
▁نبو	-11.3977
▁زودرس	-11.3978
الکس	-11.3978
▁مهیب	-11.3979
▁نبی	-11.398
زیو	-11.398
▁فرندز	-11.3981
▁ماوریک	-11.3981
▁خرمشهر	-11.3981
▁لیدی	-11.3982
▁منقل	-11.3983
▁خرم	-11.3983
▁پادمان	-11.3984
▁موسیقیدان	-11.3985
▁داش	-11.3986
▁اسمیت	-11.3987
▁زینب	-11.3987
▁فلزات	-11.3988
▁روستاهای	-11.3988
▁دبی	-11.3988
▁دادخواست	-11.3988
▁بلید	-11.3989
▁ژنوم	-11.3989
▁کوشید	-11.399
▁ملکشا	-11.3991
▁دیاب	-11.3991
ریحان	-11.3996
▁آسپر	-11.3997
▁تحریر	-11.3999
بپرس	-11.4
▁فاطم	-11.4
▁پینک	-11.4001
▁پارکور	-11.4001
تناسب	-11.4002
▁کشتند	-11.4004
یونان	-11.4004
▁همخوان	-11.4005
▁تپند	-11.4006
▁شایست	-11.401
▁نایا	-11.401
▁بیو	-11.4011
▁ریختن	-11.4011
▁فورب	-11.4014
▁علیزاده	-11.4014
مادر	-11.4016
▁پاسدار	-11.4018
▁دوندگان	-11.402
▁کلیپ	-11.4025
طبی	-11.4026
▁بازیافت	-11.4027
▁گیت	-11.4032
▁کثیر	-11.4033
▁بفرستید	-11.4033
▁اشتباهات	-11.4034
▁کامران	-11.4035
▁خالد	-11.4036
▁خران	-11.4039
▁عاج	-11.4039
تل	-11.404
▁نامعلوم	-11.4041
▁هوشیاری	-11.4048
گرنه	-11.4051
▁فراور	-11.4052
▁پاتر	-11.4055
▁مبا	-11.4055
قدرت	-11.4066
▁پیامک	-11.4067
▁هالپ	-11.4068
▁علما	-11.4069
▁آسا	-11.4071
▁اقیانوسیه	-11.4074
ازما	-11.4074
▁عار	-11.4077
شکاف	-11.4078
▁موری	-11.408
▁انگیزترین	-11.4084
داده	-11.4086
ردام	-11.4087
▁رسال	-11.4093
▁فرز	-11.4094
▁نشانگر	-11.41
نور	-11.4106
▁نجومی	-11.411
وجیه	-11.4111
▁پوستر	-11.4115
نگا	-11.4118
افتاده	-11.4124
▁بالاست	-11.4126
▁بستگان	-11.4128
▁چادر	-11.4133
ائو	-11.4133
▁لات	-11.4133
ریز	-11.4137
▁شکنی	-11.4144
۳۹	-11.4146
بول	-11.4146
وفون	-11.4147
▁سهامدار	-11.4151
▁زید	-11.4159
▁اسکان	-11.4165
▁مادی	-11.4171
▁قطعا	-11.4173
▁آئ	-11.4176
ارسل	-11.4182
▁حول	-11.4189
▁گرفتیم	-11.419
سب	-11.419
▁گرمی	-11.419
▁کیس	-11.4192
▁محب	-11.4193
▁اجراهای	-11.4194
▁دیوارهای	-11.4197
▁پود	-11.4201
▁نکو	-11.4212
حصول	-11.4212
▁غر	-11.4213
▁ممیز	-11.4219
▁آو	-11.4223
۸۵	-11.4223
▁کاسی	-11.4224
ساسی	-11.4225
▁بشریت	-11.4229
خیر	-11.423
▁هیولای	-11.4235
▁تولیدکنند	-11.4236
▁چید	-11.4252
کاران	-11.4256
▁خور	-11.426
▁نشستن	-11.4261
▁ولت	-11.4265
جام	-11.4271
▁پذیری	-11.4274
پاتی	-11.4275
▁لندرو	-11.428
▁بریتانیاست	-11.4288
فرنو	-11.4295
▁برنا	-11.4306
▁نیستیم	-11.4309
▁نایاب	-11.4322
▁کوارت	-11.4326
▁ورای	-11.4327
▁بک	-11.433
▁گفتن	-11.4337
رسیدن	-11.4341
▁ساختند	-11.4344
▁تبر	-11.4345
▁لین	-11.4355
▁بانان	-11.436
▁جراحان	-11.4362
▁زنیم	-11.4366
▁عطا	-11.4376
▁شوی	-11.4385
صر	-11.4385
نتسب	-11.4393
جک	-11.4397
▁خا	-11.4406
▁صمیمی	-11.4407
▁آرزوهای	-11.4408
وری	-11.4419
باد	-11.4427
▁سازان	-11.4427
زیان	-11.4432
▁آموخت	-11.4453
▁سکان	-11.446
▁شناختن	-11.4461
▁مهیا	-11.4478
▁اسک	-11.4498
ولد	-11.45
ساله	-11.4522
بال	-11.4535
سانس	-11.4538
▁پردازی	-11.4543
▁باج	-11.455
فه	-11.4552
▁هانس	-11.4555
▁شکن	-11.4557
▁اسکو	-11.4559
ویر	-11.4562
زر	-11.4581
▁آوا	-11.4596
▁داروین	-11.4605
اردو	-11.4625
▁قوت	-11.4636
▁بخشد	-11.4642
گویان	-11.4656
▁بایست	-11.4658
نیچ	-11.4659
ولف	-11.4664
▁هریس	-11.4679
۵۸	-11.4685
▁بایر	-11.47
وط	-11.4708
▁ریس	-11.4729
میر	-11.4733
▁بون	-11.4744
ثر	-11.4744
▁ایرلندی	-11.4745
▁تابستانی	-11.4748
پزشک	-11.4751
▁فرزندانش	-11.4751
▁اصلان	-11.4764
▁فرضی	-11.4765
▁وای	-11.4765
یزه	-11.4775
▁عزادار	-11.4783
▁مدد	-11.4793
▁عکسها	-11.4794
جف	-11.4805
▁راب	-11.4818
▁آد	-11.482
▁درآمده	-11.4825
▁ژ	-11.4829
آفرین	-11.483
آباد	-11.4844
▁کارند	-11.4845
▁نوک	-11.4849
تاکنون	-11.4852
▁سنج	-11.486
الوح	-11.4861
اندا	-11.4866
▁بخشهای	-11.4869
▁یزد	-11.4869
▁دیدگ	-11.4872
اید	-11.4875
▁وات	-11.4878
تعداد	-11.4881
ملا	-11.4884
جانی	-11.4889
▁نوین	-11.4891
جار	-11.4893
ائی	-11.4895
تقبل	-11.4896
▁خاور	-11.4898
رتر	-11.4902
▁حریر	-11.4913
▁قضا	-11.4914
▁پیگیر	-11.4915
▁یون	-11.4917
گات	-11.4929
▁صحرا	-11.4941
روس	-11.4941
▁بقا	-11.4944
▁عالم	-11.4949
▁پژ	-11.496
ونیست	-11.4968
ادت	-11.4981
مجموع	-11.499
▁مبد	-11.4996
یکا	-11.5003
▁بدان	-11.5021
▁لک	-11.5034
بان	-11.5054
▁چسب	-11.5059
▁برگرداند	-11.5068
اسکو	-11.5074
ودی	-11.5075
۸۰	-11.5076
جویان	-11.5082
شناسی	-11.5083
▁اصولی	-11.5087
▁فضل	-11.5094
ریوس	-11.5104
زلی	-11.511
▁دیف	-11.5116
▁قوم	-11.5121
سپاس	-11.5133
باخ	-11.5136
▁ندا	-11.5142
▁فست	-11.515
پورت	-11.5156
▁ظ	-11.5167
سکانس	-11.519
▁کارهایش	-11.5211
▁بوم	-11.5213
رگیری	-11.522
شکل	-11.5229
▁دیو	-11.5233
▁سیری	-11.5237
تک	-11.5243
▁مشتاق	-11.5247
منازع	-11.5247
ظاهر	-11.5249
غوری	-11.5251
واره	-11.5252
لیدز	-11.5259
توماس	-11.5259
آذر	-11.5259
منتقدان	-11.526
برآورد	-11.526
جوکوویچ	-11.526
حداکثر	-11.526
سرطان	-11.526
جشنواره	-11.526
فرهاد	-11.526
جراح	-11.526
شرایط	-11.5261
کارگران	-11.5261
ایتالیا	-11.5262
ابتدا	-11.5262
عکاس	-11.5262
مورد	-11.5262
ویروس	-11.5263
کجاست	-11.5263
تحلیلگر	-11.5264
تنیس	-11.5267
▁کلک	-11.5268
مطابق	-11.5271
▁هن	-11.5272
ناس	-11.5273
محمدرضا	-11.5274
عفون	-11.5274
کشتی	-11.5275
▁لوو	-11.5275
بور	-11.5277
چال	-11.5281
دیمیر	-11.5282
زندگی	-11.5284
▁موی	-11.5285
شکنی	-11.5285
ادبی	-11.529
رانه	-11.5295
▁دقتی	-11.5302
شتم	-11.531
ولا	-11.5311
▁گارس	-11.5313
▁۲۹۰	-11.5316
▁تق	-11.532
▁خفا	-11.5325
دختر	-11.5326
حوال	-11.5326
لئوپا	-11.5331
▁کامر	-11.5332
زین	-11.5334
▁نفی	-11.5336
▁وزرا	-11.534
▁سفیدپوست	-11.5346
▁آرن	-11.5348
تال	-11.5349
عظم	-11.5352
مقامات	-11.5366
▁سازوکار	-11.537
یکون	-11.5373
▁کیف	-11.5373
▁سکو	-11.5375
▁فلور	-11.5378
▁کنسر	-11.5378
ذائ	-11.538
▁قزاق	-11.5382
▁ازبک	-11.5383
▁ارواح	-11.5383
▁اسراییل	-11.5383
▁اصغر	-11.5383
▁انقطاع	-11.5383
▁انیمیشن	-11.5383
▁اوربیتر	-11.5383
▁اویغور	-11.5383
▁باثبات	-11.5383
▁بیندازند	-11.5383
▁رفراند	-11.5383
▁غلیظ	-11.5383
▁نیفتاد	-11.5383
▁پلتفرم	-11.5383
▁چمپیون	-11.5383
▁ژئوپلیتیک	-11.5383
▁تدفین	-11.5383
▁مقتدر	-11.5383
▁تلویح	-11.5383
▁قعر	-11.5383
▁مخرب	-11.5383
▁بیاورند	-11.5383
▁نیابد	-11.5383
▁یادماندنی	-11.5383
▁وسعت	-11.5383
▁بیانداز	-11.5383
▁بالیوود	-11.5383
▁جهرمی	-11.5383
▁متصل	-11.5383
▁اسعد	-11.5383
▁جاسک	-11.5383
▁کانتینر	-11.5383
▁رزیدن	-11.5383
▁فاسد	-11.5383
▁فونینی	-11.5383
▁پرایس	-11.5383
▁پرسنل	-11.5383
▁ایسلند	-11.5383
▁رستم	-11.5383
▁اسرارآمیز	-11.5383
▁تکواندو	-11.5383
▁هیدرو	-11.5383
▁صلیب	-11.5383
▁فلاکت	-11.5383
▁مجلات	-11.5384
تمع	-11.5384
▁جادوگر	-11.5384
▁ناچیز	-11.5384
▁هریرود	-11.5384
▁ثور	-11.5384
▁ایلام	-11.5384
▁کرمانپور	-11.5385
▁رفیق	-11.5385
کاراکاس	-11.5385
▁بدانید	-11.5386
▁پرجمعیت	-11.5386
▁فیصل	-11.5386
▁آفرید	-11.5387
▁میدهد	-11.5387
▁سوت	-11.5387
اندیش	-11.5387
▁بریجز	-11.5387
گران	-11.5388
▁واپس	-11.5388
▁دندان	-11.5388
▁چرم	-11.5388
▁کلکسیون	-11.5388
▁قبرستان	-11.5388
بزرگ	-11.5389
▁بخواهند	-11.5389
▁داگ	-11.5389
▁ویلسون	-11.5389
▁مذک	-11.539
▁محاف	-11.5391
▁واگیر	-11.5391
▁ترقی	-11.5391
▁سموم	-11.5391
▁ربای	-11.5391
▁مردادماه	-11.5391
▁نشوند	-11.5391
▁اجزا	-11.5392
▁کاسپی	-11.5392
▁ابولا	-11.5393
▁تصرف	-11.5394
▁قورباغه	-11.5394
▁نورماگومدوف	-11.5394
▁سیگنال	-11.5394
▁عزت	-11.5394
▁امپر	-11.5394
▁قرائت	-11.5395
▁بازتاب	-11.5395
ژگان	-11.5396
▁متکی	-11.5396
▁گرگور	-11.5396
▁بپذیر	-11.5396
▁مارلی	-11.5398
رمان	-11.5398
▁دیرتر	-11.5399
▁کلمات	-11.5399
▁بایستند	-11.5399
▁پرشمار	-11.5399
دوران	-11.5399
▁وکارها	-11.5399
▁تنیده	-11.54
▁توئیتر	-11.54
▁تعمیرات	-11.5402
▁رومانیا	-11.5403
انتینو	-11.5403
▁مانور	-11.5405
▁گردیم	-11.5406
▁خانود	-11.5407
▁انکار	-11.5409
▁برونته	-11.541
▁لورک	-11.5412
▁مقیاس	-11.5414
▁لاپورتا	-11.5414
زاد	-11.5414
▁اشکالات	-11.5415
▁فهیم	-11.5415
▁توبین	-11.5416
▁گپ	-11.5416
▁حکیم	-11.5417
▁فلامینگوها	-11.5417
رومن	-11.542
▁نیامد	-11.542
▁آندرس	-11.5421
▁اضافی	-11.5421
▁افول	-11.5422
شقان	-11.5423
▁مولف	-11.5425
▁والتر	-11.5425
▁کاشف	-11.5426
▁چشید	-11.5427
نشان	-11.5431
بالا	-11.5431
▁جذابیت	-11.5432
▁ایستادند	-11.5433
▁سرخک	-11.5435
▁دردسرهای	-11.5436
▁توتال	-11.5438
▁اسید	-11.5441
▁توبی	-11.5442
▁دانشگر	-11.5442
▁هک	-11.5443
▁نصر	-11.5444
▁دماغ	-11.5444
▁سفت	-11.5446
▁کشورهاست	-11.545
چر	-11.5451
▁تناقض	-11.5454
▁زوم	-11.5458
▁فراخواند	-11.546
▁محرک	-11.5461
▁شن	-11.5462
▁فره	-11.5463
دلایل	-11.5464
▁ورق	-11.5465
▁تردیدهای	-11.5466
▁فاضل	-11.547
▁نماید	-11.5472
▁سک	-11.5478
▁تم	-11.5479
▁فروند	-11.5479
▁بدهید	-11.548
▁پیمانکاران	-11.5481
▁اصطلاحا	-11.5485
▁شوق	-11.5486
▁استعفاها	-11.5491
▁مطیعی	-11.5492
▁عطف	-11.55
ئه	-11.5504
▁پرکار	-11.5504
ماجرای	-11.5505
اماتیک	-11.5514
▁اینف	-11.5517
په	-11.5521
▁گویم	-11.5522
▁مشتاقان	-11.5522
دام	-11.5523
اتح	-11.5527
ایت	-11.5537
▁جس	-11.554
یلی	-11.554
توت	-11.5541
سارت	-11.5548
▁آلت	-11.5553
▁امیدهای	-11.5553
▁کلن	-11.5554
▁موتورها	-11.5555
▁شعرهای	-11.557
برداری	-11.5572
ایشگاه	-11.5574
الیف	-11.5575
▁بدنشان	-11.5575
▁مستندهای	-11.5576
▁پیامبر	-11.5582
تاد	-11.5585
▁نگذاشته	-11.5585
▁مثل	-11.5588
▁ترسید	-11.559
سف	-11.5592
نزل	-11.5595
▁ائ	-11.5595
▁رضایی	-11.5596
لاخ	-11.5597
▁پژوهشهای	-11.5598
اصل	-11.56
ریا	-11.5605
ولت	-11.5608
▁دانا	-11.5613
تالی	-11.5614
نوم	-11.5624
▁مسا	-11.5624
ولین	-11.5633
▁پیشنهادهای	-11.5637
خن	-11.5638
ندرت	-11.5643
▁سناریوها	-11.5649
مزه	-11.5651
معدنچی	-11.567
▁استیو	-11.5672
▁مراکش	-11.5694
ارل	-11.5695
▁استوایی	-11.5707
فارم	-11.5715
شش	-11.573
▁فتحی	-11.5734
▁کوری	-11.5736
افشار	-11.5737
پزشکی	-11.5739
▁فک	-11.574
▁ابی	-11.5747
▁قی	-11.5754
▁شیب	-11.5766
دانه	-11.5766
▁لیر	-11.5767
▁اروپاست	-11.5773
▁بازگشتند	-11.5775
▁سردست	-11.5781
▁یوسفی	-11.5784
▁نیکو	-11.5787
رسید	-11.5788
▁هواپیماساز	-11.579
زود	-11.5793
▁ابو	-11.5808
▁سومو	-11.5809
▁کورت	-11.5821
▁دانستن	-11.5821
وستون	-11.5823
▁کلور	-11.583
▁صحرای	-11.586
ومی	-11.5869
▁صدایش	-11.5878
زو	-11.588
▁دیسک	-11.588
مو	-11.5881
ستر	-11.5883
روف	-11.5901
▁بخشیده	-11.5904
▁بخوان	-11.5917
▁کریس	-11.5919
سمعی	-11.5924
▁لیل	-11.5932
یلد	-11.5934
▁حکمت	-11.5936
▁آبهای	-11.5937
▁دوسال	-11.5939
▁روزبه	-11.5943
▁نوآوران	-11.5948
موتو	-11.5962
▁زر	-11.5976
▁زین	-11.5981
زیرو	-11.599
▁کورو	-11.5993
بصر	-11.6004
▁مردن	-11.601
▁دزدی	-11.601
▁بلخی	-11.6011
پانز	-11.6032
شون	-11.604
▁آز	-11.605
وژان	-11.6054
خالف	-11.6056
▁یاب	-11.6058
▁لوک	-11.6064
نمی	-11.6074
▁دلو	-11.6096
گردانده	-11.6101
دال	-11.6103
▁لیک	-11.6106
▁پال	-11.6109
زمه	-11.6115
▁لیز	-11.6119
دوش	-11.6121
کوس	-11.6122
۲۲	-11.6124
▁شنای	-11.613
دیدار	-11.6132
▁شدیم	-11.6143
▁بگ	-11.6143
حلال	-11.6144
▁مینیاتور	-11.6149
کافی	-11.6158
▁رجبی	-11.6163
▁میکروبی	-11.6165
▁ورز	-11.6168
نولد	-11.6186
▁نیلی	-11.6188
▁اینست	-11.6194
▁کلیت	-11.6206
انشهر	-11.6216
▁نازل	-11.622
▁بگذاری	-11.622
درهای	-11.6225
فان	-11.6225
هیج	-11.6226
لات	-11.6229
۸۱	-11.6233
وپ	-11.6233
▁شدایران	-11.6236
ارتوم	-11.6236
▁عدل	-11.6255
▁اسلو	-11.6255
جیان	-11.6259
▁هرجا	-11.6261
▁هرج	-11.6262
▁آف	-11.6266
▁انگ	-11.6279
ریزی	-11.6279
یتا	-11.6291
▁دک	-11.6297
ائ	-11.6306
ینکی	-11.6308
▁آش	-11.6312
▁مست	-11.6317
▁رویز	-11.6327
▁بارتو	-11.6329
▁جیم	-11.633
تازه	-11.6332
▁هوم	-11.6344
جاب	-11.6354
▁عمرش	-11.6363
▁اورگ	-11.6373
سید	-11.6374
ارا	-11.6378
غلو	-11.6381
▁سیت	-11.6396
▁وث	-11.6409
نیوز	-11.6417
گستر	-11.6417
فروش	-11.6419
روسیا	-11.6436
سارا	-11.6446
▁منامه	-11.645
▁نزده	-11.6452
ملی	-11.6477
▁دژ	-11.6488
شدن	-11.6492
واز	-11.6511
جیل	-11.6527
▁لیپ	-11.6535
▁بروی	-11.6537
▁ادوار	-11.6564
▁یاسم	-11.657
خانی	-11.6577
کوم	-11.6577
چل	-11.6582
▁۶۶	-11.6588
▁ضم	-11.6594
▁یوسف	-11.6597
▁مساعد	-11.6597
▁تعل	-11.6605
▁غور	-11.6607
▁اصولگرا	-11.6611
تراپ	-11.6622
▁صوت	-11.6627
▁پاب	-11.6632
پو	-11.6637
▁سلیمان	-11.6661
دوستان	-11.6662
▁نمادها	-11.6669
یمو	-11.6669
▁پنس	-11.667
حرف	-11.6673
اندن	-11.6676
▁هواپیماها	-11.6683
▁سپرد	-11.6684
انسون	-11.6713
▁جید	-11.6724
تورهای	-11.6725
رویا	-11.6737
▁سوزان	-11.6739
▁هیل	-11.6751
▁نزدیکتر	-11.6754
▁شناورها	-11.6755
اویر	-11.6765
ریتز	-11.6784
▁خواستم	-11.6785
وتر	-11.6789
▁جعفر	-11.6793
زبان	-11.6794
▁مدرس	-11.6795
▁۷۱	-11.6796
کلیف	-11.6796
▁الس	-11.6801
▁ندید	-11.6804
▁باردار	-11.6809
▁منسو	-11.6811
▁قا	-11.6818
آفرینی	-11.6848
شنبه	-11.6855
عت	-11.6859
▁جمل	-11.6862
▁کون	-11.6865
▁۲۶۰	-11.6872
درنا	-11.6875
▁آس	-11.6879
وندی	-11.6879
▁بازدیدکنند	-11.6884
کاب	-11.689
▁اپی	-11.6893
▁ماریان	-11.6893
کریست	-11.6894
مزد	-11.6895
بریتانیا	-11.6907
▁۴۲۰	-11.6907
▁وول	-11.6909
فرستند	-11.6911
انتخاب	-11.6917
ژیل	-11.6919
پرداخت	-11.6921
علم	-11.6924
آرامکو	-11.6924
خشکسالی	-11.6924
سیزدهم	-11.6926
آکادمی	-11.6926
اتفاقات	-11.6926
دقیق	-11.6926
مطالع	-11.6927
رویترز	-11.6927
نژاد	-11.6927
حذف	-11.6927
سفارت	-11.6927
هواداران	-11.6927
صعود	-11.6927
صنعت	-11.6927
موضوع	-11.6927
گمرک	-11.6927
حقوق	-11.6928
تایسون	-11.6928
بازداشت	-11.6928
جایزه	-11.6929
فیروز	-11.6929
ماشین	-11.6929
کاخ	-11.693
دنیل	-11.6931
عزیز	-11.6931
مسئول	-11.6932
اتهامات	-11.6932
اسناد	-11.6933
تحریم	-11.6933
نشست	-11.6934
حساب	-11.6935
دادستان	-11.6937
تعجب	-11.6937
کتاب	-11.6943
لستر	-11.6944
تامی	-11.6947
لیگا	-11.6948
سنگر	-11.6948
▁۲۱۰	-11.6951
لیتو	-11.6952
وکیل	-11.6955
▁پروازهایش	-11.6957
دوج	-11.6962
وین	-11.6963
نرخ	-11.6966
▁لندر	-11.6979
▁سندر	-11.6982
کاسی	-11.6996
▁مث	-11.6996
▁شو	-11.7001
نقش	-11.7001
▁صیاد	-11.7002
▁باخ	-11.7003
وود	-11.7005
▁انصاری	-11.7005
مردان	-11.701
▁ایرانایران	-11.7013
▁مافی	-11.7015
مشق	-11.702
▁اقام	-11.7023
▁ژر	-11.7024
▁بسر	-11.7032
صال	-11.704
▁زادگاه	-11.7041
▁مزای	-11.7046
▁موزیک	-11.7049
▁احداث	-11.7049
▁اختاپوس	-11.7049
▁اقوام	-11.7049
▁انتقام	-11.7049
▁اورشلیم	-11.7049
▁بیضائی	-11.7049
▁جگوار	-11.7049
▁حناچی	-11.7049
▁دموکراسی	-11.7049
▁زاکربرگ	-11.7049
▁سخاوتمند	-11.7049
▁غواص	-11.7049
▁متقلب	-11.7049
▁محتاط	-11.7049
▁منظوم	-11.7049
▁ناسازگار	-11.7049
▁هژمون	-11.7049
▁الارض	-11.7049
▁سارقان	-11.7049
▁مستاجر	-11.7049
▁موریکونه	-11.7049
▁اوقاف	-11.7049
▁بولونیا	-11.7049
▁هورمون	-11.7049
▁کارائیب	-11.7049
▁اکسیدکربن	-11.7049
▁تذکر	-11.7049
▁زوایا	-11.7049
▁انسولین	-11.7049
▁بیضایی	-11.7049
▁وسواس	-11.7049
▁کابوس	-11.7049
▁انزوا	-11.7049
▁باشکوه	-11.7049
▁موازات	-11.7049
▁فرمانروای	-11.705
▁لشکر	-11.705
▁ندارید	-11.705
▁اوزیل	-11.705
▁بلغار	-11.705
▁کوواکس	-11.705
▁سرسخت	-11.705
▁درآید	-11.705
▁کومله	-11.705
▁میچام	-11.705
▁هکتار	-11.705
▁بشود	-11.705
▁اوزون	-11.705
▁لاوروف	-11.705
▁تومور	-11.705
▁ناخودآگاه	-11.705
▁تتلو	-11.705
▁کواچ	-11.705
▁تدارک	-11.705
▁لقمان	-11.705
▁فراهانی	-11.705
▁نیکزاد	-11.705
▁باچان	-11.705
▁کبیری	-11.705
▁عناب	-11.705
▁لشگر	-11.705
▁مشروعیت	-11.705
▁ارباب	-11.705
▁کوشنر	-11.705
▁شمش	-11.705
▁مبتکر	-11.705
▁دیزل	-11.705
▁فورمن	-11.705
▁ارمجانی	-11.705
خضر	-11.7051
▁خویشتن	-11.7051
▁اهرم	-11.7051
▁هتلداران	-11.7051
▁تقلا	-11.7051
تروئ	-11.7051
▁مالزی	-11.7051
ضلع	-11.7051
▁تایوان	-11.7051
▁دشتکی	-11.7051
تالیا	-11.7051
▁سازگار	-11.7051
▁همفکر	-11.7051
▁لاتکس	-11.7051
▁پاستور	-11.7052
▁صربستان	-11.7052
▁بخواب	-11.7052
▁خاکستر	-11.7052
▁حشر	-11.7052
▁خشمگین	-11.7052
▁واجد	-11.7052
▁شروط	-11.7052
▁مجاور	-11.7052
▁ستیزانه	-11.7053
▁سفال	-11.7053
▁زشت	-11.7053
▁بکاهند	-11.7053
▁نباشند	-11.7053
▁ناخشنود	-11.7053
▁نیرومند	-11.7053
▁نگهداشت	-11.7054
آزادی	-11.7054
▁۱۹۷۹	-11.7054
لگار	-11.7054
▁میشود	-11.7055
▁نافرجام	-11.7055
▁قدردان	-11.7055
▁دامغان	-11.7055
▁کولاک	-11.7055
▁شاکی	-11.7056
ذاب	-11.7056
▁آزاردید	-11.7056
▁ونوس	-11.7056
▁نثر	-11.7056
▁امداد	-11.7056
▁بزاق	-11.7057
▁مرموز	-11.7057
یوئیت	-11.7057
▁اتلان	-11.7058
▁نابینا	-11.7058
▁برگرداندن	-11.7059
▁نابویایی	-11.706
▁جملات	-11.706
قراض	-11.7061
▁۱۹۹۴	-11.7061
▁آنجل	-11.7062
▁شکوه	-11.7063
▁برلوسکونی	-11.7063
▁خسرو	-11.7063
▁عبدالسلام	-11.7063
▁امپرا	-11.7063
▁دمکرات	-11.7064
لیت	-11.7065
▁نایتلی	-11.7065
▁جع	-11.7066
▁نورالله	-11.7066
فرشی	-11.7067
▁مختصر	-11.7067
▁متوازن	-11.7067
▁تقریب	-11.7068
قبره	-11.7069
▁سیدنی	-11.7071
▁انرو	-11.7071
▁برویم	-11.7074
▁تحرکات	-11.7075
▁ببند	-11.7076
▁صبا	-11.7077
▁متقابل	-11.7077
▁پردازش	-11.7079
▁همسایگان	-11.708
▁ورزند	-11.708
▁زالی	-11.708
▁پوسید	-11.7081
▁پرستون	-11.7081
▁بدهم	-11.7081
▁ابول	-11.7082
وبیل	-11.7082
▁کوید	-11.7082
▁بدویا	-11.7086
▁چرن	-11.7086
▁پاشید	-11.7086
▁ترانس	-11.7087
▁سرگردان	-11.7088
▁اشخاص	-11.7089
▁فلم	-11.709
▁بشنوید	-11.709
▁نزن	-11.709
نیتو	-11.709
▁کمربندهای	-11.7091
▁ناسیونالیس	-11.7092
▁ژرف	-11.7096
▁رسند	-11.71
▁بیکارشد	-11.7102
▁۱۸۸	-11.7103
▁خوشبین	-11.7108
▁ندادند	-11.7112
▁ابزارهای	-11.7113
▁قامت	-11.7113
▁خب	-11.7113
▁سادگی	-11.7113
▁روبات	-11.7114
▁۱۰۹	-11.7115
▁سولو	-11.7117
بیح	-11.7118
▁اغ	-11.712
▁اکثرا	-11.7121
سنج	-11.7122
▁وفا	-11.7122
فرانسه	-11.7124
▁حسگرها	-11.7124
▁دریانورد	-11.7125
▁اشتها	-11.7125
هنگام	-11.7126
▁آشو	-11.7126
▁دیابت	-11.7127
▁یوهان	-11.7127
▁لوپ	-11.7132
▁لیبر	-11.7133
▁بزرگسال	-11.7134
▁گریخت	-11.7135
▁درشت	-11.7136
▁درمیان	-11.714
▁توانمند	-11.714
▁اندازند	-11.7143
▁کامیاب	-11.7145
▁چاق	-11.7153
▁بکار	-11.7154
▁آگوست	-11.7154
▁عمیقا	-11.7156
ریکو	-11.7161
▁معلمان	-11.7166
▁اسل	-11.7166
اتل	-11.7168
▁چغا	-11.7172
▁عینک	-11.7174
▁اتری	-11.7178
ریش	-11.7178
▁نیافتن	-11.7178
صف	-11.7179
نظار	-11.7186
▁چرخید	-11.7189
گوگوش	-11.719
لسون	-11.7192
تهم	-11.7193
▁چهارده	-11.7193
هرزاد	-11.72
▁رویت	-11.7206
▁دانل	-11.7208
▁هاروی	-11.721
آقازاده	-11.721
▁رخدادهای	-11.7211
▁برگشتند	-11.7215
▁تشوی	-11.7219
▁بندهای	-11.7219
▁شالی	-11.7223
خشنود	-11.7224
▁ادین	-11.7225
الیود	-11.7231
قهرمانی	-11.7231
▁فرستادن	-11.7232
▁همهمه	-11.7235
▁مجتب	-11.724
▁گاردن	-11.7243
▁خوشی	-11.7243
▁آغازکرد	-11.7248
گردانی	-11.7256
▁گراند	-11.7261
▁بدهیم	-11.7264
▁ریلی	-11.7271
▁سرگرفت	-11.7273
▁بازنش	-11.7279
راست	-11.7283
اثر	-11.7287
▁سازهای	-11.7287
▁راوی	-11.7293
شانت	-11.7295
۴۹	-11.7296
وشیرو	-11.73
▁اثرگذار	-11.7306
▁۱۳۱	-11.7307
▁تشکیلات	-11.731
▁بدو	-11.7316
رده	-11.7327
▁کارلو	-11.734
۹۷	-11.7346
▁احتیا	-11.7346
▁سیلی	-11.7352
برگزار	-11.7354
▁عثمانی	-11.7354
▁جادوی	-11.7373
▁هندو	-11.7376
▁لوس	-11.7388
▁تایی	-11.74
▁افکند	-11.7404
ریدار	-11.7412
▁حوال	-11.7415
اختگ	-11.7421
▁محوری	-11.7422
▁وتو	-11.7423
▁شکستگی	-11.7427
▁خودکار	-11.7433
چهل	-11.7435
▁هارد	-11.744
▁اقسا	-11.7445
▁سوزاند	-11.7445
▁فیو	-11.7446
هفتصد	-11.745
▁تاثیرات	-11.745
ائب	-11.7451
▁پارت	-11.7452
کرده	-11.7461
▁جود	-11.7464
▁باربی	-11.7466
▁کوچه	-11.7467
▁پهنه	-11.7473
اشک	-11.7474
▁سانتا	-11.7476
▁سالمند	-11.7478
▁شکوف	-11.7486
قد	-11.7488
باق	-11.7488
▁کشیدند	-11.7489
لار	-11.7497
▁بنده	-11.7501
نویس	-11.7518
▁ناصری	-11.753
▁دیرین	-11.7547
▁آمونی	-11.7554
▁آمل	-11.7555
▁امیرم	-11.7558
▁بستند	-11.7558
▁ارغ	-11.7559
واقعی	-11.7566
آنچ	-11.7567
جر	-11.7574
دوت	-11.7576
▁ماخ	-11.7596
گرفتن	-11.7617
▁مشهورتر	-11.7623
گزار	-11.7632
▁غیرع	-11.7633
▁ممی	-11.7649
▁کنش	-11.7657
▁نزدیکانش	-11.7663
▁برخاست	-11.7668
▁لئوپ	-11.767
▁اینچ	-11.7673
ورود	-11.7684
▁رویاهای	-11.7694
▁غوری	-11.7703
کوئ	-11.771
▁مایا	-11.7718
▁دویچ	-11.7719
لنی	-11.7727
▁منفور	-11.7733
▁روما	-11.7734
▁شکستند	-11.7761
▁بهم	-11.7776
برند	-11.7789
سانی	-11.7795
▁نفربر	-11.7795
عادل	-11.7816
شمال	-11.7828
تاکس	-11.7838
وازی	-11.7844
ورانه	-11.787
۳۸۰	-11.7873
ساز	-11.7883
▁کیمی	-11.789
گرم	-11.7892
ائل	-11.79
ریض	-11.7922
اسکورت	-11.7926
ندان	-11.793
▁نب	-11.7939
▁توافقات	-11.7943
▁پلک	-11.7966
برگر	-11.7969
▁آلک	-11.7983
▁بیکاران	-11.7985
▁رایانه	-11.7986
▁عینی	-11.7997
▁استرا	-11.8004
▁مسیری	-11.8007
وفق	-11.8009
▁پرستار	-11.801
▁واز	-11.8011
ختی	-11.8017
لیا	-11.8025
▁پرستاره	-11.803
▁کالی	-11.8031
▁مینیاتوری	-11.8039
امد	-11.8051
انح	-11.8053
پدیده	-11.8054
خواهند	-11.8065
۱۲	-11.8073
تینگ	-11.8076
ینک	-11.8078
ورس	-11.8088
▁فرودست	-11.8091
▁رانگل	-11.8099
▁گذاریم	-11.8101
▁شاهدان	-11.8111
▁موریس	-11.8117
کیا	-11.813
رژی	-11.8132
▁جودوکا	-11.8134
▁بدنم	-11.8141
▁دریاب	-11.8144
▁سفرش	-11.8154
▁پرداز	-11.8156
رعلی	-11.8158
▁غد	-11.8163
دوزی	-11.8171
▁رکس	-11.8177
▁مسخ	-11.8179
▁کارتون	-11.8181
▁کارول	-11.8184
▁شجاعی	-11.819
۲۹	-11.8209
▁برن	-11.8219
فین	-11.8221
▁محو	-11.8221
▁معا	-11.8233
گارد	-11.8238
▁نجفی	-11.8282
▁تحرکی	-11.8283
▁آموختن	-11.8285
▁شهریاری	-11.8286
فشار	-11.8292
کوه	-11.8293
پژوه	-11.8319
▁استودیوی	-11.8325
▁لوف	-11.8328
وض	-11.833
▁روبین	-11.8341
نوی	-11.8362
▁چپگرا	-11.8378
▁آرزوها	-11.8392
▁انسانها	-11.8396
وما	-11.8403
▁آلم	-11.8416
بازد	-11.8417
نتینو	-11.8422
۹۶	-11.8423
یانگ	-11.8425
▁جورجی	-11.8443
▁اوکا	-11.8453
▁نیاورده	-11.8455
رانر	-11.8456
کردن	-11.846
متن	-11.8465
۱۱	-11.8476
▁امیدی	-11.8477
هوش	-11.8514
صله	-11.8525
رجان	-11.8526
۳۷	-11.8529
▁کنارش	-11.8532
روزهای	-11.8536
▁نیوت	-11.8537
▁شاد	-11.8538
▁اشع	-11.8542
▁حاج	-11.8542
رزرو	-11.8551
▁تولیدش	-11.8555
▁تاجر	-11.8555
▁ماریو	-11.8575
کلاس	-11.8577
▁بلندپرواز	-11.8582
▁تجسم	-11.8582
▁فلی	-11.8588
▁هیولا	-11.8602
▁هید	-11.8614
پار	-11.8618
سلطان	-11.8621
▁مزایا	-11.8622
نسل	-11.8624
▁نمک	-11.8625
▁فرح	-11.8627
▁بعض	-11.8628
▁گفتم	-11.8629
▁۱۸۹	-11.8636
رانگ	-11.8642
▁قدیم	-11.8654
خوش	-11.8655
▁فدا	-11.8664
محل	-11.8673
ارکان	-11.8677
▁رویدادها	-11.8679
▁کوبی	-11.8681
▁گیران	-11.8684
کانس	-11.8687
▁چاو	-11.8699
▁شیرینی	-11.8711
زاق	-11.8712
▁مراد	-11.8739
▁نگذاشت	-11.8765
▁دکترا	-11.879
برو	-11.8794
آر	-11.8811
نفوس	-11.8812
▁بازن	-11.8817
▁لوب	-11.8827
▁باکر	-11.8835
▁قل	-11.8836
▁هفده	-11.884
گزا	-11.8858
▁۲۵۰۰	-11.8868
▁جنب	-11.8871
▁اپ	-11.8874
سالار	-11.888
بازیکن	-11.888
رفتن	-11.8881
▁چیزها	-11.8884
فعال	-11.8885
▁مستع	-11.8886
▁نهادها	-11.8887
صلاح	-11.8894
▁نوزده	-11.8899
آلبرت	-11.8902
نهادهای	-11.8907
مکزیکو	-11.8914
ربکا	-11.8914
▁السی	-11.8915
▁سبی	-11.8917
فاضل	-11.8919
بفرستید	-11.8919
نفوذ	-11.8921
بیانسه	-11.8921
قبض	-11.8921
کثیر	-11.8922
صریح	-11.8923
ادعا	-11.8925
کنگره	-11.8925
احسا	-11.8926
مناسبت	-11.8926
ساعت	-11.8926
ابراهیم	-11.8926
مسعود	-11.8926
نژادپرست	-11.8926
منتظر	-11.8926
فیزیک	-11.8926
سرپرست	-11.8926
جسد	-11.8926
پالایشگاه	-11.8926
نیویورک	-11.8927
تیراندازی	-11.8927
جنجال	-11.8927
لحظ	-11.8927
احتمال	-11.8927
اسرائیل	-11.8927
رکود	-11.8927
بارسلونا	-11.8927
محدودیت	-11.8927
توافق	-11.8927
قرنطینه	-11.8927
کشورهای	-11.8927
آموز	-11.8927
شکایت	-11.8928
شعر	-11.8928
سازنده	-11.8928
ترکیب	-11.8928
میلیارد	-11.8928
بحران	-11.8928
تجرب	-11.8928
تاریخ	-11.8929
خیز	-11.8929
▁سینا	-11.893
بیماری	-11.893
درحالی	-11.8931
فرصت	-11.8933
اوپک	-11.8933
قرارداد	-11.8933
فعالیت	-11.8934
جواد	-11.8934
مامور	-11.8936
هجوم	-11.8937
مرور	-11.8941
نشری	-11.8941
مالک	-11.8945
طل	-11.8946
▁آری	-11.8947
▁بنام	-11.895
۱۴۰۰	-11.895
▁سیلا	-11.8951
خودروهای	-11.8952
▁آندریا	-11.8958
میلان	-11.8958
رییس	-11.8958
حک	-11.8959
کادی	-11.8961
همکاری	-11.8962
مصرف	-11.8962
▁استبا	-11.8966
لوگ	-11.8968
مستند	-11.8969
۳۳	-11.897
جمعیت	-11.8977
ربط	-11.8981
نمود	-11.8981
▁پولها	-11.8986
کیت	-11.8991
چار	-11.8994
▁جنگید	-11.8995
جنگ	-11.8996
▁فلامینگو	-11.9
نمایند	-11.9001
سانسور	-11.9004
لستون	-11.9008
▁پیت	-11.9009
دهم	-11.9011
▁عس	-11.9013
اده	-11.9013
▁اندرو	-11.9017
▁الزاما	-11.9018
▁هیو	-11.9023
▁توئیت	-11.9025
واضع	-11.9031
باسی	-11.904
▁مکالم	-11.904
▁تفنگ	-11.9041
▁گرافی	-11.9042
▁معصوم	-11.9042
شابه	-11.9042
▁رونالد	-11.9044
▁مخابر	-11.9044
▁الاجرا	-11.9047
▁یابی	-11.9048
▁غزنوی	-11.9049
▁ابتذال	-11.9049
▁اتمسفر	-11.9049
▁اردکانیان	-11.9049
▁اسکورسیزی	-11.9049
▁الکترود	-11.9049
▁اوزبیک	-11.9049
▁برافراشت	-11.9049
▁بیندازد	-11.9049
▁تشعشع	-11.9049
▁ذوالنور	-11.9049
▁روزافزون	-11.9049
▁زراعت	-11.9049
▁فلسفی	-11.9049
▁فیزیولوژی	-11.9049
▁مفاهیم	-11.9049
▁مقاطع	-11.9049
▁منسجم	-11.9049
▁میزورام	-11.9049
▁تمایز	-11.9049
▁کذب	-11.9049
▁بکنید	-11.9049
▁شریعت	-11.9049
▁شنویم	-11.9049
▁مقادیر	-11.9049
▁مارگاریتا	-11.9049
▁عنابستانی	-11.905
▁هامبورگ	-11.905
▁نافذ	-11.905
▁سولیوان	-11.905
▁برسانند	-11.905
▁سغد	-11.905
▁فکاهی	-11.905
▁بنکدارپور	-11.905
▁زیراتمی	-11.905
▁دگرباش	-11.905
▁سانتیاگو	-11.905
▁پغمان	-11.905
▁تجسس	-11.905
▁برنامک	-11.905
▁سرامیک	-11.905
▁بکشم	-11.905
▁وجدان	-11.905
▁ژائو	-11.905
▁آنتوان	-11.905
▁بانکوک	-11.905
▁فواید	-11.905
یونیسف	-11.905
▁تنگاتنگ	-11.905
▁ماهرویان	-11.905
▁بخورد	-11.905
▁تراشید	-11.905
▁تمهید	-11.905
صنوف	-11.905
▁فاکتور	-11.905
▁حصبه	-11.905
▁تسخیر	-11.905
▁گوارش	-11.905
▁سولشر	-11.905
▁تمیز	-11.905
▁آستین	-11.905
▁بازدارند	-11.905
▁کوپا	-11.9051
▁غزل	-11.9051
▁شنوند	-11.9051
▁هیوستون	-11.9051
۱۹۶۴	-11.9051
▁اسکلت	-11.9051
▁الخروج	-11.9051
▁مادربزرگ	-11.9052
▁حیثیت	-11.9052
▁غذاخور	-11.9052
▁بلندپایه	-11.9052
داعش	-11.9052
▁آنچنان	-11.9052
▁برنگرداند	-11.9052
موث	-11.9053
▁آوینی	-11.9053
▁هادرون	-11.9053
پوشانی	-11.9053
▁چوپ	-11.9053
▁بمیرد	-11.9053
▁هنگفت	-11.9053
▁پترولی	-11.9053
▁ظالمانه	-11.9053
▁آصف	-11.9053
▁الاجراست	-11.9054
▁مغایر	-11.9054
دخای	-11.9054
▁نصیر	-11.9055
▁لوگو	-11.9055
▁عوا	-11.9055
▁مجزا	-11.9056
یگز	-11.9057
▁هنکس	-11.9057
▁آپوف	-11.9057
▁لغز	-11.9057
▁بپردازند	-11.9057
آنگولا	-11.9057
▁فرشید	-11.9057
▁توفندها	-11.9058
▁مخوف	-11.9058
زیمبا	-11.9059
▁دلجو	-11.9059
▁مکالمات	-11.906
▁هندرسون	-11.906
▁آغ	-11.906
▁بزنیم	-11.906
▁صفاری	-11.9061
▁اغما	-11.9062
▁ستود	-11.9062
▁حشرات	-11.9062
▁ملوان	-11.9062
▁سودجو	-11.9062
▁شمرد	-11.9062
▁گرافیک	-11.9063
▁گاف	-11.9063
▁حماس	-11.9065
▁جهنم	-11.9065
▁گنبد	-11.9066
▁رباب	-11.9066
▁عبدالرحم	-11.9066
▁محتمل	-11.9066
▁هافکین	-11.9066
▁راجپوت	-11.9066
▁مالباخت	-11.9066
▁شایان	-11.9067
▁ببریم	-11.9067
▁بخوانند	-11.9067
▁عقاب	-11.9068
▁گوترش	-11.9068
▁فاکس	-11.9068
▁لرزید	-11.9069
▁عزل	-11.9069
▁وارث	-11.907
▁قبایل	-11.907
▁معنادار	-11.9071
نازل	-11.9072
▁دانید	-11.9072
▁کاردوس	-11.9072
ولوو	-11.9072
▁۲۲۰	-11.9073
▁شنوایی	-11.9073
▁نوابی	-11.9075
مختار	-11.9075
▁لج	-11.9076
▁راشد	-11.9076
▁نخواست	-11.9076
متاز	-11.9077
▁چندرایان	-11.9078
▁تربت	-11.9079
▁بارکلی	-11.9081
▁متغیرهای	-11.9081
▁تجربیات	-11.9082
▁بهائی	-11.9083
▁خودمختار	-11.9083
▁ایزد	-11.9085
▁اجداد	-11.9087
▁هموطنان	-11.9087
▁یقین	-11.9087
▁بادام	-11.9088
▁درخشد	-11.9088
▁دلسوز	-11.9088
▁آریا	-11.9089
▁بدود	-11.909
فمن	-11.9091
▁شراب	-11.9091
▁جداسازی	-11.9091
▁اسکات	-11.9092
▁سلیق	-11.9093
▁همدان	-11.9094
▁اوساکا	-11.9096
▁فالک	-11.9098
▁بیگم	-11.9099
گوئه	-11.9104
▁۲۴۸	-11.9105
▁یوآن	-11.9106
▁۱۱۹	-11.9106
▁پرفسور	-11.9106
▁پربار	-11.9107
▁مرمر	-11.9108
▁صیادان	-11.9108
وفیا	-11.9109
▁۱۹۱۸	-11.9111
▁فعالیتش	-11.9112
▁فوتسی	-11.9113
▁گرون	-11.9114
▁بیایند	-11.9115
▁فراگرفت	-11.9116
▁سفیدپوستان	-11.9119
پالا	-11.9119
حور	-11.9119
▁بکر	-11.912
تمامی	-11.912
عطا	-11.912
▁فوب	-11.9121
▁ترکمان	-11.9121
دیوم	-11.9122
▁تعرض	-11.9123
مندان	-11.9124
▁شاهکارهای	-11.9124
▁مطمئنا	-11.9124
▁کرونازده	-11.9125
▁بزرگسالان	-11.9125
▁درمانگاه	-11.9125
▁بنفش	-11.9126
▁اخترشناس	-11.9126
ارگ	-11.9126
▁آتن	-11.9126
▁سواد	-11.9127
▁گوا	-11.9129
▁معلومات	-11.9132
▁۲۱۶	-11.9133
▁توسل	-11.9136
▁افشاگر	-11.9137
حاملگی	-11.9137
ربین	-11.9138
▁شجاعت	-11.9141
▁مادام	-11.9142
نعیم	-11.9143
نوشت	-11.9144
▁الری	-11.9145
والد	-11.9146
▁چتر	-11.9149
▁وایت	-11.9151
▁کریر	-11.9153
▁حقوقدان	-11.9154
▁امضاکنند	-11.916
▁برنج	-11.9161
▁درصورت	-11.9164
▁قلمرو	-11.9165
▁مستح	-11.9166
بیت	-11.9167
▁نوپا	-11.9168
عاب	-11.9169
▁متاسفم	-11.917
▁قمر	-11.9172
نشأ	-11.9174
▁دز	-11.9176
سوی	-11.9176
▁باک	-11.9176
▁افزارهای	-11.9177
قطع	-11.9177
▁محص	-11.9179
▁گراز	-11.9181
ناوب	-11.9181
▁فرشت	-11.9182
مانیا	-11.9184
سوار	-11.9185
▁قبض	-11.9187
▁ربکا	-11.9187
▁مناسبات	-11.919
تجمع	-11.9193
▁کولبران	-11.9194
▁گوستا	-11.9194
حکم	-11.9195
▁ارج	-11.9195
▁مرج	-11.9196
▁کساد	-11.9201
▁رویکردهای	-11.9204
▁شگرد	-11.9205
▁افزودند	-11.9205
دخیل	-11.9215
پائولو	-11.9218
▁مشق	-11.9218
▁مکزیکو	-11.9221
ندگرن	-11.9224
▁راهکارهای	-11.9226
▁سوییس	-11.9229
▁پذیرد	-11.9236
کولی	-11.9237
تمایل	-11.9239
▁ساندر	-11.9246
▁ثق	-11.9249
▁منازع	-11.925
▁حوت	-11.925
یدند	-11.925
▁مزد	-11.9256
▁کنگو	-11.926
▁ساچ	-11.9261
▁معترضین	-11.9263
ستانگ	-11.9266
▁دوهزار	-11.9267
▁غذاهای	-11.9275
▁شرت	-11.9278
▁نع	-11.9294
▁مورخ	-11.93
▁تجمعات	-11.93
قایق	-11.9303
▁نظرش	-11.9304
رین	-11.9306
▁اصلاحی	-11.9314
▁لطیفی	-11.9321
▁آورم	-11.9322
فیک	-11.9322
▁لیلا	-11.9323
▁نظ	-11.9326
▁آمری	-11.9332
▁عطار	-11.9332
خوانی	-11.9335
شیتز	-11.9341
▁خصوصیات	-11.9351
فو	-11.9361
عود	-11.9363
وثر	-11.9367
نسوخ	-11.9367
ادل	-11.9371
تعدد	-11.9376
▁قانونگذار	-11.9387
▁رون	-11.9394
▁آما	-11.9415
▁یورد	-11.9419
رنوش	-11.9422
نازنی	-11.9423
▁رگی	-11.9424
▁راهکار	-11.9427
وشن	-11.9434
▁گنجان	-11.9438
▁وود	-11.9444
عات	-11.9449
▁طو	-11.9453
▁هایپر	-11.9455
▁بیک	-11.9463
▁سکس	-11.947
وماگا	-11.947
▁موسی	-11.9475
▁سخ	-11.9483
▁اظهارنظرهای	-11.9485
ریکا	-11.9489
▁مقدا	-11.9491
▁بوهای	-11.9492
▁نبودند	-11.9498
تقابل	-11.9499
▁نائ	-11.9503
مک	-11.951
▁لیمو	-11.9512
▁پرور	-11.9524
▁فیزیوتراپ	-11.953
▁همگان	-11.9532
میلیا	-11.9536
▁موثرتر	-11.9538
▁کمالی	-11.954
▁نایت	-11.954
▁بلندپروازی	-11.9542
▁تجسمی	-11.9542
▁ازس	-11.9543
▁بلندهای	-11.9561
▁مینیا	-11.9562
▁دکترای	-11.957
▁سیمین	-11.9575
▁صاحبش	-11.9578
▁منش	-11.959
سوری	-11.9594
▁اورک	-11.9594
جات	-11.9604
اتنگ	-11.9605
وانیم	-11.9614
صیر	-11.9619
▁سلیم	-11.9625
▁کیش	-11.9631
اوران	-11.9636
▁رن	-11.9656
۷۵	-11.966
▁رقیبان	-11.9662
تیپ	-11.9667
▁نواخت	-11.9674
تعدادی	-11.9682
▁استانداردها	-11.9682
الف	-11.9687
▁کلینت	-11.9688
صدا	-11.9692
تیو	-11.9699
▁کارتر	-11.9706
راد	-11.9736
نزو	-11.9745
وارت	-11.9751
ناتان	-11.9754
▁حریری	-11.9769
ستیک	-11.9776
▁یادم	-11.9776
مگان	-11.9788
ایان	-11.9788
اض	-11.9792
کسان	-11.9801
▁یادش	-11.9802
▁گردهما	-11.9803
▁تیز	-11.982
▁رودر	-11.9836
▁یانگ	-11.9853
هیچ	-11.9857
▁تدا	-11.9858
▁گذران	-11.988
خو	-11.9882
▁استوار	-11.9893
▁فول	-11.9902
شوند	-11.9909
▁آک	-11.9968
برده	-11.9986
▁۱۷۴	-12.0013
▁وجوه	-12.0016
ئوس	-12.0022
لنگر	-12.0027
▁ماجراجو	-12.0044
ارز	-12.0048
▁خوشنو	-12.0064
وزش	-12.0079
▁محی	-12.0079
یکایی	-12.008
▁دریاها	-12.0096
▁بنین	-12.0101
کارولین	-12.0116
▁استانهای	-12.0117
▁آذری	-12.0117
▁لطفی	-12.0129
باند	-12.0131
▁حسابدار	-12.0151
ئ	-12.0153
▁کوکا	-12.0158
▁عفون	-12.0169
ونیا	-12.0193
اسکا	-12.0199
▁شرکتها	-12.0225
▁جور	-12.0228
زمانی	-12.0232
بوک	-12.0234
چنین	-12.024
▁الکسا	-12.0241
▁توفیقی	-12.0242
▁ژیل	-12.0268
تعارف	-12.0268
▁کوک	-12.0298
روث	-12.0299
▁رید	-12.0326
پدر	-12.0353
▁اخت	-12.0359
▁دستمزدها	-12.0372
فیه	-12.0377
شستن	-12.0379
سیل	-12.0389
▁نبردها	-12.0437
▁میامی	-12.0437
میرا	-12.0442
▁وظایفش	-12.0469
پرای	-12.0471
▁مقد	-12.048
وسمی	-12.0485
▁پترو	-12.0495
ولو	-12.05
یتز	-12.051
ندگی	-12.0517
ذخا	-12.0519
▁کارم	-12.0547
عمل	-12.0548
▁پولهای	-12.0553
۲۱	-12.0561
پایه	-12.057
▁میخ	-12.0578
▁تشک	-12.0588
آم	-12.0601
▁صمیم	-12.0651
ودم	-12.0658
▁زنم	-12.0693
گرانی	-12.0693
▁قای	-12.0739
مالیا	-12.0745
▁حم	-12.0751
▁املا	-12.0753
▁مترو	-12.076
ندر	-12.0764
۱۰	-12.079
▁محصولش	-12.0811
▁دستورها	-12.0819
۴۴	-12.082
▁موس	-12.0836
نسیم	-12.0836
ارپنت	-12.085
▁مئ	-12.0851
فرانس	-12.0861
گرایی	-12.0874
گذار	-12.0877
▁بگو	-12.0878
▁قه	-12.0885
▁کیک	-12.0888
میزان	-12.0904
▁اط	-12.0906
لاب	-12.0926
▁اینج	-12.0931
ماجرا	-12.0969
قهرمان	-12.097
▁جوانب	-12.0998
▁سنجی	-12.1002
سپی	-12.101
نگوی	-12.1026
▁دشوارتر	-12.1028
سری	-12.1051
▁ساق	-12.1064
▁لنگ	-12.1067
اندی	-12.1082
▁عثمان	-12.1092
▁۱۲۶	-12.1098
▁گرجستان	-12.1099
کوب	-12.1104
رفت	-12.111
زنان	-12.1111
▁اظهارنظرها	-12.1112
امیلی	-12.1113
▁خو	-12.1119
▁مذهب	-12.1123
سرع	-12.1125
▁فعل	-12.1126
▁تروریست	-12.1129
ثه	-12.1131
۲۷	-12.1131
▁سخنگو	-12.1131
▁سوکا	-12.1134
▁وکا	-12.1138
▁رف	-12.1184
یناتور	-12.1199
نفت	-12.1202
▁هجده	-12.1203
▁دلخو	-12.1212
پروم	-12.1217
▁۲۰۶	-12.1229
▁دوور	-12.123
▁چیپ	-12.1231
▁فاین	-12.124
شهدا	-12.1253
▁جادو	-12.1262
نگاره	-12.1266
▁لیم	-12.1267
▁استرلی	-12.1273
دارا	-12.1278
کنند	-12.1295
▁کوتاهتر	-12.1299
▁معوق	-12.1299
تورم	-12.1299
▁محبو	-12.13
الیزا	-12.1301
▁گزی	-12.1302
▁۱۰۲	-12.1309
▁پیل	-12.1314
اجرای	-12.1341
▁صفا	-12.1346
نگام	-12.1359
گذران	-12.1361
گنجی	-12.1365
▁ناخ	-12.1369
سپاه	-12.1377
خصوص	-12.1385
▁سلب	-12.1394
گمش	-12.14
درآمد	-12.1405
▁اپراتور	-12.1405
صمد	-12.1411
▁چون	-12.1412
حکام	-12.1416
دبیر	-12.1418
تناقض	-12.1418
چیده	-12.1419
چاق	-12.1422
اندرو	-12.1423
تحرک	-12.1423
اسحاق	-12.1424
جمشید	-12.1424
اضطراب	-12.1424
▁فراخوان	-12.1424
جزییات	-12.1424
روبرت	-12.1424
تفاهم	-12.1425
بالگرد	-12.1425
کاظم	-12.1425
مهندس	-12.1426
اسپوت	-12.1426
خروج	-12.1426
پیرلو	-12.1426
راجع	-12.1426
وبسایت	-12.1426
ضرور	-12.1426
فولاد	-12.1426
خاوران	-12.1426
اقبال	-12.1427
سوئیس	-12.1427
تخریب	-12.1427
رونالدو	-12.1427
حاشیه	-12.1427
جیمز	-12.1427
تماشاگر	-12.1427
حادثه	-12.1427
نویسندگان	-12.1427
صادرات	-12.1427
عملکرد	-12.1427
سرمربی	-12.1427
عربستان	-12.1427
حمایت	-12.1427
دانشگاه	-12.1427
نزدیک	-12.1427
آثار	-12.1428
قسمت	-12.1428
۲۰۲۰	-12.1428
پاسخ	-12.1428
ایلنا	-12.1428
عملیات	-12.1428
خالی	-12.1428
جمله	-12.1428
فرمانده	-12.1429
وضعیت	-12.1429
ربات	-12.1429
ورزشگاه	-12.1429
مدیرکل	-12.1429
گوش	-12.1429
جشن	-12.1429
بیانیه	-12.143
پیکر	-12.143
خدم	-12.143
تابستان	-12.1431
داریوش	-12.1431
کنزو	-12.1432
جمهوری	-12.1433
سورها	-12.1435
سناتور	-12.1436
مکرون	-12.1437
سینما	-12.1437
جنسی	-12.1437
فرام	-12.1437
ضمن	-12.144
الگو	-12.1441
خود	-12.1442
واکسن	-12.1443
صرب	-12.1445
اعظم	-12.1447
سیمون	-12.1448
▁اسکا	-12.1448
سبک	-12.1448
پوشید	-12.1449
▁حف	-12.1451
▁طاه	-12.1451
دریایی	-12.1455
کولبر	-12.1455
مدیریت	-12.1457
امشب	-12.1457
کانال	-12.1458
سکار	-12.1458
پوش	-12.1461
ناسا	-12.1461
طالبان	-12.1462
برداشت	-12.1462
قبلا	-12.1463
گمان	-12.1464
ساط	-12.1467
پهن	-12.1468
راکت	-12.1471
بنز	-12.1474
گردون	-12.1477
عیار	-12.1477
▁کیپ	-12.1481
▁۳۳۰	-12.1483
ناوگان	-12.1483
بنیا	-12.1486
هفتم	-12.1487
▁حدف	-12.1487
کشف	-12.1487
بازیکنان	-12.1491
بازارهای	-12.1491
پینو	-12.1492
ستحکم	-12.1493
▁داینا	-12.1496
عصب	-12.1497
▁مبنا	-12.15
اتهام	-12.1502
▁همسایگ	-12.1502
▁۲۰۵	-12.1512
وقف	-12.1513
طابق	-12.1513
درخواست	-12.1514
▁شراف	-12.1514
بولت	-12.1515
آرت	-12.1516
▁بخو	-12.1522
▁مختص	-12.1522
▁علام	-12.1525
پرت	-12.1526
صدق	-12.1528
▁هموطن	-12.1528
رشا	-12.1531
نوسان	-12.1532
▁تظاهر	-12.1532
رگبار	-12.1533
▁سیب	-12.1535
مایند	-12.1536
▁مکاتب	-12.1538
▁مطبوع	-12.154
لگرام	-12.1541
▁جولیا	-12.1542
▁لغ	-12.1544
▁اکونومی	-12.1549
موکورمایکوزیس	-12.1549
▁انحراف	-12.1549
▁اوگوپوگو	-12.1549
▁بشناسد	-12.1549
▁بشنوند	-12.1549
▁بورکینافاسو	-12.1549
▁تماشگر	-12.1549
▁تمسخر	-12.1549
▁دزفول	-12.1549
▁رادیواکتیو	-12.1549
▁رامهرمز	-12.1549
▁سزاوار	-12.1549
▁سوراخ	-12.1549
▁سوسیالیست	-12.1549
▁غیاث	-12.1549
▁فانخیو	-12.1549
▁قیراط	-12.1549
▁ناآشنا	-12.1549
▁ناپلئون	-12.1549
▁ولاسکز	-12.1549
▁پترزبورگ	-12.1549
▁پرسورینس	-12.1549
▁پرینسخرا	-12.1549
▁پومپئو	-12.1549
▁کاریکاتور	-12.1549
▁بفرستد	-12.1549
▁بپیوندد	-12.1549
▁عنایت	-12.1549
▁قزوین	-12.1549
▁متذکر	-12.1549
▁متضاد	-12.1549
▁ناپایدار	-12.1549
▁نذری	-12.1549
▁سرخپوشان	-12.1549
▁سوبرانا	-12.1549
▁محتکر	-12.1549
▁مقصود	-12.1549
▁غیرعمد	-12.1549
▁وبلاگ	-12.1549
▁تشریفات	-12.1549
▁مجارستان	-12.1549
▁مشهود	-12.1549
▁میکروسکوپ	-12.1549
▁شیطان	-12.1549
▁صحافی	-12.1549
▁مقبول	-12.1549
▁معضل	-12.1549
▁همجوار	-12.1549
▁شرمسار	-12.155
▁بپرسید	-12.155
▁معشوق	-12.155
▁اساتید	-12.155
▁ایرلاین	-12.155
▁بگویید	-12.155
▁ببینم	-12.155
▁عبادی	-12.155
▁نقیض	-12.155
▁برسانیم	-12.155
▁نزاع	-12.155
▁کوئیک	-12.155
▁الجز	-12.155
▁اتمر	-12.155
▁هوندا	-12.155
▁طنزپرداز	-12.155
▁انهدام	-12.155
▁نوترینو	-12.155
▁عبرت	-12.155
▁بیانجامد	-12.155
▁معبد	-12.155
▁بیفتند	-12.155
▁جانبازان	-12.155
▁سوینتن	-12.155
▁نرساند	-12.155
▁شمع	-12.155
▁فرخزاد	-12.155
▁یوردانس	-12.155
▁لوکزامبورگ	-12.155
▁نحس	-12.155
ستراح	-12.155
▁۲۴۰	-12.155
▁ظلم	-12.155
▁لرزاند	-12.155
▁گزاف	-12.155
▁برلیناله	-12.155
▁مجلل	-12.155
▁نخاع	-12.155
▁ستمگر	-12.155
▁مصائب	-12.155
▁باروک	-12.155
▁موازن	-12.155
▁هیلتون	-12.1551
▁نباشید	-12.1551
▁نکونام	-12.1551
▁سمنزا	-12.1551
▁پوتین	-12.1551
▁خیاط	-12.1551
▁پوینت	-12.1551
▁دروغگو	-12.1551
▁پرمخاط	-12.1551
▁لاستیک	-12.1551
▁موتورسوار	-12.1551
▁کبود	-12.1551
▁طارمی	-12.1551
▁آسایشگاه	-12.1551
▁جرارد	-12.1551
▁تظاهرکنندگان	-12.1551
▁ایرویز	-12.1552
ناعت	-12.1552
▁مزیت	-12.1552
▁گمارد	-12.1552
▁کوونی	-12.1552
▁نوشتارها	-12.1552
▁مقننه	-12.1552
▁مکوندی	-12.1553
▁دیلن	-12.1553
▁غمگین	-12.1553
▁خمیس	-12.1553
هالیفیلد	-12.1554
▁کریگ	-12.1554
▁ربود	-12.1554
▁صداقت	-12.1554
▁قهری	-12.1554
▁ترمز	-12.1554
▁آسود	-12.1554
▁سرسبز	-12.1554
▁غیرمعمول	-12.1554
▁گیج	-12.1555
▁موزیکال	-12.1555
▁سیندمی	-12.1555
▁قرآن	-12.1555
▁دلنشین	-12.1556
▁شادگان	-12.1556
▁محصور	-12.1556
▁شوشتر	-12.1556
▁مترمکعب	-12.1556
▁آقاخان	-12.1556
▁زمام	-12.1557
▁نیابت	-12.1557
دونا	-12.1557
▁پنداشت	-12.1557
▁بزنید	-12.1557
▁دفعات	-12.1557
▁خاکباز	-12.1557
▁سانچ	-12.1558
▁بنویسد	-12.1558
▁یدک	-12.1558
▁زهیر	-12.1558
▁سروصدا	-12.1558
▁کانتونا	-12.1558
▁کوئینز	-12.1559
▁منحنی	-12.156
▁ونچ	-12.156
▁روباه	-12.156
▁مرندی	-12.156
▁بسپارد	-12.156
▁صنا	-12.1561
▁فونت	-12.1561
▁گماشت	-12.1561
▁سهمگین	-12.1561
▁۱۳۸۶	-12.1562
ارنوک	-12.1562
▁بگذارم	-12.1562
▁میناری	-12.1563
هلن	-12.1564
▁خوشبو	-12.1564
▁کالینگ	-12.1564
▁بنویسم	-12.1565
▁ترفتال	-12.1566
ینیو	-12.1566
▁آغا	-12.1566
▁ممد	-12.1566
▁ربع	-12.1566
▁گچ	-12.1566
▁۱۳۸۰	-12.1567
بنوی	-12.1567
▁ایرایی	-12.1567
▁برسیم	-12.1567
انجیر	-12.1567
▁گرانبها	-12.1568
▁سنجاب	-12.1569
▁بوفالوران	-12.1569
▁وسائ	-12.157
▁آموس	-12.157
▁۱۹۴۴	-12.157
▁۷۶۰	-12.157
▁بامیه	-12.157
▁عابران	-12.1571
▁باغبان	-12.1571
▁زیباست	-12.1572
▁دایم	-12.1572
▁فدریک	-12.1572
▁خجالت	-12.1572
▁دارالا	-12.1572
▁سرزن	-12.1572
▁دهشت	-12.1572
▁شیاد	-12.1572
▁برازند	-12.1572
▁تنبل	-12.1573
اختا	-12.1574
▁هنرپیشگ	-12.1574
▁مصادیق	-12.1575
▁فرسا	-12.1575
▁شهباز	-12.1575
▁نرود	-12.1576
▁ناشده	-12.1577
شنود	-12.1577
راژ	-12.1578
▁چریک	-12.1578
▁تابع	-12.1578
▁جویانه	-12.1578
▁رجیس	-12.1579
پوآ	-12.158
ارزپاشی	-12.158
▁خطاهای	-12.1581
▁خائ	-12.1582
▁۶۳۰	-12.1583
حریف	-12.1583
▁پوسترهای	-12.1584
▁قمار	-12.1588
▁شوکور	-12.1589
▁واژگان	-12.159
▁باارزش	-12.1591
▁دوقلوها	-12.1592
▁ایفل	-12.1592
▁محک	-12.1593
▁۲۳۹	-12.1594
▁آبراه	-12.1595
▁بازپرس	-12.1596
کال	-12.1596
میخ	-12.1597
▁افزو	-12.1597
▁بگیرم	-12.1598
▁زیربنا	-12.1599
▁خفت	-12.1599
▁سینایی	-12.16
▁بیولوژی	-12.1603
▁خوانید	-12.1604
▁تخار	-12.1604
▁تراژ	-12.1606
▁ویدئوهای	-12.1606
▁سپهر	-12.1607
▁بازوهای	-12.1607
▁جبار	-12.1608
▁قلو	-12.1609
▁گود	-12.1609
دانف	-12.1609
▁فاصل	-12.1609
▁ورا	-12.161
▁مفسد	-12.161
▁هالووین	-12.161
▁گیلبرت	-12.1611
▁بدیع	-12.1611
لومین	-12.1612
▁زادروز	-12.1615
▁رسیم	-12.1615
▁نمودار	-12.1615
▁میانمار	-12.1617
▁فور	-12.1618
▁بدق	-12.1621
فلورای	-12.1626
▁علیشاهی	-12.1627
▁ناظمی	-12.1628
▁زرتشتی	-12.1628
▁کشمیر	-12.1629
▁کتابخوان	-12.1629
▁نرسیدن	-12.1634
نگلا	-12.1635
▁همجنسگرا	-12.1635
▁سودده	-12.1635
برمی	-12.1636
▁خورند	-12.1637
▁نشا	-12.1637
▁پیوندند	-12.1638
▁مگنو	-12.1638
▁رباتیک	-12.164
▁کوئین	-12.1641
▁مواج	-12.1647
▁بیدگ	-12.1648
گوت	-12.1651
زندگان	-12.1661
▁ریختند	-12.1663
▁مگو	-12.1664
▁ازآن	-12.1665
محسن	-12.1667
ایم	-12.1667
▁نورال	-12.1669
سایر	-12.1671
▁وانگ	-12.1673
گوین	-12.1677
▁مرزبان	-12.1679
▁محبت	-12.168
▁لویی	-12.168
▁نگذشته	-12.1683
▁دستفروش	-12.1683
▁یادمان	-12.1684
▁رازهای	-12.1687
نادر	-12.1689
▁وارن	-12.169
▁صمد	-12.1691
یختگ	-12.1691
هاپ	-12.1696
▁منکین	-12.1696
اشق	-12.1697
▁ایدز	-12.1697
ریاست	-12.1705
مداری	-12.171
▁کلاسیکو	-12.1712
▁جده	-12.1712
▁مشاهدات	-12.1719
فشان	-12.172
▁الف	-12.1732
▁مخاطر	-12.1733
▁نبست	-12.1734
▁اوکل	-12.174
▁ترسد	-12.1744
شواری	-12.1745
▁دالان	-12.1747
▁لع	-12.1748
کات	-12.1752
▁نازک	-12.1753
خواند	-12.1755
▁گذراندم	-12.1763
▁درازا	-12.1765
▁غفاری	-12.1766
▁همتایان	-12.177
▁موزی	-12.1772
▁سیاستگذار	-12.1774
▁کربی	-12.1774
آزمایش	-12.1775
▁فرستند	-12.1775
▁بازنده	-12.1784
ارث	-12.1786
▁پدرو	-12.1817
▁نخل	-12.1819
▁اعت	-12.182
▁نواز	-12.1828
▁قبرهای	-12.1829
۶۷	-12.1835
مونت	-12.1836
▁آبیار	-12.1841
▁رایکو	-12.1843
▁پهنا	-12.1845
ونته	-12.1851
▁دوآ	-12.1855
ستگاه	-12.1856
▁آورید	-12.1861
وچی	-12.1865
آل	-12.1867
▁درخشند	-12.1868
▁بلاتکلیف	-12.1871
رمو	-12.1882
▁بغ	-12.1884
▁بریز	-12.1898
روژ	-12.1899
▁شکم	-12.1903
▁رحیمی	-12.1906
یشکر	-12.191
▁شکس	-12.1915
▁فرگوس	-12.1917
▁فراوانش	-12.1917
موس	-12.192
▁وصدا	-12.1924
کسیون	-12.1931
▁تهدیدات	-12.1938
شرف	-12.1939
▁آزادگان	-12.1941
▁مواجهند	-12.1947
▁پشتکار	-12.1948
▁چشمک	-12.195
انیس	-12.1953
▁حک	-12.1958
▁بمان	-12.1958
▁خصوصا	-12.196
کانا	-12.1963
اشته	-12.1972
▁دستورات	-12.1979
▁مخا	-12.1979
انریک	-12.1993
▁ماهیان	-12.1996
▁زیباتر	-12.1998
سیستم	-12.2022
شاپی	-12.2022
نتر	-12.2027
▁ریچ	-12.2029
استان	-12.2029
▁افتادند	-12.2036
کلت	-12.2042
▁پارکین	-12.2042
▁گلشی	-12.2043
▁فلان	-12.2045
نیو	-12.2054
▁فریم	-12.2077
هشتم	-12.2084
▁تعبی	-12.2084
▁تولی	-12.209
▁استدفتر	-12.2091
ساعد	-12.2094
فروشی	-12.2094
▁دخترم	-12.2096
▁یونیو	-12.2103
حشم	-12.2128
▁حجت	-12.2128
▁شغلهای	-12.2145
امبی	-12.2145
▁آنف	-12.2148
▁والد	-12.2155
انتقال	-12.2165
▁بریج	-12.2169
شمن	-12.2188
هموار	-12.2197
گذرانند	-12.2214
▁پوک	-12.2214
وادا	-12.2224
ایکون	-12.2229
▁رزو	-12.2234
▁کرای	-12.2235
فسر	-12.2251
▁ویا	-12.2252
▁نانو	-12.2252
▁بوین	-12.2257
مایه	-12.2275
▁راهور	-12.2277
▁آسم	-12.2278
▁نقاشان	-12.2292
▁جوری	-12.2299
▁اعم	-12.2299
▁جاست	-12.2307
▁فرما	-12.2314
گوپ	-12.2327
قویا	-12.2327
▁لوت	-12.2356
▁شناختند	-12.2373
منان	-12.2373
نجام	-12.2384
▁لایک	-12.2388
▁خطرهای	-12.2414
حق	-12.2425
▁ارو	-12.244
▁نگو	-12.2445
شهرهای	-12.2479
▁کیان	-12.2486
▁ایرانسل	-12.2489
رها	-12.2492
ناپس	-12.2496
دنبال	-12.2503
کوست	-12.251
ضراب	-12.252
قاد	-12.2522
▁نوب	-12.253
▁هرسال	-12.2532
▁هوک	-12.2564
چندان	-12.257
▁کشاورزان	-12.2575
▁یزدان	-12.2577
ولان	-12.2598
▁پرداختند	-12.2602
▁تقی	-12.2605
ویرانگر	-12.2606
▁لاین	-12.2624
▁واردکنند	-12.2625
▁ویلر	-12.2644
ائز	-12.2646
فال	-12.2649
▁دانستم	-12.2651
▁ترها	-12.268
▁شهنا	-12.2701
زیا	-12.2726
ناتور	-12.2739
رآواز	-12.2753
▁تویی	-12.2753
▁ویول	-12.2765
▁۱۸۴	-12.2766
▁همسران	-12.277
▁میزبانش	-12.2831
▁انبارها	-12.2841
▁پارسا	-12.2844
بود	-12.2846
▁۱۵۲	-12.2869
تروف	-12.289
▁پیکا	-12.2893
▁اوس	-12.2902
▁مسج	-12.2905
▁بفهمی	-12.2905
▁راهیاب	-12.2931
▁بدنساز	-12.2933
▁فرمین	-12.2935
۶۸	-12.2945
▁غیرمت	-12.2948
▁کتابدار	-12.2964
۹۶۰	-12.2969
یگانی	-12.2973
فرود	-12.2978
▁رکسا	-12.2984
پک	-12.2991
▁درهم	-12.2998
▁فار	-12.3003
▁سوپ	-12.3004
▁پیس	-12.3017
▁گرداند	-12.3028
▁بلندتر	-12.3039
▁دکترها	-12.3045
▁بالاگ	-12.3057
اونت	-12.3063
عل	-12.3063
اصر	-12.3081
اط	-12.3119
▁تز	-12.3143
رهایش	-12.3207
▁احتمالات	-12.3212
استمز	-12.3213
انزلی	-12.3231
قوی	-12.325
وگو	-12.3275
▁خوابیدن	-12.3276
▁خوابید	-12.3276
▁ایرانروزها	-12.3278
سکین	-12.3286
روهای	-12.3303
مایش	-12.3393
سمن	-12.3414
۷۱۰	-12.3419
▁گذرانی	-12.3524
▁گذرا	-12.3542
▁بایستی	-12.3544
ماگو	-12.3564
دئو	-12.3566
بریز	-12.3606
▁نرفتن	-12.3619
اتری	-12.3622
سرگ	-12.3626
راث	-12.3626
انچین	-12.3651
غفو	-12.3652
گشایش	-12.3707
▁وینس	-12.3717
▁برخاستن	-12.3724
▁سپه	-12.3735
انیو	-12.3736
ریتا	-12.377
▁نیکل	-12.3784
نخ	-12.3796
▁رکن	-12.3821
▁خف	-12.3827
▁دس	-12.3829
کسوت	-12.3861
▁رویاها	-12.3878
▁آدا	-12.3918
ارگردان	-12.3924
نیرو	-12.3952
▁وزر	-12.4018
روید	-12.4023
▁۱۷۷	-12.4027
باف	-12.4044
▁فیزیوتراپی	-12.4079
وردی	-12.411
▁اسکور	-12.4137
▁۱۱۴	-12.4151
گردها	-12.4159
هرام	-12.4179
▁مارسل	-12.4179
اگون	-12.4219
▁میانج	-12.4221
عرض	-12.4223
▁فضاپیما	-12.4238
بورگ	-12.4245
▁لاپ	-12.4251
قاب	-12.4259
دیده	-12.4274
▁داستا	-12.433
بسیار	-12.4337
آقا	-12.4338
قانون	-12.4339
▁الاه	-12.4349
بزرگتری	-12.4358
▁لینگ	-12.4372
ظ	-12.4384
▁جدیدتر	-12.4385
▁۱۶۶	-12.4394
کمپ	-12.4409
لیور	-12.4412
▁بوستا	-12.4414
▁تمل	-12.4422
▁نجوم	-12.4435
▁وکلا	-12.4439
▁اکوس	-12.4444
▁شوخ	-12.4449
▁لطیف	-12.4449
▁پناهجو	-12.4451
▁محتوا	-12.4455
▁مطهر	-12.4455
▁تیرانداز	-12.4461
نسک	-12.4468
▁۲۰۷	-12.4473
▁نارنج	-12.4473
▁نیایش	-12.4473
▁کتابها	-12.4477
▁ناگ	-12.4481
▁آلیس	-12.4485
▁خانوارها	-12.4486
▁دلم	-12.4488
▁جهانگیر	-12.4516
▁ادعاها	-12.4517
▁آمر	-12.4525
▁بوها	-12.4543
▁هاشم	-12.4545
▁شغلها	-12.4547
قامت	-12.4558
وانگ	-12.456
▁نیروها	-12.456
▁دیوارها	-12.4565
راس	-12.457
آلبر	-12.4573
▁کاپ	-12.4578
صراف	-12.4589
چگون	-12.4594
▁گرسن	-12.4612
▁فروخت	-12.4625
▁انع	-12.4641
▁بیند	-12.4651
ضیا	-12.4666
زارها	-12.4684
رتون	-12.4688
▁تجار	-12.4704
▁اسطور	-12.4709
داخل	-12.4739
▁بولد	-12.474
پرداز	-12.474
تفاوت	-12.474
اخترشناس	-12.4748
بنفش	-12.4748
معمول	-12.4749
مجید	-12.475
تحقیق	-12.4751
جعفر	-12.4752
▁مخاط	-12.4754
توییت	-12.4754
رونالدینیو	-12.4756
خالق	-12.4757
پناه	-12.4758
منچستریونایتد	-12.4758
برابر	-12.4758
منتف	-12.4759
آشفت	-12.4759
عطرساز	-12.4759
مارتین	-12.4759
مالاریا	-12.4759
ویلیام	-12.4759
کاوشگر	-12.476
فایزر	-12.476
ثروت	-12.476
تکمیل	-12.476
منچسترسیتی	-12.476
پادشاه	-12.476
تبعیض	-12.476
خورشید	-12.476
خودکشی	-12.476
تحریر	-12.476
حراج	-12.476
منچستر	-12.476
آرسنال	-12.476
عرص	-12.476
کیفیت	-12.476
برزیل	-12.476
مدیرعامل	-12.476
واشنگتن	-12.476
معترضان	-12.476
جزئیات	-12.4761
رئال	-12.4761
خیابان	-12.4761
ورزش	-12.4761
برخورد	-12.4761
فساد	-12.4761
سقوط	-12.4761
المپیک	-12.4761
ظریف	-12.4761
اطمینان	-12.4761
حکومت	-12.4761
کمبود	-12.4761
امنیتی	-12.4761
مشاور	-12.4761
جنوب	-12.4761
پنجشنبه	-12.4762
استاندار	-12.4762
افراد	-12.4762
ساختمان	-12.4762
مرح	-12.4762
جوایز	-12.4762
آتش	-12.4762
سوخت	-12.4763
توتال	-12.4763
خشک	-12.4764
مجله	-12.4764
سقف	-12.4764
مثل	-12.4764
انتقادات	-12.4764
آگاهی	-12.4765
تماس	-12.4765
عروس	-12.4765
دلیلش	-12.4765
شرط	-12.4765
پیدا	-12.4765
بازدید	-12.4765
جلسات	-12.4766
پائی	-12.4766
کاملا	-12.4766
شایست	-12.4766
عصر	-12.4766
تایید	-12.4766
اعتراضات	-12.4767
خواننده	-12.4768
روحانی	-12.4768
جدول	-12.4768
فیفا	-12.4769
▁حسگر	-12.477
جدید	-12.477
سادگی	-12.4771
توییتر	-12.4772
کنفرانس	-12.4772
معمولا	-12.4773
سفیر	-12.4773
امارات	-12.4774
زیستی	-12.4775
اقدام	-12.4775
ژوز	-12.4778
فکر	-12.4778
ساکن	-12.4779
آینده	-12.4781
کیهان	-12.4782
اصلاح	-12.4783
▁تهدیدها	-12.4783
چپ	-12.4785
درمانی	-12.4788
کالا	-12.4788
ضرب	-12.4789
خبرنگاران	-12.4792
چای	-12.4793
فراز	-12.4794
متیو	-12.4795
نوروز	-12.4796
نادال	-12.4796
پرواز	-12.48
دیوان	-12.48
پشت	-12.4801
▁بحر	-12.4803
بریتانیایی	-12.4805
تقی	-12.4806
روسیه	-12.4808
حرکت	-12.4809
حکمت	-12.4811
قول	-12.4812
خرید	-12.4814
طالب	-12.4815
نشدن	-12.4821
جنر	-12.4824
گذراند	-12.4824
شناخت	-12.4828
▁رحیم	-12.4831
حبیب	-12.4831
سپاهان	-12.4833
▁رخشان	-12.4834
دستور	-12.4834
واردات	-12.4834
کوئین	-12.4836
کریستین	-12.4836
حبو	-12.4836
خوانده	-12.4845
رونا	-12.4845
دروس	-12.4845
عبدالله	-12.4848
▁قراردادها	-12.4849
جدال	-12.4851
اغر	-12.4852
▁زحم	-12.4853
▁قرائ	-12.4854
واقعیت	-12.4854
▁آپار	-12.4855
ایرا	-12.4856
گزین	-12.4857
▁الاح	-12.4858
سیاسی	-12.4859
ویتز	-12.4859
طمئن	-12.4863
کوبا	-12.4863
سترازنکا	-12.4865
دگار	-12.4866
اسکار	-12.4867
▁بنویس	-12.4868
▁بپرداز	-12.4869
بلاغ	-12.4869
اتاق	-12.4872
أت	-12.4872
دومین	-12.4873
▁مذا	-12.4873
▁آرنو	-12.4875
▁ظالم	-12.4876
▁المپی	-12.4879
زلزل	-12.488
یکصد	-12.4882
▁سریلانکا	-12.4883
▁ابوظبی	-12.4883
▁استروئید	-12.4883
▁ایزوتوپ	-12.4883
▁برگردانند	-12.4883
▁بیندازید	-12.4883
▁تمساح	-12.4883
▁دیپلومات	-12.4883
▁سبحانی	-12.4883
▁سرگذاشت	-12.4883
▁سولوویوف	-12.4883
▁شقاقی	-12.4883
▁غوغای	-12.4883
▁فاحش	-12.4883
▁مخترع	-12.4883
▁مرتضوی	-12.4883
▁نامطلوب	-12.4883
▁هخامنشی	-12.4883
▁هولدینگ	-12.4883
▁پورنوگرافی	-12.4883
▁ژئوپلتیک	-12.4883
▁یوکوکورا	-12.4883
▁بکشاند	-12.4883
▁عاقبت	-12.4883
▁مدودف	-12.4883
▁نپذیرفت	-12.4883
▁نیفتد	-12.4883
▁واعظ	-12.4883
▁پوآرو	-12.4883
▁گردآمد	-12.4883
▁ریاکاری	-12.4883
▁مزاح	-12.4883
▁نطق	-12.4883
▁نیفتند	-12.4883
▁وبیتکو	-12.4883
▁کاذب	-12.4883
▁آنالیز	-12.4883
▁ضابط	-12.4883
▁روانشناختی	-12.4883
▁موثق	-12.4883
▁ابریشم	-12.4883
▁العالم	-12.4883
▁واکاندا	-12.4883
▁ابطحی	-12.4883
▁شگرف	-12.4883
▁هزارتومان	-12.4883
▁ببخشد	-12.4883
▁نگیرد	-12.4883
▁هیدروژن	-12.4883
▁احمق	-12.4883
▁پورتلند	-12.4883
▁اتوبان	-12.4883
▁قاپید	-12.4883
▁کربلا	-12.4883
▁گنجایش	-12.4883
▁گسست	-12.4883
▁الشع	-12.4883
▁آلمادو	-12.4883
▁عنف	-12.4883
▁نگشته	-12.4883
▁بیاموز	-12.4883
▁خونسرد	-12.4883
▁شئون	-12.4883
▁وصیت	-12.4883
▁واینالد	-12.4883
▁خرگوش	-12.4883
▁سردادند	-12.4883
▁میگویند	-12.4883
▁برگکمپ	-12.4883
▁کمرشکن	-12.4883
▁ندوشن	-12.4883
▁سمنگان	-12.4883
▁وسای	-12.4883
▁بنگال	-12.4883
▁هورایزن	-12.4883
▁کلارک	-12.4883
▁سانفرانسیسکو	-12.4883
▁جماعت	-12.4883
تکاپو	-12.4883
▁ارمنی	-12.4883
▁بروکلی	-12.4883
▁نگرائو	-12.4883
▁بازگردم	-12.4883
▁بگریز	-12.4883
▁فینچر	-12.4883
▁ارنست	-12.4883
▁فورهند	-12.4883
▁سیدابراهیم	-12.4883
▁بیابد	-12.4883
▁گمپرت	-12.4883
▁ناخدا	-12.4884
▁طومار	-12.4884
▁پاندمی	-12.4884
▁حصار	-12.4884
▁چسباند	-12.4884
▁۵۳ساله	-12.4884
▁رسوب	-12.4884
▁اسنوبرد	-12.4884
▁حیفا	-12.4884
▁شکوهمند	-12.4884
▁کلسترو	-12.4884
▁سیلیکون	-12.4884
▁ایرانشناس	-12.4884
▁اوباش	-12.4884
▁آسایش	-12.4885
▁متهیا	-12.4885
▁سرمست	-12.4885
واگذار	-12.4885
▁گاندو	-12.4885
▁غنای	-12.4885
▁ژئو	-12.4885
▁کانتون	-12.4885
▁بیاییم	-12.4886
▁نومید	-12.4886
▁فرمایش	-12.4886
ریزش	-12.4886
▁بردارم	-12.4886
▁کلمبو	-12.4886
▁رادارها	-12.4886
▁شادمان	-12.4886
▁بمانید	-12.4887
▁ریتم	-12.4887
▁آشتی	-12.4887
▁ملامت	-12.4887
▁پاکیزگی	-12.4887
▁واداشته	-12.4887
▁افراط	-12.4888
▁اپوز	-12.4888
مویرگی	-12.4888
▁آلترن	-12.4888
▁فرازمینی	-12.4888
▁متأ	-12.4889
▁نشناخت	-12.4889
▁سرمنشا	-12.4889
▁الاصل	-12.489
▁معذ	-12.489
▁بکاهد	-12.489
▁آتلانتا	-12.489
▁آجر	-12.4891
▁بنشینند	-12.4891
▁بیابند	-12.4891
▁انعکاس	-12.4891
▁ترفندهای	-12.4892
▁ماورا	-12.4892
▁ورزید	-12.4892
▁سمنان	-12.4892
▁فرازمند	-12.4892
▁ویسکانس	-12.4892
رپیچ	-12.4893
▁پرنفوذ	-12.4893
▁پاسداشت	-12.4893
▁خص	-12.4893
▁ولیحی	-12.4893
▁بسط	-12.4893
▁تمجید	-12.4893
▁پردیس	-12.4894
▁پالیس	-12.4894
▁جمهو	-12.4894
▁استیشن	-12.4894
▁ننوشت	-12.4894
▁عرق	-12.4894
▁۱۹۱۲	-12.4894
▁افتضاح	-12.4895
تراتو	-12.4895
▁بندپی	-12.4895
▁بساط	-12.4896
▁مشکاتیان	-12.4896
▁بازکنند	-12.4896
▁معصومانه	-12.4896
گسترد	-12.4896
▁مولایی	-12.4896
▁کود	-12.4896
▁فاضلاب	-12.4896
▁نپرداخت	-12.4896
▁آبتین	-12.4896
کریک	-12.4897
▁نیمرخ	-12.4897
▁امیدورا	-12.4897
▁لرد	-12.4897
▁بصیر	-12.4898
رعب	-12.4898
▁هورن	-12.4898
وتنبرگ	-12.4898
▁بلندگو	-12.49
پزشکان	-12.49
ساتبی	-12.4901
▁ادیان	-12.4902
▁لارن	-12.4902
▁تشابه	-12.4902
▁تقلی	-12.4902
مردم	-12.4903
▁سعیدپور	-12.4903
▁علف	-12.4905
▁کاکس	-12.4905
▁دستگیرزاده	-12.4905
رامش	-12.4906
▁رینت	-12.4906
▁معابد	-12.4906
▁نوگرا	-12.4907
▁خانلو	-12.4907
▁بشناسی	-12.4907
طح	-12.4908
▁نبات	-12.4908
▁کاوش	-12.4909
▁همبازی	-12.4909
▁حادتر	-12.491
▁هرچیز	-12.4911
▁۱۹۳۹	-12.4911
چهارم	-12.4911
روژن	-12.4911
▁ضمیر	-12.4911
▁گریختند	-12.4913
امدا	-12.4913
حفاظ	-12.4915
▁مگاصیص	-12.4915
▁گاسکوئین	-12.4915
▁لوکالکان	-12.4915
▁علفزارها	-12.4915
▁افراز	-12.4915
عابد	-12.4916
▁اسپری	-12.4917
▁کاونت	-12.4918
▁کراش	-12.4919
▁تباه	-12.4919
▁ملایم	-12.4919
▁اژدها	-12.492
جماع	-12.4921
▁خطاط	-12.4921
▁هملت	-12.4922
▁مانورهای	-12.4923
▁کبری	-12.4923
▁پراوی	-12.4925
▁کوکو	-12.4927
▁امدادگر	-12.4927
▁پرگا	-12.4927
▁تازیان	-12.4927
▁سالوادور	-12.4928
اچی	-12.4929
▁لئون	-12.493
منتو	-12.493
▁بوسد	-12.4932
▁رهن	-12.4932
▁جرئ	-12.4932
▁خرو	-12.4932
▁دیوارنگار	-12.4932
▁تسایت	-12.4932
گیرند	-12.4932
▁باگز	-12.4933
▁حض	-12.4933
▁نوشتاری	-12.4933
▁لاور	-12.4936
▁۶۱۲	-12.4936
▁۲۶۶	-12.4936
▁پرالتهاب	-12.4937
▁جووان	-12.4937
▁کولون	-12.4937
▁کاتل	-12.4938
▁آپارت	-12.4939
پیوند	-12.494
▁هدفمند	-12.4941
▁لودو	-12.4942
▁دفع	-12.4942
رساز	-12.4942
آمدتر	-12.4944
▁شرو	-12.4948
گردانیم	-12.4949
باستان	-12.4949
▁مستعد	-12.495
▁جنایات	-12.495
▁لاهه	-12.495
▁پسندید	-12.495
▁پهپادهای	-12.4951
رقم	-12.4951
▁ندانستند	-12.4951
پابلیک	-12.4953
▁مشوقهای	-12.4957
ائیم	-12.4957
خواهر	-12.4958
▁دق	-12.4958
▁آلپ	-12.4959
▁نونو	-12.4959
▁گابریلا	-12.4961
سالگی	-12.4961
▁گنا	-12.4962
ساخته	-12.4965
▁کوروت	-12.4967
نهاده	-12.4967
▁مافیا	-12.4967
اطع	-12.4968
▁مجال	-12.4968
▁چول	-12.4969
▁همدست	-12.4971
▁پنتاگون	-12.4972
▁باربارا	-12.4972
▁روئی	-12.4975
نصر	-12.4977
▁جویا	-12.4977
▁همسو	-12.4979
▁کورن	-12.498
▁رافا	-12.498
▁دایان	-12.498
▁ابزارک	-12.4986
شرکتهای	-12.4986
پارل	-12.4989
▁خیرخواه	-12.4989
▁سنسور	-12.4992
▁دگر	-12.4993
▁کارکرد	-12.4993
نکات	-12.4994
▁ستیز	-12.4997
زخ	-12.4998
▁خاش	-12.5
▁بغل	-12.5
نقی	-12.5001
▁جزیرو	-12.5003
▁پرماجرا	-12.5004
▁برسید	-12.5005
▁۱۷۵	-12.5008
▁دبیل	-12.5011
▁مولد	-12.5011
▁بیوا	-12.5012
اقب	-12.5017
▁داس	-12.5017
▁نفیس	-12.5019
▁اکستر	-12.5021
▁منصف	-12.5021
دون	-12.5022
▁ناراحتند	-12.5023
▁زبر	-12.5025
▁چهارصد	-12.5027
▁گیگاب	-12.5028
▁نقدهای	-12.5028
پایان	-12.5029
▁کالو	-12.5031
▁خوانیم	-12.5034
▁اندیشید	-12.5035
▁آرمانگرا	-12.5038
حیط	-12.5046
کشید	-12.5051
▁۱۲۲	-12.5054
▁بولدو	-12.5054
مرک	-12.5055
▁دائما	-12.5058
▁۱۵۵	-12.5058
▁پاور	-12.5062
▁تض	-12.5063
▁بشویی	-12.5065
▁درایو	-12.5065
▁هشدارها	-12.5068
▁تحص	-12.5068
تیچ	-12.507
▁تاخت	-12.5079
▁شنیدنش	-12.508
رسد	-12.5083
▁جلا	-12.5083
▁مالدار	-12.5083
▁لوح	-12.5084
مدیران	-12.5084
ناتالی	-12.5087
قوایی	-12.5089
▁جوانتر	-12.5093
▁بقدر	-12.5093
▁دمید	-12.5093
▁دفاعیات	-12.5098
▁وایلر	-12.5099
زیاد	-12.51
چیز	-12.5101
▁رک	-12.5104
▁صل	-12.5104
▁پریا	-12.5113
▁مکید	-12.5115
سود	-12.5119
▁عرا	-12.5124
تورباز	-12.5124
▁انریک	-12.5126
▁گوتر	-12.5127
اقت	-12.5129
▁آندریاس	-12.5129
▁زدیم	-12.5129
▁میانسال	-12.513
پژوهش	-12.5138
▁دوروت	-12.5152
شهرت	-12.5156
▁چانگ	-12.5158
▁پودر	-12.5162
▁پریان	-12.5173
▁نشرات	-12.5176
جوانمرد	-12.5182
▁هوادارن	-12.5185
▁مخالفند	-12.5188
▁کلوز	-12.5193
کورا	-12.5195
▁متما	-12.5195
▁ترسند	-12.5199
▁ماجراهای	-12.5202
▁لورن	-12.5202
فوت	-12.5203
▁درشبا	-12.5203
میسی	-12.5205
▁زهی	-12.5205
▁انگشتان	-12.5207
▁روایتگر	-12.5209
▁جولیان	-12.5209
لمبار	-12.5214
عمر	-12.5218
▁فلین	-12.5226
▁عصا	-12.5232
▁ایوب	-12.5237
▁نخوان	-12.524
جنب	-12.5241
▁نشو	-12.5249
نیاز	-12.5251
جهش	-12.5254
▁هیج	-12.5255
▁مضا	-12.5264
ترونیک	-12.5275
▁لائو	-12.5276
▁اردبی	-12.5284
▁یکصدم	-12.5284
اسب	-12.5298
▁رزمند	-12.5299
▁آمریکااست	-12.5302
▁جوانا	-12.5307
▁هلن	-12.5309
لوح	-12.5313
مانند	-12.5318
▁زیرپا	-12.5326
تژیک	-12.5339
▁جهانگرد	-12.5348
▁عز	-12.5349
کوش	-12.5355
رزمی	-12.5356
▁آوار	-12.5364
واکس	-12.5367
▁ابط	-12.5368
▁نگارم	-12.5371
▁چکهای	-12.5371
▁خودستا	-12.5372
▁مجرمان	-12.538
▁چرخاند	-12.5381
▁سپین	-12.5383
تعارض	-12.539
▁صر	-12.5391
▁نکردم	-12.5396
▁مدس	-12.5398
▁سیلوا	-12.5402
▁فاخر	-12.5407
▁برگشتن	-12.5409
▁پیوستند	-12.5413
▁رفتیم	-12.5413
▁بپیچ	-12.5418
▁محرومند	-12.5423
▁رقصیدن	-12.5439
▁مسیریاب	-12.5444
▁لگو	-12.5448
نگو	-12.5463
کاتان	-12.5465
درینو	-12.5487
حافظه	-12.5488
▁خوردند	-12.5492
فورا	-12.5498
▁اض	-12.5501
▁روپر	-12.551
▁فرزان	-12.5511
▁داست	-12.5512
▁متب	-12.5522
▁دژها	-12.5533
▁ساند	-12.5538
ماینر	-12.5571
▁روست	-12.5605
▁آرین	-12.5607
▁سرکو	-12.5616
باری	-12.5625
کارزار	-12.5639
لوژی	-12.5641
ندج	-12.5645
▁یورک	-12.5654
ونتو	-12.5655
سولا	-12.5659
وبل	-12.5662
▁کریستین	-12.5678
▁السلط	-12.5685
ردین	-12.5699
▁گرج	-12.5703
▁کامب	-12.5708
اگرا	-12.5787
▁کریک	-12.5792
▁لبن	-12.5836
گرفت	-12.5842
▁چسبی	-12.5843
▁خرابکاران	-12.5847
نالد	-12.5857
انوس	-12.5868
العمل	-12.5889
▁عزیزانم	-12.5933
وساز	-12.5944
خرج	-12.6001
▁مساعدت	-12.6003
راپ	-12.6024
▁بایس	-12.6027
▁حائ	-12.6044
گرایان	-12.6049
انگلر	-12.6085
فیو	-12.6123
▁پولدار	-12.6126
فهمد	-12.6138
نورلند	-12.6145
یابان	-12.6146
▁کانا	-12.6219
ساکو	-12.6221
رویس	-12.6246
▁آزمود	-12.6248
راکتور	-12.6248
وئر	-12.6305
▁پولاد	-12.6361
▁نوآ	-12.6361
▁سوز	-12.6364
دالر	-12.6372
▁حدید	-12.6379
▁کارتن	-12.6403
▁بیشمار	-12.6418
▁پرشک	-12.6431
▁کردآ	-12.6431
قیق	-12.645
▁اوتا	-12.6486
▁کینگز	-12.6488
▁مالت	-12.6489
▁آمو	-12.649
▁نوارها	-12.6521
▁مارکان	-12.6526
کتا	-12.6568
▁مستن	-12.6646
▁سوریا	-12.6646
▁راهگشای	-12.6648
▁سمع	-12.6657
▁راکل	-12.6675
▁عطش	-12.6678
▁داکا	-12.67
▁فولا	-12.6705
▁موتورس	-12.6707
▁فراپا	-12.6709
▁الد	-12.6724
امور	-12.6729
▁مساو	-12.6736
عبدالو	-12.6776
الیات	-12.6794
۹۸	-12.6813
ئر	-12.6829
یابند	-12.685
تلاق	-12.688
شمول	-12.6959
▁العم	-12.6968
متعارف	-12.6971
▁وکار	-12.6987
▁بگذار	-12.7026
آمارها	-12.7032
سمت	-12.7078
▁کورس	-12.7098
رفتار	-12.7188
▁صب	-12.7203
▁کتا	-12.7271
اغت	-12.728
▁جنگیدن	-12.731
چون	-12.7315
▁فتو	-12.7319
وتک	-12.7348
▁یولی	-12.7359
▁افرا	-12.7408
▁بلیک	-12.7433
میچ	-12.7443
وبند	-12.7443
رپر	-12.7458
ادزه	-12.7467
لولا	-12.7492
▁فهمیدن	-12.7531
▁وینفر	-12.7611
گولد	-12.7612
۱۱۲	-12.7632
سپارد	-12.7651
▁اکسپو	-12.7656
ورسوی	-12.775
▁مارین	-12.7772
▁بلن	-12.7794
دوگا	-12.785
سپر	-12.7868
▁فرزندانم	-12.7891
▁گردهم	-12.7985
▁غیربورسی	-12.8001
▁لئو	-12.8142
درومن	-12.8192
▁فینل	-12.8331
▁نواختن	-12.8336
فیر	-12.8342
▁کوار	-12.8371
▁ناهم	-12.8378
زیتو	-12.8434
▁حواسش	-12.8447
خامت	-12.847
▁فروشگاهها	-12.8489
▁پشم	-12.8544
انتانا	-12.8608
کرون	-12.8613
خریدند	-12.8626
نکو	-12.8636
▁محر	-12.8656
تخم	-12.8701
ولز	-12.8702
یوشیت	-12.8722
▁بوئن	-12.8784
طرافشان	-12.8805
تعادل	-12.8808
ریتانی	-12.8815
▁هادس	-12.8816
▁ث	-12.8844
▁نگرفتن	-12.8855
عدد	-12.8916
صاب	-12.8925
▁شارپ	-12.8925
▁بپی	-12.8987
استفان	-12.8988
سیدن	-12.902
▁دیگ	-12.9041
شاملو	-12.9093
▁خدایا	-12.9138
۶۶	-12.9167
گفتار	-12.923
ژیک	-12.9232
لینک	-12.9298
▁عص	-12.9337
▁غفار	-12.9408
آدام	-12.9408
▁پائول	-12.9409
▁مطیع	-12.9435
▁راهکارها	-12.9441
▁معتمد	-12.9443
▁هوشیار	-12.9449
ساخت	-12.9451
▁فلسطین	-12.9452
▁الکتریک	-12.9466
