{
  "src_word2id": {
    "<pad>": 0,
    "<s>": 1,
    "</s>": 2,
    "<unk>": 3,
    "ی": 4,
    ".": 5,
    "ه": 6,
    "▁است": 7,
    "▁می": 8,
    "▁": 9,
    "▁های": 10,
    "▁ایران": 11,
    "▁شده": 12,
    "،": 13,
    "▁سال": 14,
    "▁بود": 15,
    "▁یک": 16,
    "▁ها": 17,
    "▁شد": 18,
    "▁تصویر": 19,
    "▁کرده": 20,
    "▁ای": 21,
    "ان": 22,
    "▁کرد": 23,
    "ین": 24,
    "منبع": 25,
    "▁شود": 26,
    "▁بر": 27,
    "▁گفته": 28,
    "▁دو": 29,
    "▁کند": 30,
    "ش": 31,
    "؛": 32,
    "▁خود": 33,
    "▁اند": 34,
    "ت": 35,
    "▁کرونا": 36,
    "▁در": 37,
    "▁ماه": 38,
    "▁پیش": 39,
    "▁آمریکا": 40,
    "▁کشور": 41,
    "▁گزارش": 42,
    "▁روز": 43,
    "▁کار": 44,
    "▁م": 45,
    "م": 46,
    "▁بی": 47,
    "▁فوتبال": 48,
    "▁دارد": 49,
    "▁گفت": 50,
    "▁دهد": 51,
    "▁تیم": 52,
    "▁اعلام": 53,
    "▁کنند": 54,
    "▁بازی": 55,
    "▁دیگر": 56,
    "▁به": 57,
    "▁ا": 58,
    "ن": 59,
    "▁و": 60,
    "▁قرار": 61,
    "▁هزار": 62,
    "▁شرکت": 63,
    "▁دولت": 64,
    "▁دست": 65,
    "▁داده": 66,
    "▁یا": 67,
    "▁رئیس": 68,
    "▁سه": 69,
    "▁جهان": 70,
    "▁با": 71,
    "▁بین": 72,
    "▁گذشته": 73,
    "▁خواهد": 74,
    "▁آقای": 75,
    "▁گوید": 76,
    "▁پس": 77,
    "▁هر": 78,
    "▁بار": 79,
    "ل": 80,
    "▁دربار": 81,
    "در": 82,
    "▁نفر": 83,
    "▁تهران": 84,
    "▁آنها": 85,
    "▁میلیون": 86,
    "▁دلیل": 87,
    "▁درصد": 88,
    "▁افزایش": 89,
    "▁چند": 90,
    "▁افغانستان": 91,
    "▁'": 92,
    "▁بعد": 93,
    "های": 94,
    "▁از": 95,
    "▁فیلم": 96,
    "'": 97,
    "ند": 98,
    "▁هفته": 99,
    "▁داد": 100,
    "این": 101,
    "▁حال": 102,
    "▁بوده": 103,
    "▁لیگ": 104,
    "▁نام": 105,
    "▁قیمت": 106,
    "▁بازار": 107,
    "▁جدید": 108,
    "س": 109,
    ":": 110,
    "▁دلار": 111,
    "ا": 112,
    "▁همچن": 113,
    "▁ملی": 114,
    "▁جهانی": 115,
    "▁یکی": 116,
    "▁خبر": 117,
    "▁نمی": 118,
    "▁سازمان": 119,
    "▁جمهوری": 120,
    "▁همه": 121,
    "▁ویروس": 122,
    "▁برگزار": 123,
    "▁هستند": 124,
    "د": 125,
    "▁مورد": 126,
    "▁تولید": 127,
    "▁عنوان": 128,
    "▁بزرگ": 129,
    "▁ترین": 130,
    "▁گرفته": 131,
    "▁باید": 132,
    "▁ف": 133,
    "▁نظر": 134,
    "▁بیشتر": 135,
    "ب": 136,
    "▁داشت": 137,
    "▁امروز": 138,
    "▁شدن": 139,
    "▁روی": 140,
    "▁نفت": 141,
    "▁کردند": 142,
    "▁بیش": 143,
    "▁مجلس": 144,
    "▁علی": 145,
    "ر": 146,
    "▁وزیر": 147,
    "▁شب": 148,
    "▁کاهش": 149,
    "ات": 150,
    "▁سر": 151,
    "▁نیست": 152,
    "▁خارج": 153,
    "▁وزارت": 154,
    "▁چین": 155,
    "▁اروپا": 156,
    "▁بریتانیا": 157,
    "▁مقابل": 158,
    "▁اخیر": 159,
    "▁آغاز": 160,
    "▁نیز": 161,
    "▁بودند": 162,
    "▁حدود": 163,
    "ترین": 164,
    "▁سی": 165,
    "▁تر": 166,
    "▁نشان": 167,
    "▁را": 168,
    "▁ت": 169,
    "▁داشته": 170,
    "▁راه": 171,
    "ز": 172,
    "▁بانک": 173,
    "▁زمان": 174,
    "به": 175,
    "▁باشگاه": 176,
    "▁پایان": 177,
    "▁برنامه": 178,
    "▁حضور": 179,
    "▁باشد": 180,
    "▁اقتصادی": 181,
    "▁اول": 182,
    "▁انجام": 183,
    "▁منتشر": 184,
    "▁اساس": 185,
    "▁اش": 186,
    "▁واکسن": 187,
    "▁صورت": 188,
    "▁آن": 189,
    "▁اولین": 190,
    "▁باز": 191,
    "▁شهر": 192,
    "▁گل": 193,
    "که": 194,
    "▁تحریم": 195,
    "▁ب": 196,
    "دامه": 197,
    "▁استفاده": 198,
    "▁جمله": 199,
    "▁شیوع": 200,
    "▁شوند": 201,
    "▁میان": 202,
    "▁توافق": 203,
    "▁فصل": 204,
    "له": 205,
    "▁رسید": 206,
    "▁بخش": 207,
    "او": 208,
    "▁کم": 209,
    "▁گروه": 210,
    "آقای": 211,
    "▁شورا": 212,
    "▁زندگی": 213,
    "▁ایرانی": 214,
    "▁وجود": 215,
    "▁مسابقه": 216,
    "▁دی": 217,
    "▁میلیارد": 218,
    "▁ماشین": 219,
    "و": 220,
    "▁ارز": 221,
    "▁مسابقات": 222,
    "▁دارند": 223,
    "▁چهار": 224,
    "▁حقوق": 225,
    "▁مردم": 226,
    "▁همین": 227,
    "؟": 228,
    "گی": 229,
    "▁تمام": 230,
    "▁تومان": 231,
    "▁المللی": 232,
    "▁گیری": 233,
    "▁مقام": 234,
    "▁خواست": 235,
    "▁شدند": 236,
    "▁نزدیک": 237,
    "▁گرفت": 238,
    "▁تنها": 239,
    "▁غیر": 240,
    "▁وقت": 241,
    "▁تواند": 242,
    "▁جام": 243,
    "▁زنان": 244,
    "▁آینده": 245,
    "▁خانه": 246,
    "▁افراد": 247,
    "▁پ": 248,
    "ار": 249,
    "▁قبل": 250,
    "▁حالی": 251,
    "▁بیماری": 252,
    "▁وارد": 253,
    "▁نرخ": 254,
    "بدون": 255,
    "▁زیاد": 256,
    "▁هایی": 257,
    "▁بسیاری": 258,
    "▁اسلامی": 259,
    "▁۲۰": 260,
    "▁توان": 261,
    "▁گویند": 262,
    "▁برتر": 263,
    "▁کردن": 264,
    "▁شرایط": 265,
    "▁هیچ": 266,
    "▁دوران": 267,
    "▁فعالیت": 268,
    "▁اجتماعی": 269,
    "▁امسال": 270,
    "▁رسان": 271,
    "▁منبع": 272,
    "ها": 273,
    "شان": 274,
    "عث": 275,
    "▁محمد": 276,
    "▁انتخابات": 277,
    "▁تلاش": 278,
    "▁طور": 279,
    "▁تغییر": 280,
    "نوز": 281,
    "▁تازه": 282,
    "▁نه": 283,
    "▁مختلف": 284,
    "▁وضعیت": 285,
    "▁طرح": 286,
    "▁نخست": 287,
    "▁ولی": 288,
    "نه": 289,
    "قط": 290,
    "▁جان": 291,
    "▁مهم": 292,
    "▁سوی": 293,
    "▁کشورهای": 294,
    "▁زمین": 295,
    "▁فروش": 296,
    "▁تصمیم": 297,
    "▁روحانی": 298,
    "انه": 299,
    "▁قهرمان": 300,
    "▁برای": 301,
    "▁اقتصاد": 302,
    "▁بورس": 303,
    "▁خانواده": 304,
    "▁مدت": 305,
    "▁تاریخ": 306,
    "▁ریاست": 307,
    "▁پنج": 308,
    "▁کمک": 309,
    "▁دوم": 310,
    "▁حت": 311,
    "▁ساله": 312,
    "▁برابر": 313,
    "▁حالا": 314,
    "ثبت": 315,
    "▁درگذشت": 316,
    "▁بسیار": 317,
    "▁ن": 318,
    "▁ش": 319,
    "▁خودرو": 320,
    "یک": 321,
    "▁اثر": 322,
    "▁پی": 323,
    "▁منطقه": 324,
    "▁مرکز": 325,
    "▁دهه": 326,
    "▁دوره": 327,
    "▁زن": 328,
    "▁مرکزی": 329,
    "▁ه": 330,
    "▁نقش": 331,
    "▁موسیقی": 332,
    "▁رسمی": 333,
    "▁پیدا": 334,
    "▁آخر": 335,
    "▁سرمایه": 336,
    "▁همراه": 337,
    "▁برخ": 338,
    "شروع": 339,
    "▁پر": 340,
    "یت": 341,
    "▁س": 342,
    "نامه": 343,
    "▁آمار": 344,
    "▁کر": 345,
    "▁رقابت": 346,
    "▁بعضی": 347,
    "▁کنار": 348,
    "▁پول": 349,
    "▁عکس": 350,
    "▁۱۹": 351,
    "▁که": 352,
    "▁آمریکایی": 353,
    "▁قهرمانی": 354,
    "▁اینک": 355,
    "▁رسیده": 356,
    "▁نوشته": 357,
    "▁برجام": 358,
    "▁هسته": 359,
    "▁جمهور": 360,
    "▁اصلی": 361,
    "▁سفر": 362,
    "▁مراسم": 363,
    "▁اطلاعات": 364,
    "ک": 365,
    "▁دنیا": 366,
    "▁بالا": 367,
    "▁شکست": 368,
    "▁کل": 369,
    "▁نشده": 370,
    "▁بررسی": 371,
    "▁زیر": 372,
    "▁اعتراض": 373,
    "با": 374,
    "▁ویژ": 375,
    "▁دور": 376,
    "▁پرسپولیس": 377,
    "بر": 378,
    "▁ممکن": 379,
    "▁همکاری": 380,
    "▁کمتر": 381,
    "▁توجه": 382,
    "▁استقلال": 383,
    "▁نتیج": 384,
    "گان": 385,
    "▁استان": 386,
    "▁۵": 387,
    "▁آزاد": 388,
    "▁کشتی": 389,
    "▁۱۰": 390,
    "▁اشار": 391,
    "▁شش": 392,
    "▁ساعت": 393,
    "▁دنبال": 394,
    "زاری": 395,
    "▁حمله": 396,
    "▁آب": 397,
    "▁دانشگاه": 398,
    "▁جایزه": 399,
    "▁حاضر": 400,
    "▁عراق": 401,
    "▁حمایت": 402,
    "▁میلادی": 403,
    "▁رفت": 404,
    "▁او": 405,
    "▁این": 406,
    "▁یافته": 407,
    "▁واکنش": 408,
    "▁سیاسی": 409,
    "توسط": 410,
    "ور": 411,
    "▁پرداخت": 412,
    "▁خبرگ": 413,
    "▁ترکیه": 414,
    "▁۴": 415,
    "▁دریافت": 416,
    "▁بازیکن": 417,
    "▁فدراسیون": 418,
    "ست": 419,
    "▁ده": 420,
    "▁آلمان": 421,
    "▁هم": 422,
    "▁الله": 423,
    "▁انتشار": 424,
    "▁مالی": 425,
    "▁دهند": 426,
    "▁کتاب": 427,
    "▁نیمه": 428,
    "▁۲": 429,
    "▁روند": 430,
    "▁خاطر": 431,
    "▁مدیر": 432,
    "▁سیاست": 433,
    "▁فرانسه": 434,
    "▁رشد": 435,
    "▁طی": 436,
    "▁انرژی": 437,
    "▁هدف": 438,
    "روز": 439,
    "▁مجموعه": 440,
    "▁رد": 441,
    "▁کمی": 442,
    "ِ": 443,
    "▁ندارد": 444,
    "▁عرض": 445,
    "▁ترامپ": 446,
    "▁مذاکرات": 447,
    "▁موضوع": 448,
    "▁بهداشت": 449,
    "▁شنبه": 450,
    "▁شمار": 451,
    "▁آژانس": 452,
    "▁اتحاد": 453,
    "▁گذاری": 454,
    "اکنون": 455,
    "▁کنیم": 456,
    "▁صد": 457,
    ")": 458,
    "▁سهام": 459,
    "▁۶": 460,
    "▁هشدار": 461,
    "▁رسد": 462,
    "▁سازی": 463,
    "▁ایجاد": 464,
    "▁آمده": 465,
    "▁خرید": 466,
    "▁اج": 467,
    "▁هفت": 468,
    "▁دیدار": 469,
    "▁مبارز": 470,
    "▁بازیکنان": 471,
    "▁آی": 472,
    "▁کشته": 473,
    "▁سابق": 474,
    "نی": 475,
    "▁خواهند": 476,
    "گیری": 477,
    "▁مربوط": 478,
    "▁متهم": 479,
    "▁طر": 480,
    "▁آزمایش": 481,
    "▁عربستان": 482,
    "▁چنین": 483,
    "▁یافت": 484,
    "یق": 485,
    "▁خام": 486,
    "▁رهبر": 487,
    "▁۲۰۲۰": 488,
    "▁بودجه": 489,
    "▁نامه": 490,
    "▁تایید": 491,
    "▁اقدام": 492,
    "کسب": 493,
    "▁(": 494,
    "▁تلویزیون": 495,
    "▁مرگ": 496,
    "▁زبان": 497,
    "رونده": 498,
    "▁نیاز": 499,
    "▁دادگاه": 500,
    "▁محل": 501,
    "▁اجرای": 502,
    "▁همان": 503,
    "▁پیروز": 504,
    "خانه": 505,
    "▁بازداشت": 506,
    "▁مرد": 507,
    "▁انسان": 508,
    "▁قهرمانان": 509,
    "از": 510,
    "▁بهتر": 511,
    "▁قابل": 512,
    "▁ورزش": 513,
    "▁بیمارستان": 514,
    "▁خارجی": 515,
    "▁ر": 516,
    "▁فاصله": 517,
    "▁حسن": 518,
    "▁نا": 519,
    "▁نهایی": 520,
    "▁دیده": 521,
    "▁رو": 522,
    "▁تاثیر": 523,
    "▁خیل": 524,
    "▁۳": 525,
    "▁میزان": 526,
    "▁جنوبی": 527,
    "ال": 528,
    "یم": 529,
    "ازه": 530,
    "▁زده": 531,
    "▁خط": 532,
    "▁ساخت": 533,
    "▁ام": 534,
    "▁معاون": 535,
    "▁مشخص": 536,
    "▁تبدیل": 537,
    "▁قانون": 538,
    "▁ابتلا": 539,
    "▁سوم": 540,
    "▁جریان": 541,
    "▁مدل": 542,
    "▁درآمد": 543,
    "▁حکومت": 544,
    "▁زندان": 545,
    "▁محدودیت": 546,
    "▁صنعت": 547,
    "▁جلو": 548,
    "▁بشر": 549,
    "▁انگلیس": 550,
    "▁جو": 551,
    "▁تو": 552,
    "▁نمایش": 553,
    "▁لندن": 554,
    "▁آسیا": 555,
    "▁کس": 556,
    "▁تعطیل": 557,
    "▁زمینه": 558,
    "▁طول": 559,
    "▁منابع": 560,
    "▁شناخت": 561,
    "▁عضو": 562,
    "▁دولتی": 563,
    "▁زمانی": 564,
    "▁امنیت": 565,
    "▁بازگشت": 566,
    "▁تعداد": 567,
    "▁نگاه": 568,
    "▁آثار": 569,
    "▁نامزد": 570,
    "▁سالگی": 571,
    "▁رود": 572,
    "▁حکم": 573,
    "▁ساخته": 574,
    "▁تح": 575,
    "▁رای": 576,
    "▁صادرات": 577,
    "▁سرمربی": 578,
    "▁بیانیه": 579,
    "▁چیز": 580,
    "▁کننده": 581,
    "▁سطح": 582,
    "▁طرف": 583,
    "سیون": 584,
    "▁خطر": 585,
    "▁نمایند": 586,
    "▁کابل": 587,
    "▁چرا": 588,
    "▁جنگ": 589,
    "▁پلیس": 590,
    "▁روسیه": 591,
    "▁اتمی": 592,
    "▁نمایندگان": 593,
    "▁سخنگوی": 594,
    "▁دوبار": 595,
    "▁اعضای": 596,
    "▁لیورپول": 597,
    "▁برد": 598,
    "▁همزمان": 599,
    "طرح": 600,
    "▁سو": 601,
    "▁آ": 602,
    "▁عمومی": 603,
    "▁انتخاب": 604,
    "▁نقل": 605,
    "▁بست": 606,
    "▁شکل": 607,
    "▁تع": 608,
    "▁۲۰۰": 609,
    "▁سن": 610,
    "▁انقلاب": 611,
    "▁رکورد": 612,
    "▁نیم": 613,
    "▁جلس": 614,
    "▁بالای": 615,
    "▁ترک": 616,
    "▁اسرائیل": 617,
    "▁۲۵": 618,
    "▁پخ": 619,
    "۰۰": 620,
    "▁قرنطینه": 621,
    "▁ارزش": 622,
    "▁نسبت": 623,
    "▁۳۰": 624,
    "▁المپیک": 625,
    "▁جاری": 626,
    "▁تن": 627,
    "▁سپاه": 628,
    "▁امنیتی": 629,
    "▁گاز": 630,
    "▁سخت": 631,
    "▁کامل": 632,
    "▁برق": 633,
    "▁لغو": 634,
    "▁تنیس": 635,
    "▁گرفتن": 636,
    "▁شدید": 637,
    "چه": 638,
    "▁افت": 639,
    "▁ظریف": 640,
    "▁حرکت": 641,
    "▁نشست": 642,
    "▁ج": 643,
    "▁مرح": 644,
    "▁سابقه": 645,
    "ف": 646,
    "▁ارائه": 647,
    "▁سینما": 648,
    "ون": 649,
    "▁برنده": 650,
    "▁بایدن": 651,
    "▁آیا": 652,
    "▁گسترده": 653,
    "▁متحده": 654,
    "▁هوای": 655,
    "▁پزشکی": 656,
    "▁چهر": 657,
    "▁ح": 658,
    "▁امور": 659,
    "▁توانست": 660,
    "▁روزهای": 661,
    "دی": 662,
    "▁امتیاز": 663,
    "▁فشار": 664,
    "▁نوشت": 665,
    "▁تورم": 666,
    "▁بخشی": 667,
    "▁انتقال": 668,
    "-": 669,
    "▁نگرانی": 670,
    "▁معرف": 671,
    "▁طراح": 672,
    "۸": 673,
    "▁نکرده": 674,
    "الات": 675,
    "▁هند": 676,
    "▁پاسخ": 677,
    "▁نوع": 678,
    "▁دانست": 679,
    "▁۱۲": 680,
    "▁هز": 681,
    "▁جای": 682,
    "▁کشید": 683,
    "▁جدی": 684,
    "▁متوقف": 685,
    "▁خوب": 686,
    "▁دادن": 687,
    "▁نو": 688,
    "▁کسان": 689,
    "▁عالی": 690,
    "▁اتفاق": 691,
    "مین": 692,
    "▁قو": 693,
    "▁چشم": 694,
    "▁۱۵": 695,
    "▁نظامی": 696,
    "▁بحران": 697,
    "▁ورود": 698,
    "▁جامعه": 699,
    "▁داخل": 700,
    "▁داستان": 701,
    "▁فرهنگی": 702,
    "▁آزادی": 703,
    "اما": 704,
    "▁خانم": 705,
    "▁دار": 706,
    "▁مصاحبه": 707,
    "▁مشکلات": 708,
    "▁قطع": 709,
    "▁رفته": 710,
    "▁گو": 711,
    "▁دستگاه": 712,
    "نگ": 713,
    "▁بلند": 714,
    "▁بشک": 715,
    "▁جا": 716,
    "▁گذاشته": 717,
    "▁خودش": 718,
    "▁چهارم": 719,
    "▁باشند": 720,
    "▁انتظار": 721,
    "▁فن": 722,
    "▁کلی": 723,
    "▁ارتباط": 724,
    "▁ورزشی": 725,
    "▁چ": 726,
    "▁شدت": 727,
    "▁دیگری": 728,
    "▁اسفند": 729,
    "▁کودکان": 730,
    "▁نهاد": 731,
    "▁داشتند": 732,
    "▁محکوم": 733,
    "▁فینال": 734,
    "▁سیستم": 735,
    "▁هنگام": 736,
    "▁عد": 737,
    "▁فرهنگ": 738,
    "۴": 739,
    "▁رقم": 740,
    "▁الکتریکی": 741,
    "▁۱۴۰۰": 742,
    "▁مارادونا": 743,
    "▁موسس": 744,
    "▁آبان": 745,
    "▁وی": 746,
    "▁نبود": 747,
    "▁مسئولان": 748,
    "▁فروردین": 749,
    "▁۲۰۱۹": 750,
    "▁چگون": 751,
    "▁ورزشگاه": 752,
    "▁آنچ": 753,
    "▁صندوق": 754,
    "▁قدرت": 755,
    "▁فعال": 756,
    "▁۷": 757,
    "▁پیشین": 758,
    "▁موج": 759,
    "▁مانده": 760,
    "▁تحقیقات": 761,
    "ستاد": 762,
    "▁انتقاد": 763,
    "▁تاریخی": 764,
    "▁ایتالیا": 765,
    "▁کووید": 766,
    "▁قرارداد": 767,
    "▁مصوب": 768,
    "▁بارسلونا": 769,
    "۵": 770,
    "▁تحقیق": 771,
    "▁فارسی": 772,
    "▁داخلی": 773,
    "▁جنوب": 774,
    "▁تصوی": 775,
    "▁اتهام": 776,
    "▁اروپایی": 777,
    "▁ال": 778,
    "▁۱": 779,
    "▁شامل": 780,
    "گاه": 781,
    "▁یع": 782,
    "▁جمعیت": 783,
    "▁آمد": 784,
    "▁بودن": 785,
    "▁دوشنبه": 786,
    "▁بتوان": 787,
    "▁اسکار": 788,
    "▁سیاه": 789,
    "▁مربی": 790,
    "▁مرغ": 791,
    "▁فکر": 792,
    "▁۹": 793,
    "▁یاد": 794,
    "▁نیروهای": 795,
    "ج": 796,
    "▁طولانی": 797,
    "▁دونالد": 798,
    "▁۱۳": 799,
    "▁ستار": 800,
    "▁روزنامه": 801,
    "▁مبتلا": 802,
    "▁قرن": 803,
    "▁معاملات": 804,
    "▁گیرد": 805,
    "▁نفتی": 806,
    "▁تک": 807,
    "▁شهرهای": 808,
    "▁کنید": 809,
    "▁اف": 810,
    "▁محیط": 811,
    "▁ناشی": 812,
    "▁خروج": 813,
    "▁دادند": 814,
    "▁سایر": 815,
    "▁دقیقه": 816,
    "ده": 817,
    "▁ماسک": 818,
    "وز": 819,
    "▁تشکیل": 820,
    "▁جشنواره": 821,
    "▁پشت": 822,
    "▁۲۲": 823,
    "▁قبلی": 824,
    "ینه": 825,
    "▁بینی": 826,
    "▁شکایت": 827,
    "▁هنر": 828,
    "▁دستور": 829,
    "▁امکان": 830,
    "▁مشکل": 831,
    "▁غنی": 832,
    "▁اجرا": 833,
    "▁پای": 834,
    "▁درمان": 835,
    "▁ممنوع": 836,
    "۲": 837,
    "▁شان": 838,
    "▁کارگران": 839,
    "▁شجریان": 840,
    "▁احتمال": 841,
    "▁پروژه": 842,
    "▁طبق": 843,
    "ایی": 844,
    "▁حساب": 845,
    "▁دسترس": 846,
    "▁هنری": 847,
    "سی": 848,
    "▁تامین": 849,
    "▁تجاری": 850,
    "▁ملل": 851,
    "ویه": 852,
    "▁محدود": 853,
    "▁سریال": 854,
    "▁واحد": 855,
    "▁تاکید": 856,
    "▁نویسنده": 857,
    "▁قوانین": 858,
    "▁کنم": 859,
    "▁فضای": 860,
    "▁نیروی": 861,
    "▁آسیب": 862,
    "▁بالاتر": 863,
    "▁محلی": 864,
    "▁علت": 865,
    "▁شاخص": 866,
    "▁واردات": 867,
    "▁متفاوت": 868,
    "▁باقی": 869,
    "▁ضرب": 870,
    "▁۸": 871,
    "▁ان": 872,
    "لق": 873,
    "▁کنترل": 874,
    "▁درخواست": 875,
    "▁عامل": 876,
    "▁آورد": 877,
    "▁کارگردان": 878,
    "▁ابتدای": 879,
    "▁رنگ": 880,
    "▁نخواه": 881,
    "▁۱۱": 882,
    "▁مشترک": 883,
    "▁سنت": 884,
    "▁سیتی": 885,
    "▁۶۰": 886,
    "▁مسی": 887,
    "لی": 888,
    "▁ترتیب": 889,
    "▁آتش": 890,
    "▁تجرب": 891,
    "▁سوخت": 892,
    "▁رشت": 893,
    "▁شماری": 894,
    "▁چپ": 895,
    "▁قرمز": 896,
    "▁اولیه": 897,
    "▁کوچک": 898,
    "▁مسیر": 899,
    "▁فعالان": 900,
    "▁نگهبان": 901,
    "▁فهرست": 902,
    "▁ونزوئلا": 903,
    "▁صحبت": 904,
    "▁علاو": 905,
    "▁نقاشی": 906,
    "ری": 907,
    "▁بندی": 908,
    "▁تهدید": 909,
    "▁بد": 910,
    "▁گذشت": 911,
    "▁اختیار": 912,
    "▁آوریل": 913,
    "▁عباس": 914,
    "▁پایین": 915,
    "▁زد": 916,
    "▁شما": 917,
    "▁وین": 918,
    "سازی": 919,
    "▁چهارشنبه": 920,
    "▁یکشنبه": 921,
    "▁کوتاه": 922,
    "▁۴۰": 923,
    "▁حذف": 924,
    "▁روبرو": 925,
    "▁همیشه": 926,
    "▁خون": 927,
    "▁بنزین": 928,
    "ع": 929,
    "▁متر": 930,
    "پس": 931,
    "▁موارد": 932,
    "▁احمد": 933,
    "▁اعدام": 934,
    "▁مواد": 935,
    "▁جمعه": 936,
    "طور": 937,
    "▁هرات": 938,
    "▁نژاد": 939,
    "▁زاده": 940,
    "▁مسئول": 941,
    "▁بیرون": 942,
    "۷": 943,
    "▁ترکیب": 944,
    "▁صفح": 945,
    "▁محمود": 946,
    "▁عمل": 947,
    "▁۵۰": 948,
    "▁روابط": 949,
    "ید": 950,
    "▁صادر": 951,
    "▁سراسر": 952,
    "بی": 953,
    "▁بگیرد": 954,
    "▁توپ": 955,
    "▁اتاق": 956,
    "▁رییس": 957,
    "▁چاپ": 958,
    "▁۱۴": 959,
    "▁شهروندان": 960,
    "▁شناسا": 961,
    "▁فرد": 962,
    "▁میزبان": 963,
    "▁حل": 964,
    "حفظ": 965,
    "▁آرژانتین": 966,
    "▁سمت": 967,
    "▁خصوصی": 968,
    "▁جز": 969,
    "گر": 970,
    "▁احتمالا": 971,
    "▁حرفه": 972,
    "براز": 973,
    "▁خوزستان": 974,
    "▁مرتبط": 975,
    "▁نقطه": 976,
    "▁آستان": 977,
    "▁هوا": 978,
    "▁جمع": 979,
    "▁قطر": 980,
    "▁خوانده": 981,
    "▁امضا": 982,
    "▁احیا": 983,
    "▁کیلومتر": 984,
    "▁سرعت": 985,
    "▁بدن": 986,
    "وق": 987,
    "▁اختلاف": 988,
    "▁گون": 989,
    "▁هشت": 990,
    "▁ولایت": 991,
    "▁انفجار": 992,
    "▁سلامت": 993,
    "▁دفاع": 994,
    "▁بارها": 995,
    "▁نظام": 996,
    "▁غرب": 997,
    "▁ژان": 998,
    "▁هایش": 999,
    "▁قصد": 1000,
    "▁اندازه": 1001,
    "اساس": 1002,
    "▁د": 1003,
    "▁اخیرا": 1004,
    "▁کالا": 1005,
    "▁مصرف": 1006,
    "▁مارس": 1007,
    "▁برده": 1008,
    "▁بیست": 1009,
    "▁بازیگر": 1010,
    "▁موفق": 1011,
    "▁شاهد": 1012,
    "▁سقوط": 1013,
    "▁سرطان": 1014,
    "▁۱۶": 1015,
    "▁شاید": 1016,
    "▁تاکنون": 1017,
    "ق": 1018,
    "▁نتایج": 1019,
    "وی": 1020,
    "▁جهش": 1021,
    "▁کاملا": 1022,
    "رفع": 1023,
    "▁افتاد": 1024,
    "▁لازم": 1025,
    "▁معروف": 1026,
    "۳": 1027,
    "▁توییتر": 1028,
    "ره": 1029,
    "▁روشن": 1030,
    "▁هواپیمایی": 1031,
    "▁۱۷": 1032,
    "▁فرصت": 1033,
    "▁هواداران": 1034,
    "▁کنندگان": 1035,
    "▁پیشنهاد": 1036,
    "▁ندارند": 1037,
    "▁مناطق": 1038,
    "▁اعمال": 1039,
    "▁تقریبا": 1040,
    "▁تجارت": 1041,
    "▁پارسال": 1042,
    "▁اطلاع": 1043,
    "▁دارایی": 1044,
    "▁واقع": 1045,
    "▁گفتگو": 1046,
    "▁نهادهای": 1047,
    "▁شمال": 1048,
    "▁مشهور": 1049,
    "▁مرز": 1050,
    "▁ماند": 1051,
    "▁دهم": 1052,
    "▁آماده": 1053,
    "▁اداره": 1054,
    "▁قانونی": 1055,
    "▁تهی": 1056,
    "▁رسیدن": 1057,
    "▁استرالیا": 1058,
    "▁ایمن": 1059,
    "▁تجمع": 1060,
    "▁افغان": 1061,
    "▁نظیر": 1062,
    "▁بریتانیایی": 1063,
    "اخر": 1064,
    "▁پاریس": 1065,
    "▁کارگر": 1066,
    "▁رعایت": 1067,
    "▁باخت": 1068,
    "▁یورو": 1069,
    "▁رفتن": 1070,
    "▁طلا": 1071,
    "▁مذاکر": 1072,
    "▁حادثه": 1073,
    "▁۹۸": 1074,
    "▁دلایل": 1075,
    "▁عملیات": 1076,
    "▁اقدامات": 1077,
    "▁صفر": 1078,
    "▁اعتراضات": 1079,
    "▁تابستان": 1080,
    "▁سنگ": 1081,
    "▁مهر": 1082,
    "▁رساند": 1083,
    "▁۱۸": 1084,
    "▁توسعه": 1085,
    "▁۲۰۲۱": 1086,
    "▁عملکرد": 1087,
    "▁اوپک": 1088,
    "▁تصاویر": 1089,
    "▁مردان": 1090,
    "▁حد": 1091,
    "▁خودروساز": 1092,
    "اس": 1093,
    "تر": 1094,
    "▁پژوهش": 1095,
    "▁منتق": 1096,
    "▁پرواز": 1097,
    "▁انگیز": 1098,
    "▁مقایس": 1099,
    "▁قلب": 1100,
    "▁بحرین": 1101,
    "▁کمیت": 1102,
    "▁سود": 1103,
    "▁زنده": 1104,
    "▁فضایی": 1105,
    "▁مل": 1106,
    "▁رانند": 1107,
    "▁تاجیکستان": 1108,
    "▁دومین": 1109,
    "▁کشف": 1110,
    "▁مالیات": 1111,
    "▁یونایتد": 1112,
    "▁من": 1113,
    "علی": 1114,
    "▁مواجه": 1115,
    "▁پایتخت": 1116,
    "▁کن": 1117,
    "▁خواننده": 1118,
    "▁تاج": 1119,
    "حه": 1120,
    "▁پل": 1121,
    "▁محمو": 1122,
    "▁حق": 1123,
    "▁برخورد": 1124,
    "▁بخوانید": 1125,
    "▁سفید": 1126,
    "▁توصیف": 1127,
    "▁فوت": 1128,
    "▁نشد": 1129,
    "▁اس": 1130,
    "۶": 1131,
    "▁مت": 1132,
    "▁پور": 1133,
    "▁واکسین": 1134,
    "▁کاخ": 1135,
    "نجر": 1136,
    "▁سنگین": 1137,
    "▁مجموع": 1138,
    "▁۵۰۰": 1139,
    "▁مد": 1140,
    "▁بیکار": 1141,
    "▁گروهی": 1142,
    "▁موفقیت": 1143,
    "▁خواهان": 1144,
    "▁مانع": 1145,
    "▁سریع": 1146,
    "▁جنسی": 1147,
    "▁تا": 1148,
    "▁مشغول": 1149,
    "▁مجدد": 1150,
    "▁مشابه": 1151,
    "▁صدا": 1152,
    "▁سایت": 1153,
    "▁گاه": 1154,
    "▁خصوص": 1155,
    "▁۲۰۱": 1156,
    "▁لای": 1157,
    "▁زیست": 1158,
    "▁کنون": 1159,
    "▁خاک": 1160,
    "▁بهبود": 1161,
    "▁کانال": 1162,
    "▁کدام": 1163,
    "▁روش": 1164,
    "▁سوار": 1165,
    "▁اسپانیا": 1166,
    "نمایی": 1167,
    "▁نظارت": 1168,
    "▁مجبور": 1169,
    "▁مجوز": 1170,
    "▁گردد": 1171,
    "▁حوز": 1172,
    "▁گمرک": 1173,
    "▁موافقت": 1174,
    "مان": 1175,
    "▁برسد": 1176,
    "▁تغییرات": 1177,
    "▁شاه": 1178,
    "ایران": 1179,
    "▁کشورها": 1180,
    "ح": 1181,
    "▁موزه": 1182,
    "▁پیام": 1183,
    "▁رکود": 1184,
    "▁صدای": 1185,
    "▁نسل": 1186,
    "▁رمان": 1187,
    "▁عمده": 1188,
    "▁آید": 1189,
    "ام": 1190,
    "▁خالی": 1191,
    "▁محروم": 1192,
    "عده": 1193,
    "▁نگران": 1194,
    "▁مه": 1195,
    "▁عبور": 1196,
    "▁فدرر": 1197,
    "▁گذاشت": 1198,
    "▁خواند": 1199,
    "ممنوعیت": 1200,
    "▁گذار": 1201,
    "▁مستند": 1202,
    "▁سفیر": 1203,
    "▁نفتکش": 1204,
    "▁بحث": 1205,
    "▁رفتار": 1206,
    "▁چلسی": 1207,
    "▁۱۰۰": 1208,
    "▁ابتدا": 1209,
    "▁درواز": 1210,
    "▁پدر": 1211,
    "کس": 1212,
    "▁خبرنگار": 1213,
    "محمد": 1214,
    "▁اضاف": 1215,
    "▁ظرف": 1216,
    "▁دچار": 1217,
    "▁طبیعی": 1218,
    "▁جدول": 1219,
    "▁فساد": 1220,
    "▁افتاده": 1221,
    "▁تماشاگر": 1222,
    "▁تی": 1223,
    "▁مادر": 1224,
    "▁واقعی": 1225,
    "▁علمی": 1226,
    "▁بیشتری": 1227,
    "▁برداشت": 1228,
    "وایل": 1229,
    "▁پنجم": 1230,
    "▁مجازی": 1231,
    "▁حداقل": 1232,
    "▁ژوئن": 1233,
    "▁یابد": 1234,
    "▁بال": 1235,
    "▁تاتنهام": 1236,
    "▁بهمن": 1237,
    "▁دریا": 1238,
    "عودی": 1239,
    "▁ک": 1240,
    "▁پیشتر": 1241,
    "▁خودروهای": 1242,
    "▁ایالت": 1243,
    "▁میدان": 1244,
    "▁بستر": 1245,
    "▁زخم": 1246,
    "▁بن": 1247,
    "▁اینترنت": 1248,
    "▁منچستر": 1249,
    "▁ارشد": 1250,
    "می": 1251,
    "▁احمدی": 1252,
    "▁بازارهای": 1253,
    "▁عهد": 1254,
    "▁مک": 1255,
    "▁درست": 1256,
    "▁۲۳": 1257,
    "▁جشن": 1258,
    "▁دارو": 1259,
    "▁دنیای": 1260,
    "▁دفتر": 1261,
    "▁بهار": 1262,
    "▁کاری": 1263,
    "▁مغز": 1264,
    "▁جنگل": 1265,
    "دو": 1266,
    "▁حریف": 1267,
    "▁وضع": 1268,
    "▁حسین": 1269,
    "▁۲۴": 1270,
    "▁جدا": 1271,
    "▁شعر": 1272,
    "▁مادرید": 1273,
    "▁مجله": 1274,
    "▁لو": 1275,
    "▁فارس": 1276,
    "▁۹۰": 1277,
    "▁رخ": 1278,
    "▁کودک": 1279,
    "▁پروازهای": 1280,
    "۱": 1281,
    "▁۱۳۹۹": 1282,
    "▁-": 1283,
    "▁قدیمی": 1284,
    "ستان": 1285,
    "▁ژاپن": 1286,
    "▁کارشناسان": 1287,
    "▁یو": 1288,
    "▁امیدوار": 1289,
    "▁سینمایی": 1290,
    "وم": 1291,
    "▁اورا": 1292,
    "▁نشری": 1293,
    "▁بنز": 1294,
    "▁فنی": 1295,
    "▁توضیح": 1296,
    "▁صبح": 1297,
    "▁هدایت": 1298,
    "▁پوند": 1299,
    "▁دوست": 1300,
    "▁تخم": 1301,
    "▁حرف": 1302,
    "▁سوئیس": 1303,
    "▁پا": 1304,
    "▁سعید": 1305,
    "▁گوش": 1306,
    "▁گر": 1307,
    "▁دختر": 1308,
    "▁خورد": 1309,
    "▁حزب": 1310,
    "▁معتقد": 1311,
    "▁رابطه": 1312,
    "▁عدالت": 1313,
    "▁امیر": 1314,
    "▁پاسداران": 1315,
    "▁مهد": 1316,
    "▁زدن": 1317,
    "▁امید": 1318,
    "▁سکه": 1319,
    "▁موجود": 1320,
    "تبه": 1321,
    "▁تورنمنت": 1322,
    "▁نقاط": 1323,
    "▁کارکنان": 1324,
    "▁قاچاق": 1325,
    "▁اوراق": 1326,
    "▁موجب": 1327,
    "▁مخالفت": 1328,
    "اسیون": 1329,
    "▁ناز": 1330,
    "▁۲۸": 1331,
    "نیوم": 1332,
    "▁اوت": 1333,
    "ای": 1334,
    "بیشتر": 1335,
    "▁روزانه": 1336,
    "▁انگلستان": 1337,
    "▁اردیبهشت": 1338,
    "▁سرشناس": 1339,
    "۰": 1340,
    "▁مقررات": 1341,
    "▁ملت": 1342,
    "▁ضد": 1343,
    "▁بیمار": 1344,
    "▁راست": 1345,
    "▁سوریه": 1346,
    "▁دید": 1347,
    "▁شرق": 1348,
    "▁صدر": 1349,
    "▁بیت": 1350,
    "ریمه": 1351,
    "▁منف": 1352,
    "▁تقوی": 1353,
    "▁دکتر": 1354,
    "▁دین": 1355,
    "▁ارتش": 1356,
    "▁اظهارات": 1357,
    "▁مکان": 1358,
    "▁نویس": 1359,
    "▁استاد": 1360,
    "▁بنا": 1361,
    "▁ریز": 1362,
    "▁ماهه": 1363,
    "▁دقیق": 1364,
    "▁سند": 1365,
    "▁فرستاد": 1366,
    "▁فراهم": 1367,
    "▁آلبوم": 1368,
    "▁قتل": 1369,
    "▁جنجال": 1370,
    "▁همسر": 1371,
    "▁کارهای": 1372,
    "▁ترانه": 1373,
    "▁چه": 1374,
    "▁چندان": 1375,
    "▁جایی": 1376,
    "▁آموزش": 1377,
    "▁آوری": 1378,
    "▁زود": 1379,
    "▁قضایی": 1380,
    "▁احساس": 1381,
    "▁ظاهر": 1382,
    "▁قضائیه": 1383,
    "▁تشخیص": 1384,
    "▁بایرن": 1385,
    "▁دانند": 1386,
    "▁پوست": 1387,
    "▁ساختمان": 1388,
    "▁هستیم": 1389,
    "▁امام": 1390,
    "فورد": 1391,
    "۹": 1392,
    "وس": 1393,
    "▁گستر": 1394,
    "▁دانشمندان": 1395,
    "پ": 1396,
    "▁هنرمند": 1397,
    "▁وابست": 1398,
    "▁جزئیات": 1399,
    "▁معادل": 1400,
    "▁دل": 1401,
    "▁نور": 1402,
    "▁۲۱": 1403,
    "▁علیرضا": 1404,
    "▁آورده": 1405,
    "▁قبلا": 1406,
    "▁فرمو": 1407,
    "▁آل": 1408,
    "▁زنی": 1409,
    "▁مثبت": 1410,
    "وید": 1411,
    "▁ارزی": 1412,
    "یابی": 1413,
    "ازگی": 1414,
    "▁نداشته": 1415,
    "▁حب": 1416,
    "▁روایت": 1417,
    "▁فیفا": 1418,
    "▁رونالدو": 1419,
    "▁سخنران": 1420,
    "چند": 1421,
    "▁وزن": 1422,
    "یست": 1423,
    "▁متع": 1424,
    "▁غربی": 1425,
    "▁اقیانوس": 1426,
    "▁مستقیم": 1427,
    "▁زاغری": 1428,
    "▁استقبال": 1429,
    "▁هوشمند": 1430,
    "▁علاقه": 1431,
    "▁تزریق": 1432,
    "▁عجیب": 1433,
    "▁جوان": 1434,
    "▁دوربین": 1435,
    "▁کمبود": 1436,
    "▁رویترز": 1437,
    "▁تیراندازی": 1438,
    "▁کالاهای": 1439,
    "▁زندانی": 1440,
    "▁تعدادی": 1441,
    "▁دریایی": 1442,
    "▁چک": 1443,
    "▁سینمای": 1444,
    "▁مالک": 1445,
    "یا": 1446,
    "قیف": 1447,
    "▁مسکن": 1448,
    "▁مسدود": 1449,
    "▁خانگی": 1450,
    "▁تماس": 1451,
    "▁دبیر": 1452,
    "▁خدمات": 1453,
    "▁مرداد": 1454,
    "▁سفارت": 1455,
    "▁نمو": 1456,
    "▁مدیریت": 1457,
    "▁قطعی": 1458,
    "▁شخصیت": 1459,
    "▁افزوده": 1460,
    "▁مقامات": 1461,
    "▁بنابر": 1462,
    "▁خورشیدی": 1463,
    "▁انگلیسی": 1464,
    "▁دریای": 1465,
    "دار": 1466,
    "▁ما": 1467,
    "کنندگان": 1468,
    "▁شخصی": 1469,
    "▁نهایت": 1470,
    "▁قدم": 1471,
    "▁فوری": 1472,
    "▁پیشرفت": 1473,
    "▁ژوئیه": 1474,
    "▁قسمت": 1475,
    "▁اخراج": 1476,
    "▁خواهیم": 1477,
    "▁محمدرضا": 1478,
    "▁اجرایی": 1479,
    "▁ساز": 1480,
    "▁صحنه": 1481,
    "▁متوسط": 1482,
    "▁گ": 1483,
    "▁پذیر": 1484,
    "▁آلمانی": 1485,
    "▁محصولات": 1486,
    "▁گرفتند": 1487,
    "▁بهداشتی": 1488,
    "▁اوج": 1489,
    "▁داریم": 1490,
    "▁فعلی": 1491,
    "▁بیماران": 1492,
    "اوری": 1493,
    "▁بازرگانی": 1494,
    "▁رضا": 1495,
    "▁هیا": 1496,
    "▁غذا": 1497,
    "▁توصی": 1498,
    "▁فوریه": 1499,
    "▁دوچرخه": 1500,
    "▁مدعی": 1501,
    "▁مدافع": 1502,
    "▁طالبان": 1503,
    "▁موقت": 1504,
    "توجه": 1505,
    "▁معترضان": 1506,
    "▁آبی": 1507,
    "▁پرو": 1508,
    "▁مهار": 1509,
    "▁هاست": 1510,
    "▁سرخ": 1511,
    "▁گرم": 1512,
    "▁معنای": 1513,
    "▁پیوست": 1514,
    "▁ع": 1515,
    "▁العاده": 1516,
    "▁خرداد": 1517,
    "▁معتبر": 1518,
    "▁لحظ": 1519,
    "▁صعود": 1520,
    "▁موقعیت": 1521,
    "▁رئال": 1522,
    "▁جوایز": 1523,
    "▁مجید": 1524,
    "▁فرمانده": 1525,
    "▁دانش": 1526,
    "نقض": 1527,
    "▁کوین": 1528,
    "▁معمولا": 1529,
    "▁حداکثر": 1530,
    "▁کاربران": 1531,
    "فدراسیون": 1532,
    "غلب": 1533,
    "▁ناظر": 1534,
    "لو": 1535,
    "▁ذخ": 1536,
    "▁نداشت": 1537,
    "اب": 1538,
    "▁گران": 1539,
    "▁ارسال": 1540,
    "▁نشود": 1541,
    "▁مبلغ": 1542,
    "▁نوامبر": 1543,
    "▁۲۰۱۷": 1544,
    "▁مبتلایان": 1545,
    "▁تقاضا": 1546,
    "▁سیستان": 1547,
    "▁۳۵": 1548,
    "▁صوتی": 1549,
    "کش": 1550,
    "حسین": 1551,
    "▁اساسی": 1552,
    "▁۷۰": 1553,
    "▁دستگیر": 1554,
    "▁نقدینگی": 1555,
    "▁مطالع": 1556,
    "▁بلوچستان": 1557,
    "▁پاکستان": 1558,
    "▁مراجع": 1559,
    "▁پنجشنبه": 1560,
    "▁سوال": 1561,
    "▁تخریب": 1562,
    "▁اسطوره": 1563,
    "مقام": 1564,
    "▁غذای": 1565,
    "▁مدیران": 1566,
    "▁هموار": 1567,
    "▁۳۰۰": 1568,
    "▁۹۹": 1569,
    "▁۳۱": 1570,
    "▁فرزند": 1571,
    "▁۲۶": 1572,
    "▁درآمدهای": 1573,
    "▁شهروند": 1574,
    "▁جمعی": 1575,
    "▁دما": 1576,
    "▁اصلاح": 1577,
    "▁صنایع": 1578,
    "▁مسلح": 1579,
    "▁خلق": 1580,
    "▁فایل": 1581,
    "▁نیویورک": 1582,
    "▁مجری": 1583,
    "▁ماموران": 1584,
    "▁کنونی": 1585,
    "▁فردا": 1586,
    "قانونی": 1587,
    "▁تیر": 1588,
    "▁کشاورز": 1589,
    "▁صاحب": 1590,
    "داری": 1591,
    "▁خورده": 1592,
    "▁عق": 1593,
    "▁نگهداری": 1594,
    "▁لباس": 1595,
    "▁مخالفان": 1596,
    "▁دختران": 1597,
    "▁زندانیان": 1598,
    "▁برج": 1599,
    "شب": 1600,
    "▁حمل": 1601,
    "▁سعی": 1602,
    "▁مر": 1603,
    "▁عرب": 1604,
    "▁تحویل": 1605,
    "▁سراوان": 1606,
    "▁معرض": 1607,
    "▁آسمان": 1608,
    "▁حاشیه": 1609,
    "▁چالش": 1610,
    "▁مایک": 1611,
    "▁یکدیگر": 1612,
    "▁هست": 1613,
    "▁تصور": 1614,
    "▁ساکن": 1615,
    "نین": 1616,
    "▁مسافران": 1617,
    "▁درگیری": 1618,
    "▁خبرنگاران": 1619,
    "▁خوش": 1620,
    "گ": 1621,
    "نس": 1622,
    "▁معامل": 1623,
    "▁صلح": 1624,
    "▁نتوانست": 1625,
    "▁چیست": 1626,
    "▁واشنگتن": 1627,
    "▁آهنگ": 1628,
    "سال": 1629,
    "▁ادبیات": 1630,
    "▁نویسندگان": 1631,
    "▁گیرند": 1632,
    "▁کردم": 1633,
    "▁رافائل": 1634,
    "سازمان": 1635,
    "▁برود": 1636,
    "نا": 1637,
    "▁برزیل": 1638,
    "▁تومانی": 1639,
    "ایر": 1640,
    "رنگ": 1641,
    "▁نشر": 1642,
    "▁نوری": 1643,
    "▁مارک": 1644,
    "▁شاعر": 1645,
    "▁کشورش": 1646,
    "▁جدیدی": 1647,
    "▁مرزی": 1648,
    "▁۸۰": 1649,
    "▁احتمالی": 1650,
    "▁آرام": 1651,
    "▁پارک": 1652,
    "▁عین": 1653,
    "▁سپاهان": 1654,
    "▁پست": 1655,
    "▁توکیو": 1656,
    "▁برگشت": 1657,
    "▁دشوار": 1658,
    "وزارت": 1659,
    "▁داور": 1660,
    "▁درگیر": 1661,
    "▁چرخ": 1662,
    "▁جراح": 1663,
    "▁تمرین": 1664,
    "▁محبوب": 1665,
    "▁اهمیت": 1666,
    "▁اختصاص": 1667,
    "▁تاخیر": 1668,
    "▁بهادار": 1669,
    "▁اخبار": 1670,
    "▁متعدد": 1671,
    "▁صرف": 1672,
    "▁مدیرعامل": 1673,
    "▁پژوهشگران": 1674,
    "▁ارزها": 1675,
    "▁جودو": 1676,
    "گرد": 1677,
    "▁صف": 1678,
    "▁سیما": 1679,
    "▁راهی": 1680,
    "ط": 1681,
    "تا": 1682,
    "▁بعدا": 1683,
    "▁رادیو": 1684,
    "اسی": 1685,
    "▁تقاضای": 1686,
    "▁عوامل": 1687,
    "▁نحو": 1688,
    "▁حاصل": 1689,
    "▁۱۳۹۸": 1690,
    "▁آمازون": 1691,
    "▁تمدید": 1692,
    "▁آنلاین": 1693,
    "▁کنسرت": 1694,
    "▁فرانسوی": 1695,
    "▁جوکوویچ": 1696,
    "▁کی": 1697,
    "▁خدم": 1698,
    "کار": 1699,
    "رضا": 1700,
    "▁چهل": 1701,
    "جا": 1702,
    "▁دیوان": 1703,
    "▁خیابان": 1704,
    "وال": 1705,
    "▁مشا": 1706,
    "▁اسرائیلی": 1707,
    "▁دام": 1708,
    "▁ادبی": 1709,
    "▁ض": 1710,
    "ول": 1711,
    "▁۴۲": 1712,
    "▁بازگشا": 1713,
    "▁ماد": 1714,
    "▁هنرپیشه": 1715,
    "▁مراقب": 1716,
    "▁توقف": 1717,
    "▁اکتبر": 1718,
    "▁پالایشگاه": 1719,
    "▁تلفن": 1720,
    "▁عادی": 1721,
    "▁روزها": 1722,
    "دولت": 1723,
    "▁دیدن": 1724,
    "▁برمی": 1725,
    "▁پرس": 1726,
    "▁مناسب": 1727,
    "من": 1728,
    "▁فر": 1729,
    "▁توییت": 1730,
    "▁اصفهان": 1731,
    "▁تعویق": 1732,
    "▁تسلا": 1733,
    "▁ارقام": 1734,
    "▁نوبل": 1735,
    "▁لوکس": 1736,
    "▁آلودگی": 1737,
    "▁نادال": 1738,
    "▁سبک": 1739,
    "▁کارها": 1740,
    "▁هواپیما": 1741,
    "▁جواد": 1742,
    "▁هماهنگ": 1743,
    "▁نارنجی": 1744,
    "اک": 1745,
    "▁تعهدات": 1746,
    "▁حذفی": 1747,
    "تان": 1748,
    "▁حیات": 1749,
    "▁مالکی": 1750,
    "▁بان": 1751,
    "▁مهاجم": 1752,
    "ما": 1753,
    "کته": 1754,
    "▁اشتباه": 1755,
    "▁پدید": 1756,
    "▁تئاتر": 1757,
    "▁کاپیتان": 1758,
    "▁قار": 1759,
    "▁ایم": 1760,
    "▁جایگاه": 1761,
    "▁انجمن": 1762,
    "▁آزار": 1763,
    "▁راجر": 1764,
    "▁مدرسه": 1765,
    "▁کارمندان": 1766,
    "▁اوپ": 1767,
    "▁همچو": 1768,
    "▁دستمزد": 1769,
    "▁موتور": 1770,
    "▁نوروز": 1771,
    "▁مراک": 1772,
    "▁جذب": 1773,
    "▁حفاظت": 1774,
    "▁نفس": 1775,
    "▁ثابت": 1776,
    "▁مونیخ": 1777,
    "▁ثانی": 1778,
    "▁مریخ": 1779,
    "▁بازگرداند": 1780,
    "▁وکیل": 1781,
    "▁ضمن": 1782,
    "▁گرند": 1783,
    "▁زا": 1784,
    "▁هنرمندان": 1785,
    "▁واقعیت": 1786,
    "یر": 1787,
    "▁شبانه": 1788,
    "▁کافی": 1789,
    "▁اع": 1790,
    "▁فرود": 1791,
    "لیک": 1792,
    "گری": 1793,
    "رسدس": 1794,
    "▁فردی": 1795,
    "▁عبدال": 1796,
    "▁قالیباف": 1797,
    "▁بقیه": 1798,
    "▁حاکی": 1799,
    "▁عصر": 1800,
    "▁واگذار": 1801,
    "▁خشک": 1802,
    "▁هواپیمای": 1803,
    "▁فرهاد": 1804,
    "▁گذارد": 1805,
    "قدر": 1806,
    "▁آمیز": 1807,
    "▁پزشک": 1808,
    "▁پن": 1809,
    "خانم": 1810,
    "رکت": 1811,
    "▁داشتن": 1812,
    "▁وگو": 1813,
    "▁ابلاغ": 1814,
    "▁مربیان": 1815,
    "خبرگزا": 1816,
    "▁حسینی": 1817,
    "▁نهم": 1818,
    "▁برجسته": 1819,
    "▁متولد": 1820,
    "▁ماموریت": 1821,
    "▁جیمز": 1822,
    "نده": 1823,
    "▁حکام": 1824,
    "▁نگه": 1825,
    "▁لس": 1826,
    "▁اتریش": 1827,
    "▁برقرار": 1828,
    "▁لیون": 1829,
    "۱۶": 1830,
    "▁اتفاقات": 1831,
    "بط": 1832,
    "برای": 1833,
    "▁کوه": 1834,
    "▁شغل": 1835,
    "▁ذهن": 1836,
    "▁سهم": 1837,
    "▁آور": 1838,
    "▁حس": 1839,
    "▁سهمی": 1840,
    "▁گیر": 1841,
    "▁داروی": 1842,
    "▁دامن": 1843,
    "▁روان": 1844,
    "▁اینستاگرام": 1845,
    "▁بنیاد": 1846,
    "▁لی": 1847,
    "▁۲۹": 1848,
    "▁مشاهد": 1849,
    "▁پسر": 1850,
    "تنظیم": 1851,
    "▁خسارت": 1852,
    "▁ناگهان": 1853,
    "ذیب": 1854,
    "▁نجات": 1855,
    "▁صلاحیت": 1856,
    "▁شهریور": 1857,
    "▁بازنشستگان": 1858,
    "▁همتی": 1859,
    "امبر": 1860,
    "▁گذرد": 1861,
    "▁میراث": 1862,
    "▁گلستان": 1863,
    "▁ترس": 1864,
    "▁موسو": 1865,
    "واج": 1866,
    "▁زند": 1867,
    "▁ملک": 1868,
    "▁درجه": 1869,
    "باید": 1870,
    "▁آذر": 1871,
    "▁آفریقا": 1872,
    "۱۸": 1873,
    "▁رقیب": 1874,
    "▁اکبر": 1875,
    "▁شناسی": 1876,
    "علوم": 1877,
    "▁تحصیل": 1878,
    "▁شیو": 1879,
    "▁بدهی": 1880,
    "▁مسائل": 1881,
    "▁مسئ": 1882,
    "هر": 1883,
    "▁رسما": 1884,
    "▁ساحل": 1885,
    "جمه": 1886,
    "▁ایستگاه": 1887,
    "▁باور": 1888,
    "▁گام": 1889,
    "▁اید": 1890,
    "شار": 1891,
    "▁پاس": 1892,
    "وع": 1893,
    "▁منتقدان": 1894,
    "▁نکرد": 1895,
    "▁ورزشکاران": 1896,
    "▁اندازی": 1897,
    "سون": 1898,
    "▁برادر": 1899,
    "رئیس": 1900,
    "▁عدد": 1901,
    "▁مخالف": 1902,
    "▁خلی": 1903,
    "▁مج": 1904,
    "▁تمامی": 1905,
    "ساوی": 1906,
    "▁حج": 1907,
    "▁گری": 1908,
    "▁زاد": 1909,
    "▁سلطنت": 1910,
    "▁تردد": 1911,
    "▁آنجلس": 1912,
    "▁امارات": 1913,
    "▁نرم": 1914,
    "▁ابراهیم": 1915,
    "▁مطابق": 1916,
    "▁ز": 1917,
    "تیم": 1918,
    "▁گمان": 1919,
    "ود": 1920,
    "▁گفتند": 1921,
    "▁بند": 1922,
    "▁مسافر": 1923,
    "شیدا": 1924,
    "▁اصل": 1925,
    "▁جه": 1926,
    "پیش": 1927,
    "▁درک": 1928,
    "▁اطلاعی": 1929,
    "▁شمالی": 1930,
    "▁سای": 1931,
    "▁بیان": 1932,
    "▁میلان": 1933,
    "▁ست": 1934,
    "▁افتخار": 1935,
    "▁خشونت": 1936,
    "▁مصنوعی": 1937,
    "▁اجلاس": 1938,
    "▁ایسنا": 1939,
    "▁مشمول": 1940,
    "▁پروتکل": 1941,
    "▁محرم": 1942,
    "▁سرپرست": 1943,
    "▁تاسیسات": 1944,
    "▁آکادمی": 1945,
    "▁کلاس": 1946,
    "▁مواردی": 1947,
    "▁شیر": 1948,
    "▁سلیمانی": 1949,
    "▁ایتالیایی": 1950,
    "▁محققان": 1951,
    "▁ماجرا": 1952,
    "▁داند": 1953,
    "▁دارای": 1954,
    "▁سامانه": 1955,
    "▁شبی": 1956,
    "▁شرقی": 1957,
    "▁جاد": 1958,
    "▁نگار": 1959,
    "▁موثر": 1960,
    "▁باب": 1961,
    "▁ورزشکار": 1962,
    "▁هرچ": 1963,
    "▁کارشناس": 1964,
    "ازم": 1965,
    "▁آهن": 1966,
    "▁توزیع": 1967,
    "▁دیجیتال": 1968,
    "▁شاغل": 1969,
    "▁قبول": 1970,
    "▁تشویق": 1971,
    "ضاع": 1972,
    "▁تولد": 1973,
    "▁پنجاه": 1974,
    "▁فرودگاه": 1975,
    "▁پلاس": 1976,
    "▁پدرش": 1977,
    "▁هویت": 1978,
    "▁تخت": 1979,
    "▁رانندگان": 1980,
    "▁بلا": 1981,
    "ص": 1982,
    "▁اطراف": 1983,
    "▁دوستان": 1984,
    "ینگ": 1985,
    "▁سخنان": 1986,
    "گزارش": 1987,
    "▁گرانی": 1988,
    "▁رهبری": 1989,
    "لان": 1990,
    "▁ازد": 1991,
    "▁فرا": 1992,
    "▁برآورد": 1993,
    "▁فضا": 1994,
    "▁الملل": 1995,
    "▁اقلیم": 1996,
    "ئی": 1997,
    "▁۳۲": 1998,
    "▁قالب": 1999,
    "▁جبران": 2000,
    "▁اجاره": 2001,
    "▁سوپر": 2002,
    "وئل": 2003,
    "▁آرسنال": 2004,
    "لاک": 2005,
    "▁کلوپ": 2006,
    "▁کردیم": 2007,
    "▁قربانیان": 2008,
    "▁توانای": 2009,
    "▁دادستان": 2010,
    "▁یخ": 2011,
    "▁الدین": 2012,
    "سا": 2013,
    "▁توانسته": 2014,
    "▁نقاش": 2015,
    "انجام": 2016,
    "▁نماد": 2017,
    "▁شهرداری": 2018,
    "▁دیوار": 2019,
    "▁عمیق": 2020,
    "▁جذاب": 2021,
    "▁اتومبیل": 2022,
    "▁حوادث": 2023,
    "▁اعتبار": 2024,
    "▁زمستان": 2025,
    "شویی": 2026,
    "▁الهام": 2027,
    "▁اسکی": 2028,
    "▁اهواز": 2029,
    "▁ایرنا": 2030,
    "▁عرص": 2031,
    "▁خیریه": 2032,
    "▁طرفداران": 2033,
    "▁بازرس": 2034,
    "▁موشک": 2035,
    "▁ناسا": 2036,
    "▁بندر": 2037,
    "کن": 2038,
    "▁قول": 2039,
    "▁جوانان": 2040,
    "دن": 2041,
    "▁شهرت": 2042,
    "▁گردشگری": 2043,
    "▁خورشید": 2044,
    "ئو": 2045,
    "▁۴۵": 2046,
    "▁خاص": 2047,
    "▁بعدی": 2048,
    "▁نیستند": 2049,
    "▁ادار": 2050,
    "▁رویکرد": 2051,
    "▁عکاسی": 2052,
    "▁جانب": 2053,
    "▁محافظ": 2054,
    "فسور": 2055,
    "▁نطنز": 2056,
    "▁مشهد": 2057,
    "▁یوونتوس": 2058,
    "▁فیسبوک": 2059,
    "▁حراج": 2060,
    "▁صراف": 2061,
    "▁مشاور": 2062,
    "▁تأ": 2063,
    "▁سد": 2064,
    "▁سپت": 2065,
    "یو": 2066,
    "▁کالاها": 2067,
    "ستاره": 2068,
    "▁بو": 2069,
    "▁نداده": 2070,
    "▁باره": 2071,
    "اپی": 2072,
    "▁مبن": 2073,
    "▁کارت": 2074,
    "▁قاسم": 2075,
    "▁چنان": 2076,
    "▁ذر": 2077,
    "گانه": 2078,
    "▁مجسمه": 2079,
    "▁فیزیک": 2080,
    "▁حملات": 2081,
    "افسانه": 2082,
    "▁رحمان": 2083,
    "▁ریش": 2084,
    "▁دیپلما": 2085,
    "ناصر": 2086,
    "همزمان": 2087,
    "▁شناس": 2088,
    "▁حقوقی": 2089,
    "▁هوش": 2090,
    "▁شک": 2091,
    "▁سخن": 2092,
    "یکی": 2093,
    "▁محمدی": 2094,
    "▁استعفا": 2095,
    "▁جامع": 2096,
    "▁دعوت": 2097,
    "▁مقصد": 2098,
    "▁فراموش": 2099,
    "▁عشق": 2100,
    "▁ناپذیر": 2101,
    "▁بخت": 2102,
    "▁پرتاب": 2103,
    "▁آماد": 2104,
    "▁فولاد": 2105,
    "▁نیازمند": 2106,
    "▁نبوده": 2107,
    "▁منتظر": 2108,
    "▁شهرستان": 2109,
    "وف": 2110,
    "▁برخوردار": 2111,
    "▁هشتم": 2112,
    "▁نامید": 2113,
    "▁پزشکان": 2114,
    "تمام": 2115,
    "▁بابا": 2116,
    "صد": 2117,
    "▁افزود": 2118,
    "▁کارزار": 2119,
    "▁دوز": 2120,
    "▁عکاس": 2121,
    "▁جلوی": 2122,
    "▁متن": 2123,
    "▁موضع": 2124,
    "▁عذر": 2125,
    "▁اسکاتلند": 2126,
    "▁فعلا": 2127,
    "▁۱۳۹۷": 2128,
    "▁دانیم": 2129,
    "▁گواردیولا": 2130,
    "▁تعرف": 2131,
    "▁اطمینان": 2132,
    "▁مستقل": 2133,
    "▁مجاز": 2134,
    "▁اهل": 2135,
    "▁نژادپرست": 2136,
    "▁ملایی": 2137,
    "▁بازدید": 2138,
    "▁فوتبالیست": 2139,
    "▁سوزی": 2140,
    "▁سرای": 2141,
    "▁نشدن": 2142,
    "▁تست": 2143,
    "▁روانی": 2144,
    "▁قوی": 2145,
    "▁خان": 2146,
    "مدال": 2147,
    "مه": 2148,
    "چ": 2149,
    "▁هفتم": 2150,
    "▁ق": 2151,
    "▁محسو": 2152,
    "بو": 2153,
    "▁حامل": 2154,
    "زاده": 2155,
    "▁ویمبلدون": 2156,
    "▁سرنگون": 2157,
    "▁جلب": 2158,
    "▁نداریم": 2159,
    "▁رونق": 2160,
    "▁بدهد": 2161,
    "▁دسامبر": 2162,
    "▁عید": 2163,
    "▁آواز": 2164,
    "▁اختلال": 2165,
    "▁نامداری": 2166,
    "▁مشتریان": 2167,
    "▁شاملو": 2168,
    "سر": 2169,
    "▁۲۷": 2170,
    "▁همسرش": 2171,
    "▁مان": 2172,
    "عهد": 2173,
    "...": 2174,
    "▁ششم": 2175,
    "▁فرار": 2176,
    "▁ایستاده": 2177,
    "سکی": 2178,
    "▁۴۰۰": 2179,
    "▁آمدن": 2180,
    "▁انتخاباتی": 2181,
    "▁کیلومتری": 2182,
    "جی": 2183,
    "▁اسب": 2184,
    "▁اندونزی": 2185,
    "▁بسکتبال": 2186,
    "▁ژافره": 2187,
    "▁کالیفرنیا": 2188,
    "▁پرچم": 2189,
    "▁تنفس": 2190,
    "▁تکرار": 2191,
    "▁علائم": 2192,
    "▁بگیرند": 2193,
    "▁۲۰۱۵": 2194,
    "▁نفوذ": 2195,
    "▁پاک": 2196,
    "صت": 2197,
    "▁هلند": 2198,
    "▁نمایندگی": 2199,
    "▁اسپانیایی": 2200,
    "چی": 2201,
    "حمل": 2202,
    "▁بردن": 2203,
    "▁نود": 2204,
    "▁نوروزی": 2205,
    "▁چشمگیر": 2206,
    "▁ژاپنی": 2207,
    "▁متحد": 2208,
    "▁مادرش": 2209,
    "▁لح": 2210,
    "داد": 2211,
    "▁جر": 2212,
    "▁معدن": 2213,
    "آزادسازی": 2214,
    "کو": 2215,
    "رو": 2216,
    "▁تاسیس": 2217,
    "خراج": 2218,
    "شدید": 2219,
    "▁مشاغل": 2220,
    "▁طبیعت": 2221,
    "▁برگزید": 2222,
    "▁ژرمن": 2223,
    "▁تعلیق": 2224,
    "▁رمز": 2225,
    "▁بنیان": 2226,
    "▁تبعیض": 2227,
    "▁تفاوت": 2228,
    "▁کیفیت": 2229,
    "▁حقیق": 2230,
    "▁یمن": 2231,
    "▁خودکشی": 2232,
    "▁مسعود": 2233,
    "▁جسد": 2234,
    "▁فروخته": 2235,
    "▁انداخته": 2236,
    "▁لبنان": 2237,
    "▁۳۳": 2238,
    "ض": 2239,
    "▁محصول": 2240,
    "▁تپ": 2241,
    "▁پاری": 2242,
    "▁زودتر": 2243,
    "خواهی": 2244,
    "▁اندک": 2245,
    "▁نادر": 2246,
    "دان": 2247,
    "ذ": 2248,
    "▁دسته": 2249,
    "واع": 2250,
    "▁روستای": 2251,
    "▁رویداد": 2252,
    "ماه": 2253,
    "▁اعتماد": 2254,
    "▁چارچوب": 2255,
    "▁صدرنشین": 2256,
    "▁شگفت": 2257,
    "▁پنهان": 2258,
    "▁وال": 2259,
    "▁دستورالعمل": 2260,
    "▁پکن": 2261,
    "▁خیر": 2262,
    "▁پادشاه": 2263,
    "▁کانادا": 2264,
    "▁دقیقا": 2265,
    "▁گزین": 2266,
    "▁هاشمی": 2267,
    "▁قضاییه": 2268,
    "▁ایفا": 2269,
    "▁قله": 2270,
    "▁مدرن": 2271,
    "▁نشین": 2272,
    "▁عمر": 2273,
    "▁داوطلبان": 2274,
    "▁کیو": 2275,
    "▁نامش": 2276,
    "▁جورج": 2277,
    "▁گوشت": 2278,
    "▁خاتمی": 2279,
    "▁تری": 2280,
    "▁یافتن": 2281,
    "قیمت": 2282,
    "شورای": 2283,
    "▁مرزها": 2284,
    "▁سفرهای": 2285,
    "▁نوجوان": 2286,
    "▁سرد": 2287,
    "▁تحلیل": 2288,
    "را": 2289,
    "▁اظهار": 2290,
    "▁ثبات": 2291,
    "▁روغن": 2292,
    "▁زهرا": 2293,
    "▁انتظامی": 2294,
    "▁بماند": 2295,
    "▁شفاف": 2296,
    "▁ساده": 2297,
    "▁هفتاد": 2298,
    "▁پایگاه": 2299,
    "▁مهاجرت": 2300,
    "▁اسناد": 2301,
    "▁شهرسازی": 2302,
    "▁عملا": 2303,
    "▁حالت": 2304,
    "▁۱۵۰": 2305,
    "▁بودم": 2306,
    "هفته": 2307,
    "▁آنتونی": 2308,
    "▁منع": 2309,
    "▁معمول": 2310,
    "▁درخشان": 2311,
    "▁آلوده": 2312,
    "▁راحت": 2313,
    "▁خلاف": 2314,
    "▁قر": 2315,
    "رانی": 2316,
    "بعضی": 2317,
    "▁بازیگران": 2318,
    "▁افزار": 2319,
    "▁مع": 2320,
    "▁یاران": 2321,
    "▁انداخت": 2322,
    "▁درد": 2323,
    "▁۳۹": 2324,
    "▁بهای": 2325,
    "طفی": 2326,
    "▁کسر": 2327,
    "▁تصادف": 2328,
    "▁عبارت": 2329,
    "▁پارلمان": 2330,
    "رگز": 2331,
    "▁اولویت": 2332,
    "▁تراکتور": 2333,
    "▁عاص": 2334,
    "▁استانبول": 2335,
    "▁خطرناک": 2336,
    "▁نفع": 2337,
    "▁پانزده": 2338,
    "▁گشایش": 2339,
    "▁مجازات": 2340,
    "▁مدیرکل": 2341,
    "▁سازنده": 2342,
    "وه": 2343,
    "▁یادآور": 2344,
    "▁مرور": 2345,
    "▁پیچید": 2346,
    "▁نامزدهای": 2347,
    "▁فراز": 2348,
    "غول": 2349,
    "▁اسماعیل": 2350,
    "لر": 2351,
    "▁شانس": 2352,
    "▁اسدی": 2353,
    "▁مطلب": 2354,
    "▁استاندار": 2355,
    "قب": 2356,
    "▁اص": 2357,
    "قرار": 2358,
    "▁شاهین": 2359,
    "▁انداز": 2360,
    "▁خاصی": 2361,
    "▁کف": 2362,
    "▁خودروسازی": 2363,
    "▁فولک": 2364,
    "▁اور": 2365,
    "▁معن": 2366,
    "کل": 2367,
    "▁چا": 2368,
    "شرکت": 2369,
    "▁۳۴": 2370,
    "رسان": 2371,
    "▁وحش": 2372,
    "اگر": 2373,
    "لا": 2374,
    "اظ": 2375,
    "گین": 2376,
    "▁هتل": 2377,
    "▁اقامت": 2378,
    "▁ساعات": 2379,
    "▁خطیب": 2380,
    "▁دیپلماتیک": 2381,
    "▁مقدمات": 2382,
    "▁شواهد": 2383,
    "▁متخصص": 2384,
    "▁نوسان": 2385,
    "▁سانسور": 2386,
    "▁مسئولیت": 2387,
    "▁لستر": 2388,
    "▁پوشش": 2389,
    "تصاب": 2390,
    "▁۹۷": 2391,
    "▁واقعا": 2392,
    "▁مالیاتی": 2393,
    "▁تعطیلات": 2394,
    "دست": 2395,
    "تون": 2396,
    "▁تبار": 2397,
    "▁ریال": 2398,
    "حسن": 2399,
    "▁سرود": 2400,
    "گون": 2401,
    "حدود": 2402,
    "▁امیدواری": 2403,
    "▁دان": 2404,
    "دکتر": 2405,
    "ریم": 2406,
    "لند": 2407,
    "▁سالن": 2408,
    "▁وانت": 2409,
    "▁بهتری": 2410,
    "▁کلید": 2411,
    "▁تاجیک": 2412,
    "▁ضرور": 2413,
    "▁تردید": 2414,
    "▁اضطرار": 2415,
    "▁تعریف": 2416,
    "▁هالیوود": 2417,
    "▁عوارض": 2418,
    "▁مورینیو": 2419,
    "▁گشت": 2420,
    "▁فیوری": 2421,
    "▁سلول": 2422,
    "▁قلع": 2423,
    "▁غافلگیر": 2424,
    "▁۲۰۱۱": 2425,
    "▁شویم": 2426,
    "▁ماراتن": 2427,
    "▁فرمان": 2428,
    "▁خطاب": 2429,
    "▁بهر": 2430,
    "▁خرد": 2431,
    "▁تحولات": 2432,
    "▁منظور": 2433,
    "▁محکومیت": 2434,
    "احض": 2435,
    "▁تجا": 2436,
    "▁هی": 2437,
    "▁مذهبی": 2438,
    "گفته": 2439,
    "▁مناسبت": 2440,
    "▁ویدیوی": 2441,
    "▁جک": 2442,
    "▁ارد": 2443,
    "▁امر": 2444,
    "فت": 2445,
    "▁ماندن": 2446,
    "▁تل": 2447,
    "▁آشنا": 2448,
    "جمع": 2449,
    "▁نیرو": 2450,
    "▁قطب": 2451,
    "▁مرا": 2452,
    "وات": 2453,
    "▁خواهی": 2454,
    "▁شرکتهای": 2455,
    "▁تماشای": 2456,
    "▁طلب": 2457,
    "▁قدر": 2458,
    "▁فان": 2459,
    "التی": 2460,
    "▁درمانی": 2461,
    "▁مدار": 2462,
    "▁عطر": 2463,
    "▁عاشق": 2464,
    "▁ژنتیکی": 2465,
    "▁جی": 2466,
    "▁بلینکن": 2467,
    "▁کیلوگرم": 2468,
    "▁برکنار": 2469,
    "▁ازبکستان": 2470,
    "▁نباشد": 2471,
    "▁کانون": 2472,
    "▁تبریز": 2473,
    "▁کربن": 2474,
    "وخیم": 2475,
    "▁رویا": 2476,
    "▁بوکس": 2477,
    "▁فرو": 2478,
    "▁زاهد": 2479,
    "▁نسخ": 2480,
    "▁تالاب": 2481,
    "▁مثال": 2482,
    "▁صادرکنندگان": 2483,
    "▁مرجان": 2484,
    "▁بزرگتر": 2485,
    "▁وقف": 2486,
    "▁همکاران": 2487,
    "▁ذو": 2488,
    "▁سالم": 2489,
    "▁رها": 2490,
    "▁سپرده": 2491,
    "▁تحول": 2492,
    "▁سپر": 2493,
    "بار": 2494,
    "▁جنسیت": 2495,
    "▁ماجرای": 2496,
    "▁تماشا": 2497,
    "▁کریمی": 2498,
    "▁لب": 2499,
    "▁مسئولین": 2500,
    "آمریکا": 2501,
    "▁۶۵": 2502,
    "بته": 2503,
    "▁مو": 2504,
    "اسلم": 2505,
    "▁میانه": 2506,
    "▁توجهی": 2507,
    "است": 2508,
    "یره": 2509,
    "▁بودیم": 2510,
    "▁ری": 2511,
    "▁تور": 2512,
    "▁۷۰۰": 2513,
    "غ": 2514,
    "▁آر": 2515,
    "▁فراوان": 2516,
    "▁خواب": 2517,
    "▁کارمند": 2518,
    "▁هنرها": 2519,
    "▁سالها": 2520,
    "▁دهنده": 2521,
    "▁بیستم": 2522,
    "▁موقع": 2523,
    "▁زنند": 2524,
    "▁آذربایجان": 2525,
    "▁کهکشان": 2526,
    "▁گروسی": 2527,
    "▁احترام": 2528,
    "▁غزنی": 2529,
    "▁باشیم": 2530,
    "▁آشکار": 2531,
    "▁داغ": 2532,
    "▁سرنوشت": 2533,
    "▁ناکام": 2534,
    "▁ردیف": 2535,
    "▁کجا": 2536,
    "▁فایزر": 2537,
    "▁بهایی": 2538,
    "▁کادر": 2539,
    "▁باغ": 2540,
    "نوبت": 2541,
    "▁معلوم": 2542,
    "▁۷۵": 2543,
    "فرین": 2544,
    "▁محافظت": 2545,
    "▁برنت": 2546,
    "▁گلزن": 2547,
    "احل": 2548,
    "▁سان": 2549,
    "▁جزیر": 2550,
    "▁صادقی": 2551,
    "▁فروشگاه": 2552,
    "▁۴۸": 2553,
    "▁پیگیری": 2554,
    "▁درون": 2555,
    "ریک": 2556,
    "▁درحالی": 2557,
    "▁هجوم": 2558,
    "بانک": 2559,
    "▁اجباری": 2560,
    "غم": 2561,
    "▁دفاعی": 2562,
    "▁پژوهشگر": 2563,
    "سبب": 2564,
    "▁موافق": 2565,
    "▁بدتر": 2566,
    "▁مشروط": 2567,
    "▁جایگزین": 2568,
    "▁عمدتا": 2569,
    "▁کریستیان": 2570,
    "▁پاییز": 2571,
    "▁مسجد": 2572,
    "▁هافبک": 2573,
    "▁دایک": 2574,
    "▁فراتر": 2575,
    "▁خمینی": 2576,
    "▁مقدار": 2577,
    "▁برگزیت": 2578,
    "▁بلژیک": 2579,
    "▁پرتغال": 2580,
    "▁اورتون": 2581,
    "▁هشتاد": 2582,
    "▁سقف": 2583,
    "▁مخاطبان": 2584,
    "▁شرط": 2585,
    "▁پاپ": 2586,
    "▁سوئد": 2587,
    "▁خاورمیانه": 2588,
    "▁خواهم": 2589,
    "▁فقر": 2590,
    "▁خبرساز": 2591,
    "▁جسم": 2592,
    "▁ل": 2593,
    "▁دهیم": 2594,
    "▁علن": 2595,
    "▁سری": 2596,
    "▁مسافرت": 2597,
    "▁مساوی": 2598,
    "▁اتهامات": 2599,
    "کا": 2600,
    "▁زدند": 2601,
    "▁میر": 2602,
    "تن": 2603,
    "▁قطعه": 2604,
    "خالت": 2605,
    "▁حلق": 2606,
    "▁اسکن": 2607,
    "آزمای": 2608,
    "یات": 2609,
    "▁عظیم": 2610,
    "▁بردند": 2611,
    "بنا": 2612,
    "۱۴": 2613,
    "وثی": 2614,
    "▁علم": 2615,
    "▁برون": 2616,
    "بنابر": 2617,
    "وزیر": 2618,
    "▁عفو": 2619,
    "امروز": 2620,
    "▁تب": 2621,
    "▁نیمک": 2622,
    "▁زیبای": 2623,
    "▁باد": 2624,
    "فر": 2625,
    "▁مس": 2626,
    "▁بچ": 2627,
    "▁امضای": 2628,
    "▁دائم": 2629,
    "▁آکسفورد": 2630,
    "▁اقلام": 2631,
    "▁لذت": 2632,
    "▁نساجی": 2633,
    "▁تجدید": 2634,
    "▁سلاح": 2635,
    "▁جستجو": 2636,
    "▁اماکن": 2637,
    "▁بگذارد": 2638,
    "▁وسیع": 2639,
    "▁پرورش": 2640,
    "▁جنبش": 2641,
    "▁عراقچی": 2642,
    "▁تکمیل": 2643,
    "▁مدارس": 2644,
    "▁خفاش": 2645,
    "▁آرایش": 2646,
    "▁مدنی": 2647,
    "▁۱۹۸": 2648,
    "▁ات": 2649,
    "▁سرکوب": 2650,
    "▁بوی": 2651,
    "▁وام": 2652,
    "اکان": 2653,
    "قابل": 2654,
    "رت": 2655,
    "▁رویدادهای": 2656,
    "آ": 2657,
    "▁باند": 2658,
    "▁مقال": 2659,
    "تو": 2660,
    "▁گور": 2661,
    "▁پهلوی": 2662,
    "▁برداری": 2663,
    "▁آموزشی": 2664,
    "▁تف": 2665,
    "▁گذراند": 2666,
    "▁اکثر": 2667,
    "▁گرد": 2668,
    "ث": 2669,
    "▁ابر": 2670,
    "▁انت": 2671,
    "دل": 2672,
    "باقر": 2673,
    "سعید": 2674,
    "▁صالح": 2675,
    "▁اصلا": 2676,
    "▁حافظ": 2677,
    "حال": 2678,
    "طی": 2679,
    "▁هو": 2680,
    "پور": 2681,
    "▁کا": 2682,
    "سه": 2683,
    "▁قص": 2684,
    "▁رغ": 2685,
    "▁تبلیغ": 2686,
    "▁۹۶": 2687,
    "▁بخار": 2688,
    "▁رستوران": 2689,
    "▁غیرمستقیم": 2690,
    "▁مازندران": 2691,
    "▁منافع": 2692,
    "▁عمق": 2693,
    "▁نصب": 2694,
    "▁خطوط": 2695,
    "▁لوئی": 2696,
    "▁مصدومیت": 2697,
    "▁بزند": 2698,
    "▁تقس": 2699,
    "▁تجهیزات": 2700,
    "▁راز": 2701,
    "▁حیوانات": 2702,
    "▁شتاب": 2703,
    "▁کاوشگر": 2704,
    "▁منچسترسیتی": 2705,
    "▁سنا": 2706,
    "▁تدریج": 2707,
    "▁کنفرانس": 2708,
    "▁جواب": 2709,
    "▁رحمانی": 2710,
    "▁خاوران": 2711,
    "▁فرماندار": 2712,
    "▁شیش": 2713,
    "▁ارتباطات": 2714,
    "▁۰": 2715,
    "▁شیری": 2716,
    "▁آرامش": 2717,
    "▁دانستند": 2718,
    "▁واگ": 2719,
    "▁خاطرات": 2720,
    "رد": 2721,
    "▁نابودی": 2722,
    "برگ": 2723,
    "اقات": 2724,
    "▁گزارشگر": 2725,
    "▁ساک": 2726,
    "▁مص": 2727,
    "▁خوان": 2728,
    "▁لیس": 2729,
    "خلاف": 2730,
    "سخنگوی": 2731,
    "رسمی": 2732,
    "▁درحال": 2733,
    "▁داری": 2734,
    "▁شنا": 2735,
    "۱۹": 2736,
    "جو": 2737,
    "▁نیمی": 2738,
    "وا": 2739,
    "فاصله": 2740,
    "▁اتفاقی": 2741,
    "▁ایست": 2742,
    "▁آنک": 2743,
    "▁گنج": 2744,
    "مون": 2745,
    "▁مار": 2746,
    "▁بازنشست": 2747,
    "کی": 2748,
    "▁حساس": 2749,
    "▁فرآیند": 2750,
    "▁هیئت": 2751,
    "▁روزگار": 2752,
    "▁ترجیح": 2753,
    "▁مستمر": 2754,
    "▁پرفروش": 2755,
    "▁کلمبیا": 2756,
    "▁قادر": 2757,
    "▁پادتن": 2758,
    "▁فاش": 2759,
    "▁فیل": 2760,
    "▁پلاستیک": 2761,
    "▁تاثیرگذار": 2762,
    "▁بهشت": 2763,
    "▁جانشین": 2764,
    "▁تائ": 2765,
    "▁عبدالله": 2766,
    "خره": 2767,
    "▁ضرورت": 2768,
    "▁اسم": 2769,
    "▁غلام": 2770,
    "▁آزمایشگاه": 2771,
    "▁ضرر": 2772,
    "▁نمای": 2773,
    "▁امان": 2774,
    "وقت": 2775,
    "▁روب": 2776,
    "▁خواه": 2777,
    "▁کهن": 2778,
    "▁نان": 2779,
    "▁طلبان": 2780,
    "▁طلایی": 2781,
    "ناوند": 2782,
    "عکس": 2783,
    "▁نبرد": 2784,
    "▁پیک": 2785,
    "۵۰": 2786,
    "مند": 2787,
    "وند": 2788,
    "▁سفارش": 2789,
    "▁خاتم": 2790,
    "▁صادق": 2791,
    "▁فیلمساز": 2792,
    "رگن": 2793,
    "ناف": 2794,
    "▁روح": 2795,
    "رز": 2796,
    "▁عام": 2797,
    "نام": 2798,
    "ژه": 2799,
    "رج": 2800,
    "▁اعزام": 2801,
    "▁تسلیحات": 2802,
    "▁حکایت": 2803,
    "▁آفتاب": 2804,
    "▁فلوید": 2805,
    "▁بامیان": 2806,
    "▁بخصوص": 2807,
    "▁مطبوعات": 2808,
    "▁بدهند": 2809,
    "▁مطالب": 2810,
    "▁پتروش": 2811,
    "▁هیجان": 2812,
    "▁شوک": 2813,
    "▁جانسون": 2814,
    "▁آسان": 2815,
    "▁اینتر": 2816,
    "▁اپل": 2817,
    "▁قایق": 2818,
    "▁متوا": 2819,
    "▁اختلافات": 2820,
    "راه": 2821,
    "▁اوبر": 2822,
    "▁گذر": 2823,
    "دا": 2824,
    "▁۴۴": 2825,
    "▁شناور": 2826,
    "▁برند": 2827,
    "▁جم": 2828,
    "▁نماز": 2829,
    "هم": 2830,
    "اد": 2831,
    "▁مح": 2832,
    "▁زیرا": 2833,
    "▁مون": 2834,
    "▁تاک": 2835,
    "▁تاپ": 2836,
    "▁بیمه": 2837,
    "▁امین": 2838,
    "بون": 2839,
    "یخ": 2840,
    "▁سوئیسی": 2841,
    "▁ط": 2842,
    "▁ابتلای": 2843,
    "بسیاری": 2844,
    "▁حا": 2845,
    "نت": 2846,
    "▁محاسب": 2847,
    "▁عبوری": 2848,
    "▁مطل": 2849,
    "قاضی": 2850,
    "▁آنفلوآنزا": 2851,
    "▁خداحافظ": 2852,
    "▁خراسان": 2853,
    "▁قاجار": 2854,
    "▁بغداد": 2855,
    "▁معاصر": 2856,
    "▁گوناگون": 2857,
    "▁کانری": 2858,
    "▁طبری": 2859,
    "▁قدرتمند": 2860,
    "ادورو": 2861,
    "▁شهرها": 2862,
    "▁عروسک": 2863,
    "▁تاکسی": 2864,
    "▁ایرباس": 2865,
    "▁صند": 2866,
    "▁آتی": 2867,
    "▁قیمتها": 2868,
    "▁فقیر": 2869,
    "▁تمایل": 2870,
    "▁سیل": 2871,
    "اجع": 2872,
    "▁توماس": 2873,
    "▁ظاهرا": 2874,
    "طئ": 2875,
    "▁فکری": 2876,
    "▁کارش": 2877,
    "▁رویای": 2878,
    "▁همیلتون": 2879,
    "▁اردو": 2880,
    "ناز": 2881,
    "▁۲۵۰": 2882,
    "فق": 2883,
    "▁شنیده": 2884,
    "▁خودم": 2885,
    "▁نی": 2886,
    "جه": 2887,
    "▁منشا": 2888,
    "اوش": 2889,
    "▁روس": 2890,
    "▁پو": 2891,
    "▁رفتند": 2892,
    "آن": 2893,
    "▁۵۷": 2894,
    "امی": 2895,
    "▁برایش": 2896,
    "▁مند": 2897,
    "پیشتر": 2898,
    "امسال": 2899,
    "▁۳۷": 2900,
    "▁رسیدند": 2901,
    "▁ماهوار": 2902,
    "▁ویدیو": 2903,
    "غان": 2904,
    "▁مسال": 2905,
    "▁هرگ": 2906,
    "▁۱۳۵": 2907,
    "۲۰۱۲": 2908,
    "▁درخت": 2909,
    "پی": 2910,
    "▁قلم": 2911,
    "▁کلاسیک": 2912,
    "▁شایع": 2913,
    "▁آفریقای": 2914,
    "▁سران": 2915,
    "خیص": 2916,
    "▁الکترونیک": 2917,
    "▁تگزاس": 2918,
    "▁موبایل": 2919,
    "▁پیامدهای": 2920,
    "▁سرقت": 2921,
    "▁دقایق": 2922,
    "▁منتقد": 2923,
    "▁شوماخر": 2924,
    "▁۲۰۲۲": 2925,
    "▁مسکونی": 2926,
    "▁ربات": 2927,
    "▁قبا": 2928,
    "▁استادیوم": 2929,
    "▁صمت": 2930,
    "▁جاسوس": 2931,
    "▁کشد": 2932,
    "▁سرزمین": 2933,
    "▁واژ": 2934,
    "▁لمس": 2935,
    "▁ارشاد": 2936,
    "▁بیاید": 2937,
    "▁زانو": 2938,
    "▁بورل": 2939,
    "لک": 2940,
    "▁عادل": 2941,
    "▁لحظات": 2942,
    "▁تایسون": 2943,
    "▁قد": 2944,
    "▁نداشتند": 2945,
    "سل": 2946,
    "▁شکاف": 2947,
    "▁سا": 2948,
    "ران": 2949,
    "▁فاز": 2950,
    "▁جیب": 2951,
    "خ": 2952,
    "▁ریه": 2953,
    "نیک": 2954,
    "▁راستا": 2955,
    "آی": 2956,
    "▁نگرفته": 2957,
    "رویی": 2958,
    "▁رم": 2959,
    "نظر": 2960,
    "▁گرا": 2961,
    "▁کاسته": 2962,
    "کم": 2963,
    "▁باران": 2964,
    "کر": 2965,
    "وار": 2966,
    "▁اسلام": 2967,
    "▁خیابانی": 2968,
    "انا": 2969,
    "▁ویران": 2970,
    "اولین": 2971,
    "مت": 2972,
    "▁آمارها": 2973,
    "▁دانشمند": 2974,
    "▁اسد": 2975,
    "▁۵۵": 2976,
    "جونز": 2977,
    "▁مطمئن": 2978,
    "▁خودروها": 2979,
    "▁الحاق": 2980,
    "▁موانع": 2981,
    "▁خلاص": 2982,
    "▁باشید": 2983,
    "▁پانصد": 2984,
    "▁سایپا": 2985,
    "▁بنیانگذار": 2986,
    "▁یوفا": 2987,
    "▁وسایل": 2988,
    "▁۱۹۸۶": 2989,
    "▁برانگیز": 2990,
    "▁یادداشت": 2991,
    "▁ولسوال": 2992,
    "▁علامت": 2993,
    "اینها": 2994,
    "▁شکنج": 2995,
    "▁۲۰۱۰": 2996,
    "▁والی": 2997,
    "▁اشتغال": 2998,
    "▁اولسان": 2999,
    "▁مقاومت": 3000,
    "▁آدم": 3001,
    "▁یاری": 3002,
    "▁سهامداران": 3003,
    "▁نمایشگر": 3004,
    "▁وبسایت": 3005,
    "▁۴۳": 3006,
    "راضی": 3007,
    "▁قوا": 3008,
    "▁بلیت": 3009,
    "▁دانشجویان": 3010,
    "▁شوم": 3011,
    "▁ربط": 3012,
    "▁گردن": 3013,
    "▁حمید": 3014,
    "▁طلای": 3015,
    "▁ایرانیان": 3016,
    "▁ساختار": 3017,
    "▁منته": 3018,
    "▁تج": 3019,
    "▁سین": 3020,
    "▁صادراتی": 3021,
    "▁شعب": 3022,
    "شهر": 3023,
    "▁دونده": 3024,
    "رون": 3025,
    "▁مزار": 3026,
    "▁حامی": 3027,
    "▁نرسیده": 3028,
    "▁حضورش": 3029,
    "▁سیار": 3030,
    "▁دوام": 3031,
    "کاری": 3032,
    "▁مور": 3033,
    "▁۳۸": 3034,
    "▁انبار": 3035,
    "▁گوشی": 3036,
    "پلیس": 3037,
    "آنها": 3038,
    "▁اگر": 3039,
    "یل": 3040,
    "▁باتر": 3041,
    "▁کامپیوتر": 3042,
    "▁مگا": 3043,
    "ویز": 3044,
    "▁فتح": 3045,
    "▁گروگان": 3046,
    "آوری": 3047,
    "▁۹۵": 3048,
    "هزار": 3049,
    "▁سلطان": 3050,
    "▁۳۶": 3051,
    "رس": 3052,
    "صاف": 3053,
    "بهار": 3054,
    "▁پرافتخار": 3055,
    "▁ارتفاع": 3056,
    "▁استراماچونی": 3057,
    "▁پروتئین": 3058,
    "▁ببینید": 3059,
    "▁طوفان": 3060,
    "▁بعید": 3061,
    "▁ناحیه": 3062,
    "▁برساند": 3063,
    "▁سئوال": 3064,
    "▁فردوسی": 3065,
    "▁جالب": 3066,
    "▁نیروگاه": 3067,
    "▁دیگو": 3068,
    "▁انگار": 3069,
    "▁وستهم": 3070,
    "▁سبز": 3071,
    "▁نقدی": 3072,
    "▁معمار": 3073,
    "▁دیر": 3074,
    "▁یونان": 3075,
    "▁شهری": 3076,
    "▁تس": 3077,
    "ابی": 3078,
    "▁خریدار": 3079,
    "▁فرید": 3080,
    "▁۵۶": 3081,
    "▁اطل": 3082,
    "▁پذیرفته": 3083,
    "▁جلسات": 3084,
    "▁موضوعات": 3085,
    "▁نیک": 3086,
    "۳۱": 3087,
    "▁یازدهم": 3088,
    "▁اقدامی": 3089,
    "▁مبادل": 3090,
    "▁درهای": 3091,
    "▁عزاداری": 3092,
    "پنج": 3093,
    "▁پرد": 3094,
    "▁وایلد": 3095,
    "▁وق": 3096,
    "دگی": 3097,
    "▁هل": 3098,
    "▁غ": 3099,
    "افزایش": 3100,
    "▁۶۷": 3101,
    "مار": 3102,
    "▁اشک": 3103,
    "راحل": 3104,
    "▁داوطلب": 3105,
    "▁بران": 3106,
    "یده": 3107,
    "حص": 3108,
    "▁کمال": 3109,
    "▁انفرادی": 3110,
    "▁ثمر": 3111,
    "▁نتانیاهو": 3112,
    "▁نکنید": 3113,
    "▁تفریح": 3114,
    "▁تعدیل": 3115,
    "▁بکشد": 3116,
    "▁زلزله": 3117,
    "▁تظاهرات": 3118,
    "▁تلفیق": 3119,
    "▁مفهوم": 3120,
    "▁فرگوسن": 3121,
    "▁معافیت": 3122,
    "▁زرد": 3123,
    "▁ویلیام": 3124,
    "▁تبعات": 3125,
    "▁عمان": 3126,
    "▁منزل": 3127,
    "▁عفونت": 3128,
    "▁۱۹۹": 3129,
    "▁بیلسا": 3130,
    "▁اشرف": 3131,
    "▁مدارک": 3132,
    "▁آهنگساز": 3133,
    "▁ولز": 3134,
    "▁آنقدر": 3135,
    "▁مکرون": 3136,
    "▁بهرام": 3137,
    "▁سرنشینان": 3138,
    "▁غار": 3139,
    "▁نمایشگاه": 3140,
    "▁برندگان": 3141,
    "▁مطالعات": 3142,
    "▁طیف": 3143,
    "نادیده": 3144,
    "▁تبلیغاتی": 3145,
    "▁عملی": 3146,
    "▁شورو": 3147,
    "▁زک": 3148,
    "▁عادت": 3149,
    "▁افشار": 3150,
    "اق": 3151,
    "▁تروریستی": 3152,
    "▁محمدجواد": 3153,
    "▁جرم": 3154,
    "▁نیوک": 3155,
    "▁مای": 3156,
    "▁بازرسان": 3157,
    "گه": 3158,
    "اول": 3159,
    "▁ناصر": 3160,
    "▁ایام": 3161,
    "▁خبرهای": 3162,
    "▁قاطع": 3163,
    "▁ویل": 3164,
    "زن": 3165,
    "▁همای": 3166,
    "▁خواستند": 3167,
    "بل": 3168,
    "▁ون": 3169,
    "▁فریاد": 3170,
    "▁خ": 3171,
    "▁شر": 3172,
    "عبدال": 3173,
    "خالص": 3174,
    "▁خست": 3175,
    "برخ": 3176,
    "▁راند": 3177,
    "شده": 3178,
    "▁تنگ": 3179,
    "▁جین": 3180,
    "▁سپ": 3181,
    "رداد": 3182,
    "داشت": 3183,
    "▁محدودیتهای": 3184,
    "▁محور": 3185,
    "▁۴۹": 3186,
    "▁۱۲۰": 3187,
    "▁اوکراین": 3188,
    "▁ادعا": 3189,
    "پپ": 3190,
    "وریس": 3191,
    "▁پوش": 3192,
    "▁تبلیغات": 3193,
    "▁ابزار": 3194,
    "▁ناراحت": 3195,
    "▁ایستاد": 3196,
    "رنو": 3197,
    "▁متاسف": 3198,
    "▁فلز": 3199,
    "▁مرخص": 3200,
    "▁پیراهن": 3201,
    "▁تعامل": 3202,
    "▁مفید": 3203,
    "▁مترجم": 3204,
    "▁منحصر": 3205,
    "▁دانمارک": 3206,
    "▁یمانی": 3207,
    "▁مسلمان": 3208,
    "▁سانتی": 3209,
    "▁مشورت": 3210,
    "▁سم": 3211,
    "▁زنگنه": 3212,
    "▁رمزارزها": 3213,
    "▁کارگزار": 3214,
    "▁عروس": 3215,
    "▁ستایش": 3216,
    "▁ایلنا": 3217,
    "عوض": 3218,
    "▁مخفی": 3219,
    "▁کریست": 3220,
    "▁پیمان": 3221,
    "▁اصلاحات": 3222,
    "نیم": 3223,
    "▁لیدز": 3224,
    "▁کیم": 3225,
    "▁مطهری": 3226,
    "▁گم": 3227,
    "▁امکانات": 3228,
    "▁گذاشتن": 3229,
    "▁زیان": 3230,
    "▁کشی": 3231,
    "▁اقلیمی": 3232,
    "▁خوردن": 3233,
    "ابت": 3234,
    "▁فراگیر": 3235,
    "پرو": 3236,
    "▁قدس": 3237,
    "▁پوشید": 3238,
    "▁خودران": 3239,
    "▁دارم": 3240,
    "گل": 3241,
    "شاهی": 3242,
    "▁قربانی": 3243,
    "مهدی": 3244,
    "▁ایرلند": 3245,
    "▁پیست": 3246,
    "پل": 3247,
    "وریا": 3248,
    "▁بدی": 3249,
    "▁بینند": 3250,
    "▁فرم": 3251,
    "▁۷۷": 3252,
    "بین": 3253,
    "▁شا": 3254,
    "▁تخیل": 3255,
    "▁کال": 3256,
    "▁آم": 3257,
    "عباس": 3258,
    "دانشمندان": 3259,
    "محمود": 3260,
    "▁آیند": 3261,
    "▁تکان": 3262,
    "▁متشک": 3263,
    "▁مغزی": 3264,
    "ممکن": 3265,
    "هالی": 3266,
    "▁صدو": 3267,
    "▁ور": 3268,
    "▁افکن": 3269,
    "▁مهاجر": 3270,
    "▁رنج": 3271,
    "▁کام": 3272,
    "میم": 3273,
    "▁پالا": 3274,
    "▁باخته": 3275,
    "▁محقق": 3276,
    "جان": 3277,
    "۳۰": 3278,
    "▁۷۳": 3279,
    "▁خوشحال": 3280,
    "▁نقد": 3281,
    "▁همجنس": 3282,
    "▁حیوان": 3283,
    "التهاب": 3284,
    "▁مهندس": 3285,
    "▁شعار": 3286,
    "کننده": 3287,
    "▁خلو": 3288,
    "▁شطرنج": 3289,
    "▁اخطار": 3290,
    "▁محوطه": 3291,
    "▁همیشگی": 3292,
    "خصیص": 3293,
    "▁مدیترانه": 3294,
    "▁ناامن": 3295,
    "▁هیأت": 3296,
    "▁دادگستری": 3297,
    "▁دادسرا": 3298,
    "▁شارژ": 3299,
    "▁وسط": 3300,
    "▁تروریسم": 3301,
    "▁نروژ": 3302,
    "▁نکنند": 3303,
    "▁لبخند": 3304,
    "▁خوک": 3305,
    "▁برانگیخت": 3306,
    "▁کیلو": 3307,
    "▁کریکت": 3308,
    "▁ویلموتس": 3309,
    "▁تلخ": 3310,
    "▁قرص": 3311,
    "▁نقص": 3312,
    "▁شاخ": 3313,
    "▁صبر": 3314,
    "▁شیراز": 3315,
    "▁دموکرات": 3316,
    "▁خشم": 3317,
    "▁خرج": 3318,
    "▁مسکو": 3319,
    "ظیف": 3320,
    "▁برلین": 3321,
    "▁کرمان": 3322,
    "▁گوگل": 3323,
    "بیش": 3324,
    "▁۴۶": 3325,
    "مرث": 3326,
    "▁دانم": 3327,
    "▁پروان": 3328,
    "▁آیین": 3329,
    "بورن": 3330,
    "▁پیوستن": 3331,
    "▁محتوای": 3332,
    "▁سوالات": 3333,
    "جری": 3334,
    "▁محسن": 3335,
    "▁ویکتور": 3336,
    "▁پیکر": 3337,
    "▁جنبه": 3338,
    "▁موش": 3339,
    "▁پراکند": 3340,
    "▁خوانندگ": 3341,
    "▁خواندن": 3342,
    "▁بوش": 3343,
    "▁پرسی": 3344,
    "یسم": 3345,
    "▁افتد": 3346,
    "▁پرسش": 3347,
    "یف": 3348,
    "▁وار": 3349,
    "▁بدر": 3350,
    "▁داشتم": 3351,
    "▁بدل": 3352,
    "▁ص": 3353,
    "▁سیف": 3354,
    "▁استعداد": 3355,
    "▁کشیدن": 3356,
    "▁پستان": 3357,
    "باران": 3358,
    "اری": 3359,
    "خیلی": 3360,
    "▁نامدار": 3361,
    "▁هاوس": 3362,
    "▁بشری": 3363,
    "▁جهانگیری": 3364,
    "▁دراز": 3365,
    "▁مرس": 3366,
    "▁آسیای": 3367,
    "نواک": 3368,
    "بری": 3369,
    "پوری": 3370,
    "فا": 3371,
    "زی": 3372,
    "▁پارسی": 3373,
    "▁لاش": 3374,
    "ظهر": 3375,
    "افغانستان": 3376,
    "خارج": 3377,
    "یرت": 3378,
    "احمد": 3379,
    "▁معمولی": 3380,
    "▁راهبر": 3381,
    "یژن": 3382,
    "▁باستانی": 3383,
    "▁رقص": 3384,
    "مجموعه": 3385,
    "▁ارزان": 3386,
    "▁اما": 3387,
    "▁احت": 3388,
    "▁طب": 3389,
    "▁ناو": 3390,
    "▁۱۵۰۰": 3391,
    "▁میلیاردها": 3392,
    "▁ریخت": 3393,
    "▁تخلف": 3394,
    "▁مخصوص": 3395,
    "▁اقلی": 3396,
    "▁حاکم": 3397,
    "▁آباد": 3398,
    "▁تاب": 3399,
    "▁امتحان": 3400,
    "▁شمخانی": 3401,
    "▁کانسپت": 3402,
    "▁اصرار": 3403,
    "▁تحمیل": 3404,
    "▁طنز": 3405,
    "▁خوراک": 3406,
    "▁سلمان": 3407,
    "▁سرویس": 3408,
    "▁استراتژیک": 3409,
    "▁حیدر": 3410,
    "▁ژنتیک": 3411,
    "▁هندی": 3412,
    "▁زوج": 3413,
    "▁هیوندای": 3414,
    "▁منوچ": 3415,
    "▁ویلیامز": 3416,
    "▁ابوال": 3417,
    "▁پیوند": 3418,
    "▁ثروت": 3419,
    "▁کارلوس": 3420,
    "▁تعهد": 3421,
    "▁پلاک": 3422,
    "▁گردشگران": 3423,
    "▁ناجی": 3424,
    "▁کنگره": 3425,
    "▁منار": 3426,
    "▁صرفا": 3427,
    "▁تایم": 3428,
    "▁فرزندان": 3429,
    "▁ادعای": 3430,
    "▁سرو": 3431,
    "بخش": 3432,
    "▁استخر": 3433,
    "▁گفتگوها": 3434,
    "▁انتقادها": 3435,
    "▁عطرساز": 3436,
    "▁نای": 3437,
    "▁هنگ": 3438,
    "▁دستیابی": 3439,
    "▁بروند": 3440,
    "▁جدایی": 3441,
    "▁صادرکنند": 3442,
    "تب": 3443,
    "▁اموا": 3444,
    "▁آوردند": 3445,
    "یس": 3446,
    "▁آوردن": 3447,
    "▁قدمت": 3448,
    "▁نورد": 3449,
    "▁سل": 3450,
    "▁تمرکز": 3451,
    "▁نزد": 3452,
    "▁کنگ": 3453,
    "▁پرهی": 3454,
    "▁پرسید": 3455,
    "▁وسی": 3456,
    "▁بستن": 3457,
    "▁۵۹": 3458,
    "وت": 3459,
    "▁ساختن": 3460,
    "▁جوانی": 3461,
    "واک": 3462,
    "▁افشا": 3463,
    "▁یازده": 3464,
    "ونگ": 3465,
    "▁ارا": 3466,
    "▁تابلوی": 3467,
    "▁توانم": 3468,
    "▁پرند": 3469,
    "شاخص": 3470,
    "فیلم": 3471,
    "▁معترض": 3472,
    "▁کاش": 3473,
    "▁بس": 3474,
    "▁۱۳۹": 3475,
    "▁مادری": 3476,
    "▁افسر": 3477,
    "▁بازیگری": 3478,
    "▁مستق": 3479,
    "▁مصاد": 3480,
    "▁پارالمپیک": 3481,
    "▁مقیم": 3482,
    "▁دهقان": 3483,
    "▁نکند": 3484,
    "▁اکسیژن": 3485,
    "▁سراغ": 3486,
    "▁۹۱": 3487,
    "▁بدانیم": 3488,
    "▁مخابرات": 3489,
    "▁فسیل": 3490,
    "▁متقاضی": 3491,
    "▁پردازد": 3492,
    "▁کشاند": 3493,
    "▁اهداف": 3494,
    "▁جمال": 3495,
    "▁پرندگان": 3496,
    "▁رابرت": 3497,
    "▁غریب": 3498,
    "▁ایراد": 3499,
    "▁ببرد": 3500,
    "▁محاسبات": 3501,
    "▁کیفر": 3502,
    "▁شخص": 3503,
    "▁گلو": 3504,
    "▁۵۲": 3505,
    "▁نسب": 3506,
    "▁دایناسور": 3507,
    "▁اپرا": 3508,
    "▁کاربر": 3509,
    "▁اهدا": 3510,
    "▁کاظم": 3511,
    "▁سناتور": 3512,
    "▁بجا": 3513,
    "▁علاقمندان": 3514,
    "▁اذ": 3515,
    "▁ستارگان": 3516,
    "▁آورند": 3517,
    "▁نکردن": 3518,
    "▁۱۳۷": 3519,
    "▁تند": 3520,
    "▁موشکی": 3521,
    "▁بازماند": 3522,
    "▁هستم": 3523,
    "▁پوشاند": 3524,
    "▁زور": 3525,
    "▁جدال": 3526,
    "▁استرالیایی": 3527,
    "جیره": 3528,
    "▁روسی": 3529,
    "▁کت": 3530,
    "رشو": 3531,
    "▁ظه": 3532,
    "▁ضعیف": 3533,
    "▁روسا": 3534,
    "لینی": 3535,
    "▁آزمای": 3536,
    "▁عموم": 3537,
    "▁گرایان": 3538,
    "▁اندیش": 3539,
    "▁کشت": 3540,
    "▁ثروتمند": 3541,
    "▁۸۰۰": 3542,
    "گذاری": 3543,
    "▁اسلم": 3544,
    "▁بومی": 3545,
    "▁جعل": 3546,
    "حتی": 3547,
    "▁بوک": 3548,
    "▁راس": 3549,
    "▁امن": 3550,
    "الله": 3551,
    "▁برقی": 3552,
    "▁دف": 3553,
    "▁وست": 3554,
    "▁شدم": 3555,
    "▁ادا": 3556,
    "▁گفتگوی": 3557,
    "واد": 3558,
    "▁یکم": 3559,
    "▁شریفی": 3560,
    "ضعیف": 3561,
    "استقلال": 3562,
    "آخر": 3563,
    "معاون": 3564,
    "وان": 3565,
    "وپن": 3566,
    "▁گانه": 3567,
    "▁صورتی": 3568,
    "▁داستانی": 3569,
    "▁جن": 3570,
    "▁راک": 3571,
    "▁گیاه": 3572,
    "▁مشتری": 3573,
    "غال": 3574,
    "▁اصطلاح": 3575,
    "ناد": 3576,
    "▁اخلال": 3577,
    "▁تخصص": 3578,
    "▁خانوادگی": 3579,
    "▁دبلیو": 3580,
    "▁رتکلیف": 3581,
    "▁رضوی": 3582,
    "▁استراحت": 3583,
    "▁صنف": 3584,
    "▁فلوریدا": 3585,
    "▁بازگردد": 3586,
    "▁لزوم": 3587,
    "صوفی": 3588,
    "▁ونیز": 3589,
    "ژانس": 3590,
    "▁اپلیکیشن": 3591,
    "▁رسول": 3592,
    "▁خاموش": 3593,
    "▁بوندس": 3594,
    "▁ابعاد": 3595,
    "▁مقطع": 3596,
    "▁خرند": 3597,
    "▁سلف": 3598,
    "وطن": 3599,
    "▁ترکمن": 3600,
    "▁فتاح": 3601,
    "▁مرگبار": 3602,
    "ختم": 3603,
    "▁راموس": 3604,
    "▁ترسیم": 3605,
    "▁هامر": 3606,
    "▁مالاریا": 3607,
    "▁آشفت": 3608,
    "▁شاگردان": 3609,
    "▁۷۴": 3610,
    "▁کمپین": 3611,
    "▁غالب": 3612,
    "▁آموزان": 3613,
    "▁سالمندان": 3614,
    "▁وجه": 3615,
    "▁دقت": 3616,
    "▁ازای": 3617,
    "▁اریک": 3618,
    "▁احساسات": 3619,
    "▁اوکراینی": 3620,
    "▁افتتاح": 3621,
    "▁سراسری": 3622,
    "▁افکار": 3623,
    "▁لیور": 3624,
    "▁دیپلمات": 3625,
    "▁خانوارهای": 3626,
    "▁عقید": 3627,
    "▁تحلیلگر": 3628,
    "یحی": 3629,
    "▁نژادی": 3630,
    "▁اسپ": 3631,
    "▁اوست": 3632,
    "▁نمکی": 3633,
    "▁وزارتخانه": 3634,
    "▁رساندن": 3635,
    "▁طرز": 3636,
    "لحق": 3637,
    "۲۵": 3638,
    "▁ریاض": 3639,
    "▁حریفان": 3640,
    "▁کاس": 3641,
    "▁ویدئویی": 3642,
    "▁هجومی": 3643,
    "خته": 3644,
    "لینگ": 3645,
    "▁شاعران": 3646,
    "خواست": 3647,
    "▁گریز": 3648,
    "▁مرغدار": 3649,
    "▁لا": 3650,
    "ستون": 3651,
    "عداد": 3652,
    "نر": 3653,
    "▁آندر": 3654,
    "▁۹۰۰": 3655,
    "تمرکز": 3656,
    "طبق": 3657,
    "استفاده": 3658,
    "عنوان": 3659,
    "کدام": 3660,
    "گروه": 3661,
    "▁رحم": 3662,
    "▁کرو": 3663,
    "▁قراردادش": 3664,
    "رق": 3665,
    "▁فراری": 3666,
    "▁طوری": 3667,
    "ارغ": 3668,
    "شمار": 3669,
    "▁۱۳۶": 3670,
    "▁مامور": 3671,
    "▁دردسر": 3672,
    "▁دود": 3673,
    "غذی": 3674,
    "▁ارمنستان": 3675,
    "▁استخدام": 3676,
    "▁اعتراف": 3677,
    "▁تأثیر": 3678,
    "▁حرکات": 3679,
    "▁غربالگری": 3680,
    "▁فلسفه": 3681,
    "▁منتخب": 3682,
    "▁موظف": 3683,
    "▁بروکسل": 3684,
    "▁ذکر": 3685,
    "▁نیوزیلند": 3686,
    "▁خادم": 3687,
    "▁شلوغ": 3688,
    "▁لهستان": 3689,
    "▁ثامن": 3690,
    "▁کنسول": 3691,
    "▁یوگا": 3692,
    "▁تماشاچی": 3693,
    "▁آگاه": 3694,
    "▁لنون": 3695,
    "▁پیاده": 3696,
    "▁تلگرام": 3697,
    "▁غرق": 3698,
    "▁قطار": 3699,
    "▁سرباز": 3700,
    "▁خلاقیت": 3701,
    "▁بامداد": 3702,
    "▁اعطا": 3703,
    "▁بزنند": 3704,
    "▁جاستین": 3705,
    "▁چراغ": 3706,
    "▁متعهد": 3707,
    "ماهی": 3708,
    "▁رولز": 3709,
    "▁رصد": 3710,
    "▁نادرست": 3711,
    "▁همسایه": 3712,
    "▁فرونشست": 3713,
    "▁فیلتر": 3714,
    "▁منتف": 3715,
    "▁ژوز": 3716,
    "▁اندازد": 3717,
    "▁تفاهم": 3718,
    "▁سیاستمداران": 3719,
    "▁صعودی": 3720,
    "▁اح": 3721,
    "▁امشب": 3722,
    "▁۱۳۸": 3723,
    "▁رانندگی": 3724,
    "▁خشکسالی": 3725,
    "▁پیشگیر": 3726,
    "▁توضیحات": 3727,
    "▁نت": 3728,
    "▁گیاهان": 3729,
    "▁شکار": 3730,
    "▁سازد": 3731,
    "▁آگ": 3732,
    "▁شور": 3733,
    "▁اعضا": 3734,
    "▁انتقادهای": 3735,
    "دوف": 3736,
    "▁مغاز": 3737,
    "▁آمدند": 3738,
    "▁نامزدها": 3739,
    "▁آرا": 3740,
    "▁شهردار": 3741,
    "لف": 3742,
    "یون": 3743,
    "▁درس": 3744,
    "▁چیزهای": 3745,
    "اسل": 3746,
    "تیک": 3747,
    "کت": 3748,
    "کسی": 3749,
    "▁حیاتی": 3750,
    "عه": 3751,
    "▁شمسی": 3752,
    "▁۱۹۴": 3753,
    "▁سیام": 3754,
    "▁نمود": 3755,
    "▁شه": 3756,
    "▁ناب": 3757,
    "اج": 3758,
    "۶۰": 3759,
    "مراسم": 3760,
    "مسئولان": 3761,
    "▁کاست": 3762,
    "▁وب": 3763,
    "▁اله": 3764,
    "▁شدیدتر": 3765,
    "▁سیزدهم": 3766,
    "ادا": 3767,
    "سیتی": 3768,
    "▁فضانورد": 3769,
    "▁کتی": 3770,
    "سپاری": 3771,
    "▁شاهکار": 3772,
    "▁دم": 3773,
    "▁تعقیب": 3774,
    "▁عضلا": 3775,
    "▁خسارات": 3776,
    "▁بیفتد": 3777,
    "▁دروغ": 3778,
    "▁یهودی": 3779,
    "▁لالیگا": 3780,
    "▁انبوه": 3781,
    "▁خیانت": 3782,
    "▁تضمین": 3783,
    "▁تالار": 3784,
    "▁بگویم": 3785,
    "▁اسپرت": 3786,
    "▁لاریجان": 3787,
    "▁سایبری": 3788,
    "▁اکسید": 3789,
    "▁تکلیف": 3790,
    "▁فجر": 3791,
    "▁عنکبوت": 3792,
    "▁مهرماه": 3793,
    "▁کووید۱۹": 3794,
    "▁مصون": 3795,
    "▁الحسن": 3796,
    "▁ارزشمند": 3797,
    "▁ناپدید": 3798,
    "▁بزوس": 3799,
    "▁طرفدار": 3800,
    "▁دپ": 3801,
    "▁متناسب": 3802,
    "▁تندرو": 3803,
    "▁جهاد": 3804,
    "▁بیروت": 3805,
    "▁جاشوا": 3806,
    "▁۱۹۷": 3807,
    "▁مبادلات": 3808,
    "ژ": 3809,
    "▁انصاریان": 3810,
    "▁نظم": 3811,
    "▁مداوم": 3812,
    "▁مرتب": 3813,
    "▁جزییات": 3814,
    "▁۲۰۰۴": 3815,
    "▁صلاح": 3816,
    "▁کنزو": 3817,
    "تلاف": 3818,
    "سم": 3819,
    "اقد": 3820,
    "▁فرانک": 3821,
    "▁نوزدهم": 3822,
    "▁خوا": 3823,
    "▁تقابل": 3824,
    "▁خند": 3825,
    "▁پایدار": 3826,
    "▁اوین": 3827,
    "▁پیرو": 3828,
    "▁آرامکو": 3829,
    "▁جبه": 3830,
    "▁نهاده": 3831,
    "▁رویس": 3832,
    "▁ماز": 3833,
    "▁زیستی": 3834,
    "▁روستا": 3835,
    "▁خواهر": 3836,
    "▁کشم": 3837,
    "▁ترور": 3838,
    "▁انگل": 3839,
    "▁شناسان": 3840,
    "▁کش": 3841,
    "▁بها": 3842,
    "▁پناهندگ": 3843,
    "لوله": 3844,
    "ناک": 3845,
    "▁درانی": 3846,
    "▁هواپیماهای": 3847,
    "▁گرفتار": 3848,
    "▁سرا": 3849,
    "لور": 3850,
    "▁دوحه": 3851,
    "▁لوان": 3852,
    "▁کاوا": 3853,
    "مپ": 3854,
    "▁ظهر": 3855,
    "▁ماهیگیر": 3856,
    "▁مادران": 3857,
    "▁مسیحی": 3858,
    "موند": 3859,
    "▁کوچکتر": 3860,
    "▁مهمان": 3861,
    "▁تای": 3862,
    "▁زو": 3863,
    "▁نس": 3864,
    "▁یکسال": 3865,
    "▁صحن": 3866,
    "بانی": 3867,
    "▁تار": 3868,
    "ایتون": 3869,
    "▁دهان": 3870,
    "▁۱۹۳": 3871,
    "▁سینماها": 3872,
    "▁جف": 3873,
    "▁علیر": 3874,
    "▁آمریکاست": 3875,
    "▁الکس": 3876,
    "▁همگ": 3877,
    "رستان": 3878,
    "▁پلی": 3879,
    "▁نیما": 3880,
    "▁پوری": 3881,
    "▁سید": 3882,
    "▁داروهای": 3883,
    "▁اکس": 3884,
    "صورت": 3885,
    "مارک": 3886,
    "▁یکصد": 3887,
    "عی": 3888,
    "وجود": 3889,
    "مرکز": 3890,
    "گاهی": 3891,
    "بعد": 3892,
    "پژوهشگران": 3893,
    "▁کپ": 3894,
    "پرس": 3895,
    "اتحاد": 3896,
    "جانب": 3897,
    "▁خرابکار": 3898,
    "دادگاه": 3899,
    "انس": 3900,
    "▁تام": 3901,
    "▁کپی": 3902,
    "حالا": 3903,
    "▁شل": 3904,
    "▁سرف": 3905,
    "لم": 3906,
    "سو": 3907,
    "▁تلف": 3908,
    "▁ماس": 3909,
    "▁کو": 3910,
    "▁سون": 3911,
    "بند": 3912,
    "جایی": 3913,
    "▁اختلا": 3914,
    "▁تاز": 3915,
    "▁مکزیک": 3916,
    "▁ژن": 3917,
    "▁سحر": 3918,
    "▁مقدم": 3919,
    "▁فرج": 3920,
    "▁آغداشلو": 3921,
    "▁بفروشد": 3922,
    "▁تدابیر": 3923,
    "▁سامسونگ": 3924,
    "▁وقایع": 3925,
    "▁اعتقاد": 3926,
    "▁بلوچ": 3927,
    "▁فروپاشی": 3928,
    "▁سیگار": 3929,
    "▁نشیب": 3930,
    "▁برگردد": 3931,
    "▁تدوین": 3932,
    "▁فدرال": 3933,
    "▁ببیند": 3934,
    "▁مکرر": 3935,
    "▁مسافت": 3936,
    "▁مسایل": 3937,
    "▁انقراض": 3938,
    "▁ابهام": 3939,
    "▁زغال": 3940,
    "▁بختیار": 3941,
    "▁کابین": 3942,
    "▁درآورد": 3943,
    "▁دماوند": 3944,
    "▁تقدی": 3945,
    "▁سرتیپ": 3946,
    "▁همسان": 3947,
    "▁غیاب": 3948,
    "▁استرازنکا": 3949,
    "▁بوشهر": 3950,
    "▁ببینند": 3951,
    "▁اکتشاف": 3952,
    "▁زنجان": 3953,
    "▁دستاوردهای": 3954,
    "▁همرسان": 3955,
    "▁ترافیک": 3956,
    "▁دعوا": 3957,
    "▁کریسمس": 3958,
    "▁ضایع": 3959,
    "▁سادات": 3960,
    "▁صحیح": 3961,
    "▁کیانوش": 3962,
    "▁چوب": 3963,
    "▁تیرماه": 3964,
    "▁موازی": 3965,
    "▁تخلفات": 3966,
    "▁الکل": 3967,
    "▁استعفای": 3968,
    "▁۶۸": 3969,
    "▁سگ": 3970,
    "▁منچستریونایتد": 3971,
    "▁محبوبیت": 3972,
    "▁پیشرفته": 3973,
    "▁پیر": 3974,
    "▁رضایت": 3975,
    "انصراف": 3976,
    "▁کادی": 3977,
    "▁روبرت": 3978,
    "▁شوید": 3979,
    "▁جنایت": 3980,
    "▁کاربرد": 3981,
    "▁نوید": 3982,
    "▁همینطور": 3983,
    "▁مهاجران": 3984,
    "▁رادیویی": 3985,
    "▁صفحات": 3986,
    "▁دهک": 3987,
    "▁درختان": 3988,
    "▁وحید": 3989,
    "▁گلف": 3990,
    "▁نکردند": 3991,
    "▁شانزدهم": 3992,
    "▁شون": 3993,
    "▁فیلمبردار": 3994,
    "▁مبنای": 3995,
    "▁قوس": 3996,
    "▁گروگانگیر": 3997,
    "نوایی": 3998,
    "رشاد": 3999,
    "▁داشتیم": 4000,
    "▁اصول": 4001,
    "شنگ": 4002,
    "شماری": 4003,
    "▁کردستان": 4004,
    "▁وزرای": 4005,
    "قه": 4006,
    "کور": 4007,
    "▁سختگیر": 4008,
    "▁باستان": 4009,
    "▁مکانی": 4010,
    "▁صالحی": 4011,
    "▁شیرین": 4012,
    "▁شار": 4013,
    "ایح": 4014,
    "▁هروی": 4015,
    "▁۶۲": 4016,
    "▁نداد": 4017,
    "▁گرای": 4018,
    "▁ثروتمندتر": 4019,
    "قص": 4020,
    "▁۸۲": 4021,
    "▁شی": 4022,
    "▁معیشتی": 4023,
    "▁عمو": 4024,
    "مص": 4025,
    "دیگر": 4026,
    "▁بینیم": 4027,
    "رسی": 4028,
    "▁بوق": 4029,
    "رقابت": 4030,
    "▁برزیلی": 4031,
    "لت": 4032,
    "شاید": 4033,
    "▁بناها": 4034,
    "ساب": 4035,
    "سلیم": 4036,
    "وش": 4037,
    "▁آلن": 4038,
    "برنامه": 4039,
    "▁تسلی": 4040,
    "▁مری": 4041,
    "▁مرگش": 4042,
    "▁اهدای": 4043,
    "▁اظهارنظر": 4044,
    "▁کمربند": 4045,
    "▁موکو": 4046,
    "▁دوج": 4047,
    "▁زبا": 4048,
    "شیبا": 4049,
    "▁مکتوب": 4050,
    "▁نوشیدن": 4051,
    "▁کارداشیان": 4052,
    "▁المستقبل": 4053,
    "▁معدود": 4054,
    "▁اوباما": 4055,
    "▁ثانوی": 4056,
    "▁ندارم": 4057,
    "▁رفاه": 4058,
    "گراندپری": 4059,
    "▁محاکم": 4060,
    "▁ماندگار": 4061,
    "▁آسمایی": 4062,
    "▁شوهر": 4063,
    "▁کامیون": 4064,
    "▁مرجع": 4065,
    "▁تایلند": 4066,
    "▁آشوری": 4067,
    "▁ناچار": 4068,
    "▁بندرعباس": 4069,
    "▁ساویز": 4070,
    "▁مختل": 4071,
    "▁ناامید": 4072,
    "▁مارچ": 4073,
    "▁متنوع": 4074,
    "وداع": 4075,
    "▁۱۳۹۶": 4076,
    "▁مداخل": 4077,
    "مجانی": 4078,
    "▁معارف": 4079,
    "▁توجیه": 4080,
    "جوبی": 4081,
    "▁مواضع": 4082,
    "▁برانکو": 4083,
    "▁استراتژی": 4084,
    "اشا": 4085,
    "▁خارا": 4086,
    "▁کشتار": 4087,
    "▁تکنولوژی": 4088,
    "▁شیمی": 4089,
    "▁۱۳۴": 4090,
    "▁حباب": 4091,
    "▁خرسند": 4092,
    "▁قم": 4093,
    "▁تعادل": 4094,
    "تراشه": 4095,
    "▁سکوت": 4096,
    "▁عصب": 4097,
    "▁تونس": 4098,
    "▁اسپوت": 4099,
    "▁داریوش": 4100,
    "▁کمرنگ": 4101,
    "▁۴۷": 4102,
    "▁کول": 4103,
    "▁۶۴": 4104,
    "▁برنز": 4105,
    "▁دشمنان": 4106,
    "▁کیست": 4107,
    "▁دهید": 4108,
    "▁تعجب": 4109,
    "▁کشند": 4110,
    "▁قبال": 4111,
    "صخره": 4112,
    "▁هفدهم": 4113,
    "▁کاردن": 4114,
    "▁اشیا": 4115,
    "▁خال": 4116,
    "۱۳": 4117,
    "▁زیبا": 4118,
    "▁خریداران": 4119,
    "▁روزمر": 4120,
    "▁ادعاهای": 4121,
    "▁ریچارد": 4122,
    "سن": 4123,
    "▁عی": 4124,
    "▁ارت": 4125,
    "▁جانور": 4126,
    "▁واسط": 4127,
    "▁شبه": 4128,
    "▁آقا": 4129,
    "▁برجا": 4130,
    "▁همانند": 4131,
    "عان": 4132,
    "▁ببر": 4133,
    "▁حکمتی": 4134,
    "▁نوشتن": 4135,
    "▁مرم": 4136,
    "▁تحقیقی": 4137,
    "بچه": 4138,
    "▁حدی": 4139,
    "▁ناآرامی": 4140,
    "جد": 4141,
    "▁آفریقایی": 4142,
    "▁خدا": 4143,
    "▁ادب": 4144,
    "بدا": 4145,
    "لاق": 4146,
    "▁سام": 4147,
    "▁کنیا": 4148,
    "وارد": 4149,
    "▁سول": 4150,
    "▁راستی": 4151,
    "▁انیس": 4152,
    "▁منج": 4153,
    "زاک": 4154,
    "▁پسرش": 4155,
    "بهم": 4156,
    "▁پولی": 4157,
    "هرانا": 4158,
    "▁عزیزی": 4159,
    "▁کارگردانان": 4160,
    "▁شهیدی": 4161,
    "▁دخترش": 4162,
    "▁جرد": 4163,
    "▁گال": 4164,
    "لتیک": 4165,
    "▁۷۸": 4166,
    "▁برادرش": 4167,
    "▁نوار": 4168,
    "▁سامان": 4169,
    "بازار": 4170,
    "محققان": 4171,
    "گفتگو": 4172,
    "لیورپول": 4173,
    "باشگاه": 4174,
    "فصل": 4175,
    "مدت": 4176,
    "علیرضا": 4177,
    "هدف": 4178,
    "▁تعهداتش": 4179,
    "آمیز": 4180,
    "شدت": 4181,
    "▁آرای": 4182,
    "چهار": 4183,
    "دور": 4184,
    "▁۱۹۰": 4185,
    "▁ملا": 4186,
    "▁عبد": 4187,
    "گبا": 4188,
    "بست": 4189,
    "▁معیار": 4190,
    "▁مقر": 4191,
    "▁خراب": 4192,
    "▁خرس": 4193,
    "▁تحقیر": 4194,
    "▁بنگلادش": 4195,
    "▁تخفیف": 4196,
    "▁گشود": 4197,
    "▁بگوییم": 4198,
    "▁مقصر": 4199,
    "▁وصل": 4200,
    "▁خفیف": 4201,
    "▁خزر": 4202,
    "▁سکونت": 4203,
    "▁خیال": 4204,
    "▁آموزگار": 4205,
    "▁تأیید": 4206,
    "▁نزول": 4207,
    "▁سوگوار": 4208,
    "▁منفجر": 4209,
    "▁پیشتاز": 4210,
    "▁خوست": 4211,
    "▁ترسناک": 4212,
    "▁احتیاط": 4213,
    "▁خوشنام": 4214,
    "▁سردبیر": 4215,
    "▁پراید": 4216,
    "زیگ": 4217,
    "فلاتو": 4218,
    "▁۱۹۹۰": 4219,
    "▁مزرعه": 4220,
    "▁ناتوان": 4221,
    "▁۱۹۹۸": 4222,
    "قدس": 4223,
    "▁مدرک": 4224,
    "▁کلینیک": 4225,
    "▁سنبل": 4226,
    "▁هشتگ": 4227,
    "تاسف": 4228,
    "▁۲۰۳۰": 4229,
    "▁توخل": 4230,
    "▁زیستگاه": 4231,
    "▁حداد": 4232,
    "▁دیدگاه": 4233,
    "▁کلود": 4234,
    "▁ذی": 4235,
    "▁شایعات": 4236,
    "▁تسهیلات": 4237,
    "▁نکات": 4238,
    "▁کیهان": 4239,
    "▁بلوم": 4240,
    "▁اضطراب": 4241,
    "▁تسلیت": 4242,
    "▁تحصیلات": 4243,
    "▁گرایش": 4244,
    "▁پناهجویان": 4245,
    "▁شانه": 4246,
    "▁گردند": 4247,
    "▁بقایای": 4248,
    "▁دارید": 4249,
    "▁آگاهی": 4250,
    "▁موجودات": 4251,
    "▁جست": 4252,
    "▁سربازان": 4253,
    "▁۱۹۵": 4254,
    "▁رایج": 4255,
    "▁بافت": 4256,
    "▁گذارند": 4257,
    "قریب": 4258,
    "▁کاوه": 4259,
    "▁مایل": 4260,
    "▁کلام": 4261,
    "▁نیا": 4262,
    "نشین": 4263,
    "▁انتقالات": 4264,
    "▁سفی": 4265,
    "▁هکرها": 4266,
    "▁کوبا": 4267,
    "▁قطعات": 4268,
    "▁انتقادات": 4269,
    "▁تقویم": 4270,
    "▁یکسان": 4271,
    "▁سیزده": 4272,
    "عشی": 4273,
    "▁شاپو": 4274,
    "زم": 4275,
    "▁جنس": 4276,
    "▁رخت": 4277,
    "▁عالمی": 4278,
    "▁شادی": 4279,
    "▁۵۳": 4280,
    "▁قض": 4281,
    "▁بمب": 4282,
    "▁قراردادهای": 4283,
    "▁رزم": 4284,
    "▁منصور": 4285,
    "▁تصمیمات": 4286,
    "▁تاریک": 4287,
    "▁تابلو": 4288,
    "یمی": 4289,
    "▁الگوی": 4290,
    "باز": 4291,
    "▁پروازها": 4292,
    "▁فلیک": 4293,
    "▁عکسی": 4294,
    "▁ماری": 4295,
    "▁شریف": 4296,
    "▁لوکا": 4297,
    "▁خودروی": 4298,
    "▁برداشتن": 4299,
    "▁غم": 4300,
    "▁پژو": 4301,
    "داوم": 4302,
    "شاه": 4303,
    "▁جلالی": 4304,
    "▁خطای": 4305,
    "▁۴۱": 4306,
    "▁مغ": 4307,
    "▁رکوردهای": 4308,
    "پر": 4309,
    "بویایی": 4310,
    "▁مالکان": 4311,
    "▁پاد": 4312,
    "مدیر": 4313,
    "اف": 4314,
    "۷۰": 4315,
    "▁نیافت": 4316,
    "خاطر": 4317,
    "▁درخش": 4318,
    "▁سطو": 4319,
    "واسط": 4320,
    "تولید": 4321,
    "علاو": 4322,
    "▁نوآور": 4323,
    "شیوع": 4324,
    "پینگ": 4325,
    "زیه": 4326,
    "دهنده": 4327,
    "▁استاین": 4328,
    "▁انتخابی": 4329,
    "ابلو": 4330,
    "▁لیگا": 4331,
    "▁برف": 4332,
    "▁انگشت": 4333,
    "▁پارس": 4334,
    "▁همتای": 4335,
    "مرگ": 4336,
    "▁سانتریفیوژ": 4337,
    "ویچ": 4338,
    "حقق": 4339,
    "پرها": 4340,
    "▁قبر": 4341,
    "رشد": 4342,
    "▁مشکات": 4343,
    "▁رمزارز": 4344,
    "▁گابریل": 4345,
    "▁اتوبوس": 4346,
    "▁اشتراک": 4347,
    "▁تورنتو": 4348,
    "▁صداوسیما": 4349,
    "▁قائدی": 4350,
    "▁وحدت": 4351,
    "▁پیرامون": 4352,
    "▁طعم": 4353,
    "▁بفتا": 4354,
    "▁نوبخت": 4355,
    "▁مظاهری": 4356,
    "▁تمدن": 4357,
    "▁پاکبان": 4358,
    "▁آپارتمان": 4359,
    "▁ناشناخت": 4360,
    "▁بگیرید": 4361,
    "▁محض": 4362,
    "▁آرشیو": 4363,
    "▁جابجا": 4364,
    "▁بپردازد": 4365,
    "▁اتکا": 4366,
    "▁بگیریم": 4367,
    "هنورد": 4368,
    "▁پایبند": 4369,
    "خیم": 4370,
    "▁فرایند": 4371,
    "▁ویرجی": 4372,
    "▁۱۳۹۵": 4373,
    "▁بمانند": 4374,
    "▁سالیوان": 4375,
    "▁لامبورگینی": 4376,
    "▁دانشکد": 4377,
    "▁خزان": 4378,
    "▁کوهستان": 4379,
    "▁مقرر": 4380,
    "▁۱۹۴۰": 4381,
    "▁تجلی": 4382,
    "▁نشت": 4383,
    "▁حجاب": 4384,
    "▁مخدر": 4385,
    "▁استونز": 4386,
    "▁۱۴۰": 4387,
    "▁مرتضی": 4388,
    "▁آغوش": 4389,
    "▁عقرب": 4390,
    "▁حساسیت": 4391,
    "یویا": 4392,
    "▁ببرند": 4393,
    "▁قفس": 4394,
    "▁بخواهی": 4395,
    "▁رول": 4396,
    "▁اسحاق": 4397,
    "▁جمشید": 4398,
    "▁قند": 4399,
    "▁بولت": 4400,
    "▁تدری": 4401,
    "▁کج": 4402,
    "▁بازارها": 4403,
    "▁شناسند": 4404,
    "▁جنای": 4405,
    "▁عقل": 4406,
    "شیر": 4407,
    "▁مردگان": 4408,
    "۲۳": 4409,
    "▁پاهای": 4410,
    "▁رفتارهای": 4411,
    "▁دنیاست": 4412,
    "تری": 4413,
    "▁ضربات": 4414,
    "▁رایزن": 4415,
    "▁جوز": 4416,
    "▁گذاشتند": 4417,
    "▁تیک": 4418,
    "▁سیر": 4419,
    "نو": 4420,
    "▁آبادی": 4421,
    "گو": 4422,
    "▁تروی": 4423,
    "▁عمران": 4424,
    "▁برگ": 4425,
    "ایدو": 4426,
    "▁پیشرو": 4427,
    "▁گزارشگران": 4428,
    "▁جاهای": 4429,
    "▁دنی": 4430,
    "سیویر": 4431,
    "▁ایا": 4432,
    "▁نمادهای": 4433,
    "▁۸۱": 4434,
    "▁خالص": 4435,
    "کسین": 4436,
    "▁نق": 4437,
    "▁لم": 4438,
    "▁بل": 4439,
    "▁معیشت": 4440,
    "▁منطق": 4441,
    "▁شهید": 4442,
    "▁کارفرمای": 4443,
    "▁اجبار": 4444,
    "گرفته": 4445,
    "▁کمدی": 4446,
    "لپ": 4447,
    "هام": 4448,
    "راتی": 4449,
    "رسون": 4450,
    "▁کیت": 4451,
    "▁مهل": 4452,
    "▁آفرین": 4453,
    "اع": 4454,
    "▁مهمتر": 4455,
    "▁قومی": 4456,
    "گن": 4457,
    "ندگان": 4458,
    "▁بلی": 4459,
    "▁نرسید": 4460,
    "نش": 4461,
    "▁قش": 4462,
    "▁ریاضی": 4463,
    "وله": 4464,
    "▁نظرات": 4465,
    "▁۷۲": 4466,
    "▁بیل": 4467,
    "ملو": 4468,
    "▁الی": 4469,
    "▁منظر": 4470,
    "وح": 4471,
    "بع": 4472,
    "▁آثارش": 4473,
    "▁چشمان": 4474,
    "والی": 4475,
    "▁۷۶": 4476,
    "▁شع": 4477,
    "▁کاغذ": 4478,
    "تحول": 4479,
    "▁بارز": 4480,
    "خانواده": 4481,
    "▁کنو": 4482,
    "بومی": 4483,
    "ناظر": 4484,
    "الدین": 4485,
    "▁واحدها": 4486,
    "▁درج": 4487,
    "سخ": 4488,
    "▁تثب": 4489,
    "درصد": 4490,
    "امیر": 4491,
    "▁فروشی": 4492,
    "▁هوادار": 4493,
    "کوبی": 4494,
    "▁بور": 4495,
    "یع": 4496,
    "▁صدم": 4497,
    "▁دورت": 4498,
    "▁کوچکی": 4499,
    "جیب": 4500,
    "سئول": 4501,
    "▁معما": 4502,
    "غه": 4503,
    "▁چار": 4504,
    "▁سوئ": 4505,
    "لوت": 4506,
    "▁گارد": 4507,
    "▁مأمور": 4508,
    "▁اسرار": 4509,
    "دغدغه": 4510,
    "▁فزاینده": 4511,
    "▁مایکروسافت": 4512,
    "▁ناقض": 4513,
    "▁واضح": 4514,
    "▁پرطرفدار": 4515,
    "▁گلمکانی": 4516,
    "▁یونسکو": 4517,
    "▁اپیدمی": 4518,
    "▁غفوری": 4519,
    "▁ابتکار": 4520,
    "▁شباهت": 4521,
    "▁بکشند": 4522,
    "▁تبادل": 4523,
    "▁وحشتناک": 4524,
    "▁فلج": 4525,
    "▁سعد": 4526,
    "▁برآمد": 4527,
    "▁سوپرلیگ": 4528,
    "▁متاثر": 4529,
    "▁لگن": 4530,
    "▁سارس": 4531,
    "▁توفان": 4532,
    "▁گلایه": 4533,
    "▁راپینو": 4534,
    "▁پشتیبان": 4535,
    "▁تشری": 4536,
    "▁ترانزیت": 4537,
    "▁وفادار": 4538,
    "▁تعبیر": 4539,
    "▁پورتو": 4540,
    "▁زودهنگام": 4541,
    "▁آشام": 4542,
    "▁هستید": 4543,
    "نظرسنجی": 4544,
    "▁زهره": 4545,
    "▁محکم": 4546,
    "▁پرستاران": 4547,
    "▁بنکسی": 4548,
    "▁امواج": 4549,
    "▁عاشقانه": 4550,
    "▁نوازند": 4551,
    "▁مخصوصا": 4552,
    "▁گودال": 4553,
    "▁مارتین": 4554,
    "▁عج": 4555,
    "▁فای": 4556,
    "▁پائی": 4557,
    "▁معاش": 4558,
    "▁فیس": 4559,
    "▁دهلی": 4560,
    "احی": 4561,
    "▁شناسد": 4562,
    "▁بت": 4563,
    "▁فضانوردان": 4564,
    "کیو": 4565,
    "۴۶": 4566,
    "▁نیش": 4567,
    "▁سیم": 4568,
    "▁گیل": 4569,
    "لاند": 4570,
    "چین": 4571,
    "▁روال": 4572,
    "▁نداشتن": 4573,
    "▁دهندگان": 4574,
    "سلسل": 4575,
    "▁خواندند": 4576,
    "▁نداشتم": 4577,
    "ستگی": 4578,
    "▁زایی": 4579,
    "▁ندیده": 4580,
    "▁افتادن": 4581,
    "▁لیست": 4582,
    "▁گویی": 4583,
    "▁بلوک": 4584,
    "▁نسبتا": 4585,
    "▁دوازدهم": 4586,
    "▁پرت": 4587,
    "▁احمدشا": 4588,
    "نصف": 4589,
    "لندر": 4590,
    "▁کلا": 4591,
    "▁۹۴": 4592,
    "▁چال": 4593,
    "ریت": 4594,
    "▁حاجی": 4595,
    "▁تهدیدهای": 4596,
    "▁رسم": 4597,
    "▁کلاهبردار": 4598,
    "▁بوتا": 4599,
    "رود": 4600,
    "▁کاریر": 4601,
    "▁زم": 4602,
    "▁ریزش": 4603,
    "▁هلی": 4604,
    "▁دا": 4605,
    "▁نویی": 4606,
    "▁ویلا": 4607,
    "▁دارا": 4608,
    "آمار": 4609,
    "▁یافتند": 4610,
    "▁اکرا": 4611,
    "▁تش": 4612,
    "▁نجف": 4613,
    "▁استودیو": 4614,
    "▁ویدئو": 4615,
    "▁انجامید": 4616,
    "▁استثنا": 4617,
    "▁تحرک": 4618,
    "▁کلان": 4619,
    "۱۵": 4620,
    "▁شهریار": 4621,
    "جاست": 4622,
    "▁شمس": 4623,
    "▁سوگ": 4624,
    "▁شغلی": 4625,
    "▁تاکتیکی": 4626,
    "▁سرگرمی": 4627,
    "▁آرزوی": 4628,
    "▁خالق": 4629,
    "برید": 4630,
    "▁شمارش": 4631,
    "▁قف": 4632,
    "وفر": 4633,
    "نز": 4634,
    "▁داروها": 4635,
    "▁معنا": 4636,
    "کید": 4637,
    "درفتار": 4638,
    "▁ماریا": 4639,
    "▁نزدیکان": 4640,
    "▁قرمزها": 4641,
    "▁یور": 4642,
    "ولی": 4643,
    "تکب": 4644,
    "▁محدودیتها": 4645,
    "▁ذهنی": 4646,
    "بدترین": 4647,
    "▁بازو": 4648,
    "نک": 4649,
    "سفر": 4650,
    "▁راد": 4651,
    "▁بریت": 4652,
    "▁پرآ": 4653,
    "▁قطبی": 4654,
    "دایی": 4655,
    "▁وجو": 4656,
    "▁گا": 4657,
    "▁تاریکی": 4658,
    "▁۸۶": 4659,
    "▁۶۱": 4660,
    "▁درخشانی": 4661,
    "کمیت": 4662,
    "▁میرزا": 4663,
    "▁دوازده": 4664,
    "سیا": 4665,
    "▁نگرفت": 4666,
    "بریج": 4667,
    "کره": 4668,
    "▁کین": 4669,
    "سوزی": 4670,
    "هادی": 4671,
    "انتظار": 4672,
    "منابع": 4673,
    "نمایندگان": 4674,
    "▁دال": 4675,
    "▁۳۵۰": 4676,
    "▁شهرک": 4677,
    "ترا": 4678,
    "اش": 4679,
    "▁آزمو": 4680,
    "تنها": 4681,
    "زا": 4682,
    "رالله": 4683,
    "▁شرم": 4684,
    "▁حو": 4685,
    "▁وا": 4686,
    "▁دوید": 4687,
    "▁۸۵": 4688,
    "▁مباد": 4689,
    "▁۵۴": 4690,
    "▁خم": 4691,
    "۴۰": 4692,
    "▁دشمن": 4693,
    "▁شنیدن": 4694,
    "▁معلم": 4695,
    "▁پیمانکار": 4696,
    "فرج": 4697,
    "▁فیلیپ": 4698,
    "▁گوگ": 4699,
    "▁بانکها": 4700,
    "▁دستاورد": 4701,
    "کارآمد": 4702,
    "نوردی": 4703,
    "▁مصدوم": 4704,
    "▁کولبر": 4705,
    "▁لرز": 4706,
    "▁معاف": 4707,
    "▁پالایش": 4708,
    "▁اشکال": 4709,
    "علت": 4710,
    "▁استون": 4711,
    "ناشناس": 4712,
    "▁اثبات": 4713,
    "▁الانبیا": 4714,
    "▁باورنکردنی": 4715,
    "▁بوچانی": 4716,
    "▁جامائیکا": 4717,
    "▁دژپسند": 4718,
    "▁غرامت": 4719,
    "▁پنگوئن": 4720,
    "▁پوچتینو": 4721,
    "▁زریاب": 4722,
    "▁محترم": 4723,
    "▁پلامر": 4724,
    "▁ببینیم": 4725,
    "▁کالبد": 4726,
    "▁بیاورد": 4727,
    "▁استعمار": 4728,
    "▁وروورت": 4729,
    "▁رولزرویس": 4730,
    "▁ارجاع": 4731,
    "▁آسوشیتد": 4732,
    "ضعف": 4733,
    "▁جرایم": 4734,
    "▁والیبال": 4735,
    "▁اتصال": 4736,
    "▁بلاروس": 4737,
    "▁مطلوب": 4738,
    "▁جلد": 4739,
    "▁قزاقستان": 4740,
    "▁اعتنا": 4741,
    "▁مسترز": 4742,
    "▁تبعید": 4743,
    "▁تایتان": 4744,
    "▁بردارد": 4745,
    "▁مکمل": 4746,
    "▁نارضای": 4747,
    "▁گردانند": 4748,
    "لژی": 4749,
    "▁احکام": 4750,
    "▁تکنیک": 4751,
    "▁انستیتو": 4752,
    "▁اعتیاد": 4753,
    "▁زحمت": 4754,
    "فون": 4755,
    "▁عزم": 4756,
    "▁۱۹۸۰": 4757,
    "▁بدانند": 4758,
    "▁اردوگاه": 4759,
    "فینیتی": 4760,
    "▁الزام": 4761,
    "▁بوکسور": 4762,
    "▁تنوع": 4763,
    "▁مخفیانه": 4764,
    "▁ران": 4765,
    "▁آلزایمر": 4766,
    "رگس": 4767,
    "▁بوئین": 4768,
    "▁شمایل": 4769,
    "▁شوش": 4770,
    "فاد": 4771,
    "جیمزباند": 4772,
    "▁شوت": 4773,
    "▁مشت": 4774,
    "▁شعارهای": 4775,
    "▁قبرس": 4776,
    "▁حبیب": 4777,
    "▁کرایس": 4778,
    "▁گرمایش": 4779,
    "▁اقبال": 4780,
    "▁پناهجوی": 4781,
    "▁شیع": 4782,
    "▁فیلیپین": 4783,
    "▁پیتر": 4784,
    "▁آنتی": 4785,
    "غیب": 4786,
    "▁فلسطینی": 4787,
    "▁کرج": 4788,
    "▁فیروز": 4789,
    "▁نویسد": 4790,
    "▁معوقه": 4791,
    "▁گردش": 4792,
    "▁نمایشنامه": 4793,
    "▁تابعیت": 4794,
    "▁آرش": 4795,
    "▁شوخی": 4796,
    "آبادی": 4797,
    "▁برایم": 4798,
    "▁باختند": 4799,
    "مانع": 4800,
    "▁میز": 4801,
    "▁پرتر": 4802,
    "▁گزارشها": 4803,
    "▁بنیادی": 4804,
    "▁سلطانی": 4805,
    "جیغ": 4806,
    "مسی": 4807,
    "اطم": 4808,
    "▁خطرات": 4809,
    "ورا": 4810,
    "▁نوشتند": 4811,
    "بینی": 4812,
    "۹۱": 4813,
    "شنا": 4814,
    "ظن": 4815,
    "▁فال": 4816,
    "همه": 4817,
    "افت": 4818,
    "▁فضلی": 4819,
    "▁دیدارهای": 4820,
    "▁مهاجمان": 4821,
    "زنی": 4822,
    "▁استخوان": 4823,
    "نال": 4824,
    "روی": 4825,
    "▁دادیم": 4826,
    "▁گرمای": 4827,
    "▁بارداری": 4828,
    "▁شجاع": 4829,
    "نیا": 4830,
    "▁همکار": 4831,
    "شک": 4832,
    "▁فرض": 4833,
    "▁جلال": 4834,
    "دم": 4835,
    "▁عزیز": 4836,
    "▁گرین": 4837,
    "▁گره": 4838,
    "▁کودتای": 4839,
    "▁دادم": 4840,
    "▁کوش": 4841,
    "▁دادخواه": 4842,
    "▁زانوی": 4843,
    "▁۵۸": 4844,
    "▁موجودی": 4845,
    "مل": 4846,
    "یامک": 4847,
    "دخت": 4848,
    "▁دانشجویی": 4849,
    "▁جیل": 4850,
    "▁۶۵۰": 4851,
    "▁نیکلا": 4852,
    "بازی": 4853,
    "▁ار": 4854,
    "▁۱۷۶": 4855,
    "وازه": 4856,
    "ایند": 4857,
    "برد": 4858,
    "▁منصوری": 4859,
    "هز": 4860,
    "▁رش": 4861,
    "▁فرخ": 4862,
    "▁متیو": 4863,
    "شته": 4864,
    "▁۵۱": 4865,
    "یسون": 4866,
    "▁برگشته": 4867,
    "▁آلود": 4868,
    "▁بهانه": 4869,
    "پا": 4870,
    "خورده": 4871,
    "واشی": 4872,
    "▁دانشجوی": 4873,
    "▁پریش": 4874,
    "▁راکت": 4875,
    "▁۱۶۰": 4876,
    "محمدجواد": 4877,
    "کارشناسان": 4878,
    "پرسپولیس": 4879,
    "انتشار": 4880,
    "مجلس": 4881,
    "داستان": 4882,
    "موسس": 4883,
    "▁ایمان": 4884,
    "اگ": 4885,
    "کرونا": 4886,
    "هکرها": 4887,
    "▁نیازها": 4888,
    "اکبر": 4889,
    "رهبر": 4890,
    "گا": 4891,
    "قات": 4892,
    "عارض": 4893,
    "مسترد": 4894,
    "▁مض": 4895,
    "▁آرم": 4896,
    "▁انوش": 4897,
    "▁پناه": 4898,
    "▁سرنشین": 4899,
    "روزنامه": 4900,
    "خان": 4901,
    "▁یکبار": 4902,
    "▁خانوار": 4903,
    "▁مشوق": 4904,
    "▁ندانست": 4905,
    "▁رخداد": 4906,
    "▁صح": 4907,
    "▁تعمیر": 4908,
    "باب": 4909,
    "▁تخل": 4910,
    "تلسکوپ": 4911,
    "▁آلومینیوم": 4912,
    "▁بدخشان": 4913,
    "▁تصاحب": 4914,
    "▁جغرافیای": 4915,
    "▁رستگار": 4916,
    "▁سرتاسر": 4917,
    "▁لاجورد": 4918,
    "▁مستضعفان": 4919,
    "▁مشکوک": 4920,
    "▁نصیب": 4921,
    "▁تفکیک": 4922,
    "▁سنگاپور": 4923,
    "▁مسموم": 4924,
    "▁ورشکست": 4925,
    "رطوب": 4926,
    "▁قسط": 4927,
    "▁فطر": 4928,
    "▁برشمرد": 4929,
    "▁بنتلی": 4930,
    "▁حضرت": 4931,
    "▁دگرگون": 4932,
    "▁فحش": 4933,
    "▁بسیج": 4934,
    "▁خرچنگ": 4935,
    "▁متوفی": 4936,
    "▁سرماخورد": 4937,
    "▁آویو": 4938,
    "▁فشرد": 4939,
    "▁بوزمن": 4940,
    "▁خدایاری": 4941,
    "▁هواشناسی": 4942,
    "▁ندهد": 4943,
    "▁شرکا": 4944,
    "▁هرمز": 4945,
    "▁ارتقا": 4946,
    "▁کولمن": 4947,
    "▁ریل": 4948,
    "▁ریورا": 4949,
    "▁عارف": 4950,
    "▁دشت": 4951,
    "▁مکتب": 4952,
    "▁مخلو": 4953,
    "▁بهبهان": 4954,
    "▁پاسخگو": 4955,
    "▁توریست": 4956,
    "▁اشعار": 4957,
    "▁فریب": 4958,
    "ابق": 4959,
    "ائیل": 4960,
    "▁عسل": 4961,
    "▁نارس": 4962,
    "▁فروغ": 4963,
    "▁شفا": 4964,
    "▁ویزا": 4965,
    "▁غلط": 4966,
    "▁حاکمیت": 4967,
    "▁سیارک": 4968,
    "▁۱۹۶۰": 4969,
    "▁تلفات": 4970,
    "▁ارگ": 4971,
    "ایب": 4972,
    "▁اخلاق": 4973,
    "▁دایر": 4974,
    "▁بازنشستگی": 4975,
    "▁جیپ": 4976,
    "▁آرمان": 4977,
    "▁۲۰۰۱": 4978,
    "▁حتما": 4979,
    "▁رونالدینیو": 4980,
    "▁دیدیم": 4981,
    "▁ژاک": 4982,
    "▁لخت": 4983,
    "▁والدین": 4984,
    "▁تیموری": 4985,
    "▁زنگ": 4986,
    "▁چهاردهم": 4987,
    "▁اقتصاددان": 4988,
    "▁میهمان": 4989,
    "▁متروکه": 4990,
    "▁پیرلو": 4991,
    "▁ادارات": 4992,
    "▁تیل": 4993,
    "▁ناوگان": 4994,
    "▁بالگرد": 4995,
    "▁مواقع": 4996,
    "▁پویا": 4997,
    "▁سازه": 4998,
    "▁رانت": 4999,
    "کست": 5000,
    "▁کانادایی": 5001,
    "▁گرسنگ": 5002,
    "▁افق": 5003,
    "▁مستقیما": 5004,
    "▁مغول": 5005,
    "اژ": 5006,
    "▁شام": 5007,
    "ازاد": 5008,
    "پارد": 5009,
    "▁آبادان": 5010,
    "▁معط": 5011,
    "▁معاین": 5012,
    "پای": 5013,
    "▁هجدهم": 5014,
    "بخشی": 5015,
    "▁نیو": 5016,
    "▁گفتگوهای": 5017,
    "داران": 5018,
    "▁همر": 5019,
    "▁رساندند": 5020,
    "▁اعما": 5021,
    "▁دلال": 5022,
    "رکاب": 5023,
    "▁روم": 5024,
    "امین": 5025,
    "▁گلوب": 5026,
    "▁سردار": 5027,
    "▁مصل": 5028,
    "▁مرادی": 5029,
    "▁خد": 5030,
    "▁بورگ": 5031,
    "▁لحن": 5032,
    "▁اراد": 5033,
    "فع": 5034,
    "وخامت": 5035,
    "▁اصولگرای": 5036,
    "▁بازخوان": 5037,
    "▁پرتو": 5038,
    "▁تان": 5039,
    "▁ادوارد": 5040,
    "هدیه": 5041,
    "نم": 5042,
    "۲۰": 5043,
    "▁۸۷": 5044,
    "▁آنهاست": 5045,
    "تشکر": 5046,
    "۶۲": 5047,
    "أی": 5048,
    "تور": 5049,
    "▁وظایف": 5050,
    "خواهد": 5051,
    "سام": 5052,
    "▁گرگ": 5053,
    "بالغ": 5054,
    "▁نوا": 5055,
    "▁ژی": 5056,
    "رینگ": 5057,
    "▁ابلاغی": 5058,
    "باره": 5059,
    "▁وگوی": 5060,
    "▁اسپی": 5061,
    "▁قربان": 5062,
    "وستا": 5063,
    "▁شاهزاد": 5064,
    "▁وگوهای": 5065,
    "▁امپراتور": 5066,
    "▁امپراتوری": 5067,
    "▁استیون": 5068,
    "▁بدین": 5069,
    "▁هرکس": 5070,
    "کان": 5071,
    "▁۸۸": 5072,
    "▁جولی": 5073,
    "▁بم": 5074,
    "▁گذراندن": 5075,
    "▁ایندی": 5076,
    "▁پار": 5077,
    "▁گازی": 5078,
    "سرین": 5079,
    "هید": 5080,
    "نکور": 5081,
    "▁۸۹": 5082,
    "یلیون": 5083,
    "▁مول": 5084,
    "وب": 5085,
    "وویچ": 5086,
    "▁دینی": 5087,
    "▁مسیرها": 5088,
    "▁نما": 5089,
    "▁خوانند": 5090,
    "▁بطر": 5091,
    "▁منک": 5092,
    "▁رایان": 5093,
    "▁سب": 5094,
    "سابقه": 5095,
    "▁کینگ": 5096,
    "▁اکا": 5097,
    "▁گرفتم": 5098,
    "گذشت": 5099,
    "رچند": 5100,
    "پول": 5101,
    "▁رامی": 5102,
    "دوست": 5103,
    "ارو": 5104,
    "خون": 5105,
    "قرض": 5106,
    "ریچارد": 5107,
    "اسماعیل": 5108,
    "آنتونی": 5109,
    "کانادا": 5110,
    "راجر": 5111,
    "اخیرا": 5112,
    "▁شانزده": 5113,
    "فدرر": 5114,
    "اعضای": 5115,
    "واکنش": 5116,
    "آژانس": 5117,
    "انتخابات": 5118,
    "کرد": 5119,
    "خت": 5120,
    "فعالان": 5121,
    "صالح": 5122,
    "▁آندری": 5123,
    "زاب": 5124,
    "▁خبرها": 5125,
    "▁افتتاحی": 5126,
    "دریچ": 5127,
    "▁خشن": 5128,
    "▁عرف": 5129,
    "▁علاقمند": 5130,
    "▁نوزاد": 5131,
    "وایی": 5132,
    "▁فو": 5133,
    "تخا": 5134,
    "همچن": 5135,
    "مایک": 5136,
    "▁۱۷۰": 5137,
    "▁اپرای": 5138,
    "سلط": 5139,
    "▁پهپاد": 5140,
    "▁ژنو": 5141,
    "▁تسهیل": 5142,
    "۲۴": 5143,
    "▁پوشان": 5144,
    "مکعب": 5145,
    "▁رئوف": 5146,
    "▁اتیوپی": 5147,
    "▁تزئین": 5148,
    "▁دانچیچ": 5149,
    "▁چرنکوف": 5150,
    "▁کامبوج": 5151,
    "▁جاذبه": 5152,
    "▁اختراع": 5153,
    "▁مصیبت": 5154,
    "▁امتداد": 5155,
    "▁علایم": 5156,
    "▁ویتنام": 5157,
    "▁البرز": 5158,
    "▁طناب": 5159,
    "▁تعزیری": 5160,
    "▁زیارت": 5161,
    "▁مونتاژ": 5162,
    "▁نعمت": 5163,
    "▁عواقب": 5164,
    "▁مثلث": 5165,
    "▁خیام": 5166,
    "بالاحصار": 5167,
    "▁روشنفکر": 5168,
    "▁ذات": 5169,
    "▁غیبت": 5170,
    "▁گیگز": 5171,
    "▁جواهر": 5172,
    "▁بازنگری": 5173,
    "▁زیرساخت": 5174,
    "▁یادبود": 5175,
    "▁اعصاب": 5176,
    "▁چرب": 5177,
    "▁فروزش": 5178,
    "ارتاک": 5179,
    "▁سازندگان": 5180,
    "▁علوی": 5181,
    "▁آث": 5182,
    "▁جناح": 5183,
    "صداق": 5184,
    "▁وودز": 5185,
    "▁مرکل": 5186,
    "▁پاکستانی": 5187,
    "▁باشم": 5188,
    "▁پیچ": 5189,
    "▁پیشکسوت": 5190,
    "▁ژیمناست": 5191,
    "▁ماشه": 5192,
    "▁مساحت": 5193,
    "▁دورانگو": 5194,
    "ومبل": 5195,
    "▁غل": 5196,
    "▁دبیرستان": 5197,
    "▁شیفت": 5198,
    "▁شیلی": 5199,
    "حرفه": 5200,
    "▁بازگو": 5201,
    "▁مایع": 5202,
    "▁ژور": 5203,
    "▁رسن": 5204,
    "▁ابهامات": 5205,
    "شت": 5206,
    "▁تعویض": 5207,
    "▁انحصار": 5208,
    "۶۱": 5209,
    "▁لیتر": 5210,
    "▁کالای": 5211,
    "▁متحدان": 5212,
    "▁باختری": 5213,
    "▁ساری": 5214,
    "▁رامش": 5215,
    "▁نامجو": 5216,
    "▁فرق": 5217,
    "لماس": 5218,
    "▁ویدیوهای": 5219,
    "▁فابی": 5220,
    "▁حراست": 5221,
    "شیپ": 5222,
    "▁پذیرای": 5223,
    "▁روبروست": 5224,
    "▁عرفان": 5225,
    "▁مهندسی": 5226,
    "▁دن": 5227,
    "▁اپراتورها": 5228,
    "▁صریح": 5229,
    "▁کارتو": 5230,
    "▁رحمت": 5231,
    "▁انداختن": 5232,
    "▁تمرینات": 5233,
    "▁جنر": 5234,
    "▁گاو": 5235,
    "▁پارکر": 5236,
    "▁گیلان": 5237,
    "▁سرمای": 5238,
    "▁الیز": 5239,
    "▁مستندساز": 5240,
    "▁متخلفان": 5241,
    "▁فرزندش": 5242,
    "▁سانتریفیوژهای": 5243,
    "امضاکنندگان": 5244,
    "▁حفر": 5245,
    "کام": 5246,
    "▁ویدئوی": 5247,
    "▁یوو": 5248,
    "تاج": 5249,
    "▁خلیل": 5250,
    "خبر": 5251,
    "▁رس": 5252,
    "طرف": 5253,
    "زمن": 5254,
    "۹۹": 5255,
    "نج": 5256,
    "▁میلیاردر": 5257,
    "▁گرجستانی": 5258,
    "صدای": 5259,
    "▁بوئنو": 5260,
    "▁نگارش": 5261,
    "▁معاد": 5262,
    "▁نوجوانان": 5263,
    "▁ضر": 5264,
    "▁عکاسان": 5265,
    "▁یخی": 5266,
    "▁نمانده": 5267,
    "۱۷": 5268,
    "▁قان": 5269,
    "▁فوریت": 5270,
    "راق": 5271,
    "▁۹۳": 5272,
    "غی": 5273,
    "نما": 5274,
    "▁تابو": 5275,
    "▁جزای": 5276,
    "▁ولا": 5277,
    "▁اچ": 5278,
    "▁بقای": 5279,
    "▁غرو": 5280,
    "▁یگان": 5281,
    "ایف": 5282,
    "▁بدنش": 5283,
    "رایش": 5284,
    "ارمی": 5285,
    "▁جنی": 5286,
    "▁توس": 5287,
    "▁نرفت": 5288,
    "▁صاف": 5289,
    "▁یار": 5290,
    "▁سفارشی": 5291,
    "وکی": 5292,
    "▁بینید": 5293,
    "▁ریو": 5294,
    "▁تص": 5295,
    "▁استرس": 5296,
    "کسر": 5297,
    "گیل": 5298,
    "▁موسوی": 5299,
    "▁ساو": 5300,
    "باط": 5301,
    "▁مونت": 5302,
    "▁اد": 5303,
    "▁جهانبخ": 5304,
    "▁توفیق": 5305,
    "انکن": 5306,
    "بیه": 5307,
    "▁گردشگر": 5308,
    "▁میکروب": 5309,
    "خوان": 5310,
    "▁کودتا": 5311,
    "▁کان": 5312,
    "▁میلاد": 5313,
    "▁فق": 5314,
    "▁مسیح": 5315,
    "▁کیا": 5316,
    "بت": 5317,
    "اکثریت": 5318,
    "اراک": 5319,
    "رات": 5320,
    "▁سرور": 5321,
    "▁نیل": 5322,
    "▁نگفت": 5323,
    "▁خالقی": 5324,
    "▁رجب": 5325,
    "▁میکل": 5326,
    "▁بارور": 5327,
    "▁آشنای": 5328,
    "▁تندی": 5329,
    "▁درآمدها": 5330,
    "▁ریالی": 5331,
    "▁میلی": 5332,
    "▁فروشند": 5333,
    "▁برفی": 5334,
    "▁مقا": 5335,
    "▁اعتراضی": 5336,
    "▁بازیار": 5337,
    "▁بدوی": 5338,
    "▁بزو": 5339,
    "▁دیوانه": 5340,
    "▁نخ": 5341,
    "▁استاندارد": 5342,
    "▁کما": 5343,
    "مانده": 5344,
    "لیچ": 5345,
    "▁خل": 5346,
    "سنگ": 5347,
    "▁۳۲۰": 5348,
    "سوم": 5349,
    "شما": 5350,
    "▁رز": 5351,
    "▁نظرهای": 5352,
    "▁خر": 5353,
    "رخ": 5354,
    "زمان": 5355,
    "اشی": 5356,
    "پذیر": 5357,
    "▁پراکن": 5358,
    "▁سوری": 5359,
    "یونایتد": 5360,
    "همیلتون": 5361,
    "غلام": 5362,
    "ویکتور": 5363,
    "رافائل": 5364,
    "صندوق": 5365,
    "(": 5366,
    "دونالد": 5367,
    "آلمان": 5368,
    "روابط": 5369,
    "تحقیقات": 5370,
    "لیگ": 5371,
    "دلال": 5372,
    "بررسی": 5373,
    "چرا": 5374,
    "تهران": 5375,
    "▁مضر": 5376,
    "لقی": 5377,
    "تلاش": 5378,
    "▁مسن": 5379,
    "▁ایر": 5380,
    "▁تیره": 5381,
    "فتن": 5382,
    "▁سور": 5383,
    "▁سینو": 5384,
    "گشایی": 5385,
    "زده": 5386,
    "▁افکاری": 5387,
    "▁بیگ": 5388,
    "آمریکایی": 5389,
    "▁مال": 5390,
    "وحید": 5391,
    "▁گویا": 5392,
    "▁سرش": 5393,
    "سرعت": 5394,
    "یوب": 5395,
    "▁نویسندگ": 5396,
    "▁راهنمای": 5397,
    "▁آموز": 5398,
    "▁لاری": 5399,
    "▁متغیر": 5400,
    "▁گوف": 5401,
    "فیلد": 5402,
    "▁خلاق": 5403,
    "▁اقتدار": 5404,
    "▁لابراتوار": 5405,
    "▁بخرد": 5406,
    "▁جاپلقی": 5407,
    "▁دریابندری": 5408,
    "▁ملاحظ": 5409,
    "▁کرگدن": 5410,
    "▁الاجل": 5411,
    "▁بفروشند": 5412,
    "▁رمضان": 5413,
    "▁کالدرون": 5414,
    "▁معالج": 5415,
    "▁وگاس": 5416,
    "▁تکامل": 5417,
    "▁تضاد": 5418,
    "▁رژیم": 5419,
    "▁فخر": 5420,
    "▁جونیور": 5421,
    "▁خویش": 5422,
    "▁اشنویه": 5423,
    "گشاد": 5424,
    "▁معاهد": 5425,
    "▁کلانتری": 5426,
    "▁یخچال": 5427,
    "▁قضاوت": 5428,
    "▁گریبان": 5429,
    "▁گردنبند": 5430,
    "▁پاراگوئه": 5431,
    "▁آرتتا": 5432,
    "▁واریز": 5433,
    "پچو": 5434,
    "▁دوستداران": 5435,
    "ئرنیک": 5436,
    "▁موکل": 5437,
    "▁تنگنا": 5438,
    "▁برسند": 5439,
    "▁حرم": 5440,
    "▁شرح": 5441,
    "▁پرشور": 5442,
    "▁استفانو": 5443,
    "▁نوازندگان": 5444,
    "▁کرمانشاه": 5445,
    "▁بتهوون": 5446,
    "▁تویوتا": 5447,
    "تناب": 5448,
    "لفظ": 5449,
    "▁تبریک": 5450,
    "▁هشتصد": 5451,
    "▁مائوریتس": 5452,
    "▁۱۹۷۰": 5453,
    "▁مینا": 5454,
    "▁حریم": 5455,
    "▁گرامی": 5456,
    "▁کوبید": 5457,
    "▁اقامتگاه": 5458,
    "ئوری": 5459,
    "▁فروشندگان": 5460,
    "▁ثا": 5461,
    "▁شرع": 5462,
    "▁اذیت": 5463,
    "دترا": 5464,
    "▁بزن": 5465,
    "نیروی": 5466,
    "▁خوشبخت": 5467,
    "▁شناگر": 5468,
    "▁ندادن": 5469,
    "▁متولی": 5470,
    "▁درخشید": 5471,
    "▁مبالغ": 5472,
    "▁تهاجمی": 5473,
    "▁۱۳۰": 5474,
    "▁تبع": 5475,
    "▁تصدی": 5476,
    "▁حاد": 5477,
    "▁نیس": 5478,
    "▁اک": 5479,
    "▁گردید": 5480,
    "نوش": 5481,
    "▁ودیعه": 5482,
    "پانی": 5483,
    "رام": 5484,
    "▁پیشگامان": 5485,
    "▁خوشحالم": 5486,
    "▁نوزادان": 5487,
    "▁سینماگران": 5488,
    "▁گردون": 5489,
    "▁شاپ": 5490,
    "▁اعظم": 5491,
    "▁شورش": 5492,
    "▁ارگان": 5493,
    "بیل": 5494,
    "یکپا": 5495,
    "▁ماهشهر": 5496,
    "▁خلوت": 5497,
    "▁تیتر": 5498,
    "▁بصر": 5499,
    "▁امی": 5500,
    "غا": 5501,
    "▁۷۹": 5502,
    "جاد": 5503,
    "▁خریده": 5504,
    "شد": 5505,
    "ذل": 5506,
    "▁اولیان": 5507,
    "▁افسران": 5508,
    "▁سالیانه": 5509,
    "▁کوهن": 5510,
    "▁پیداست": 5511,
    "▁جانش": 5512,
    "▁منجم": 5513,
    "دنظر": 5514,
    "▁ادل": 5515,
    "▁گزینش": 5516,
    "▁مصر": 5517,
    "▁شعبان": 5518,
    "▁تحریمها": 5519,
    "▁آتا": 5520,
    "کمی": 5521,
    "▁تورین": 5522,
    "▁قرض": 5523,
    "تفلی": 5524,
    "▁امتیازات": 5525,
    "▁کمپ": 5526,
    "▁ماست": 5527,
    "▁نشدند": 5528,
    "▁دیدم": 5529,
    "▁جعفری": 5530,
    "▁اینستاگرامش": 5531,
    "▁عط": 5532,
    "▁محسوس": 5533,
    "▁بانو": 5534,
    "▁ماندند": 5535,
    "▁بوس": 5536,
    "▁نخب": 5537,
    "▁مندان": 5538,
    "ویش": 5539,
    "▁مزایای": 5540,
    "▁محا": 5541,
    "شر": 5542,
    "▁صدد": 5543,
    "▁گرانتر": 5544,
    "▁پسرم": 5545,
    "▁هادی": 5546,
    "▁اندام": 5547,
    "خه": 5548,
    "یچ": 5549,
    "زار": 5550,
    "▁رنجر": 5551,
    "فرانسی": 5552,
    "▁مدتها": 5553,
    "۶۳": 5554,
    "▁مرت": 5555,
    "▁برپا": 5556,
    "▁رج": 5557,
    "خمین": 5558,
    "▁درمی": 5559,
    "لاله": 5560,
    "▁میلو": 5561,
    "▁طیب": 5562,
    "▁کلیسای": 5563,
    "▁روحی": 5564,
    "▁نامم": 5565,
    "▁جوج": 5566,
    "▁مظ": 5567,
    "▁کور": 5568,
    "گفت": 5569,
    "بریتی": 5570,
    "▁فهمید": 5571,
    "▁زی": 5572,
    "▁باقر": 5573,
    "▁همب": 5574,
    "▁کلم": 5575,
    "آور": 5576,
    "▁بفهم": 5577,
    "ستعار": 5578,
    "زادگان": 5579,
    "▁بستگ": 5580,
    "▁نیت": 5581,
    "▁عظیمی": 5582,
    "▁بازرگان": 5583,
    "▁شست": 5584,
    "▁دوش": 5585,
    "▁لطف": 5586,
    "▁آرزو": 5587,
    "▁بدنی": 5588,
    "▁تون": 5589,
    "▁تاکتیک": 5590,
    "▁دانشجو": 5591,
    "▁سرگرم": 5592,
    "رم": 5593,
    "▁دزد": 5594,
    "▁ژو": 5595,
    "▁درو": 5596,
    "▁وگوها": 5597,
    "وتو": 5598,
    "▁گریه": 5599,
    "▁هرد": 5600,
    "خواه": 5601,
    "▁قطرک": 5602,
    "▁باریک": 5603,
    "▁گودا": 5604,
    "▁رکوردها": 5605,
    "دفتر": 5606,
    "رهای": 5607,
    "▁جوش": 5608,
    "▁کریم": 5609,
    "▁یوت": 5610,
    "▁فردین": 5611,
    "▁انتها": 5612,
    "▁الن": 5613,
    "مرد": 5614,
    "زمینی": 5615,
    "▁کروناست": 5616,
    "ولوژی": 5617,
    "▁بله": 5618,
    "الت": 5619,
    "▁کشمی": 5620,
    "▁تفسیر": 5621,
    "راب": 5622,
    "▁برآوردها": 5623,
    "▁فقی": 5624,
    "▁خار": 5625,
    "▁زدای": 5626,
    "▁کنی": 5627,
    "فرگوس": 5628,
    "▁رنگی": 5629,
    "۲۸": 5630,
    "سول": 5631,
    "هاب": 5632,
    "▁سمی": 5633,
    "▁مجرم": 5634,
    "ضرر": 5635,
    "اقتصاد": 5636,
    "انجمن": 5637,
    "عادت": 5638,
    "تاتنهام": 5639,
    "اسپانیا": 5640,
    "اطلاعات": 5641,
    "تصور": 5642,
    "تصمیم": 5643,
    "مسابقات": 5644,
    "حمید": 5645,
    "چشم": 5646,
    "چلسی": 5647,
    "نخست": 5648,
    "کاهش": 5649,
    "گوف": 5650,
    "کمتر": 5651,
    "کاوه": 5652,
    "اداره": 5653,
    "زیر": 5654,
    "ترکیه": 5655,
    "اتریش": 5656,
    "رایان": 5657,
    "نظامی": 5658,
    "سایت": 5659,
    "موج": 5660,
    "بس": 5661,
    "▁سیا": 5662,
    "لای": 5663,
    "▁اب": 5664,
    "▁اندرکار": 5665,
    "نقل": 5666,
    "▁سیاستمدار": 5667,
    "▁معاونان": 5668,
    "ینز": 5669,
    "مال": 5670,
    "میلیون": 5671,
    "▁دستیار": 5672,
    "▁منصو": 5673,
    "▁آلبر": 5674,
    "نگیز": 5675,
    "ضاح": 5676,
    "▁آبراموویچ": 5677,
    "▁آشپز": 5678,
    "▁الگوریتم": 5679,
    "▁ایوانکوویچ": 5680,
    "▁خنثی": 5681,
    "▁ربیعی": 5682,
    "▁زاناردی": 5683,
    "▁مشروب": 5684,
    "▁پولیتزر": 5685,
    "▁بلانشت": 5686,
    "▁اسپایدر": 5687,
    "▁سانتیمتر": 5688,
    "▁نامناسب": 5689,
    "▁ابداع": 5690,
    "▁ناگزیر": 5691,
    "▁نپال": 5692,
    "▁بشردوستانه": 5693,
    "▁انباشت": 5694,
    "▁متمایز": 5695,
    "▁بذر": 5696,
    "▁ناپولی": 5697,
    "▁موعد": 5698,
    "▁زاکانی": 5699,
    "▁ساسانی": 5700,
    "▁آمبول": 5701,
    "▁عنصر": 5702,
    "▁برنگشت": 5703,
    "▁قائل": 5704,
    "▁ووهان": 5705,
    "▁توقع": 5706,
    "▁آژیر": 5707,
    "▁خاشقچی": 5708,
    "▁ذیبخش": 5709,
    "▁آوازخوان": 5710,
    "۱۹۶۵": 5711,
    "▁آنکارا": 5712,
    "▁جزئی": 5713,
    "▁بدهکار": 5714,
    "▁دردناک": 5715,
    "▁بسازد": 5716,
    "▁نکشید": 5717,
    "▁دعا": 5718,
    "▁شکارچی": 5719,
    "اچو": 5720,
    "▁مارسیال": 5721,
    "▁پردرآمد": 5722,
    "▁بارچا": 5723,
    "خانقا": 5724,
    "▁مصلحت": 5725,
    "▁داوود": 5726,
    "▁اجساد": 5727,
    "▁وادار": 5728,
    "▁منظم": 5729,
    "▁حسرت": 5730,
    "▁آلایند": 5731,
    "▁ژنرا": 5732,
    "▁گواهی": 5733,
    "▁۱۹۲۰": 5734,
    "▁صید": 5735,
    "▁محفظه": 5736,
    "▁صراحت": 5737,
    "▁مبارک": 5738,
    "▁عصبانی": 5739,
    "▁روانشناس": 5740,
    "عادی": 5741,
    "▁نامشخص": 5742,
    "▁سانتو": 5743,
    "▁بهزاد": 5744,
    "لانتی": 5745,
    "▁بخواهد": 5746,
    "▁پردازند": 5747,
    "▁قید": 5748,
    "▁گدار": 5749,
    "▁مورف": 5750,
    "▁کادیس": 5751,
    "▁زلا": 5752,
    "▁بیورن": 5753,
    "▁ناقل": 5754,
    "▁نامگذاری": 5755,
    "▁نهفته": 5756,
    "▁امریکا": 5757,
    "▁لاس": 5758,
    "▁ریسک": 5759,
    "▁موها": 5760,
    "▁بلک": 5761,
    "▁مبت": 5762,
    "▁گوییم": 5763,
    "▁القا": 5764,
    "▁نمادی": 5765,
    "نفتی": 5766,
    "▁سهراب": 5767,
    "▁رائو": 5768,
    "▁خوار": 5769,
    "▁رابین": 5770,
    "کری": 5771,
    "▁خیز": 5772,
    "▁انداختند": 5773,
    "▁کتک": 5774,
    "▁پستاندار": 5775,
    "▁کشتن": 5776,
    "▁گناه": 5777,
    "▁رخشانه": 5778,
    "▁یاوری": 5779,
    "▁مسبب": 5780,
    "▁معیارهای": 5781,
    "قیاس": 5782,
    "▁مانند": 5783,
    "▁مهمانان": 5784,
    "▁ننگ": 5785,
    "▁کارگروه": 5786,
    "▁کانت": 5787,
    "▁احسا": 5788,
    "▁باگ": 5789,
    "▁بازجوی": 5790,
    "جامع": 5791,
    "▁وحشت": 5792,
    "▁سپید": 5793,
    "▁ساترا": 5794,
    "▁خش": 5795,
    "▁وض": 5796,
    "▁فشارها": 5797,
    "▁پارچ": 5798,
    "▁شیوا": 5799,
    "کسل": 5800,
    "یاط": 5801,
    "▁ایوان": 5802,
    "▁معین": 5803,
    "▁متحدانش": 5804,
    "▁مخ": 5805,
    "رگ": 5806,
    "▁فرحی": 5807,
    "روا": 5808,
    "▁گار": 5809,
    "▁ضیا": 5810,
    "ایل": 5811,
    "▁محصولاتش": 5812,
    "▁برهم": 5813,
    "▁یوسی": 5814,
    "▁ملته": 5815,
    "▁نیاورد": 5816,
    "نون": 5817,
    "اتیو": 5818,
    "▁موت": 5819,
    "الیاس": 5820,
    "▁کاشت": 5821,
    "▁فین": 5822,
    "▁خاوری": 5823,
    "▁پرید": 5824,
    "▁شرمن": 5825,
    "▁درسی": 5826,
    "▁پینگ": 5827,
    "اقش": 5828,
    "نزا": 5829,
    "خط": 5830,
    "ظه": 5831,
    "▁الع": 5832,
    "▁رقبای": 5833,
    "ریس": 5834,
    "▁لوی": 5835,
    "▁عمد": 5836,
    "▁بلو": 5837,
    "▁بروم": 5838,
    "یانت": 5839,
    "▁عمدی": 5840,
    "▁جنگند": 5841,
    "ترک": 5842,
    "▁سنگر": 5843,
    "▁کلاین": 5844,
    "رای": 5845,
    "▁اکبری": 5846,
    "▁درز": 5847,
    "▁میلیاردرها": 5848,
    "ارت": 5849,
    "لقو": 5850,
    "▁بیم": 5851,
    "▁سهیم": 5852,
    "▁هول": 5853,
    "▁جند": 5854,
    "▁خوانی": 5855,
    "واقع": 5856,
    "▁آرت": 5857,
    "ژان": 5858,
    "▁آپو": 5859,
    "تاب": 5860,
    "▁مگ": 5861,
    "رن": 5862,
    "▁شکستن": 5863,
    "▁موم": 5864,
    "▁رفتم": 5865,
    "لیون": 5866,
    "نیف": 5867,
    "لوب": 5868,
    "ستند": 5869,
    "تار": 5870,
    "▁بخشید": 5871,
    "جیک": 5872,
    "وظ": 5873,
    "جل": 5874,
    "ترن": 5875,
    "هرابی": 5876,
    "▁گدا": 5877,
    "▁بلخ": 5878,
    "▁استثنای": 5879,
    "پیر": 5880,
    "▁کارفرما": 5881,
    "▁نابود": 5882,
    "▁اجتماع": 5883,
    "ادین": 5884,
    "ملک": 5885,
    "▁لیو": 5886,
    "▁الگو": 5887,
    "دلیل": 5888,
    "▁۶۹": 5889,
    "▁سرما": 5890,
    "شو": 5891,
    "بیشترین": 5892,
    "نفر": 5893,
    "▁سیبر": 5894,
    "گروهی": 5895,
    "▁عل": 5896,
    "▁۹۲": 5897,
    "تانک": 5898,
    "گارت": 5899,
    "امع": 5900,
    "فور": 5901,
    "▁نتوا": 5902,
    "▁عزیزان": 5903,
    "▁۱۸۰": 5904,
    "پتون": 5905,
    "▁ساع": 5906,
    "▁پناهند": 5907,
    "گیر": 5908,
    "صول": 5909,
    "▁نگر": 5910,
    "▁عا": 5911,
    "▁صفرها": 5912,
    "▁۸۳": 5913,
    "خودرو": 5914,
    "آلود": 5915,
    "سیلوا": 5916,
    "▁۱۱۰": 5917,
    "تابعیت": 5918,
    "شریف": 5919,
    "ارزش": 5920,
    "تصاویر": 5921,
    "هماهنگ": 5922,
    "مارادونا": 5923,
    "رکورد": 5924,
    "مذاکرات": 5925,
    "نقاشی": 5926,
    "حضور": 5927,
    "آغاز": 5928,
    "اعلام": 5929,
    "تصویر": 5930,
    "عضو": 5931,
    "موسیقی": 5932,
    "گور": 5933,
    "مشخص": 5934,
    "بحث": 5935,
    "قصد": 5936,
    "کشته": 5937,
    "▁خدای": 5938,
    "نتیج": 5939,
    "درگذشت": 5940,
    "▁هلندی": 5941,
    "ستا": 5942,
    "▁بیدار": 5943,
    "پاش": 5944,
    "▁کاران": 5945,
    "هشدار": 5946,
    "مول": 5947,
    "▁فرانسیس": 5948,
    "▁عت": 5949,
    "▁مصرفی": 5950,
    "▁گوهر": 5951,
    "لخ": 5952,
    "روح": 5953,
    "▁ژس": 5954,
    "گراد": 5955,
    "▁فرش": 5956,
    "اران": 5957,
    "▁مخاطب": 5958,
    "ارد": 5959,
    "▁درام": 5960,
    "▁گوی": 5961,
    "مرز": 5962,
    "ورت": 5963,
    "▁سلام": 5964,
    "قل": 5965,
    "▁گز": 5966,
    "▁رومانی": 5967,
    "فرید": 5968,
    "ترانه": 5969,
    "▁آکسفام": 5970,
    "▁التحصیل": 5971,
    "▁بلایندرز": 5972,
    "▁حرارت": 5973,
    "▁راهپیمایی": 5974,
    "▁رفسنجان": 5975,
    "▁شیکاگو": 5976,
    "▁ضوابط": 5977,
    "▁لومامبا": 5978,
    "▁پدافند": 5979,
    "▁تأسیس": 5980,
    "▁عروق": 5981,
    "▁دفاتر": 5982,
    "▁فرستد": 5983,
    "▁مجاهد": 5984,
    "▁مضاعف": 5985,
    "▁مسوول": 5986,
    "▁نجوا": 5987,
    "▁آهسته": 5988,
    "▁تقلب": 5989,
    "▁فرناند": 5990,
    "▁خودکفا": 5991,
    "▁محتوی": 5992,
    "▁فرنود": 5993,
    "▁باکتری": 5994,
    "▁بگویند": 5995,
    "▁توازن": 5996,
    "▁ترشح": 5997,
    "▁برگردند": 5998,
    "▁فرسود": 5999,
    "▁لامرد": 6000,
    "▁اتومات": 6001,
    "▁تعاون": 6002,
    "▁فرسایش": 6003,
    "▁کفایت": 6004,
    "▁نیچر": 6005,
    "▁کالینز": 6006,
    "▁النصر": 6007,
    "▁رغبت": 6008,
    "▁قاعدتا": 6009,
    "▁قاتل": 6010,
    "تفرق": 6011,
    "▁تبلت": 6012,
    "▁ندهند": 6013,
    "▁هلمند": 6014,
    "▁اسپورت": 6015,
    "ستثن": 6016,
    "▁بنشیند": 6017,
    "▁پیانو": 6018,
    "▁۱۹۶۷": 6019,
    "▁نیکولا": 6020,
    "▁خلوتگر": 6021,
    "▁حوض": 6022,
    "▁بگذارند": 6023,
    "▁۱۹۷۳": 6024,
    "▁جون": 6025,
    "▁مراود": 6026,
    "▁خردسال": 6027,
    "▁رشید": 6028,
    "▁بیافتد": 6029,
    "▁یادگار": 6030,
    "▁منفرد": 6031,
    "▁تربیت": 6032,
    "▁گیتار": 6033,
    "▁ونگر": 6034,
    "▁۸۴": 6035,
    "▁کوهنورد": 6036,
    "▁آنفیلد": 6037,
    "ائم": 6038,
    "▁دلتا": 6039,
    "دند": 6040,
    "▁انتصاب": 6041,
    "▁۱۳۵۰": 6042,
    "▁آرایشگاه": 6043,
    "▁رودکی": 6044,
    "▁قاب": 6045,
    "▁زادگاهش": 6046,
    "قندهار": 6047,
    "▁کوپتر": 6048,
    "▁۱۷۳": 6049,
    "▁درآمدزا": 6050,
    "▁هاپک": 6051,
    "▁شانگ": 6052,
    "▁شخصا": 6053,
    "▁کدخدایی": 6054,
    "▁طاق": 6055,
    "▁جرج": 6056,
    "▁۲۰۰۶": 6057,
    "▁معلولان": 6058,
    "ادیو": 6059,
    "▁نر": 6060,
    "▁رکوردشکن": 6061,
    "بیست": 6062,
    "دربند": 6063,
    "▁پرش": 6064,
    "▁کانل": 6065,
    "▁مورل": 6066,
    "▁پروست": 6067,
    "▁کاتال": 6068,
    "سیما": 6069,
    "▁کویت": 6070,
    "▁طاهر": 6071,
    "▁اندرکاران": 6072,
    "▁دستیاران": 6073,
    "▁استقامت": 6074,
    "▁قاعد": 6075,
    "▁دوتار": 6076,
    "▁سکوها": 6077,
    "▁صرب": 6078,
    "▁قارچ": 6079,
    "جهان": 6080,
    "▁کیمن": 6081,
    "بینند": 6082,
    "▁حفا": 6083,
    "طاع": 6084,
    "▁لینک": 6085,
    "▁بیانسه": 6086,
    "▁یابند": 6087,
    "▁مصم": 6088,
    "▁جفت": 6089,
    "▁معتمدی": 6090,
    "جوزپ": 6091,
    "▁نیمروز": 6092,
    "▁تراک": 6093,
    "▁ساید": 6094,
    "باع": 6095,
    "۸۹": 6096,
    "▁سارا": 6097,
    "▁سیمون": 6098,
    "▁نهایتا": 6099,
    "▁کلدی": 6100,
    "▁ولد": 6101,
    "حمله": 6102,
    "▁قاسمی": 6103,
    "▁کجاست": 6104,
    "دامس": 6105,
    "▁نیوز": 6106,
    "▁فضاپیمای": 6107,
    "▁پسند": 6108,
    "▁افزودن": 6109,
    "▁اختیارات": 6110,
    "▁هولم": 6111,
    "▁وکلای": 6112,
    "۹۳": 6113,
    "مهربان": 6114,
    "ونتی": 6115,
    "لاتین": 6116,
    "جن": 6117,
    "▁بازده": 6118,
    "▁هراس": 6119,
    "▁مسافری": 6120,
    "لث": 6121,
    "▁گرما": 6122,
    "▁دیدند": 6123,
    "▁تاجیکان": 6124,
    "▁هامون": 6125,
    "گوئر": 6126,
    "▁قوز": 6127,
    "▁دنیل": 6128,
    "▁جراحت": 6129,
    "▁تراز": 6130,
    "▁حام": 6131,
    "▁مشخصات": 6132,
    "▁برگردانده": 6133,
    "▁چرخش": 6134,
    "▁کاپل": 6135,
    "انزا": 6136,
    "▁نیستم": 6137,
    "خور": 6138,
    "▁لوکه": 6139,
    "▁ماتی": 6140,
    "أ": 6141,
    "▁دات": 6142,
    "لز": 6143,
    "▁اوار": 6144,
    "فره": 6145,
    "▁لن": 6146,
    "▁کامپیوترها": 6147,
    "▁ریگ": 6148,
    "▁کد": 6149,
    "▁بروید": 6150,
    "مالا": 6151,
    "فرجام": 6152,
    "کینگ": 6153,
    "▁پرز": 6154,
    "▁مکس": 6155,
    "بورد": 6156,
    "▁پان": 6157,
    "▁دول": 6158,
    "قبل": 6159,
    "▁دخ": 6160,
    "▁کیلی": 6161,
    "سوس": 6162,
    "▁حواس": 6163,
    "ویژ": 6164,
    "▁خریدن": 6165,
    "فن": 6166,
    "▁بنیا": 6167,
    "▁پاش": 6168,
    "رنج": 6169,
    "بورس": 6170,
    "▁کران": 6171,
    "▁لاب": 6172,
    "▁راستش": 6173,
    "قای": 6174,
    "ریگو": 6175,
    "▁نتوان": 6176,
    "▁برگزارکنند": 6177,
    "▁برآورده": 6178,
    "▁کلاه": 6179,
    "▁منظره": 6180,
    "▁هشدارهای": 6181,
    "▁طل": 6182,
    "۴۲": 6183,
    "دین": 6184,
    "امید": 6185,
    "▁چارل": 6186,
    "▁مولان": 6187,
    "جرد": 6188,
    "▁کوب": 6189,
    "روج": 6190,
    "▁ناک": 6191,
    "▁چی": 6192,
    "▁استادان": 6193,
    "▁اخ": 6194,
    "▁رپ": 6195,
    "▁۲۰۲": 6196,
    "▁جیمی": 6197,
    "کنیم": 6198,
    "▁درگذشته": 6199,
    "▁کوما": 6200,
    "▁چای": 6201,
    "▁قاطعان": 6202,
    "▁فورا": 6203,
    "▁داو": 6204,
    "صیل": 6205,
    "▁درها": 6206,
    "دفو": 6207,
    "▁پسران": 6208,
    "▁ریوی": 6209,
    "دالله": 6210,
    "▁خلا": 6211,
    "▁بادی": 6212,
    "▁پیشا": 6213,
    "▁رقبا": 6214,
    "سرجی": 6215,
    "▁تصویربردار": 6216,
    "▁ناآرام": 6217,
    "▁آپ": 6218,
    "▁بگیر": 6219,
    "▁کلیسا": 6220,
    "▁پهلو": 6221,
    "گرا": 6222,
    "اور": 6223,
    "وزن": 6224,
    "▁پشتو": 6225,
    "▁کاف": 6226,
    "▁کمیاب": 6227,
    "▁رسی": 6228,
    "ویل": 6229,
    "▁نمازی": 6230,
    "▁۶۳": 6231,
    "▁پهن": 6232,
    "▁سریعتر": 6233,
    "فاصل": 6234,
    "زره": 6235,
    "▁اق": 6236,
    "▁مطلبی": 6237,
    "▁۱۳۲": 6238,
    "▁سروده": 6239,
    "▁فلا": 6240,
    "▁منه": 6241,
    "▁امری": 6242,
    "▁شکوفا": 6243,
    "▁استانداری": 6244,
    "▁کوچ": 6245,
    "ماد": 6246,
    "▁نماند": 6247,
    "لون": 6248,
    "کلی": 6249,
    "لین": 6250,
    "یافته": 6251,
    "▁سناریو": 6252,
    "▁بیتل": 6253,
    "▁پوشیدن": 6254,
    "روند": 6255,
    "ادی": 6256,
    "▁کارل": 6257,
    "▁سفرها": 6258,
    "▁۱۸۵": 6259,
    "▁خطا": 6260,
    "یقه": 6261,
    "صرف": 6262,
    "▁چم": 6263,
    "پولیس": 6264,
    "▁مغزش": 6265,
    "▁پذیرفت": 6266,
    "فته": 6267,
    "▁لبنانی": 6268,
    "▁نادری": 6269,
    "▁تشی": 6270,
    "مجتب": 6271,
    "فضل": 6272,
    "منظور": 6273,
    "قاسم": 6274,
    "کلوپ": 6275,
    "استرالیا": 6276,
    "نتایج": 6277,
    "مرغ": 6278,
    "وزرای": 6279,
    "سریع": 6280,
    "آبی": 6281,
    "خطر": 6282,
    "پیروز": 6283,
    "رحیم": 6284,
    "نگرانی": 6285,
    "▁متخلف": 6286,
    "میدان": 6287,
    "▁آنا": 6288,
    "آیا": 6289,
    "▁شنید": 6290,
    "▁پیشگام": 6291,
    "▁چش": 6292,
    "▁معلول": 6293,
    "▁داران": 6294,
    "▁شاگرد": 6295,
    "عاش": 6296,
    "▁مقاوم": 6297,
    "وئی": 6298,
    "▁عزا": 6299,
    "▁افزای": 6300,
    "▁فهم": 6301,
    "▁بینم": 6302,
    "▁اصالت": 6303,
    "حث": 6304,
    "▁بوفالو": 6305,
    "مسابقه": 6306,
    "۹۰": 6307,
    "▁گوها": 6308,
    "▁آرسن": 6309,
    "مغناطیس": 6310,
    "▁ارکستر": 6311,
    "▁اقتباس": 6312,
    "▁سمرقند": 6313,
    "▁عناوین": 6314,
    "▁غیرمجاز": 6315,
    "▁فیلسوف": 6316,
    "▁ماسویدال": 6317,
    "▁کانگورو": 6318,
    "▁گریگوریان": 6319,
    "▁گوسفند": 6320,
    "▁سیاهپوست": 6321,
    "▁۱۹۶۹": 6322,
    "▁سینماگر": 6323,
    "تصاعد": 6324,
    "▁کادرفنی": 6325,
    "▁بازنگشت": 6326,
    "▁تجدد": 6327,
    "▁چابک": 6328,
    "▁حاتمی": 6329,
    "▁خاشق": 6330,
    "▁سیستماتیک": 6331,
    "▁برگردیم": 6332,
    "▁پیمود": 6333,
    "▁ماراکانا": 6334,
    "▁کلروک": 6335,
    "▁سرلشکر": 6336,
    "▁زائر": 6337,
    "▁طلسم": 6338,
    "▁گاگا": 6339,
    "▁جاودان": 6340,
    "▁ارژن": 6341,
    "▁سانتیگراد": 6342,
    "▁کبد": 6343,
    "▁اکرم": 6344,
    "▁مرضیه": 6345,
    "▁منح": 6346,
    "▁کوپر": 6347,
    "▁ژنشنگ": 6348,
    "▁قائم": 6349,
    "▁۱۹۶۶": 6350,
    "▁مجادل": 6351,
    "▁سازندگی": 6352,
    "▁نابرابر": 6353,
    "▁پدربزرگ": 6354,
    "▁قبیل": 6355,
    "▁فیروزجا": 6356,
    "▁۱۹۶۸": 6357,
    "▁تجدیدنظر": 6358,
    "▁بگوید": 6359,
    "ارومیه": 6360,
    "وتی": 6361,
    "▁شاهرود": 6362,
    "▁یونسی": 6363,
    "ژهای": 6364,
    "▁لط": 6365,
    "▁مختاری": 6366,
    "▁بیولوژیک": 6367,
    "▁شیرجه": 6368,
    "▁مولوی": 6369,
    "▁پابرجاست": 6370,
    "▁کاندیدا": 6371,
    "▁ابدی": 6372,
    "▁فرنگی": 6373,
    "▁گسل": 6374,
    "رقیز": 6375,
    "▁تعلیم": 6376,
    "▁برایانت": 6377,
    "▁معلولیت": 6378,
    "▁صفوف": 6379,
    "حام": 6380,
    "▁تفکر": 6381,
    "لانتا": 6382,
    "▁۱۹۹۵": 6383,
    "▁ناخوش": 6384,
    "▁ناشر": 6385,
    "▁الاکلنگ": 6386,
    "▁سردرگم": 6387,
    "▁نابسامان": 6388,
    "▁اسنپ": 6389,
    "▁خلبان": 6390,
    "▁کیلوولت": 6391,
    "▁۷۵۲": 6392,
    "▁سحرگاه": 6393,
    "▁سازوکارهای": 6394,
    "▁محف": 6395,
    "▁آویز": 6396,
    "▁بکند": 6397,
    "▁سلتیک": 6398,
    "▁پابند": 6399,
    "▁امیدوارکننده": 6400,
    "اطبا": 6401,
    "▁سفیددره": 6402,
    "▁رژه": 6403,
    "▁کانتر": 6404,
    "▁نورمحمد": 6405,
    "▁کنشگر": 6406,
    "▁دراین": 6407,
    "▁۷۵۰": 6408,
    "▁لیبی": 6409,
    "▁لبخندها": 6410,
    "▁شکننده": 6411,
    "▁پاسگاه": 6412,
    "▁مأموریت": 6413,
    "رضی": 6414,
    "▁نبو": 6415,
    "▁زودرس": 6416,
    "الکس": 6417,
    "▁مهیب": 6418,
    "▁نبی": 6419,
    "زیو": 6420,
    "▁فرندز": 6421,
    "▁ماوریک": 6422,
    "▁خرمشهر": 6423,
    "▁لیدی": 6424,
    "▁منقل": 6425,
    "▁خرم": 6426,
    "▁پادمان": 6427,
    "▁موسیقیدان": 6428,
    "▁داش": 6429,
    "▁اسمیت": 6430,
    "▁زینب": 6431,
    "▁فلزات": 6432,
    "▁روستاهای": 6433,
    "▁دبی": 6434,
    "▁دادخواست": 6435,
    "▁بلید": 6436,
    "▁ژنوم": 6437,
    "▁کوشید": 6438,
    "▁ملکشا": 6439,
    "▁دیاب": 6440,
    "ریحان": 6441,
    "▁آسپر": 6442,
    "▁تحریر": 6443,
    "بپرس": 6444,
    "▁فاطم": 6445,
    "▁پینک": 6446,
    "▁پارکور": 6447,
    "تناسب": 6448,
    "▁کشتند": 6449,
    "یونان": 6450,
    "▁همخوان": 6451,
    "▁تپند": 6452,
    "▁شایست": 6453,
    "▁نایا": 6454,
    "▁بیو": 6455,
    "▁ریختن": 6456,
    "▁فورب": 6457,
    "▁علیزاده": 6458,
    "مادر": 6459,
    "▁پاسدار": 6460,
    "▁دوندگان": 6461,
    "▁کلیپ": 6462,
    "طبی": 6463,
    "▁بازیافت": 6464,
    "▁گیت": 6465,
    "▁کثیر": 6466,
    "▁بفرستید": 6467,
    "▁اشتباهات": 6468,
    "▁کامران": 6469,
    "▁خالد": 6470,
    "▁خران": 6471,
    "▁عاج": 6472,
    "تل": 6473,
    "▁نامعلوم": 6474,
    "▁هوشیاری": 6475,
    "گرنه": 6476,
    "▁فراور": 6477,
    "▁پاتر": 6478,
    "▁مبا": 6479,
    "قدرت": 6480,
    "▁پیامک": 6481,
    "▁هالپ": 6482,
    "▁علما": 6483,
    "▁آسا": 6484,
    "▁اقیانوسیه": 6485,
    "ازما": 6486,
    "▁عار": 6487,
    "شکاف": 6488,
    "▁موری": 6489,
    "▁انگیزترین": 6490,
    "داده": 6491,
    "ردام": 6492,
    "▁رسال": 6493,
    "▁فرز": 6494,
    "▁نشانگر": 6495,
    "نور": 6496,
    "▁نجومی": 6497,
    "وجیه": 6498,
    "▁پوستر": 6499,
    "نگا": 6500,
    "افتاده": 6501,
    "▁بالاست": 6502,
    "▁بستگان": 6503,
    "▁چادر": 6504,
    "ائو": 6505,
    "▁لات": 6506,
    "ریز": 6507,
    "▁شکنی": 6508,
    "۳۹": 6509,
    "بول": 6510,
    "وفون": 6511,
    "▁سهامدار": 6512,
    "▁زید": 6513,
    "▁اسکان": 6514,
    "▁مادی": 6515,
    "▁قطعا": 6516,
    "▁آئ": 6517,
    "ارسل": 6518,
    "▁حول": 6519,
    "▁گرفتیم": 6520,
    "سب": 6521,
    "▁گرمی": 6522,
    "▁کیس": 6523,
    "▁محب": 6524,
    "▁اجراهای": 6525,
    "▁دیوارهای": 6526,
    "▁پود": 6527,
    "▁نکو": 6528,
    "حصول": 6529,
    "▁غر": 6530,
    "▁ممیز": 6531,
    "▁آو": 6532,
    "۸۵": 6533,
    "▁کاسی": 6534,
    "ساسی": 6535,
    "▁بشریت": 6536,
    "خیر": 6537,
    "▁هیولای": 6538,
    "▁تولیدکنند": 6539,
    "▁چید": 6540,
    "کاران": 6541,
    "▁خور": 6542,
    "▁نشستن": 6543,
    "▁ولت": 6544,
    "جام": 6545,
    "▁پذیری": 6546,
    "پاتی": 6547,
    "▁لندرو": 6548,
    "▁بریتانیاست": 6549,
    "فرنو": 6550,
    "▁برنا": 6551,
    "▁نیستیم": 6552,
    "▁نایاب": 6553,
    "▁کوارت": 6554,
    "▁ورای": 6555,
    "▁بک": 6556,
    "▁گفتن": 6557,
    "رسیدن": 6558,
    "▁ساختند": 6559,
    "▁تبر": 6560,
    "▁لین": 6561,
    "▁بانان": 6562,
    "▁جراحان": 6563,
    "▁زنیم": 6564,
    "▁عطا": 6565,
    "▁شوی": 6566,
    "صر": 6567,
    "نتسب": 6568,
    "جک": 6569,
    "▁خا": 6570,
    "▁صمیمی": 6571,
    "▁آرزوهای": 6572,
    "وری": 6573,
    "باد": 6574,
    "▁سازان": 6575,
    "زیان": 6576,
    "▁آموخت": 6577,
    "▁سکان": 6578,
    "▁شناختن": 6579,
    "▁مهیا": 6580,
    "▁اسک": 6581,
    "ولد": 6582,
    "ساله": 6583,
    "بال": 6584,
    "سانس": 6585,
    "▁پردازی": 6586,
    "▁باج": 6587,
    "فه": 6588,
    "▁هانس": 6589,
    "▁شکن": 6590,
    "▁اسکو": 6591,
    "ویر": 6592,
    "زر": 6593,
    "▁آوا": 6594,
    "▁داروین": 6595,
    "اردو": 6596,
    "▁قوت": 6597,
    "▁بخشد": 6598,
    "گویان": 6599,
    "▁بایست": 6600,
    "نیچ": 6601,
    "ولف": 6602,
    "▁هریس": 6603,
    "۵۸": 6604,
    "▁بایر": 6605,
    "وط": 6606,
    "▁ریس": 6607,
    "میر": 6608,
    "▁بون": 6609,
    "ثر": 6610,
    "▁ایرلندی": 6611,
    "▁تابستانی": 6612,
    "پزشک": 6613,
    "▁فرزندانش": 6614,
    "▁اصلان": 6615,
    "▁فرضی": 6616,
    "▁وای": 6617,
    "یزه": 6618,
    "▁عزادار": 6619,
    "▁مدد": 6620,
    "▁عکسها": 6621,
    "جف": 6622,
    "▁راب": 6623,
    "▁آد": 6624,
    "▁درآمده": 6625,
    "▁ژ": 6626,
    "آفرین": 6627,
    "آباد": 6628,
    "▁کارند": 6629,
    "▁نوک": 6630,
    "تاکنون": 6631,
    "▁سنج": 6632,
    "الوح": 6633,
    "اندا": 6634,
    "▁بخشهای": 6635,
    "▁یزد": 6636,
    "▁دیدگ": 6637,
    "اید": 6638,
    "▁وات": 6639,
    "تعداد": 6640,
    "ملا": 6641,
    "جانی": 6642,
    "▁نوین": 6643,
    "جار": 6644,
    "ائی": 6645,
    "تقبل": 6646,
    "▁خاور": 6647,
    "رتر": 6648,
    "▁حریر": 6649,
    "▁قضا": 6650,
    "▁پیگیر": 6651,
    "▁یون": 6652,
    "گات": 6653,
    "▁صحرا": 6654,
    "روس": 6655,
    "▁بقا": 6656,
    "▁عالم": 6657,
    "▁پژ": 6658,
    "ونیست": 6659,
    "ادت": 6660,
    "مجموع": 6661,
    "▁مبد": 6662,
    "یکا": 6663,
    "▁بدان": 6664,
    "▁لک": 6665,
    "بان": 6666,
    "▁چسب": 6667,
    "▁برگرداند": 6668,
    "اسکو": 6669,
    "ودی": 6670,
    "۸۰": 6671,
    "جویان": 6672,
    "شناسی": 6673,
    "▁اصولی": 6674,
    "▁فضل": 6675,
    "ریوس": 6676,
    "زلی": 6677,
    "▁دیف": 6678,
    "▁قوم": 6679,
    "سپاس": 6680,
    "باخ": 6681,
    "▁ندا": 6682,
    "▁فست": 6683,
    "پورت": 6684,
    "▁ظ": 6685,
    "سکانس": 6686,
    "▁کارهایش": 6687,
    "▁بوم": 6688,
    "رگیری": 6689,
    "شکل": 6690,
    "▁دیو": 6691,
    "▁سیری": 6692,
    "تک": 6693,
    "▁مشتاق": 6694,
    "منازع": 6695,
    "ظاهر": 6696,
    "غوری": 6697,
    "واره": 6698,
    "لیدز": 6699,
    "توماس": 6700,
    "آذر": 6701,
    "منتقدان": 6702,
    "برآورد": 6703,
    "جوکوویچ": 6704,
    "حداکثر": 6705,
    "سرطان": 6706,
    "جشنواره": 6707,
    "فرهاد": 6708,
    "جراح": 6709,
    "شرایط": 6710,
    "کارگران": 6711,
    "ایتالیا": 6712,
    "ابتدا": 6713,
    "عکاس": 6714,
    "مورد": 6715,
    "ویروس": 6716,
    "کجاست": 6717,
    "تحلیلگر": 6718,
    "تنیس": 6719,
    "▁کلک": 6720,
    "مطابق": 6721,
    "▁هن": 6722,
    "ناس": 6723,
    "محمدرضا": 6724,
    "عفون": 6725,
    "کشتی": 6726,
    "▁لوو": 6727,
    "بور": 6728,
    "چال": 6729,
    "دیمیر": 6730,
    "زندگی": 6731,
    "▁موی": 6732,
    "شکنی": 6733,
    "ادبی": 6734,
    "رانه": 6735,
    "▁دقتی": 6736,
    "شتم": 6737,
    "ولا": 6738,
    "▁گارس": 6739,
    "▁۲۹۰": 6740,
    "▁تق": 6741,
    "▁خفا": 6742,
    "دختر": 6743,
    "حوال": 6744,
    "لئوپا": 6745,
    "▁کامر": 6746,
    "زین": 6747,
    "▁نفی": 6748,
    "▁وزرا": 6749,
    "▁سفیدپوست": 6750,
    "▁آرن": 6751,
    "تال": 6752,
    "عظم": 6753,
    "مقامات": 6754,
    "▁سازوکار": 6755,
    "یکون": 6756,
    "▁کیف": 6757,
    "▁سکو": 6758,
    "▁فلور": 6759,
    "▁کنسر": 6760,
    "ذائ": 6761,
    "▁قزاق": 6762,
    "▁ازبک": 6763,
    "▁ارواح": 6764,
    "▁اسراییل": 6765,
    "▁اصغر": 6766,
    "▁انقطاع": 6767,
    "▁انیمیشن": 6768,
    "▁اوربیتر": 6769,
    "▁اویغور": 6770,
    "▁باثبات": 6771,
    "▁بیندازند": 6772,
    "▁رفراند": 6773,
    "▁غلیظ": 6774,
    "▁نیفتاد": 6775,
    "▁پلتفرم": 6776,
    "▁چمپیون": 6777,
    "▁ژئوپلیتیک": 6778,
    "▁تدفین": 6779,
    "▁مقتدر": 6780,
    "▁تلویح": 6781,
    "▁قعر": 6782,
    "▁مخرب": 6783,
    "▁بیاورند": 6784,
    "▁نیابد": 6785,
    "▁یادماندنی": 6786,
    "▁وسعت": 6787,
    "▁بیانداز": 6788,
    "▁بالیوود": 6789,
    "▁جهرمی": 6790,
    "▁متصل": 6791,
    "▁اسعد": 6792,
    "▁جاسک": 6793,
    "▁کانتینر": 6794,
    "▁رزیدن": 6795,
    "▁فاسد": 6796,
    "▁فونینی": 6797,
    "▁پرایس": 6798,
    "▁پرسنل": 6799,
    "▁ایسلند": 6800,
    "▁رستم": 6801,
    "▁اسرارآمیز": 6802,
    "▁تکواندو": 6803,
    "▁هیدرو": 6804,
    "▁صلیب": 6805,
    "▁فلاکت": 6806,
    "▁مجلات": 6807,
    "تمع": 6808,
    "▁جادوگر": 6809,
    "▁ناچیز": 6810,
    "▁هریرود": 6811,
    "▁ثور": 6812,
    "▁ایلام": 6813,
    "▁کرمانپور": 6814,
    "▁رفیق": 6815,
    "کاراکاس": 6816,
    "▁بدانید": 6817,
    "▁پرجمعیت": 6818,
    "▁فیصل": 6819,
    "▁آفرید": 6820,
    "▁میدهد": 6821,
    "▁سوت": 6822,
    "اندیش": 6823,
    "▁بریجز": 6824,
    "گران": 6825,
    "▁واپس": 6826,
    "▁دندان": 6827,
    "▁چرم": 6828,
    "▁کلکسیون": 6829,
    "▁قبرستان": 6830,
    "بزرگ": 6831,
    "▁بخواهند": 6832,
    "▁داگ": 6833,
    "▁ویلسون": 6834,
    "▁مذک": 6835,
    "▁محاف": 6836,
    "▁واگیر": 6837,
    "▁ترقی": 6838,
    "▁سموم": 6839,
    "▁ربای": 6840,
    "▁مردادماه": 6841,
    "▁نشوند": 6842,
    "▁اجزا": 6843,
    "▁کاسپی": 6844,
    "▁ابولا": 6845,
    "▁تصرف": 6846,
    "▁قورباغه": 6847,
    "▁نورماگومدوف": 6848,
    "▁سیگنال": 6849,
    "▁عزت": 6850,
    "▁امپر": 6851,
    "▁قرائت": 6852,
    "▁بازتاب": 6853,
    "ژگان": 6854,
    "▁متکی": 6855,
    "▁گرگور": 6856,
    "▁بپذیر": 6857,
    "▁مارلی": 6858,
    "رمان": 6859,
    "▁دیرتر": 6860,
    "▁کلمات": 6861,
    "▁بایستند": 6862,
    "▁پرشمار": 6863,
    "دوران": 6864,
    "▁وکارها": 6865,
    "▁تنیده": 6866,
    "▁توئیتر": 6867,
    "▁تعمیرات": 6868,
    "▁رومانیا": 6869,
    "انتینو": 6870,
    "▁مانور": 6871,
    "▁گردیم": 6872,
    "▁خانود": 6873,
    "▁انکار": 6874,
    "▁برونته": 6875,
    "▁لورک": 6876,
    "▁مقیاس": 6877,
    "▁لاپورتا": 6878,
    "زاد": 6879,
    "▁اشکالات": 6880,
    "▁فهیم": 6881,
    "▁توبین": 6882,
    "▁گپ": 6883,
    "▁حکیم": 6884,
    "▁فلامینگوها": 6885,
    "رومن": 6886,
    "▁نیامد": 6887,
    "▁آندرس": 6888,
    "▁اضافی": 6889,
    "▁افول": 6890,
    "شقان": 6891,
    "▁مولف": 6892,
    "▁والتر": 6893,
    "▁کاشف": 6894,
    "▁چشید": 6895,
    "نشان": 6896,
    "بالا": 6897,
    "▁جذابیت": 6898,
    "▁ایستادند": 6899,
    "▁سرخک": 6900,
    "▁دردسرهای": 6901,
    "▁توتال": 6902,
    "▁اسید": 6903,
    "▁توبی": 6904,
    "▁دانشگر": 6905,
    "▁هک": 6906,
    "▁نصر": 6907,
    "▁دماغ": 6908,
    "▁سفت": 6909,
    "▁کشورهاست": 6910,
    "چر": 6911,
    "▁تناقض": 6912,
    "▁زوم": 6913,
    "▁فراخواند": 6914,
    "▁محرک": 6915,
    "▁شن": 6916,
    "▁فره": 6917,
    "دلایل": 6918,
    "▁ورق": 6919,
    "▁تردیدهای": 6920,
    "▁فاضل": 6921,
    "▁نماید": 6922,
    "▁سک": 6923,
    "▁تم": 6924,
    "▁فروند": 6925,
    "▁بدهید": 6926,
    "▁پیمانکاران": 6927,
    "▁اصطلاحا": 6928,
    "▁شوق": 6929,
    "▁استعفاها": 6930,
    "▁مطیعی": 6931,
    "▁عطف": 6932,
    "ئه": 6933,
    "▁پرکار": 6934,
    "ماجرای": 6935,
    "اماتیک": 6936,
    "▁اینف": 6937,
    "په": 6938,
    "▁گویم": 6939,
    "▁مشتاقان": 6940,
    "دام": 6941,
    "اتح": 6942,
    "ایت": 6943,
    "▁جس": 6944,
    "یلی": 6945,
    "توت": 6946,
    "سارت": 6947,
    "▁آلت": 6948,
    "▁امیدهای": 6949,
    "▁کلن": 6950,
    "▁موتورها": 6951,
    "▁شعرهای": 6952,
    "برداری": 6953,
    "ایشگاه": 6954,
    "الیف": 6955,
    "▁بدنشان": 6956,
    "▁مستندهای": 6957,
    "▁پیامبر": 6958,
    "تاد": 6959,
    "▁نگذاشته": 6960,
    "▁مثل": 6961,
    "▁ترسید": 6962,
    "سف": 6963,
    "نزل": 6964,
    "▁ائ": 6965,
    "▁رضایی": 6966,
    "لاخ": 6967,
    "▁پژوهشهای": 6968,
    "اصل": 6969,
    "ریا": 6970,
    "ولت": 6971,
    "▁دانا": 6972,
    "تالی": 6973,
    "نوم": 6974,
    "▁مسا": 6975,
    "ولین": 6976,
    "▁پیشنهادهای": 6977,
    "خن": 6978,
    "ندرت": 6979,
    "▁سناریوها": 6980,
    "مزه": 6981,
    "معدنچی": 6982,
    "▁استیو": 6983,
    "▁مراکش": 6984,
    "ارل": 6985,
    "▁استوایی": 6986,
    "فارم": 6987,
    "شش": 6988,
    "▁فتحی": 6989,
    "▁کوری": 6990,
    "افشار": 6991,
    "پزشکی": 6992,
    "▁فک": 6993,
    "▁ابی": 6994,
    "▁قی": 6995,
    "▁شیب": 6996,
    "دانه": 6997,
    "▁لیر": 6998,
    "▁اروپاست": 6999,
    "▁بازگشتند": 7000,
    "▁سردست": 7001,
    "▁یوسفی": 7002,
    "▁نیکو": 7003,
    "رسید": 7004,
    "▁هواپیماساز": 7005,
    "زود": 7006,
    "▁ابو": 7007,
    "▁سومو": 7008,
    "▁کورت": 7009,
    "▁دانستن": 7010,
    "وستون": 7011,
    "▁کلور": 7012,
    "▁صحرای": 7013,
    "ومی": 7014,
    "▁صدایش": 7015,
    "زو": 7016,
    "▁دیسک": 7017,
    "مو": 7018,
    "ستر": 7019,
    "روف": 7020,
    "▁بخشیده": 7021,
    "▁بخوان": 7022,
    "▁کریس": 7023,
    "سمعی": 7024,
    "▁لیل": 7025,
    "یلد": 7026,
    "▁حکمت": 7027,
    "▁آبهای": 7028,
    "▁دوسال": 7029,
    "▁روزبه": 7030,
    "▁نوآوران": 7031,
    "موتو": 7032,
    "▁زر": 7033,
    "▁زین": 7034,
    "زیرو": 7035,
    "▁کورو": 7036,
    "بصر": 7037,
    "▁مردن": 7038,
    "▁دزدی": 7039,
    "▁بلخی": 7040,
    "پانز": 7041,
    "شون": 7042,
    "▁آز": 7043,
    "وژان": 7044,
    "خالف": 7045,
    "▁یاب": 7046,
    "▁لوک": 7047,
    "نمی": 7048,
    "▁دلو": 7049,
    "گردانده": 7050,
    "دال": 7051,
    "▁لیک": 7052,
    "▁پال": 7053,
    "زمه": 7054,
    "▁لیز": 7055,
    "دوش": 7056,
    "کوس": 7057,
    "۲۲": 7058,
    "▁شنای": 7059,
    "دیدار": 7060,
    "▁شدیم": 7061,
    "▁بگ": 7062,
    "حلال": 7063,
    "▁مینیاتور": 7064,
    "کافی": 7065,
    "▁رجبی": 7066,
    "▁میکروبی": 7067,
    "▁ورز": 7068,
    "نولد": 7069,
    "▁نیلی": 7070,
    "▁اینست": 7071,
    "▁کلیت": 7072,
    "انشهر": 7073,
    "▁نازل": 7074,
    "▁بگذاری": 7075,
    "درهای": 7076,
    "فان": 7077,
    "هیج": 7078,
    "لات": 7079,
    "۸۱": 7080,
    "وپ": 7081,
    "▁شدایران": 7082,
    "ارتوم": 7083,
    "▁عدل": 7084,
    "▁اسلو": 7085,
    "جیان": 7086,
    "▁هرجا": 7087,
    "▁هرج": 7088,
    "▁آف": 7089,
    "▁انگ": 7090,
    "ریزی": 7091,
    "یتا": 7092,
    "▁دک": 7093,
    "ائ": 7094,
    "ینکی": 7095,
    "▁آش": 7096,
    "▁مست": 7097,
    "▁رویز": 7098,
    "▁بارتو": 7099,
    "▁جیم": 7100,
    "تازه": 7101,
    "▁هوم": 7102,
    "جاب": 7103,
    "▁عمرش": 7104,
    "▁اورگ": 7105,
    "سید": 7106,
    "ارا": 7107,
    "غلو": 7108,
    "▁سیت": 7109,
    "▁وث": 7110,
    "نیوز": 7111,
    "گستر": 7112,
    "فروش": 7113,
    "روسیا": 7114,
    "سارا": 7115,
    "▁منامه": 7116,
    "▁نزده": 7117,
    "ملی": 7118,
    "▁دژ": 7119,
    "شدن": 7120,
    "واز": 7121,
    "جیل": 7122,
    "▁لیپ": 7123,
    "▁بروی": 7124,
    "▁ادوار": 7125,
    "▁یاسم": 7126,
    "خانی": 7127,
    "کوم": 7128,
    "چل": 7129,
    "▁۶۶": 7130,
    "▁ضم": 7131,
    "▁یوسف": 7132,
    "▁مساعد": 7133,
    "▁تعل": 7134,
    "▁غور": 7135,
    "▁اصولگرا": 7136,
    "تراپ": 7137,
    "▁صوت": 7138,
    "▁پاب": 7139,
    "پو": 7140,
    "▁سلیمان": 7141,
    "دوستان": 7142,
    "▁نمادها": 7143,
    "یمو": 7144,
    "▁پنس": 7145,
    "حرف": 7146,
    "اندن": 7147,
    "▁هواپیماها": 7148,
    "▁سپرد": 7149,
    "انسون": 7150,
    "▁جید": 7151,
    "تورهای": 7152,
    "رویا": 7153,
    "▁سوزان": 7154,
    "▁هیل": 7155,
    "▁نزدیکتر": 7156,
    "▁شناورها": 7157,
    "اویر": 7158,
    "ریتز": 7159,
    "▁خواستم": 7160,
    "وتر": 7161,
    "▁جعفر": 7162,
    "زبان": 7163,
    "▁مدرس": 7164,
    "▁۷۱": 7165,
    "کلیف": 7166,
    "▁الس": 7167,
    "▁ندید": 7168,
    "▁باردار": 7169,
    "▁منسو": 7170,
    "▁قا": 7171,
    "آفرینی": 7172,
    "شنبه": 7173,
    "عت": 7174,
    "▁جمل": 7175,
    "▁کون": 7176,
    "▁۲۶۰": 7177,
    "درنا": 7178,
    "▁آس": 7179,
    "وندی": 7180,
    "▁بازدیدکنند": 7181,
    "کاب": 7182,
    "▁اپی": 7183,
    "▁ماریان": 7184,
    "کریست": 7185,
    "مزد": 7186,
    "بریتانیا": 7187,
    "▁۴۲۰": 7188,
    "▁وول": 7189,
    "فرستند": 7190,
    "انتخاب": 7191,
    "ژیل": 7192,
    "پرداخت": 7193,
    "علم": 7194,
    "آرامکو": 7195,
    "خشکسالی": 7196,
    "سیزدهم": 7197,
    "آکادمی": 7198,
    "اتفاقات": 7199,
    "دقیق": 7200,
    "مطالع": 7201,
    "رویترز": 7202,
    "نژاد": 7203,
    "حذف": 7204,
    "سفارت": 7205,
    "هواداران": 7206,
    "صعود": 7207,
    "صنعت": 7208,
    "موضوع": 7209,
    "گمرک": 7210,
    "حقوق": 7211,
    "تایسون": 7212,
    "بازداشت": 7213,
    "جایزه": 7214,
    "فیروز": 7215,
    "ماشین": 7216,
    "کاخ": 7217,
    "دنیل": 7218,
    "عزیز": 7219,
    "مسئول": 7220,
    "اتهامات": 7221,
    "اسناد": 7222,
    "تحریم": 7223,
    "نشست": 7224,
    "حساب": 7225,
    "دادستان": 7226,
    "تعجب": 7227,
    "کتاب": 7228,
    "لستر": 7229,
    "تامی": 7230,
    "لیگا": 7231,
    "سنگر": 7232,
    "▁۲۱۰": 7233,
    "لیتو": 7234,
    "وکیل": 7235,
    "▁پروازهایش": 7236,
    "دوج": 7237,
    "وین": 7238,
    "نرخ": 7239,
    "▁لندر": 7240,
    "▁سندر": 7241,
    "کاسی": 7242,
    "▁مث": 7243,
    "▁شو": 7244,
    "نقش": 7245,
    "▁صیاد": 7246,
    "▁باخ": 7247,
    "وود": 7248,
    "▁انصاری": 7249,
    "مردان": 7250,
    "▁ایرانایران": 7251,
    "▁مافی": 7252,
    "مشق": 7253,
    "▁اقام": 7254,
    "▁ژر": 7255,
    "▁بسر": 7256,
    "صال": 7257,
    "▁زادگاه": 7258,
    "▁مزای": 7259,
    "▁موزیک": 7260,
    "▁احداث": 7261,
    "▁اختاپوس": 7262,
    "▁اقوام": 7263,
    "▁انتقام": 7264,
    "▁اورشلیم": 7265,
    "▁بیضائی": 7266,
    "▁جگوار": 7267,
    "▁حناچی": 7268,
    "▁دموکراسی": 7269,
    "▁زاکربرگ": 7270,
    "▁سخاوتمند": 7271,
    "▁غواص": 7272,
    "▁متقلب": 7273,
    "▁محتاط": 7274,
    "▁منظوم": 7275,
    "▁ناسازگار": 7276,
    "▁هژمون": 7277,
    "▁الارض": 7278,
    "▁سارقان": 7279,
    "▁مستاجر": 7280,
    "▁موریکونه": 7281,
    "▁اوقاف": 7282,
    "▁بولونیا": 7283,
    "▁هورمون": 7284,
    "▁کارائیب": 7285,
    "▁اکسیدکربن": 7286,
    "▁تذکر": 7287,
    "▁زوایا": 7288,
    "▁انسولین": 7289,
    "▁بیضایی": 7290,
    "▁وسواس": 7291,
    "▁کابوس": 7292,
    "▁انزوا": 7293,
    "▁باشکوه": 7294,
    "▁موازات": 7295,
    "▁فرمانروای": 7296,
    "▁لشکر": 7297,
    "▁ندارید": 7298,
    "▁اوزیل": 7299,
    "▁بلغار": 7300,
    "▁کوواکس": 7301,
    "▁سرسخت": 7302,
    "▁درآید": 7303,
    "▁کومله": 7304,
    "▁میچام": 7305,
    "▁هکتار": 7306,
    "▁بشود": 7307,
    "▁اوزون": 7308,
    "▁لاوروف": 7309,
    "▁تومور": 7310,
    "▁ناخودآگاه": 7311,
    "▁تتلو": 7312,
    "▁کواچ": 7313,
    "▁تدارک": 7314,
    "▁لقمان": 7315,
    "▁فراهانی": 7316,
    "▁نیکزاد": 7317,
    "▁باچان": 7318,
    "▁کبیری": 7319,
    "▁عناب": 7320,
    "▁لشگر": 7321,
    "▁مشروعیت": 7322,
    "▁ارباب": 7323,
    "▁کوشنر": 7324,
    "▁شمش": 7325,
    "▁مبتکر": 7326,
    "▁دیزل": 7327,
    "▁فورمن": 7328,
    "▁ارمجانی": 7329,
    "خضر": 7330,
    "▁خویشتن": 7331,
    "▁اهرم": 7332,
    "▁هتلداران": 7333,
    "▁تقلا": 7334,
    "تروئ": 7335,
    "▁مالزی": 7336,
    "ضلع": 7337,
    "▁تایوان": 7338,
    "▁دشتکی": 7339,
    "تالیا": 7340,
    "▁سازگار": 7341,
    "▁همفکر": 7342,
    "▁لاتکس": 7343,
    "▁پاستور": 7344,
    "▁صربستان": 7345,
    "▁بخواب": 7346,
    "▁خاکستر": 7347,
    "▁حشر": 7348,
    "▁خشمگین": 7349,
    "▁واجد": 7350,
    "▁شروط": 7351,
    "▁مجاور": 7352,
    "▁ستیزانه": 7353,
    "▁سفال": 7354,
    "▁زشت": 7355,
    "▁بکاهند": 7356,
    "▁نباشند": 7357,
    "▁ناخشنود": 7358,
    "▁نیرومند": 7359,
    "▁نگهداشت": 7360,
    "آزادی": 7361,
    "▁۱۹۷۹": 7362,
    "لگار": 7363,
    "▁میشود": 7364,
    "▁نافرجام": 7365,
    "▁قدردان": 7366,
    "▁دامغان": 7367,
    "▁کولاک": 7368,
    "▁شاکی": 7369,
    "ذاب": 7370,
    "▁آزاردید": 7371,
    "▁ونوس": 7372,
    "▁نثر": 7373,
    "▁امداد": 7374,
    "▁بزاق": 7375,
    "▁مرموز": 7376,
    "یوئیت": 7377,
    "▁اتلان": 7378,
    "▁نابینا": 7379,
    "▁برگرداندن": 7380,
    "▁نابویایی": 7381,
    "▁جملات": 7382,
    "قراض": 7383,
    "▁۱۹۹۴": 7384,
    "▁آنجل": 7385,
    "▁شکوه": 7386,
    "▁برلوسکونی": 7387,
    "▁خسرو": 7388,
    "▁عبدالسلام": 7389,
    "▁امپرا": 7390,
    "▁دمکرات": 7391,
    "لیت": 7392,
    "▁نایتلی": 7393,
    "▁جع": 7394,
    "▁نورالله": 7395,
    "فرشی": 7396,
    "▁مختصر": 7397,
    "▁متوازن": 7398,
    "▁تقریب": 7399,
    "قبره": 7400,
    "▁سیدنی": 7401,
    "▁انرو": 7402,
    "▁برویم": 7403,
    "▁تحرکات": 7404,
    "▁ببند": 7405,
    "▁صبا": 7406,
    "▁متقابل": 7407,
    "▁پردازش": 7408,
    "▁همسایگان": 7409,
    "▁ورزند": 7410,
    "▁زالی": 7411,
    "▁پوسید": 7412,
    "▁پرستون": 7413,
    "▁بدهم": 7414,
    "▁ابول": 7415,
    "وبیل": 7416,
    "▁کوید": 7417,
    "▁بدویا": 7418,
    "▁چرن": 7419,
    "▁پاشید": 7420,
    "▁ترانس": 7421,
    "▁سرگردان": 7422,
    "▁اشخاص": 7423,
    "▁فلم": 7424,
    "▁بشنوید": 7425,
    "▁نزن": 7426,
    "نیتو": 7427,
    "▁کمربندهای": 7428,
    "▁ناسیونالیس": 7429,
    "▁ژرف": 7430,
    "▁رسند": 7431,
    "▁بیکارشد": 7432,
    "▁۱۸۸": 7433,
    "▁خوشبین": 7434,
    "▁ندادند": 7435,
    "▁ابزارهای": 7436,
    "▁قامت": 7437,
    "▁خب": 7438,
    "▁سادگی": 7439,
    "▁روبات": 7440,
    "▁۱۰۹": 7441,
    "▁سولو": 7442,
    "بیح": 7443,
    "▁اغ": 7444,
    "▁اکثرا": 7445,
    "سنج": 7446,
    "▁وفا": 7447,
    "فرانسه": 7448,
    "▁حسگرها": 7449,
    "▁دریانورد": 7450,
    "▁اشتها": 7451,
    "هنگام": 7452,
    "▁آشو": 7453,
    "▁دیابت": 7454,
    "▁یوهان": 7455,
    "▁لوپ": 7456,
    "▁لیبر": 7457,
    "▁بزرگسال": 7458,
    "▁گریخت": 7459,
    "▁درشت": 7460,
    "▁درمیان": 7461,
    "▁توانمند": 7462,
    "▁اندازند": 7463,
    "▁کامیاب": 7464,
    "▁چاق": 7465,
    "▁بکار": 7466,
    "▁آگوست": 7467,
    "▁عمیقا": 7468,
    "ریکو": 7469,
    "▁معلمان": 7470,
    "▁اسل": 7471,
    "اتل": 7472,
    "▁چغا": 7473,
    "▁عینک": 7474,
    "▁اتری": 7475,
    "ریش": 7476,
    "▁نیافتن": 7477,
    "صف": 7478,
    "نظار": 7479,
    "▁چرخید": 7480,
    "گوگوش": 7481,
    "لسون": 7482,
    "تهم": 7483,
    "▁چهارده": 7484,
    "هرزاد": 7485,
    "▁رویت": 7486,
    "▁دانل": 7487,
    "▁هاروی": 7488,
    "آقازاده": 7489,
    "▁رخدادهای": 7490,
    "▁برگشتند": 7491,
    "▁تشوی": 7492,
    "▁بندهای": 7493,
    "▁شالی": 7494,
    "خشنود": 7495,
    "▁ادین": 7496,
    "الیود": 7497,
    "قهرمانی": 7498,
    "▁فرستادن": 7499,
    "▁همهمه": 7500,
    "▁مجتب": 7501,
    "▁گاردن": 7502,
    "▁خوشی": 7503,
    "▁آغازکرد": 7504,
    "گردانی": 7505,
    "▁گراند": 7506,
    "▁بدهیم": 7507,
    "▁ریلی": 7508,
    "▁سرگرفت": 7509,
    "▁بازنش": 7510,
    "راست": 7511,
    "اثر": 7512,
    "▁سازهای": 7513,
    "▁راوی": 7514,
    "شانت": 7515,
    "۴۹": 7516,
    "وشیرو": 7517,
    "▁اثرگذار": 7518,
    "▁۱۳۱": 7519,
    "▁تشکیلات": 7520,
    "▁بدو": 7521,
    "رده": 7522,
    "▁کارلو": 7523,
    "۹۷": 7524,
    "▁احتیا": 7525,
    "▁سیلی": 7526,
    "برگزار": 7527,
    "▁عثمانی": 7528,
    "▁جادوی": 7529,
    "▁هندو": 7530,
    "▁لوس": 7531,
    "▁تایی": 7532,
    "▁افکند": 7533,
    "ریدار": 7534,
    "▁حوال": 7535,
    "اختگ": 7536,
    "▁محوری": 7537,
    "▁وتو": 7538,
    "▁شکستگی": 7539,
    "▁خودکار": 7540,
    "چهل": 7541,
    "▁هارد": 7542,
    "▁اقسا": 7543,
    "▁سوزاند": 7544,
    "▁فیو": 7545,
    "هفتصد": 7546,
    "▁تاثیرات": 7547,
    "ائب": 7548,
    "▁پارت": 7549,
    "کرده": 7550,
    "▁جود": 7551,
    "▁باربی": 7552,
    "▁کوچه": 7553,
    "▁پهنه": 7554,
    "اشک": 7555,
    "▁سانتا": 7556,
    "▁سالمند": 7557,
    "▁شکوف": 7558,
    "قد": 7559,
    "باق": 7560,
    "▁کشیدند": 7561,
    "لار": 7562,
    "▁بنده": 7563,
    "نویس": 7564,
    "▁ناصری": 7565,
    "▁دیرین": 7566,
    "▁آمونی": 7567,
    "▁آمل": 7568,
    "▁امیرم": 7569,
    "▁بستند": 7570,
    "▁ارغ": 7571,
    "واقعی": 7572,
    "آنچ": 7573,
    "جر": 7574,
    "دوت": 7575,
    "▁ماخ": 7576,
    "گرفتن": 7577,
    "▁مشهورتر": 7578,
    "گزار": 7579,
    "▁غیرع": 7580,
    "▁ممی": 7581,
    "▁کنش": 7582,
    "▁نزدیکانش": 7583,
    "▁برخاست": 7584,
    "▁لئوپ": 7585,
    "▁اینچ": 7586,
    "ورود": 7587,
    "▁رویاهای": 7588,
    "▁غوری": 7589,
    "کوئ": 7590,
    "▁مایا": 7591,
    "▁دویچ": 7592,
    "لنی": 7593,
    "▁منفور": 7594,
    "▁روما": 7595,
    "▁شکستند": 7596,
    "▁بهم": 7597,
    "برند": 7598,
    "سانی": 7599,
    "▁نفربر": 7600,
    "عادل": 7601,
    "شمال": 7602,
    "تاکس": 7603,
    "وازی": 7604,
    "ورانه": 7605,
    "۳۸۰": 7606,
    "ساز": 7607,
    "▁کیمی": 7608,
    "گرم": 7609,
    "ائل": 7610,
    "ریض": 7611,
    "اسکورت": 7612,
    "ندان": 7613,
    "▁نب": 7614,
    "▁توافقات": 7615,
    "▁پلک": 7616,
    "برگر": 7617,
    "▁آلک": 7618,
    "▁بیکاران": 7619,
    "▁رایانه": 7620,
    "▁عینی": 7621,
    "▁استرا": 7622,
    "▁مسیری": 7623,
    "وفق": 7624,
    "▁پرستار": 7625,
    "▁واز": 7626,
    "ختی": 7627,
    "لیا": 7628,
    "▁پرستاره": 7629,
    "▁کالی": 7630,
    "▁مینیاتوری": 7631,
    "امد": 7632,
    "انح": 7633,
    "پدیده": 7634,
    "خواهند": 7635,
    "۱۲": 7636,
    "تینگ": 7637,
    "ینک": 7638,
    "ورس": 7639,
    "▁فرودست": 7640,
    "▁رانگل": 7641,
    "▁گذاریم": 7642,
    "▁شاهدان": 7643,
    "▁موریس": 7644,
    "کیا": 7645,
    "رژی": 7646,
    "▁جودوکا": 7647,
    "▁بدنم": 7648,
    "▁دریاب": 7649,
    "▁سفرش": 7650,
    "▁پرداز": 7651,
    "رعلی": 7652,
    "▁غد": 7653,
    "دوزی": 7654,
    "▁رکس": 7655,
    "▁مسخ": 7656,
    "▁کارتون": 7657,
    "▁کارول": 7658,
    "▁شجاعی": 7659,
    "۲۹": 7660,
    "▁برن": 7661,
    "فین": 7662,
    "▁محو": 7663,
    "▁معا": 7664,
    "گارد": 7665,
    "▁نجفی": 7666,
    "▁تحرکی": 7667,
    "▁آموختن": 7668,
    "▁شهریاری": 7669,
    "فشار": 7670,
    "کوه": 7671,
    "پژوه": 7672,
    "▁استودیوی": 7673,
    "▁لوف": 7674,
    "وض": 7675,
    "▁روبین": 7676,
    "نوی": 7677,
    "▁چپگرا": 7678,
    "▁آرزوها": 7679,
    "▁انسانها": 7680,
    "وما": 7681,
    "▁آلم": 7682,
    "بازد": 7683,
    "نتینو": 7684,
    "۹۶": 7685,
    "یانگ": 7686,
    "▁جورجی": 7687,
    "▁اوکا": 7688,
    "▁نیاورده": 7689,
    "رانر": 7690,
    "کردن": 7691,
    "متن": 7692,
    "۱۱": 7693,
    "▁امیدی": 7694,
    "هوش": 7695,
    "صله": 7696,
    "رجان": 7697,
    "۳۷": 7698,
    "▁کنارش": 7699,
    "روزهای": 7700,
    "▁نیوت": 7701,
    "▁شاد": 7702,
    "▁اشع": 7703,
    "▁حاج": 7704,
    "رزرو": 7705,
    "▁تولیدش": 7706,
    "▁تاجر": 7707,
    "▁ماریو": 7708,
    "کلاس": 7709,
    "▁بلندپرواز": 7710,
    "▁تجسم": 7711,
    "▁فلی": 7712,
    "▁هیولا": 7713,
    "▁هید": 7714,
    "پار": 7715,
    "سلطان": 7716,
    "▁مزایا": 7717,
    "نسل": 7718,
    "▁نمک": 7719,
    "▁فرح": 7720,
    "▁بعض": 7721,
    "▁گفتم": 7722,
    "▁۱۸۹": 7723,
    "رانگ": 7724,
    "▁قدیم": 7725,
    "خوش": 7726,
    "▁فدا": 7727,
    "محل": 7728,
    "ارکان": 7729,
    "▁رویدادها": 7730,
    "▁کوبی": 7731,
    "▁گیران": 7732,
    "کانس": 7733,
    "▁چاو": 7734,
    "▁شیرینی": 7735,
    "زاق": 7736,
    "▁مراد": 7737,
    "▁نگذاشت": 7738,
    "▁دکترا": 7739,
    "برو": 7740,
    "آر": 7741,
    "نفوس": 7742,
    "▁بازن": 7743,
    "▁لوب": 7744,
    "▁باکر": 7745,
    "▁قل": 7746,
    "▁هفده": 7747,
    "گزا": 7748,
    "▁۲۵۰۰": 7749,
    "▁جنب": 7750,
    "▁اپ": 7751,
    "سالار": 7752,
    "بازیکن": 7753,
    "رفتن": 7754,
    "▁چیزها": 7755,
    "فعال": 7756,
    "▁مستع": 7757,
    "▁نهادها": 7758,
    "صلاح": 7759,
    "▁نوزده": 7760,
    "آلبرت": 7761,
    "نهادهای": 7762,
    "مکزیکو": 7763,
    "ربکا": 7764,
    "▁السی": 7765,
    "▁سبی": 7766,
    "فاضل": 7767,
    "بفرستید": 7768,
    "نفوذ": 7769,
    "بیانسه": 7770,
    "قبض": 7771,
    "کثیر": 7772,
    "صریح": 7773,
    "ادعا": 7774,
    "کنگره": 7775,
    "احسا": 7776,
    "مناسبت": 7777,
    "ساعت": 7778,
    "ابراهیم": 7779,
    "مسعود": 7780,
    "نژادپرست": 7781,
    "منتظر": 7782,
    "فیزیک": 7783,
    "سرپرست": 7784,
    "جسد": 7785,
    "پالایشگاه": 7786,
    "نیویورک": 7787,
    "تیراندازی": 7788,
    "جنجال": 7789,
    "لحظ": 7790,
    "احتمال": 7791,
    "اسرائیل": 7792,
    "رکود": 7793,
    "بارسلونا": 7794,
    "محدودیت": 7795,
    "توافق": 7796,
    "قرنطینه": 7797,
    "کشورهای": 7798,
    "آموز": 7799,
    "شکایت": 7800,
    "شعر": 7801,
    "سازنده": 7802,
    "ترکیب": 7803,
    "میلیارد": 7804,
    "بحران": 7805,
    "تجرب": 7806,
    "تاریخ": 7807,
    "خیز": 7808,
    "▁سینا": 7809,
    "بیماری": 7810,
    "درحالی": 7811,
    "فرصت": 7812,
    "اوپک": 7813,
    "قرارداد": 7814,
    "فعالیت": 7815,
    "جواد": 7816,
    "مامور": 7817,
    "هجوم": 7818,
    "مرور": 7819,
    "نشری": 7820,
    "مالک": 7821,
    "طل": 7822,
    "▁آری": 7823,
    "▁بنام": 7824,
    "۱۴۰۰": 7825,
    "▁سیلا": 7826,
    "خودروهای": 7827,
    "▁آندریا": 7828,
    "میلان": 7829,
    "رییس": 7830,
    "حک": 7831,
    "کادی": 7832,
    "همکاری": 7833,
    "مصرف": 7834,
    "▁استبا": 7835,
    "لوگ": 7836,
    "مستند": 7837,
    "۳۳": 7838,
    "جمعیت": 7839,
    "ربط": 7840,
    "نمود": 7841,
    "▁پولها": 7842,
    "کیت": 7843,
    "چار": 7844,
    "▁جنگید": 7845,
    "جنگ": 7846,
    "▁فلامینگو": 7847,
    "نمایند": 7848,
    "سانسور": 7849,
    "لستون": 7850,
    "▁پیت": 7851,
    "دهم": 7852,
    "▁عس": 7853,
    "اده": 7854,
    "▁اندرو": 7855,
    "▁الزاما": 7856,
    "▁هیو": 7857,
    "▁توئیت": 7858,
    "واضع": 7859,
    "باسی": 7860,
    "▁مکالم": 7861,
    "▁تفنگ": 7862,
    "▁گرافی": 7863,
    "▁معصوم": 7864,
    "شابه": 7865,
    "▁رونالد": 7866,
    "▁مخابر": 7867,
    "▁الاجرا": 7868,
    "▁یابی": 7869,
    "▁غزنوی": 7870,
    "▁ابتذال": 7871,
    "▁اتمسفر": 7872,
    "▁اردکانیان": 7873,
    "▁اسکورسیزی": 7874,
    "▁الکترود": 7875,
    "▁اوزبیک": 7876,
    "▁برافراشت": 7877,
    "▁بیندازد": 7878,
    "▁تشعشع": 7879,
    "▁ذوالنور": 7880,
    "▁روزافزون": 7881,
    "▁زراعت": 7882,
    "▁فلسفی": 7883,
    "▁فیزیولوژی": 7884,
    "▁مفاهیم": 7885,
    "▁مقاطع": 7886,
    "▁منسجم": 7887,
    "▁میزورام": 7888,
    "▁تمایز": 7889,
    "▁کذب": 7890,
    "▁بکنید": 7891,
    "▁شریعت": 7892,
    "▁شنویم": 7893,
    "▁مقادیر": 7894,
    "▁مارگاریتا": 7895,
    "▁عنابستانی": 7896,
    "▁هامبورگ": 7897,
    "▁نافذ": 7898,
    "▁سولیوان": 7899,
    "▁برسانند": 7900,
    "▁سغد": 7901,
    "▁فکاهی": 7902,
    "▁بنکدارپور": 7903,
    "▁زیراتمی": 7904,
    "▁دگرباش": 7905,
    "▁سانتیاگو": 7906,
    "▁پغمان": 7907,
    "▁تجسس": 7908,
    "▁برنامک": 7909,
    "▁سرامیک": 7910,
    "▁بکشم": 7911,
    "▁وجدان": 7912,
    "▁ژائو": 7913,
    "▁آنتوان": 7914,
    "▁بانکوک": 7915,
    "▁فواید": 7916,
    "یونیسف": 7917,
    "▁تنگاتنگ": 7918,
    "▁ماهرویان": 7919,
    "▁بخورد": 7920,
    "▁تراشید": 7921,
    "▁تمهید": 7922,
    "صنوف": 7923,
    "▁فاکتور": 7924,
    "▁حصبه": 7925,
    "▁تسخیر": 7926,
    "▁گوارش": 7927,
    "▁سولشر": 7928,
    "▁تمیز": 7929,
    "▁آستین": 7930,
    "▁بازدارند": 7931,
    "▁کوپا": 7932,
    "▁غزل": 7933,
    "▁شنوند": 7934,
    "▁هیوستون": 7935,
    "۱۹۶۴": 7936,
    "▁اسکلت": 7937,
    "▁الخروج": 7938,
    "▁مادربزرگ": 7939,
    "▁حیثیت": 7940,
    "▁غذاخور": 7941,
    "▁بلندپایه": 7942,
    "داعش": 7943,
    "▁آنچنان": 7944,
    "▁برنگرداند": 7945,
    "موث": 7946,
    "▁آوینی": 7947,
    "▁هادرون": 7948,
    "پوشانی": 7949,
    "▁چوپ": 7950,
    "▁بمیرد": 7951,
    "▁هنگفت": 7952,
    "▁پترولی": 7953,
    "▁ظالمانه": 7954,
    "▁آصف": 7955,
    "▁الاجراست": 7956,
    "▁مغایر": 7957,
    "دخای": 7958,
    "▁نصیر": 7959,
    "▁لوگو": 7960,
    "▁عوا": 7961,
    "▁مجزا": 7962,
    "یگز": 7963,
    "▁هنکس": 7964,
    "▁آپوف": 7965,
    "▁لغز": 7966,
    "▁بپردازند": 7967,
    "آنگولا": 7968,
    "▁فرشید": 7969,
    "▁توفندها": 7970,
    "▁مخوف": 7971,
    "زیمبا": 7972,
    "▁دلجو": 7973,
    "▁مکالمات": 7974,
    "▁هندرسون": 7975,
    "▁آغ": 7976,
    "▁بزنیم": 7977,
    "▁صفاری": 7978,
    "▁اغما": 7979,
    "▁ستود": 7980,
    "▁حشرات": 7981,
    "▁ملوان": 7982,
    "▁سودجو": 7983,
    "▁شمرد": 7984,
    "▁گرافیک": 7985,
    "▁گاف": 7986,
    "▁حماس": 7987,
    "▁جهنم": 7988,
    "▁گنبد": 7989,
    "▁رباب": 7990,
    "▁عبدالرحم": 7991,
    "▁محتمل": 7992,
    "▁هافکین": 7993,
    "▁راجپوت": 7994,
    "▁مالباخت": 7995,
    "▁شایان": 7996,
    "▁ببریم": 7997,
    "▁بخوانند": 7998,
    "▁عقاب": 7999,
    "▁گوترش": 8000,
    "▁فاکس": 8001,
    "▁لرزید": 8002,
    "▁عزل": 8003,
    "▁وارث": 8004,
    "▁قبایل": 8005,
    "▁معنادار": 8006,
    "نازل": 8007,
    "▁دانید": 8008,
    "▁کاردوس": 8009,
    "ولوو": 8010,
    "▁۲۲۰": 8011,
    "▁شنوایی": 8012,
    "▁نوابی": 8013,
    "مختار": 8014,
    "▁لج": 8015,
    "▁راشد": 8016,
    "▁نخواست": 8017,
    "متاز": 8018,
    "▁چندرایان": 8019,
    "▁تربت": 8020,
    "▁بارکلی": 8021,
    "▁متغیرهای": 8022,
    "▁تجربیات": 8023,
    "▁بهائی": 8024,
    "▁خودمختار": 8025,
    "▁ایزد": 8026,
    "▁اجداد": 8027,
    "▁هموطنان": 8028,
    "▁یقین": 8029,
    "▁بادام": 8030,
    "▁درخشد": 8031,
    "▁دلسوز": 8032,
    "▁آریا": 8033,
    "▁بدود": 8034,
    "فمن": 8035,
    "▁شراب": 8036,
    "▁جداسازی": 8037,
    "▁اسکات": 8038,
    "▁سلیق": 8039,
    "▁همدان": 8040,
    "▁اوساکا": 8041,
    "▁فالک": 8042,
    "▁بیگم": 8043,
    "گوئه": 8044,
    "▁۲۴۸": 8045,
    "▁یوآن": 8046,
    "▁۱۱۹": 8047,
    "▁پرفسور": 8048,
    "▁پربار": 8049,
    "▁مرمر": 8050,
    "▁صیادان": 8051,
    "وفیا": 8052,
    "▁۱۹۱۸": 8053,
    "▁فعالیتش": 8054,
    "▁فوتسی": 8055,
    "▁گرون": 8056,
    "▁بیایند": 8057,
    "▁فراگرفت": 8058,
    "▁سفیدپوستان": 8059,
    "پالا": 8060,
    "حور": 8061,
    "▁بکر": 8062,
    "تمامی": 8063,
    "عطا": 8064,
    "▁فوب": 8065,
    "▁ترکمان": 8066,
    "دیوم": 8067,
    "▁تعرض": 8068,
    "مندان": 8069,
    "▁شاهکارهای": 8070,
    "▁مطمئنا": 8071,
    "▁کرونازده": 8072,
    "▁بزرگسالان": 8073,
    "▁درمانگاه": 8074,
    "▁بنفش": 8075,
    "▁اخترشناس": 8076,
    "ارگ": 8077,
    "▁آتن": 8078,
    "▁سواد": 8079,
    "▁گوا": 8080,
    "▁معلومات": 8081,
    "▁۲۱۶": 8082,
    "▁توسل": 8083,
    "▁افشاگر": 8084,
    "حاملگی": 8085,
    "ربین": 8086,
    "▁شجاعت": 8087,
    "▁مادام": 8088,
    "نعیم": 8089,
    "نوشت": 8090,
    "▁الری": 8091,
    "والد": 8092,
    "▁چتر": 8093,
    "▁وایت": 8094,
    "▁کریر": 8095,
    "▁حقوقدان": 8096,
    "▁امضاکنند": 8097,
    "▁برنج": 8098,
    "▁درصورت": 8099,
    "▁قلمرو": 8100,
    "▁مستح": 8101,
    "بیت": 8102,
    "▁نوپا": 8103,
    "عاب": 8104,
    "▁متاسفم": 8105,
    "▁قمر": 8106,
    "نشأ": 8107,
    "▁دز": 8108,
    "سوی": 8109,
    "▁باک": 8110,
    "▁افزارهای": 8111,
    "قطع": 8112,
    "▁محص": 8113,
    "▁گراز": 8114,
    "ناوب": 8115,
    "▁فرشت": 8116,
    "مانیا": 8117,
    "سوار": 8118,
    "▁قبض": 8119,
    "▁ربکا": 8120,
    "▁مناسبات": 8121,
    "تجمع": 8122,
    "▁کولبران": 8123,
    "▁گوستا": 8124,
    "حکم": 8125,
    "▁ارج": 8126,
    "▁مرج": 8127,
    "▁کساد": 8128,
    "▁رویکردهای": 8129,
    "▁شگرد": 8130,
    "▁افزودند": 8131,
    "دخیل": 8132,
    "پائولو": 8133,
    "▁مشق": 8134,
    "▁مکزیکو": 8135,
    "ندگرن": 8136,
    "▁راهکارهای": 8137,
    "▁سوییس": 8138,
    "▁پذیرد": 8139,
    "کولی": 8140,
    "تمایل": 8141,
    "▁ساندر": 8142,
    "▁ثق": 8143,
    "▁منازع": 8144,
    "▁حوت": 8145,
    "یدند": 8146,
    "▁مزد": 8147,
    "▁کنگو": 8148,
    "▁ساچ": 8149,
    "▁معترضین": 8150,
    "ستانگ": 8151,
    "▁دوهزار": 8152,
    "▁غذاهای": 8153,
    "▁شرت": 8154,
    "▁نع": 8155,
    "▁مورخ": 8156,
    "▁تجمعات": 8157,
    "قایق": 8158,
    "▁نظرش": 8159,
    "رین": 8160,
    "▁اصلاحی": 8161,
    "▁لطیفی": 8162,
    "▁آورم": 8163,
    "فیک": 8164,
    "▁لیلا": 8165,
    "▁نظ": 8166,
    "▁آمری": 8167,
    "▁عطار": 8168,
    "خوانی": 8169,
    "شیتز": 8170,
    "▁خصوصیات": 8171,
    "فو": 8172,
    "عود": 8173,
    "وثر": 8174,
    "نسوخ": 8175,
    "ادل": 8176,
    "تعدد": 8177,
    "▁قانونگذار": 8178,
    "▁رون": 8179,
    "▁آما": 8180,
    "▁یورد": 8181,
    "رنوش": 8182,
    "نازنی": 8183,
    "▁رگی": 8184,
    "▁راهکار": 8185,
    "وشن": 8186,
    "▁گنجان": 8187,
    "▁وود": 8188,
    "عات": 8189,
    "▁طو": 8190,
    "▁هایپر": 8191,
    "▁بیک": 8192,
    "▁سکس": 8193,
    "وماگا": 8194,
    "▁موسی": 8195,
    "▁سخ": 8196,
    "▁اظهارنظرهای": 8197,
    "ریکا": 8198,
    "▁مقدا": 8199,
    "▁بوهای": 8200,
    "▁نبودند": 8201,
    "تقابل": 8202,
    "▁نائ": 8203,
    "مک": 8204,
    "▁لیمو": 8205,
    "▁پرور": 8206,
    "▁فیزیوتراپ": 8207,
    "▁همگان": 8208,
    "میلیا": 8209,
    "▁موثرتر": 8210,
    "▁کمالی": 8211,
    "▁نایت": 8212,
    "▁بلندپروازی": 8213,
    "▁تجسمی": 8214,
    "▁ازس": 8215,
    "▁بلندهای": 8216,
    "▁مینیا": 8217,
    "▁دکترای": 8218,
    "▁سیمین": 8219,
    "▁صاحبش": 8220,
    "▁منش": 8221,
    "سوری": 8222,
    "▁اورک": 8223,
    "جات": 8224,
    "اتنگ": 8225,
    "وانیم": 8226,
    "صیر": 8227,
    "▁سلیم": 8228,
    "▁کیش": 8229,
    "اوران": 8230,
    "▁رن": 8231,
    "۷۵": 8232,
    "▁رقیبان": 8233,
    "تیپ": 8234,
    "▁نواخت": 8235,
    "تعدادی": 8236,
    "▁استانداردها": 8237,
    "الف": 8238,
    "▁کلینت": 8239,
    "صدا": 8240,
    "تیو": 8241,
    "▁کارتر": 8242,
    "راد": 8243,
    "نزو": 8244,
    "وارت": 8245,
    "ناتان": 8246,
    "▁حریری": 8247,
    "ستیک": 8248,
    "▁یادم": 8249,
    "مگان": 8250,
    "ایان": 8251,
    "اض": 8252,
    "کسان": 8253,
    "▁یادش": 8254,
    "▁گردهما": 8255,
    "▁تیز": 8256,
    "▁رودر": 8257,
    "▁یانگ": 8258,
    "هیچ": 8259,
    "▁تدا": 8260,
    "▁گذران": 8261,
    "خو": 8262,
    "▁استوار": 8263,
    "▁فول": 8264,
    "شوند": 8265,
    "▁آک": 8266,
    "برده": 8267,
    "▁۱۷۴": 8268,
    "▁وجوه": 8269,
    "ئوس": 8270,
    "لنگر": 8271,
    "▁ماجراجو": 8272,
    "ارز": 8273,
    "▁خوشنو": 8274,
    "وزش": 8275,
    "▁محی": 8276,
    "یکایی": 8277,
    "▁دریاها": 8278,
    "▁بنین": 8279,
    "کارولین": 8280,
    "▁استانهای": 8281,
    "▁آذری": 8282,
    "▁لطفی": 8283,
    "باند": 8284,
    "▁حسابدار": 8285,
    "ئ": 8286,
    "▁کوکا": 8287,
    "▁عفون": 8288,
    "ونیا": 8289,
    "اسکا": 8290,
    "▁شرکتها": 8291,
    "▁جور": 8292,
    "زمانی": 8293,
    "بوک": 8294,
    "چنین": 8295,
    "▁الکسا": 8296,
    "▁توفیقی": 8297,
    "▁ژیل": 8298,
    "تعارف": 8299,
    "▁کوک": 8300,
    "روث": 8301,
    "▁رید": 8302,
    "پدر": 8303,
    "▁اخت": 8304,
    "▁دستمزدها": 8305,
    "فیه": 8306,
    "شستن": 8307,
    "سیل": 8308,
    "▁نبردها": 8309,
    "▁میامی": 8310,
    "میرا": 8311,
    "▁وظایفش": 8312,
    "پرای": 8313,
    "▁مقد": 8314,
    "وسمی": 8315,
    "▁پترو": 8316,
    "ولو": 8317,
    "یتز": 8318,
    "ندگی": 8319,
    "ذخا": 8320,
    "▁کارم": 8321,
    "عمل": 8322,
    "▁پولهای": 8323,
    "۲۱": 8324,
    "پایه": 8325,
    "▁میخ": 8326,
    "▁تشک": 8327,
    "آم": 8328,
    "▁صمیم": 8329,
    "ودم": 8330,
    "▁زنم": 8331,
    "گرانی": 8332,
    "▁قای": 8333,
    "مالیا": 8334,
    "▁حم": 8335,
    "▁املا": 8336,
    "▁مترو": 8337,
    "ندر": 8338,
    "۱۰": 8339,
    "▁محصولش": 8340,
    "▁دستورها": 8341,
    "۴۴": 8342,
    "▁موس": 8343,
    "نسیم": 8344,
    "ارپنت": 8345,
    "▁مئ": 8346,
    "فرانس": 8347,
    "گرایی": 8348,
    "گذار": 8349,
    "▁بگو": 8350,
    "▁قه": 8351,
    "▁کیک": 8352,
    "میزان": 8353,
    "▁اط": 8354,
    "لاب": 8355,
    "▁اینج": 8356,
    "ماجرا": 8357,
    "قهرمان": 8358,
    "▁جوانب": 8359,
    "▁سنجی": 8360,
    "سپی": 8361,
    "نگوی": 8362,
    "▁دشوارتر": 8363,
    "سری": 8364,
    "▁ساق": 8365,
    "▁لنگ": 8366,
    "اندی": 8367,
    "▁عثمان": 8368,
    "▁۱۲۶": 8369,
    "▁گرجستان": 8370,
    "کوب": 8371,
    "رفت": 8372,
    "زنان": 8373,
    "▁اظهارنظرها": 8374,
    "امیلی": 8375,
    "▁خو": 8376,
    "▁مذهب": 8377,
    "سرع": 8378,
    "▁فعل": 8379,
    "▁تروریست": 8380,
    "ثه": 8381,
    "۲۷": 8382,
    "▁سخنگو": 8383,
    "▁سوکا": 8384,
    "▁وکا": 8385,
    "▁رف": 8386,
    "یناتور": 8387,
    "نفت": 8388,
    "▁هجده": 8389,
    "▁دلخو": 8390,
    "پروم": 8391,
    "▁۲۰۶": 8392,
    "▁دوور": 8393,
    "▁چیپ": 8394,
    "▁فاین": 8395,
    "شهدا": 8396,
    "▁جادو": 8397,
    "نگاره": 8398,
    "▁لیم": 8399,
    "▁استرلی": 8400,
    "دارا": 8401,
    "کنند": 8402,
    "▁کوتاهتر": 8403,
    "▁معوق": 8404,
    "تورم": 8405,
    "▁محبو": 8406,
    "الیزا": 8407,
    "▁گزی": 8408,
    "▁۱۰۲": 8409,
    "▁پیل": 8410,
    "اجرای": 8411,
    "▁صفا": 8412,
    "نگام": 8413,
    "گذران": 8414,
    "گنجی": 8415,
    "▁ناخ": 8416,
    "سپاه": 8417,
    "خصوص": 8418,
    "▁سلب": 8419,
    "گمش": 8420,
    "درآمد": 8421,
    "▁اپراتور": 8422,
    "صمد": 8423,
    "▁چون": 8424,
    "حکام": 8425,
    "دبیر": 8426,
    "تناقض": 8427,
    "چیده": 8428,
    "چاق": 8429,
    "اندرو": 8430,
    "تحرک": 8431,
    "اسحاق": 8432,
    "جمشید": 8433,
    "اضطراب": 8434,
    "▁فراخوان": 8435,
    "جزییات": 8436,
    "روبرت": 8437,
    "تفاهم": 8438,
    "بالگرد": 8439,
    "کاظم": 8440,
    "مهندس": 8441,
    "اسپوت": 8442,
    "خروج": 8443,
    "پیرلو": 8444,
    "راجع": 8445,
    "وبسایت": 8446,
    "ضرور": 8447,
    "فولاد": 8448,
    "خاوران": 8449,
    "اقبال": 8450,
    "سوئیس": 8451,
    "تخریب": 8452,
    "رونالدو": 8453,
    "حاشیه": 8454,
    "جیمز": 8455,
    "تماشاگر": 8456,
    "حادثه": 8457,
    "نویسندگان": 8458,
    "صادرات": 8459,
    "عملکرد": 8460,
    "سرمربی": 8461,
    "عربستان": 8462,
    "حمایت": 8463,
    "دانشگاه": 8464,
    "نزدیک": 8465,
    "آثار": 8466,
    "قسمت": 8467,
    "۲۰۲۰": 8468,
    "پاسخ": 8469,
    "ایلنا": 8470,
    "عملیات": 8471,
    "خالی": 8472,
    "جمله": 8473,
    "فرمانده": 8474,
    "وضعیت": 8475,
    "ربات": 8476,
    "ورزشگاه": 8477,
    "مدیرکل": 8478,
    "گوش": 8479,
    "جشن": 8480,
    "بیانیه": 8481,
    "پیکر": 8482,
    "خدم": 8483,
    "تابستان": 8484,
    "داریوش": 8485,
    "کنزو": 8486,
    "جمهوری": 8487,
    "سورها": 8488,
    "سناتور": 8489,
    "مکرون": 8490,
    "سینما": 8491,
    "جنسی": 8492,
    "فرام": 8493,
    "ضمن": 8494,
    "الگو": 8495,
    "خود": 8496,
    "واکسن": 8497,
    "صرب": 8498,
    "اعظم": 8499,
    "سیمون": 8500,
    "▁اسکا": 8501,
    "سبک": 8502,
    "پوشید": 8503,
    "▁حف": 8504,
    "▁طاه": 8505,
    "دریایی": 8506,
    "کولبر": 8507,
    "مدیریت": 8508,
    "امشب": 8509,
    "کانال": 8510,
    "سکار": 8511,
    "پوش": 8512,
    "ناسا": 8513,
    "طالبان": 8514,
    "برداشت": 8515,
    "قبلا": 8516,
    "گمان": 8517,
    "ساط": 8518,
    "پهن": 8519,
    "راکت": 8520,
    "بنز": 8521,
    "گردون": 8522,
    "عیار": 8523,
    "▁کیپ": 8524,
    "▁۳۳۰": 8525,
    "ناوگان": 8526,
    "بنیا": 8527,
    "هفتم": 8528,
    "▁حدف": 8529,
    "کشف": 8530,
    "بازیکنان": 8531,
    "بازارهای": 8532,
    "پینو": 8533,
    "ستحکم": 8534,
    "▁داینا": 8535,
    "عصب": 8536,
    "▁مبنا": 8537,
    "اتهام": 8538,
    "▁همسایگ": 8539,
    "▁۲۰۵": 8540,
    "وقف": 8541,
    "طابق": 8542,
    "درخواست": 8543,
    "▁شراف": 8544,
    "بولت": 8545,
    "آرت": 8546,
    "▁بخو": 8547,
    "▁مختص": 8548,
    "▁علام": 8549,
    "پرت": 8550,
    "صدق": 8551,
    "▁هموطن": 8552,
    "رشا": 8553,
    "نوسان": 8554,
    "▁تظاهر": 8555,
    "رگبار": 8556,
    "▁سیب": 8557,
    "مایند": 8558,
    "▁مکاتب": 8559,
    "▁مطبوع": 8560,
    "لگرام": 8561,
    "▁جولیا": 8562,
    "▁لغ": 8563,
    "▁اکونومی": 8564,
    "موکورمایکوزیس": 8565,
    "▁انحراف": 8566,
    "▁اوگوپوگو": 8567,
    "▁بشناسد": 8568,
    "▁بشنوند": 8569,
    "▁بورکینافاسو": 8570,
    "▁تماشگر": 8571,
    "▁تمسخر": 8572,
    "▁دزفول": 8573,
    "▁رادیواکتیو": 8574,
    "▁رامهرمز": 8575,
    "▁سزاوار": 8576,
    "▁سوراخ": 8577,
    "▁سوسیالیست": 8578,
    "▁غیاث": 8579,
    "▁فانخیو": 8580,
    "▁قیراط": 8581,
    "▁ناآشنا": 8582,
    "▁ناپلئون": 8583,
    "▁ولاسکز": 8584,
    "▁پترزبورگ": 8585,
    "▁پرسورینس": 8586,
    "▁پرینسخرا": 8587,
    "▁پومپئو": 8588,
    "▁کاریکاتور": 8589,
    "▁بفرستد": 8590,
    "▁بپیوندد": 8591,
    "▁عنایت": 8592,
    "▁قزوین": 8593,
    "▁متذکر": 8594,
    "▁متضاد": 8595,
    "▁ناپایدار": 8596,
    "▁نذری": 8597,
    "▁سرخپوشان": 8598,
    "▁سوبرانا": 8599,
    "▁محتکر": 8600,
    "▁مقصود": 8601,
    "▁غیرعمد": 8602,
    "▁وبلاگ": 8603,
    "▁تشریفات": 8604,
    "▁مجارستان": 8605,
    "▁مشهود": 8606,
    "▁میکروسکوپ": 8607,
    "▁شیطان": 8608,
    "▁صحافی": 8609,
    "▁مقبول": 8610,
    "▁معضل": 8611,
    "▁همجوار": 8612,
    "▁شرمسار": 8613,
    "▁بپرسید": 8614,
    "▁معشوق": 8615,
    "▁اساتید": 8616,
    "▁ایرلاین": 8617,
    "▁بگویید": 8618,
    "▁ببینم": 8619,
    "▁عبادی": 8620,
    "▁نقیض": 8621,
    "▁برسانیم": 8622,
    "▁نزاع": 8623,
    "▁کوئیک": 8624,
    "▁الجز": 8625,
    "▁اتمر": 8626,
    "▁هوندا": 8627,
    "▁طنزپرداز": 8628,
    "▁انهدام": 8629,
    "▁نوترینو": 8630,
    "▁عبرت": 8631,
    "▁بیانجامد": 8632,
    "▁معبد": 8633,
    "▁بیفتند": 8634,
    "▁جانبازان": 8635,
    "▁سوینتن": 8636,
    "▁نرساند": 8637,
    "▁شمع": 8638,
    "▁فرخزاد": 8639,
    "▁یوردانس": 8640,
    "▁لوکزامبورگ": 8641,
    "▁نحس": 8642,
    "ستراح": 8643,
    "▁۲۴۰": 8644,
    "▁ظلم": 8645,
    "▁لرزاند": 8646,
    "▁گزاف": 8647,
    "▁برلیناله": 8648,
    "▁مجلل": 8649,
    "▁نخاع": 8650,
    "▁ستمگر": 8651,
    "▁مصائب": 8652,
    "▁باروک": 8653,
    "▁موازن": 8654,
    "▁هیلتون": 8655,
    "▁نباشید": 8656,
    "▁نکونام": 8657,
    "▁سمنزا": 8658,
    "▁پوتین": 8659,
    "▁خیاط": 8660,
    "▁پوینت": 8661,
    "▁دروغگو": 8662,
    "▁پرمخاط": 8663,
    "▁لاستیک": 8664,
    "▁موتورسوار": 8665,
    "▁کبود": 8666,
    "▁طارمی": 8667,
    "▁آسایشگاه": 8668,
    "▁جرارد": 8669,
    "▁تظاهرکنندگان": 8670,
    "▁ایرویز": 8671,
    "ناعت": 8672,
    "▁مزیت": 8673,
    "▁گمارد": 8674,
    "▁کوونی": 8675,
    "▁نوشتارها": 8676,
    "▁مقننه": 8677,
    "▁مکوندی": 8678,
    "▁دیلن": 8679,
    "▁غمگین": 8680,
    "▁خمیس": 8681,
    "هالیفیلد": 8682,
    "▁کریگ": 8683,
    "▁ربود": 8684,
    "▁صداقت": 8685,
    "▁قهری": 8686,
    "▁ترمز": 8687,
    "▁آسود": 8688,
    "▁سرسبز": 8689,
    "▁غیرمعمول": 8690,
    "▁گیج": 8691,
    "▁موزیکال": 8692,
    "▁سیندمی": 8693,
    "▁قرآن": 8694,
    "▁دلنشین": 8695,
    "▁شادگان": 8696,
    "▁محصور": 8697,
    "▁شوشتر": 8698,
    "▁مترمکعب": 8699,
    "▁آقاخان": 8700,
    "▁زمام": 8701,
    "▁نیابت": 8702,
    "دونا": 8703,
    "▁پنداشت": 8704,
    "▁بزنید": 8705,
    "▁دفعات": 8706,
    "▁خاکباز": 8707,
    "▁سانچ": 8708,
    "▁بنویسد": 8709,
    "▁یدک": 8710,
    "▁زهیر": 8711,
    "▁سروصدا": 8712,
    "▁کانتونا": 8713,
    "▁کوئینز": 8714,
    "▁منحنی": 8715,
    "▁ونچ": 8716,
    "▁روباه": 8717,
    "▁مرندی": 8718,
    "▁بسپارد": 8719,
    "▁صنا": 8720,
    "▁فونت": 8721,
    "▁گماشت": 8722,
    "▁سهمگین": 8723,
    "▁۱۳۸۶": 8724,
    "ارنوک": 8725,
    "▁بگذارم": 8726,
    "▁میناری": 8727,
    "هلن": 8728,
    "▁خوشبو": 8729,
    "▁کالینگ": 8730,
    "▁بنویسم": 8731,
    "▁ترفتال": 8732,
    "ینیو": 8733,
    "▁آغا": 8734,
    "▁ممد": 8735,
    "▁ربع": 8736,
    "▁گچ": 8737,
    "▁۱۳۸۰": 8738,
    "بنوی": 8739,
    "▁ایرایی": 8740,
    "▁برسیم": 8741,
    "انجیر": 8742,
    "▁گرانبها": 8743,
    "▁سنجاب": 8744,
    "▁بوفالوران": 8745,
    "▁وسائ": 8746,
    "▁آموس": 8747,
    "▁۱۹۴۴": 8748,
    "▁۷۶۰": 8749,
    "▁بامیه": 8750,
    "▁عابران": 8751,
    "▁باغبان": 8752,
    "▁زیباست": 8753,
    "▁دایم": 8754,
    "▁فدریک": 8755,
    "▁خجالت": 8756,
    "▁دارالا": 8757,
    "▁سرزن": 8758,
    "▁دهشت": 8759,
    "▁شیاد": 8760,
    "▁برازند": 8761,
    "▁تنبل": 8762,
    "اختا": 8763,
    "▁هنرپیشگ": 8764,
    "▁مصادیق": 8765,
    "▁فرسا": 8766,
    "▁شهباز": 8767,
    "▁نرود": 8768,
    "▁ناشده": 8769,
    "شنود": 8770,
    "راژ": 8771,
    "▁چریک": 8772,
    "▁تابع": 8773,
    "▁جویانه": 8774,
    "▁رجیس": 8775,
    "پوآ": 8776,
    "ارزپاشی": 8777,
    "▁خطاهای": 8778,
    "▁خائ": 8779,
    "▁۶۳۰": 8780,
    "حریف": 8781,
    "▁پوسترهای": 8782,
    "▁قمار": 8783,
    "▁شوکور": 8784,
    "▁واژگان": 8785,
    "▁باارزش": 8786,
    "▁دوقلوها": 8787,
    "▁ایفل": 8788,
    "▁محک": 8789,
    "▁۲۳۹": 8790,
    "▁آبراه": 8791,
    "▁بازپرس": 8792,
    "کال": 8793,
    "میخ": 8794,
    "▁افزو": 8795,
    "▁بگیرم": 8796,
    "▁زیربنا": 8797,
    "▁خفت": 8798,
    "▁سینایی": 8799,
    "▁بیولوژی": 8800,
    "▁خوانید": 8801,
    "▁تخار": 8802,
    "▁تراژ": 8803,
    "▁ویدئوهای": 8804,
    "▁سپهر": 8805,
    "▁بازوهای": 8806,
    "▁جبار": 8807,
    "▁قلو": 8808,
    "▁گود": 8809,
    "دانف": 8810,
    "▁فاصل": 8811,
    "▁ورا": 8812,
    "▁مفسد": 8813,
    "▁هالووین": 8814,
    "▁گیلبرت": 8815,
    "▁بدیع": 8816,
    "لومین": 8817,
    "▁زادروز": 8818,
    "▁رسیم": 8819,
    "▁نمودار": 8820,
    "▁میانمار": 8821,
    "▁فور": 8822,
    "▁بدق": 8823,
    "فلورای": 8824,
    "▁علیشاهی": 8825,
    "▁ناظمی": 8826,
    "▁زرتشتی": 8827,
    "▁کشمیر": 8828,
    "▁کتابخوان": 8829,
    "▁نرسیدن": 8830,
    "نگلا": 8831,
    "▁همجنسگرا": 8832,
    "▁سودده": 8833,
    "برمی": 8834,
    "▁خورند": 8835,
    "▁نشا": 8836,
    "▁پیوندند": 8837,
    "▁مگنو": 8838,
    "▁رباتیک": 8839,
    "▁کوئین": 8840,
    "▁مواج": 8841,
    "▁بیدگ": 8842,
    "گوت": 8843,
    "زندگان": 8844,
    "▁ریختند": 8845,
    "▁مگو": 8846,
    "▁ازآن": 8847,
    "محسن": 8848,
    "ایم": 8849,
    "▁نورال": 8850,
    "سایر": 8851,
    "▁وانگ": 8852,
    "گوین": 8853,
    "▁مرزبان": 8854,
    "▁محبت": 8855,
    "▁لویی": 8856,
    "▁نگذشته": 8857,
    "▁دستفروش": 8858,
    "▁یادمان": 8859,
    "▁رازهای": 8860,
    "نادر": 8861,
    "▁وارن": 8862,
    "▁صمد": 8863,
    "یختگ": 8864,
    "هاپ": 8865,
    "▁منکین": 8866,
    "اشق": 8867,
    "▁ایدز": 8868,
    "ریاست": 8869,
    "مداری": 8870,
    "▁کلاسیکو": 8871,
    "▁جده": 8872,
    "▁مشاهدات": 8873,
    "فشان": 8874,
    "▁الف": 8875,
    "▁مخاطر": 8876,
    "▁نبست": 8877,
    "▁اوکل": 8878,
    "▁ترسد": 8879,
    "شواری": 8880,
    "▁دالان": 8881,
    "▁لع": 8882,
    "کات": 8883,
    "▁نازک": 8884,
    "خواند": 8885,
    "▁گذراندم": 8886,
    "▁درازا": 8887,
    "▁غفاری": 8888,
    "▁همتایان": 8889,
    "▁موزی": 8890,
    "▁سیاستگذار": 8891,
    "▁کربی": 8892,
    "آزمایش": 8893,
    "▁فرستند": 8894,
    "▁بازنده": 8895,
    "ارث": 8896,
    "▁پدرو": 8897,
    "▁نخل": 8898,
    "▁اعت": 8899,
    "▁نواز": 8900,
    "▁قبرهای": 8901,
    "۶۷": 8902,
    "مونت": 8903,
    "▁آبیار": 8904,
    "▁رایکو": 8905,
    "▁پهنا": 8906,
    "ونته": 8907,
    "▁دوآ": 8908,
    "ستگاه": 8909,
    "▁آورید": 8910,
    "وچی": 8911,
    "آل": 8912,
    "▁درخشند": 8913,
    "▁بلاتکلیف": 8914,
    "رمو": 8915,
    "▁بغ": 8916,
    "▁بریز": 8917,
    "روژ": 8918,
    "▁شکم": 8919,
    "▁رحیمی": 8920,
    "یشکر": 8921,
    "▁شکس": 8922,
    "▁فرگوس": 8923,
    "▁فراوانش": 8924,
    "موس": 8925,
    "▁وصدا": 8926,
    "کسیون": 8927,
    "▁تهدیدات": 8928,
    "شرف": 8929,
    "▁آزادگان": 8930,
    "▁مواجهند": 8931,
    "▁پشتکار": 8932,
    "▁چشمک": 8933,
    "انیس": 8934,
    "▁حک": 8935,
    "▁بمان": 8936,
    "▁خصوصا": 8937,
    "کانا": 8938,
    "اشته": 8939,
    "▁دستورات": 8940,
    "▁مخا": 8941,
    "انریک": 8942,
    "▁ماهیان": 8943,
    "▁زیباتر": 8944,
    "سیستم": 8945,
    "شاپی": 8946,
    "نتر": 8947,
    "▁ریچ": 8948,
    "استان": 8949,
    "▁افتادند": 8950,
    "کلت": 8951,
    "▁پارکین": 8952,
    "▁گلشی": 8953,
    "▁فلان": 8954,
    "نیو": 8955,
    "▁فریم": 8956,
    "هشتم": 8957,
    "▁تعبی": 8958,
    "▁تولی": 8959,
    "▁استدفتر": 8960,
    "ساعد": 8961,
    "فروشی": 8962,
    "▁دخترم": 8963,
    "▁یونیو": 8964,
    "حشم": 8965,
    "▁حجت": 8966,
    "▁شغلهای": 8967,
    "امبی": 8968,
    "▁آنف": 8969,
    "▁والد": 8970,
    "انتقال": 8971,
    "▁بریج": 8972,
    "شمن": 8973,
    "هموار": 8974,
    "گذرانند": 8975,
    "▁پوک": 8976,
    "وادا": 8977,
    "ایکون": 8978,
    "▁رزو": 8979,
    "▁کرای": 8980,
    "فسر": 8981,
    "▁ویا": 8982,
    "▁نانو": 8983,
    "▁بوین": 8984,
    "مایه": 8985,
    "▁راهور": 8986,
    "▁آسم": 8987,
    "▁نقاشان": 8988,
    "▁جوری": 8989,
    "▁اعم": 8990,
    "▁جاست": 8991,
    "▁فرما": 8992,
    "گوپ": 8993,
    "قویا": 8994,
    "▁لوت": 8995,
    "▁شناختند": 8996,
    "منان": 8997,
    "نجام": 8998,
    "▁لایک": 8999,
    "▁خطرهای": 9000,
    "حق": 9001,
    "▁ارو": 9002,
    "▁نگو": 9003,
    "شهرهای": 9004,
    "▁کیان": 9005,
    "▁ایرانسل": 9006,
    "رها": 9007,
    "ناپس": 9008,
    "دنبال": 9009,
    "کوست": 9010,
    "ضراب": 9011,
    "قاد": 9012,
    "▁نوب": 9013,
    "▁هرسال": 9014,
    "▁هوک": 9015,
    "چندان": 9016,
    "▁کشاورزان": 9017,
    "▁یزدان": 9018,
    "ولان": 9019,
    "▁پرداختند": 9020,
    "▁تقی": 9021,
    "ویرانگر": 9022,
    "▁لاین": 9023,
    "▁واردکنند": 9024,
    "▁ویلر": 9025,
    "ائز": 9026,
    "فال": 9027,
    "▁دانستم": 9028,
    "▁ترها": 9029,
    "▁شهنا": 9030,
    "زیا": 9031,
    "ناتور": 9032,
    "رآواز": 9033,
    "▁تویی": 9034,
    "▁ویول": 9035,
    "▁۱۸۴": 9036,
    "▁همسران": 9037,
    "▁میزبانش": 9038,
    "▁انبارها": 9039,
    "▁پارسا": 9040,
    "بود": 9041,
    "▁۱۵۲": 9042,
    "تروف": 9043,
    "▁پیکا": 9044,
    "▁اوس": 9045,
    "▁مسج": 9046,
    "▁بفهمی": 9047,
    "▁راهیاب": 9048,
    "▁بدنساز": 9049,
    "▁فرمین": 9050,
    "۶۸": 9051,
    "▁غیرمت": 9052,
    "▁کتابدار": 9053,
    "۹۶۰": 9054,
    "یگانی": 9055,
    "فرود": 9056,
    "▁رکسا": 9057,
    "پک": 9058,
    "▁درهم": 9059,
    "▁فار": 9060,
    "▁سوپ": 9061,
    "▁پیس": 9062,
    "▁گرداند": 9063,
    "▁بلندتر": 9064,
    "▁دکترها": 9065,
    "▁بالاگ": 9066,
    "اونت": 9067,
    "عل": 9068,
    "اصر": 9069,
    "اط": 9070,
    "▁تز": 9071,
    "رهایش": 9072,
    "▁احتمالات": 9073,
    "استمز": 9074,
    "انزلی": 9075,
    "قوی": 9076,
    "وگو": 9077,
    "▁خوابیدن": 9078,
    "▁خوابید": 9079,
    "▁ایرانروزها": 9080,
    "سکین": 9081,
    "روهای": 9082,
    "مایش": 9083,
    "سمن": 9084,
    "۷۱۰": 9085,
    "▁گذرانی": 9086,
    "▁گذرا": 9087,
    "▁بایستی": 9088,
    "ماگو": 9089,
    "دئو": 9090,
    "بریز": 9091,
    "▁نرفتن": 9092,
    "اتری": 9093,
    "سرگ": 9094,
    "راث": 9095,
    "انچین": 9096,
    "غفو": 9097,
    "گشایش": 9098,
    "▁وینس": 9099,
    "▁برخاستن": 9100,
    "▁سپه": 9101,
    "انیو": 9102,
    "ریتا": 9103,
    "▁نیکل": 9104,
    "نخ": 9105,
    "▁رکن": 9106,
    "▁خف": 9107,
    "▁دس": 9108,
    "کسوت": 9109,
    "▁رویاها": 9110,
    "▁آدا": 9111,
    "ارگردان": 9112,
    "نیرو": 9113,
    "▁وزر": 9114,
    "روید": 9115,
    "▁۱۷۷": 9116,
    "باف": 9117,
    "▁فیزیوتراپی": 9118,
    "وردی": 9119,
    "▁اسکور": 9120,
    "▁۱۱۴": 9121,
    "گردها": 9122,
    "هرام": 9123,
    "▁مارسل": 9124,
    "اگون": 9125,
    "▁میانج": 9126,
    "عرض": 9127,
    "▁فضاپیما": 9128,
    "بورگ": 9129,
    "▁لاپ": 9130,
    "قاب": 9131,
    "دیده": 9132,
    "▁داستا": 9133,
    "بسیار": 9134,
    "آقا": 9135,
    "قانون": 9136,
    "▁الاه": 9137,
    "بزرگتری": 9138,
    "▁لینگ": 9139,
    "ظ": 9140,
    "▁جدیدتر": 9141,
    "▁۱۶۶": 9142,
    "کمپ": 9143,
    "لیور": 9144,
    "▁بوستا": 9145,
    "▁تمل": 9146,
    "▁نجوم": 9147,
    "▁وکلا": 9148,
    "▁اکوس": 9149,
    "▁شوخ": 9150,
    "▁لطیف": 9151,
    "▁پناهجو": 9152,
    "▁محتوا": 9153,
    "▁مطهر": 9154,
    "▁تیرانداز": 9155,
    "نسک": 9156,
    "▁۲۰۷": 9157,
    "▁نارنج": 9158,
    "▁نیایش": 9159,
    "▁کتابها": 9160,
    "▁ناگ": 9161,
    "▁آلیس": 9162,
    "▁خانوارها": 9163,
    "▁دلم": 9164,
    "▁جهانگیر": 9165,
    "▁ادعاها": 9166,
    "▁آمر": 9167,
    "▁بوها": 9168,
    "▁هاشم": 9169,
    "▁شغلها": 9170,
    "قامت": 9171,
    "وانگ": 9172,
    "▁نیروها": 9173,
    "▁دیوارها": 9174,
    "راس": 9175,
    "آلبر": 9176,
    "▁کاپ": 9177,
    "صراف": 9178,
    "چگون": 9179,
    "▁گرسن": 9180,
    "▁فروخت": 9181,
    "▁انع": 9182,
    "▁بیند": 9183,
    "ضیا": 9184,
    "زارها": 9185,
    "رتون": 9186,
    "▁تجار": 9187,
    "▁اسطور": 9188,
    "داخل": 9189,
    "▁بولد": 9190,
    "پرداز": 9191,
    "تفاوت": 9192,
    "اخترشناس": 9193,
    "بنفش": 9194,
    "معمول": 9195,
    "مجید": 9196,
    "تحقیق": 9197,
    "جعفر": 9198,
    "▁مخاط": 9199,
    "توییت": 9200,
    "رونالدینیو": 9201,
    "خالق": 9202,
    "پناه": 9203,
    "منچستریونایتد": 9204,
    "برابر": 9205,
    "منتف": 9206,
    "آشفت": 9207,
    "عطرساز": 9208,
    "مارتین": 9209,
    "مالاریا": 9210,
    "ویلیام": 9211,
    "کاوشگر": 9212,
    "فایزر": 9213,
    "ثروت": 9214,
    "تکمیل": 9215,
    "منچسترسیتی": 9216,
    "پادشاه": 9217,
    "تبعیض": 9218,
    "خورشید": 9219,
    "خودکشی": 9220,
    "تحریر": 9221,
    "حراج": 9222,
    "منچستر": 9223,
    "آرسنال": 9224,
    "عرص": 9225,
    "کیفیت": 9226,
    "برزیل": 9227,
    "مدیرعامل": 9228,
    "واشنگتن": 9229,
    "معترضان": 9230,
    "جزئیات": 9231,
    "رئال": 9232,
    "خیابان": 9233,
    "ورزش": 9234,
    "برخورد": 9235,
    "فساد": 9236,
    "سقوط": 9237,
    "المپیک": 9238,
    "ظریف": 9239,
    "اطمینان": 9240,
    "حکومت": 9241,
    "کمبود": 9242,
    "امنیتی": 9243,
    "مشاور": 9244,
    "جنوب": 9245,
    "پنجشنبه": 9246,
    "استاندار": 9247,
    "افراد": 9248,
    "ساختمان": 9249,
    "مرح": 9250,
    "جوایز": 9251,
    "آتش": 9252,
    "سوخت": 9253,
    "توتال": 9254,
    "خشک": 9255,
    "مجله": 9256,
    "سقف": 9257,
    "مثل": 9258,
    "انتقادات": 9259,
    "آگاهی": 9260,
    "تماس": 9261,
    "عروس": 9262,
    "دلیلش": 9263,
    "شرط": 9264,
    "پیدا": 9265,
    "بازدید": 9266,
    "جلسات": 9267,
    "پائی": 9268,
    "کاملا": 9269,
    "شایست": 9270,
    "عصر": 9271,
    "تایید": 9272,
    "اعتراضات": 9273,
    "خواننده": 9274,
    "روحانی": 9275,
    "جدول": 9276,
    "فیفا": 9277,
    "▁حسگر": 9278,
    "جدید": 9279,
    "سادگی": 9280,
    "توییتر": 9281,
    "کنفرانس": 9282,
    "معمولا": 9283,
    "سفیر": 9284,
    "امارات": 9285,
    "زیستی": 9286,
    "اقدام": 9287,
    "ژوز": 9288,
    "فکر": 9289,
    "ساکن": 9290,
    "آینده": 9291,
    "کیهان": 9292,
    "اصلاح": 9293,
    "▁تهدیدها": 9294,
    "چپ": 9295,
    "درمانی": 9296,
    "کالا": 9297,
    "ضرب": 9298,
    "خبرنگاران": 9299,
    "چای": 9300,
    "فراز": 9301,
    "متیو": 9302,
    "نوروز": 9303,
    "نادال": 9304,
    "پرواز": 9305,
    "دیوان": 9306,
    "پشت": 9307,
    "▁بحر": 9308,
    "بریتانیایی": 9309,
    "تقی": 9310,
    "روسیه": 9311,
    "حرکت": 9312,
    "حکمت": 9313,
    "قول": 9314,
    "خرید": 9315,
    "طالب": 9316,
    "نشدن": 9317,
    "جنر": 9318,
    "گذراند": 9319,
    "شناخت": 9320,
    "▁رحیم": 9321,
    "حبیب": 9322,
    "سپاهان": 9323,
    "▁رخشان": 9324,
    "دستور": 9325,
    "واردات": 9326,
    "کوئین": 9327,
    "کریستین": 9328,
    "حبو": 9329,
    "خوانده": 9330,
    "رونا": 9331,
    "دروس": 9332,
    "عبدالله": 9333,
    "▁قراردادها": 9334,
    "جدال": 9335,
    "اغر": 9336,
    "▁زحم": 9337,
    "▁قرائ": 9338,
    "واقعیت": 9339,
    "▁آپار": 9340,
    "ایرا": 9341,
    "گزین": 9342,
    "▁الاح": 9343,
    "سیاسی": 9344,
    "ویتز": 9345,
    "طمئن": 9346,
    "کوبا": 9347,
    "سترازنکا": 9348,
    "دگار": 9349,
    "اسکار": 9350,
    "▁بنویس": 9351,
    "▁بپرداز": 9352,
    "بلاغ": 9353,
    "اتاق": 9354,
    "أت": 9355,
    "دومین": 9356,
    "▁مذا": 9357,
    "▁آرنو": 9358,
    "▁ظالم": 9359,
    "▁المپی": 9360,
    "زلزل": 9361,
    "یکصد": 9362,
    "▁سریلانکا": 9363,
    "▁ابوظبی": 9364,
    "▁استروئید": 9365,
    "▁ایزوتوپ": 9366,
    "▁برگردانند": 9367,
    "▁بیندازید": 9368,
    "▁تمساح": 9369,
    "▁دیپلومات": 9370,
    "▁سبحانی": 9371,
    "▁سرگذاشت": 9372,
    "▁سولوویوف": 9373,
    "▁شقاقی": 9374,
    "▁غوغای": 9375,
    "▁فاحش": 9376,
    "▁مخترع": 9377,
    "▁مرتضوی": 9378,
    "▁نامطلوب": 9379,
    "▁هخامنشی": 9380,
    "▁هولدینگ": 9381,
    "▁پورنوگرافی": 9382,
    "▁ژئوپلتیک": 9383,
    "▁یوکوکورا": 9384,
    "▁بکشاند": 9385,
    "▁عاقبت": 9386,
    "▁مدودف": 9387,
    "▁نپذیرفت": 9388,
    "▁نیفتد": 9389,
    "▁واعظ": 9390,
    "▁پوآرو": 9391,
    "▁گردآمد": 9392,
    "▁ریاکاری": 9393,
    "▁مزاح": 9394,
    "▁نطق": 9395,
    "▁نیفتند": 9396,
    "▁وبیتکو": 9397,
    "▁کاذب": 9398,
    "▁آنالیز": 9399,
    "▁ضابط": 9400,
    "▁روانشناختی": 9401,
    "▁موثق": 9402,
    "▁ابریشم": 9403,
    "▁العالم": 9404,
    "▁واکاندا": 9405,
    "▁ابطحی": 9406,
    "▁شگرف": 9407,
    "▁هزارتومان": 9408,
    "▁ببخشد": 9409,
    "▁نگیرد": 9410,
    "▁هیدروژن": 9411,
    "▁احمق": 9412,
    "▁پورتلند": 9413,
    "▁اتوبان": 9414,
    "▁قاپید": 9415,
    "▁کربلا": 9416,
    "▁گنجایش": 9417,
    "▁گسست": 9418,
    "▁الشع": 9419,
    "▁آلمادو": 9420,
    "▁عنف": 9421,
    "▁نگشته": 9422,
    "▁بیاموز": 9423,
    "▁خونسرد": 9424,
    "▁شئون": 9425,
    "▁وصیت": 9426,
    "▁واینالد": 9427,
    "▁خرگوش": 9428,
    "▁سردادند": 9429,
    "▁میگویند": 9430,
    "▁برگکمپ": 9431,
    "▁کمرشکن": 9432,
    "▁ندوشن": 9433,
    "▁سمنگان": 9434,
    "▁وسای": 9435,
    "▁بنگال": 9436,
    "▁هورایزن": 9437,
    "▁کلارک": 9438,
    "▁سانفرانسیسکو": 9439,
    "▁جماعت": 9440,
    "تکاپو": 9441,
    "▁ارمنی": 9442,
    "▁بروکلی": 9443,
    "▁نگرائو": 9444,
    "▁بازگردم": 9445,
    "▁بگریز": 9446,
    "▁فینچر": 9447,
    "▁ارنست": 9448,
    "▁فورهند": 9449,
    "▁سیدابراهیم": 9450,
    "▁بیابد": 9451,
    "▁گمپرت": 9452,
    "▁ناخدا": 9453,
    "▁طومار": 9454,
    "▁پاندمی": 9455,
    "▁حصار": 9456,
    "▁چسباند": 9457,
    "▁۵۳ساله": 9458,
    "▁رسوب": 9459,
    "▁اسنوبرد": 9460,
    "▁حیفا": 9461,
    "▁شکوهمند": 9462,
    "▁کلسترو": 9463,
    "▁سیلیکون": 9464,
    "▁ایرانشناس": 9465,
    "▁اوباش": 9466,
    "▁آسایش": 9467,
    "▁متهیا": 9468,
    "▁سرمست": 9469,
    "واگذار": 9470,
    "▁گاندو": 9471,
    "▁غنای": 9472,
    "▁ژئو": 9473,
    "▁کانتون": 9474,
    "▁بیاییم": 9475,
    "▁نومید": 9476,
    "▁فرمایش": 9477,
    "ریزش": 9478,
    "▁بردارم": 9479,
    "▁کلمبو": 9480,
    "▁رادارها": 9481,
    "▁شادمان": 9482,
    "▁بمانید": 9483,
    "▁ریتم": 9484,
    "▁آشتی": 9485,
    "▁ملامت": 9486,
    "▁پاکیزگی": 9487,
    "▁واداشته": 9488,
    "▁افراط": 9489,
    "▁اپوز": 9490,
    "مویرگی": 9491,
    "▁آلترن": 9492,
    "▁فرازمینی": 9493,
    "▁متأ": 9494,
    "▁نشناخت": 9495,
    "▁سرمنشا": 9496,
    "▁الاصل": 9497,
    "▁معذ": 9498,
    "▁بکاهد": 9499,
    "▁آتلانتا": 9500,
    "▁آجر": 9501,
    "▁بنشینند": 9502,
    "▁بیابند": 9503,
    "▁انعکاس": 9504,
    "▁ترفندهای": 9505,
    "▁ماورا": 9506,
    "▁ورزید": 9507,
    "▁سمنان": 9508,
    "▁فرازمند": 9509,
    "▁ویسکانس": 9510,
    "رپیچ": 9511,
    "▁پرنفوذ": 9512,
    "▁پاسداشت": 9513,
    "▁خص": 9514,
    "▁ولیحی": 9515,
    "▁بسط": 9516,
    "▁تمجید": 9517,
    "▁پردیس": 9518,
    "▁پالیس": 9519,
    "▁جمهو": 9520,
    "▁استیشن": 9521,
    "▁ننوشت": 9522,
    "▁عرق": 9523,
    "▁۱۹۱۲": 9524,
    "▁افتضاح": 9525,
    "تراتو": 9526,
    "▁بندپی": 9527,
    "▁بساط": 9528,
    "▁مشکاتیان": 9529,
    "▁بازکنند": 9530,
    "▁معصومانه": 9531,
    "گسترد": 9532,
    "▁مولایی": 9533,
    "▁کود": 9534,
    "▁فاضلاب": 9535,
    "▁نپرداخت": 9536,
    "▁آبتین": 9537,
    "کریک": 9538,
    "▁نیمرخ": 9539,
    "▁امیدورا": 9540,
    "▁لرد": 9541,
    "▁بصیر": 9542,
    "رعب": 9543,
    "▁هورن": 9544,
    "وتنبرگ": 9545,
    "▁بلندگو": 9546,
    "پزشکان": 9547,
    "ساتبی": 9548,
    "▁ادیان": 9549,
    "▁لارن": 9550,
    "▁تشابه": 9551,
    "▁تقلی": 9552,
    "مردم": 9553,
    "▁سعیدپور": 9554,
    "▁علف": 9555,
    "▁کاکس": 9556,
    "▁دستگیرزاده": 9557,
    "رامش": 9558,
    "▁رینت": 9559,
    "▁معابد": 9560,
    "▁نوگرا": 9561,
    "▁خانلو": 9562,
    "▁بشناسی": 9563,
    "طح": 9564,
    "▁نبات": 9565,
    "▁کاوش": 9566,
    "▁همبازی": 9567,
    "▁حادتر": 9568,
    "▁هرچیز": 9569,
    "▁۱۹۳۹": 9570,
    "چهارم": 9571,
    "روژن": 9572,
    "▁ضمیر": 9573,
    "▁گریختند": 9574,
    "امدا": 9575,
    "حفاظ": 9576,
    "▁مگاصیص": 9577,
    "▁گاسکوئین": 9578,
    "▁لوکالکان": 9579,
    "▁علفزارها": 9580,
    "▁افراز": 9581,
    "عابد": 9582,
    "▁اسپری": 9583,
    "▁کاونت": 9584,
    "▁کراش": 9585,
    "▁تباه": 9586,
    "▁ملایم": 9587,
    "▁اژدها": 9588,
    "جماع": 9589,
    "▁خطاط": 9590,
    "▁هملت": 9591,
    "▁مانورهای": 9592,
    "▁کبری": 9593,
    "▁پراوی": 9594,
    "▁کوکو": 9595,
    "▁امدادگر": 9596,
    "▁پرگا": 9597,
    "▁تازیان": 9598,
    "▁سالوادور": 9599,
    "اچی": 9600,
    "▁لئون": 9601,
    "منتو": 9602,
    "▁بوسد": 9603,
    "▁رهن": 9604,
    "▁جرئ": 9605,
    "▁خرو": 9606,
    "▁دیوارنگار": 9607,
    "▁تسایت": 9608,
    "گیرند": 9609,
    "▁باگز": 9610,
    "▁حض": 9611,
    "▁نوشتاری": 9612,
    "▁لاور": 9613,
    "▁۶۱۲": 9614,
    "▁۲۶۶": 9615,
    "▁پرالتهاب": 9616,
    "▁جووان": 9617,
    "▁کولون": 9618,
    "▁کاتل": 9619,
    "▁آپارت": 9620,
    "پیوند": 9621,
    "▁هدفمند": 9622,
    "▁لودو": 9623,
    "▁دفع": 9624,
    "رساز": 9625,
    "آمدتر": 9626,
    "▁شرو": 9627,
    "گردانیم": 9628,
    "باستان": 9629,
    "▁مستعد": 9630,
    "▁جنایات": 9631,
    "▁لاهه": 9632,
    "▁پسندید": 9633,
    "▁پهپادهای": 9634,
    "رقم": 9635,
    "▁ندانستند": 9636,
    "پابلیک": 9637,
    "▁مشوقهای": 9638,
    "ائیم": 9639,
    "خواهر": 9640,
    "▁دق": 9641,
    "▁آلپ": 9642,
    "▁نونو": 9643,
    "▁گابریلا": 9644,
    "سالگی": 9645,
    "▁گنا": 9646,
    "ساخته": 9647,
    "▁کوروت": 9648,
    "نهاده": 9649,
    "▁مافیا": 9650,
    "اطع": 9651,
    "▁مجال": 9652,
    "▁چول": 9653,
    "▁همدست": 9654,
    "▁پنتاگون": 9655,
    "▁باربارا": 9656,
    "▁روئی": 9657,
    "نصر": 9658,
    "▁جویا": 9659,
    "▁همسو": 9660,
    "▁کورن": 9661,
    "▁رافا": 9662,
    "▁دایان": 9663,
    "▁ابزارک": 9664,
    "شرکتهای": 9665,
    "پارل": 9666,
    "▁خیرخواه": 9667,
    "▁سنسور": 9668,
    "▁دگر": 9669,
    "▁کارکرد": 9670,
    "نکات": 9671,
    "▁ستیز": 9672,
    "زخ": 9673,
    "▁خاش": 9674,
    "▁بغل": 9675,
    "نقی": 9676,
    "▁جزیرو": 9677,
    "▁پرماجرا": 9678,
    "▁برسید": 9679,
    "▁۱۷۵": 9680,
    "▁دبیل": 9681,
    "▁مولد": 9682,
    "▁بیوا": 9683,
    "اقب": 9684,
    "▁داس": 9685,
    "▁نفیس": 9686,
    "▁اکستر": 9687,
    "▁منصف": 9688,
    "دون": 9689,
    "▁ناراحتند": 9690,
    "▁زبر": 9691,
    "▁چهارصد": 9692,
    "▁گیگاب": 9693,
    "▁نقدهای": 9694,
    "پایان": 9695,
    "▁کالو": 9696,
    "▁خوانیم": 9697,
    "▁اندیشید": 9698,
    "▁آرمانگرا": 9699,
    "حیط": 9700,
    "کشید": 9701,
    "▁۱۲۲": 9702,
    "▁بولدو": 9703,
    "مرک": 9704,
    "▁دائما": 9705,
    "▁۱۵۵": 9706,
    "▁پاور": 9707,
    "▁تض": 9708,
    "▁بشویی": 9709,
    "▁درایو": 9710,
    "▁هشدارها": 9711,
    "▁تحص": 9712,
    "تیچ": 9713,
    "▁تاخت": 9714,
    "▁شنیدنش": 9715,
    "رسد": 9716,
    "▁جلا": 9717,
    "▁مالدار": 9718,
    "▁لوح": 9719,
    "مدیران": 9720,
    "ناتالی": 9721,
    "قوایی": 9722,
    "▁جوانتر": 9723,
    "▁بقدر": 9724,
    "▁دمید": 9725,
    "▁دفاعیات": 9726,
    "▁وایلر": 9727,
    "زیاد": 9728,
    "چیز": 9729,
    "▁رک": 9730,
    "▁صل": 9731,
    "▁پریا": 9732,
    "▁مکید": 9733,
    "سود": 9734,
    "▁عرا": 9735,
    "تورباز": 9736,
    "▁انریک": 9737,
    "▁گوتر": 9738,
    "اقت": 9739,
    "▁آندریاس": 9740,
    "▁زدیم": 9741,
    "▁میانسال": 9742,
    "پژوهش": 9743,
    "▁دوروت": 9744,
    "شهرت": 9745,
    "▁چانگ": 9746,
    "▁پودر": 9747,
    "▁پریان": 9748,
    "▁نشرات": 9749,
    "جوانمرد": 9750,
    "▁هوادارن": 9751,
    "▁مخالفند": 9752,
    "▁کلوز": 9753,
    "کورا": 9754,
    "▁متما": 9755,
    "▁ترسند": 9756,
    "▁ماجراهای": 9757,
    "▁لورن": 9758,
    "فوت": 9759,
    "▁درشبا": 9760,
    "میسی": 9761,
    "▁زهی": 9762,
    "▁انگشتان": 9763,
    "▁روایتگر": 9764,
    "▁جولیان": 9765,
    "لمبار": 9766,
    "عمر": 9767,
    "▁فلین": 9768,
    "▁عصا": 9769,
    "▁ایوب": 9770,
    "▁نخوان": 9771,
    "جنب": 9772,
    "▁نشو": 9773,
    "نیاز": 9774,
    "جهش": 9775,
    "▁هیج": 9776,
    "▁مضا": 9777,
    "ترونیک": 9778,
    "▁لائو": 9779,
    "▁اردبی": 9780,
    "▁یکصدم": 9781,
    "اسب": 9782,
    "▁رزمند": 9783,
    "▁آمریکااست": 9784,
    "▁جوانا": 9785,
    "▁هلن": 9786,
    "لوح": 9787,
    "مانند": 9788,
    "▁زیرپا": 9789,
    "تژیک": 9790,
    "▁جهانگرد": 9791,
    "▁عز": 9792,
    "کوش": 9793,
    "رزمی": 9794,
    "▁آوار": 9795,
    "واکس": 9796,
    "▁ابط": 9797,
    "▁نگارم": 9798,
    "▁چکهای": 9799,
    "▁خودستا": 9800,
    "▁مجرمان": 9801,
    "▁چرخاند": 9802,
    "▁سپین": 9803,
    "تعارض": 9804,
    "▁صر": 9805,
    "▁نکردم": 9806,
    "▁مدس": 9807,
    "▁سیلوا": 9808,
    "▁فاخر": 9809,
    "▁برگشتن": 9810,
    "▁پیوستند": 9811,
    "▁رفتیم": 9812,
    "▁بپیچ": 9813,
    "▁محرومند": 9814,
    "▁رقصیدن": 9815,
    "▁مسیریاب": 9816,
    "▁لگو": 9817,
    "نگو": 9818,
    "کاتان": 9819,
    "درینو": 9820,
    "حافظه": 9821,
    "▁خوردند": 9822,
    "فورا": 9823,
    "▁اض": 9824,
    "▁روپر": 9825,
    "▁فرزان": 9826,
    "▁داست": 9827,
    "▁متب": 9828,
    "▁دژها": 9829,
    "▁ساند": 9830,
    "ماینر": 9831,
    "▁روست": 9832,
    "▁آرین": 9833,
    "▁سرکو": 9834,
    "باری": 9835,
    "کارزار": 9836,
    "لوژی": 9837,
    "ندج": 9838,
    "▁یورک": 9839,
    "ونتو": 9840,
    "سولا": 9841,
    "وبل": 9842,
    "▁کریستین": 9843,
    "▁السلط": 9844,
    "ردین": 9845,
    "▁گرج": 9846,
    "▁کامب": 9847,
    "اگرا": 9848,
    "▁کریک": 9849,
    "▁لبن": 9850,
    "گرفت": 9851,
    "▁چسبی": 9852,
    "▁خرابکاران": 9853,
    "نالد": 9854,
    "انوس": 9855,
    "العمل": 9856,
    "▁عزیزانم": 9857,
    "وساز": 9858,
    "خرج": 9859,
    "▁مساعدت": 9860,
    "راپ": 9861,
    "▁بایس": 9862,
    "▁حائ": 9863,
    "گرایان": 9864,
    "انگلر": 9865,
    "فیو": 9866,
    "▁پولدار": 9867,
    "فهمد": 9868,
    "نورلند": 9869,
    "یابان": 9870,
    "▁کانا": 9871,
    "ساکو": 9872,
    "رویس": 9873,
    "▁آزمود": 9874,
    "راکتور": 9875,
    "وئر": 9876,
    "▁پولاد": 9877,
    "▁نوآ": 9878,
    "▁سوز": 9879,
    "دالر": 9880,
    "▁حدید": 9881,
    "▁کارتن": 9882,
    "▁بیشمار": 9883,
    "▁پرشک": 9884,
    "▁کردآ": 9885,
    "قیق": 9886,
    "▁اوتا": 9887,
    "▁کینگز": 9888,
    "▁مالت": 9889,
    "▁آمو": 9890,
    "▁نوارها": 9891,
    "▁مارکان": 9892,
    "کتا": 9893,
    "▁مستن": 9894,
    "▁سوریا": 9895,
    "▁راهگشای": 9896,
    "▁سمع": 9897,
    "▁راکل": 9898,
    "▁عطش": 9899,
    "▁داکا": 9900,
    "▁فولا": 9901,
    "▁موتورس": 9902,
    "▁فراپا": 9903,
    "▁الد": 9904,
    "امور": 9905,
    "▁مساو": 9906,
    "عبدالو": 9907,
    "الیات": 9908,
    "۹۸": 9909,
    "ئر": 9910,
    "یابند": 9911,
    "تلاق": 9912,
    "شمول": 9913,
    "▁العم": 9914,
    "متعارف": 9915,
    "▁وکار": 9916,
    "▁بگذار": 9917,
    "آمارها": 9918,
    "سمت": 9919,
    "▁کورس": 9920,
    "رفتار": 9921,
    "▁صب": 9922,
    "▁کتا": 9923,
    "اغت": 9924,
    "▁جنگیدن": 9925,
    "چون": 9926,
    "▁فتو": 9927,
    "وتک": 9928,
    "▁یولی": 9929,
    "▁افرا": 9930,
    "▁بلیک": 9931,
    "میچ": 9932,
    "وبند": 9933,
    "رپر": 9934,
    "ادزه": 9935,
    "لولا": 9936,
    "▁فهمیدن": 9937,
    "▁وینفر": 9938,
    "گولد": 9939,
    "۱۱۲": 9940,
    "سپارد": 9941,
    "▁اکسپو": 9942,
    "ورسوی": 9943,
    "▁مارین": 9944,
    "▁بلن": 9945,
    "دوگا": 9946,
    "سپر": 9947,
    "▁فرزندانم": 9948,
    "▁گردهم": 9949,
    "▁غیربورسی": 9950,
    "▁لئو": 9951,
    "درومن": 9952,
    "▁فینل": 9953,
    "▁نواختن": 9954,
    "فیر": 9955,
    "▁کوار": 9956,
    "▁ناهم": 9957,
    "زیتو": 9958,
    "▁حواسش": 9959,
    "خامت": 9960,
    "▁فروشگاهها": 9961,
    "▁پشم": 9962,
    "انتانا": 9963,
    "کرون": 9964,
    "خریدند": 9965,
    "نکو": 9966,
    "▁محر": 9967,
    "تخم": 9968,
    "ولز": 9969,
    "یوشیت": 9970,
    "▁بوئن": 9971,
    "طرافشان": 9972,
    "تعادل": 9973,
    "ریتانی": 9974,
    "▁هادس": 9975,
    "▁ث": 9976,
    "▁نگرفتن": 9977,
    "عدد": 9978,
    "صاب": 9979,
    "▁شارپ": 9980,
    "▁بپی": 9981,
    "استفان": 9982,
    "سیدن": 9983,
    "▁دیگ": 9984,
    "شاملو": 9985,
    "▁خدایا": 9986,
    "۶۶": 9987,
    "گفتار": 9988,
    "ژیک": 9989,
    "لینک": 9990,
    "▁عص": 9991,
    "▁غفار": 9992,
    "آدام": 9993,
    "▁پائول": 9994,
    "▁مطیع": 9995,
    "▁راهکارها": 9996,
    "▁معتمد": 9997,
    "▁هوشیار": 9998,
    "ساخت": 9999,
    "▁فلسطین": 10000,
    "▁الکتریک": 10001
  }
}