{
  "src_word2id": {
    "<pad>": 0,
    "<s>": 1,
    "</s>": 2,
    "<unk>": 3,
    "ی": 4,
    ".": 5,
    "ه": 6,
    "▁است": 7,
    "▁می": 8,
    "▁": 9,
    "▁های": 10,
    "▁ایران": 11,
    "▁شده": 12,
    "ان": 13,
    "،": 14,
    "▁سال": 15,
    "▁یک": 16,
    "▁بود": 17,
    "▁ها": 18,
    "▁شد": 19,
    "ش": 20,
    "ت": 21,
    "▁ای": 22,
    "▁تصویر": 23,
    "م": 24,
    "▁کرده": 25,
    "ین": 26,
    "▁کرد": 27,
    "منبع": 28,
    "▁بر": 29,
    "▁شود": 30,
    "▁گفته": 31,
    "▁دو": 32,
    "▁کند": 33,
    "ن": 34,
    "▁خود": 35,
    "؛": 36,
    "▁اند": 37,
    "▁کرونا": 38,
    "ل": 39,
    "▁در": 40,
    "▁م": 41,
    "ا": 42,
    "▁ماه": 43,
    "د": 44,
    "▁پیش": 45,
    "▁آمریکا": 46,
    "▁کشور": 47,
    "▁گزارش": 48,
    "▁روز": 49,
    "ند": 50,
    "ر": 51,
    "های": 52,
    "▁کار": 53,
    "س": 54,
    "▁بی": 55,
    "▁ا": 56,
    "▁و": 57,
    "ز": 58,
    "▁فوتبال": 59,
    "▁دارد": 60,
    "▁گفت": 61,
    "▁دهد": 62,
    "▁تیم": 63,
    "▁اعلام": 64,
    "▁به": 65,
    "▁بازی": 66,
    "ات": 67,
    "▁کنند": 68,
    "▁دیگر": 69,
    "ب": 70,
    "▁قرار": 71,
    "▁شرکت": 72,
    "▁هزار": 73,
    "▁یا": 74,
    "▁دولت": 75,
    "▁دست": 76,
    "▁داده": 77,
    "▁با": 78,
    "▁رئیس": 79,
    "▁جهان": 80,
    "▁سه": 81,
    "▁بین": 82,
    "در": 83,
    "▁بار": 84,
    "▁هر": 85,
    "▁گذشته": 86,
    "و": 87,
    "▁ف": 88,
    "▁پس": 89,
    "▁خواهد": 90,
    "▁آقای": 91,
    "ک": 92,
    "▁گوید": 93,
    "▁ب": 94,
    "▁دربار": 95,
    "▁نفر": 96,
    "▁آنها": 97,
    "▁تهران": 98,
    "این": 99,
    "ها": 100,
    "▁میلیون": 101,
    "▁دلیل": 102,
    "▁درصد": 103,
    "▁داد": 104,
    "▁افزایش": 105,
    "▁چند": 106,
    "▁افغانستان": 107,
    "▁از": 108,
    "▁بعد": 109,
    "▁'": 110,
    "▁نام": 111,
    "ف": 112,
    "'": 113,
    "▁فیلم": 114,
    "▁هفته": 115,
    "▁لیگ": 116,
    "▁سر": 117,
    "▁ت": 118,
    "▁حال": 119,
    "▁بوده": 120,
    "▁بازار": 121,
    "ار": 122,
    "▁جدید": 123,
    "▁قیمت": 124,
    ":": 125,
    "▁دلار": 126,
    "▁بزرگ": 127,
    "▁خبر": 128,
    "▁همچن": 129,
    "▁ملی": 130,
    "▁را": 131,
    "▁جهانی": 132,
    "▁نمی": 133,
    "▁سازمان": 134,
    "▁همه": 135,
    "▁جمهوری": 136,
    "▁برگزار": 137,
    "▁ویروس": 138,
    "▁نظر": 139,
    "ور": 140,
    "▁هستند": 141,
    "▁تولید": 142,
    "▁یکی": 143,
    "▁مورد": 144,
    "▁عنوان": 145,
    "▁روی": 146,
    "▁گرفته": 147,
    "▁ترین": 148,
    "▁باید": 149,
    "▁بیشتر": 150,
    "▁داشت": 151,
    "▁علی": 152,
    "▁امروز": 153,
    "▁نفت": 154,
    "▁شدن": 155,
    "▁تر": 156,
    "▁کردند": 157,
    "▁شب": 158,
    "▁بیش": 159,
    "▁مجلس": 160,
    "▁ن": 161,
    "ترین": 162,
    "▁نیست": 163,
    "ست": 164,
    "▁سی": 165,
    "▁وزیر": 166,
    "▁کاهش": 167,
    "▁خارج": 168,
    "▁وزارت": 169,
    "▁بریتانیا": 170,
    "▁اروپا": 171,
    "▁چین": 172,
    "به": 173,
    "▁اخیر": 174,
    "▁آغاز": 175,
    "▁مقابل": 176,
    "▁ش": 177,
    "▁نیز": 178,
    "▁نشان": 179,
    "▁راه": 180,
    "▁حدود": 181,
    "▁بودند": 182,
    "▁باز": 183,
    "▁بانک": 184,
    "او": 185,
    "▁داشته": 186,
    "ع": 187,
    "▁آن": 188,
    "▁زمان": 189,
    "▁شهر": 190,
    "یت": 191,
    "▁باشگاه": 192,
    "▁پایان": 193,
    "▁انجام": 194,
    "▁برنامه": 195,
    "▁اول": 196,
    "▁حضور": 197,
    "▁صورت": 198,
    "▁اش": 199,
    "له": 200,
    "▁باشد": 201,
    "▁اساس": 202,
    "ال": 203,
    "▁منتشر": 204,
    "▁اقتصادی": 205,
    "▁واکسن": 206,
    "▁گل": 207,
    "▁اولین": 208,
    "▁تحریم": 209,
    "خ": 210,
    "ح": 211,
    "که": 212,
    "▁کم": 213,
    "▁دی": 214,
    "بر": 215,
    "دامه": 216,
    "▁بخش": 217,
    "▁استفاده": 218,
    "▁جمله": 219,
    "▁شیوع": 220,
    "▁شوند": 221,
    "▁توافق": 222,
    "گی": 223,
    "▁ارز": 224,
    "▁فصل": 225,
    "▁رسید": 226,
    "▁میان": 227,
    "▁گروه": 228,
    "▁شورا": 229,
    "▁میلیارد": 230,
    "آقای": 231,
    "ید": 232,
    "▁زندگی": 233,
    "▁پر": 234,
    "▁وجود": 235,
    "با": 236,
    "▁مسابقه": 237,
    "▁چهار": 238,
    "▁حقوق": 239,
    "▁ماشین": 240,
    "یم": 241,
    "▁نزدیک": 242,
    "▁مسابقات": 243,
    "▁دارند": 244,
    "▁مردم": 245,
    "ق": 246,
    "▁همین": 247,
    "؟": 248,
    "▁گرفت": 249,
    "▁غیر": 250,
    "▁تمام": 251,
    "▁تومان": 252,
    "▁خواست": 253,
    "ج": 254,
    "▁پ": 255,
    "▁المللی": 256,
    "▁گیری": 257,
    "▁مقام": 258,
    "شان": 259,
    "▁ایرانی": 260,
    "▁کل": 261,
    "تر": 262,
    "▁آ": 263,
    "▁شدند": 264,
    "انه": 265,
    "لی": 266,
    "▁تنها": 267,
    "▁وقت": 268,
    "▁جام": 269,
    "▁تواند": 270,
    "▁پی": 271,
    "▁زنان": 272,
    "▁آینده": 273,
    "▁افراد": 274,
    "یک": 275,
    "▁خانه": 276,
    "▁قبل": 277,
    "▁وارد": 278,
    "▁حالی": 279,
    "▁بیماری": 280,
    "▁دوران": 281,
    "نگ": 282,
    "▁نرخ": 283,
    "▁زیاد": 284,
    "▁توان": 285,
    "▁ر": 286,
    "▁طور": 287,
    "▁فروش": 288,
    "▁اسلامی": 289,
    "▁کر": 290,
    "▁بسیاری": 291,
    "بدون": 292,
    "▁فعالیت": 293,
    "▁گویند": 294,
    "▁شرایط": 295,
    "▁برتر": 296,
    "▁هیچ": 297,
    "▁کردن": 298,
    "▁اجتماعی": 299,
    "▁امسال": 300,
    "▁رسان": 301,
    "▁منبع": 302,
    "دی": 303,
    "ون": 304,
    "نی": 305,
    "▁محمد": 306,
    "▁انتخابات": 307,
    "▁برای": 308,
    "عث": 309,
    "ام": 310,
    "▁س": 311,
    "▁مهم": 312,
    "ری": 313,
    "▁جان": 314,
    "نوز": 315,
    "▁تلاش": 316,
    "▁تغییر": 317,
    "▁تصمیم": 318,
    "▁تازه": 319,
    "▁حت": 320,
    "از": 321,
    "قط": 322,
    "▁مختلف": 323,
    "▁وضعیت": 324,
    "▁طرح": 325,
    "نه": 326,
    "▁ولی": 327,
    "گان": 328,
    "▁نخست": 329,
    "▁اقتصاد": 330,
    "▁۲۰": 331,
    "▁هم": 332,
    "▁نه": 333,
    "▁سوی": 334,
    "گر": 335,
    "▁مدت": 336,
    "نامه": 337,
    "▁زمین": 338,
    "▁کشورهای": 339,
    "▁روحانی": 340,
    "▁قهرمان": 341,
    "▁خودرو": 342,
    "▁هایی": 343,
    "▁زن": 344,
    "پ": 345,
    "▁پول": 346,
    "▁درگذشت": 347,
    "▁تاریخ": 348,
    "▁بورس": 349,
    "▁خانواده": 350,
    "▁ریاست": 351,
    "▁پنج": 352,
    "▁ساله": 353,
    "▁کمک": 354,
    "▁اثر": 355,
    "▁برابر": 356,
    "▁بسیار": 357,
    "روز": 358,
    "▁عکس": 359,
    "ثبت": 360,
    "▁حالا": 361,
    "▁پیدا": 362,
    "▁دوم": 363,
    "▁موسیقی": 364,
    "▁مرکز": 365,
    "▁منطقه": 366,
    "▁او": 367,
    "▁دوره": 368,
    "▁دهه": 369,
    "▁این": 370,
    "▁برخ": 371,
    "اب": 372,
    "▁مرکزی": 373,
    "▁نقش": 374,
    "▁رسمی": 375,
    "شروع": 376,
    "▁نا": 377,
    "▁سرمایه": 378,
    "▁آخر": 379,
    "▁همراه": 380,
    "▁شکست": 381,
    "▁سفر": 382,
    "▁کنار": 383,
    "▁دنیا": 384,
    "▁ه": 385,
    "▁آمار": 386,
    "▁رقابت": 387,
    "▁بعضی": 388,
    "▁بالا": 389,
    "▁دور": 390,
    "▁که": 391,
    "ای": 392,
    "▁آمریکایی": 393,
    "▁زیر": 394,
    "▁رسیده": 395,
    "▁اینک": 396,
    "▁جمهور": 397,
    "▁اعتراض": 398,
    "▁قهرمانی": 399,
    "▁برجام": 400,
    "▁رو": 401,
    "▁نوشته": 402,
    "▁هسته": 403,
    "▁اصلی": 404,
    "▁ده": 405,
    "بی": 406,
    "▁مراسم": 407,
    "▁صد": 408,
    "سی": 409,
    "▁اطلاعات": 410,
    "▁نشده": 411,
    "▁بررسی": 412,
    "▁آب": 413,
    "▁ویژ": 414,
    "▁پرسپولیس": 415,
    "▁۱۹": 416,
    "▁ال": 417,
    "گ": 418,
    "▁توجه": 419,
    "ول": 420,
    "▁جو": 421,
    "▁همکاری": 422,
    "▁ممکن": 423,
    "▁کمتر": 424,
    "▁آزاد": 425,
    "▁۱۰": 426,
    "▁رفت": 427,
    "▁استقلال": 428,
    "۰": 429,
    "▁سو": 430,
    "▁۵": 431,
    "ما": 432,
    "زاری": 433,
    "▁نتیج": 434,
    "چ": 435,
    "▁د": 436,
    "▁اشار": 437,
    "▁کشتی": 438,
    "▁ساعت": 439,
    "▁شش": 440,
    "▁دنبال": 441,
    "▁حمله": 442,
    "▁دانشگاه": 443,
    "▁ع": 444,
    "▁جایزه": 445,
    "▁عراق": 446,
    "▁حاضر": 447,
    "▁حمایت": 448,
    "▁میلادی": 449,
    "▁دهند": 450,
    "▁پرداخت": 451,
    "▁سیاسی": 452,
    "▁واکنش": 453,
    "توسط": 454,
    "▁یافته": 455,
    "وی": 456,
    "▁کتاب": 457,
    "▁خبرگ": 458,
    "۲": 459,
    "▁ترکیه": 460,
    "▁دریافت": 461,
    "▁استان": 462,
    "▁بازیکن": 463,
    "▁تو": 464,
    "▁فدراسیون": 465,
    "▁شمار": 466,
    "▁آلمان": 467,
    "▁طی": 468,
    "مان": 469,
    "▁الله": 470,
    "▁سیاست": 471,
    "▁انتشار": 472,
    "▁خرید": 473,
    "▁۴": 474,
    "▁چ": 475,
    "▁مالی": 476,
    "▁اقدام": 477,
    "یق": 478,
    "▁نیمه": 479,
    "▁روند": 480,
    "▁مدیر": 481,
    "▁خاطر": 482,
    "▁فرانسه": 483,
    "▁۲": 484,
    "▁رشد": 485,
    "▁هدف": 486,
    "▁اج": 487,
    "اکنون": 488,
    "▁انرژی": 489,
    "▁۶": 490,
    "▁هشدار": 491,
    "▁ام": 492,
    "▁کمی": 493,
    "ده": 494,
    "▁گذاری": 495,
    "▁مجموعه": 496,
    "▁دیدار": 497,
    "ِ": 498,
    "▁ندارد": 499,
    "▁عرض": 500,
    "۸": 501,
    "▁سهام": 502,
    "▁بهداشت": 503,
    "رو": 504,
    "▁ترامپ": 505,
    "▁رد": 506,
    "▁مذاکرات": 507,
    "▁موضوع": 508,
    "▁شنبه": 509,
    "▁آژانس": 510,
    "▁اتحاد": 511,
    "▁ح": 512,
    "▁کنیم": 513,
    "▁مرگ": 514,
    "▁یافت": 515,
    "▁هفت": 516,
    ")": 517,
    "▁بشر": 518,
    "اد": 519,
    "گیری": 520,
    "▁همان": 521,
    "▁رسد": 522,
    "۴": 523,
    "▁درآمد": 524,
    "▁ایجاد": 525,
    "▁گو": 526,
    "▁آمده": 527,
    "لو": 528,
    "گاه": 529,
    "▁کس": 530,
    "▁سازی": 531,
    "▁ج": 532,
    "▁مبارز": 533,
    "ازه": 534,
    "▁بازیکنان": 535,
    "▁سابق": 536,
    "ایی": 537,
    "▁خواهند": 538,
    "▁کشته": 539,
    "ط": 540,
    "▁مربوط": 541,
    "▁متهم": 542,
    "▁خیل": 543,
    "می": 544,
    "▁طر": 545,
    "کس": 546,
    "▁بهتر": 547,
    "ص": 548,
    "▁عربستان": 549,
    "▁آسیا": 550,
    "▁چنین": 551,
    "▁آزمایش": 552,
    "▁رهبر": 553,
    "▁خام": 554,
    "▁۲۰۲۰": 555,
    "▁بودجه": 556,
    "▁نو": 557,
    "ود": 558,
    "▁تایید": 559,
    "▁صادرات": 560,
    "▁مرد": 561,
    "▁(": 562,
    "▁نیاز": 563,
    "▁نامه": 564,
    "▁تلویزیون": 565,
    "▁انسان": 566,
    "دار": 567,
    "▁زبان": 568,
    "▁محل": 569,
    "▁دادگاه": 570,
    "۳": 571,
    "۱": 572,
    "▁تاثیر": 573,
    "▁معاون": 574,
    "▁اجرای": 575,
    "▁محدودیت": 576,
    "گو": 577,
    "▁بد": 578,
    "▁پیروز": 579,
    "▁ساخت": 580,
    "▁نمایش": 581,
    "▁بازداشت": 582,
    "خانه": 583,
    "▁مشخص": 584,
    "▁ورزش": 585,
    "وز": 586,
    "▁قهرمانان": 587,
    "▁۲۰۰": 588,
    "▁قابل": 589,
    "▁بیمارستان": 590,
    "▁فاصله": 591,
    "▁حسن": 592,
    "▁قانون": 593,
    "▁خط": 594,
    "▁نهایی": 595,
    "▁نیم": 596,
    "چه": 597,
    "▁آثار": 598,
    "▁میزان": 599,
    "▁دیده": 600,
    "۶": 601,
    "▁جنوبی": 602,
    "▁سوم": 603,
    "▁شناخت": 604,
    "▁خارجی": 605,
    "▁رکورد": 606,
    "▁زده": 607,
    "اس": 608,
    "▁آی": 609,
    "▁خطر": 610,
    "▁جنگ": 611,
    "▁ابتلا": 612,
    "۵": 613,
    "▁سن": 614,
    "▁تع": 615,
    "▁رود": 616,
    "کسب": 617,
    "لا": 618,
    "▁تبدیل": 619,
    "مین": 620,
    "▁نوشت": 621,
    "▁۳": 622,
    "▁جریان": 623,
    "▁مدل": 624,
    "▁رای": 625,
    "▁زندان": 626,
    "وس": 627,
    "▁جلو": 628,
    "▁بازگشت": 629,
    "▁حکومت": 630,
    "▁انگلیس": 631,
    "کا": 632,
    "▁صنعت": 633,
    "کو": 634,
    "سیون": 635,
    "▁انتخاب": 636,
    "▁لندن": 637,
    "▁حکم": 638,
    "رونده": 639,
    "▁هند": 640,
    "▁تعطیل": 641,
    "▁طول": 642,
    "▁منابع": 643,
    "▁زمینه": 644,
    "▁تح": 645,
    "▁برق": 646,
    "▁اس": 647,
    "نا": 648,
    "▁عضو": 649,
    "▁امنیت": 650,
    "▁تعداد": 651,
    "▁چیز": 652,
    "▁تن": 653,
    "▁نگاه": 654,
    "▁نامزد": 655,
    "ض": 656,
    "▁نسبت": 657,
    "▁سالگی": 658,
    "▁ساخته": 659,
    "▁ق": 660,
    "▁زمانی": 661,
    "▁سرمربی": 662,
    "▁بیانیه": 663,
    "▁سطح": 664,
    "▁کننده": 665,
    "▁طرف": 666,
    "▁بست": 667,
    "▁کابل": 668,
    "▁چرا": 669,
    "▁گاز": 670,
    "▁نمایند": 671,
    "▁دولتی": 672,
    "▁روسیه": 673,
    "▁دوبار": 674,
    "▁پلیس": 675,
    "▁اتمی": 676,
    "▁نمایندگان": 677,
    "▁سخنگوی": 678,
    "▁لو": 679,
    "▁اعضای": 680,
    "▁کلی": 681,
    "▁ستار": 682,
    "▁لیورپول": 683,
    "▁همزمان": 684,
    "طرح": 685,
    "▁ترک": 686,
    "▁برد": 687,
    "▁۲۵": 688,
    "۹": 689,
    "▁عمومی": 690,
    "۷": 691,
    "▁جا": 692,
    "▁نقل": 693,
    "▁شکل": 694,
    "▁قو": 695,
    "▁انقلاب": 696,
    "▁اسرائیل": 697,
    "▁دار": 698,
    "▁جلس": 699,
    "▁انتقال": 700,
    "▁پخ": 701,
    "▁نشست": 702,
    "▁قرنطینه": 703,
    "▁داستان": 704,
    "▁سینما": 705,
    "▁المپیک": 706,
    "▁جاری": 707,
    "▁بالای": 708,
    "▁ارزش": 709,
    "▁سپاه": 710,
    "▁چشم": 711,
    "▁کامل": 712,
    "▁سخت": 713,
    "▁۳۰": 714,
    "ث": 715,
    "▁امنیتی": 716,
    "▁افت": 717,
    "▁امتیاز": 718,
    "▁لغو": 719,
    "▁تنیس": 720,
    "▁گرفتن": 721,
    "▁نهاد": 722,
    "▁فشار": 723,
    "دو": 724,
    "غ": 725,
    "سا": 726,
    "کار": 727,
    "▁ظریف": 728,
    "▁حرکت": 729,
    "▁بلند": 730,
    "▁شدید": 731,
    "▁دانست": 732,
    "▁پا": 733,
    "▁گ": 734,
    "▁اف": 735,
    "▁ان": 736,
    "اما": 737,
    "▁مرح": 738,
    "▁سابقه": 739,
    "▁خ": 740,
    "ستان": 741,
    "▁۱۲": 742,
    "▁ارائه": 743,
    "▁برنده": 744,
    "▁گسترده": 745,
    "▁۸": 746,
    "▁آیا": 747,
    "وم": 748,
    "▁توانست": 749,
    "▁بایدن": 750,
    "▁متحده": 751,
    "▁پزشکی": 752,
    "▁چهر": 753,
    "▁امور": 754,
    "▁قطع": 755,
    "▁هوای": 756,
    "▁قرارداد": 757,
    "الات": 758,
    "یا": 759,
    "تا": 760,
    "▁کشید": 761,
    "▁۱۵": 762,
    "▁تورم": 763,
    "۰۰": 764,
    "فر": 765,
    "-": 766,
    "▁روزهای": 767,
    "▁نگرانی": 768,
    "▁تحقیق": 769,
    "▁معرف": 770,
    "▁طراح": 771,
    "▁بخشی": 772,
    "▁نکرده": 773,
    "را": 774,
    "▁پاسخ": 775,
    "▁نوع": 776,
    "▁۹": 777,
    "▁هز": 778,
    "▁جدی": 779,
    "▁اتفاق": 780,
    "▁متوقف": 781,
    "▁خوب": 782,
    "آ": 783,
    "▁جای": 784,
    "زی": 785,
    "▁دادن": 786,
    "▁عالی": 787,
    "▁داخل": 788,
    "▁کسان": 789,
    "▁بحران": 790,
    "▁ورود": 791,
    "▁جامعه": 792,
    "▁نظامی": 793,
    "▁مصاحبه": 794,
    "▁خانم": 795,
    "▁مشکلات": 796,
    "▁فرهنگی": 797,
    "من": 798,
    "▁رفته": 799,
    "▁آزادی": 800,
    "▁دستگاه": 801,
    "▁بشک": 802,
    "▁آل": 803,
    "▁گذاشته": 804,
    "▁باشند": 805,
    "▁عد": 806,
    "▁خودش": 807,
    "▁باخت": 808,
    "▁نبود": 809,
    "▁چهارم": 810,
    "▁انتظار": 811,
    "▁فن": 812,
    "▁کو": 813,
    "▁ارتباط": 814,
    "▁آنچ": 815,
    "▁یاد": 816,
    "▁شان": 817,
    "▁۷": 818,
    "▁اسفند": 819,
    "لق": 820,
    "▁ورزشی": 821,
    "▁بدن": 822,
    "▁کودکان": 823,
    "▁فرهنگ": 824,
    "▁محکوم": 825,
    "▁سیستم": 826,
    "▁فینال": 827,
    "▁هنگام": 828,
    "▁انتقاد": 829,
    "▁داشتند": 830,
    "کل": 831,
    "دا": 832,
    "▁الکتریکی": 833,
    "▁رقم": 834,
    "▁۱۴۰۰": 835,
    "▁مارادونا": 836,
    "▁موسس": 837,
    "نده": 838,
    "▁لی": 839,
    "▁آبان": 840,
    "▁فعال": 841,
    "▁فروردین": 842,
    "▁مسئولان": 843,
    "▁پشت": 844,
    "▁چگون": 845,
    "▁۲۰۱۹": 846,
    "▁ورزشگاه": 847,
    "▁صندوق": 848,
    "▁شدت": 849,
    "▁قدرت": 850,
    "▁فر": 851,
    "یر": 852,
    "▁موج": 853,
    "▁مانده": 854,
    "ره": 855,
    "▁تحقیقات": 856,
    "▁پیشین": 857,
    "▁ایتالیا": 858,
    "▁مصوب": 859,
    "▁کووید": 860,
    "▁بارسلونا": 861,
    "ستاد": 862,
    "▁یو": 863,
    "▁جنوب": 864,
    "▁فارسی": 865,
    "▁دیگری": 866,
    "▁۱۱": 867,
    "▁مرغ": 868,
    "▁وی": 869,
    "▁تاریخی": 870,
    "▁تصوی": 871,
    "▁داخلی": 872,
    "▁اتهام": 873,
    "▁عمل": 874,
    "▁تهدید": 875,
    "▁ضرب": 876,
    "▁کارگردان": 877,
    "▁کی": 878,
    "▁یع": 879,
    "▁اروپایی": 880,
    "▁مسیر": 881,
    "▁مسی": 882,
    "▁شامل": 883,
    "زا": 884,
    "▁اجرا": 885,
    "▁جمعیت": 886,
    "▁هنر": 887,
    "▁تشکیل": 888,
    "▁بتوان": 889,
    "▁دوشنبه": 890,
    "▁اسکار": 891,
    "▁سیاه": 892,
    "▁دستور": 893,
    "▁بینی": 894,
    "▁مربی": 895,
    "▁فکر": 896,
    "▁۱۷": 897,
    "▁۱۳": 898,
    "▁تک": 899,
    "کر": 900,
    "دن": 901,
    "▁۱": 902,
    "▁نیروهای": 903,
    "▁آمد": 904,
    "▁۲۲": 905,
    "▁درمان": 906,
    "▁نژاد": 907,
    "▁طولانی": 908,
    "▁دونالد": 909,
    "▁روزنامه": 910,
    "▁مبتلا": 911,
    "▁بودن": 912,
    "▁معاملات": 913,
    "▁گیرد": 914,
    "▁قرن": 915,
    "▁کوچک": 916,
    "▁قرمز": 917,
    "▁سراسر": 918,
    "▁رنگ": 919,
    "▁کنید": 920,
    "▁ممنوع": 921,
    "▁شهرهای": 922,
    "▁محیط": 923,
    "▁خروج": 924,
    "▁حساب": 925,
    "▁ماسک": 926,
    "▁ناشی": 927,
    "▁سایر": 928,
    "▁دقیقه": 929,
    "وق": 930,
    "▁مت": 931,
    "تو": 932,
    "▁دادند": 933,
    "▁جشنواره": 934,
    "▁کن": 935,
    "▁۲۰۱": 936,
    "▁نفتی": 937,
    "▁احتمال": 938,
    "▁شکایت": 939,
    "ژ": 940,
    "سال": 941,
    "▁زد": 942,
    "▁امکان": 943,
    "▁مشکل": 944,
    "▁غنی": 945,
    "▁کارگران": 946,
    "▁۱۸": 947,
    "▁مد": 948,
    "▁شجریان": 949,
    "▁پروژه": 950,
    "▁نخواه": 951,
    "▁دسترس": 952,
    "▁قبلی": 953,
    "▁بازیگر": 954,
    "▁طبق": 955,
    "▁واحد": 956,
    "▁۶۰": 957,
    "فت": 958,
    "▁روبرو": 959,
    "▁تجاری": 960,
    "▁تامین": 961,
    "جا": 962,
    "▁ملل": 963,
    "▁هنری": 964,
    "▁محدود": 965,
    "▁اختیار": 966,
    "▁سریال": 967,
    "ینه": 968,
    "▁طلا": 969,
    "▁فضای": 970,
    "▁قوانین": 971,
    "▁تاکید": 972,
    "▁نویسنده": 973,
    "▁بالاتر": 974,
    "سازی": 975,
    "▁پای": 976,
    "▁گفتگو": 977,
    "کی": 978,
    "نو": 979,
    "▁کنم": 980,
    "▁آسیب": 981,
    "▁تجرب": 982,
    "▁چپ": 983,
    "▁علت": 984,
    "▁نیروی": 985,
    "▁شاخص": 986,
    "▁واردات": 987,
    "▁من": 988,
    "▁متفاوت": 989,
    "▁باقی": 990,
    "▁گر": 991,
    "▁محلی": 992,
    "▁افتاد": 993,
    "▁کنترل": 994,
    "▁آورد": 995,
    "▁درخواست": 996,
    "▁عامل": 997,
    "▁دارو": 998,
    "▁متر": 999,
    "ویه": 1000,
    "▁وین": 1001,
    "▁سنت": 1002,
    "▁ابتدای": 1003,
    "▁پل": 1004,
    "▁مشترک": 1005,
    "▁کوتاه": 1006,
    "حفظ": 1007,
    "▁خون": 1008,
    "▁سیتی": 1009,
    "▁جز": 1010,
    "▁حد": 1011,
    "▁مهر": 1012,
    "▁ترتیب": 1013,
    "▁آتش": 1014,
    "▁قطر": 1015,
    "▁سوخت": 1016,
    "▁هشت": 1017,
    "▁رشت": 1018,
    "▁اولیه": 1019,
    "▁فرد": 1020,
    "▁ونزوئلا": 1021,
    "▁صحبت": 1022,
    "▁فهرست": 1023,
    "▁نگهبان": 1024,
    "▁کالا": 1025,
    "▁فعالان": 1026,
    "▁علاو": 1027,
    "یده": 1028,
    "دان": 1029,
    "▁نقاشی": 1030,
    "▁گذشت": 1031,
    "▁آوریل": 1032,
    "▁شماری": 1033,
    "▁عباس": 1034,
    "▁شما": 1035,
    "▁بندی": 1036,
    "▁پایین": 1037,
    "طور": 1038,
    "▁چهارشنبه": 1039,
    "▁حذف": 1040,
    "رت": 1041,
    "▁یکشنبه": 1042,
    "▁۴۰": 1043,
    "▁همیشه": 1044,
    "▁مصرف": 1045,
    "▁موارد": 1046,
    "▁بنزین": 1047,
    "▁اعدام": 1048,
    "▁میزبان": 1049,
    "▁خصوصی": 1050,
    "▁مواد": 1051,
    "▁امضا": 1052,
    "▁جمعه": 1053,
    "▁مسئول": 1054,
    "کن": 1055,
    "▁ترکیب": 1056,
    "▁مغز": 1057,
    "▁بیرون": 1058,
    "▁صفح": 1059,
    "▁احمد": 1060,
    "خت": 1061,
    "▁محمود": 1062,
    "▁هرات": 1063,
    "▁زاده": 1064,
    "▁روابط": 1065,
    "▁هوا": 1066,
    "اق": 1067,
    "کش": 1068,
    "▁صادر": 1069,
    "▁شاهد": 1070,
    "▁۱۴": 1071,
    "▁احتمالا": 1072,
    "▁شناسا": 1073,
    "▁۵۰": 1074,
    "▁مادر": 1075,
    "▁رییس": 1076,
    "▁اتاق": 1077,
    "▁بگیرد": 1078,
    "▁چاپ": 1079,
    "▁توپ": 1080,
    "وا": 1081,
    "ذ": 1082,
    "▁شهروندان": 1083,
    "▁ل": 1084,
    "▁مر": 1085,
    "▁دل": 1086,
    "▁آرژانتین": 1087,
    "▁سمت": 1088,
    "▁حل": 1089,
    "▁جمع": 1090,
    "▁حرفه": 1091,
    "سر": 1092,
    "▁خوزستان": 1093,
    "▁مرتبط": 1094,
    "▁نقطه": 1095,
    "▁آستان": 1096,
    "▁مارس": 1097,
    "▁لا": 1098,
    "▁کیلومتر": 1099,
    "نجر": 1100,
    "یو": 1101,
    "▁خوانده": 1102,
    "▁زیست": 1103,
    "▁پیشنهاد": 1104,
    "▁احیا": 1105,
    "گرد": 1106,
    "▁سرعت": 1107,
    "▁مرز": 1108,
    "▁۱۶": 1109,
    "▁ماند": 1110,
    "اخر": 1111,
    "▁دفاع": 1112,
    "▁غرب": 1113,
    "▁نظام": 1114,
    "▁اختلاف": 1115,
    "داد": 1116,
    "▁انفجار": 1117,
    "▁سلامت": 1118,
    "▁ولایت": 1119,
    "▁ژان": 1120,
    "▁قصد": 1121,
    "▁دید": 1122,
    "▁بن": 1123,
    "اساس": 1124,
    "▁اندازه": 1125,
    "براز": 1126,
    "است": 1127,
    "▁آر": 1128,
    "▁مشهور": 1129,
    "▁بارها": 1130,
    "▁صفر": 1131,
    "▁گون": 1132,
    "▁اخیرا": 1133,
    "▁رساند": 1134,
    "اک": 1135,
    "▁ز": 1136,
    "▁موفق": 1137,
    "▁سقوط": 1138,
    "▁سرطان": 1139,
    "▁بیست": 1140,
    "▁برده": 1141,
    "پس": 1142,
    "▁شاید": 1143,
    "▁تاکنون": 1144,
    "داری": 1145,
    "▁تا": 1146,
    "▁تابستان": 1147,
    "▁تجمع": 1148,
    "▁نتایج": 1149,
    "▁مل": 1150,
    "▁جهش": 1151,
    "▁کاملا": 1152,
    "▁ما": 1153,
    "▁معروف": 1154,
    "▁لازم": 1155,
    "▁انگیز": 1156,
    "▁سنگ": 1157,
    "▁توییتر": 1158,
    "▁روشن": 1159,
    "رفع": 1160,
    "▁سود": 1161,
    "فا": 1162,
    "اف": 1163,
    "تن": 1164,
    "▁هواپیمایی": 1165,
    "▁پژوهش": 1166,
    "▁فرصت": 1167,
    "▁هواداران": 1168,
    "بو": 1169,
    "▁جوان": 1170,
    "▁اطلاع": 1171,
    "▁بیکار": 1172,
    "▁کنندگان": 1173,
    "▁واقع": 1174,
    "▁مناطق": 1175,
    "▁تقریبا": 1176,
    "▁ندارند": 1177,
    "▁تجارت": 1178,
    "▁پارسال": 1179,
    "▁اعمال": 1180,
    "▁شمال": 1181,
    "لان": 1182,
    "سون": 1183,
    "▁نهادهای": 1184,
    "▁دارایی": 1185,
    "▁ک": 1186,
    "▁سفید": 1187,
    "▁آماده": 1188,
    "▁رفتار": 1189,
    "▁نشد": 1190,
    "▁کارگر": 1191,
    "یست": 1192,
    "رد": 1193,
    "▁راست": 1194,
    "▁اداره": 1195,
    "▁پور": 1196,
    "▁پیام": 1197,
    "▁استرالیا": 1198,
    "ئی": 1199,
    "▁افغان": 1200,
    "▁تهی": 1201,
    "▁نظیر": 1202,
    "علی": 1203,
    "▁رسیدن": 1204,
    "▁دهم": 1205,
    "▁پاریس": 1206,
    "▁برداشت": 1207,
    "ایران": 1208,
    "▁بریتانیایی": 1209,
    "▁ساز": 1210,
    "جی": 1211,
    "محمد": 1212,
    "▁ایمن": 1213,
    "▁رعایت": 1214,
    "▁قانونی": 1215,
    "▁خاک": 1216,
    "▁سریع": 1217,
    "پا": 1218,
    "▁تاج": 1219,
    "▁گذاشت": 1220,
    "▁یورو": 1221,
    "▁رفتن": 1222,
    "▁مذاکر": 1223,
    "▁حادثه": 1224,
    "▁مواجه": 1225,
    "▁عملیات": 1226,
    "▁مه": 1227,
    "▁۹۸": 1228,
    "▁دلایل": 1229,
    "▁حق": 1230,
    "▁پذیر": 1231,
    "▁مع": 1232,
    "▁دختر": 1233,
    "▁رخ": 1234,
    "▁اقدامات": 1235,
    "▁هایش": 1236,
    "▁مک": 1237,
    "▁فوت": 1238,
    "▁اعتراضات": 1239,
    "▁تی": 1240,
    "▁خودروساز": 1241,
    "▁توسعه": 1242,
    "▁۲۰۲۱": 1243,
    "▁عملکرد": 1244,
    "▁تصاویر": 1245,
    "▁اوپک": 1246,
    "▁پدر": 1247,
    "▁خواند": 1248,
    "▁مردان": 1249,
    "▁پرواز": 1250,
    "▁منتق": 1251,
    "▁پرو": 1252,
    "▁بحرین": 1253,
    "▁قلب": 1254,
    "▁مقایس": 1255,
    "▁زنده": 1256,
    "نس": 1257,
    "▁کمیت": 1258,
    "▁ض": 1259,
    "▁مالیات": 1260,
    "▁رانند": 1261,
    "▁کشف": 1262,
    "▁تاجیکستان": 1263,
    "▁یونایتد": 1264,
    "▁بال": 1265,
    "▁دومین": 1266,
    "▁فضایی": 1267,
    "▁خصوص": 1268,
    "▁پایتخت": 1269,
    "▁خواننده": 1270,
    "▁کشورها": 1271,
    "عده": 1272,
    "▁محمو": 1273,
    "▁برخورد": 1274,
    "▁گاه": 1275,
    "▁بخوانید": 1276,
    "▁توصیف": 1277,
    "▁نداشت": 1278,
    "▁دریا": 1279,
    "▁صدای": 1280,
    "▁شاه": 1281,
    "▁مو": 1282,
    "رس": 1283,
    "▁مستند": 1284,
    "▁واکسین": 1285,
    "▁۵۰۰": 1286,
    "▁کاخ": 1287,
    "▁مح": 1288,
    "▁نور": 1289,
    "یابی": 1290,
    "▁مجموع": 1291,
    "▁سنگین": 1292,
    "▁گرم": 1293,
    "▁مکان": 1294,
    "▁صدا": 1295,
    "▁اضاف": 1296,
    "▁مانع": 1297,
    "▁موفقیت": 1298,
    "خوان": 1299,
    "▁امید": 1300,
    "▁خواهان": 1301,
    "▁جنسی": 1302,
    "▁ریز": 1303,
    "▁تقوی": 1304,
    "▁مشغول": 1305,
    "▁مجدد": 1306,
    "▁مشابه": 1307,
    "وف": 1308,
    "▁کنون": 1309,
    "▁منف": 1310,
    "▁سایت": 1311,
    "▁موجود": 1312,
    "▁محروم": 1313,
    "▁بهبود": 1314,
    "▁کانال": 1315,
    "▁۲۴": 1316,
    "▁کدام": 1317,
    "▁گروهی": 1318,
    "▁سوار": 1319,
    "▁۱۰۰": 1320,
    "▁اسپانیا": 1321,
    "▁نظارت": 1322,
    "▁مجبور": 1323,
    "▁بو": 1324,
    "▁مجوز": 1325,
    "▁گمرک": 1326,
    "▁روش": 1327,
    "▁لای": 1328,
    "▁حوز": 1329,
    "▁موافقت": 1330,
    "▁برسد": 1331,
    "▁گردد": 1332,
    "وید": 1333,
    "وایل": 1334,
    "▁تغییرات": 1335,
    "▁رکود": 1336,
    "▁موزه": 1337,
    "وت": 1338,
    "▁نویس": 1339,
    "▁نسل": 1340,
    "▁نگران": 1341,
    "▁۲۳": 1342,
    "▁رمان": 1343,
    "▁عبور": 1344,
    "▁دکتر": 1345,
    "حه": 1346,
    "▁عمده": 1347,
    "نمایی": 1348,
    "▁امیدوار": 1349,
    "▁گذار": 1350,
    "▁شعر": 1351,
    "▁درواز": 1352,
    "▁فدرر": 1353,
    "▁آید": 1354,
    "▁خالی": 1355,
    "▁ابتدا": 1356,
    "▁مالک": 1357,
    "▁پیشرفت": 1358,
    "▁سفیر": 1359,
    "▁شا": 1360,
    "▁بحث": 1361,
    "▁نفتکش": 1362,
    "▁چلسی": 1363,
    "▁دین": 1364,
    "▁خبرنگار": 1365,
    "▁ناز": 1366,
    "▁پسر": 1367,
    "▁پروازهای": 1368,
    "▁دچار": 1369,
    "▁ظرف": 1370,
    "▁طبیعی": 1371,
    "▁جدول": 1372,
    "▁فساد": 1373,
    "▁تماشاگر": 1374,
    "▁صعود": 1375,
    "بار": 1376,
    "▁جدا": 1377,
    "▁ملت": 1378,
    "▁افتاده": 1379,
    "▁گران": 1380,
    "▁واقعی": 1381,
    "عودی": 1382,
    "▁ژوئن": 1383,
    "▁حداقل": 1384,
    "▁یابد": 1385,
    "▁علمی": 1386,
    "ئو": 1387,
    "▁تاتنهام": 1388,
    "▁مجازی": 1389,
    "▁بهمن": 1390,
    "وب": 1391,
    "▁پوست": 1392,
    "▁ایالت": 1393,
    "▁پنجم": 1394,
    "▁سا": 1395,
    "▁منچستر": 1396,
    "▁زخم": 1397,
    "▁اینترنت": 1398,
    "▁گرد": 1399,
    "پی": 1400,
    "▁ارشد": 1401,
    "▁خودروهای": 1402,
    "▁پیشتر": 1403,
    "▁بیشتری": 1404,
    "▁امیر": 1405,
    "▁بازارهای": 1406,
    "جو": 1407,
    "▁عهد": 1408,
    "▁احمدی": 1409,
    "ممنوعیت": 1410,
    "▁جشن": 1411,
    "▁میدان": 1412,
    "▁مستقیم": 1413,
    "▁بستر": 1414,
    "▁دفتر": 1415,
    "▁مس": 1416,
    "ازگی": 1417,
    "▁حریف": 1418,
    "▁درست": 1419,
    "▁جنگل": 1420,
    "▁استاد": 1421,
    "▁بهار": 1422,
    "▁حسین": 1423,
    "▁وضع": 1424,
    "▁مهد": 1425,
    "بیشتر": 1426,
    "▁اوت": 1427,
    "▁بیت": 1428,
    "▁بنا": 1429,
    "رای": 1430,
    "▁پارک": 1431,
    "▁سعید": 1432,
    "▁فارس": 1433,
    "▁تخم": 1434,
    "زن": 1435,
    "▁مجله": 1436,
    "▁مادرید": 1437,
    "▁زود": 1438,
    "▁دنیای": 1439,
    "▁کودک": 1440,
    "▁فوری": 1441,
    "▁۹۰": 1442,
    "▁۲۱": 1443,
    "▁ژاپن": 1444,
    "▁غ": 1445,
    "▁خورد": 1446,
    "▁قدیمی": 1447,
    "▁برگشت": 1448,
    "▁۱۳۹۹": 1449,
    "▁خوش": 1450,
    "▁فرستاد": 1451,
    "▁-": 1452,
    "▁نشری": 1453,
    "ئ": 1454,
    "▁کارشناسان": 1455,
    "لیک": 1456,
    "▁فرا": 1457,
    "▁سند": 1458,
    "بین": 1459,
    "▁کاری": 1460,
    "▁توضیح": 1461,
    "▁سوئیس": 1462,
    "▁بنز": 1463,
    "▁صبح": 1464,
    "▁هدایت": 1465,
    "▁کارهای": 1466,
    "▁سینمایی": 1467,
    "نیوم": 1468,
    "▁اورا": 1469,
    "▁پوند": 1470,
    "▁حرف": 1471,
    "▁گوش": 1472,
    "ایر": 1473,
    "▁اقیانوس": 1474,
    "▁معتقد": 1475,
    "▁حزب": 1476,
    "▁رابطه": 1477,
    "▁پاسداران": 1478,
    "▁عدالت": 1479,
    "▁دوست": 1480,
    "▁فنی": 1481,
    "▁۲۸": 1482,
    "سو": 1483,
    "▁زدن": 1484,
    "▁سکه": 1485,
    "▁ضد": 1486,
    "▁مج": 1487,
    "▁همسر": 1488,
    "▁سرخ": 1489,
    "صد": 1490,
    "▁تورنمنت": 1491,
    "▁قاچاق": 1492,
    "▁نقاط": 1493,
    "▁کارکنان": 1494,
    "▁برزیل": 1495,
    "▁نهایت": 1496,
    "▁اوراق": 1497,
    "▁محصولات": 1498,
    "▁موجب": 1499,
    "▁مخالفت": 1500,
    "▁غذا": 1501,
    "▁کا": 1502,
    "نت": 1503,
    "کنندگان": 1504,
    "▁بیمار": 1505,
    "اسیون": 1506,
    "▁آوری": 1507,
    "▁اردیبهشت": 1508,
    "▁سوریه": 1509,
    "▁انگلستان": 1510,
    "▁سرشناس": 1511,
    "▁مقررات": 1512,
    "▁شرق": 1513,
    "▁مرداد": 1514,
    "▁روزانه": 1515,
    "تبه": 1516,
    "▁چرخ": 1517,
    "▁نماد": 1518,
    "▁پاکستان": 1519,
    "▁اظهارات": 1520,
    "▁ارتش": 1521,
    "فورد": 1522,
    "▁تیر": 1523,
    "▁حب": 1524,
    "▁فرزند": 1525,
    "▁دقیق": 1526,
    "▁صدر": 1527,
    "▁زنی": 1528,
    "▁جنجال": 1529,
    "▁روایت": 1530,
    "▁آلبوم": 1531,
    "▁قتل": 1532,
    "▁فراهم": 1533,
    "▁حیات": 1534,
    "وه": 1535,
    "▁اوپ": 1536,
    "▁جراح": 1537,
    "▁آموزش": 1538,
    "ریمه": 1539,
    "اوری": 1540,
    "▁ترانه": 1541,
    "▁صف": 1542,
    "تون": 1543,
    "▁شر": 1544,
    "▁رضا": 1545,
    "▁قضایی": 1546,
    "▁احساس": 1547,
    "وان": 1548,
    "▁ظاهر": 1549,
    "▁قضائیه": 1550,
    "▁بایرن": 1551,
    "▁تشخیص": 1552,
    "▁گستر": 1553,
    "▁ساختمان": 1554,
    "▁دانند": 1555,
    "کم": 1556,
    "▁امام": 1557,
    "▁هستیم": 1558,
    "▁دانشمندان": 1559,
    "▁چک": 1560,
    "▁هنرمند": 1561,
    "▁جایی": 1562,
    "شب": 1563,
    "▁پاس": 1564,
    "گا": 1565,
    "▁ماهه": 1566,
    "▁مان": 1567,
    "▁چندان": 1568,
    "▁جزئیات": 1569,
    "▁وابست": 1570,
    "▁معادل": 1571,
    "▁دانش": 1572,
    "▁علیرضا": 1573,
    "▁آورده": 1574,
    "وار": 1575,
    "▁۲۶": 1576,
    "هر": 1577,
    "چند": 1578,
    "▁مثبت": 1579,
    "▁حا": 1580,
    "▁متع": 1581,
    "▁قبلا": 1582,
    "▁رونالدو": 1583,
    "▁شغل": 1584,
    "▁فیفا": 1585,
    "▁سخنران": 1586,
    "غلب": 1587,
    "▁وزن": 1588,
    "وش": 1589,
    "▁چه": 1590,
    "▁نداشته": 1591,
    "قب": 1592,
    "▁تزریق": 1593,
    "▁زاغری": 1594,
    "▁علاقه": 1595,
    "▁کمبود": 1596,
    "▁استقبال": 1597,
    "▁رویترز": 1598,
    "▁هوشمند": 1599,
    "▁عجیب": 1600,
    "▁دوربین": 1601,
    "▁تیراندازی": 1602,
    "مقام": 1603,
    "قیف": 1604,
    "▁اقلیم": 1605,
    "▁غربی": 1606,
    "▁کالاهای": 1607,
    "لم": 1608,
    "▁دریایی": 1609,
    "رز": 1610,
    "▁دبیر": 1611,
    "▁نمو": 1612,
    "▁تمرین": 1613,
    "▁مسدود": 1614,
    "▁تماس": 1615,
    "▁مسکن": 1616,
    "▁خانگی": 1617,
    "▁سفارت": 1618,
    "▁حس": 1619,
    "▁خدمات": 1620,
    "▁مدیریت": 1621,
    "▁زندانی": 1622,
    "▁عین": 1623,
    "▁شخصیت": 1624,
    "▁تعدادی": 1625,
    "▁بنابر": 1626,
    "▁افزوده": 1627,
    "▁خورشیدی": 1628,
    "▁مقامات": 1629,
    "▁سینمای": 1630,
    "▁فرمو": 1631,
    "▁دما": 1632,
    "▁پو": 1633,
    "▁شک": 1634,
    "▁قسمت": 1635,
    "▁ژوئیه": 1636,
    "▁قدم": 1637,
    "▁محمدرضا": 1638,
    "▁اخراج": 1639,
    "▁دریای": 1640,
    "▁شخصی": 1641,
    "▁هی": 1642,
    "▁خواهیم": 1643,
    "ظ": 1644,
    "▁گری": 1645,
    "▁صحنه": 1646,
    "▁پیوست": 1647,
    "▁قطعی": 1648,
    "▁متوسط": 1649,
    "▁انگلیسی": 1650,
    "▁برج": 1651,
    "▁هیا": 1652,
    "▁اصلاح": 1653,
    "▁مهاجم": 1654,
    "▁پرس": 1655,
    "▁زاد": 1656,
    "▁دیوان": 1657,
    "▁آبی": 1658,
    "▁فعلی": 1659,
    "پر": 1660,
    "▁اوج": 1661,
    "▁داریم": 1662,
    "▁ماد": 1663,
    "▁گرفتند": 1664,
    "مون": 1665,
    "▁هو": 1666,
    "▁بیماران": 1667,
    "▁بازرگانی": 1668,
    "▁دستگیر": 1669,
    "▁اجرایی": 1670,
    "▁توصی": 1671,
    "اع": 1672,
    "▁دوچرخه": 1673,
    "▁صاحب": 1674,
    "▁مدافع": 1675,
    "▁طالبان": 1676,
    "▁استعفا": 1677,
    "▁موتور": 1678,
    "▁مدعی": 1679,
    "▁موشک": 1680,
    "▁موقت": 1681,
    "توجه": 1682,
    "سل": 1683,
    "▁معترضان": 1684,
    "▁آلمانی": 1685,
    "▁مهار": 1686,
    "اپی": 1687,
    "ران": 1688,
    "▁فوریه": 1689,
    "▁بهداشتی": 1690,
    "▁سپ": 1691,
    "▁هرچ": 1692,
    "▁مص": 1693,
    "بط": 1694,
    "▁لحظ": 1695,
    "▁معنای": 1696,
    "▁کشاورز": 1697,
    "▁رئال": 1698,
    "▁العاده": 1699,
    "▁جوایز": 1700,
    "▁معتبر": 1701,
    "▁ذخ": 1702,
    "▁فرمانده": 1703,
    "▁خرداد": 1704,
    "▁موقعیت": 1705,
    "▁حداکثر": 1706,
    "▁مجید": 1707,
    "فدراسیون": 1708,
    "▁کاربران": 1709,
    "▁معمولا": 1710,
    "▁ناظر": 1711,
    "نقض": 1712,
    "▁وگو": 1713,
    "▁تقاضا": 1714,
    "▁جی": 1715,
    "▁۳۰۰": 1716,
    "▁کوین": 1717,
    "▁ط": 1718,
    "رضا": 1719,
    "▁ارزی": 1720,
    "▁مبلغ": 1721,
    "▁ذهن": 1722,
    "▁صوتی": 1723,
    "▁نشود": 1724,
    "پور": 1725,
    "▁ارسال": 1726,
    "▁نوامبر": 1727,
    "نین": 1728,
    "▁۲۰۱۷": 1729,
    "▁مبتلایان": 1730,
    "قانونی": 1731,
    "▁سیستان": 1732,
    "▁۳۱": 1733,
    "▁هاست": 1734,
    "▁۷۰": 1735,
    "▁۳۵": 1736,
    "حسین": 1737,
    "▁مطالع": 1738,
    "▁ابلاغ": 1739,
    "▁تخریب": 1740,
    "▁نقدینگی": 1741,
    "▁اسطوره": 1742,
    "▁بنیاد": 1743,
    "▁بلوچستان": 1744,
    "▁پنجشنبه": 1745,
    "▁مراجع": 1746,
    "▁هموار": 1747,
    "▁۹۹": 1748,
    "طی": 1749,
    "▁برآورد": 1750,
    "▁سوال": 1751,
    "رنگ": 1752,
    "مند": 1753,
    "▁بان": 1754,
    "▁گرا": 1755,
    "▁ترس": 1756,
    "▁درآمدهای": 1757,
    "▁ص": 1758,
    "▁مدیران": 1759,
    "▁شهروند": 1760,
    "▁غذای": 1761,
    "یون": 1762,
    "▁صنایع": 1763,
    "▁بازگشا": 1764,
    "▁دشوار": 1765,
    "▁مسلح": 1766,
    "▁فایل": 1767,
    "▁خلق": 1768,
    "اری": 1769,
    "▁نیویورک": 1770,
    "▁جودو": 1771,
    "▁مجری": 1772,
    "▁ماموران": 1773,
    "▁زا": 1774,
    "زاده": 1775,
    "▁قار": 1776,
    "شهر": 1777,
    "▁جمعی": 1778,
    "▁فردا": 1779,
    "▁دام": 1780,
    "▁هرگ": 1781,
    "▁کنونی": 1782,
    "▁خورده": 1783,
    "قدر": 1784,
    "▁نشر": 1785,
    "▁مارک": 1786,
    "▁اشتباه": 1787,
    "▁نگهداری": 1788,
    "▁لباس": 1789,
    "▁سان": 1790,
    "▁ری": 1791,
    "▁موسو": 1792,
    "▁آزار": 1793,
    "▁هواپیما": 1794,
    "▁مخالفان": 1795,
    "▁رس": 1796,
    "▁اساسی": 1797,
    "▁بدهی": 1798,
    "▁زندانیان": 1799,
    "▁عق": 1800,
    "▁۴۲": 1801,
    "▁سعی": 1802,
    "▁دختران": 1803,
    "▁حمل": 1804,
    "▁هست": 1805,
    "▁فرار": 1806,
    "▁مار": 1807,
    "▁عرب": 1808,
    "▁اینستاگرام": 1809,
    "▁تحویل": 1810,
    "▁آسمان": 1811,
    "▁حاشیه": 1812,
    "▁سراوان": 1813,
    "▁نگار": 1814,
    "▁معرض": 1815,
    "وال": 1816,
    "▁چالش": 1817,
    "▁یکدیگر": 1818,
    "▁تصور": 1819,
    "▁خلی": 1820,
    "▁ساکن": 1821,
    "▁بند": 1822,
    "▁پن": 1823,
    "▁مسافران": 1824,
    "گری": 1825,
    "▁خبرنگاران": 1826,
    "▁درگیری": 1827,
    "▁مناسب": 1828,
    "شار": 1829,
    "▁معامل": 1830,
    "▁اع": 1831,
    "▁واشنگتن": 1832,
    "▁نتوانست": 1833,
    "▁صلح": 1834,
    "▁چیست": 1835,
    "▁آهنگ": 1836,
    "▁نویسندگان": 1837,
    "▁ادبیات": 1838,
    "▁رافائل": 1839,
    "▁گیرند": 1840,
    "ماه": 1841,
    "سازمان": 1842,
    "▁مراک": 1843,
    "▁متحد": 1844,
    "▁کوه": 1845,
    "▁شاعر": 1846,
    "▁عبدال": 1847,
    "▁مایک": 1848,
    "▁برود": 1849,
    "▁آرام": 1850,
    "▁معمول": 1851,
    "▁درگیر": 1852,
    "▁توکیو": 1853,
    "▁اکبر": 1854,
    "واج": 1855,
    "▁سپاهان": 1856,
    "▁داور": 1857,
    "وزارت": 1858,
    "▁۸۰": 1859,
    "▁شیو": 1860,
    "▁دیدن": 1861,
    "▁پست": 1862,
    "▁مرزی": 1863,
    "▁احتمالی": 1864,
    "چی": 1865,
    "▁رادیو": 1866,
    "رکت": 1867,
    "▁محبوب": 1868,
    "▁نوری": 1869,
    "▁اختصاص": 1870,
    "▁تاخیر": 1871,
    "▁مدیرعامل": 1872,
    "▁اخبار": 1873,
    "▁اهمیت": 1874,
    "▁متعدد": 1875,
    "▁بهادار": 1876,
    "▁پدید": 1877,
    "▁دستمزد": 1878,
    "▁دیوار": 1879,
    "▁عمر": 1880,
    "▁۲۹": 1881,
    "▁جم": 1882,
    "▁صرف": 1883,
    "▁فرود": 1884,
    "▁پژوهشگران": 1885,
    "▁بعدا": 1886,
    "تان": 1887,
    "▁تومانی": 1888,
    "▁کشورش": 1889,
    "وند": 1890,
    "▁سیما": 1891,
    "علوم": 1892,
    "▁خدم": 1893,
    "▁خیابان": 1894,
    "▁آمازون": 1895,
    "▁تمدید": 1896,
    "▁عوامل": 1897,
    "▁فرانسوی": 1898,
    "▁کنسرت": 1899,
    "▁آنلاین": 1900,
    "▁نحو": 1901,
    "▁حاصل": 1902,
    "▁۱۳۹۸": 1903,
    "▁جوکوویچ": 1904,
    "اسی": 1905,
    "▁نگه": 1906,
    "▁چهل": 1907,
    "▁یخ": 1908,
    "▁انداخت": 1909,
    "▁مسافر": 1910,
    "▁تقاضای": 1911,
    "لاک": 1912,
    "▁آور": 1913,
    "▁ست": 1914,
    "▁ادبی": 1915,
    "کننده": 1916,
    "▁مشا": 1917,
    "ینگ": 1918,
    "▁اکتبر": 1919,
    "▁هنرپیشه": 1920,
    "▁توقف": 1921,
    "▁مراقب": 1922,
    "▁پالایشگاه": 1923,
    "▁کردم": 1924,
    "▁تلفن": 1925,
    "▁عادی": 1926,
    "▁گیر": 1927,
    "دولت": 1928,
    "لک": 1929,
    "▁شیر": 1930,
    "ازم": 1931,
    "باز": 1932,
    "▁اسرائیلی": 1933,
    "▁توییت": 1934,
    "▁مور": 1935,
    "▁روزها": 1936,
    "▁جدیدی": 1937,
    "▁ادار": 1938,
    "▁اصفهان": 1939,
    "▁نارنجی": 1940,
    "▁ارقام": 1941,
    "▁تعویق": 1942,
    "▁آلودگی": 1943,
    "▁نادال": 1944,
    "▁تسلا": 1945,
    "▁نوبل": 1946,
    "▁سبک": 1947,
    "▁لوکس": 1948,
    "▁جواد": 1949,
    "▁هماهنگ": 1950,
    "▁سم": 1951,
    "کته": 1952,
    "▁تعهدات": 1953,
    "▁برمی": 1954,
    "▁ماجرا": 1955,
    "▁افزود": 1956,
    "▁فردی": 1957,
    "▁چا": 1958,
    "▁قر": 1959,
    "رات": 1960,
    "دگی": 1961,
    "▁کارها": 1962,
    "مت": 1963,
    "▁حذفی": 1964,
    "▁تئاتر": 1965,
    "▁کاپیتان": 1966,
    "▁رقیب": 1967,
    "▁مدرسه": 1968,
    "▁همچو": 1969,
    "▁مشاهد": 1970,
    "▁جایگاه": 1971,
    "▁آذر": 1972,
    "▁انجمن": 1973,
    "▁راجر": 1974,
    "جمه": 1975,
    "▁راهی": 1976,
    "▁کارمندان": 1977,
    "▁نوروز": 1978,
    "▁خوان": 1979,
    "ریک": 1980,
    "رانی": 1981,
    "▁۳۲": 1982,
    "▁جاد": 1983,
    "▁ارزها": 1984,
    "امی": 1985,
    "▁روان": 1986,
    "▁حفاظت": 1987,
    "▁جذب": 1988,
    "▁ثابت": 1989,
    "▁وکیل": 1990,
    "▁مونیخ": 1991,
    "▁نفس": 1992,
    "▁مریخ": 1993,
    "▁کافی": 1994,
    "▁ثانی": 1995,
    "▁ضمن": 1996,
    "▁بازگرداند": 1997,
    "امبر": 1998,
    "▁سهم": 1999,
    "بند": 2000,
    "▁گرند": 2001,
    "▁جر": 2002,
    "▁عکاس": 2003,
    "▁شبانه": 2004,
    "▁هنرمندان": 2005,
    "▁واقعیت": 2006,
    "▁مالکی": 2007,
    "▁ایم": 2008,
    "رسدس": 2009,
    "▁پزشک": 2010,
    "▁قالیباف": 2011,
    "▁عصر": 2012,
    "▁بقیه": 2013,
    "▁فرهاد": 2014,
    "▁خشک": 2015,
    "▁حاکی": 2016,
    "خبرگزا": 2017,
    "▁۱۹۹": 2018,
    "▁واگذار": 2019,
    "▁نکرد": 2020,
    "▁حج": 2021,
    "▁گذارد": 2022,
    "▁آمیز": 2023,
    "▁بیان": 2024,
    "▁هواپیمای": 2025,
    "▁مخالف": 2026,
    "خانم": 2027,
    "ریم": 2028,
    "پیش": 2029,
    "▁اصل": 2030,
    "▁مربیان": 2031,
    "پو": 2032,
    "▁جیمز": 2033,
    "▁جذاب": 2034,
    "▁متولد": 2035,
    "▁موثر": 2036,
    "▁هجوم": 2037,
    "▁برجسته": 2038,
    "▁حکام": 2039,
    "▁روس": 2040,
    "▁ماموریت": 2041,
    "▁قاسم": 2042,
    "▁لیون": 2043,
    "▁اتریش": 2044,
    "فق": 2045,
    "▁داشتن": 2046,
    "▁برقرار": 2047,
    "▁اتفاقات": 2048,
    "▁حسینی": 2049,
    "▁لس": 2050,
    "▁جه": 2051,
    "جه": 2052,
    "▁سای": 2053,
    "▁وا": 2054,
    "▁بلا": 2055,
    "▁نهم": 2056,
    "برای": 2057,
    "نک": 2058,
    "▁دامن": 2059,
    "▁خسارت": 2060,
    "▁ناگهان": 2061,
    "▁عمیق": 2062,
    "▁میراث": 2063,
    "تنظیم": 2064,
    "▁نجات": 2065,
    "ذیب": 2066,
    "▁بازنشستگان": 2067,
    "▁صلاحیت": 2068,
    "▁شهریور": 2069,
    "▁محسو": 2070,
    "▁داروی": 2071,
    "▁همتی": 2072,
    "▁لح": 2073,
    "▁گلستان": 2074,
    "▁درجه": 2075,
    "▁گذرد": 2076,
    "زاد": 2077,
    "▁سهمی": 2078,
    "▁آفریقا": 2079,
    "▁ملک": 2080,
    "▁خان": 2081,
    "▁زند": 2082,
    "رون": 2083,
    "باید": 2084,
    "▁شناسی": 2085,
    "▁تحصیل": 2086,
    "روی": 2087,
    "▁مسئ": 2088,
    "▁آواز": 2089,
    "▁مسائل": 2090,
    "▁ایستگاه": 2091,
    "▁ساحل": 2092,
    "▁رسما": 2093,
    "▁باور": 2094,
    "سن": 2095,
    "▁گام": 2096,
    "▁کانادا": 2097,
    "▁جن": 2098,
    "▁دان": 2099,
    "▁درخشان": 2100,
    "▁برادر": 2101,
    "▁منتقدان": 2102,
    "جمع": 2103,
    "▁ورزشکاران": 2104,
    "رئیس": 2105,
    "انجام": 2106,
    "حمل": 2107,
    "شیدا": 2108,
    "▁نقاش": 2109,
    "▁وال": 2110,
    "▁عدد": 2111,
    "▁کت": 2112,
    "انس": 2113,
    "داشت": 2114,
    "▁اندازی": 2115,
    "▁ار": 2116,
    "▁مطابق": 2117,
    "▁آنجلس": 2118,
    "▁سلطنت": 2119,
    "فسور": 2120,
    "▁امارات": 2121,
    "▁تردد": 2122,
    "▁نرم": 2123,
    "▁رویکرد": 2124,
    "▁متن": 2125,
    "▁ابراهیم": 2126,
    "شویی": 2127,
    "▁کام": 2128,
    "گزارش": 2129,
    "ساوی": 2130,
    "▁تور": 2131,
    "ندگان": 2132,
    "▁هل": 2133,
    "▁دارای": 2134,
    "▁گمان": 2135,
    "رسان": 2136,
    "▁خشونت": 2137,
    "▁مشمول": 2138,
    "▁مصنوعی": 2139,
    "▁پروتکل": 2140,
    "▁سلیمانی": 2141,
    "▁نوجوان": 2142,
    "▁افتخار": 2143,
    "▁سرپرست": 2144,
    "▁اجلاس": 2145,
    "▁ایسنا": 2146,
    "▁محرم": 2147,
    "▁کلاس": 2148,
    "▁آکادمی": 2149,
    "▁تاسیسات": 2150,
    "▁هلند": 2151,
    "▁گزین": 2152,
    "▁اطلاعی": 2153,
    "▁ایتالیایی": 2154,
    "▁شمالی": 2155,
    "▁محققان": 2156,
    "بری": 2157,
    "▁سامانه": 2158,
    "▁داند": 2159,
    "▁گفتند": 2160,
    "▁میلان": 2161,
    "▁ورزشکار": 2162,
    "▁کارشناس": 2163,
    "▁ادعا": 2164,
    "▁مواردی": 2165,
    "▁آهن": 2166,
    "▁اطراف": 2167,
    "▁تشویق": 2168,
    "▁دیجیتال": 2169,
    "▁توزیع": 2170,
    "▁شاغل": 2171,
    "▁بازدید": 2172,
    "▁تولد": 2173,
    "گین": 2174,
    "▁قبول": 2175,
    "▁قطب": 2176,
    "▁شرقی": 2177,
    "▁پنجاه": 2178,
    "ضاع": 2179,
    "▁فرودگاه": 2180,
    "هفته": 2181,
    "▁پلاس": 2182,
    "▁رانندگان": 2183,
    "▁هویت": 2184,
    "▁صالح": 2185,
    "▁پدرش": 2186,
    "▁تمامی": 2187,
    "▁تخت": 2188,
    "▁باب": 2189,
    "وئل": 2190,
    "▁سخنان": 2191,
    "آن": 2192,
    "▁آباد": 2193,
    "تیم": 2194,
    "▁درک": 2195,
    "تمام": 2196,
    "▁اور": 2197,
    "▁فضا": 2198,
    "▁الملل": 2199,
    "▁سخن": 2200,
    "▁دوستان": 2201,
    "▁گور": 2202,
    "حص": 2203,
    "▁تف": 2204,
    "وع": 2205,
    "▁آرسنال": 2206,
    "▁قالب": 2207,
    "▁لبنان": 2208,
    "▁جبران": 2209,
    "▁نیک": 2210,
    "▁اجاره": 2211,
    "▁۴۵": 2212,
    "▁سوپر": 2213,
    "مپ": 2214,
    "▁کلوپ": 2215,
    "▁قربانیان": 2216,
    "▁اسکی": 2217,
    "۱۸": 2218,
    "▁دادستان": 2219,
    "▁اید": 2220,
    "▁جانب": 2221,
    "▁تپ": 2222,
    "بخش": 2223,
    "▁الدین": 2224,
    "▁نادر": 2225,
    "▁هوش": 2226,
    "▁کارت": 2227,
    "▁توانسته": 2228,
    "▁رهبری": 2229,
    "▁بازرس": 2230,
    "▁مبن": 2231,
    "▁توانای": 2232,
    "▁ازد": 2233,
    "▁گرانی": 2234,
    "▁شنا": 2235,
    "▁اتومبیل": 2236,
    "▁حوادث": 2237,
    "▁اعتبار": 2238,
    "▁اهواز": 2239,
    "▁عرص": 2240,
    "▁ایرنا": 2241,
    "▁زمستان": 2242,
    "▁الهام": 2243,
    "▁گذراند": 2244,
    "▁اقامت": 2245,
    "▁شهرداری": 2246,
    "▁خیریه": 2247,
    "بل": 2248,
    "▁ریال": 2249,
    "تور": 2250,
    "▁سرای": 2251,
    "▁طرفداران": 2252,
    "غول": 2253,
    "▁کردیم": 2254,
    "▁ناسا": 2255,
    "▁خاص": 2256,
    "▁خورشید": 2257,
    "▁۷۵": 2258,
    "▁بندر": 2259,
    "▁گردشگری": 2260,
    "شریف": 2261,
    "اظ": 2262,
    "▁جوانان": 2263,
    "▁قول": 2264,
    "▁محافظ": 2265,
    "▁نشدن": 2266,
    "▁کالاها": 2267,
    "▁صراف": 2268,
    "▁فیسبوک": 2269,
    "▁نطنز": 2270,
    "▁یوونتوس": 2271,
    "▁حراج": 2272,
    "▁مشهد": 2273,
    "▁آشنا": 2274,
    "▁وحش": 2275,
    "▁تأ": 2276,
    "▁مشاور": 2277,
    "لر": 2278,
    "سه": 2279,
    "رج": 2280,
    "▁نیستند": 2281,
    "▁پاک": 2282,
    "▁شهرت": 2283,
    "▁سپت": 2284,
    "یکی": 2285,
    "▁شبی": 2286,
    "▁دیپلما": 2287,
    "▁عکاسی": 2288,
    "▁رحمان": 2289,
    "▁نداده": 2290,
    "▁گزارشگر": 2291,
    "▁فیزیک": 2292,
    "▁مجسمه": 2293,
    "تصاب": 2294,
    "▁چنان": 2295,
    "صت": 2296,
    "افسانه": 2297,
    "▁ذر": 2298,
    "▁مطلب": 2299,
    "▁حملات": 2300,
    "عی": 2301,
    "اج": 2302,
    "نظر": 2303,
    "▁استاندار": 2304,
    "رق": 2305,
    "گذاری": 2306,
    "ناصر": 2307,
    "همزمان": 2308,
    "آمریکا": 2309,
    "▁ریش": 2310,
    "اگر": 2311,
    "شمار": 2312,
    "▁فرو": 2313,
    "▁بس": 2314,
    "▁نیرو": 2315,
    "▁آماد": 2316,
    "دل": 2317,
    "▁آندر": 2318,
    "▁آم": 2319,
    "▁محصول": 2320,
    "▁متوا": 2321,
    "▁دعوت": 2322,
    "▁فراموش": 2323,
    "▁اوکراین": 2324,
    "▁فولاد": 2325,
    "▁مقصد": 2326,
    "▁عشق": 2327,
    "▁ناپذیر": 2328,
    "▁رویداد": 2329,
    "▁جورج": 2330,
    "▁پرتاب": 2331,
    "▁نیازمند": 2332,
    "▁منتظر": 2333,
    "▁سیل": 2334,
    "گانه": 2335,
    "دست": 2336,
    "▁تاجیک": 2337,
    "▁خواب": 2338,
    "▁برخوردار": 2339,
    "▁شهرستان": 2340,
    "▁جامع": 2341,
    "▁بخت": 2342,
    "سکی": 2343,
    "▁نی": 2344,
    "▁خرد": 2345,
    "▁نبوده": 2346,
    "▁انت": 2347,
    "▁پزشکان": 2348,
    "▁شناس": 2349,
    "...": 2350,
    "▁سد": 2351,
    "▁کارزار": 2352,
    "▁سرود": 2353,
    "▁هشتم": 2354,
    "▁آفریقای": 2355,
    "▁مجاز": 2356,
    "داران": 2357,
    "▁انداز": 2358,
    "نوش": 2359,
    "نج": 2360,
    "▁بابا": 2361,
    "▁اسکاتلند": 2362,
    "▁اطمینان": 2363,
    "▁موضع": 2364,
    "▁گواردیولا": 2365,
    "▁نژادپرست": 2366,
    "▁عذر": 2367,
    "▁فعلا": 2368,
    "▁تعرف": 2369,
    "▁۱۳۹۷": 2370,
    "▁دانیم": 2371,
    "ورا": 2372,
    "▁مستقل": 2373,
    "▁ملایی": 2374,
    "برگ": 2375,
    "▁رویا": 2376,
    "▁اهل": 2377,
    "لند": 2378,
    "ابت": 2379,
    "▁فوتبالیست": 2380,
    "▁سوزی": 2381,
    "▁عا": 2382,
    "▁آمدن": 2383,
    "▁اسب": 2384,
    "▁حقوقی": 2385,
    "▁باره": 2386,
    "▁افزار": 2387,
    "نر": 2388,
    "▁۳۳": 2389,
    "▁تری": 2390,
    "کور": 2391,
    "▁سرد": 2392,
    "▁ون": 2393,
    "۱۶": 2394,
    "▁حامل": 2395,
    "▁روانی": 2396,
    "▁تست": 2397,
    "نز": 2398,
    "▁عظیم": 2399,
    "▁ویمبلدون": 2400,
    "▁دسامبر": 2401,
    "▁سرنگون": 2402,
    "▁نداریم": 2403,
    "▁رونق": 2404,
    "▁جلب": 2405,
    "▁تردید": 2406,
    "▁هتل": 2407,
    "▁بدهد": 2408,
    "▁قدر": 2409,
    "▁اختلال": 2410,
    "▁۲۷": 2411,
    "▁محمدی": 2412,
    "▁خیر": 2413,
    "▁جلوی": 2414,
    "▁مشتریان": 2415,
    "▁هفتم": 2416,
    "ترا": 2417,
    "▁عید": 2418,
    "▁اص": 2419,
    "▁نامداری": 2420,
    "قابل": 2421,
    "قرار": 2422,
    "▁قوی": 2423,
    "▁منع": 2424,
    "▁همسرش": 2425,
    "▁شاملو": 2426,
    "▁۴۰۰": 2427,
    "▁بعدی": 2428,
    "عهد": 2429,
    "▁اسم": 2430,
    "نما": 2431,
    "▁نامید": 2432,
    "واع": 2433,
    "▁باد": 2434,
    "▁ایستاده": 2435,
    "▁ابر": 2436,
    "▁بسکتبال": 2437,
    "▁علائم": 2438,
    "▁ژافره": 2439,
    "▁کالیفرنیا": 2440,
    "▁اندونزی": 2441,
    "▁تکرار": 2442,
    "▁پرچم": 2443,
    "▁تنفس": 2444,
    "▁بگیرند": 2445,
    "▁۲۰۱۵": 2446,
    "باقر": 2447,
    "▁مدرن": 2448,
    "▁نفوذ": 2449,
    "▁نمایندگی": 2450,
    "طفی": 2451,
    "▁اسپانیایی": 2452,
    "▁یافتن": 2453,
    "▁دوز": 2454,
    "▁ششم": 2455,
    "▁فراز": 2456,
    "سبب": 2457,
    "حدود": 2458,
    "پرس": 2459,
    "▁سل": 2460,
    "▁کجا": 2461,
    "▁سین": 2462,
    "▁چشمگیر": 2463,
    "▁کیلومتری": 2464,
    "▁خر": 2465,
    "▁معدن": 2466,
    "▁لیس": 2467,
    "▁امر": 2468,
    "▁بردن": 2469,
    "▁نوروزی": 2470,
    "▁تاسیس": 2471,
    "▁علم": 2472,
    "▁تبعیض": 2473,
    "▁سفارش": 2474,
    "▁طبیعت": 2475,
    "▁مشاغل": 2476,
    "▁کیفیت": 2477,
    "▁تفاوت": 2478,
    "▁برگزید": 2479,
    "▁تعلیق": 2480,
    "▁جسد": 2481,
    "▁فروخته": 2482,
    "▁ژرمن": 2483,
    "▁مادرش": 2484,
    "▁خودکشی": 2485,
    "خراج": 2486,
    "آزادسازی": 2487,
    "▁بنیان": 2488,
    "▁حقیق": 2489,
    "▁رمز": 2490,
    "▁مسعود": 2491,
    "▁نود": 2492,
    "▁یمن": 2493,
    "▁ژاپنی": 2494,
    "شدید": 2495,
    "▁زانو": 2496,
    "▁زودتر": 2497,
    "حسن": 2498,
    "▁روب": 2499,
    "▁انداخته": 2500,
    "شرکت": 2501,
    "▁سپر": 2502,
    "▁اعتماد": 2503,
    "▁دستورالعمل": 2504,
    "▁چارچوب": 2505,
    "▁شگفت": 2506,
    "▁تجدید": 2507,
    "▁صدرنشین": 2508,
    "▁پادشاه": 2509,
    "▁هاشمی": 2510,
    "▁پنهان": 2511,
    "▁انتخاباتی": 2512,
    "▁ویدیو": 2513,
    "خواهی": 2514,
    "▁۳۹": 2515,
    "▁پکن": 2516,
    "▁مرور": 2517,
    "خور": 2518,
    "▁قله": 2519,
    "▁قضاییه": 2520,
    "▁روح": 2521,
    "▁دقیقا": 2522,
    "۲۰": 2523,
    "▁داوطلبان": 2524,
    "▁روستای": 2525,
    "▁نشین": 2526,
    "خواه": 2527,
    "▁گوشت": 2528,
    "▁آرایش": 2529,
    "▁پاری": 2530,
    "▁نای": 2531,
    "قیمت": 2532,
    "▁ایفا": 2533,
    "▁خاتمی": 2534,
    "انا": 2535,
    "مدال": 2536,
    "▁سفرهای": 2537,
    "▁ات": 2538,
    "غم": 2539,
    "▁نمای": 2540,
    "شک": 2541,
    "▁اظهار": 2542,
    "▁کشت": 2543,
    "▁تب": 2544,
    "▁مول": 2545,
    "▁تحلیل": 2546,
    "ژه": 2547,
    "▁انتظامی": 2548,
    "▁ثبات": 2549,
    "▁روغن": 2550,
    "▁شفاف": 2551,
    "▁سلطان": 2552,
    "▁بماند": 2553,
    "▁زهرا": 2554,
    "▁راحت": 2555,
    "▁آلوده": 2556,
    "▁اسناد": 2557,
    "▁اکثر": 2558,
    "ستون": 2559,
    "▁ساده": 2560,
    "▁پایگاه": 2561,
    "▁۳۴": 2562,
    "▁هفتاد": 2563,
    "▁شهرسازی": 2564,
    "▁مهاجرت": 2565,
    "▁آنتونی": 2566,
    "▁بچ": 2567,
    "▁کیو": 2568,
    "▁معلوم": 2569,
    "▁یاران": 2570,
    "▁برون": 2571,
    "خالص": 2572,
    "▁عملا": 2573,
    "▁دیر": 2574,
    "▁خلاف": 2575,
    "▁انتقادها": 2576,
    "بعضی": 2577,
    "▁مون": 2578,
    "▁نامش": 2579,
    "▁ارا": 2580,
    "▁گذر": 2581,
    "▁ماندن": 2582,
    "مار": 2583,
    "▁بدتر": 2584,
    "▁مرزها": 2585,
    "اقات": 2586,
    "▁بازیگران": 2587,
    "▁دسته": 2588,
    "▁کف": 2589,
    "▁اهدا": 2590,
    "▁تراکتور": 2591,
    "▁تصادف": 2592,
    "▁گشایش": 2593,
    "▁پارلمان": 2594,
    "▁پانزده": 2595,
    "▁عبارت": 2596,
    "▁اولویت": 2597,
    "▁پیچید": 2598,
    "▁خطرناک": 2599,
    "▁فراوان": 2600,
    "بنا": 2601,
    "▁عاص": 2602,
    "▁استانبول": 2603,
    "▁گنج": 2604,
    "▁سازنده": 2605,
    "▁نفع": 2606,
    "▁فولک": 2607,
    "▁مدیرکل": 2608,
    "▁یادآور": 2609,
    "▁مجازات": 2610,
    "گون": 2611,
    "▁اسماعیل": 2612,
    "نام": 2613,
    "▁باغ": 2614,
    "▁تجا": 2615,
    "▁اسدی": 2616,
    "▁۱۵۰": 2617,
    "▁نامزدهای": 2618,
    "▁حالت": 2619,
    "▁شاهین": 2620,
    "▁شانس": 2621,
    "▁مند": 2622,
    "▁بهای": 2623,
    "▁لب": 2624,
    "▁ارد": 2625,
    "▁خاصی": 2626,
    "▁فان": 2627,
    "▁تس": 2628,
    "▁متخصص": 2629,
    "▁شواهد": 2630,
    "▁ساعات": 2631,
    "▁سانسور": 2632,
    "▁نماز": 2633,
    "▁نوسان": 2634,
    "▁عطر": 2635,
    "وخیم": 2636,
    "▁دیپلماتیک": 2637,
    "▁شعب": 2638,
    "▁خطیب": 2639,
    "▁تابلو": 2640,
    "▁مقدمات": 2641,
    "▁لستر": 2642,
    "▁۹۷": 2643,
    "▁وانت": 2644,
    "▁۱۹۸": 2645,
    "▁خودروسازی": 2646,
    "▁عفو": 2647,
    "▁کسر": 2648,
    "▁مسئولیت": 2649,
    "▁اندک": 2650,
    "لف": 2651,
    "▁پوشش": 2652,
    "▁واقعا": 2653,
    "▁تعطیلات": 2654,
    "▁تبار": 2655,
    "▁جزیر": 2656,
    "آزمای": 2657,
    "دکتر": 2658,
    "گفته": 2659,
    "▁معن": 2660,
    "ناز": 2661,
    "▁مالیاتی": 2662,
    "تری": 2663,
    "صاف": 2664,
    "▁ضرور": 2665,
    "▁مخ": 2666,
    "▁بهر": 2667,
    "▁پاپ": 2668,
    "▁اضطرار": 2669,
    "▁عوارض": 2670,
    "▁غافلگیر": 2671,
    "▁مذهبی": 2672,
    "▁هالیوود": 2673,
    "▁مورینیو": 2674,
    "▁تعریف": 2675,
    "▁قلع": 2676,
    "▁ماراتن": 2677,
    "▁شویم": 2678,
    "▁فیوری": 2679,
    "▁گشت": 2680,
    "▁اپرا": 2681,
    "▁راز": 2682,
    "▁سلول": 2683,
    "▁درد": 2684,
    "▁۲۰۱۱": 2685,
    "▁تحولات": 2686,
    "▁منظور": 2687,
    "▁امیدواری": 2688,
    "▁تل": 2689,
    "▁فروشگاه": 2690,
    "▁فرمان": 2691,
    "▁محکومیت": 2692,
    "▁بهتری": 2693,
    "▁خطاب": 2694,
    "▁میر": 2695,
    "▁ویل": 2696,
    "بته": 2697,
    "اکان": 2698,
    "گروه": 2699,
    "▁رها": 2700,
    "▁اسپ": 2701,
    "▁۱۳۵": 2702,
    "▁مناسبت": 2703,
    "وات": 2704,
    "گل": 2705,
    "خواست": 2706,
    "▁واگ": 2707,
    "پل": 2708,
    "▁طلب": 2709,
    "▁دفاعی": 2710,
    "▁جک": 2711,
    "احض": 2712,
    "▁نیمک": 2713,
    "▁تاب": 2714,
    "التی": 2715,
    "▁اصلا": 2716,
    "▁تماشای": 2717,
    "▁کپ": 2718,
    "گن": 2719,
    "وثی": 2720,
    "حال": 2721,
    "أ": 2722,
    "▁ویدیوی": 2723,
    "▁عاشق": 2724,
    "▁ازبکستان": 2725,
    "▁بلینکن": 2726,
    "▁نباشد": 2727,
    "▁کیلوگرم": 2728,
    "▁تبریز": 2729,
    "▁مثال": 2730,
    "▁تالاب": 2731,
    "▁همکاران": 2732,
    "▁برکنار": 2733,
    "▁کربن": 2734,
    "▁دائم": 2735,
    "▁مرجان": 2736,
    "▁کانون": 2737,
    "▁سپرده": 2738,
    "▁کریمی": 2739,
    "▁صادرکنندگان": 2740,
    "▁وقف": 2741,
    "▁بوکس": 2742,
    "▁کیم": 2743,
    "▁زاهد": 2744,
    "▁شناور": 2745,
    "▁نسخ": 2746,
    "▁کلید": 2747,
    "▁۴۸": 2748,
    "▁ژنتیکی": 2749,
    "▁آگاه": 2750,
    "▁کور": 2751,
    "▁ذو": 2752,
    "نوبت": 2753,
    "▁تماشا": 2754,
    "▁تحول": 2755,
    "▁شرکتهای": 2756,
    "▁مدار": 2757,
    "▁راک": 2758,
    "▁خواهی": 2759,
    "▁زو": 2760,
    "▁جنسیت": 2761,
    "▁مسئولین": 2762,
    "احل": 2763,
    "▁۷۰۰": 2764,
    "اسلم": 2765,
    "▁کاش": 2766,
    "مرد": 2767,
    "▁ماجرای": 2768,
    "▁درمانی": 2769,
    "▁کارمند": 2770,
    "▁موقع": 2771,
    "▁فرم": 2772,
    "سخ": 2773,
    "▁دانشجو": 2774,
    "▁آذربایجان": 2775,
    "▁فایزر": 2776,
    "▁کامپیوتر": 2777,
    "▁ریاض": 2778,
    "▁سرنوشت": 2779,
    "▁کهکشان": 2780,
    "▁داغ": 2781,
    "▁غزنی": 2782,
    "▁آشکار": 2783,
    "▁احترام": 2784,
    "▁مهندس": 2785,
    "▁گروسی": 2786,
    "▁نبرد": 2787,
    "▁باشیم": 2788,
    "▁آسان": 2789,
    "▁ناکام": 2790,
    "▁ردیف": 2791,
    "▁۶۵": 2792,
    "▁۱۹۷": 2793,
    "▁گلزن": 2794,
    "▁مرا": 2795,
    "▁کادر": 2796,
    "افت": 2797,
    "▁پیگیری": 2798,
    "ویز": 2799,
    "▁تش": 2800,
    "▁محافظت": 2801,
    "۱۴": 2802,
    "▁گلو": 2803,
    "▁قد": 2804,
    "▁بیستم": 2805,
    "▁کاس": 2806,
    "▁۹۶": 2807,
    "▁برنت": 2808,
    "تاب": 2809,
    "رود": 2810,
    "▁کال": 2811,
    "▁بهایی": 2812,
    "▁دهنده": 2813,
    "▁صادقی": 2814,
    "کاری": 2815,
    "کرد": 2816,
    "بانک": 2817,
    "تیک": 2818,
    "▁درحالی": 2819,
    "▁اجباری": 2820,
    "▁درخش": 2821,
    "▁موافق": 2822,
    "خالت": 2823,
    "▁پژوهشگر": 2824,
    "▁بوی": 2825,
    "▁زنند": 2826,
    "▁درون": 2827,
    "غان": 2828,
    "▁جایگزین": 2829,
    "▁خاورمیانه": 2830,
    "▁مشروط": 2831,
    "▁هافبک": 2832,
    "▁برگزیت": 2833,
    "▁بلژیک": 2834,
    "▁پرتغال": 2835,
    "▁سقف": 2836,
    "▁مقدار": 2837,
    "▁دایک": 2838,
    "▁خمینی": 2839,
    "▁خوشحال": 2840,
    "▁عمدتا": 2841,
    "▁مسجد": 2842,
    "▁اورتون": 2843,
    "▁کریستیان": 2844,
    "▁شوک": 2845,
    "▁علن": 2846,
    "▁فقر": 2847,
    "▁پاییز": 2848,
    "▁جسم": 2849,
    "▁پیک": 2850,
    "▁شتاب": 2851,
    "▁اسکن": 2852,
    "▁هشتاد": 2853,
    "▁فراتر": 2854,
    "▁پوش": 2855,
    "▁شرط": 2856,
    "▁مخاطبان": 2857,
    "▁سوئد": 2858,
    "▁خلو": 2859,
    "▁ریخت": 2860,
    "▁خبرساز": 2861,
    "▁جواب": 2862,
    "▁حلق": 2863,
    "▁مساوی": 2864,
    "▁خواهم": 2865,
    "▁نداد": 2866,
    "▁میانه": 2867,
    "▁قص": 2868,
    "▁دهیم": 2869,
    "▁اتهامات": 2870,
    "▁مسافرت": 2871,
    "▁بودیم": 2872,
    "راب": 2873,
    "▁مای": 2874,
    "بون": 2875,
    "▁توجهی": 2876,
    "۱۹": 2877,
    "▁زدند": 2878,
    "بنابر": 2879,
    "وزیر": 2880,
    "▁قطعه": 2881,
    "▁سالن": 2882,
    "امروز": 2883,
    "▁بردند": 2884,
    "جد": 2885,
    "▁رغ": 2886,
    "شورای": 2887,
    "▁آکسفورد": 2888,
    "▁اقلام": 2889,
    "▁حافظ": 2890,
    "▁قاطع": 2891,
    "▁بگذارد": 2892,
    "▁لذت": 2893,
    "▁نساجی": 2894,
    "▁پهلوی": 2895,
    "▁خفاش": 2896,
    "▁تکمیل": 2897,
    "▁جنبش": 2898,
    "▁سلاح": 2899,
    "▁جستجو": 2900,
    "▁پرورش": 2901,
    "▁فتح": 2902,
    "▁فضانورد": 2903,
    "▁اماکن": 2904,
    "▁ابزار": 2905,
    "▁قبا": 2906,
    "پای": 2907,
    "▁قلم": 2908,
    "▁وسیع": 2909,
    "▁عراقچی": 2910,
    "▁شمس": 2911,
    "▁۳۸": 2912,
    "▁مدارس": 2913,
    "▁۴۴": 2914,
    "▁سرکوب": 2915,
    "▁رویدادهای": 2916,
    "▁مدنی": 2917,
    "اجع": 2918,
    "▁تج": 2919,
    "جل": 2920,
    "▁هنرها": 2921,
    "▁گفتگوها": 2922,
    "▁زیبای": 2923,
    "خته": 2924,
    "شته": 2925,
    "▁رنج": 2926,
    "▁بودم": 2927,
    "سیا": 2928,
    "▁برداری": 2929,
    "▁آرا": 2930,
    "سعید": 2931,
    "▁پستان": 2932,
    "یسم": 2933,
    "خره": 2934,
    "▁کارش": 2935,
    "▁ایست": 2936,
    "▁مقال": 2937,
    "▁امضای": 2938,
    "▁آموزشی": 2939,
    "▁وار": 2940,
    "بست": 2941,
    "▁وام": 2942,
    "▁تبلیغ": 2943,
    "▁تجهیزات": 2944,
    "▁غیرمستقیم": 2945,
    "▁مازندران": 2946,
    "▁مطمئن": 2947,
    "▁کاوشگر": 2948,
    "▁رستوران": 2949,
    "▁معیشت": 2950,
    "▁منافع": 2951,
    "▁افتتاح": 2952,
    "▁خطوط": 2953,
    "▁نابودی": 2954,
    "▁نصب": 2955,
    "▁عمق": 2956,
    "▁بخار": 2957,
    "▁تقس": 2958,
    "▁منچسترسیتی": 2959,
    "▁ربات": 2960,
    "▁کنفرانس": 2961,
    "▁فلز": 2962,
    "▁مصدومیت": 2963,
    "واسط": 2964,
    "عداد": 2965,
    "یره": 2966,
    "▁لوئی": 2967,
    "▁تدریج": 2968,
    "▁افسر": 2969,
    "▁کشم": 2970,
    "▁حیوانات": 2971,
    "▁بزند": 2972,
    "▁اپل": 2973,
    "▁کلاسیک": 2974,
    "▁نخ": 2975,
    "▁ناب": 2976,
    "▁خاوران": 2977,
    "▁فرماندار": 2978,
    "▁شیش": 2979,
    "▁خواه": 2980,
    "▁واژ": 2981,
    "▁اینتر": 2982,
    "دم": 2983,
    "▁پوشید": 2984,
    "▁سیر": 2985,
    "▁اذ": 2986,
    "▁ارتباطات": 2987,
    "▁گم": 2988,
    "▁طلایی": 2989,
    "بیل": 2990,
    "۵۰": 2991,
    "▁رحمانی": 2992,
    "▁آرامش": 2993,
    "▁دانستند": 2994,
    "رنو": 2995,
    "▁درحال": 2996,
    "▁خاطرات": 2997,
    "▁باند": 2998,
    "جان": 2999,
    "▁فرزندان": 3000,
    "نیم": 3001,
    "عبدال": 3002,
    "سخنگوی": 3003,
    "خلاف": 3004,
    "رسمی": 3005,
    "▁شیری": 3006,
    "الدین": 3007,
    "پرداز": 3008,
    "▁رحم": 3009,
    "▁ایستاد": 3010,
    "پرو": 3011,
    "فاصله": 3012,
    "▁سنا": 3013,
    "▁آنک": 3014,
    "▁بازنشست": 3015,
    "▁فیل": 3016,
    "راه": 3017,
    "▁حساس": 3018,
    "▁کلمبیا": 3019,
    "▁فرآیند": 3020,
    "▁لبخند": 3021,
    "▁مستمر": 3022,
    "▁هیئت": 3023,
    "▁ترجیح": 3024,
    "▁ایرلند": 3025,
    "▁قادر": 3026,
    "▁روزگار": 3027,
    "▁پلاستیک": 3028,
    "▁پادتن": 3029,
    "▁پرفروش": 3030,
    "▁جانشین": 3031,
    "▁شهید": 3032,
    "▁فاش": 3033,
    "▁بهشت": 3034,
    "▁تاثیرگذار": 3035,
    "▁عبدالله": 3036,
    "▁تائ": 3037,
    "▁آزمایشگاه": 3038,
    "▁ضرر": 3039,
    "▁افکار": 3040,
    "▁غلام": 3041,
    "▁ضرورت": 3042,
    "ناوند": 3043,
    "ناف": 3044,
    "▁ساک": 3045,
    "هزار": 3046,
    "▁طلبان": 3047,
    "وقت": 3048,
    "▁شخص": 3049,
    "▁خاتم": 3050,
    "گیر": 3051,
    "▁صادق": 3052,
    "▁تند": 3053,
    "قص": 3054,
    "▁زیرا": 3055,
    "▁ناصر": 3056,
    "▁نان": 3057,
    "▁فیلمساز": 3058,
    "▁کهن": 3059,
    "وریس": 3060,
    "▁اتفاقی": 3061,
    "▁۵۵": 3062,
    "دند": 3063,
    "▁شور": 3064,
    "▁مطبوعات": 3065,
    "▁پتروش": 3066,
    "▁تسلیحات": 3067,
    "▁آفتاب": 3068,
    "▁حکایت": 3069,
    "▁اعزام": 3070,
    "▁قایق": 3071,
    "▁فلوید": 3072,
    "▁بامیان": 3073,
    "▁هیجان": 3074,
    "▁بخصوص": 3075,
    "▁بدهند": 3076,
    "▁مطالب": 3077,
    "▁انبار": 3078,
    "▁جانسون": 3079,
    "▁۵۷": 3080,
    "▁محور": 3081,
    "▁۰": 3082,
    "▁ویران": 3083,
    "▁کرمان": 3084,
    "▁۲۵۰": 3085,
    "فع": 3086,
    "▁بیمه": 3087,
    "▁اختلافات": 3088,
    "لور": 3089,
    "فرین": 3090,
    "▁اوبر": 3091,
    "▁امان": 3092,
    "▁عام": 3093,
    "▁پار": 3094,
    "فون": 3095,
    "▁کمال": 3096,
    "▁نیمی": 3097,
    "آی": 3098,
    "بسیاری": 3099,
    "واقع": 3100,
    "▁تاپ": 3101,
    "▁امین": 3102,
    "▁تاک": 3103,
    "زده": 3104,
    "▁داری": 3105,
    "نیا": 3106,
    "▁سالم": 3107,
    "▁مطل": 3108,
    "▁حو": 3109,
    "▁محاسب": 3110,
    "ناد": 3111,
    "قاضی": 3112,
    "۳۰": 3113,
    "▁آنفلوآنزا": 3114,
    "▁ایرباس": 3115,
    "▁خداحافظ": 3116,
    "▁قاجار": 3117,
    "▁معاصر": 3118,
    "▁بغداد": 3119,
    "▁گوناگون": 3120,
    "▁تمایل": 3121,
    "▁خراسان": 3122,
    "▁فقیر": 3123,
    "▁توماس": 3124,
    "▁ابهام": 3125,
    "شده": 3126,
    "▁خشم": 3127,
    "▁کانری": 3128,
    "▁قدرتمند": 3129,
    "▁تاکسی": 3130,
    "▁سانتی": 3131,
    "▁طبری": 3132,
    "▁آدم": 3133,
    "▁عروسک": 3134,
    "▁متاسف": 3135,
    "▁تاریک": 3136,
    "▁۳۷": 3137,
    "ادورو": 3138,
    "▁تنگ": 3139,
    "▁افکن": 3140,
    "وطن": 3141,
    "▁۱۹۴": 3142,
    "▁آتی": 3143,
    "▁سوئیسی": 3144,
    "▁سری": 3145,
    "طئ": 3146,
    "بع": 3147,
    "▁اردو": 3148,
    "▁همیلتون": 3149,
    "▁منشا": 3150,
    "پنج": 3151,
    "▁صند": 3152,
    "▁گیل": 3153,
    "▁ماهوار": 3154,
    "▁ظاهرا": 3155,
    "▁خودم": 3156,
    "▁شهرها": 3157,
    "▁شنیده": 3158,
    "▁مهمان": 3159,
    "▁مسال": 3160,
    "اوش": 3161,
    "عکس": 3162,
    "▁عبوری": 3163,
    "نیک": 3164,
    "شاهی": 3165,
    "▁۳۶": 3166,
    "مدیر": 3167,
    "پیشتر": 3168,
    "▁یاری": 3169,
    "امسال": 3170,
    "▁یور": 3171,
    "▁اح": 3172,
    "▁رفتند": 3173,
    "یحی": 3174,
    "▁ویدئو": 3175,
    "▁برایش": 3176,
    "▁شایع": 3177,
    "▁ابتلای": 3178,
    "▁فکری": 3179,
    "▁الکترونیک": 3180,
    "▁تگزاس": 3181,
    "▁دقایق": 3182,
    "▁سانتریفیوژ": 3183,
    "▁موبایل": 3184,
    "▁۲۰۲۲": 3185,
    "▁جاسوس": 3186,
    "▁پیامدهای": 3187,
    "▁جلال": 3188,
    "▁استادیوم": 3189,
    "▁سرقت": 3190,
    "▁بیاید": 3191,
    "▁لمس": 3192,
    "▁کشد": 3193,
    "▁شوماخر": 3194,
    "▁تایسون": 3195,
    "خیص": 3196,
    "▁بورل": 3197,
    "▁صمت": 3198,
    "▁سرزمین": 3199,
    "▁مسکونی": 3200,
    "▁شکاف": 3201,
    "▁ارشاد": 3202,
    "▁۱۳۸": 3203,
    "▁منتقد": 3204,
    "▁منصور": 3205,
    "▁مقا": 3206,
    "هکرها": 3207,
    "▁پرد": 3208,
    "▁عادل": 3209,
    "▁لحظات": 3210,
    "▁درخت": 3211,
    "▁احت": 3212,
    "▁نداشتند": 3213,
    "▁نزد": 3214,
    "▁رسیدند": 3215,
    "▁اسلام": 3216,
    "▁رویای": 3217,
    "▁جیب": 3218,
    "▁نگرفته": 3219,
    "▁مض": 3220,
    "▁قیمتها": 3221,
    "▁فاز": 3222,
    "وریا": 3223,
    "▁کاسته": 3224,
    "▁سول": 3225,
    "▁نوا": 3226,
    "▁گذاشتن": 3227,
    "▁تای": 3228,
    "اولین": 3229,
    "▁دانشمند": 3230,
    "گه": 3231,
    "▁مال": 3232,
    "سم": 3233,
    "لینگ": 3234,
    "▁خطا": 3235,
    "جن": 3236,
    "▁اصطلاح": 3237,
    "▁علامت": 3238,
    "▁ناراحت": 3239,
    "▁ولسوال": 3240,
    "▁الحاق": 3241,
    "▁خلاص": 3242,
    "▁مقاومت": 3243,
    "▁همجنس": 3244,
    "▁اشتغال": 3245,
    "▁وبسایت": 3246,
    "▁وسایل": 3247,
    "▁برانگیز": 3248,
    "▁پانصد": 3249,
    "▁دقت": 3250,
    "▁موانع": 3251,
    "▁باشید": 3252,
    "▁بنیانگذار": 3253,
    "▁بلیت": 3254,
    "▁شکنج": 3255,
    "▁اولسان": 3256,
    "▁معیار": 3257,
    "▁سایپا": 3258,
    "▁دانشجویان": 3259,
    "▁۱۹۸۶": 3260,
    "▁یادداشت": 3261,
    "▁سهامداران": 3262,
    "▁خیابانی": 3263,
    "▁یوفا": 3264,
    "▁ربط": 3265,
    "▁برلین": 3266,
    "▁۲۰۱۰": 3267,
    "▁راستا": 3268,
    "▁کادی": 3269,
    "ویچ": 3270,
    "▁خواندن": 3271,
    "▁خودروها": 3272,
    "▁کریست": 3273,
    "▁حامی": 3274,
    "فرانس": 3275,
    "▁۴۳": 3276,
    "▁۵۶": 3277,
    "▁نمایشگر": 3278,
    "▁حمید": 3279,
    "▁مگا": 3280,
    "▁۱۳۶": 3281,
    "▁خال": 3282,
    "▁شوم": 3283,
    "فضل": 3284,
    "▁اموا": 3285,
    "▁کانت": 3286,
    "▁منته": 3287,
    "یژن": 3288,
    "▁هنگ": 3289,
    "▁خدا": 3290,
    "ائو": 3291,
    "▁ساختار": 3292,
    "راضی": 3293,
    "واک": 3294,
    "▁گردن": 3295,
    "▁رم": 3296,
    "▁مزار": 3297,
    "▁ریه": 3298,
    "▁ژن": 3299,
    "بول": 3300,
    "آوری": 3301,
    "▁۹۵": 3302,
    "▁برند": 3303,
    "▁افشا": 3304,
    "▁نرسیده": 3305,
    "▁دونده": 3306,
    "جونز": 3307,
    "پلیس": 3308,
    "▁سیار": 3309,
    "۲۰۱۲": 3310,
    "▁روستا": 3311,
    "آنها": 3312,
    "▁نقد": 3313,
    "▁والی": 3314,
    "▁سیام": 3315,
    "▁وایلد": 3316,
    "▁معترض": 3317,
    "▁گروگان": 3318,
    "آفرین": 3319,
    "دوف": 3320,
    "▁دراز": 3321,
    "▁سران": 3322,
    "▁۱۳۹": 3323,
    "▁استراماچونی": 3324,
    "▁عزاداری": 3325,
    "▁پرافتخار": 3326,
    "▁پروتئین": 3327,
    "▁ارتفاع": 3328,
    "▁طوفان": 3329,
    "▁ببینید": 3330,
    "▁سئوال": 3331,
    "▁پذیرفته": 3332,
    "▁ناحیه": 3333,
    "▁بعید": 3334,
    "▁انگار": 3335,
    "▁برساند": 3336,
    "التهاب": 3337,
    "▁فردوسی": 3338,
    "▁وستهم": 3339,
    "▁فریاد": 3340,
    "▁جالب": 3341,
    "▁اطل": 3342,
    "▁طنز": 3343,
    "واد": 3344,
    "▁دردسر": 3345,
    "▁یونان": 3346,
    "▁فیلیپ": 3347,
    "▁نیروگاه": 3348,
    "▁پیوند": 3349,
    "▁سبز": 3350,
    "▁سید": 3351,
    "▁مرم": 3352,
    "▁۶۷": 3353,
    "▁قوا": 3354,
    "▁دف": 3355,
    "غال": 3356,
    "▁نیوک": 3357,
    "▁حضورش": 3358,
    "▁اشک": 3359,
    "▁معمار": 3360,
    "▁گوشی": 3361,
    "▁دیگو": 3362,
    "▁اگر": 3363,
    "▁جلسات": 3364,
    "رگن": 3365,
    "▁نقدی": 3366,
    "▁فرید": 3367,
    "بهار": 3368,
    "▁ایرانیان": 3369,
    "▁مبادل": 3370,
    "▁خریدار": 3371,
    "▁دوام": 3372,
    "▁موضوعات": 3373,
    "▁یازدهم": 3374,
    "رویی": 3375,
    "▁سرو": 3376,
    "برخ": 3377,
    "گذشت": 3378,
    "▁قبر": 3379,
    "زار": 3380,
    "افزایش": 3381,
    "ظن": 3382,
    "میم": 3383,
    "▁داوطلب": 3384,
    "▁آقا": 3385,
    "▁باران": 3386,
    "۳۱": 3387,
    "▁باتر": 3388,
    "▁کشی": 3389,
    "▁آمارها": 3390,
    "▁ویلیام": 3391,
    "▁زلزله": 3392,
    "▁نتانیاهو": 3393,
    "▁انفرادی": 3394,
    "▁مفهوم": 3395,
    "▁تظاهرات": 3396,
    "▁ثمر": 3397,
    "▁تبعات": 3398,
    "▁نکنید": 3399,
    "▁تفریح": 3400,
    "▁تروریستی": 3401,
    "▁تعدیل": 3402,
    "▁بکشد": 3403,
    "▁فرگوسن": 3404,
    "▁سحر": 3405,
    "▁بیلسا": 3406,
    "▁اشرف": 3407,
    "▁منزل": 3408,
    "▁اظهارنظر": 3409,
    "▁عفونت": 3410,
    "▁تلفیق": 3411,
    "▁مکرون": 3412,
    "▁معافیت": 3413,
    "▁ولز": 3414,
    "▁رقص": 3415,
    "▁زرد": 3416,
    "نادیده": 3417,
    "▁آهنگساز": 3418,
    "▁مصاد": 3419,
    "▁۷۷": 3420,
    "▁۱۳۴": 3421,
    "▁آنقدر": 3422,
    "اطم": 3423,
    "▁۴۹": 3424,
    "▁نمایشگاه": 3425,
    "▁افشار": 3426,
    "▁سرنشینان": 3427,
    "▁بهرام": 3428,
    "▁مدارک": 3429,
    "▁عمان": 3430,
    "▁کنگ": 3431,
    "▁غار": 3432,
    "▁مطالعات": 3433,
    "▁عادت": 3434,
    "▁محمدجواد": 3435,
    "▁خست": 3436,
    "▁برندگان": 3437,
    "▁تبلیغاتی": 3438,
    "بانی": 3439,
    "▁همای": 3440,
    "▁طیف": 3441,
    "▁شورو": 3442,
    "اول": 3443,
    "▁نس": 3444,
    "▁بازرسان": 3445,
    "راحل": 3446,
    "▁جرم": 3447,
    "▁وق": 3448,
    "▁پرسی": 3449,
    "ارغ": 3450,
    "▁کوش": 3451,
    "▁محدودیتهای": 3452,
    "▁اکس": 3453,
    "▁۷۳": 3454,
    "▁استعداد": 3455,
    "▁خبرهای": 3456,
    "▁۴۶": 3457,
    "▁خوردن": 3458,
    "رشو": 3459,
    "▁درهای": 3460,
    "▁۱۲۰": 3461,
    "▁زیبا": 3462,
    "رگ": 3463,
    "▁۱۹۳": 3464,
    "▁تبلیغات": 3465,
    "▁خواستند": 3466,
    "الت": 3467,
    "نال": 3468,
    "▁عط": 3469,
    "▁عروس": 3470,
    "▁شرم": 3471,
    "▁مخفی": 3472,
    "▁مطهری": 3473,
    "▁مرخص": 3474,
    "▁مشورت": 3475,
    "▁ناآرام": 3476,
    "▁پیراهن": 3477,
    "فیلد": 3478,
    "▁ستایش": 3479,
    "▁مسلمان": 3480,
    "▁منحصر": 3481,
    "▁تخیل": 3482,
    "▁تعامل": 3483,
    "▁زنگنه": 3484,
    "▁مترجم": 3485,
    "▁لیدز": 3486,
    "▁تحرک": 3487,
    "▁پرستار": 3488,
    "▁مفید": 3489,
    "▁دانمارک": 3490,
    "▁ایلنا": 3491,
    "▁کارگزار": 3492,
    "عوض": 3493,
    "▁یمانی": 3494,
    "▁خالق": 3495,
    "▁توانم": 3496,
    "▁رمزارزها": 3497,
    "▁اصول": 3498,
    "▁زیان": 3499,
    "رالله": 3500,
    "▁پلاک": 3501,
    "▁متشک": 3502,
    "▁اصلاحات": 3503,
    "▁پیمان": 3504,
    "▁زک": 3505,
    "▁درس": 3506,
    "▁تایم": 3507,
    "ممکن": 3508,
    "▁امکانات": 3509,
    "▁پالا": 3510,
    "▁جف": 3511,
    "▁فراگیر": 3512,
    "▁قدس": 3513,
    "▁کان": 3514,
    "▁ایام": 3515,
    "▁آرزو": 3516,
    "▁پیوستن": 3517,
    "نشین": 3518,
    "▁قربانی": 3519,
    "هالی": 3520,
    "▁خودران": 3521,
    "▁راهبر": 3522,
    "▁جین": 3523,
    "▁اندیش": 3524,
    "▁۹۱": 3525,
    "گذار": 3526,
    "▁خوانندگ": 3527,
    "▁بدر": 3528,
    "▁کشیدن": 3529,
    "پذیر": 3530,
    "عباس": 3531,
    "دانشمندان": 3532,
    "محمود": 3533,
    "▁مهاجر": 3534,
    "▁مرس": 3535,
    "▁پیست": 3536,
    "▁دارم": 3537,
    "▁۱۵۰۰": 3538,
    "جری": 3539,
    "▁آیند": 3540,
    "▁محقق": 3541,
    "▁شعار": 3542,
    "▁حیوان": 3543,
    "▁پناه": 3544,
    "خصیص": 3545,
    "▁اخطار": 3546,
    "▁امپراتور": 3547,
    "▁دموکرات": 3548,
    "▁شطرنج": 3549,
    "▁محوطه": 3550,
    "▁مدیترانه": 3551,
    "▁ویلموتس": 3552,
    "▁برانگیخت": 3553,
    "▁هیأت": 3554,
    "▁نروژ": 3555,
    "▁همیشگی": 3556,
    "▁محتوای": 3557,
    "▁کودتا": 3558,
    "▁کارفرما": 3559,
    "▁نکنند": 3560,
    "▁دادگستری": 3561,
    "▁خوک": 3562,
    "▁معلول": 3563,
    "▁قم": 3564,
    "▁کریکت": 3565,
    "▁تروریسم": 3566,
    "▁ناامن": 3567,
    "▁تاکتیک": 3568,
    "▁سرگرم": 3569,
    "ظیف": 3570,
    "▁وسط": 3571,
    "▁دادسرا": 3572,
    "▁شارژ": 3573,
    "▁مسکو": 3574,
    "بورن": 3575,
    "▁قرص": 3576,
    "▁تلخ": 3577,
    "▁شاهکار": 3578,
    "▁شیراز": 3579,
    "▁تکان": 3580,
    "▁نقص": 3581,
    "▁خرج": 3582,
    "سلیم": 3583,
    "▁جنبه": 3584,
    "▁صبر": 3585,
    "▁کیلو": 3586,
    "▁شاخ": 3587,
    "▁راند": 3588,
    "▁گوگل": 3589,
    "▁۵۹": 3590,
    "جاست": 3591,
    "▁محسن": 3592,
    "▁ویکتور": 3593,
    "▁سوالات": 3594,
    "▁مغ": 3595,
    "▁آیین": 3596,
    "▁اسد": 3597,
    "خان": 3598,
    "مجانی": 3599,
    "▁دانم": 3600,
    "▁پراکند": 3601,
    "▁پیکر": 3602,
    "قریب": 3603,
    "▁جهانگیری": 3604,
    "▁پرسش": 3605,
    "▁گویی": 3606,
    "▁افتد": 3607,
    "مرث": 3608,
    "▁بوش": 3609,
    "▁موش": 3610,
    "احمد": 3611,
    "آمیز": 3612,
    "افغانستان": 3613,
    "صورت": 3614,
    "بزرگ": 3615,
    "خارج": 3616,
    "ظهر": 3617,
    "میر": 3618,
    "▁پروان": 3619,
    "▁ساختن": 3620,
    "▁وسی": 3621,
    "▁اقلی": 3622,
    "▁نیافت": 3623,
    "▁نامدار": 3624,
    "▁باستانی": 3625,
    "▁ژنتیک": 3626,
    "مجموعه": 3627,
    "▁آگ": 3628,
    "▁پارسی": 3629,
    "▁مخصوص": 3630,
    "▁بستن": 3631,
    "▁تخلف": 3632,
    "▁حاکم": 3633,
    "لتیک": 3634,
    "▁ثروت": 3635,
    "▁امتحان": 3636,
    "▁شمخانی": 3637,
    "▁هیوندای": 3638,
    "▁کانسپت": 3639,
    "▁کمربند": 3640,
    "▁اصرار": 3641,
    "▁خوراک": 3642,
    "▁شجاع": 3643,
    "▁تحمیل": 3644,
    "▁دروغ": 3645,
    "▁عرف": 3646,
    "▁ابوال": 3647,
    "▁منوچ": 3648,
    "▁کارلوس": 3649,
    "▁استثنا": 3650,
    "▁سرویس": 3651,
    "▁کنگره": 3652,
    "اسل": 3653,
    "▁سلمان": 3654,
    "▁حیدر": 3655,
    "▁استراتژیک": 3656,
    "▁تعهد": 3657,
    "▁زوج": 3658,
    "▁۱۳۷": 3659,
    "▁قض": 3660,
    "لاق": 3661,
    "▁ویلیامز": 3662,
    "▁عطرساز": 3663,
    "▁استخر": 3664,
    "▁ناجی": 3665,
    "▁گردشگران": 3666,
    "باران": 3667,
    "▁طب": 3668,
    "▁هاوس": 3669,
    "▁الکس": 3670,
    "شاه": 3671,
    "▁منظر": 3672,
    "▁بدل": 3673,
    "▁صرفا": 3674,
    "▁منار": 3675,
    "▁دستیابی": 3676,
    "ابق": 3677,
    "▁جدایی": 3678,
    "▁رساندن": 3679,
    "▁سیف": 3680,
    "▁اما": 3681,
    "▁تمرکز": 3682,
    "ناک": 3683,
    "▁برگرداند": 3684,
    "▁آوردند": 3685,
    "▁آوردن": 3686,
    "▁قدمت": 3687,
    "▁شار": 3688,
    "▁۶۲": 3689,
    "اقد": 3690,
    "▁صادرکنند": 3691,
    "▁بروند": 3692,
    "جیره": 3693,
    "ختم": 3694,
    "▁شیرین": 3695,
    "▁میلیاردها": 3696,
    "وستا": 3697,
    "ساب": 3698,
    "اشا": 3699,
    "▁پرسید": 3700,
    "▁پرهی": 3701,
    "▁یازده": 3702,
    "▁چار": 3703,
    "▁۵۲": 3704,
    "▁داشتم": 3705,
    "شاخص": 3706,
    "فیلم": 3707,
    "▁ترور": 3708,
    "نوایی": 3709,
    "▁۸۰۰": 3710,
    "هنورد": 3711,
    "▁ناو": 3712,
    "▁نورد": 3713,
    "▁ظه": 3714,
    "▁مستق": 3715,
    "▁دم": 3716,
    "▁پاد": 3717,
    "▁دایناسور": 3718,
    "▁مأمور": 3719,
    "▁مخابرات": 3720,
    "▁پارالمپیک": 3721,
    "▁کاظم": 3722,
    "▁غریب": 3723,
    "▁سراغ": 3724,
    "▁پردازد": 3725,
    "▁کشاند": 3726,
    "▁مقیم": 3727,
    "▁اکسیژن": 3728,
    "▁دهقان": 3729,
    "▁بدانیم": 3730,
    "تابعیت": 3731,
    "▁رابرت": 3732,
    "▁سناتور": 3733,
    "▁نسب": 3734,
    "▁نکند": 3735,
    "▁فسیل": 3736,
    "▁ایراد": 3737,
    "▁پوشاند": 3738,
    "▁متقاضی": 3739,
    "▁بازماند": 3740,
    "▁لرز": 3741,
    "▁نوزاد": 3742,
    "▁کیفر": 3743,
    "▁پرندگان": 3744,
    "▁اهداف": 3745,
    "▁جمال": 3746,
    "▁محاسبات": 3747,
    "▁ببرد": 3748,
    "▁۷۴": 3749,
    "▁علاقمندان": 3750,
    "تمرکز": 3751,
    "▁گرایان": 3752,
    "▁نکردن": 3753,
    "▁ستارگان": 3754,
    "فتن": 3755,
    "▁روسا": 3756,
    "▁آورند": 3757,
    "▁نوآور": 3758,
    "وتو": 3759,
    "▁گریز": 3760,
    "▁بجا": 3761,
    "بریج": 3762,
    "بالغ": 3763,
    "▁بومی": 3764,
    "▁زور": 3765,
    "تخا": 3766,
    "▁استرالیایی": 3767,
    "سیتی": 3768,
    "▁ضعیف": 3769,
    "۶۰": 3770,
    "▁هستم": 3771,
    "دور": 3772,
    "▁جدال": 3773,
    "ادا": 3774,
    "▁آزمای": 3775,
    "جایی": 3776,
    "▁ژو": 3777,
    "رام": 3778,
    "▁کاست": 3779,
    "▁یکصد": 3780,
    "▁اسلم": 3781,
    "▁لاش": 3782,
    "▁جعل": 3783,
    "▁عموم": 3784,
    "▁نیو": 3785,
    "۲۵": 3786,
    "▁پیشگیر": 3787,
    "قرض": 3788,
    "ضعیف": 3789,
    "خاطر": 3790,
    "معاون": 3791,
    "استقلال": 3792,
    "آخر": 3793,
    "▁گار": 3794,
    "▁گانه": 3795,
    "▁کاربر": 3796,
    "▁گیاه": 3797,
    "▁مشتری": 3798,
    "▁ببر": 3799,
    "▁ثروتمند": 3800,
    "بویایی": 3801,
    "▁بینند": 3802,
    "▁ادا": 3803,
    "▁تار": 3804,
    "▁سب": 3805,
    "ژانس": 3806,
    "▁اخلال": 3807,
    "▁استراحت": 3808,
    "▁اپلیکیشن": 3809,
    "▁تخصص": 3810,
    "▁خانوادگی": 3811,
    "▁دبلیو": 3812,
    "▁رتکلیف": 3813,
    "▁فلوریدا": 3814,
    "▁رضوی": 3815,
    "▁لزوم": 3816,
    "▁مالاریا": 3817,
    "▁ابعاد": 3818,
    "▁شاگردان": 3819,
    "▁بازگردد": 3820,
    "▁صنف": 3821,
    "▁آشفت": 3822,
    "▁نمکی": 3823,
    "▁بوندس": 3824,
    "▁اسرار": 3825,
    "▁راموس": 3826,
    "▁آموزان": 3827,
    "▁کمپین": 3828,
    "▁مقطع": 3829,
    "▁فتاح": 3830,
    "▁سالمندان": 3831,
    "صوفی": 3832,
    "▁ونیز": 3833,
    "▁نمود": 3834,
    "▁رزم": 3835,
    "▁خرابکار": 3836,
    "عظم": 3837,
    "لحق": 3838,
    "▁خاموش": 3839,
    "▁رسول": 3840,
    "▁هامر": 3841,
    "▁خانوارهای": 3842,
    "▁مرگبار": 3843,
    "وارد": 3844,
    "▁غالب": 3845,
    "▁ترکمن": 3846,
    "▁ترسیم": 3847,
    "▁سلف": 3848,
    "▁ویدئویی": 3849,
    "▁خرند": 3850,
    "▁تحلیلگر": 3851,
    "آلود": 3852,
    "▁وجه": 3853,
    "▁احساسات": 3854,
    "▁امن": 3855,
    "وایی": 3856,
    "▁لیور": 3857,
    "▁اریک": 3858,
    "▁وزارتخانه": 3859,
    "▁دیپلمات": 3860,
    "مهدی": 3861,
    "▁اوست": 3862,
    "▁وست": 3863,
    "▁دپ": 3864,
    "▁نق": 3865,
    "تلاف": 3866,
    "▁ازای": 3867,
    "▁ارگ": 3868,
    "▁۹۰۰": 3869,
    "بدا": 3870,
    "موند": 3871,
    "یزه": 3872,
    "▁نرسید": 3873,
    "▁همگ": 3874,
    "▁عقید": 3875,
    "▁حریفان": 3876,
    "▁طرز": 3877,
    "کوئ": 3878,
    "▁شاعران": 3879,
    "آباد": 3880,
    "▁بوک": 3881,
    "طبق": 3882,
    "استفاده": 3883,
    "کدام": 3884,
    "عنوان": 3885,
    "▁وگوها": 3886,
    "بازار": 3887,
    "▁مامور": 3888,
    "▁کول": 3889,
    "▁سرباز": 3890,
    "سئول": 3891,
    "▁ماس": 3892,
    "غذی": 3893,
    "▁ارمنستان": 3894,
    "▁استخدام": 3895,
    "▁اعتراف": 3896,
    "▁بروکسل": 3897,
    "▁تأثیر": 3898,
    "▁حرکات": 3899,
    "▁غربالگری": 3900,
    "▁فرونشست": 3901,
    "▁فلسفه": 3902,
    "▁منتخب": 3903,
    "▁نیوزیلند": 3904,
    "▁تلگرام": 3905,
    "▁موظف": 3906,
    "▁تفاهم": 3907,
    "▁شلوغ": 3908,
    "▁همسایه": 3909,
    "▁کنسول": 3910,
    "▁ذکر": 3911,
    "▁خادم": 3912,
    "▁بامداد": 3913,
    "▁رولز": 3914,
    "▁جاستین": 3915,
    "▁ثامن": 3916,
    "▁لهستان": 3917,
    "▁منتف": 3918,
    "▁پیاده": 3919,
    "▁تماشاچی": 3920,
    "▁قطار": 3921,
    "▁غرق": 3922,
    "▁بقا": 3923,
    "▁دزد": 3924,
    "▁خلاقیت": 3925,
    "▁لنون": 3926,
    "▁انگل": 3927,
    "▁پیمانکار": 3928,
    "▁اعطا": 3929,
    "▁یوگا": 3930,
    "▁رخداد": 3931,
    "▁قراردادش": 3932,
    "▁متعهد": 3933,
    "▁امشب": 3934,
    "سپاری": 3935,
    "▁اعضا": 3936,
    "▁بزنند": 3937,
    "▁ژوز": 3938,
    "▁فرض": 3939,
    "▁نادرست": 3940,
    "▁رصد": 3941,
    "▁چراغ": 3942,
    "▁فیلتر": 3943,
    "▁سیاستمداران": 3944,
    "▁خشکسالی": 3945,
    "بعد": 3946,
    "▁رانندگی": 3947,
    "▁نیا": 3948,
    "▁اندازد": 3949,
    "پینگ": 3950,
    "▁گیاهان": 3951,
    "▁۱۹۵": 3952,
    "▁توضیحات": 3953,
    "▁خند": 3954,
    "لپ": 3955,
    "اژ": 3956,
    "▁دال": 3957,
    "▁نوید": 3958,
    "▁پرند": 3959,
    "▁نامزدها": 3960,
    "▁مغاز": 3961,
    "▁شکار": 3962,
    "▁سازد": 3963,
    "▁لن": 3964,
    "▁آمدند": 3965,
    "▁شهردار": 3966,
    "▁گارد": 3967,
    "▁چیزهای": 3968,
    "▁ریو": 3969,
    "▁مرغدار": 3970,
    "▁شدیدتر": 3971,
    "دلال": 3972,
    "▁ملا": 3973,
    "مص": 3974,
    "▁کرو": 3975,
    "صرف": 3976,
    "▁۵۳": 3977,
    "سابقه": 3978,
    "مراسم": 3979,
    "مسئولان": 3980,
    "▁مکزیک": 3981,
    "▁سیزدهم": 3982,
    "▁غم": 3983,
    "▁متخلف": 3984,
    "▁خسارات": 3985,
    "▁عنکبوت": 3986,
    "▁لاریجان": 3987,
    "▁لالیگا": 3988,
    "▁ناپدید": 3989,
    "▁تعقیب": 3990,
    "▁تضمین": 3991,
    "▁تکلیف": 3992,
    "▁جاشوا": 3993,
    "▁یهودی": 3994,
    "▁بگویم": 3995,
    "▁خیانت": 3996,
    "▁نوزدهم": 3997,
    "▁عضلا": 3998,
    "▁کنزو": 3999,
    "▁نظم": 4000,
    "▁جزییات": 4001,
    "▁بیفتد": 4002,
    "▁نجف": 4003,
    "▁انبوه": 4004,
    "▁تالار": 4005,
    "▁فجر": 4006,
    "انصراف": 4007,
    "▁بیروت": 4008,
    "چهار": 4009,
    "▁استودیو": 4010,
    "▁همتای": 4011,
    "▁سایبری": 4012,
    "▁اسپرت": 4013,
    "▁کووید۱۹": 4014,
    "▁تعمیر": 4015,
    "▁مهرماه": 4016,
    "▁معلم": 4017,
    "▁الحسن": 4018,
    "▁اکسید": 4019,
    "▁ارزشمند": 4020,
    "▁جهاد": 4021,
    "تراشه": 4022,
    "▁فرانک": 4023,
    "▁مرتب": 4024,
    "▁متناسب": 4025,
    "▁بزوس": 4026,
    "▁تندرو": 4027,
    "▁شیمی": 4028,
    "▁انصاریان": 4029,
    "▁مصون": 4030,
    "▁مداوم": 4031,
    "▁شهریار": 4032,
    "▁طرفدار": 4033,
    "▁مبادلات": 4034,
    "▁پناهندگ": 4035,
    "▁تقابل": 4036,
    "▁ماریا": 4037,
    "▁بزن": 4038,
    "▁۲۰۰۴": 4039,
    "▁لوکا": 4040,
    "▁صلاح": 4041,
    "▁۶۸": 4042,
    "▁آرامکو": 4043,
    "▁معنا": 4044,
    "لندر": 4045,
    "▁هواپیماهای": 4046,
    "سلط": 4047,
    "▁خواهر": 4048,
    "▁پایدار": 4049,
    "نواک": 4050,
    "▁شناسان": 4051,
    "▁جبه": 4052,
    "▁بایست": 4053,
    "▁۶۱": 4054,
    "▁پوری": 4055,
    "▁پیرو": 4056,
    "▁اشکال": 4057,
    "▁موکو": 4058,
    "▁دوحه": 4059,
    "ملو": 4060,
    "▁جانور": 4061,
    "▁جولی": 4062,
    "▁نوار": 4063,
    "▁ماهیگیر": 4064,
    "▁ظهر": 4065,
    "▁گرفتار": 4066,
    "▁عمد": 4067,
    "▁کاوا": 4068,
    "▁صحن": 4069,
    "▁درانی": 4070,
    "▁بازو": 4071,
    "▁پارس": 4072,
    "▁گرگ": 4073,
    "▁کوچکتر": 4074,
    "▁ژنو": 4075,
    "▁گال": 4076,
    "وجود": 4077,
    "قدس": 4078,
    "پژوهشگران": 4079,
    "اتحاد": 4080,
    "▁تلف": 4081,
    "▁مادران": 4082,
    "مشخص": 4083,
    "جانب": 4084,
    "دادگاه": 4085,
    "▁تسلی": 4086,
    "حالا": 4087,
    "▁۷۶": 4088,
    "▁اختلا": 4089,
    "▁فرج": 4090,
    "▁برگ": 4091,
    "▁مقدم": 4092,
    "پارد": 4093,
    "▁بلوچ": 4094,
    "▁آغداشلو": 4095,
    "▁استرازنکا": 4096,
    "▁اعتقاد": 4097,
    "▁اکتشاف": 4098,
    "▁تدابیر": 4099,
    "▁سامسونگ": 4100,
    "▁فروپاشی": 4101,
    "▁گابریل": 4102,
    "▁درآورد": 4103,
    "▁وقایع": 4104,
    "▁دعوا": 4105,
    "▁کریسمس": 4106,
    "▁بفروشد": 4107,
    "▁ضایع": 4108,
    "▁ترافیک": 4109,
    "▁سرتیپ": 4110,
    "▁کیانوش": 4111,
    "▁انگشت": 4112,
    "▁مشکات": 4113,
    "▁اصولگرا": 4114,
    "▁مسایل": 4115,
    "▁ببینند": 4116,
    "▁نشیب": 4117,
    "▁تقدی": 4118,
    "▁صحیح": 4119,
    "▁سادات": 4120,
    "▁سیگار": 4121,
    "▁تدوین": 4122,
    "▁برگردد": 4123,
    "▁فدرال": 4124,
    "▁اندرکار": 4125,
    "▁منچستریونایتد": 4126,
    "▁انقراض": 4127,
    "▁فیلمبردار": 4128,
    "▁مکرر": 4129,
    "▁ببیند": 4130,
    "▁مسافت": 4131,
    "▁زغال": 4132,
    "▁همسان": 4133,
    "▁بختیار": 4134,
    "▁دشت": 4135,
    "▁پیشگام": 4136,
    "▁دماوند": 4137,
    "▁تیرماه": 4138,
    "نقل": 4139,
    "▁الزام": 4140,
    "▁کابین": 4141,
    "▁بوشهر": 4142,
    "▁غیاب": 4143,
    "ولوژی": 4144,
    "▁زنجان": 4145,
    "▁کولبر": 4146,
    "▁موازی": 4147,
    "▁روبرت": 4148,
    "▁همرسان": 4149,
    "▁دستاوردهای": 4150,
    "▁چوب": 4151,
    "▁تخلفات": 4152,
    "▁مبنای": 4153,
    "▁دستیار": 4154,
    "رشاد": 4155,
    "▁محبوبیت": 4156,
    "▁کاربرد": 4157,
    "▁الکل": 4158,
    "▁همینطور": 4159,
    "▁رضایت": 4160,
    "▁۴۱": 4161,
    "▁جنایت": 4162,
    "▁شوید": 4163,
    "▁ثروتمندتر": 4164,
    "▁خاور": 4165,
    "▁کلود": 4166,
    "▁وجو": 4167,
    "▁رادیویی": 4168,
    "کوبی": 4169,
    "▁سگ": 4170,
    "▁مهاجران": 4171,
    "▁گروگانگیر": 4172,
    "▁شانزدهم": 4173,
    "▁درختان": 4174,
    "▁وحید": 4175,
    "▁صفحات": 4176,
    "نوردی": 4177,
    "گرفته": 4178,
    "▁۸۲": 4179,
    "▁نکردند": 4180,
    "▁انیس": 4181,
    "▁تام": 4182,
    "رسون": 4183,
    "▁شون": 4184,
    "▁جنای": 4185,
    "مارک": 4186,
    "قبل": 4187,
    "▁عمو": 4188,
    "▁سختگیر": 4189,
    "▁باستان": 4190,
    "▁دهک": 4191,
    "▁زم": 4192,
    "▁قوس": 4193,
    "کام": 4194,
    "▁داشتیم": 4195,
    "▁ریل": 4196,
    "ایشگاه": 4197,
    "▁گلف": 4198,
    "آر": 4199,
    "▁شنیدن": 4200,
    "فروش": 4201,
    "▁کنیا": 4202,
    "▁سامان": 4203,
    "▁هروی": 4204,
    "حرف": 4205,
    "رقابت": 4206,
    "شاید": 4207,
    "لینی": 4208,
    "عمل": 4209,
    "▁بدوی": 4210,
    "▁سام": 4211,
    "▁سینماها": 4212,
    "دیگر": 4213,
    "گبا": 4214,
    "برنامه": 4215,
    "▁بوق": 4216,
    "▁هوادار": 4217,
    "▁استراتژی": 4218,
    "جوبی": 4219,
    "قامت": 4220,
    "▁مختل": 4221,
    "▁عصب": 4222,
    "تاسف": 4223,
    "ائم": 4224,
    "▁آسمایی": 4225,
    "▁مواضع": 4226,
    "▁کارداشیان": 4227,
    "▁المستقبل": 4228,
    "▁تکنولوژی": 4229,
    "▁مداخل": 4230,
    "▁هفدهم": 4231,
    "▁نوشیدن": 4232,
    "▁آشوری": 4233,
    "▁محاکم": 4234,
    "▁مکتوب": 4235,
    "▁ثانوی": 4236,
    "▁معارف": 4237,
    "گراندپری": 4238,
    "▁ناچار": 4239,
    "▁مرجع": 4240,
    "▁معدود": 4241,
    "▁اوباما": 4242,
    "▁ناامید": 4243,
    "▁میکروب": 4244,
    "▁شوهر": 4245,
    "▁ماندگار": 4246,
    "▁خارا": 4247,
    "▁سکوت": 4248,
    "▁رقبا": 4249,
    "▁ندارم": 4250,
    "▁توجیه": 4251,
    "▁رفاه": 4252,
    "▁بندرعباس": 4253,
    "▁تایلند": 4254,
    "▁خشن": 4255,
    "▁متنوع": 4256,
    "▁برانکو": 4257,
    "▁داریوش": 4258,
    "▁اسپوت": 4259,
    "▁ساویز": 4260,
    "▁کامیون": 4261,
    "▁رجب": 4262,
    "▁۱۳۹۶": 4263,
    "شیبا": 4264,
    "▁تعادل": 4265,
    "ائیل": 4266,
    "▁کشند": 4267,
    "▁زبا": 4268,
    "نصف": 4269,
    "▁مارچ": 4270,
    "▁خرسند": 4271,
    "▁حباب": 4272,
    "▁حکمتی": 4273,
    "▁کشتار": 4274,
    "▁تونس": 4275,
    "▁کمرنگ": 4276,
    "▁۷۸": 4277,
    "▁تعجب": 4278,
    "▁۴۷": 4279,
    "وداع": 4280,
    "▁شوش": 4281,
    "▁دشمنان": 4282,
    "▁۶۴": 4283,
    "▁ژی": 4284,
    "▁ورز": 4285,
    "▁ادعاهای": 4286,
    "▁نتوا": 4287,
    "▁قبال": 4288,
    "▁ریچارد": 4289,
    "▁کیست": 4290,
    "▁روزمر": 4291,
    "▁خریداران": 4292,
    "▁برنز": 4293,
    "▁پهن": 4294,
    "بصر": 4295,
    "▁دهید": 4296,
    "▁ادب": 4297,
    "▁اشیا": 4298,
    "صخره": 4299,
    "▁جنس": 4300,
    "▁کاردن": 4301,
    "▁عقل": 4302,
    "▁نیش": 4303,
    "مرکز": 4304,
    "▁ارت": 4305,
    "زاک": 4306,
    "▁۷۲": 4307,
    "▁کمدی": 4308,
    "▁نیل": 4309,
    "▁گوگ": 4310,
    "▁۱۹۰": 4311,
    "▁برادرش": 4312,
    "پزشک": 4313,
    "گفتگو": 4314,
    "محققان": 4315,
    "لیورپول": 4316,
    "باشگاه": 4317,
    "علیرضا": 4318,
    "آمار": 4319,
    "تحول": 4320,
    "فصل": 4321,
    "▁تعهداتش": 4322,
    "مدت": 4323,
    "شدت": 4324,
    "۲۳": 4325,
    "▁شاپو": 4326,
    "▁فرخ": 4327,
    "▁بناها": 4328,
    "▁عبد": 4329,
    "هدف": 4330,
    "▁مقر": 4331,
    "▁صح": 4332,
    "▁آموزگار": 4333,
    "▁بنگلادش": 4334,
    "▁تخفیف": 4335,
    "▁مزرعه": 4336,
    "▁وظایف": 4337,
    "▁بگوییم": 4338,
    "▁خفیف": 4339,
    "▁سکونت": 4340,
    "▁تحقیر": 4341,
    "▁سردبیر": 4342,
    "▁گشود": 4343,
    "▁منفجر": 4344,
    "▁خویش": 4345,
    "▁خوست": 4346,
    "▁توخل": 4347,
    "▁مقصر": 4348,
    "▁احتیاط": 4349,
    "کارآمد": 4350,
    "▁ناتوان": 4351,
    "▁نزول": 4352,
    "▁خزر": 4353,
    "▁وصل": 4354,
    "▁بقایای": 4355,
    "▁پراید": 4356,
    "▁تأیید": 4357,
    "▁سوگوار": 4358,
    "▁بلوم": 4359,
    "▁ترسناک": 4360,
    "صریح": 4361,
    "▁نکات": 4362,
    "▁پیشتاز": 4363,
    "▁خوشنام": 4364,
    "داوم": 4365,
    "▁خیال": 4366,
    "▁خراب": 4367,
    "▁کلینیک": 4368,
    "▁کاغذ": 4369,
    "▁گرایش": 4370,
    "▁مدرک": 4371,
    "▁۲۰۳۰": 4372,
    "▁تسهیلات": 4373,
    "▁۱۹۹۸": 4374,
    "▁۱۹۹۰": 4375,
    "▁سنبل": 4376,
    "▁آزمو": 4377,
    "▁کیهان": 4378,
    "▁دیدگاه": 4379,
    "▁زیستگاه": 4380,
    "▁اضطراب": 4381,
    "فلاتو": 4382,
    "▁شایعات": 4383,
    "▁هشتگ": 4384,
    "▁یکسان": 4385,
    "پوری": 4386,
    "▁شادی": 4387,
    "▁بمب": 4388,
    "زیگ": 4389,
    "▁خرس": 4390,
    "▁تسلیت": 4391,
    "▁حداد": 4392,
    "▁پناهجویان": 4393,
    "▁تحصیلات": 4394,
    "پپ": 4395,
    "▁کوبا": 4396,
    "▁ذی": 4397,
    "▁احمدشا": 4398,
    "▁سربازان": 4399,
    "قیاس": 4400,
    "▁سیزده": 4401,
    "▁سفی": 4402,
    "فرید": 4403,
    "▁موجودات": 4404,
    "جیب": 4405,
    "▁فلیک": 4406,
    "ایتون": 4407,
    "▁الع": 4408,
    "▁گذارند": 4409,
    "▁جست": 4410,
    "▁دارید": 4411,
    "▁بوتا": 4412,
    "▁مایل": 4413,
    "▁رایج": 4414,
    "▁انتقادات": 4415,
    "▁بافت": 4416,
    "▁گردند": 4417,
    "▁قطعات": 4418,
    "▁کلام": 4419,
    "▁پژو": 4420,
    "عشی": 4421,
    "▁پروازها": 4422,
    "▁کج": 4423,
    "▁نگرفت": 4424,
    "رشد": 4425,
    "▁گز": 4426,
    "▁سطو": 4427,
    "▁تشری": 4428,
    "ظاهر": 4429,
    "خودرو": 4430,
    "درآمد": 4431,
    "تولید": 4432,
    "علاو": 4433,
    "شیوع": 4434,
    "پرها": 4435,
    "▁فلا": 4436,
    "سوزی": 4437,
    "ایدو": 4438,
    "دهنده": 4439,
    "دوست": 4440,
    "▁خانوار": 4441,
    "▁رمزارز": 4442,
    "▁آپارتمان": 4443,
    "▁اتوبوس": 4444,
    "▁صداوسیما": 4445,
    "▁قائدی": 4446,
    "▁لامبورگینی": 4447,
    "▁ناشناخت": 4448,
    "▁آغوش": 4449,
    "▁متغیر": 4450,
    "▁مرتضی": 4451,
    "▁وحدت": 4452,
    "▁پیرامون": 4453,
    "▁تورنتو": 4454,
    "▁گرجستان": 4455,
    "▁نوبخت": 4456,
    "▁اشتراک": 4457,
    "▁بپردازد": 4458,
    "▁توفیق": 4459,
    "▁آرشیو": 4460,
    "▁ندانست": 4461,
    "▁طعم": 4462,
    "▁عقرب": 4463,
    "▁پاکبان": 4464,
    "▁قفس": 4465,
    "▁تمدن": 4466,
    "▁بمانند": 4467,
    "▁بفتا": 4468,
    "▁دانشکد": 4469,
    "▁مشوق": 4470,
    "▁مظاهری": 4471,
    "▁بلخ": 4472,
    "▁ویرجی": 4473,
    "▁جابجا": 4474,
    "ناشناس": 4475,
    "▁بولت": 4476,
    "▁رومانی": 4477,
    "▁۱۳۹۵": 4478,
    "مکعب": 4479,
    "▁بگیرید": 4480,
    "▁خزان": 4481,
    "▁فرایند": 4482,
    "▁بگیریم": 4483,
    "▁۱۹۴۰": 4484,
    "▁استونز": 4485,
    "▁پایبند": 4486,
    "▁نشت": 4487,
    "درفتار": 4488,
    "▁مقرر": 4489,
    "▁کوهستان": 4490,
    "▁تدری": 4491,
    "▁اتکا": 4492,
    "▁مبت": 4493,
    "عارض": 4494,
    "▁تجلی": 4495,
    "▁سالیوان": 4496,
    "▁حجاب": 4497,
    "سیویر": 4498,
    "حقق": 4499,
    "▁محض": 4500,
    "▁حساسیت": 4501,
    "▁رایزن": 4502,
    "▁۱۴۰": 4503,
    "▁آرمان": 4504,
    "▁ببرند": 4505,
    "▁مخدر": 4506,
    "▁بخواهی": 4507,
    "▁۸۱": 4508,
    "▁۵۴": 4509,
    "▁۵۸": 4510,
    "▁شناسند": 4511,
    "▁پرآ": 4512,
    "یویا": 4513,
    "▁استاندارد": 4514,
    "▁مردگان": 4515,
    "▁قومی": 4516,
    "▁لط": 4517,
    "ابلو": 4518,
    "مرگ": 4519,
    "ایح": 4520,
    "هرانا": 4521,
    "تکب": 4522,
    "▁پرتر": 4523,
    "▁اجبار": 4524,
    "دایی": 4525,
    "لژی": 4526,
    "▁منطق": 4527,
    "وفر": 4528,
    "▁قبرس": 4529,
    "ایف": 4530,
    "▁بستگ": 4531,
    "روج": 4532,
    "▁جرد": 4533,
    "لوله": 4534,
    "خانواده": 4535,
    "امیر": 4536,
    "▁تثب": 4537,
    "ناظر": 4538,
    "بومی": 4539,
    "آموز": 4540,
    "▁معما": 4541,
    "سایت": 4542,
    "درصد": 4543,
    "▁سوئ": 4544,
    "▁نوازند": 4545,
    "تلسکوپ": 4546,
    "دغدغه": 4547,
    "▁اپیدمی": 4548,
    "▁ترانزیت": 4549,
    "▁زودهنگام": 4550,
    "▁غفوری": 4551,
    "▁فزاینده": 4552,
    "▁مایکروسافت": 4553,
    "▁متاثر": 4554,
    "▁پرطرفدار": 4555,
    "▁پهپاد": 4556,
    "▁کلاهبردار": 4557,
    "▁گلمکانی": 4558,
    "▁واضح": 4559,
    "▁وحشتناک": 4560,
    "▁یونسکو": 4561,
    "▁راپینو": 4562,
    "▁سازوکار": 4563,
    "▁تبادل": 4564,
    "▁ناقض": 4565,
    "▁برآمد": 4566,
    "▁سناریو": 4567,
    "▁ابتکار": 4568,
    "▁شباهت": 4569,
    "▁نیاورد": 4570,
    "▁صرب": 4571,
    "▁وفادار": 4572,
    "▁بکشند": 4573,
    "▁تعبیر": 4574,
    "فاضل": 4575,
    "▁بفهم": 4576,
    "▁گودال": 4577,
    "▁سوپرلیگ": 4578,
    "نظرسنجی": 4579,
    "▁آشام": 4580,
    "▁زهره": 4581,
    "▁مارتین": 4582,
    "▁فلج": 4583,
    "▁بنکسی": 4584,
    "▁توفان": 4585,
    "▁سعد": 4586,
    "▁پشتیبان": 4587,
    "▁نرفت": 4588,
    "▁بلوک": 4589,
    "▁گلایه": 4590,
    "▁لگن": 4591,
    "▁محکم": 4592,
    "▁سارس": 4593,
    "مسترد": 4594,
    "▁معاش": 4595,
    "▁عاشقانه": 4596,
    "▁آپو": 4597,
    "▁امواج": 4598,
    "▁هستید": 4599,
    "▁پائی": 4600,
    "▁مخصوصا": 4601,
    "▁۹۴": 4602,
    "▁میرزا": 4603,
    "▁لطف": 4604,
    "▁فیس": 4605,
    "▁پورتو": 4606,
    "رحیم": 4607,
    "▁دوازدهم": 4608,
    "▁شناسد": 4609,
    "▁منک": 4610,
    "▁زایی": 4611,
    "پانی": 4612,
    "گوف": 4613,
    "فرجام": 4614,
    "▁خوا": 4615,
    "▁ویلا": 4616,
    "سلسل": 4617,
    "▁اکرا": 4618,
    "صداق": 4619,
    "▁سوگ": 4620,
    "▁مباد": 4621,
    "▁۸۶": 4622,
    "▁۳۵۰": 4623,
    "احی": 4624,
    "▁۸۵": 4625,
    "▁عج": 4626,
    "▁دوازده": 4627,
    "کمیت": 4628,
    "یونایتد": 4629,
    "ماجرا": 4630,
    "انتظار": 4631,
    "منابع": 4632,
    "نمایندگان": 4633,
    "دفتر": 4634,
    "خورده": 4635,
    "علت": 4636,
    "▁پناهجوی": 4637,
    "▁دشمن": 4638,
    "▁تیل": 4639,
    "▁دستاورد": 4640,
    "▁مصدوم": 4641,
    "▁اعتیاد": 4642,
    "▁فضاپیما": 4643,
    "▁آسوشیتد": 4644,
    "▁اثبات": 4645,
    "▁الانبیا": 4646,
    "▁انستیتو": 4647,
    "▁باورنکردنی": 4648,
    "▁بوچانی": 4649,
    "▁جامائیکا": 4650,
    "▁دژپسند": 4651,
    "▁رولزرویس": 4652,
    "▁وروورت": 4653,
    "▁پنگوئن": 4654,
    "▁پوچتینو": 4655,
    "▁زحمت": 4656,
    "▁غرامت": 4657,
    "▁ارجاع": 4658,
    "▁زریاب": 4659,
    "▁تبعید": 4660,
    "▁بلاروس": 4661,
    "▁والیبال": 4662,
    "▁اقبال": 4663,
    "▁ببینیم": 4664,
    "▁پلامر": 4665,
    "▁کالبد": 4666,
    "▁بیاورد": 4667,
    "▁گرمایش": 4668,
    "▁مسترز": 4669,
    "فینیتی": 4670,
    "▁محترم": 4671,
    "▁جرایم": 4672,
    "▁اتصال": 4673,
    "▁استعمار": 4674,
    "▁معوقه": 4675,
    "▁احکام": 4676,
    "▁پالایش": 4677,
    "▁قزاقستان": 4678,
    "▁اعتنا": 4679,
    "▁مکمل": 4680,
    "▁مشتاق": 4681,
    "▁بردارد": 4682,
    "▁عزم": 4683,
    "فرگوس": 4684,
    "▁بدانند": 4685,
    "▁جلد": 4686,
    "▁مطلوب": 4687,
    "▁معاف": 4688,
    "▁تایتان": 4689,
    "▁نارضای": 4690,
    "جیمزباند": 4691,
    "▁کرایس": 4692,
    "ضعف": 4693,
    "▁تکنیک": 4694,
    "▁حبیب": 4695,
    "▁اردوگاه": 4696,
    "▁۱۹۸۰": 4697,
    "▁تنوع": 4698,
    "▁مخفیانه": 4699,
    "▁بوئین": 4700,
    "▁صحرا": 4701,
    "▁مشت": 4702,
    "▁۶۵۰": 4703,
    "▁شیع": 4704,
    "▁شمایل": 4705,
    "▁نیکلا": 4706,
    "▁بوکسور": 4707,
    "▁چال": 4708,
    "▁گردانند": 4709,
    "▁۸۹": 4710,
    "▁شعارهای": 4711,
    "▁شوت": 4712,
    "واشی": 4713,
    "رگس": 4714,
    "▁آنتی": 4715,
    "مجتب": 4716,
    "یاط": 4717,
    "فرج": 4718,
    "غیب": 4719,
    "▁اعما": 4720,
    "صدای": 4721,
    "▁دادخواه": 4722,
    "▁۱۶۰": 4723,
    "▁۱۷۶": 4724,
    "▁بخشید": 4725,
    "دالله": 4726,
    "▁متیو": 4727,
    "▁واحدها": 4728,
    "▁کنو": 4729,
    "▁کوچ": 4730,
    "محمدجواد": 4731,
    "کارشناسان": 4732,
    "پرسپولیس": 4733,
    "مجلس": 4734,
    "انتشار": 4735,
    "کرونا": 4736,
    "موسس": 4737,
    "ارزش": 4738,
    "داستان": 4739,
    "▁سرنشین": 4740,
    "رکاب": 4741,
    "لیگ": 4742,
    "▁تخل": 4743,
    "▁آلومینیوم": 4744,
    "▁اقتدار": 4745,
    "▁تصاحب": 4746,
    "▁جغرافیای": 4747,
    "▁رونالدینیو": 4748,
    "▁لاجورد": 4749,
    "▁مستضعفان": 4750,
    "▁مشکوک": 4751,
    "▁ورشکست": 4752,
    "▁حضرت": 4753,
    "▁خرچنگ": 4754,
    "▁دگرگون": 4755,
    "▁نصیب": 4756,
    "بفرستید": 4757,
    "▁رستگار": 4758,
    "▁سرماخورد": 4759,
    "▁اخلاق": 4760,
    "▁سنگاپور": 4761,
    "▁هجدهم": 4762,
    "▁سرتاسر": 4763,
    "▁ارتقا": 4764,
    "▁بدخشان": 4765,
    "▁آموخت": 4766,
    "▁بوزمن": 4767,
    "▁تفکیک": 4768,
    "▁مسموم": 4769,
    "وخامت": 4770,
    "▁غلط": 4771,
    "▁متروکه": 4772,
    "▁خدایاری": 4773,
    "▁ادوارد": 4774,
    "▁پیرلو": 4775,
    "▁آویو": 4776,
    "▁عارف": 4777,
    "▁اشعار": 4778,
    "▁بنتلی": 4779,
    "▁گرسنگ": 4780,
    "▁یوسف": 4781,
    "▁فهمید": 4782,
    "▁برشمرد": 4783,
    "▁فطر": 4784,
    "▁ژاک": 4785,
    "▁مکتب": 4786,
    "▁فشرد": 4787,
    "▁قسط": 4788,
    "▁گریبان": 4789,
    "▁متوفی": 4790,
    "رطوب": 4791,
    "▁چهاردهم": 4792,
    "▁هیولا": 4793,
    "▁هواشناسی": 4794,
    "▁بسیج": 4795,
    "▁فحش": 4796,
    "▁مجرم": 4797,
    "▁کوبید": 4798,
    "کثیر": 4799,
    "▁کولمن": 4800,
    "▁ندهد": 4801,
    "▁بهبهان": 4802,
    "▁فخر": 4803,
    "ضاح": 4804,
    "▁هرمز": 4805,
    "▁چسب": 4806,
    "▁ریورا": 4807,
    "▁توریست": 4808,
    "▁ناوگان": 4809,
    "▁فروغ": 4810,
    "▁۱۹۶۰": 4811,
    "▁بالگرد": 4812,
    "▁بازنشستگی": 4813,
    "▁شرکا": 4814,
    "▁بورگ": 4815,
    "▁حاکمیت": 4816,
    "▁مخلو": 4817,
    "▁مرادی": 4818,
    "▁فریب": 4819,
    "▁عسل": 4820,
    "▁تلفات": 4821,
    "▁معط": 4822,
    "▁دایر": 4823,
    "▁جیپ": 4824,
    "▁۷۹": 4825,
    "▁سیارک": 4826,
    "▁نارس": 4827,
    "▁پاسخگو": 4828,
    "▁ویزا": 4829,
    "▁پریش": 4830,
    "▁تیموری": 4831,
    "▁غرو": 4832,
    "ئوری": 4833,
    "▁لخت": 4834,
    "▁پویا": 4835,
    "گذران": 4836,
    "راجر": 4837,
    "دلیل": 4838,
    "▁قربان": 4839,
    "جیغ": 4840,
    "▁جزای": 4841,
    "▁خوار": 4842,
    "▁بطر": 4843,
    "▁شاهزاد": 4844,
    "▁آرزوها": 4845,
    "▁بگیر": 4846,
    "تشکر": 4847,
    "زمینی": 4848,
    "مزد": 4849,
    "▁شانزده": 4850,
    "ریچارد": 4851,
    "اسماعیل": 4852,
    "کانادا": 4853,
    "آنتونی": 4854,
    "اقتصاد": 4855,
    "قهرمان": 4856,
    "اخیرا": 4857,
    "انتخابات": 4858,
    "اعضای": 4859,
    "فعالان": 4860,
    "واکنش": 4861,
    "همچن": 4862,
    "فدرر": 4863,
    "آژانس": 4864,
    "ونتی": 4865,
    "بورس": 4866,
    "▁علاقمند": 4867,
    "صالح": 4868,
    "▁تسهیل": 4869,
    "▁اتیوپی": 4870,
    "▁جعفری": 4871,
    "▁فلامینگو": 4872,
    "▁اختراع": 4873,
    "▁بوئنو": 4874,
    "▁تزئین": 4875,
    "▁دانچیچ": 4876,
    "▁عواقب": 4877,
    "▁مثلث": 4878,
    "▁مساحت": 4879,
    "▁نگذاشت": 4880,
    "▁چرنکوف": 4881,
    "▁ژیمناست": 4882,
    "▁کامبوج": 4883,
    "▁اعصاب": 4884,
    "▁بوفالو": 4885,
    "▁روشنفکر": 4886,
    "▁زیرساخت": 4887,
    "▁مونتاژ": 4888,
    "▁گیگز": 4889,
    "▁تعویض": 4890,
    "▁جاذبه": 4891,
    "▁انحصار": 4892,
    "▁تعزیری": 4893,
    "▁زیارت": 4894,
    "▁مینیاتور": 4895,
    "▁اپراتورها": 4896,
    "▁نعمت": 4897,
    "▁رئوف": 4898,
    "▁علایم": 4899,
    "▁مصیبت": 4900,
    "▁پیشکسوت": 4901,
    "▁تفسیر": 4902,
    "▁ویتنام": 4903,
    "▁حراست": 4904,
    "▁سفیدپوست": 4905,
    "▁طناب": 4906,
    "▁یادبود": 4907,
    "▁امتداد": 4908,
    "▁البرز": 4909,
    "▁بازنگری": 4910,
    "▁غیبت": 4911,
    "▁جواهر": 4912,
    "▁وودز": 4913,
    "▁ژر": 4914,
    "▁حریر": 4915,
    "بالاحصار": 4916,
    "▁ذات": 4917,
    "▁فروزش": 4918,
    "▁صمیم": 4919,
    "▁علوی": 4920,
    "منازع": 4921,
    "▁چرب": 4922,
    "▁شیفت": 4923,
    "▁جناح": 4924,
    "▁توئیت": 4925,
    "ارتاک": 4926,
    "▁خیام": 4927,
    "▁سازندگان": 4928,
    "▁معاد": 4929,
    "▁ماشه": 4930,
    "▁رامش": 4931,
    "▁دبیرستان": 4932,
    "▁شیلی": 4933,
    "▁بزو": 4934,
    "▁باشم": 4935,
    "گارت": 4936,
    "▁مرکل": 4937,
    "فاصل": 4938,
    "ومبل": 4939,
    "امضاکنندگان": 4940,
    "▁مایع": 4941,
    "▁مستندساز": 4942,
    "▁فابی": 4943,
    "▁الیز": 4944,
    "سیلوا": 4945,
    "دریچ": 4946,
    "لماس": 4947,
    "طرف": 4948,
    "▁گردشگر": 4949,
    "حوال": 4950,
    "نگیز": 4951,
    "▁میلاد": 4952,
    "ستعار": 4953,
    "شناسی": 4954,
    "▁پراکن": 4955,
    "شنبه": 4956,
    "▁راهنمای": 4957,
    "ویکتور": 4958,
    "همیلتون": 4959,
    "غلام": 4960,
    "رافائل": 4961,
    "دونالد": 4962,
    "روابط": 4963,
    "تحقیقات": 4964,
    "صندوق": 4965,
    "(": 4966,
    "آلمان": 4967,
    "سرعت": 4968,
    "بررسی": 4969,
    "تهران": 4970,
    "تلاش": 4971,
    "▁نویسندگ": 4972,
    "▁خلاق": 4973,
    "چاق": 4974,
    "▁بتهوون": 4975,
    "▁تهاجمی": 4976,
    "▁جاپلقی": 4977,
    "▁دریابندری": 4978,
    "▁لابراتوار": 4979,
    "▁مائوریتس": 4980,
    "▁ملاحظ": 4981,
    "▁پاراگوئه": 4982,
    "▁تویوتا": 4983,
    "▁ودیعه": 4984,
    "▁یخچال": 4985,
    "▁خوشبخت": 4986,
    "▁کرگدن": 4987,
    "▁فرانسیس": 4988,
    "▁معاهد": 4989,
    "▁کالدرون": 4990,
    "▁بفروشند": 4991,
    "▁رمضان": 4992,
    "▁تضاد": 4993,
    "▁رژیم": 4994,
    "▁قضاوت": 4995,
    "▁بخرد": 4996,
    "▁نگفت": 4997,
    "پچو": 4998,
    "▁آرتتا": 4999,
    "▁الاجل": 5000,
    "▁معالج": 5001
  }
}