ی	-3.40633
.	-3.44129
</s>	0
<unk>	0
ه	-3.78201
▁است	-4.10124
▁	-4.15441
▁می	-4.20961
▁های	-4.61716
▁ایران	-4.69556
▁شده	-5.0062
،	-5.05158
▁سال	-5.1825
▁بود	-5.20663
▁یک	-5.22936
▁ها	-5.26048
▁شد	-5.29121
▁تصویر	-5.40202
▁کرده	-5.41247
▁ای	-5.41539
▁کرد	-5.51554
منبع	-5.5655
ان	-5.58127
▁شود	-5.67167
▁گفته	-5.68421
▁بر	-5.69695
▁دو	-5.74258
▁کند	-5.77156
؛	-5.79834
▁خود	-5.81014
ین	-5.81667
▁اند	-5.84412
▁کرونا	-5.88672
▁در	-5.99268
ت	-6.02947
ش	-6.05294
ن	-6.05913
▁پیش	-6.06123
▁آمریکا	-6.08469
▁گزارش	-6.09634
▁ماه	-6.10031
▁کشور	-6.11084
▁روز	-6.12988
▁م	-6.19247
▁کار	-6.2412
▁بی	-6.26301
▁فوتبال	-6.27103
▁دارد	-6.28142
▁ا	-6.30603
▁دهد	-6.31312
▁گفت	-6.31868
▁تیم	-6.32285
▁اعلام	-6.32849
▁بازی	-6.34175
▁کنند	-6.34938
▁دیگر	-6.37143
▁قرار	-6.38146
▁شرکت	-6.40491
▁هزار	-6.40799
▁داده	-6.41961
م	-6.43653
▁دولت	-6.44035
▁یا	-6.44668
▁به	-6.45231
▁دست	-6.45855
▁و	-6.46256
▁رئیس	-6.49203
▁با	-6.49858
▁سه	-6.51471
▁جهان	-6.52188
▁گذشته	-6.53363
▁بین	-6.5475
▁خواهد	-6.56322
▁پس	-6.56476
▁گوید	-6.57051
▁آقای	-6.57482
▁هر	-6.61588
▁تهران	-6.66338
▁دربار	-6.66632
▁بار	-6.66876
▁آنها	-6.67453
▁میلیون	-6.67584
▁نفر	-6.67983
در	-6.68854
▁درصد	-6.69585
▁دلیل	-6.69815
▁افزایش	-6.71461
▁ب	-6.7264
▁افغانستان	-6.72911
▁بوده	-6.74127
'	-6.74534
▁فیلم	-6.7521
▁بعد	-6.75229
▁'	-6.7544
▁هفته	-6.75492
▁یکی	-6.75638
▁چند	-6.76135
▁از	-6.7635
▁داد	-6.76656
های	-6.7814
این	-6.78204
▁لیگ	-6.78497
ر	-6.78695
ا	-6.79594
▁قیمت	-6.81367
▁حال	-6.81477
▁بازار	-6.81836
▁جهانی	-6.81908
ل	-6.81943
:	-6.81951
▁ملی	-6.83583
▁خبر	-6.83747
▁نام	-6.84306
▁جدید	-6.84415
▁ت	-6.85334
▁جمهوری	-6.85568
▁نمی	-6.86014
د	-6.86146
▁سازمان	-6.86281
▁همه	-6.86599
▁هستند	-6.87102
▁برگزار	-6.87206
▁دلار	-6.87279
▁ویروس	-6.87913
▁مورد	-6.88892
▁همچن	-6.89356
▁عنوان	-6.89518
▁تولید	-6.89834
▁گرفته	-6.90603
▁ترین	-6.91064
▁باید	-6.91209
ند	-6.92049
▁روی	-6.93371
▁داشت	-6.93819
▁امروز	-6.93839
▁نظر	-6.93853
▁کردند	-6.94512
▁شدن	-6.95186
▁نفت	-6.9614
▁بزرگ	-6.96219
▁مجلس	-6.96598
▁بیش	-6.97175
▁علی	-6.9857
▁کاهش	-6.98669
▁شب	-6.98742
▁وزیر	-6.98975
▁بیشتر	-6.99932
▁نیست	-7.00424
▁وزارت	-7.01406
ز	-7.01407
▁چین	-7.01715
▁بریتانیا	-7.02819
▁خارج	-7.02946
▁اروپا	-7.03194
▁سر	-7.03445
▁اخیر	-7.03552
▁مقابل	-7.03698
به	-7.03779
▁نیز	-7.04727
▁آغاز	-7.04821
▁بودند	-7.0515
▁حدود	-7.05725
▁ایرانی	-7.07074
▁داشته	-7.07171
▁سی	-7.07419
ب	-7.08208
▁راه	-7.09202
▁ف	-7.09224
▁نشان	-7.09496
▁بانک	-7.09758
▁را	-7.10922
▁پایان	-7.11861
▁زمان	-7.12747
▁برنامه	-7.12944
س	-7.13015
▁حضور	-7.13497
▁اقتصادی	-7.1382
▁باشد	-7.14385
▁انجام	-7.15106
▁باشگاه	-7.15221
▁منتشر	-7.15281
▁اش	-7.16591
▁تر	-7.16975
▁اول	-7.17089
ات	-7.17382
▁اساس	-7.17513
▁واکسن	-7.17715
که	-7.17814
▁هایی	-7.18251
▁اولین	-7.18466
▁آن	-7.19287
▁باز	-7.19508
▁صورت	-7.19585
▁تحریم	-7.20631
▁شهر	-7.21105
▁استفاده	-7.23238
▁جمله	-7.23578
▁شیوع	-7.23833
▁شوند	-7.24044
دامه	-7.24956
له	-7.25291
▁توافق	-7.2556
▁گل	-7.25593
▁فصل	-7.2595
آقای	-7.27098
▁بخش	-7.27471
▁میان	-7.27571
▁رسید	-7.28698
▁زندگی	-7.30084
▁وجود	-7.30605
▁مسابقه	-7.30999
▁گروه	-7.31216
▁میلیارد	-7.31902
▁پ	-7.32201
▁ماشین	-7.32539
▁کم	-7.32574
▁چهار	-7.33572
▁مسابقات	-7.33954
▁دارند	-7.3403
و	-7.34052
▁همین	-7.34921
▁س	-7.3512
؟	-7.35679
▁ارز	-7.35962
او	-7.36543
▁حقوق	-7.36551
▁مردم	-7.36661
▁المللی	-7.36809
▁مقام	-7.37689
▁ن	-7.38103
▁تمام	-7.38484
▁تومان	-7.38513
▁گیری	-7.38539
▁خواست	-7.38777
▁شدند	-7.39297
▁نزدیک	-7.40011
▁حالی	-7.4013
▁گرفت	-7.40595
▁تنها	-7.41083
▁وقت	-7.41865
▁جام	-7.42
▁زنان	-7.42011
▁تواند	-7.42088
گی	-7.42764
▁آینده	-7.42771
▁افراد	-7.43736
▁خانه	-7.44579
▁بیماری	-7.44823
▁بسیاری	-7.45439
▁وارد	-7.45624
▁نرخ	-7.45985
▁زیاد	-7.46233
▁غیر	-7.4631
▁اسلامی	-7.4674
▁قبل	-7.46973
▁ساله	-7.4757
▁گویند	-7.47855
▁شرایط	-7.48138
ترین	-7.48289
▁دوران	-7.48663
▁اجتماعی	-7.48705
▁فعالیت	-7.4883
▁امسال	-7.49141
▁کردن	-7.49429
▁هیچ	-7.49688
▁ش	-7.50444
▁برتر	-7.50784
▁توان	-7.50845
انه	-7.51085
عث	-7.51299
▁رسان	-7.51566
▁تلاش	-7.52263
▁۲۰	-7.52543
▁تازه	-7.52784
بدون	-7.52961
▁انتخابات	-7.53353
▁مختلف	-7.5359
▁وضعیت	-7.53641
▁نخست	-7.54257
▁طرح	-7.54622
▁طور	-7.54712
▁محمد	-7.54975
▁پر	-7.55192
▁ولی	-7.55418
▁ه	-7.55896
▁جان	-7.55978
▁تغییر	-7.56426
▁کشورهای	-7.56598
▁تصمیم	-7.57352
▁روحانی	-7.57365
▁سوی	-7.57593
▁زمین	-7.58083
▁فروش	-7.58231
▁نه	-7.59617
▁قهرمان	-7.59823
▁خانواده	-7.59858
▁ک	-7.60002
▁ریاست	-7.60053
▁مدت	-7.60065
▁بورس	-7.60209
ار	-7.60289
▁پنج	-7.60672
▁منبع	-7.6089
▁برابر	-7.60959
▁د	-7.61133
یت	-7.61224
▁اقتصاد	-7.61378
▁کمک	-7.61429
▁تاریخ	-7.6154
نه	-7.61739
▁برای	-7.61846
▁حالا	-7.62219
▁مرکزی	-7.62441
▁دوم	-7.62573
▁دهه	-7.62573
▁اثر	-7.62731
▁منطقه	-7.62868
شان	-7.63302
▁بسیار	-7.63408
▁دوره	-7.63737
▁خودرو	-7.63766
▁مهم	-7.63895
قط	-7.64098
▁۱۹	-7.64447
ثبت	-7.64528
▁پی	-7.64723
▁هم	-7.64731
▁درگذشت	-7.64779
▁موسیقی	-7.65036
▁نقش	-7.6505
▁مرکز	-7.65252
▁دی	-7.65489
▁پیدا	-7.6557
▁رسمی	-7.65578
▁سرمایه	-7.65992
▁همراه	-7.66254
▁آمار	-7.66646
▁آخر	-7.6676
ده	-7.6692
یک	-7.67309
یه	-7.67683
▁قهرمانی	-7.67754
▁زن	-7.67801
▁رسیده	-7.68198
شروع	-7.68272
▁بعضی	-7.68311
نامه	-7.68548
▁کنار	-7.68581
▁رقابت	-7.68671
▁ر	-7.68782
▁آمریکایی	-7.69401
▁نوشته	-7.69515
▁برجام	-7.70241
▁هسته	-7.70354
▁اصلی	-7.70378
▁پول	-7.7048
▁عکس	-7.7049
ک	-7.7062
شورای	-7.70893
▁مراسم	-7.72053
▁جمهور	-7.722
▁اطلاعات	-7.72335
▁شکست	-7.73059
▁نشده	-7.73235
▁برخ	-7.73512
▁بررسی	-7.73746
▁دنیا	-7.74493
▁ویژ	-7.74652
▁سفر	-7.74685
▁پرسپولیس	-7.74741
▁زیر	-7.75069
▁اعتراض	-7.75866
▁ممکن	-7.7587
نی	-7.75921
ایی	-7.76232
▁۵	-7.76589
▁استقلال	-7.766
▁۴	-7.76614
▁استان	-7.76719
▁همکاری	-7.7681
▁نتیج	-7.77515
▁شش	-7.78087
▁کل	-7.78128
ست	-7.78308
▁توجه	-7.78328
▁بالا	-7.78561
▁اینک	-7.78565
▁کشتی	-7.78707
▁که	-7.78863
▁دنبال	-7.79286
▁حمله	-7.79437
▁جایزه	-7.80436
▁حاضر	-7.80714
▁عراق	-7.80732
▁آزاد	-7.81
▁میلادی	-7.8124
▁یافته	-7.81246
▁کمتر	-7.81377
▁۱۰	-7.81875
▁سیاسی	-7.81892
▁حمایت	-7.81951
▁رفت	-7.81968
▁واکنش	-7.81972
▁دور	-7.82012
▁ساعت	-7.82544
توسط	-7.82577
ها	-7.82607
با	-7.82638
▁آب	-7.82994
▁آ	-7.83251
▁ترکیه	-7.83275
▁۲	-7.83644
▁بازیکن	-7.83658
▁پرداخت	-7.83673
▁دریافت	-7.837
▁دانشگاه	-7.83752
▁فدراسیون	-7.84573
بر	-7.84731
▁الله	-7.85604
▁نیمه	-7.85762
▁انتشار	-7.86203
▁کتاب	-7.86331
▁مالی	-7.86738
▁آلمان	-7.86926
▁دهند	-7.87338
▁فرانسه	-7.87721
▁سیاست	-7.87726
▁خاطر	-7.87756
▁مدیر	-7.87815
▁روند	-7.87991
▁انرژی	-7.88439
▁او	-7.88771
▁مجموعه	-7.89439
▁رشد	-7.89482
▁هدف	-7.89587
گان	-7.89725
▁طی	-7.90029
▁ندارد	-7.90072
▁عرض	-7.90106
▁ترامپ	-7.90473
▁کر	-7.90492
ِ	-7.90548
▁گذاری	-7.90586
حتی	-7.90702
▁موضوع	-7.90829
▁آژانس	-7.91017
▁شنبه	-7.91042
▁اتحاد	-7.91079
▁کنیم	-7.91435
ری	-7.91584
▁مذاکرات	-7.9208
▁بهداشت	-7.92614
)	-7.92882
▁آمده	-7.93422
▁سهام	-7.93424
▁هشدار	-7.93535
▁شمار	-7.93758
▁این	-7.93841
▁رسد	-7.93965
اکنون	-7.94094
▁ایجاد	-7.94401
▁هفت	-7.94554
گیری	-7.94616
▁سازی	-7.95011
▁رو	-7.95235
▁مبارز	-7.95562
▁۶	-7.95593
▁دیدار	-7.95629
▁کشته	-7.95975
▁خواهند	-7.96223
▁مربوط	-7.96372
▁متهم	-7.96462
▁خرید	-7.96528
▁آزمایش	-7.96599
▁عربستان	-7.9684
▁سابق	-7.96897
▁نامه	-7.96983
▁بازیکنان	-7.96994
▁خارجی	-7.97201
▁ده	-7.9749
▁۲۰۲۰	-7.97713
▁بودجه	-7.9787
▁نیاز	-7.98045
▁اشار	-7.98109
▁تایید	-7.98271
▁یافت	-7.98362
کسب	-7.98368
▁ح	-7.98383
▁(	-7.98663
▁چنین	-7.98773
▁تلویزیون	-7.99
▁رهبر	-7.99435
▁مرگ	-7.99459
خانه	-8.00068
▁اقدام	-8.00132
▁۳	-8.0038
از	-8.00386
▁دادگاه	-8.00395
▁دولتی	-8.00964
ای	-8.01098
▁زبان	-8.01339
▁بازداشت	-8.01343
▁قهرمانان	-8.01345
▁پیروز	-8.01362
▁اجرای	-8.01388
▁همان	-8.01412
▁انسان	-8.01482
▁جنوبی	-8.02029
▁بیمارستان	-8.02163
▁قابل	-8.02294
▁محل	-8.02353
▁فاصله	-8.02556
▁حسن	-8.02802
▁مرد	-8.02806
▁تاثیر	-8.02941
▁دیده	-8.02985
▁نهایی	-8.03043
زاری	-8.03149
▁میزان	-8.03237
▁زده	-8.03431
▁ورزش	-8.03746
نوز	-8.04092
▁خبرگ	-8.04705
می	-8.05123
▁معاون	-8.05266
▁تبدیل	-8.05437
▁زمانی	-8.05499
▁ج	-8.05809
▁مدل	-8.06105
▁جریان	-8.06114
▁ساخت	-8.06121
▁مشخص	-8.06183
▁حکومت	-8.06901
▁کننده	-8.06905
یم	-8.06957
▁محدودیت	-8.07123
▁قانون	-8.07169
▁زمینه	-8.07245
▁ابتلا	-8.0729
▁صد	-8.07398
▁صنعت	-8.0744
▁نا	-8.07445
▁نمایش	-8.07838
▁لندن	-8.07848
▁خط	-8.08473
▁تعطیل	-8.0875
▁طول	-8.08799
▁شناخت	-8.08907
▁زندان	-8.08999
▁منابع	-8.09015
▁آسیا	-8.09093
▁جلو	-8.09205
▁انگلیس	-8.09313
▁درآمد	-8.09667
▁خام	-8.09784
▁بشر	-8.10002
▁ساخته	-8.10264
▁بازگشت	-8.1047
ون	-8.1065
▁آثار	-8.10856
▁.	-8.10877
▁سالگی	-8.11024
▁نامزد	-8.11081
چه	-8.11798
▁امنیت	-8.11846
▁سرمربی	-8.11862
▁نگاه	-8.11869
▁بیانیه	-8.11915
▁رای	-8.11977
▁تعداد	-8.1202
▁سطح	-8.12318
▁چیز	-8.13262
▁چرا	-8.13272
طرح	-8.13407
▁نمایند	-8.1347
▁روسیه	-8.13624
▁صادرات	-8.1364
▁پلیس	-8.13784
▁اتمی	-8.13999
▁نمایندگان	-8.141
▁سو	-8.14304
▁سخنگوی	-8.14445
▁اعضای	-8.14629
▁حکم	-8.14871
▁خطر	-8.14981
▁کمی	-8.1512
▁بالای	-8.15463
▁کابل	-8.15592
▁همزمان	-8.15649
▁عمومی	-8.15744
▁سوم	-8.15829
▁۲۰۰	-8.1588
▁لیورپول	-8.16041
▁رود	-8.16114
▁طرف	-8.16259
▁نقل	-8.16262
▁جو	-8.16416
▁شکل	-8.16904
▁رکورد	-8.17507
▁امنیتی	-8.17552
▁تو	-8.17845
▁جلس	-8.17877
▁انتخاب	-8.17952
▁قرنطینه	-8.18149
▁رد	-8.18193
▁۲۵	-8.18238
▁ارزش	-8.18277
▁نسبت	-8.18322
▁شورا	-8.18467
▁آی	-8.18522
▁المپیک	-8.18665
▁جاری	-8.18917
▁انقلاب	-8.18983
▁جا	-8.19022
روز	-8.1914
▁ترک	-8.19419
▁سپاه	-8.19442
▁نیم	-8.19452
▁اسرائیل	-8.19489
▁عضو	-8.19539
▁ام	-8.19597
▁سخت	-8.19692
▁جنگ	-8.19852
▁۳۰	-8.19983
مین	-8.20009
▁گو	-8.20139
▁کامل	-8.20236
▁لغو	-8.20259
▁تنیس	-8.2038
▁سن	-8.20455
▁برد	-8.20467
خیلی	-8.20535
ره	-8.20617
▁گرفتن	-8.21302
▁بهتری	-8.2134
ینه	-8.21947
▁ظریف	-8.21959
▁حرکت	-8.21987
▁دیگری	-8.21992
▁برق	-8.22309
▁بخشی	-8.2232
▁نشست	-8.22435
▁افت	-8.22617
▁سابقه	-8.22873
▁مرح	-8.23911
▁ارائه	-8.24177
ال	-8.24433
▁برنده	-8.2456
▁سینما	-8.2459
▁متحده	-8.24633
▁پزشکی	-8.24695
ور	-8.24826
▁گسترده	-8.24846
▁آیا	-8.25041
▁گاز	-8.25051
-	-8.25313
▁بایدن	-8.25432
▁امور	-8.25557
▁شدید	-8.25713
▁فشار	-8.25927
▁روزهای	-8.26065
▁تع	-8.26235
▁نگرانی	-8.26352
▁امتیاز	-8.26405
▁تورم	-8.26712
▁توانست	-8.27061
ق	-8.27182
▁تح	-8.27321
▁هوای	-8.27329
▁انتقال	-8.27364
▁نوشت	-8.27693
▁نکرده	-8.27752
▁معرف	-8.27769
▁وی	-8.27774
▁طراح	-8.27775
▁۱۳	-8.2781
▁پاسخ	-8.27858
▁اج	-8.27868
▁آزادی	-8.28044
▁دانست	-8.29076
▁خودش	-8.29138
▁متوقف	-8.295
▁فرهنگی	-8.297
▁جدی	-8.29833
▁چ	-8.2991
▁هند	-8.30176
▁نظامی	-8.30202
▁عالی	-8.30287
▁چشم	-8.30463
▁چهر	-8.30648
▁جامعه	-8.30669
▁هز	-8.30724
▁رفته	-8.30758
▁بحران	-8.30817
▁ورود	-8.30818
▁۱۵	-8.30987
▁بست	-8.31026
▁جای	-8.31109
▁کشید	-8.31123
▁مصاحبه	-8.3134
▁مشکلات	-8.31404
▁خوب	-8.3153
▁خانم	-8.3163
▁دادن	-8.31896
▁ورزشی	-8.3224
▁دستگاه	-8.32283
▁گذاشته	-8.32356
ازه	-8.32516
▁داخل	-8.32595
▁قو	-8.32839
اما	-8.32912
▁بلند	-8.33143
▁باشند	-8.33231
ف	-8.33423
▁بشک	-8.33501
الات	-8.33545
▁اتفاق	-8.3357
ستاره	-8.338
▁بینی	-8.33982
▁قطع	-8.34011
▁۱۲	-8.34012
▁انتظار	-8.34163
▁داستان	-8.34215
وز	-8.34232
▁ارتباط	-8.34385
▁تاریخی	-8.34502
▁اسفند	-8.35104
▁کودکان	-8.35357
▁شدت	-8.35449
▁تن	-8.3549
▁نفتی	-8.35635
▁۷	-8.35637
▁محکوم	-8.35638
سی	-8.35659
▁داشتند	-8.35699
▁هنگام	-8.35839
▁بهتر	-8.35984
▁سیستم	-8.36108
▁فینال	-8.36271
▁آبان	-8.36303
▁نوع	-8.36305
▁الکتریکی	-8.36402
▁۱۴۰۰	-8.36459
▁۱	-8.36485
▁رقم	-8.36487
▁مارادونا	-8.36531
▁نو	-8.3655
▁پیشین	-8.36596
▁کسان	-8.36724
▁کس	-8.36848
▁فروردین	-8.37
▁۲۰۱۹	-8.37017
▁داخلی	-8.37021
▁چگون	-8.37069
▁مسئولان	-8.37071
▁ورزشگاه	-8.37123
▁دوبار	-8.37169
▁قدرت	-8.37211
▁صندوق	-8.37219
▁مانده	-8.37373
▁فرهنگ	-8.37449
▁دار	-8.37533
لی	-8.37656
▁فارسی	-8.37782
▁انتقاد	-8.37836
▁موج	-8.37902
▁تحقیقات	-8.37998
▁کووید	-8.38326
▁کلی	-8.38376
▁بارسلونا	-8.38414
▁ایتالیا	-8.38498
دی	-8.38568
▁مصوب	-8.38832
▁قرارداد	-8.38982
▁چهارم	-8.39116
▁نبود	-8.39457
رونده	-8.39509
▁اروپایی	-8.39535
▁اتهام	-8.39616
نده	-8.39943
▁شامل	-8.4018
▁آنچ	-8.40245
▁تحقیق	-8.40449
▁تصوی	-8.40455
▁جمعیت	-8.40639
▁موسس	-8.40889
۸	-8.40966
▁دوشنبه	-8.41042
▁اسکار	-8.41111
▁جنوب	-8.41227
وی	-8.41246
▁مرغ	-8.41265
▁قبلی	-8.4128
▁مربی	-8.41697
▁سیاه	-8.41753
▁فعال	-8.41784
▁نیروهای	-8.41806
▁نهاد	-8.4206
▁طولانی	-8.42422
▁دونالد	-8.42585
▁آمد	-8.4264
▁۹	-8.42865
ستاد	-8.42982
▁روزنامه	-8.43014
▁معاملات	-8.43119
▁گیرد	-8.43265
▁فکر	-8.43597
▁شهرهای	-8.43618
▁یاد	-8.43666
▁کنید	-8.43851
▁قرن	-8.43863
بی	-8.43981
▁دقیقه	-8.4407
▁محیط	-8.44456
▁خروج	-8.44521
▁ماسک	-8.44523
▁ناشی	-8.44606
▁دادند	-8.44672
▁طر	-8.44677
▁سایر	-8.44716
▁هنر	-8.44807
▁تشکیل	-8.45017
▁مبتلا	-8.4504
▁جشنواره	-8.45309
▁پشت	-8.45635
▁شکایت	-8.45964
▁بودن	-8.46004
▁امکان	-8.46508
▁۶۰	-8.46517
▁مشکل	-8.46555
▁غنی	-8.46651
▁هنری	-8.4666
▁فن	-8.46716
▁دستور	-8.46866
▁کارگران	-8.4713
▁شجریان	-8.47292
▁پروژه	-8.47338
▁محلی	-8.47523
▁۲۲	-8.47696
▁طبق	-8.47815
▁واحد	-8.48066
▁تامین	-8.48114
▁تجاری	-8.48165
▁ملل	-8.48322
▁درمان	-8.48534
▁اجرا	-8.48677
▁احتمال	-8.48753
▁سریال	-8.48832
▁ع	-8.48849
▁حساب	-8.48984
▁ممنوع	-8.49412
▁تاکید	-8.49479
▁قوانین	-8.49521
▁نویسنده	-8.49539
▁پرو	-8.49543
▁نیروی	-8.49761
▁کنم	-8.49914
▁گ	-8.50042
▁آسیب	-8.50232
پس	-8.50395
ج	-8.50418
▁واردات	-8.50647
▁علت	-8.50693
▁شاخص	-8.50734
گاه	-8.50882
▁فضای	-8.50933
▁متفاوت	-8.50973
▁شماری	-8.51101
▁دسترس	-8.51133
▁باقی	-8.51141
▁۸	-8.51565
▁ابتدای	-8.51696
▁کنترل	-8.51755
▁درخواست	-8.51848
▁ضرب	-8.52034
▁تک	-8.52127
▁کارگردان	-8.52156
نگ	-8.52288
یق	-8.52501
انی	-8.52982
▁آورد	-8.53196
▁یع	-8.53485
▁شان	-8.53754
▁سیتی	-8.53965
▁ترتیب	-8.53999
▁محدود	-8.54086
▁آتش	-8.54087
▁قرمز	-8.54203
▁نقاشی	-8.54445
▁بندی	-8.54493
▁تجرب	-8.54614
▁مسی	-8.54681
▁فعالان	-8.54746
▁نگهبان	-8.54777
▁اولیه	-8.54779
▁فهرست	-8.54796
▁چپ	-8.54806
▁تهدید	-8.55019
▁علاو	-8.55275
▁مسیر	-8.55368
▁۱۱	-8.55515
▁اختیار	-8.55532
▁اف	-8.55627
▁آوریل	-8.55673
▁پایین	-8.55842
▁سنت	-8.55886
▁پای	-8.55907
۰	-8.55964
▁عامل	-8.56232
▁عباس	-8.56259
▁شما	-8.56302
▁چهارشنبه	-8.56378
▁یکشنبه	-8.56459
▁صحبت	-8.56471
▁کوتاه	-8.56487
▁گذشت	-8.56606
▁هایش	-8.56679
▁روبرو	-8.57075
▁همیشه	-8.57202
▁جمعه	-8.57244
▁ونزوئلا	-8.57283
▁مشترک	-8.57286
▁بنزین	-8.57309
▁کوچک	-8.57627
▁ط	-8.57693
▁رنگ	-8.57836
▁۴۰	-8.57879
سیون	-8.57963
▁زد	-8.57993
۴	-8.58002
▁مواد	-8.58028
▁اعدام	-8.58168
▁سوخت	-8.58387
▁وین	-8.58514
▁حذف	-8.58828
▁بتوان	-8.58837
▁بیرون	-8.58861
▁زاده	-8.58943
▁صفح	-8.58949
▁ترکیب	-8.58961
۰۰	-8.59201
▁مسئول	-8.59245
▁موارد	-8.59651
▁احمد	-8.59809
▁روابط	-8.59827
▁نژاد	-8.59908
▁خصوصی	-8.59934
▁بگیرد	-8.60401
▁چاپ	-8.60449
▁اتاق	-8.60452
یی	-8.60459
▁توپ	-8.60466
▁رییس	-8.60502
▁۵۰	-8.60542
▁هرات	-8.60605
▁شهروندان	-8.60655
▁محمود	-8.60753
▁صادر	-8.60905
▁عمل	-8.61054
▁من	-8.61077
▁اس	-8.61112
▁آرژانتین	-8.61254
حفظ	-8.61292
▁سمت	-8.61424
▁حرفه	-8.61554
۲	-8.61638
▁احتمالا	-8.61639
▁هشت	-8.61814
▁خوانده	-8.61874
طور	-8.61895
▁مرتبط	-8.62037
▁خوزستان	-8.62041
▁نقطه	-8.62067
▁سراسر	-8.62166
▁میزبان	-8.62259
▁فرد	-8.62446
▁قطر	-8.62486
سازی	-8.6259
▁احیا	-8.62967
اساس	-8.62977
▁حل	-8.62979
▁سرعت	-8.63158
▁خون	-8.63169
▁هوا	-8.63314
▁۱۴	-8.63354
▁ال	-8.6337
▁آستان	-8.63523
▁اختلاف	-8.6372
▁ولایت	-8.63734
▁انفجار	-8.63774
ید	-8.64129
▁قصد	-8.64139
▁بارها	-8.64219
▁اندازه	-8.64269
▁کالا	-8.64587
▁کیلومتر	-8.64681
▁نظام	-8.64699
▁شاهد	-8.64758
▁بیست	-8.64882
▁امضا	-8.64913
مه	-8.65141
▁جمع	-8.65313
▁سلامت	-8.65372
▁ما	-8.65434
▁اخیرا	-8.65446
▁سقوط	-8.65515
▁متر	-8.65567
▁دفاع	-8.65584
▁سرطان	-8.65622
▁برده	-8.65662
▁بیشتری	-8.65829
▁بدن	-8.65915
▁شاید	-8.65916
▁تاکنون	-8.65937
▁اطلاع	-8.6595
▁شناس	-8.65979
▁غرب	-8.66427
▁مارس	-8.66446
▁نتایج	-8.6652
▁مصرف	-8.66542
▁جهش	-8.66567
▁۱۶	-8.66742
▁هواپیمایی	-8.66819
▁کاملا	-8.66832
▁جز	-8.66838
▁۲۰۱	-8.6706
▁بازیگر	-8.67255
▁لازم	-8.67269
▁معروف	-8.67352
▁توییتر	-8.67678
▁افتاد	-8.67721
▁قانونی	-8.67818
▁روشن	-8.67995
▁فرصت	-8.6821
▁هواداران	-8.68312
▁دارایی	-8.68498
▁۱۷	-8.68614
یین	-8.68649
▁تا	-8.68753
▁مه	-8.68834
لق	-8.68845
▁ندارند	-8.68983
▁مناطق	-8.68989
▁اعمال	-8.69008
▁تقریبا	-8.69034
▁پارسال	-8.69037
▁تجارت	-8.6904
رفع	-8.69197
▁پیشنهاد	-8.69207
▁کنندگان	-8.69228
▁عد	-8.69254
▁آماده	-8.69304
▁نهادهای	-8.69462
▁اداره	-8.69467
۵	-8.69468
▁مرز	-8.70134
▁ان	-8.70295
▁گفتگو	-8.70306
▁کاری	-8.70509
▁بریتانیایی	-8.70567
▁نظیر	-8.70782
▁موفق	-8.70792
▁واقع	-8.70825
▁تجمع	-8.70874
▁پاریس	-8.70909
▁استرالیا	-8.71082
▁رسیدن	-8.71178
▁شمال	-8.71295
▁گروهی	-8.71567
▁افغان	-8.71648
▁ق	-8.71695
▁رعایت	-8.71716
▁کارگر	-8.72002
▁یورو	-8.72078
▁هنو	-8.72396
▁صفر	-8.72525
▁مذاکر	-8.72584
▁حادثه	-8.72728
▁عملیات	-8.72778
▁اقدامات	-8.72811
▁۹۸	-8.72817
▁دلایل	-8.72829
▁اعتراضات	-8.72908
▁فضایی	-8.72983
▁رفتن	-8.72999
▁ماند	-8.7315
▁توسعه	-8.73579
▁۲۰۲۱	-8.73609
▁عملکرد	-8.73676
▁اوپک	-8.73735
▁تصاویر	-8.73806
▁تاج	-8.73952
▁کن	-8.74064
▁۱۸	-8.74131
▁مشهور	-8.74236
▁پژوهش	-8.74291
▁مردان	-8.7432
▁مقایس	-8.74523
▁طلا	-8.74531
▁بحرین	-8.74568
▁پرواز	-8.74575
علی	-8.74625
▁قلب	-8.74759
▁خ	-8.74911
▁باخت	-8.75108
▁زنده	-8.75124
▁دهم	-8.75153
▁تابستان	-8.75165
▁دومین	-8.75196
▁بد	-8.75203
▁ماهه	-8.75268
▁تاجیکستان	-8.75454
▁کشف	-8.75597
▁یونایتد	-8.75782
▁خودروساز	-8.76024
تی	-8.76062
▁انگیز	-8.76182
▁حد	-8.76227
▁مواجه	-8.76406
▁پایتخت	-8.76407
▁مد	-8.76912
▁پا	-8.76976
▁خواننده	-8.77042
۶	-8.77381
▁بخوانید	-8.7739
▁توصیف	-8.77408
▁سفید	-8.77424
▁مالیات	-8.77597
▁فوت	-8.78112
▁بالاتر	-8.78357
▁۵۰۰	-8.78431
▁واکسین	-8.78486
ع	-8.78505
▁سنگ	-8.78522
▁حق	-8.78576
ایران	-8.78588
▁کاخ	-8.78592
▁سنگین	-8.78704
▁رانند	-8.78835
▁جنسی	-8.78976
▁رشت	-8.79464
▁موفقیت	-8.79481
▁پخ	-8.79493
حه	-8.7955
▁محمو	-8.79558
▁مانع	-8.79568
یون	-8.79738
▁خواهان	-8.79739
▁رساند	-8.79754
▁مجموع	-8.7977
▁منتق	-8.79889
▁تهی	-8.79893
▁بال	-8.80003
▁سود	-8.80066
عده	-8.80203
▁مهر	-8.80243
▁ایمن	-8.80332
▁مجدد	-8.8037
▁سریع	-8.80373
▁مشابه	-8.80408
▁برخورد	-8.808
▁نشد	-8.80843
▁۱۰۰	-8.81396
▁کانال	-8.81495
▁بهبود	-8.8154
براز	-8.8164
▁کدام	-8.81912
▁پور	-8.81989
▁مشغول	-8.82215
▁مجبور	-8.82378
▁نظارت	-8.82422
▁مجوز	-8.82455
▁خصوص	-8.82457
▁برسد	-8.82467
▁موافقت	-8.82513
▁گردد	-8.82518
▁اسپانیا	-8.8257
▁گمرک	-8.82572
▁بیکار	-8.82593
▁صدای	-8.82815
▁تغییرات	-8.82818
▁روش	-8.82946
▁گون	-8.83019
▁زیست	-8.83141
ممنوعیت	-8.83206
۳	-8.83389
▁رکود	-8.8357
▁موزه	-8.83619
▁عمده	-8.8366
▁نسل	-8.83704
▁پیام	-8.83758
گر	-8.83955
▁سایت	-8.84058
▁خالی	-8.84219
اخر	-8.84305
▁محروم	-8.84344
▁کشورها	-8.84374
▁دنیای	-8.84656
▁فدرر	-8.84844
▁کمیت	-8.84874
▁کنون	-8.85034
▁واقعی	-8.85055
▁آید	-8.85148
▁مستند	-8.85254
▁حوز	-8.85604
▁نفتکش	-8.85606
▁حت	-8.85685
▁افتاده	-8.85706
▁مل	-8.85737
▁خواند	-8.85763
▁سفیر	-8.85803
▁بحث	-8.85807
▁چلسی	-8.85825
▁خاک	-8.85986
▁نگران	-8.86164
▁خبرنگار	-8.86284
▁عبور	-8.86286
▁مت	-8.8629
▁ارزی	-8.86316
مان	-8.86503
▁دچار	-8.86573
▁ظرف	-8.86579
▁احمدی	-8.86657
▁فساد	-8.86661
▁جدول	-8.8668
▁طبیعی	-8.86681
▁علمی	-8.86682
▁مجازی	-8.86778
▁صدا	-8.86794
▁ابتدا	-8.86804
▁تماشاگر	-8.86875
▁شاه	-8.87269
▁سوار	-8.87454
▁یابد	-8.8756
▁حداقل	-8.8764
▁ژوئن	-8.87641
▁پدر	-8.87879
▁تاتنهام	-8.87975
▁لای	-8.88031
▁خودروهای	-8.88287
▁سا	-8.88295
▁گذار	-8.88356
▁رمان	-8.88381
▁رفتار	-8.88535
▁اضاف	-8.88575
▁ایالت	-8.88596
▁مر	-8.88735
▁ارشد	-8.88811
▁اینترنت	-8.88812
▁منچستر	-8.88827
▁زخم	-8.88839
▁مادر	-8.88982
▁پیشتر	-8.88984
▁ز	-8.88989
▁بهمن	-8.89053
▁گذاشت	-8.8918
اس	-8.89374
▁دریا	-8.89526
یر	-8.89636
▁بازارهای	-8.89683
یا	-8.89767
▁تی	-8.89981
ام	-8.90081
▁دفتر	-8.90172
▁فنی	-8.90178
▁حریف	-8.9049
خبرگزا	-8.9055
۷	-8.90788
▁جشن	-8.91111
▁عهد	-8.91113
▁درست	-8.91422
▁وضع	-8.91662
▁۲۴	-8.91925
▁شعر	-8.91946
▁چه	-8.91959
▁میدان	-8.92025
▁مادرید	-8.92177
▁مغز	-8.92284
▁سینمایی	-8.92391
▁مجله	-8.92432
▁۲۳	-8.92465
▁بهار	-8.927
▁جنگل	-8.92717
▁کودک	-8.92759
▁پروازهای	-8.92997
▁۹۰	-8.93207
دو	-8.93229
وایل	-8.93256
▁۱۳۹۹	-8.93272
▁قدیمی	-8.93388
محمد	-8.93403
▁پنجم	-8.93471
▁ل	-8.93615
▁رخ	-8.93693
▁اورا	-8.93836
▁کارشناسان	-8.93899
▁حسین	-8.93918
ویه	-8.94059
▁برداشت	-8.94159
▁توضیح	-8.94225
ریق	-8.94265
▁صبح	-8.94376
▁هدایت	-8.9442
باره	-8.94434
▁پل	-8.94497
▁پوند	-8.94511
▁فارس	-8.94545
خش	-8.94577
▁راست	-8.94919
▁ژاپن	-8.95348
بیشتر	-8.95461
▁جدا	-8.95475
▁امیر	-8.95526
▁حزب	-8.95535
▁پاسداران	-8.95543
▁عدالت	-8.95549
▁معتقد	-8.95549
▁دختر	-8.9557
▁رابطه	-8.956
▁امیدوار	-8.95808
نمایی	-8.9593
▁حرف	-8.96005
▁گر	-8.96024
▁بو	-8.96219
▁اوت	-8.96415
▁بنز	-8.96456
▁بستر	-8.96456
▁سکه	-8.96554
▁-	-8.96576
▁نقاط	-8.96684
▁تورنمنت	-8.96687
▁سوئیس	-8.96736
▁قاچاق	-8.96757
عودی	-8.96782
▁دوست	-8.96883
▁درواز	-8.96884
▁مخالفت	-8.9691
▁موجب	-8.96952
▁اوراق	-8.97057
▁دارو	-8.97299
▁سعید	-8.97416
نیوم	-8.9772
▁روزانه	-8.97769
▁نشری	-8.97854
▁انگلستان	-8.97888
▁مقررات	-8.9789
▁گوش	-8.97899
▁سرشناس	-8.97902
▁اردیبهشت	-8.97914
▁موجود	-8.98034
▁ضد	-8.98123
▁زدن	-8.98148
▁سوریه	-8.98148
▁خورد	-8.98377
▁جایی	-8.98609
اسیون	-8.98624
۱	-8.9876
▁دکتر	-8.98821
▁ملت	-8.98964
▁دید	-8.99086
▁زنی	-8.99089
▁ارتش	-8.99168
▁اظهارات	-8.99204
▁فر	-8.99278
▁بیمار	-8.99352
▁صدر	-8.99407
▁۲۸	-8.99769
▁امید	-9.00011
▁کارکنان	-9.00107
▁فرستاد	-9.00162
▁تقوی	-9.00165
▁شرق	-9.00301
▁فراهم	-9.00317
▁آلبوم	-9.00337
▁قتل	-9.00375
▁جنجال	-9.00487
▁بنا	-9.00548
▁زندانی	-9.00752
▁دقیق	-9.00814
▁ترانه	-9.0112
▁آورده	-9.01249
▁اساسی	-9.01272
ط	-9.01353
تر	-9.01455
▁تعدادی	-9.01517
▁احساس	-9.01534
▁قضائیه	-9.01555
▁بایرن	-9.01568
▁هستیم	-9.01631
▁دانند	-9.01737
▁ساختمان	-9.01757
۹	-9.01766
▁نویس	-9.02134
داری	-9.02157
▁آوری	-9.02187
▁امام	-9.022
کس	-9.02329
▁هنرمند	-9.02415
▁قضایی	-9.02417
▁بیت	-9.0246
▁جدیدی	-9.02463
یات	-9.02509
▁غربی	-9.02613
▁دانشمندان	-9.02623
▁انگلیسی	-9.02791
▁وابست	-9.02793
▁زود	-9.02891
▁معادل	-9.02896
▁جزئیات	-9.02913
▁آموزش	-9.02966
▁آلمانی	-9.02996
گ	-9.03249
▁نداشته	-9.03286
▁علیرضا	-9.03495
▁کارهای	-9.03499
▁اجرایی	-9.03537
▁قطعی	-9.03783
▁بهداشتی	-9.03847
▁روایت	-9.04006
▁مک	-9.04023
▁مثبت	-9.04068
▁فیفا	-9.04167
▁سخنران	-9.04307
▁قبلا	-9.04313
▁دریایی	-9.04322
▁سینمای	-9.04386
▁چندان	-9.04399
▁آبی	-9.04444
▁ظاهر	-9.04519
▁رونالدو	-9.04654
▁کالاهای	-9.04747
▁مستقیم	-9.05074
▁وزن	-9.05077
▁استاد	-9.05289
▁زاغری	-9.05331
▁هوشمند	-9.05335
▁استقبال	-9.05376
▁دوربین	-9.05378
▁علاقه	-9.05396
▁تزریق	-9.05409
▁عجیب	-9.05415
▁کمبود	-9.05512
▁رویترز	-9.0557
▁تیراندازی	-9.05636
▁تشخیص	-9.05752
▁۲۱	-9.05825
▁جوان	-9.05883
▁منف	-9.0607
▁خورشیدی	-9.06106
▁ژان	-9.06179
▁همسر	-9.06383
▁افزوده	-9.06462
▁مسکن	-9.06643
▁مسدود	-9.0667
▁خدمات	-9.06684
▁خانگی	-9.06716
▁تماس	-9.06783
▁مرداد	-9.06847
▁سفارت	-9.06874
▁گستر	-9.06874
▁دبیر	-9.06984
▁مدیریت	-9.07004
▁شخصیت	-9.07096
▁متع	-9.07097
▁مقامات	-9.07252
▁شخصی	-9.0727
▁دریای	-9.07329
▁دل	-9.07636
▁نهایت	-9.07677
▁ژوئیه	-9.07946
▁اخراج	-9.08078
▁سند	-9.08115
▁قسمت	-9.08122
▁بنابر	-9.08154
▁محمدرضا	-9.08275
کنندگان	-9.08346
▁قدم	-9.08382
▁خواهیم	-9.08385
▁صحنه	-9.08398
▁اقیانوس	-9.08598
فورد	-9.08687
▁پیشرفت	-9.08956
▁متوسط	-9.09003
▁فوری	-9.09016
▁محصولات	-9.09359
▁داریم	-9.09549
▁گرفتند	-9.09587
▁فعلی	-9.09634
▁نور	-9.09685
▁بازرگانی	-9.09692
▁فوریه	-9.09732
▁راهی	-9.09792
▁بیماران	-9.09822
پ	-9.09835
فدراسیون	-9.10136
▁تومانی	-9.10235
▁مالک	-9.10273
▁پوست	-9.10306
▁بن	-9.10323
▁غذا	-9.10501
▁مکان	-9.10519
▁مدافع	-9.1072
▁چک	-9.10723
▁دوچرخه	-9.10737
▁مدعی	-9.10741
▁طالبان	-9.10802
▁موقت	-9.10851
▁معترضان	-9.10885
▁توصی	-9.11042
مهدی	-9.11076
▁رضا	-9.11218
▁معنای	-9.11364
▁ساز	-9.11481
ازگی	-9.11521
▁پیوست	-9.11569
گاهی	-9.11602
▁پذیر	-9.118
توجه	-9.11814
▁العاده	-9.12002
▁موقعیت	-9.12058
▁لحظ	-9.12107
▁جوایز	-9.12129
▁کاربران	-9.12139
▁خرداد	-9.12145
▁کوین	-9.12267
▁معمولا	-9.12285
▁حداکثر	-9.12298
▁دانش	-9.12309
▁رئال	-9.12319
▁فرمانده	-9.12379
▁مجید	-9.12397
▁ناظر	-9.12663
▁۳۰۰	-9.12706
▁جمعی	-9.13048
▁۲۰۱۷	-9.13419
▁مبلغ	-9.13427
▁نوامبر	-9.1345
▁مبتلایان	-9.13469
▁سرخ	-9.13498
▁نشود	-9.13508
▁سیستان	-9.13517
▁نخواه	-9.13597
▁صوتی	-9.13602
▁ارسال	-9.13605
▁۲۶	-9.1364
▁صعود	-9.1372
▁نداشت	-9.1376
▁دین	-9.1387
▁کنونی	-9.13911
کی	-9.13913
ول	-9.13931
▁گرم	-9.1401
▁خورده	-9.14099
▁مهار	-9.1431
▁غذای	-9.14463
▁نقدینگی	-9.14799
▁بلوچستان	-9.14803
▁اسطوره	-9.14913
▁پنجشنبه	-9.14941
▁مراجع	-9.14952
▁تخریب	-9.14968
▁مطالع	-9.14971
▁تقاضا	-9.15007
▁۷۰	-9.15079
▁مدیران	-9.15142
▁سوال	-9.15152
ح	-9.15164
نقض	-9.15325
رد	-9.15518
▁اوج	-9.15656
▁درآمدهای	-9.15732
وم	-9.15812
▁شهروند	-9.15937
▁اصلاح	-9.15977
▁فرزند	-9.16007
▁صنایع	-9.16267
▁مسلح	-9.16281
▁خلق	-9.16335
▁فایل	-9.16386
▁ماموران	-9.1641
▁نیویورک	-9.16446
▁دستگیر	-9.16586
▁۹۹	-9.16645
▁پاکستان	-9.16703
▁نشر	-9.16737
یابی	-9.16801
▁کشاورز	-9.16868
▁هموار	-9.16965
لیک	-9.16987
▁منج	-9.17004
▁هاست	-9.17013
▁۳۵	-9.17153
قیف	-9.17212
قانونی	-9.17511
▁صاحب	-9.17584
▁نگهداری	-9.17686
مقام	-9.17701
▁لباس	-9.17725
▁درگیری	-9.18045
▁مخالفان	-9.181
▁دختران	-9.18259
▁کشورش	-9.18273
حسین	-9.18315
▁مجری	-9.18367
▁برج	-9.18377
اوری	-9.18427
▁احتمالی	-9.1851
▁زندانیان	-9.18517
سازمان	-9.1852
▁معتبر	-9.18658
▁مرزی	-9.18965
▁آل	-9.19108
▁تحویل	-9.19146
▁سراوان	-9.19149
▁فو	-9.19153
▁چالش	-9.19179
▁معرض	-9.19228
یان	-9.19259
▁حاشیه	-9.19325
▁گران	-9.19346
رنگ	-9.19429
▁یکدیگر	-9.19441
▁نوری	-9.19498
▁مسافران	-9.19539
▁سعی	-9.19589
▁عرب	-9.19727
▁خبرنگاران	-9.19791
▁تصور	-9.19876
▁حمل	-9.19931
▁ساکن	-9.20035
▁یو	-9.20083
وزارت	-9.20149
▁تیر	-9.20523
▁صلح	-9.20658
کسی	-9.20669
▁لو	-9.20681
▁کمیس	-9.20725
▁معامل	-9.20728
▁چیست	-9.20739
▁ادبیات	-9.20746
▁واشنگتن	-9.20776
▁فردا	-9.20782
▁نویسندگان	-9.20892
▁شاعر	-9.20895
▁گیرند	-9.20964
▁رافائل	-9.21114
وق	-9.21189
قب	-9.214
▁اسرائیلی	-9.21444
▁۳۱	-9.21537
تان	-9.21674
▁برود	-9.2172
▁مایک	-9.21723
▁سپاهان	-9.21756
▁نتوانست	-9.21809
سال	-9.21813
▁کردم	-9.21837
▁برگشت	-9.21973
▁توکیو	-9.22154
▁آرام	-9.2255
▁دشوار	-9.22615
▁برزیل	-9.22894
▁۸۰	-9.2306
خواهد	-9.23423
▁تقاضای	-9.23506
▁بعدی	-9.23542
▁جراح	-9.23557
▁تمرین	-9.23621
▁اختصاص	-9.23691
▁اهمیت	-9.23691
▁متعدد	-9.23704
▁بهادار	-9.23714
▁تاخیر	-9.23729
▁اخبار	-9.23739
▁مدیرعامل	-9.23839
▁صرف	-9.23962
است	-9.24166
▁درگیر	-9.24354
▁آسمان	-9.24595
▁عین	-9.24792
▁پژوهشگران	-9.24856
▁پارک	-9.24883
▁مالکی	-9.25054
▁آهنگ	-9.25119
یروز	-9.25243
▁فرمو	-9.25247
▁۱۳۹۸	-9.2526
▁حاصل	-9.25263
▁تمدید	-9.25299
▁آمازون	-9.253
▁آنلاین	-9.25302
▁عوامل	-9.25312
▁کنسرت	-9.25329
▁فرانسوی	-9.25351
▁حذفی	-9.25358
▁نحو	-9.25375
▁جوکوویچ	-9.25594
▁ادبی	-9.26025
▁خدم	-9.26228
▁جودو	-9.26379
ستان	-9.2655
▁سیما	-9.26827
زه	-9.26854
▁هنرپیشه	-9.26877
▁اکتبر	-9.26886
▁تمامی	-9.27043
▁دیوان	-9.27085
▁توقف	-9.27104
▁پالایشگاه	-9.27119
▁عادی	-9.2722
▁مراقب	-9.2727
▁تلفن	-9.2746
▁مو	-9.27555
▁خیابان	-9.27698
▁لی	-9.27804
▁توییت	-9.27958
▁ایم	-9.28013
▁مناسب	-9.28079
▁هست	-9.28349
▁تعویق	-9.2845
▁اصفهان	-9.28452
▁ارقام	-9.28498
▁نوبل	-9.28498
▁لوکس	-9.28524
▁تسلا	-9.28536
▁آلودگی	-9.28562
▁نارنجی	-9.28583
▁نادال	-9.2861
▁سبک	-9.28722
▁دیدن	-9.28837
▁صف	-9.2885
▁بعدا	-9.28863
▁هماهنگ	-9.28878
▁دستمزد	-9.28924
▁روزها	-9.2896
▁پست	-9.2896
▁کا	-9.2903
▁تعهدات	-9.29076
▁مهاجم	-9.29101
▁اوپ	-9.29252
▁جواد	-9.29295
▁فردی	-9.29451
▁موتور	-9.2959
▁کارها	-9.29601
ته	-9.29625
▁خوش	-9.29681
▁هواپیما	-9.29919
▁تئاتر	-9.30089
▁کاپیتان	-9.30092
هر	-9.30214
غلب	-9.30303
▁مدرسه	-9.3031
▁جایگاه	-9.30371
▁کارمندان	-9.30478
▁ض	-9.30505
▁انجمن	-9.30592
رکت	-9.30655
▁راجر	-9.3072
دار	-9.31026
▁حیات	-9.31112
▁برمی	-9.31177
دولت	-9.31407
رضا	-9.31422
▁مشا	-9.31494
هایی	-9.3172
▁جذب	-9.31751
▁مونیخ	-9.31757
▁خیل	-9.31766
▁ثابت	-9.31806
▁حفاظت	-9.31813
▁مریخ	-9.31873
▁ضمن	-9.31971
خانم	-9.31992
▁گرند	-9.32074
اره	-9.32141
▁چهل	-9.32172
▁نفس	-9.32187
▁ثانی	-9.32224
▁محبوب	-9.32235
▁هنرمندان	-9.32366
▁کافی	-9.32368
▁حسینی	-9.32453
▁شبانه	-9.32523
▁بازگرداند	-9.32587
▁فرود	-9.32707
▁واقعیت	-9.32716
▁نوروز	-9.32921
اسی	-9.33006
▁ابلاغ	-9.33051
تبه	-9.33302
▁قالیباف	-9.33453
▁بقیه	-9.33459
▁ماهی	-9.33503
▁هواپیمای	-9.33581
▁عصر	-9.33626
▁حاکی	-9.33681
من	-9.33691
▁واگذار	-9.33695
▁سهم	-9.33732
▁کرونای	-9.33765
▁فرهاد	-9.33833
وع	-9.33885
▁گذارد	-9.33937
▁آمیز	-9.33948
ران	-9.342
رسدس	-9.34202
▁مربیان	-9.34365
▁اشتباه	-9.34375
▁داروی	-9.34421
▁نمو	-9.34478
▁مراک	-9.34555
برای	-9.34858
▁آزار	-9.35144
▁رادیو	-9.35166
▁وکیل	-9.35197
▁متولد	-9.35204
▁وگو	-9.35252
▁برجسته	-9.35255
▁ماموریت	-9.35264
▁جیمز	-9.35391
▁حکام	-9.35412
وه	-9.35456
لو	-9.35476
▁خشک	-9.35489
▁برقرار	-9.35534
▁پزشک	-9.35547
چند	-9.35587
بط	-9.35658
▁ارزها	-9.35661
▁اتریش	-9.35727
▁اتفاقات	-9.35775
سه	-9.35874
▁نگه	-9.36148
▁مارک	-9.3636
را	-9.36514
رئیس	-9.36537
▁شیو	-9.36649
▁اینستاگرام	-9.36753
▁ناگهان	-9.36932
▁خسارت	-9.36933
▁نجات	-9.36936
▁صلاحیت	-9.3695
▁میراث	-9.36991
▁بازنشستگان	-9.37004
▁شهریور	-9.37027
▁گذرد	-9.37074
ذیب	-9.37085
▁لیون	-9.37185
▁کوه	-9.37224
▁گلستان	-9.37236
تنظیم	-9.37341
▁داشتن	-9.37367
▁همتی	-9.37544
▁رهبری	-9.37626
▁حقوقی	-9.37682
▁دامن	-9.37722
▁درجه	-9.37752
▁اکبر	-9.37809
امبر	-9.37963
▁رقیب	-9.38053
▁لس	-9.38121
▁داور	-9.38284
▁۲۹	-9.38376
▁باره	-9.38427
▁شمالی	-9.38515
▁پرس	-9.38655
▁تحصیل	-9.38659
▁مسائل	-9.38722
▁مواردی	-9.38727
قدر	-9.38773
▁مسئ	-9.38782
باید	-9.38783
▁ایستگاه	-9.3882
▁بدهی	-9.38855
▁ساحل	-9.38857
▁رسما	-9.38868
▁شناسا	-9.38873
ود	-9.39121
▁اندازی	-9.39132
▁ورزشکاران	-9.39173
بس	-9.39177
نا	-9.39229
▁اصل	-9.3923
▁تخم	-9.39308
▁منتقدان	-9.39351
▁مشاهد	-9.39422
▁بنیاد	-9.39503
▁مخالف	-9.39524
تیم	-9.39616
▁نکرد	-9.39682
▁عدد	-9.39689
ما	-9.39711
▁دسته	-9.39787
▁گام	-9.39849
▁آفریقا	-9.39853
▁ذهن	-9.39867
▁آور	-9.39912
کار	-9.40027
▁دا	-9.40249
▁سلطنت	-9.40535
▁آنجلس	-9.40565
▁تردد	-9.40568
▁شناسی	-9.40592
▁آذر	-9.40646
▁امارات	-9.40707
▁شرقی	-9.40707
▁ملک	-9.40833
واج	-9.40845
▁مطابق	-9.40949
▁پاس	-9.40977
▁نرم	-9.41033
پیش	-9.41143
▁محمدی	-9.41175
▁ترس	-9.41242
▁سهمی	-9.41376
▁ناز	-9.41427
▁گفتند	-9.41597
▁مسافر	-9.41619
▁گیر	-9.41663
گزارش	-9.41904
▁بان	-9.42001
یکی	-9.42076
▁زند	-9.42153
▁خشونت	-9.42383
▁اجلاس	-9.42387
▁مصنوعی	-9.42389
▁مشمول	-9.42393
علوم	-9.42434
▁ایسنا	-9.42462
▁افتخار	-9.42473
▁پروتکل	-9.42498
▁تاسیسات	-9.42552
▁حس	-9.42637
▁سرپرست	-9.42671
شیدا	-9.42682
▁سلیمانی	-9.42684
▁آکادمی	-9.4273
▁ایتالیایی	-9.42736
▁سامانه	-9.42764
▁گمان	-9.42884
سته	-9.42932
اب	-9.43053
▁گرانی	-9.43207
▁کلاس	-9.4342
▁محققان	-9.43491
▁شغل	-9.43629
▁پدرش	-9.43651
▁پسر	-9.43719
گری	-9.43809
▁ورزشکار	-9.44072
▁کارشناس	-9.44239
▁ماجرا	-9.44266
▁توزیع	-9.44269
▁دیجیتال	-9.44272
▁تشویق	-9.44279
ضاع	-9.44303
▁فرودگاه	-9.44311
▁آهن	-9.44319
▁پلاس	-9.44324
▁شاغل	-9.44332
▁قبول	-9.44348
▁رانندگان	-9.44457
▁هویت	-9.445
▁موثر	-9.44517
▁توانسته	-9.44522
▁زاد	-9.4455
▁تولد	-9.44571
▁محرم	-9.44676
▁عبدال	-9.44724
▁دارای	-9.44763
▁درک	-9.44836
▁نهم	-9.4487
یست	-9.44929
▁تری	-9.4499
▁صدو	-9.45146
▁بزرگتری	-9.45151
▁هرچ	-9.45179
▁سخنان	-9.45237
ساوی	-9.45271
شب	-9.45296
▁ازد	-9.45346
▁اجا	-9.45575
▁میلان	-9.45641
▁داند	-9.45717
▁برآورد	-9.4582
▁دام	-9.45863
▁قالب	-9.46209
▁جبران	-9.46213
▁سوپر	-9.46292
▁اجاره	-9.46338
▁آرسنال	-9.46377
▁قربانیان	-9.46435
▁کردیم	-9.46573
▁برادر	-9.46608
▁کلوپ	-9.46678
▁انتخاباتی	-9.46756
اری	-9.46847
▁دادستان	-9.4697
▁الدین	-9.47237
۱۸	-9.47251
▁ابراهیم	-9.4736
▁الملل	-9.47378
▁شهرداری	-9.47427
▁فضا	-9.47536
▁اطراف	-9.47541
شویی	-9.47607
▁اقلیم	-9.47692
▁خلی	-9.47789
▁عمیق	-9.47932
▁حوادث	-9.48152
▁اتومبیل	-9.48155
▁اعتبار	-9.48161
▁الهام	-9.48175
▁روان	-9.48201
▁اهواز	-9.4826
▁عرص	-9.48336
▁ایرنا	-9.48341
▁گری	-9.48344
▁خیریه	-9.48359
▁طرفداران	-9.4843
▁نقاش	-9.48495
▁بیان	-9.48666
▁عکاسی	-9.48676
▁گردشگری	-9.48773
▁اطلاعی	-9.48783
▁جوانان	-9.48842
▁بندر	-9.48908
▁جلوی	-9.48925
انجام	-9.48926
▁موسو	-9.48966
▁زمستان	-9.49138
رگز	-9.49139
▁قول	-9.49379
جا	-9.49522
▁۴۵	-9.49534
▁یخ	-9.4954
▁قوی	-9.49594
چنین	-9.49626
▁نیستند	-9.49648
▁رویکرد	-9.4988
▁مج	-9.50037
▁موشک	-9.50043
▁جه	-9.50053
وئل	-9.50103
▁نطنز	-9.50152
▁مشهد	-9.50169
▁باور	-9.50184
▁دما	-9.50199
▁فیسبوک	-9.50276
▁یوونتوس	-9.50276
▁حراج	-9.50338
▁صراف	-9.50463
وس	-9.50566
▁تأ	-9.50644
▁مشاور	-9.5066
▁سپت	-9.50702
گرد	-9.50765
اد	-9.50775
▁نداده	-9.50831
▁بند	-9.50975
▁خاص	-9.51144
▁خورشید	-9.51158
▁۳۲	-9.51199
▁ریز	-9.51241
▁نبوده	-9.51293
▁کی	-9.51311
ناصر	-9.51328
همزمان	-9.51344
هم	-9.51395
وال	-9.51403
شار	-9.51681
▁کالاها	-9.51851
▁حملات	-9.52302
▁مجسمه	-9.52317
گانه	-9.52353
▁ناسا	-9.52398
▁فیزیک	-9.52514
▁استعفا	-9.52771
▁چنان	-9.52895
▁شیر	-9.5299
▁سخن	-9.53041
ونه	-9.53108
▁پنجاه	-9.53181
فسور	-9.53232
▁گاه	-9.53737
وید	-9.53827
یل	-9.53949
▁رحمان	-9.5399
▁شهرت	-9.54035
▁محافظ	-9.5408
▁کارت	-9.54106
▁دعوت	-9.54316
▁مقصد	-9.5439
▁نیازمند	-9.54402
▁عشق	-9.54403
▁فراموش	-9.54405
▁قاسم	-9.54409
▁پرتاب	-9.54427
▁ناپذیر	-9.5443
▁اسکی	-9.54478
▁منتظر	-9.54529
▁فولاد	-9.54544
▁فرا	-9.54707
کش	-9.54767
تا	-9.5481
▁روانی	-9.54919
▁پزشکان	-9.55001
گفته	-9.55005
افسانه	-9.55151
▁تخت	-9.55153
▁جامع	-9.55272
▁بازرس	-9.55644
▁افزود	-9.55855
▁کیلومتری	-9.56148
نین	-9.5624
▁دوستان	-9.5632
...	-9.56367
▁اسکاتلند	-9.56406
▁۱۳۹۷	-9.56411
▁فعلا	-9.56447
▁مستقل	-9.56488
▁چرخ	-9.56512
▁موضع	-9.56528
▁شهرستان	-9.56536
▁گواردیولا	-9.56537
▁دیپلما	-9.56549
▁کارزار	-9.56563
▁دانیم	-9.56568
▁اطمینان	-9.56598
▁نژادپرست	-9.56735
▁اهل	-9.56778
دست	-9.56804
آزادسازی	-9.56807
▁ملایی	-9.56807
نس	-9.56842
▁فوتبالیست	-9.56848
▁نماد	-9.56952
۱۶	-9.57042
▁تعرف	-9.57062
▁دیوار	-9.57102
▁۴۲	-9.57377
▁اع	-9.575
▁سری	-9.5751
▁سوزی	-9.5761
▁عکاس	-9.5762
▁بلا	-9.5765
دان	-9.57711
▁بخت	-9.57734
تمام	-9.5775
▁نامداری	-9.57867
ریمه	-9.58277
▁مجاز	-9.58281
▁نی	-9.58334
▁جذاب	-9.58401
صد	-9.58428
▁ویمبلدون	-9.58579
▁سرنگون	-9.5858
▁نداریم	-9.586
▁رونق	-9.58615
▁نشدن	-9.58642
▁محسو	-9.58677
▁دسامبر	-9.58712
▁جلب	-9.5875
▁بدهد	-9.58809
▁برخوردار	-9.58837
▁مشتریان	-9.5884
▁ژاپنی	-9.58876
▁همسرش	-9.58932
کته	-9.59138
▁عید	-9.59218
▁شاملو	-9.59288
▁هوش	-9.5931
▁متن	-9.5943
▁اختلال	-9.59519
▁ایستاده	-9.59531
▁عق	-9.59548
کره	-9.59648
▁نوروزی	-9.59661
▁هشتم	-9.59729
رت	-9.5977
▁۴۰۰	-9.59827
▁تست	-9.59988
▁بابا	-9.59988
▁بازدید	-9.60033
نجر	-9.60357
شته	-9.60642
▁بسکتبال	-9.608
▁ژافره	-9.60801
▁اندونزی	-9.60802
▁پرچم	-9.60804
زاده	-9.60838
▁بگیرند	-9.60845
▁تنفس	-9.60854
▁علائم	-9.60866
▁حامل	-9.60891
▁۲۰۱۵	-9.60932
▁۲۷	-9.6096
▁عذر	-9.61033
▁اسپانیایی	-9.61033
▁نفوذ	-9.61122
▁نمایندگی	-9.61351
غم	-9.61388
▁آمدن	-9.614
صت	-9.61436
▁لح	-9.61503
▁بالاتری	-9.61571
یو	-9.61841
▁مادرش	-9.62111
▁ژا	-9.6242
▁انداخته	-9.62524
▁دوز	-9.62798
ماه	-9.62832
▁فرار	-9.62925
▁چشمگیر	-9.62966
▁معدن	-9.62982
▁نامش	-9.63036
▁ژرمن	-9.63074
▁تاسیس	-9.63077
▁شبی	-9.63079
▁مشاغل	-9.63083
▁تعلیق	-9.63084
▁طبیعت	-9.63093
▁هلند	-9.63103
▁آواز	-9.63168
▁فروخته	-9.63189
▁متحد	-9.63243
▁بنیان	-9.63272
▁تبعیض	-9.63273
▁رمز	-9.63288
▁کیفیت	-9.63313
▁خودکشی	-9.63339
▁پن	-9.63468
▁جسد	-9.63481
▁تفاوت	-9.6351
▁مسعود	-9.63511
▁زودتر	-9.63557
▁کشوری	-9.63564
خراج	-9.63578
▁جانب	-9.63593
▁میانه	-9.63837
▁محصول	-9.63924
▁قضاییه	-9.63963
▁همچو	-9.63979
سون	-9.63997
▁بردن	-9.64257
▁یمن	-9.64413
▁روستای	-9.64837
قیمت	-9.649
شدید	-9.64934
▁خاتمی	-9.64991
▁لبنان	-9.65281
▁هن	-9.65305
▁رویداد	-9.65342
▁چارچوب	-9.65397
▁اعتماد	-9.65397
▁پنهان	-9.6541
▁صدرنشین	-9.65431
▁تکرار	-9.65463
▁هفتم	-9.65521
▁شگفت	-9.65522
▁دستورالعمل	-9.65542
▁پاری	-9.65576
▁هاشمی	-9.65608
▁پادشاه	-9.6562
▁پکن	-9.65641
▁عمر	-9.66011
▁دقیقا	-9.66026
▁کانادا	-9.66159
▁داوطلبان	-9.6618
▁قله	-9.66728
▁توجهی	-9.66757
▁گوشت	-9.66765
بعضی	-9.66774
▁خودروسازی	-9.66927
▁ششم	-9.67229
▁یافتن	-9.67257
▁سفرهای	-9.6726
خواهی	-9.67278
▁تحلیل	-9.67433
▁مع	-9.67479
▁نوجوان	-9.67484
▁گزین	-9.67562
▁توانای	-9.67731
قرار	-9.67759
▁روغن	-9.67783
▁انتظامی	-9.67798
▁۳۳	-9.67801
▁مالیاتی	-9.67805
▁زهرا	-9.67841
▁بماند	-9.67843
▁پایگاه	-9.67904
▁شفاف	-9.67905
▁شهرسازی	-9.6795
▁هفتاد	-9.67965
▁برگزید	-9.67993
▁ثبات	-9.68017
▁مهاجرت	-9.6806
▁نامید	-9.68069
▁نادر	-9.68087
رانی	-9.68151
▁اسناد	-9.68229
شرکت	-9.68255
▁آلوده	-9.68346
▁عملا	-9.68678
▁ایفا	-9.68762
لان	-9.68781
▁بازیگران	-9.68851
ئی	-9.68853
▁ساده	-9.68898
یش	-9.68912
هفته	-9.68965
▁نگار	-9.69014
ص	-9.69053
▁خاصی	-9.69144
▁اسدی	-9.6916
▁آنتونی	-9.69315
لاک	-9.69326
▁حقیق	-9.69391
▁امیدواری	-9.69731
▁سرد	-9.69831
▁خلاف	-9.69843
▁معمول	-9.69862
▁نامزدهای	-9.69865
▁اظهار	-9.69939
▁حالت	-9.69955
▁جری	-9.70055
▁خان	-9.70181
▁عبارت	-9.70217
▁استانبول	-9.70221
▁خطرناک	-9.70221
▁اولویت	-9.70227
▁پارلمان	-9.7029
▁تراکتور	-9.70295
▁کالیفرنیا	-9.70297
▁درخشان	-9.70337
▁مجازات	-9.70366
▁نفع	-9.70391
▁انداخت	-9.70437
طفی	-9.70439
▁گشایش	-9.70469
▁یادآور	-9.70519
▁مدیرکل	-9.7059
اگر	-9.70689
داد	-9.70696
▁پانزده	-9.7072
▁سازنده	-9.70749
▁فراز	-9.70756
▁تپ	-9.70775
▁شاهین	-9.70859
عهد	-9.70887
رده	-9.70916
▁مرور	-9.71052
▁مس	-9.71067
▁شانس	-9.71077
▁اسماعیل	-9.71128
غول	-9.71266
▁مرزها	-9.71404
▁۱۵۰	-9.7141
▁درمانی	-9.71452
▁پاک	-9.71519
▁ریش	-9.71573
▁نود	-9.71637
دکتر	-9.7217
▁وحش	-9.72254
اک	-9.72282
▁عاص	-9.72474
▁اص	-9.72497
▁تصادف	-9.72517
شاره	-9.72517
اظ	-9.72663
حدود	-9.7268
▁دیپلماتیک	-9.72768
▁راحت	-9.72795
▁مقدمات	-9.72824
▁استاندار	-9.72842
▁ساعات	-9.72848
▁خطیب	-9.72852
▁متخصص	-9.72871
▁پوشش	-9.72876
▁شواهد	-9.72881
▁مطلب	-9.72939
خ	-9.7295
▁مسئولیت	-9.72954
▁نوسان	-9.73046
▁تعطیلات	-9.73063
▁سانسور	-9.73073
▁جورج	-9.73146
زی	-9.73292
▁واقعا	-9.73535
وش	-9.73556
▁۹۷	-9.7362
▁قار	-9.73626
وخیم	-9.7369
▁شک	-9.7382
حسن	-9.74095
خمین	-9.74281
▁امر	-9.74337
▁دهنده	-9.74438
▁فق	-9.74479
▁تبار	-9.74555
▁منع	-9.74718
▁بازگش	-9.74721
▁تاجیک	-9.74806
▁هتل	-9.74829
▁۳۴	-9.74883
▁خواه	-9.74918
آمریکا	-9.75088
نویه	-9.75133
▁انداز	-9.75136
▁بودم	-9.75136
▁افزار	-9.75175
▁مبن	-9.75226
▁عوارض	-9.75277
▁هالیوود	-9.7528
▁مورینیو	-9.7528
▁تعریف	-9.75283
▁سلول	-9.75309
پدیده	-9.75329
▁۲۰۱۱	-9.75333
▁غافلگیر	-9.7536
▁خطاب	-9.75405
▁فیوری	-9.75406
▁ماراتن	-9.75438
▁شویم	-9.75472
▁تحولات	-9.75512
▁وانت	-9.75518
▁ریال	-9.75583
▁قلع	-9.75604
▁محکومیت	-9.7563
▁مذهبی	-9.7564
▁فرمان	-9.75644
▁یاران	-9.75778
▁تماشای	-9.75918
▁اضطرار	-9.75935
▁منظور	-9.75943
▁ویدیوی	-9.75964
▁تجا	-9.75983
▁آشنا	-9.7616
▁مناسبت	-9.76209
بیشترین	-9.76309
▁ضرور	-9.76349
▁ذر	-9.76408
▁مدرن	-9.7671
▁ژنتیکی	-9.76835
▁سرود	-9.7688
▁تردید	-9.77178
▁شرکتهای	-9.7737
▁دفاعی	-9.77382
اسلم	-9.77394
▁۳۹	-9.77557
▁گشت	-9.77808
▁نیرو	-9.7783
▁بلینکن	-9.77909
▁کیلوگرم	-9.77911
▁ازبکستان	-9.77914
▁نباشد	-9.77953
▁صادرکنندگان	-9.77957
▁تبریز	-9.7796
رو	-9.78032
▁نسخ	-9.78044
▁کانون	-9.78044
▁برکنار	-9.78047
▁تالاب	-9.78075
▁کربن	-9.7808
▁مثال	-9.78091
▁سپرده	-9.78248
▁مرجان	-9.78293
▁بوکس	-9.78351
مت	-9.78374
▁قطب	-9.78387
▁ماجرای	-9.78412
▁زاهد	-9.78446
▁ماندن	-9.78466
▁بهای	-9.78512
▁کریمی	-9.78599
▁همکاران	-9.78613
▁اقامت	-9.78706
▁وقف	-9.78761
واع	-9.7878
یده	-9.78784
▁مسئولین	-9.78947
حمل	-9.79174
کن	-9.79179
▁سالم	-9.79238
▁تحول	-9.79262
▁تل	-9.79386
▁اسب	-9.79573
بانک	-9.79625
▁تماشا	-9.79659
وثی	-9.79709
▁۷۰۰	-9.79785
ریزی	-9.79788
▁قطعه	-9.79808
▁قدر	-9.79841
▁بودیم	-9.79892
▁صادقی	-9.79993
کا	-9.80085
▁کارمند	-9.80206
سکی	-9.80287
کل	-9.80446
جی	-9.80479
▁امضای	-9.8053
▁شهری	-9.8059
▁کهکشان	-9.80612
▁آذربایجان	-9.80614
▁احترام	-9.80614
▁غزنی	-9.80615
▁فراوان	-9.80616
▁سرنوشت	-9.80625
▁آشکار	-9.80637
▁گروسی	-9.80639
▁فروشگاه	-9.80648
▁هو	-9.80671
▁باشیم	-9.80693
▁ردیف	-9.80758
▁کلید	-9.80777
▁فایزر	-9.80859
▁فرو	-9.80881
▁معلوم	-9.80959
▁کیو	-9.80994
ایر	-9.81019
▁محافظت	-9.81072
▁طلب	-9.81074
▁ناکام	-9.81194
▁معن	-9.81246
▁جنسیت	-9.81392
▁باغ	-9.81406
▁کادر	-9.81433
▁درحالی	-9.81454
▁پیگیری	-9.81555
اپی	-9.81587
▁گلزن	-9.81674
▁اجباری	-9.81686
▁خرد	-9.81798
▁۷۵	-9.81835
▁جک	-9.8184
بار	-9.81849
▁جزیر	-9.81995
▁۴۸	-9.81995
▁حا	-9.82
▁اور	-9.82021
▁برنت	-9.82071
خالت	-9.8219
▁عطر	-9.82248
▁موقع	-9.8239
امروز	-9.82404
وزیر	-9.82617
▁اصلا	-9.82746
ابت	-9.82859
۱۴	-9.82968
▁نیمی	-9.82976
▁عفو	-9.83023
▁بهایی	-9.83034
بنابر	-9.83073
▁موافق	-9.83119
▁پژوهشگر	-9.83138
▁اتفاقی	-9.83139
▁آموزشی	-9.83237
▁مدار	-9.83335
▁عمدتا	-9.8339
▁جایگزین	-9.83391
▁مشروط	-9.83394
▁فراتر	-9.83421
▁هافبک	-9.83469
▁مخاطبان	-9.83512
▁پاییز	-9.83521
▁بلژیک	-9.83556
▁پرتغال	-9.83558
▁خمینی	-9.83564
▁اورتون	-9.83568
▁سقف	-9.8357
▁هشتاد	-9.8359
▁خاورمیانه	-9.83647
▁مقدار	-9.83669
▁برگزیت	-9.83675
آزمای	-9.83687
▁خبرساز	-9.83702
▁شرط	-9.8371
▁دهیم	-9.83728
▁بیستم	-9.83799
▁سوئد	-9.83823
▁ابر	-9.83828
▁کریستیان	-9.83869
▁مساوی	-9.8394
▁مرا	-9.84029
▁هجوم	-9.84082
▁کارش	-9.84104
▁خواهم	-9.84116
▁پاپ	-9.84163
ئو	-9.84214
ینگ	-9.84224
▁دایک	-9.8429
▁داغ	-9.84312
▁اتهامات	-9.84336
▁زدند	-9.84394
▁۶۵	-9.84463
▁ذخ	-9.84488
▁علم	-9.84492
مدال	-9.84668
▁تب	-9.84827
دگی	-9.84948
▁کجا	-9.84951
▁حلق	-9.85012
فر	-9.85078
ستگی	-9.85094
باقر	-9.85099
▁بردند	-9.85157
▁فولک	-9.85397
▁دلاری	-9.85419
▁عاشق	-9.85453
سبب	-9.85498
▁مسافرت	-9.85839
▁دائم	-9.85903
▁عظیم	-9.86011
سعید	-9.86018
▁زیبای	-9.86085
▁زنند	-9.86115
▁فقر	-9.86196
▁لذت	-9.86239
▁نساجی	-9.86244
▁آکسفورد	-9.86246
▁جستجو	-9.86246
▁اقلام	-9.86248
▁سلاح	-9.86251
▁اماکن	-9.86255
▁عراقچی	-9.86281
▁جنبش	-9.86281
▁وسیع	-9.86304
▁بگذارد	-9.86308
پور	-9.86314
▁خفاش	-9.86322
▁تجدید	-9.86324
▁مدارس	-9.86337
▁ست	-9.86345
▁پرورش	-9.86382
▁شیری	-9.86424
بری	-9.86452
▁تکمیل	-9.86514
▁وال	-9.86559
▁درون	-9.8658
▁ابتلای	-9.8664
▁سرکوب	-9.86646
▁آرایش	-9.86689
▁فرم	-9.86729
▁رویدادهای	-9.86813
▁مدنی	-9.86884
▁پهلوی	-9.86921
▁روس	-9.87043
▁آماد	-9.87073
نش	-9.87077
▁برون	-9.87084
فرین	-9.87109
▁فان	-9.87132
▁خواب	-9.87153
▁خواهی	-9.87175
▁رحمانی	-9.87186
▁حب	-9.87406
وقت	-9.87961
جمه	-9.87978
▁رویا	-9.88101
▁مح	-9.88143
لند	-9.88316
▁دان	-9.88447
▁مان	-9.88529
▁جی	-9.88775
جه	-9.88812
سخنگوی	-9.8883
رسمی	-9.88979
▁لستر	-9.88988
ادی	-9.89016
▁مص	-9.8909
▁تبلیغ	-9.89116
▁ستار	-9.89172
▁رستوران	-9.89186
▁مازندران	-9.8919
▁غیرمستقیم	-9.8919
▁خطوط	-9.89196
▁نصب	-9.89202
▁مصدومیت	-9.89213
▁هیا	-9.89231
▁عمق	-9.89231
▁شتاب	-9.89234
▁حیوانات	-9.89241
▁منافع	-9.8925
چ	-9.89297
▁تجهیزات	-9.89366
▁بزند	-9.89401
▁تدریج	-9.89423
▁کنفرانس	-9.89452
▁کاوشگر	-9.89454
▁شنا	-9.89463
▁منچسترسیتی	-9.89466
▁ارتباطات	-9.89476
نوبت	-9.89494
▁جواب	-9.89496
▁مسجد	-9.89596
▁آرامش	-9.89655
▁خاوران	-9.89661
▁بخار	-9.89702
▁دانستند	-9.89761
▁اکثر	-9.89784
▁هی	-9.89904
▁فرماندار	-9.8994
▁نابودی	-9.89941
اده	-9.89973
▁صالح	-9.9001
▁خاطرات	-9.9013
▁قص	-9.9044
▁فکری	-9.90493
▁پو	-9.9067
▁گزارشگر	-9.90767
غ	-9.90908
نظر	-9.90944
تصاب	-9.91135
برگ	-9.9121
▁تف	-9.91269
▁وام	-9.9163
▁اسکن	-9.91666
خلاف	-9.91777
▁کسر	-9.91845
الی	-9.91864
▁خیر	-9.91968
لت	-9.92025
▁طلایی	-9.92035
▁زا	-9.92054
ازم	-9.92082
▁۹۶	-9.92139
▁درحال	-9.92157
▁هیئت	-9.92212
▁فرآیند	-9.92215
▁ترجیح	-9.92218
▁واگ	-9.9222
▁پادتن	-9.92305
▁کلمبیا	-9.92308
▁قادر	-9.92339
▁بازنشست	-9.92395
▁پلاستیک	-9.92413
▁جانشین	-9.92422
▁مستمر	-9.92456
▁درد	-9.92471
▁روزگار	-9.92492
▁سوئیسی	-9.92504
▁گذراند	-9.92536
▁روح	-9.92572
▁ضرورت	-9.92602
▁عبدالله	-9.92604
▁شناور	-9.92621
▁قر	-9.92638
▁داری	-9.92642
▁انت	-9.927
▁ذو	-9.92741
طی	-9.92796
▁بهشت	-9.9291
▁فاش	-9.92979
▁باند	-9.93002
ناوند	-9.93168
▁عبوری	-9.93198
عکس	-9.932
▁غلام	-9.93385
▁طلبان	-9.93535
▁آم	-9.93677
دن	-9.9384
▁شی	-9.93869
▁تقس	-9.93906
فت	-9.93911
▁حساس	-9.93917
ریک	-9.93941
خره	-9.93965
▁ضرر	-9.94011
▁برداری	-9.9405
▁صادراتی	-9.94071
▁آزمایشگاه	-9.94123
یس	-9.94132
نازنی	-9.94385
قابل	-9.94427
ابی	-9.94475
▁نیمک	-9.94561
سا	-9.9475
ذ	-9.94812
لوله	-9.94899
▁باری	-9.94949
▁خوان	-9.95119
کاری	-9.95282
▁اینتر	-9.95297
وند	-9.95313
▁اعزام	-9.95338
▁آفتاب	-9.95339
▁تسلیحات	-9.9534
▁حکایت	-9.95341
▁فلوید	-9.95343
وف	-9.95344
▁مطبوعات	-9.95357
▁جانسون	-9.95392
▁بخصوص	-9.95436
▁بدهند	-9.95462
بسیاری	-9.9547
▁هیجان	-9.95545
▁اندک	-9.95559
▁اختلافات	-9.95577
▁فیلمساز	-9.95578
▁ری	-9.95578
▁بامیان	-9.95581
▁اپل	-9.95694
▁قایق	-9.95843
یف	-9.95848
▁مطالب	-9.95859
▁آر	-9.95931
▁خاتم	-9.95937
▁سفارش	-9.96014
▁شا	-9.96097
▁صادق	-9.96256
▁اوبر	-9.96269
▁سالن	-9.96292
▁اقدامی	-9.96369
▁ادا	-9.96409
بنا	-9.9664
▁فیل	-9.96708
▁تاثیرگذار	-9.9676
▁نمای	-9.96762
فاصله	-9.9688
▁ایست	-9.96904
▁پتروش	-9.96921
▁گذر	-9.96996
▁لوئی	-9.97194
▁پرفروش	-9.97273
جمع	-9.97322
▁۴۴	-9.97335
لا	-9.97438
▁زانو	-9.97476
▁آسان	-9.97548
▁برایش	-9.97614
▁مهمتری	-9.97731
▁صورتی	-9.97764
▁جر	-9.98008
رون	-9.98274
▁بیمه	-9.98282
▁زیرا	-9.98367
امسال	-9.984
▁محاسب	-9.98465
▁قاجار	-9.98563
▁بغداد	-9.98563
▁خراسان	-9.98565
▁معاصر	-9.98565
▁خداحافظ	-9.98565
▁گوناگون	-9.98565
▁آنفلوآنزا	-9.98566
▁کش	-9.98627
۲۰۱۲	-9.98631
▁کانری	-9.98672
▁۱۹۸	-9.98709
پیشتر	-9.98717
▁طبری	-9.98735
▁عروسک	-9.98749
▁ایرباس	-9.98757
▁کف	-9.98783
▁تاکسی	-9.98791
▁تور	-9.98832
▁مهد	-9.98959
▁راز	-9.98971
▁تمایل	-9.99065
▁شنیده	-9.99077
▁تاپ	-9.99166
▁توماس	-9.99299
▁اردو	-9.99302
▁ظاهرا	-9.99394
▁منشا	-9.99623
▁نماز	-9.99648
▁همیلتون	-9.99683
▁ار	-9.99727
▁چندی	-9.9974
▁سنا	-9.99851
▁شهرها	-10.0006
دا	-10.001
▁۲۵۰	-10.0015
▁آفریقای	-10.0015
حال	-10.0021
شی	-10.0026
ض	-10.0032
▁ویدیو	-10.0032
▁طلای	-10.0035
▁خیابانی	-10.004
احل	-10.005
▁حج	-10.0055
▁کهن	-10.0068
▁جم	-10.0071
▁آتی	-10.0089
▁رفتند	-10.009
۱۹	-10.0108
▁کو	-10.0114
▁امان	-10.0132
▁کلاسیک	-10.0139
▁۵۷	-10.0142
▁مطل	-10.0147
طئ	-10.0162
▁شوک	-10.0169
مون	-10.0169
▁گوشی	-10.0173
اولین	-10.0177
▁شایع	-10.0179
▁باب	-10.0184
▁تگزاس	-10.019
▁موبایل	-10.019
▁الکترونیک	-10.019
▁شوماخر	-10.019
▁پیامدهای	-10.019
▁دقایق	-10.0192
▁۲۰۲۲	-10.0192
خیص	-10.0195
▁مسکونی	-10.0197
▁ارشاد	-10.0198
▁سرقت	-10.0198
▁ی	-10.0198
▁اسم	-10.0205
▁صمت	-10.0206
▁رسیدند	-10.0208
▁لمس	-10.0209
▁بورل	-10.021
تری	-10.0212
▁جاسوس	-10.0212
▁درخت	-10.0214
قاضی	-10.0215
▁سرزمین	-10.0218
▁استادیوم	-10.0221
▁لحظات	-10.0223
▁بیاید	-10.0225
▁نداشتند	-10.0234
▁سیل	-10.0237
▁منتقد	-10.0241
▁تایسون	-10.0253
▁صند	-10.0259
▁قلم	-10.0265
▁سران	-10.0268
▁نگرفته	-10.0271
▁برند	-10.0278
▁کاسته	-10.0279
پیچیده	-10.0296
▁شکاف	-10.031
ادورو	-10.0311
▁۵۵	-10.0314
▁۳۷	-10.0323
▁قدرتمند	-10.0347
▁فقیر	-10.0369
▁بدتر	-10.0376
اند	-10.0377
▁والی	-10.0385
▁حضورش	-10.0389
▁قیمتها	-10.0392
آنها	-10.0431
کو	-10.0448
حت	-10.0453
▁کشد	-10.0465
▁گرا	-10.0481
بو	-10.0485
اکان	-10.049
▁دانشمند	-10.0498
پی	-10.0503
▁عملی	-10.0513
▁مطمئن	-10.0517
▁لب	-10.0525
جونز	-10.053
تو	-10.0531
▁الحاق	-10.0534
▁پانصد	-10.0534
▁موانع	-10.0535
▁سایپا	-10.0535
چی	-10.0535
اجع	-10.0535
▁یوفا	-10.0535
▁خلاص	-10.0535
▁بنیانگذار	-10.0536
▁وسایل	-10.0536
▁۱۹۸۶	-10.0537
▁یادداشت	-10.0538
▁علامت	-10.054
▁مقاومت	-10.0544
▁ولسوال	-10.0544
▁باشید	-10.0545
▁۲۰۱۰	-10.0545
▁سهامداران	-10.0547
▁نمایشگر	-10.0548
▁سپ	-10.0548
▁اشتغال	-10.0555
▁اولسان	-10.056
▁شکنج	-10.0564
▁اسلام	-10.0567
▁جن	-10.0574
▁دانشجویان	-10.0575
▁وبسایت	-10.0577
▁تاک	-10.0581
▁ربط	-10.0584
رچند	-10.0593
▁بلیت	-10.0603
▁گردن	-10.061
شده	-10.062
▁نرسیده	-10.0628
▁خودم	-10.0637
نکه	-10.0656
▁خودروها	-10.0661
▁حمید	-10.0662
▁فاز	-10.0664
▁ربات	-10.0669
پلیس	-10.0669
▁۳۶	-10.067
راضی	-10.0687
▁امین	-10.0702
▁ذ	-10.0709
▁بشری	-10.0717
▁انبار	-10.0723
▁بزرگتر	-10.0729
دم	-10.0736
▁نقدی	-10.0741
ازی	-10.0756
ساله	-10.0758
▁خو	-10.0758
▁گروگان	-10.0787
افزایش	-10.079
▁مقال	-10.0794
▁سالها	-10.0805
▁عام	-10.0805
وری	-10.0807
احض	-10.0822
▁خا	-10.0849
▁دونده	-10.0855
ریم	-10.0869
دل	-10.0869
▁باد	-10.0874
۳۱	-10.0879
▁کامپیوتر	-10.0882
▁شر	-10.0887
▁سئوال	-10.0891
▁ارتفاع	-10.0891
▁پروتئین	-10.0892
▁ناحیه	-10.0892
▁استراماچونی	-10.0892
▁پرافتخار	-10.0892
▁فردوسی	-10.0892
▁ببینید	-10.0893
▁برساند	-10.0896
▁طوفان	-10.0901
▁نیروگاه	-10.0904
▁آدم	-10.0905
▁ویران	-10.0909
▁وستهم	-10.0913
▁نشین	-10.0921
▁دیگو	-10.0934
▁انگار	-10.0942
▁پذیرفته	-10.0948
▁بدو	-10.0956
▁جیب	-10.0959
▁مار	-10.0962
▁هنرها	-10.0966
▁عزاداری	-10.098
▁جلسات	-10.0981
▁سرای	-10.0984
▁حامی	-10.0985
▁موضوعات	-10.0985
هزار	-10.0988
▁عادل	-10.0997
▁فتح	-10.1022
▁یونان	-10.1024
▁شعب	-10.1024
▁مبادل	-10.1029
مند	-10.1032
ناف	-10.1052
▁۴۳	-10.1052
▁سلطان	-10.1062
آ	-10.1067
▁۳۸	-10.1084
▁شوم	-10.1084
▁وق	-10.1088
▁ساختار	-10.1092
▁برانگیز	-10.1109
▁دوام	-10.1117
نام	-10.112
▁پرسی	-10.1124
▁روزه	-10.1127
▁تبلیغاتی	-10.1131
▁۹۵	-10.1132
▁یازدهم	-10.1137
▁طوری	-10.1137
▁ماهوار	-10.1139
▁معمار	-10.1139
▁مکانی	-10.1142
▁شور	-10.1143
▁داوطلب	-10.1149
وت	-10.1151
گین	-10.1166
رسی	-10.1168
التی	-10.117
امی	-10.1182
▁مور	-10.1189
حص	-10.1193
رستان	-10.1198
▁۱۹۹	-10.1221
▁تائ	-10.1226
▁ریه	-10.1241
تون	-10.1241
▁ثمر	-10.1261
▁بکشد	-10.1262
▁نتانیاهو	-10.1262
▁تظاهرات	-10.1263
▁انفرادی	-10.1263
▁تبعات	-10.1263
▁تعدیل	-10.1264
▁تلفیق	-10.1264
▁معافیت	-10.1265
▁نکنید	-10.1265
▁عفونت	-10.1268
▁مفهوم	-10.1269
▁منزل	-10.1269
▁زلزله	-10.1272
▁آنقدر	-10.1276
۵۰	-10.1276
▁فرگوسن	-10.1278
▁بیلسا	-10.1284
▁رها	-10.1285
▁سرنشینان	-10.1286
▁مدارک	-10.1291
▁نیک	-10.1292
▁اشرف	-10.1294
▁مطالعات	-10.1295
اقات	-10.1299
▁تروریستی	-10.1299
▁اشک	-10.1304
▁نمایشگاه	-10.1305
▁برندگان	-10.1308
▁ولز	-10.131
▁۵۶	-10.1311
▁زرد	-10.1315
▁هندی	-10.1317
▁مکرون	-10.1317
▁ایرانیان	-10.1318
▁مغزی	-10.1323
▁بازرسان	-10.133
شه	-10.1331
▁یاری	-10.1335
▁عمان	-10.1335
خالص	-10.1345
▁آهنگساز	-10.1348
▁افشار	-10.1349
سر	-10.1351
▁ساک	-10.1357
عبدال	-10.1358
جم	-10.1361
▁اقلیمی	-10.1372
▁عادت	-10.1373
▁طیف	-10.1382
عه	-10.1392
▁قد	-10.1395
▁محمدجواد	-10.1414
فق	-10.1417
▁فریاد	-10.1424
▁وایلد	-10.1434
نادیده	-10.1435
▁رویای	-10.1444
▁خواستند	-10.1453
▁خریدار	-10.1454
بخش	-10.1455
▁کمال	-10.1461
▁جرم	-10.1467
▁اگر	-10.15
▁بعید	-10.1515
▁۶۷	-10.1525
▁غار	-10.1527
▁قاطع	-10.1537
داشت	-10.1541
نیک	-10.1549
رز	-10.1562
▁افکن	-10.1568
▁ابزار	-10.1569
پنج	-10.1582
▁باران	-10.1592
جان	-10.1607
غان	-10.1609
▁باخته	-10.1624
▁۱۲۰	-10.163
رداد	-10.1631
▁ناراحت	-10.1633
▁متاسف	-10.1633
▁جالب	-10.1643
▁منحصر	-10.1645
▁مفید	-10.1646
▁دانمارک	-10.1647
▁مترجم	-10.1648
▁زنگنه	-10.1648
▁رمزارزها	-10.165
▁محدودیتهای	-10.1655
▁کیم	-10.1656
▁مخفی	-10.1657
▁مشورت	-10.1657
▁مسلمان	-10.1659
▁پیک	-10.1659
▁ایام	-10.166
▁مرخص	-10.1665
▁بران	-10.1668
▁اصلاحات	-10.1671
▁ستایش	-10.1671
▁مطهری	-10.1673
▁یمانی	-10.1675
▁منته	-10.1677
بیش	-10.1694
▁کارگزار	-10.1694
▁ایلنا	-10.1695
▁امکانات	-10.1696
عباس	-10.1697
▁تج	-10.1704
آن	-10.171
رویی	-10.1711
▁سانتی	-10.1711
▁عروس	-10.1718
▁فلز	-10.1718
▁پیمان	-10.1727
▁لیدز	-10.1727
▁قربانی	-10.173
▁قدس	-10.1734
▁قوا	-10.1739
▁ادعا	-10.176
▁خبرهای	-10.1764
▁گذاشتن	-10.1766
الب	-10.1776
▁عل	-10.1783
دانشمندان	-10.1789
▁تبلیغات	-10.1793
▁۴۹	-10.1794
▁اوکراین	-10.1797
▁کشی	-10.1798
▁پیست	-10.1806
▁فراگیر	-10.1811
▁خوردن	-10.1819
▁برقی	-10.1839
عوض	-10.1839
▁رنج	-10.1851
▁آمارها	-10.186
کننده	-10.1865
▁واژ	-10.1873
واک	-10.1877
▁۱۵۰۰	-10.1896
▁نبرد	-10.1898
▁چا	-10.1899
کت	-10.1908
▁ویلیام	-10.1916
▁سای	-10.1919
▁تکان	-10.1922
▁مهاجر	-10.1946
▁داستانی	-10.1951
راحل	-10.1961
▁تعامل	-10.1966
▁۷۷	-10.1986
▁زیان	-10.1988
▁مزار	-10.1991
▁جسم	-10.1996
بچه	-10.1997
▁۰	-10.2
افغانستان	-10.2
▁بازیگری	-10.2002
پوری	-10.2006
▁آیین	-10.2008
▁درهای	-10.2014
▁محقق	-10.2016
▁دارم	-10.2026
▁خوشحال	-10.2029
تن	-10.2029
▁تفریح	-10.2037
▁همجنس	-10.2042
▁شطرنج	-10.2044
▁محوطه	-10.2045
▁اخطار	-10.2045
▁تروریسم	-10.2045
▁شارژ	-10.2045
▁هیأت	-10.2045
▁همیشگی	-10.2045
خصیص	-10.2045
▁حیوان	-10.2045
▁برانگیخت	-10.2046
▁دادگستری	-10.2046
▁مدیترانه	-10.2046
▁کریکت	-10.2048
▁محور	-10.2048
▁آیند	-10.2048
▁تلخ	-10.2053
▁نقص	-10.2055
▁ویلموتس	-10.2058
▁قرص	-10.206
▁لبخند	-10.2063
خارج	-10.2064
محمود	-10.2064
▁نکنند	-10.2065
▁ص	-10.2067
▁شاخ	-10.2068
▁دموکرات	-10.2069
▁خرج	-10.207
▁شیراز	-10.207
▁برلین	-10.2071
▁صبر	-10.2075
▁۴۶	-10.2076
▁سان	-10.2079
▁ناامن	-10.2079
▁محتوای	-10.2079
▁مسکو	-10.2079
▁مادری	-10.2081
▁گوگل	-10.2086
▁دادسرا	-10.2088
▁سوالات	-10.2091
▁معمولی	-10.2093
▁ایرلند	-10.2101
▁خشم	-10.2104
▁پرسش	-10.2109
▁جنبه	-10.2116
تواند	-10.2121
▁دانم	-10.2122
کر	-10.2124
▁پیکر	-10.2126
▁رغ	-10.2131
▁سین	-10.2131
▁پوشید	-10.2132
▁پیوستن	-10.2137
▁سد	-10.2151
مجموعه	-10.2152
▁خودران	-10.2162
▁کیلو	-10.2164
ظهر	-10.2174
▁محسن	-10.2178
▁پستان	-10.2187
▁ویکتور	-10.2189
▁هاوس	-10.219
▁آسیای	-10.2206
▁جهانگیری	-10.2206
▁تس	-10.2223
▁افتد	-10.2224
▁باستانی	-10.2227
التهاب	-10.2228
▁سیف	-10.2234
بورن	-10.2234
مرث	-10.2239
▁مهندس	-10.2241
▁شبه	-10.2241
▁ناصر	-10.2251
۲۵	-10.2258
وان	-10.226
▁تنگ	-10.2266
▁تاب	-10.2268
لینگ	-10.2273
▁داشتم	-10.2309
▁پدید	-10.231
باران	-10.2313
▁سیا	-10.2314
▁خواندن	-10.233
▁کرمان	-10.2332
▁ویل	-10.2334
▁گرد	-10.2336
▁راستا	-10.2341
▁ادعای	-10.2345
رس	-10.2346
▁یور	-10.2356
▁کشیدن	-10.2371
سیا	-10.2374
▁کام	-10.238
راه	-10.2394
آوری	-10.2407
▁سراسری	-10.2408
فیلم	-10.2415
▁غ	-10.242
▁روسی	-10.2426
▁نامدار	-10.2428
▁بوش	-10.2429
رسان	-10.2429
▁نقد	-10.2439
▁شعار	-10.2444
▁مخصوص	-10.2452
▁تخلف	-10.246
▁امتحان	-10.2461
▁کانسپت	-10.2461
▁شمخانی	-10.2461
▁اصرار	-10.2461
▁جوانی	-10.2462
▁تحمیل	-10.2463
▁خوراک	-10.2464
▁وسط	-10.2467
▁خوک	-10.2468
▁ویلیامز	-10.2472
▁استراتژیک	-10.2473
▁دراز	-10.2475
▁سرویس	-10.2478
▁حاکم	-10.2479
▁خوا	-10.2484
▁گردشگران	-10.2488
▁هیوندای	-10.2488
▁زوج	-10.2491
▁موش	-10.2491
▁دستیابی	-10.2491
▁کارلوس	-10.2492
▁ثروت	-10.2496
▁جدایی	-10.2502
▁پارسی	-10.2503
▁ناجی	-10.2513
▁طنز	-10.2516
▁تعهد	-10.2516
نیم	-10.2518
زن	-10.2519
▁ابوال	-10.2521
▁حیدر	-10.2521
▁ارزان	-10.2522
▁فرزندان	-10.2523
▁کنگره	-10.2533
▁صرفا	-10.2534
▁عطرساز	-10.2535
احمد	-10.2537
جو	-10.2538
▁منوچ	-10.254
▁بدل	-10.2544
وات	-10.2547
▁فرید	-10.2554
▁آوردند	-10.2554
▁قدمت	-10.2555
شاخص	-10.2562
▁ریخت	-10.2563
▁موشکی	-10.2567
▁میلیاردها	-10.2574
▁ذخا	-10.2588
▁یازده	-10.2615
▁انتقادها	-10.2618
▁سبز	-10.2628
▁پراکند	-10.2629
▁ژنتیک	-10.2635
اش	-10.2638
▁تابلوی	-10.2657
▁پیراهن	-10.266
▁آوردن	-10.267
اسل	-10.2677
▁گفتگوها	-10.2687
▁آباد	-10.269
▁تمرکز	-10.2701
▁گم	-10.2703
▁هنگ	-10.2707
▁نم	-10.2725
▁بستن	-10.2748
ارد	-10.2761
▁بروند	-10.2773
▁کنگ	-10.2773
▁نژادی	-10.2784
▁پوری	-10.2786
▁۸۰۰	-10.279
▁افشا	-10.2796
▁اقلی	-10.2804
▁توانم	-10.2822
▁کشت	-10.283
▁دیر	-10.2831
▁صادرکنند	-10.2845
▁گفتگوی	-10.2846
قه	-10.2847
▁جین	-10.2849
شهر	-10.2851
▁علن	-10.2858
▁راس	-10.2866
▁افسر	-10.287
▁ایستاد	-10.287
گذاری	-10.2878
▁نیوک	-10.2888
یب	-10.2889
▁پارالمپیک	-10.2896
▁اکسیژن	-10.2896
▁دهقان	-10.2897
▁بدانیم	-10.2899
▁مخابرات	-10.2899
یشه	-10.29
▁پرندگان	-10.2903
▁اهداف	-10.2907
▁پردازد	-10.2909
▁محاسبات	-10.291
▁فسیل	-10.2911
▁متقاضی	-10.2912
گن	-10.2915
▁ملا	-10.2915
▁اطل	-10.2916
▁علاقمندان	-10.2918
▁رابرت	-10.2923
▁ببرد	-10.2927
▁ستارگان	-10.2928
▁دایناسور	-10.2929
▁غریب	-10.2929
▁آورند	-10.293
▁مقیم	-10.2948
▁میر	-10.2949
▁سناتور	-10.2953
▁نکند	-10.2955
▁استرالیایی	-10.2956
▁جمال	-10.2957
▁احت	-10.2959
استقلال	-10.2976
▁هستم	-10.2986
معاون	-10.3007
▁معترض	-10.3026
ونده	-10.3032
وا	-10.3032
لر	-10.3033
▁اما	-10.3039
ضعیف	-10.3044
▁نکردن	-10.3051
▁آندر	-10.3053
▁شخص	-10.3054
▁جدال	-10.3055
▁رقص	-10.3066
▁اهدا	-10.3066
▁اپرا	-10.3073
آخر	-10.3077
▁شریفی	-10.3078
▁نسب	-10.3083
▁وا	-10.3084
▁۵۲	-10.3097
▁سرا	-10.3121
▁بهرام	-10.3125
▁افتتاح	-10.3138
▁وسی	-10.3138
▁اذ	-10.3142
▁میل	-10.3145
▁گرایان	-10.3149
▁عموم	-10.3158
▁ات	-10.3158
▁استعداد	-10.3159
▁شدم	-10.3161
بین	-10.317
▁نان	-10.3178
▁اوکراینی	-10.3187
۳۰	-10.319
▁پوش	-10.319
▁بازماند	-10.3197
▁ضعیف	-10.3198
▁بومی	-10.3201
▁پیوند	-10.3213
بدترین	-10.3226
▁بدی	-10.3226
▁لیس	-10.324
▁متو	-10.3253
رین	-10.3256
▁ساختن	-10.3256
▁سلف	-10.3261
▁نزد	-10.3278
برخ	-10.3283
▁۹۱	-10.3296
▁اسد	-10.3299
▁منار	-10.33
▁هجومی	-10.3304
▁هرگ	-10.3313
▁مشتری	-10.332
▁صعودی	-10.3329
▁شیش	-10.3329
▁راهبر	-10.333
▁ریاض	-10.3331
▁۷۳	-10.3331
رج	-10.3346
▁گیاه	-10.3349
▁دبلیو	-10.3351
▁فلوریدا	-10.3351
▁رضوی	-10.3351
▁خانوادگی	-10.3351
▁اخلال	-10.3351
ژانس	-10.3352
▁بازگردد	-10.3353
▁لزوم	-10.3357
▁اپلیکیشن	-10.3358
▁خاموش	-10.3361
▁ونیز	-10.3362
▁استراحت	-10.3364
▁ابعاد	-10.3364
▁بوندس	-10.3365
▁رتکلیف	-10.3365
▁پلاک	-10.3366
▁مرگبار	-10.3368
عنوان	-10.3369
پرو	-10.337
▁خرند	-10.3373
▁شاگردان	-10.3373
▁سالمندان	-10.3373
تب	-10.3378
▁راموس	-10.3379
▁احساسات	-10.338
▁۵۹	-10.3381
▁ترسیم	-10.3381
▁غالب	-10.3383
▁۷۴	-10.3383
▁کمپین	-10.3385
▁آموزان	-10.339
▁مالاریا	-10.3393
▁رسول	-10.3394
▁فتاح	-10.3394
▁دیپلمات	-10.3398
▁حافظ	-10.3398
▁خانوارهای	-10.3398
استفاده	-10.34
▁آشفت	-10.3405
▁کشاند	-10.3405
۱۳	-10.3405
▁اصطلاح	-10.3406
▁نمکی	-10.3407
▁فراری	-10.3411
▁رم	-10.3413
▁کاربر	-10.3414
▁صنف	-10.3415
▁تاز	-10.3415
غال	-10.3427
ونگ	-10.3429
▁خوانندگ	-10.3435
▁خلو	-10.3437
وریس	-10.3437
▁کاظم	-10.3439
▁وزارتخانه	-10.344
نو	-10.3445
▁عکسی	-10.3451
▁۱۳۹	-10.3454
▁لیور	-10.3455
▁قراردادش	-10.3462
وطن	-10.3473
▁نهاده	-10.3473
هالی	-10.3476
▁۹۰۰	-10.348
▁اسلم	-10.3492
ممکن	-10.3495
▁هامر	-10.3496
▁ویدئویی	-10.3499
طبق	-10.3508
▁رساندن	-10.3515
▁عقید	-10.3515
▁مون	-10.3523
▁اریک	-10.3529
▁زیستی	-10.3542
▁پلی	-10.3549
گه	-10.3552
▁تحلیلگر	-10.3554
▁فروشی	-10.3558
▁شورو	-10.3559
▁کیفر	-10.3565
▁حریفان	-10.3567
شد	-10.3576
▁حیاتی	-10.3578
▁سلمان	-10.3578
▁ثروتمند	-10.3595
گروه	-10.36
▁بس	-10.3605
▁دقت	-10.3608
▁رحم	-10.3611
▁استخر	-10.3617
تمرکز	-10.3627
▁ور	-10.3644
▁همچ	-10.3647
▁اوست	-10.3656
▁طرز	-10.366
▁گانه	-10.3666
دون	-10.3668
▁شو	-10.3672
▁بدر	-10.3705
کدام	-10.3705
▁ازای	-10.3708
▁خودروی	-10.372
وب	-10.3734
▁آنک	-10.3743
▁وست	-10.3746
▁زو	-10.3753
▁مرغدار	-10.3753
▁کریست	-10.3755
▁سپر	-10.376
▁تایم	-10.3761
▁شاعران	-10.3776
▁باشگاهی	-10.3786
▁سم	-10.3796
▁بوک	-10.3797
ث	-10.38
▁پرسید	-10.381
خی	-10.3819
▁فلسفه	-10.3827
▁موظف	-10.3827
▁نیوزیلند	-10.3827
▁تأثیر	-10.3827
▁استخدام	-10.3827
▁منتخب	-10.3827
▁غربالگری	-10.3827
▁ارمنستان	-10.3827
▁ثامن	-10.3827
▁شلوغ	-10.3827
▁اعتراف	-10.3828
وله	-10.3828
▁یوگا	-10.3829
▁لهستان	-10.3829
▁خلاقیت	-10.383
▁لنون	-10.383
▁حرکات	-10.383
▁رولز	-10.3832
▁بزنند	-10.3833
▁ذکر	-10.3833
اول	-10.3834
▁بروکسل	-10.3834
▁تماشاچی	-10.3835
▁متعهد	-10.3838
▁خادم	-10.3839
▁نادرست	-10.3841
▁بامداد	-10.3842
▁غرق	-10.3845
▁جاستین	-10.3846
▁تلگرام	-10.3846
▁چراغ	-10.3853
▁رانندگی	-10.3854
▁همسایه	-10.3855
▁قطار	-10.3856
▁فرونشست	-10.3857
▁پیاده	-10.3859
▁سیاستمداران	-10.3867
▁گیاهان	-10.3875
▁توضیحات	-10.3878
آی	-10.3878
▁امن	-10.3878
▁متشک	-10.3884
▁تفاهم	-10.3886
▁امشب	-10.3891
▁وجه	-10.3895
▁اعطا	-10.3899
▁اندازد	-10.3909
پل	-10.3913
▁خشکسالی	-10.3917
▁کرو	-10.3918
ولی	-10.392
▁انتقادهای	-10.3932
مراسم	-10.3944
▁مستق	-10.3951
مل	-10.3955
▁پولی	-10.3959
▁آمدند	-10.3968
ختم	-10.3968
▁شه	-10.3994
مسئولان	-10.3998
▁اح	-10.4002
▁سرباز	-10.4004
صوفی	-10.4011
بون	-10.4025
▁ژوز	-10.4029
▁شمسی	-10.403
▁سازد	-10.404
▁اعضا	-10.4046
▁آگاه	-10.4056
رهای	-10.4064
الله	-10.4068
▁آزمای	-10.4073
ناز	-10.4076
▁نروژ	-10.4078
▁سراغ	-10.4082
▁کال	-10.4095
▁نامزدها	-10.4119
▁مرس	-10.4134
ویز	-10.4137
▁شهردار	-10.4151
▁رش	-10.4161
▁شکار	-10.417
▁تحقیقی	-10.4185
▁ناو	-10.4187
▁نت	-10.4191
▁۱۳۵	-10.4192
▁مقطع	-10.4192
▁بها	-10.421
بت	-10.4211
▁تصویری	-10.4213
▁رصد	-10.4223
▁استاین	-10.4228
▁مگا	-10.4233
برگزار	-10.424
▁منتف	-10.4244
شمار	-10.4261
▁افکار	-10.4263
▁دروغ	-10.427
▁تند	-10.4271
▁فضانورد	-10.4273
مار	-10.4276
▁اوا	-10.428
▁اوین	-10.4282
▁یکم	-10.4283
▁دردسر	-10.4283
ژه	-10.4287
▁درس	-10.4287
مرکز	-10.4293
▁شاهکار	-10.4311
▁تعقیب	-10.4327
▁خسارات	-10.4327
▁لالیگا	-10.4327
▁تضمین	-10.4327
▁انبوه	-10.4327
▁یهودی	-10.4328
▁ناپدید	-10.4328
▁بگویم	-10.4328
▁بیفتد	-10.4328
▁خیانت	-10.4328
▁سایبری	-10.4329
▁بزوس	-10.4329
▁اسپرت	-10.4329
▁ارزشمند	-10.433
▁کووید۱۹	-10.4331
▁لاریجان	-10.4331
▁مهرماه	-10.4331
بعد	-10.4332
▁طرفدار	-10.4332
▁اکسید	-10.4332
▁سرو	-10.4334
▁وار	-10.4335
▁متناسب	-10.4335
▁یکصد	-10.4338
▁مبادلات	-10.4341
لحق	-10.4341
یحی	-10.4341
▁عنکبوت	-10.4342
▁۲۰۰۴	-10.4343
▁تالار	-10.4343
▁فجر	-10.4348
▁مداوم	-10.435
▁الحسن	-10.4351
▁چیزهای	-10.4351
▁انصاریان	-10.4352
کم	-10.4353
▁تندرو	-10.4356
▁جاشوا	-10.4359
▁تکلیف	-10.436
ناد	-10.436
▁بیروت	-10.4362
صورت	-10.4365
یخ	-10.4368
▁عضلا	-10.4372
▁جزییات	-10.439
▁مرتب	-10.4391
▁کنزو	-10.4394
وجود	-10.4395
یلی	-10.4402
▁مامور	-10.4403
▁صلاح	-10.4416
▁پایدار	-10.4422
▁آرامکو	-10.4429
▁تقابل	-10.4432
▁زور	-10.4432
نت	-10.4438
پرس	-10.4439
شاهی	-10.4441
▁گریز	-10.4443
▁ترور	-10.4443
▁هواپیماهای	-10.4457
▁دوحه	-10.4461
سم	-10.4467
▁پناهندگ	-10.4472
▁راک	-10.4472
جایی	-10.4476
▁مسیحی	-10.4489
▁۱۳۶	-10.449
وپن	-10.4502
حالا	-10.4509
▁جهاد	-10.451
زم	-10.4513
دادگاه	-10.4513
اتحاد	-10.4515
اینها	-10.4518
پژوهشگران	-10.4527
▁پیرو	-10.453
▁پیشرفته	-10.4539
منه	-10.4567
شماری	-10.4572
▁کپی	-10.4572
▁آرا	-10.4585
▁گنج	-10.4586
▁متوا	-10.4588
▁دپ	-10.459
▁روب	-10.4592
▁جبه	-10.4593
▁عضوی	-10.4598
▁ثروتمندتر	-10.4599
▁ظه	-10.4606
▁داروهای	-10.4606
ستون	-10.4616
▁مادران	-10.4617
▁نظم	-10.4619
▁استعفای	-10.464
▁پرهی	-10.4641
▁برزیلی	-10.4644
جری	-10.4645
▁راند	-10.4657
برنامه	-10.466
▁تلف	-10.4661
▁نورد	-10.4667
▁اختلا	-10.4672
دیگر	-10.4682
▁ایراد	-10.4693
▁صحن	-10.4699
▁خرابکار	-10.4717
▁گرفتار	-10.4722
رگن	-10.4731
رنو	-10.4739
▁راستی	-10.4764
▁بازگشا	-10.4825
▁اید	-10.483
▁مکزیک	-10.4834
▁سحر	-10.4842
وریا	-10.4845
▁حو	-10.4847
▁سیزدهم	-10.4847
گل	-10.4851
▁آغداشلو	-10.4853
▁سامسونگ	-10.4853
▁تدابیر	-10.4853
▁اعتقاد	-10.4853
▁بفروشد	-10.4853
▁وقایع	-10.4853
▁ظهر	-10.4853
▁بلوچ	-10.4853
▁انقراض	-10.4854
▁تدوین	-10.4854
▁دماوند	-10.4854
▁زغال	-10.4856
▁جعل	-10.4857
▁استرازنکا	-10.4857
▁مکرر	-10.4858
▁مسایل	-10.4858
▁ببینند	-10.4859
▁برگردد	-10.4859
▁نشیب	-10.4861
▁بوشهر	-10.4862
▁ببیند	-10.4863
▁مسافت	-10.4863
▁فروپاشی	-10.4863
رجمه	-10.4864
رات	-10.4864
▁سیگار	-10.4868
▁اکتشاف	-10.4868
▁سرتیپ	-10.4869
▁زنجان	-10.4873
▁بختیار	-10.4873
▁غیاب	-10.4873
▁ابهام	-10.4874
▁محبوبیت	-10.4877
قات	-10.4879
▁تخلفات	-10.4879
▁صحیح	-10.488
▁رضایت	-10.4881
▁ترافیک	-10.4883
▁سادات	-10.4883
▁دستاوردهای	-10.4883
▁ضایع	-10.4884
▁کریسمس	-10.4885
▁کیانوش	-10.4885
ردن	-10.4887
▁تیرماه	-10.4888
▁صالحی	-10.489
▁مقدم	-10.4893
گرفته	-10.4896
▁جنایت	-10.4896
▁مصون	-10.4899
▁منچستریونایتد	-10.4904
▁همینطور	-10.4908
▁انتخابی	-10.4908
رق	-10.491
▁الکس	-10.4911
کان	-10.4912
▁کابین	-10.4914
▁ماهیگیر	-10.4925
▁کاربرد	-10.4928
▁مهاجران	-10.4931
رای	-10.4933
▁گلف	-10.4937
▁شوید	-10.4938
▁مبنای	-10.4943
▁ابرا	-10.4944
نواک	-10.4947
▁نکردند	-10.495
▁قوس	-10.495
▁درختان	-10.4952
▁صفحات	-10.4956
▁چوب	-10.4962
▁فدرال	-10.4966
▁حدی	-10.4974
▁رادیویی	-10.4978
▁درانی	-10.4987
▁وحید	-10.499
▁همسان	-10.4991
سب	-10.4992
▁آمریکاست	-10.4993
▁شانزدهم	-10.4996
▁نوید	-10.5007
اج	-10.5007
▁همرسان	-10.5008
▁داشتیم	-10.5012
▁گروگانگیر	-10.5013
▁رویس	-10.5016
رقابت	-10.5016
▁وزرای	-10.5043
▁دهک	-10.5054
▁مغاز	-10.5063
▁معیشتی	-10.5063
▁مهمان	-10.5063
▁ژن	-10.5067
▁فیلمبردار	-10.5068
▁۱۳۷	-10.5069
▁کردستان	-10.5072
▁۶۸	-10.5076
یمی	-10.5079
انصراف	-10.5079
▁فیلتر	-10.5086
▁دعوا	-10.5093
▁روبرت	-10.5095
لک	-10.5098
▁رس	-10.51
▁کاست	-10.5102
▁کتی	-10.5102
▁روستا	-10.5112
▁رئیسی	-10.5114
صاف	-10.5116
▁موازی	-10.5121
▁کادی	-10.5123
▁پوشاند	-10.513
هرانا	-10.5135
هز	-10.5138
▁مرگش	-10.5139
▁آلن	-10.5142
▁سختگیر	-10.5143
اتی	-10.5149
▁فی	-10.5154
ماهی	-10.5156
▁کوچکتر	-10.5158
▁یکسال	-10.5179
▁اهدای	-10.5198
▁چی	-10.52
▁دوج	-10.5202
▁بینند	-10.5207
یره	-10.5229
▁سل	-10.5229
▁درآورد	-10.5232
▁هروی	-10.5232
▁آگ	-10.5263
▁لوان	-10.5286
▁شیرین	-10.5296
ویژ	-10.5296
اقد	-10.5301
▁نیما	-10.5301
▁شون	-10.5303
شاید	-10.5315
عی	-10.5329
▁پیشگیر	-10.5334
▁باستان	-10.5337
خیره	-10.5344
▁بینیم	-10.535
▁آفریقایی	-10.5364
▁اظهارنظر	-10.5373
▁فرانک	-10.5382
خواست	-10.5396
▁علیر	-10.5403
ساب	-10.5405
▁کارداشیان	-10.5409
▁المستقبل	-10.5409
▁مکتوب	-10.5409
▁اوباما	-10.5409
▁ناچار	-10.5409
▁محاکم	-10.541
▁بندرعباس	-10.541
روی	-10.541
▁معدود	-10.541
▁آسمایی	-10.5411
▁مرجع	-10.5411
▁آشوری	-10.5412
▁مواضع	-10.5412
▁۱۳۹۶	-10.5412
▁ساویز	-10.5412
▁ثانوی	-10.5413
▁کامیون	-10.5413
گراندپری	-10.5414
▁مختل	-10.5415
▁ندارم	-10.5419
▁حباب	-10.5421
▁توجیه	-10.5423
جوبی	-10.5423
▁مداخل	-10.5423
▁استراتژی	-10.5425
▁برانکو	-10.5426
▁رفاه	-10.5426
▁کمرنگ	-10.5429
▁معارف	-10.5435
▁متنوع	-10.5438
▁نوشیدن	-10.544
▁تکنولوژی	-10.5442
▁دشمنان	-10.5443
موند	-10.5446
▁خرسند	-10.5446
▁جف	-10.5449
وداع	-10.5449
▁تعادل	-10.5453
▁سکوت	-10.5454
▁عصب	-10.5461
صخره	-10.5463
شیبا	-10.5467
بازار	-10.5469
دور	-10.547
قص	-10.5472
▁خریداران	-10.5473
▁گوی	-10.5477
▁داریوش	-10.548
▁قبال	-10.5481
▁برنز	-10.5491
▁سگ	-10.5493
▁دهید	-10.5495
▁کاردن	-10.5496
دوف	-10.5502
▁تعجب	-10.5506
باشگاه	-10.5515
▁ادعاهای	-10.5519
▁هفدهم	-10.5521
▁ناآرامی	-10.5525
▁سیزده	-10.553
▁زیبا	-10.553
▁کشتار	-10.5531
▁کیست	-10.5535
▁خارا	-10.5541
سل	-10.5547
▁اسپوت	-10.5547
▁وب	-10.5549
خته	-10.5558
اف	-10.5563
▁شانه	-10.5564
▁حکمتی	-10.5565
▁اصول	-10.557
لاق	-10.5574
▁همانند	-10.559
▁شیمی	-10.5591
▁اسپ	-10.5616
▁ریچارد	-10.5624
لیورپول	-10.5625
▁واسط	-10.563
▁مصاد	-10.5632
▁پسرش	-10.5633
▁کوچکی	-10.5634
▁عزیزی	-10.5635
لف	-10.5663
▁روزمر	-10.5667
علیرضا	-10.5671
▁شاپو	-10.5686
▁ترکمن	-10.5694
▁برادرش	-10.5698
▁اله	-10.5705
▁پالا	-10.5707
▁آقا	-10.5711
▁کنسول	-10.5719
▁اشیا	-10.5721
▁خدا	-10.5761
فصل	-10.5762
▁تعهداتش	-10.5776
▁ناب	-10.5784
اداری	-10.5791
ماده	-10.5797
یعن	-10.5812
▁نوشتن	-10.5814
هدف	-10.5817
ایش	-10.5824
▁کارگردانان	-10.5828
▁شوهر	-10.5852
▁خال	-10.5862
غذی	-10.5869
▁نمود	-10.5873
▁شهیدی	-10.5874
▁۸۲	-10.5881
▁آگاهی	-10.5882
▁کلا	-10.5882
▁آرای	-10.5887
▁سینماها	-10.5905
▁تخیل	-10.591
▁برداشتن	-10.5912
حافظه	-10.5928
▁تش	-10.5939
▁۶۴	-10.5952
▁ادار	-10.5957
اوی	-10.5958
▁کمربند	-10.5961
▁نوزدهم	-10.5986
تلاف	-10.5991
▁معیار	-10.5992
شدت	-10.5996
▁بنگلادش	-10.5997
▁تأیید	-10.5997
▁تخفیف	-10.5997
▁ترسناک	-10.5997
▁بگوییم	-10.5997
▁آموزگار	-10.5998
▁سوگوار	-10.5998
▁منفجر	-10.5999
▁خوشنام	-10.5999
▁سردبیر	-10.5999
▁احتیاط	-10.6
▁ماز	-10.6
▁بهر	-10.6001
▁عبد	-10.6001
▁کلینیک	-10.6001
▁۱۹۹۸	-10.6003
▁خفیف	-10.6003
▁۱۹۹۰	-10.6003
▁بمب	-10.6003
▁۲۰۳۰	-10.6004
▁خزر	-10.6004
▁پیشتاز	-10.6005
▁وصل	-10.6007
▁زیستگاه	-10.6007
▁ادب	-10.6007
▁روسا	-10.6009
▁خرس	-10.601
▁مزرعه	-10.6012
▁خراب	-10.6017
▁گرایش	-10.6017
▁هشتگ	-10.6019
▁تحصیلات	-10.602
▁پراید	-10.6023
▁ناتوان	-10.6024
▁نزول	-10.6025
▁دف	-10.6027
▁تسلیت	-10.6029
▁مدرک	-10.6031
▁شایعات	-10.6033
▁دیدگاه	-10.6033
▁توخل	-10.6033
▁تسهیلات	-10.6039
▁بقایای	-10.604
▁سربازان	-10.6044
تیک	-10.6046
▁کلود	-10.6049
▁ارا	-10.6053
▁پناهجویان	-10.6054
▁سنبل	-10.6054
▁مقصر	-10.6055
▁موجودات	-10.6057
▁هل	-10.6057
▁کیهان	-10.6065
▁نکات	-10.6067
▁گذارند	-10.6072
▁لا	-10.6074
▁رایج	-10.6077
▁نک	-10.6078
▁۱۳۸	-10.6079
▁ارد	-10.6083
▁اضطراب	-10.6085
چین	-10.6088
یژن	-10.6089
▁وع	-10.609
▁گردند	-10.6091
▁عالمی	-10.6101
▁دارید	-10.6105
▁ارت	-10.6106
▁قطعات	-10.6107
حل	-10.611
▁زبا	-10.6113
خاطر	-10.6115
▁شناسان	-10.6117
▁پارس	-10.612
▁بلوم	-10.6123
قریب	-10.6126
▁حداد	-10.6131
سلیم	-10.6137
وار	-10.6138
▁اعتراضی	-10.6143
▁منصور	-10.6144
▁الگوی	-10.6145
▁نوار	-10.6146
چرخه	-10.6151
▁خیال	-10.6152
زکی	-10.6153
▁خوست	-10.6158
▁ماندگار	-10.6163
شیوع	-10.6164
▁تصمیمات	-10.6171
▁شادی	-10.6178
▁انتقالات	-10.6183
انس	-10.6189
۶۰	-10.6191
▁کمتری	-10.6194
▁انتقادات	-10.6197
بهار	-10.6199
داوم	-10.62
▁الکل	-10.6216
مدیر	-10.6217
▁جلالی	-10.6224
مدت	-10.6229
▁گور	-10.623
▁جنس	-10.6238
گو	-10.624
▁بناها	-10.6241
▁تسلی	-10.6251
▁تقویم	-10.6251
▁کاوه	-10.626
▁خواهر	-10.6262
▁انیس	-10.6268
گبا	-10.6281
محققان	-10.6282
▁شدیدتر	-10.629
تاسف	-10.6293
زا	-10.6306
اق	-10.632
▁کوبا	-10.6329
▁مارچ	-10.6331
پینگ	-10.6337
▁درخش	-10.6347
▁فلیک	-10.6362
▁کلام	-10.6369
▁تابلو	-10.6375
▁نق	-10.638
▁۱۹۴	-10.6382
▁پروازها	-10.6383
▁دهان	-10.6384
عشی	-10.639
▁قراردادهای	-10.6396
▁بافت	-10.6397
لم	-10.6397
▁طب	-10.6402
علاو	-10.6411
▁سیام	-10.6422
▁اکس	-10.6422
▁فا	-10.643
تولید	-10.644
▁شریف	-10.644
نک	-10.6445
▁کت	-10.6451
▁نداد	-10.646
▁انگل	-10.6462
لس	-10.6463
نوردی	-10.6467
▁مایل	-10.6486
▁خل	-10.6493
▁مالکان	-10.6501
▁اندیش	-10.6503
مرگ	-10.652
ندی	-10.6525
▁۴۱	-10.6538
▁انگشت	-10.6538
▁نوآور	-10.6542
▁همتای	-10.6548
▁مقر	-10.6551
فلاتو	-10.6562
مول	-10.657
▁برجا	-10.6579
▁دیوی	-10.6586
▁تقدی	-10.6586
▁سانتریفیوژ	-10.6595
فی	-10.6604
▁۶۲	-10.6608
▁گشود	-10.6614
▁مشکات	-10.6621
▁اتوبوس	-10.6622
▁وحدت	-10.6622
▁پیرامون	-10.6622
▁صداوسیما	-10.6622
▁تورنتو	-10.6622
▁قائدی	-10.6622
▁اشتراک	-10.6622
▁نوبخت	-10.6623
▁آپارتمان	-10.6623
▁طعم	-10.6624
▁آثارش	-10.6624
▁حجاب	-10.6624
▁گابریل	-10.6624
▁۱۳۹۵	-10.6625
▁بفتا	-10.6626
▁پاکبان	-10.6626
▁بپردازد	-10.6627
▁بگیرید	-10.6627
▁بگیریم	-10.6627
▁ناشناخت	-10.6628
سانه	-10.6628
▁بمانند	-10.6629
▁۱۹۴۰	-10.663
▁کوهستان	-10.663
▁مخدر	-10.6632
▁پایبند	-10.6634
▁رمزارز	-10.6634
▁آرشیو	-10.6635
▁مظاهری	-10.6635
آمار	-10.6635
▁دانشکد	-10.6636
▁ببرند	-10.6638
▁تمدن	-10.6639
▁حساسیت	-10.6639
▁لامبورگینی	-10.664
▁قفس	-10.6641
▁فرایند	-10.6645
▁آبادی	-10.6645
▁جابجا	-10.6648
دهنده	-10.665
▁مقرر	-10.6652
▁آغوش	-10.6657
▁مرتضی	-10.6659
▁عقرب	-10.6661
▁عقل	-10.6662
▁مردگان	-10.6664
▁گازی	-10.6667
▁رکوردهای	-10.6673
▁موکو	-10.6675
▁سالیوان	-10.6683
▁جانور	-10.6685
▁محض	-10.6689
▁اسحاق	-10.6697
▁ضربات	-10.6701
▁جمشید	-10.6701
▁استونز	-10.6711
واسط	-10.6712
▁۷۸	-10.6715
▁شناسند	-10.672
درصد	-10.6731
▁گذاشتند	-10.6747
▁کشند	-10.6755
▁بولت	-10.6761
▁رفتارهای	-10.6762
نوایی	-10.6766
▁رایزن	-10.6771
▁دنیاست	-10.6772
سانی	-10.6773
▁شهید	-10.6775
▁ون	-10.6801
▁نمادهای	-10.6803
▁خطای	-10.6816
▁شغلی	-10.6817
▁گزارشگران	-10.682
▁هکرها	-10.6825
▁نیافت	-10.6827
▁نشانی	-10.6828
▁نفری	-10.6835
اع	-10.6837
▁اموا	-10.6845
▁بوی	-10.6847
خانواده	-10.6853
مپ	-10.6859
▁۴۷	-10.6869
چهار	-10.6879
اشی	-10.689
▁ذهنی	-10.6896
▁نظرات	-10.6899
یچ	-10.6907
▁سیم	-10.6908
۱۵	-10.6912
▁سکونت	-10.6917
▁۸۱	-10.6917
بویایی	-10.692
▁امی	-10.6922
▁ایر	-10.6923
▁غم	-10.6937
▁تدری	-10.6938
▁هوادار	-10.6938
سپاری	-10.6939
▁قبر	-10.6956
▁روزی	-10.6963
▁بل	-10.7
مارک	-10.7001
ایت	-10.7004
▁مب	-10.7016
▁پروان	-10.7017
▁معیشت	-10.7027
▁تونس	-10.7029
انا	-10.7029
▁ناامید	-10.703
▁اجبار	-10.7038
▁فرج	-10.7042
▁ماد	-10.7042
▁بنیادی	-10.7053
▁کارفرمای	-10.7055
▁ظ	-10.7061
▁منطق	-10.7064
▁کاغذ	-10.707
▁قومی	-10.707
▁بازارها	-10.708
ایتون	-10.709
کور	-10.709
نوش	-10.7127
▁جست	-10.713
▁خالص	-10.714
شاه	-10.7141
▁خزان	-10.7151
▁نشت	-10.7151
▁خریده	-10.7155
▁پاهای	-10.7157
▁جاهای	-10.7159
▁عمران	-10.7167
▁پیشرو	-10.7168
▁۱۹۰	-10.718
باز	-10.7187
امیر	-10.719
گشایی	-10.72
▁تایلند	-10.7201
▁یکسان	-10.7201
▁۱۴۰	-10.7203
▁۷۲	-10.7206
▁شع	-10.7215
▁موجودی	-10.7233
▁تثب	-10.7236
فع	-10.7238
۲۰۰	-10.724
▁منظر	-10.7245
▁لوکا	-10.7251
▁قطبی	-10.7252
تراشه	-10.7261
▁۷۶	-10.7277
▁رنگی	-10.7279
▁مأمور	-10.7281
▁فزاینده	-10.7288
▁مایکروسافت	-10.7288
▁واضح	-10.7288
▁اپیدمی	-10.7288
▁پرطرفدار	-10.7288
▁وحشتناک	-10.7289
▁یونسکو	-10.7289
▁ابتکار	-10.7289
▁گلمکانی	-10.7289
▁شباهت	-10.729
▁بکشند	-10.729
▁سوپرلیگ	-10.729
▁متاثر	-10.729
▁راپینو	-10.729
▁پشتیبان	-10.7291
▁وفادار	-10.7294
▁فلج	-10.7294
▁آشام	-10.7296
▁اسرار	-10.7298
▁لگن	-10.73
▁امواج	-10.7301
▁ناقض	-10.7303
▁ترانزیت	-10.7303
▁معما	-10.7305
▁پرستاران	-10.7305
▁درخشانی	-10.7306
▁تعبیر	-10.7307
▁زودهنگام	-10.7308
▁توفان	-10.7308
▁سارس	-10.7317
نظرسنجی	-10.7318
▁غفوری	-10.7318
▁هستید	-10.7318
▁دورت	-10.7319
دغدغه	-10.7323
▁گلایه	-10.7325
لاشه	-10.7325
سئول	-10.7334
▁عاشقانه	-10.7336
▁مخصوصا	-10.7337
▁ریاضی	-10.7338
▁دخترش	-10.734
▁دهندگان	-10.734
▁گودال	-10.7343
▁بنکسی	-10.7346
▁تبادل	-10.7349
▁مارتین	-10.7351
▁برگ	-10.7354
▁ندیده	-10.7368
▁فضانوردان	-10.737
▁شمارش	-10.737
▁زهره	-10.7372
جیب	-10.7374
▁کما	-10.7382
▁محکم	-10.7382
▁ریزش	-10.7392
▁فیس	-10.7396
▁حاجی	-10.7402
▁نداشتم	-10.7405
▁تار	-10.7405
▁معاش	-10.7406
▁خواندند	-10.7411
▁قند	-10.7427
بع	-10.744
▁برف	-10.7449
▁دهلی	-10.7454
▁نداشتن	-10.7455
▁رسم	-10.7461
▁کج	-10.7465
▁سرگرمی	-10.7466
▁تاکتیکی	-10.7466
ایدو	-10.7473
▁پژو	-10.7474
▁سوئ	-10.7488
مع	-10.7493
▁رت	-10.7494
قی	-10.7507
▁زایی	-10.7508
▁دم	-10.7508
▁وجو	-10.751
▁نیا	-10.7519
▁۱۳۴	-10.7524
▁درج	-10.7525
▁تاریکی	-10.7532
▁پورتو	-10.7542
تنها	-10.7544
▁آرزوی	-10.7546
نشینی	-10.7549
وح	-10.755
▁دوازدهم	-10.755
▁شناسد	-10.7556
آمیز	-10.7557
▁استدر	-10.756
▁جوز	-10.7561
▁اد	-10.7562
▁استثنا	-10.7563
▁لیست	-10.7563
▁تاریک	-10.7566
▁افتادن	-10.7571
▁یافتند	-10.7581
بازی	-10.7583
ندان	-10.7589
۴۰	-10.7597
▁ماریا	-10.7598
▁گیل	-10.7604
▁جانش	-10.7614
نمایندگان	-10.7615
منابع	-10.7618
▁سامان	-10.7625
انتظار	-10.7627
▁تام	-10.7628
سلسل	-10.7632
▁ژ	-10.7655
▁ویرجی	-10.7655
▁سطو	-10.7661
بانی	-10.7662
▁نزدیکان	-10.7665
تحول	-10.7668
کوبی	-10.7671
▁اسک	-10.7677
۲۳	-10.768
▁رخت	-10.768
▁استودیو	-10.7685
لات	-10.7695
▁نسبتا	-10.7695
▁تهدیدهای	-10.7697
وازه	-10.7738
▁نرسید	-10.774
▁دوازده	-10.7748
▁داروها	-10.7749
▁نجف	-10.7754
گون	-10.776
بریج	-10.7769
سوزی	-10.7772
▁تحرک	-10.7775
۴۶	-10.7778
فرج	-10.7778
▁محدودیتها	-10.7781
سو	-10.7785
▁روال	-10.7793
▁بریت	-10.7795
▁سلطانی	-10.7796
▁میرزا	-10.7805
▁قرمزها	-10.7808
راتی	-10.781
▁شهریار	-10.7814
▁خالق	-10.7816
نز	-10.7822
زمان	-10.7823
سپری	-10.7845
آبادی	-10.7851
درفتار	-10.7859
▁مند	-10.7867
هام	-10.7874
▁قم	-10.7885
▁نمادی	-10.7888
ظیف	-10.7889
▁شجاع	-10.7889
پپ	-10.7894
▁نوازند	-10.7896
سن	-10.7908
خر	-10.7909
خواهند	-10.7913
▁چشمان	-10.7915
▁مقا	-10.7916
▁پیمانکار	-10.7928
▁نویی	-10.7929
▁۵۳	-10.7934
بینی	-10.794
خت	-10.794
▁۸۶	-10.7945
▁لیگا	-10.7953
زیگ	-10.7954
▁دشمن	-10.7961
▁دستاورد	-10.7962
▁شنیدن	-10.7964
▁کاریر	-10.7964
▁۱۹۵	-10.7975
▁شهرک	-10.7981
▁پالایش	-10.7994
▁پناهجوی	-10.7997
▁۱۹۷	-10.7999
▁پار	-10.8
▁مصدوم	-10.8001
▁معلم	-10.8002
▁الانبیا	-10.8003
▁بوچانی	-10.8003
▁جامائیکا	-10.8003
▁دژپسند	-10.8003
▁پوچتینو	-10.8003
▁باورنکردنی	-10.8003
▁رولزرویس	-10.8003
▁زریاب	-10.8003
▁غرامت	-10.8003
▁وروورت	-10.8003
▁آسوشیتد	-10.8003
▁پلامر	-10.8003
▁والیبال	-10.8003
▁ارجاع	-10.8003
▁کالبد	-10.8003
▁قزاقستان	-10.8003
▁بلاروس	-10.8003
▁ببینیم	-10.8004
▁بیاورد	-10.8004
▁جرایم	-10.8004
▁اثبات	-10.8005
▁مطلوب	-10.8005
▁تایتان	-10.8006
▁نارضای	-10.8006
▁تکنیک	-10.8007
▁زحمت	-10.8008
▁پنگوئن	-10.8008
▁مسترز	-10.8009
▁محترم	-10.8009
▁معاف	-10.8009
جیمزباند	-10.801
▁مکمل	-10.801
▁گوگ	-10.8011
لتیک	-10.8014
▁احکام	-10.8015
▁مخفیانه	-10.8015
▁فیلیپ	-10.8016
▁بدانند	-10.8016
ضعف	-10.8017
فینیتی	-10.8018
▁پاد	-10.8018
ایح	-10.802
▁اردوگاه	-10.802
▁آفرین	-10.8021
▁انستیتو	-10.8021
▁بوکسور	-10.8023
▁اتصال	-10.8023
همه	-10.8027
▁اشکال	-10.8028
▁۱۹۸۰	-10.803
▁فیلیپین	-10.803
▁گردش	-10.8032
▁گرمایش	-10.8033
▁آلزایمر	-10.8045
▁معوقه	-10.8051
▁قبرس	-10.8052
▁شوخی	-10.8056
▁نمایشنامه	-10.8065
▁دارا	-10.8065
▁حبیب	-10.8067
▁بوئین	-10.8067
▁عزم	-10.807
▁۹۴	-10.8072
▁جزای	-10.8074
شر	-10.8075
▁کمدی	-10.8083
▁پیتر	-10.8096
▁باختند	-10.8098
مانده	-10.8099
▁بردارد	-10.8103
▁فلسطینی	-10.811
لژی	-10.811
▁۶۵۰	-10.8112
▁۸۵	-10.8113
▁نیش	-10.8115
▁شمس	-10.812
▁بارز	-10.8125
▁شعارهای	-10.8132
▁فضلی	-10.8137
▁تشری	-10.8146
▁فیروز	-10.8146
▁الم	-10.8148
▁تنوع	-10.815
▁بلوک	-10.8154
▁سالان	-10.8155
▁تحقیر	-10.8155
▁انجامید	-10.8157
▁نویسد	-10.816
▁جلد	-10.8161
▁خطرات	-10.8165
▁سرش	-10.817
▁کرج	-10.8174
▁شمایل	-10.8174
▁اعتیاد	-10.8176
۷۰	-10.8187
▁گرمای	-10.8191
▁نوشتند	-10.82
▁تابعیت	-10.8204
بل	-10.8209
▁دستک	-10.8214
▁بارداری	-10.8217
▁فرض	-10.8218
▁دینی	-10.8219
نکور	-10.8225
جیغ	-10.8226
وایی	-10.823
مجلس	-10.8234
▁همکار	-10.8239
خان	-10.8247
پرها	-10.826
▁کودتای	-10.8264
▁تای	-10.8268
▁دادیم	-10.8275
▁دانشجویی	-10.8284
سیتی	-10.8292
دام	-10.8293
الدین	-10.8296
▁۳۵۰	-10.8306
▁برایم	-10.8318
▁سید	-10.832
▁زم	-10.8322
یوان	-10.8323
تکب	-10.8324
ناشناس	-10.8328
پرسپولیس	-10.8334
▁معنا	-10.8335
یسون	-10.8341
▁دیدارهای	-10.8342
▁ایا	-10.8344
▁کاس	-10.8347
▁مای	-10.835
انتشار	-10.8366
▁۱۶۰	-10.8366
▁رزم	-10.8374
▁سعد	-10.8379
▁کنی	-10.8383
رگس	-10.8396
زنی	-10.8405
وارد	-10.8406
▁۱۷۶	-10.8406
▁۵۸	-10.8406
نصف	-10.841
▁۶۱	-10.8412
کارشناسان	-10.843
▁استخوان	-10.8433
▁تیک	-10.844
ادا	-10.8442
موسس	-10.8444
▁شوش	-10.8451
محمدجواد	-10.8455
▁ویدئو	-10.8456
▁امو	-10.8458
▁مغ	-10.8459
یشب	-10.8467
روزنامه	-10.8469
▁کرایس	-10.847
▁نخ	-10.8478
لندر	-10.8483
▁سوگ	-10.8486
▁عزیز	-10.8512
▁مهاجمان	-10.8515
دال	-10.8516
▁جلال	-10.8517
▁الزام	-10.8524
▁ته	-10.8526
ناظر	-10.8527
رهبر	-10.8531
▁۵۴	-10.8532
▁مشت	-10.8535
ستا	-10.8538
▁پاکستانی	-10.8539
رشد	-10.8551
▁بلی	-10.8552
▁بهانه	-10.8562
▁کیت	-10.8566
احی	-10.8574
▁عا	-10.858
▁نای	-10.8585
گز	-10.8592
رانه	-10.8593
▁هلی	-10.8596
▁برگشته	-10.8599
▁پوشان	-10.8604
▁بانکها	-10.8607
رونمای	-10.8612
▁گزارشها	-10.8612
سوم	-10.8613
لور	-10.8621
▁منصوری	-10.8622
▁احمدشا	-10.8628
▁آنتی	-10.8629
▁سام	-10.8629
غه	-10.863
▁دانشجوی	-10.8635
▁نامی	-10.8647
عداد	-10.866
▁چال	-10.8668
▁جنای	-10.8673
▁دادم	-10.8675
▁گفتگوهای	-10.8676
▁اعما	-10.8685
▁املا	-10.8695
▁قض	-10.8701
▁سازه	-10.8704
▁۵۱	-10.8705
▁موسوی	-10.8706
▁ببر	-10.8709
▁شوت	-10.871
▁نس	-10.8717
▁مشوق	-10.8731
▁سومی	-10.8735
▁ذی	-10.874
▁تغییری	-10.8744
کید	-10.8748
▁سرنشین	-10.875
▁فرخ	-10.8753
▁تعمیر	-10.8756
▁انوش	-10.8757
▁خانوار	-10.8758
▁پائی	-10.8762
▁آلومینیوم	-10.8772
▁جغرافیای	-10.8772
▁مستضعفان	-10.8772
▁دگرگون	-10.8772
▁رستگار	-10.8772
▁سرتاسر	-10.8772
▁تفکیک	-10.8772
▁بنتلی	-10.8772
▁لاجورد	-10.8772
▁سنگاپور	-10.8772
▁خرچنگ	-10.8772
▁بدخشان	-10.8772
▁برشمرد	-10.8772
▁سرماخورد	-10.8772
▁مشکوک	-10.8773
ودی	-10.8773
▁کولمن	-10.8773
▁بوزمن	-10.8774
▁فحش	-10.8774
▁هواشناسی	-10.8774
▁نصیب	-10.8774
▁خدایاری	-10.8775
▁ارتقا	-10.8775
▁ریورا	-10.8776
▁مکتب	-10.8776
▁آویو	-10.8776
▁مسموم	-10.8776
▁وگوی	-10.8776
▁بسیج	-10.8776
▁متوفی	-10.8777
▁پناه	-10.8778
▁بهبهان	-10.8778
▁فطر	-10.878
▁اشعار	-10.8784
▁عسل	-10.8785
▁حاکمیت	-10.8785
▁سیارک	-10.8786
▁هرمز	-10.8787
▁تعل	-10.8789
▁ادارات	-10.8791
▁حضرت	-10.8791
▁تلفات	-10.8792
رطوب	-10.8794
▁۲۰۰۱	-10.8795
▁قسط	-10.8795
هار	-10.8796
▁متروکه	-10.8796
▁فروغ	-10.8798
▁بازنشستگی	-10.8799
تلسکوپ	-10.8799
▁غلط	-10.8802
▁تصاحب	-10.8805
▁دیدیم	-10.8807
▁کانادایی	-10.8809
زار	-10.8811
▁کاش	-10.8813
▁عارف	-10.8815
▁نارس	-10.8817
ناک	-10.8819
دین	-10.8821
▁ندانست	-10.8822
▁جیپ	-10.8825
وخامت	-10.8825
▁آلود	-10.8825
▁آرمان	-10.8825
▁ندهد	-10.8826
▁اعتنا	-10.8831
نال	-10.8837
▁آبادان	-10.8839
▁والدین	-10.8842
▁رونالدینیو	-10.8843
برید	-10.8848
شت	-10.8849
بخشی	-10.8852
خورده	-10.8852
▁چهاردهم	-10.8854
فته	-10.8856
فاد	-10.8857
▁توریست	-10.8861
▁گرسنگ	-10.8862
▁ناوگان	-10.8862
▁خوانند	-10.8865
▁پیرلو	-10.887
▁دشت	-10.8871
▁مغول	-10.8873
عارض	-10.8877
▁بالگرد	-10.8877
▁گلوب	-10.8877
▁مض	-10.8878
وکی	-10.8884
▁فشرد	-10.8889
▁اقتصاددان	-10.8892
▁مخلو	-10.8893
کسین	-10.8894
▁زنگ	-10.8902
یع	-10.8904
▁رساندند	-10.8911
▁مرادی	-10.8912
▁گردانند	-10.8915
سابقه	-10.8918
▁راکت	-10.8927
▁تیل	-10.8934
▁بور	-10.8938
انش	-10.894
کرد	-10.894
▁اتکا	-10.8946
▁حتما	-10.8946
▁میهمان	-10.8948
▁لرز	-10.895
▁مستقیما	-10.8958
▁ادوارد	-10.8969
علت	-10.8972
یسم	-10.898
▁آما	-10.8981
۱۷	-10.8981
▁تیموری	-10.8986
مجانی	-10.899
▁گوهر	-10.8991
▁بورگ	-10.8993
وفر	-10.8997
▁پرآ	-10.8998
سفر	-10.9002
▁ماهها	-10.9023
▁امپراتوری	-10.9023
▁سردار	-10.9031
فن	-10.9034
رگ	-10.9045
▁ورشکست	-10.9048
▁تبعید	-10.9053
▁زانوی	-10.9057
ژان	-10.9057
ندگان	-10.9059
▁بدنی	-10.9083
▁درگذشته	-10.9091
▁کمپ	-10.9093
۲۴	-10.9101
▁پرتر	-10.9104
رخی	-10.9111
▁رانت	-10.9113
شا	-10.9114
ارغ	-10.9117
▁ماری	-10.9121
نوعی	-10.9127
▁مباد	-10.913
واره	-10.9136
▁آندری	-10.914
کرونا	-10.9143
▁میز	-10.9145
بیه	-10.9146
▁یخی	-10.9156
▁وگوهای	-10.9158
▁اصولگرای	-10.9162
جر	-10.9165
▁۱۹۶۰	-10.9165
▁ایمان	-10.9171
واکنش	-10.9183
آژانس	-10.9187
▁ویزا	-10.92
خبر	-10.9205
کمیت	-10.9212
اعضای	-10.9216
شنگ	-10.9228
▁وظایف	-10.9236
مانع	-10.9238
امضاکنندگان	-10.9246
ترا	-10.9248
فعالان	-10.9255
فدرر	-10.9259
▁تروی	-10.926
أی	-10.9266
▁گرگ	-10.9267
▁۸۸	-10.9267
۹۹	-10.9269
آنتونی	-10.9271
اسماعیل	-10.9281
کانادا	-10.9281
▁ارگ	-10.9283
▁بدین	-10.9283
▁رایان	-10.9287
اخیرا	-10.9288
▁اک	-10.9288
ریچارد	-10.9289
▁عمو	-10.9292
▁شاهزاد	-10.9298
▁مهندسی	-10.9299
▁پراکن	-10.93
▁اپرای	-10.9302
▁۸۷	-10.9311
رخ	-10.9311
▁۸۹	-10.9318
▁پرت	-10.9343
▁قربان	-10.9345
حرفه	-10.9351
جیره	-10.9353
لیون	-10.9359
▁اقبال	-10.9362
▁استون	-10.9368
▁آنهاست	-10.9371
▁رخداد	-10.9371
▁شانزده	-10.9383
▁امپراتور	-10.9387
میم	-10.9391
▁۱۹۳	-10.9392
▁بخواهی	-10.9397
دالله	-10.9406
مای	-10.9411
▁کارتو	-10.9414
▁دوش	-10.9415
راجر	-10.9423
▁سفارشی	-10.9424
▁متیو	-10.9424
▁پیر	-10.9426
▁دیو	-10.9436
گفت	-10.9478
▁لحن	-10.9482
خامن	-10.9483
▁فرزندش	-10.9486
▁ویلا	-10.9494
▁دایر	-10.9497
پول	-10.9508
▁پیچید	-10.9514
▁۱۷۰	-10.9521
رشاد	-10.9528
▁لخت	-10.9531
لتی	-10.9539
سخ	-10.9541
زین	-10.9549
اکثریت	-10.9549
▁پاسخگو	-10.9553
▁آرش	-10.9554
بالغ	-10.9559
▁علاقمند	-10.9562
▁سیار	-10.957
▁بازخوان	-10.9571
▁نوزاد	-10.9575
▁گویی	-10.9583
جانب	-10.9587
▁پیچ	-10.9595
ائیل	-10.9597
▁تسهیل	-10.9599
▁گارد	-10.9601
▁ژنو	-10.9605
▁چرنکوف	-10.9605
▁اتیوپی	-10.9605
▁جاذبه	-10.9605
▁دانچیچ	-10.9605
▁تزئین	-10.9605
▁اختراع	-10.9605
▁مصیبت	-10.9605
▁مونتاژ	-10.9605
▁ویتنام	-10.9605
▁رئوف	-10.9605
▁امتداد	-10.9605
▁عواقب	-10.9605
▁کامبوج	-10.9605
▁البرز	-10.9606
▁معاین	-10.9606
▁مثلث	-10.9606
▁فروزش	-10.9607
▁گیگز	-10.9607
▁تعزیری	-10.9607
▁زیرساخت	-10.9607
▁وودز	-10.9608
▁اعصاب	-10.9608
▁پیشکسوت	-10.9609
▁روشنفکر	-10.961
▁طناب	-10.9611
▁آث	-10.9611
▁زیارت	-10.9613
▁بازنگری	-10.9614
▁نعمت	-10.9617
▁جناح	-10.9617
▁علایم	-10.9619
▁ابهامات	-10.9619
▁یادبود	-10.9621
▁دبیرستان	-10.9623
لیگ	-10.9624
▁کشم	-10.9625
▁ژیمناست	-10.9627
▁ریل	-10.9628
▁ویدئوی	-10.9628
▁ماس	-10.9628
▁مرکل	-10.963
▁سازندگان	-10.9631
▁نامجو	-10.9631
▁جولی	-10.9634
رکاب	-10.9637
▁متحدان	-10.964
▁مساحت	-10.964
▁تمرینات	-10.9646
▁تیره	-10.9652
▁انحصار	-10.9653
▁تعویض	-10.9654
▁غیبت	-10.9655
بالاحصار	-10.9655
واد	-10.9656
▁خبرها	-10.9659
▁عرفان	-10.9661
▁سرمای	-10.9661
▁شیع	-10.9661
▁گیلان	-10.9664
▁مایع	-10.9665
▁گذراندن	-10.9672
▁دیوانه	-10.9673
نم	-10.9675
مر	-10.9676
▁خشن	-10.9677
▁صریح	-10.9678
▁دورانگو	-10.9678
▁ماشه	-10.9679
▁مستندساز	-10.9682
▁سانتریفیوژهای	-10.9685
▁ریالی	-10.9687
▁روبروست	-10.9689
▁خیام	-10.9689
صداق	-10.9692
▁توس	-10.9692
▁گرفتم	-10.9695
▁ذات	-10.9704
▁آزمو	-10.9704
▁متخلفان	-10.971
▁اپراتورها	-10.9713
▁باشم	-10.9715
▁رامش	-10.9718
▁انداختن	-10.9718
▁نگارش	-10.972
▁باختری	-10.9725
▁جاد	-10.9726
قرض	-10.9728
▁مال	-10.9729
▁نوجوانان	-10.9735
▁گرجستانی	-10.974
▁عرف	-10.9741
▁ایندی	-10.9742
▁ژور	-10.9745
▁نیو	-10.9749
▁نمانده	-10.9755
▁رومانی	-10.9758
▁بقای	-10.9765
▁پارکر	-10.9773
▁اخلاق	-10.9773
▁جعفری	-10.9774
▁بدنش	-10.9775
مکعب	-10.9779
▁خلیل	-10.9782
▁بوئنو	-10.9785
▁ویدیوهای	-10.979
▁کینگ	-10.9804
▁پذیرای	-10.981
▁لیتر	-10.9816
▁علوی	-10.9817
▁صاف	-10.982
▁شیلی	-10.982
▁الیز	-10.9831
وانند	-10.9834
گفتگو	-10.9838
تهران	-10.9858
▁ابلاغی	-10.9861
▁تخصص	-10.9862
▁زی	-10.9877
غیب	-10.9883
تخا	-10.9903
▁رحمت	-10.9904
نشان	-10.9907
▁فرش	-10.9916
داستان	-10.9917
طرف	-10.9925
▁خالقی	-10.9925
▁لاری	-10.9936
باب	-10.9939
لینی	-10.9942
▁نگرفت	-10.9949
▁میکروب	-10.995
▁صح	-10.9954
▁عکاسان	-10.996
▁قا	-10.9967
▁رجب	-10.9971
ولت	-10.9978
۲۸	-11.0002
▁میلیاردر	-11.0004
▁۹۳	-11.001
▁گال	-11.001
▁افتتاحی	-11.0014
▁جوش	-11.0015
▁گاو	-11.0018
▁پریش	-11.0025
▁برآمد	-11.0027
▁شیفت	-11.0033
مسی	-11.0035
دلال	-11.0036
▁سون	-11.0037
۲۰	-11.0046
▁حراست	-11.0046
▁سوری	-11.0052
داران	-11.0052
▁افکاری	-11.0052
▁استاندارد	-11.0062
▁نوا	-11.0067
▁اعت	-11.0075
آلمان	-11.0077
بررسی	-11.008
آمریکایی	-11.0089
پر	-11.0096
▁فای	-11.0103
رم	-11.0108
▁یگان	-11.0111
▁توفیق	-11.0115
مد	-11.0116
تحقیقات	-11.0129
صندوق	-11.0131
شکل	-11.0133
دونالد	-11.0135
یونایتد	-11.0141
(	-11.0145
▁عط	-11.0146
▁دلال	-11.0149
روابط	-11.0151
▁کالای	-11.0152
عان	-11.0152
▁افق	-11.0157
▁چاب	-11.0161
▁جواهر	-11.0163
▁بوق	-11.0164
▁فوریت	-11.0173
▁آرم	-11.0174
▁فوتبالی	-11.0174
▁گنجی	-11.0179
▁مواقع	-11.018
خیم	-11.0181
▁نما	-11.0182
▁فار	-11.0186
▁آمریکای	-11.0186
سرعت	-11.0187
غلام	-11.0189
▁کودتا	-11.0189
همیلتون	-11.0192
رافائل	-11.0194
▁گردشگر	-11.0196
▁ضر	-11.0197
▁برفی	-11.02
ویکتور	-11.0203
▁برتری	-11.0208
▁هرکس	-11.0209
▁آشنای	-11.0219
▁میلاد	-11.0221
▁نیکلا	-11.0239
▁مسیح	-11.0246
▁باتر	-11.0254
▁فریب	-11.026
وازم	-11.0265
▁استرس	-11.0267
▁۳۲۰	-11.0269
زاب	-11.0273
سیویر	-11.0275
رالله	-11.028
گزار	-11.0283
هنورد	-11.029
▁تابو	-11.0291
نیروی	-11.0293
▁رسن	-11.03
ومبل	-11.0303
▁کول	-11.0308
▁سرور	-11.0313
خوان	-11.0365
واز	-11.0365
▁پویا	-11.0373
▁میکل	-11.0382
جانی	-11.0386
▁درآمدها	-11.0393
زادگان	-11.0402
ویر	-11.0408
▁سیر	-11.042
▁درو	-11.0421
▁جیل	-11.0425
▁بینید	-11.0433
▁مصرفی	-11.0441
نیا	-11.0445
ارت	-11.0447
▁گا	-11.0452
لمپ	-11.0454
بدا	-11.0458
▁۷۹	-11.0458
▁پهپاد	-11.046
بته	-11.0465
یرت	-11.0472
▁معاد	-11.0485
▁متغیر	-11.0486
▁مضر	-11.0495
ریت	-11.0502
▁جاپلقی	-11.0514
▁لابراتوار	-11.0514
▁ملاحظ	-11.0514
▁رمضان	-11.0514
▁دریابندری	-11.0514
▁کالدرون	-11.0514
▁کرگدن	-11.0514
▁اقتدار	-11.0515
▁تضاد	-11.0515
▁جونیور	-11.0515
▁آرتتا	-11.0515
▁قضاوت	-11.0515
▁رژیم	-11.0515
▁گریبان	-11.0515
▁وگاس	-11.0516
▁پاراگوئه	-11.0516
▁الاجل	-11.0516
▁بفروشند	-11.0516
▁یخچال	-11.0517
▁معالج	-11.0519
▁واریز	-11.0519
▁دوستداران	-11.052
تاکس	-11.0523
▁تکامل	-11.0523
▁۱۹۷۰	-11.0523
▁گردنبند	-11.0523
▁نوازندگان	-11.0523
▁اذیت	-11.0524
▁تنگنا	-11.0525
بهم	-11.0525
▁بخرد	-11.0525
وحید	-11.0527
▁تبریک	-11.0527
▁فروشندگان	-11.0528
▁استفانو	-11.053
▁تهاجمی	-11.0531
▁کلانتری	-11.0533
▁مبالغ	-11.0535
▁اقامتگاه	-11.0537
▁تویوتا	-11.0538
▁بتهوون	-11.0538
▁موکل	-11.0538
▁خلاق	-11.0539
▁ودیعه	-11.0543
هادی	-11.0543
▁شناگر	-11.0544
▁آموز	-11.0545
▁برسند	-11.0546
▁اشنویه	-11.0547
▁ندادن	-11.0551
رود	-11.0551
▁هشتصد	-11.0552
▁حی	-11.0554
▁شرح	-11.0555
▁خلوت	-11.0561
▁مردمی	-11.0562
▁گرامی	-11.0562
▁پیشگامان	-11.0564
▁گرانتر	-11.0567
▁خوشحالم	-11.0568
▁خوشبخت	-11.0568
فون	-11.0569
▁نوزادان	-11.0569
▁خویش	-11.0571
▁تصدی	-11.0573
▁راهنمای	-11.0575
▁گریه	-11.0576
فه	-11.0582
▁نویسندگ	-11.0602
▁فرق	-11.0602
▁ماهشهر	-11.0606
▁گلو	-11.0608
ورا	-11.0617
▁پرشور	-11.062
▁افسران	-11.0625
دوست	-11.0631
▁اعظم	-11.0633
▁اینستاگرامش	-11.0639
▁تورین	-11.064
▁عظیمی	-11.0643
▁گزینش	-11.0646
▁سالیانه	-11.0652
زمینی	-11.0653
▁گره	-11.0653
نشین	-11.0656
▁متولی	-11.0657
▁خر	-11.0663
▁امتیازات	-11.0665
▁ساری	-11.0668
▁سینماگران	-11.0671
زو	-11.0686
ناب	-11.0687
▁بازیار	-11.0694
▁راد	-11.07
▁شرع	-11.0704
▁مزایای	-11.0707
▁واحدها	-11.0709
▁میلی	-11.0712
▁حاد	-11.0717
▁تق	-11.0718
▁کوهن	-11.0718
لفظ	-11.0723
▁مائوریتس	-11.0729
حض	-11.0744
▁مظ	-11.0745
کیو	-11.0747
▁پیداست	-11.0752
▁ماندند	-11.0756
▁گردون	-11.0757
▁رامی	-11.0761
اران	-11.0772
▁نشدند	-11.0774
▁کلیسای	-11.0775
دترا	-11.0777
بادی	-11.0779
قبل	-11.0787
میلیون	-11.0794
▁کشمی	-11.0803
▁ارگان	-11.0803
▁مشهورتر	-11.0809
شش	-11.0814
جاد	-11.082
▁اکا	-11.0824
▁بازگو	-11.0825
▁اچ	-11.0826
۹۱	-11.0828
▁دیدم	-11.0828
زمن	-11.083
▁قرض	-11.083
زاد	-11.0832
پا	-11.0845
وظ	-11.0858
پچو	-11.086
▁شرم	-11.0871
کاهش	-11.0878
▁مونت	-11.0885
▁معاهد	-11.0897
▁شورش	-11.0911
▁نظری	-11.0912
▁سوا	-11.0914
▁حرم	-11.092
▁شرمن	-11.0922
انتخابات	-11.0928
دلیل	-11.0932
▁مسال	-11.0934
▁مینا	-11.0949
دفتر	-11.0953
مسابقات	-11.0953
ویچ	-11.0954
▁حریم	-11.1002
▁استیون	-11.1006
▁بصر	-11.1009
یاپی	-11.102
▁گودا	-11.1024
▁اولیان	-11.1025
▁مدتها	-11.1028
فا	-11.103
▁ریو	-11.1035
▁محسوس	-11.1035
اقتصاد	-11.1039
اطلاعات	-11.1042
▁لوا	-11.1047
▁دود	-11.1051
▁اغل	-11.1054
کمتر	-11.1063
یکپا	-11.107
▁فال	-11.1076
▁سفی	-11.1082
▁غل	-11.1086
اوش	-11.1086
دگان	-11.109
▁صدد	-11.1092
ترکیه	-11.1092
نخست	-11.1098
زیه	-11.1106
▁شل	-11.1111
▁تحری	-11.1112
▁آرزو	-11.1113
▁شعبان	-11.1123
چرا	-11.1132
پایه	-11.1134
▁ژو	-11.1137
▁سفره	-11.1147
▁دوری	-11.1149
تاتنهام	-11.1154
همین	-11.1159
چلسی	-11.1161
مو	-11.1162
▁ثا	-11.1162
▁ملته	-11.1167
اسپانیا	-11.1178
انجمن	-11.118
گوف	-11.1182
سایت	-11.1184
▁طیب	-11.1185
▁تفسیر	-11.1189
نظامی	-11.1194
اتریش	-11.1197
اله	-11.12
▁بازرگان	-11.1205
▁ژاک	-11.1209
اداره	-11.121
▁پنا	-11.1211
▁اندام	-11.1213
▁جنر	-11.1215
رتب	-11.1217
▁دانشجو	-11.1222
نگاران	-11.1223
▁استعمار	-11.1224
▁وگوها	-11.1236
کاوه	-11.124
والی	-11.1245
دخت	-11.1248
لاتین	-11.125
▁تاکتیک	-11.125
▁سرگرم	-11.1254
تخصصی	-11.1255
گا	-11.1255
▁مندان	-11.1256
▁۲۰۲	-11.1257
▁لطف	-11.1261
▁یکبار	-11.1261
▁مصر	-11.1264
▁قطرک	-11.1268
▁درآمده	-11.1273
شما	-11.1273
▁وظ	-11.1273
عادت	-11.1273
جل	-11.128
▁فردین	-11.1286
منی	-11.1289
▁رکوردها	-11.1289
زیر	-11.1289
حمید	-11.1291
▁کولبر	-11.1302
سنگ	-11.1307
▁فین	-11.1307
ضرر	-11.1324
▁مقد	-11.1332
رینگ	-11.1333
▁نظرهای	-11.1344
رگیری	-11.1352
▁رنجر	-11.1359
ابلو	-11.1369
نر	-11.1374
▁کلان	-11.138
حمله	-11.1388
تل	-11.1388
تصور	-11.1394
▁بلو	-11.1399
▁مجرم	-11.1402
یز	-11.1402
ولوژی	-11.1405
ورت	-11.1434
بجای	-11.1443
یلیون	-11.1444
▁نیل	-11.1447
▁سینو	-11.145
▁تخل	-11.1452
▁کوبید	-11.1453
▁دستیار	-11.1455
▁اندرکار	-11.146
▁سیاستمدار	-11.1462
▁بیل	-11.1468
گیل	-11.1474
▁بجا	-11.1482
تاب	-11.1482
▁مسیرها	-11.1486
نفتی	-11.1488
نجیره	-11.1489
▁گردید	-11.1489
▁مسن	-11.1491
▁محصولاتش	-11.1491
▁دول	-11.1501
▁جزئی	-11.1511
▁آبراموویچ	-11.1514
▁زاناردی	-11.1514
▁الگوریتم	-11.1514
▁خنثی	-11.1514
▁پولیتزر	-11.1514
▁ایوانکوویچ	-11.1514
▁بلانشت	-11.1514
▁ربیعی	-11.1515
▁ناگزیر	-11.1515
▁زاکانی	-11.1515
▁خاشقچی	-11.1515
▁دردناک	-11.1515
▁اسپایدر	-11.1515
▁آوازخوان	-11.1515
▁آژیر	-11.1515
▁آشپز	-11.1515
▁ذیبخش	-11.1515
▁متمایز	-11.1515
▁ووهان	-11.1515
▁مصلحت	-11.1516
▁ابداع	-11.1516
▁عنصر	-11.1516
▁ناپولی	-11.1516
▁نامم	-11.1516
▁آنکارا	-11.1517
▁بشردوستانه	-11.1517
▁سانتیمتر	-11.1517
▁نامناسب	-11.1517
▁بسازد	-11.1517
▁مارسیال	-11.1517
▁قائل	-11.1517
▁بدهکار	-11.1519
▁داوود	-11.1522
▁نکشید	-11.1522
▁محفظه	-11.1522
ضاح	-11.1523
▁آمبول	-11.1523
▁شکارچی	-11.1523
▁۱۹۲۰	-11.1525
▁حسرت	-11.1526
رسون	-11.1527
▁نپال	-11.1527
▁انباشت	-11.1527
▁بارچا	-11.1528
▁عصبانی	-11.1528
شنا	-11.1529
▁روانشناس	-11.1529
▁یوو	-11.1529
▁اجساد	-11.1531
▁موعد	-11.1534
تلاش	-11.1535
▁صراحت	-11.154
راق	-11.1542
▁منظم	-11.1546
▁معاونان	-11.1547
نفر	-11.1548
▁نامگذاری	-11.155
▁بیم	-11.1551
هین	-11.1554
▁کادیس	-11.1554
▁رخشانه	-11.1562
▁صید	-11.1562
▁بذر	-11.1563
▁کریم	-11.1564
▁بزن	-11.1566
▁گواهی	-11.1567
▁مشروب	-11.1567
▁گوییم	-11.1568
▁غرو	-11.1568
▁پرند	-11.1568
▁ساسانی	-11.1569
▁گناه	-11.1572
▁ریسک	-11.1572
▁مسبب	-11.1585
▁باریک	-11.1588
▁هلندی	-11.1591
▁پردازند	-11.1593
▁بیورن	-11.1593
▁پستاندار	-11.1598
▁معیارهای	-11.1598
▁انداختند	-11.1599
▁نامشخص	-11.1599
تصویر	-11.1603
▁دانشگاهی	-11.1607
اعلام	-11.1607
▁موس	-11.1608
▁مرت	-11.1616
▁رابین	-11.1618
▁فرحی	-11.1631
نقل	-11.1632
▁نهفته	-11.1636
۱۹۶۵	-11.1637
بریتی	-11.1647
▁بهزاد	-11.1648
▁مهمانان	-11.1649
مص	-11.165
▁متحدانش	-11.165
▁گدار	-11.1652
▁چار	-11.1652
▁گوف	-11.1652
▁سهراب	-11.1653
گرایی	-11.1653
برد	-11.1654
▁کتک	-11.1657
ابل	-11.1663
▁برنگشت	-11.1666
▁بلک	-11.1683
▁کارگروه	-11.1683
گروهی	-11.1684
هرابی	-11.1688
▁سالی	-11.1689
شیپ	-11.169
▁پردرآمد	-11.1699
▁ژنرا	-11.17
▁بش	-11.1705
▁قاسمی	-11.1707
قدس	-11.1707
▁روحی	-11.1708
▁وحشت	-11.1712
▁توقع	-11.1712
▁نوی	-11.1713
▁یاوری	-11.1715
▁القا	-11.1715
سوس	-11.1721
▁درخشید	-11.1726
▁بفهم	-11.1733
سایه	-11.1734
▁نیس	-11.1738
▁اق	-11.1744
▁کیا	-11.1746
▁خیز	-11.1746
▁ناقل	-11.1746
▁ژی	-11.1751
ستی	-11.1753
خواه	-11.176
لپ	-11.177
حقق	-11.1774
مایک	-11.1777
▁سرف	-11.1779
صدای	-11.1784
▁فابی	-11.1784
▁حفر	-11.1787
▁آلایند	-11.1789
▁خاوری	-11.1792
▁چرب	-11.1804
▁قید	-11.1806
▁مق	-11.1809
▁وادار	-11.1824
▁فنل	-11.1824
ملو	-11.1828
فیلد	-11.1831
امین	-11.1833
▁ساعته	-11.1835
▁عمدی	-11.1843
یسی	-11.1845
▁سب	-11.1845
▁جنگی	-11.1846
جام	-11.1855
▁همر	-11.1855
▁صده	-11.1856
▁مخ	-11.1862
هکرها	-11.1862
▁مبارک	-11.1862
▁رقبای	-11.1863
▁مانند	-11.1864
۴۲	-11.1866
▁معین	-11.1868
▁مسافری	-11.1872
▁کلاین	-11.1872
نها	-11.1879
▁کارفرما	-11.1881
▁نخب	-11.1887
▁گلی	-11.189
▁بخواهد	-11.1893
▁شام	-11.1906
▁بازجوی	-11.1909
▁فهمید	-11.191
ریس	-11.1914
▁احسا	-11.194
شو	-11.1942
پتون	-11.1954
داده	-11.1958
▁تابستانی	-11.1959
آغاز	-11.1968
▁گرای	-11.1969
نج	-11.1971
یفه	-11.1977
اکبر	-11.1989
۶۱	-11.199
▁منک	-11.1998
مرز	-11.2007
▁نیاورد	-11.2009
▁زلا	-11.201
▁برآورده	-11.2014
▁کوش	-11.2016
حضور	-11.2018
وزن	-11.2043
▁یار	-11.2045
▁۱۸۰	-11.2063
افت	-11.2068
▁فخر	-11.2072
▁پری	-11.2072
ارتاک	-11.2082
▁شکوف	-11.2088
▁آتا	-11.2093
خودرو	-11.2095
تصمیم	-11.2097
▁لاس	-11.21
کست	-11.2112
درگذشت	-11.2123
▁دزد	-11.2125
▁مبت	-11.2128
▁برهم	-11.2129
الت	-11.213
▁کاران	-11.2131
▁تندی	-11.2136
ارو	-11.2138
▁گز	-11.2143
▁آلبر	-11.2143
▁باقر	-11.2147
زده	-11.2159
مذاکرات	-11.2161
▁کشتن	-11.2161
شدیدترین	-11.2171
▁استثنای	-11.2175
صالح	-11.2197
▁بانو	-11.22
▁جوا	-11.2207
▁پینگ	-11.2208
قصد	-11.2212
▁سنگر	-11.2213
▁الن	-11.2214
مارادونا	-11.2216
▁۱۱۰	-11.224
▁تجلی	-11.2242
چشم	-11.2245
▁قب	-11.2246
نتی	-11.2249
مشخص	-11.2251
هشدار	-11.2255
تصاویر	-11.2255
▁رفتم	-11.2258
ارزش	-11.2261
فو	-11.2263
نقاشی	-11.2265
▁اجتماع	-11.2268
بورس	-11.2269
ژ	-11.2281
▁پرد	-11.2282
فرگوس	-11.2288
وویچ	-11.231
▁تص	-11.2311
▁منصو	-11.2321
بحث	-11.2325
هماهنگ	-11.2326
روند	-11.2328
تابعیت	-11.2331
▁مهمتر	-11.2331
▁توانی	-11.2337
▁۸۳	-11.234
نون	-11.2341
▁کنیا	-11.2342
لیچ	-11.2343
اطم	-11.2348
▁رائو	-11.2354
په	-11.2355
الیاس	-11.2358
▁کروناست	-11.2371
▁بالی	-11.2376
سلط	-11.2379
▁بلخ	-11.2401
▁نابود	-11.2404
دلان	-11.2409
▁سهیم	-11.2412
▁نمازی	-11.2413
ایف	-11.2414
باتری	-11.2424
ترانه	-11.2429
یافته	-11.2431
▁جنگند	-11.2431
▁دعا	-11.2448
دند	-11.2452
▁الع	-11.2463
▁پسرم	-11.2474
صاب	-11.2479
▁برپا	-11.2482
آلود	-11.2486
▁پذیری	-11.2493
اراک	-11.2493
▁لوی	-11.2497
خانقا	-11.2498
رمان	-11.2503
غی	-11.2504
▁اکبری	-11.2506
▁غیربو	-11.2508
▁۹۲	-11.2509
۶۲	-11.2533
نتیج	-11.2535
▁برآوردها	-11.2544
▁ایوان	-11.2568
▁دادخواه	-11.2569
▁الی	-11.2569
▁کین	-11.2573
لیسب	-11.2575
▁۱۳۰	-11.2576
ستند	-11.2584
▁تیتر	-11.2589
▁فرانسیس	-11.2598
▁صدم	-11.2604
بیست	-11.2605
▁الگو	-11.2613
▁مطلبی	-11.2618
نگیز	-11.262
▁درسی	-11.262
▁عزیزان	-11.2624
▁آکسفام	-11.2626
▁بلایندرز	-11.2626
▁رفسنجان	-11.2626
▁شیکاگو	-11.2626
▁ضوابط	-11.2626
▁لومامبا	-11.2626
▁پدافند	-11.2626
▁راهپیمایی	-11.2626
▁دفاتر	-11.2626
▁التحصیل	-11.2626
▁ترشح	-11.2626
▁تأسیس	-11.2626
▁مضاعف	-11.2626
▁مسوول	-11.2626
▁النصر	-11.2626
▁هلمند	-11.2626
▁باکتری	-11.2626
▁قاعدتا	-11.2626
▁فرناند	-11.2627
▁فرسایش	-11.2627
▁حرارت	-11.2627
▁خودکفا	-11.2627
▁نادری	-11.2628
▁رغبت	-11.2628
▁نیچر	-11.2628
▁خلوتگر	-11.2628
ایل	-11.2628
▁کالینز	-11.2628
▁۱۹۷۳	-11.2628
▁کفایت	-11.2628
▁فرنود	-11.2629
▁تعاون	-11.2629
▁بنشیند	-11.263
▁مجاهد	-11.263
▁برگردند	-11.2631
▁بیافتد	-11.2631
▁۱۹۶۷	-11.2632
▁خردسال	-11.2632
▁آنفیلد	-11.2632
▁قاتل	-11.2632
▁تبلت	-11.2632
▁بگذارند	-11.2634
▁مخاطب	-11.2635
▁آهسته	-11.2635
▁قارچ	-11.2637
▁انتصاب	-11.2639
▁۱۳۵۰	-11.2639
▁زادگاهش	-11.264
▁تربیت	-11.264
▁توازن	-11.2642
▁عروق	-11.2642
▁حوض	-11.2643
▁اتومات	-11.2643
قندهار	-11.2643
▁کدخدایی	-11.2646
▁لامرد	-11.2646
▁پرتو	-11.2648
▁فرستد	-11.2648
▁نجوا	-11.2649
▁پیانو	-11.2652
▁تقلب	-11.2654
▁مری	-11.2654
▁ندهند	-11.2655
▁رکوردشکن	-11.2656
▁بگویند	-11.2657
▁آرایشگاه	-11.2657
▁فرسود	-11.2658
▁شفا	-11.2659
▁معلولان	-11.2659
▁خوانی	-11.2659
ستثن	-11.266
▁۲۰۰۶	-11.2661
▁خطی	-11.2667
▁کوهنورد	-11.2669
▁منفرد	-11.2669
▁رودکی	-11.267
▁هاپک	-11.2672
▁جد	-11.2673
تاج	-11.2675
▁دوتار	-11.2678
جوزپ	-11.2678
▁پناهند	-11.2683
عضو	-11.2686
▁ونگر	-11.2687
▁اندرکاران	-11.269
▁استانداری	-11.269
▁اسپورت	-11.269
واقع	-11.2692
▁استقامت	-11.2693
رن	-11.2694
▁کوپتر	-11.2694
▁لبنانی	-11.2695
▁نیمروز	-11.2698
کشته	-11.2704
▁یابند	-11.2705
▁مورل	-11.2705
▁معتمدی	-11.2706
▁ران	-11.2712
▁جرج	-11.2714
▁سکوها	-11.2715
▁هولم	-11.2715
▁شکستن	-11.272
جد	-11.2721
▁صرب	-11.2723
▁آرت	-11.2723
▁شخصا	-11.2726
▁کانل	-11.2726
تفرق	-11.2727
▁شانگ	-11.2728
اوران	-11.2732
▁اختیارات	-11.2733
▁دلتا	-11.2734
موسیقی	-11.2737
۵۸	-11.274
▁مصا	-11.2744
▁قاب	-11.2753
▁فضاپیمای	-11.2758
▁دستیاران	-11.2759
▁چرخش	-11.276
▁کیمن	-11.2761
▁عمد	-11.2761
▁آنا	-11.2769
▁هامون	-11.2771
▁خد	-11.2773
▁راستش	-11.2773
▁پسند	-11.2786
▁بروم	-11.2787
▁اضافی	-11.2789
▁وکلای	-11.2793
ایب	-11.2796
▁برگردانده	-11.28
▁پهن	-11.2807
▁محتوی	-11.2813
▁مهل	-11.2813
▁پال	-11.2818
▁بیانسه	-11.2819
▁قاعد	-11.282
▁ادل	-11.2824
▁کلدی	-11.2826
▁بدوی	-11.283
▁پروست	-11.2832
▁جون	-11.2834
بد	-11.2835
▁لینک	-11.2836
▁گرمی	-11.2841
▁مشخصات	-11.2859
▁منجم	-11.2862
بیل	-11.2885
ائم	-11.2886
▁تولیدکنند	-11.2887
▁مراود	-11.2892
▁نیوز	-11.2894
▁تحریمها	-11.2894
رنج	-11.2897
▁بروید	-11.2897
▁آپ	-11.291
▁نهایتا	-11.291
▁کجاست	-11.2922
▁منظره	-11.2922
مهربان	-11.2932
۵۷	-11.2933
ترک	-11.2941
تم	-11.2946
کام	-11.2948
▁کاوا	-11.295
▁سریعتر	-11.2955
▁مولان	-11.2958
گاوا	-11.2962
▁جفت	-11.2962
ولین	-11.2968
▁درمی	-11.2979
دیدار	-11.298
سیما	-11.2984
▁فشارها	-11.2987
▁قف	-11.2988
▁هریس	-11.2992
▁ضیا	-11.2992
▁دنیل	-11.3004
▁جراحت	-11.3009
▁دیدند	-11.301
▁قبا	-11.3014
▁سرما	-11.3014
▁چای	-11.3017
روح	-11.3024
لین	-11.3024
▁صفرها	-11.3024
▁کویت	-11.303
▁افزودن	-11.3031
هی	-11.3037
▁بیدار	-11.3037
▁تاجیکان	-11.3041
ابق	-11.3042
▁خم	-11.3043
▁مول	-11.3044
▁پارچ	-11.3046
▁ساع	-11.3046
▁سیمون	-11.3047
▁توق	-11.3056
▁رسی	-11.3059
▁۱۹۶	-11.3059
▁خار	-11.306
باع	-11.3063
همچن	-11.3064
▁هراس	-11.3068
▁نیازها	-11.3073
▁رشید	-11.3076
پیر	-11.3076
▁دنی	-11.3079
کلی	-11.3086
▁نیستم	-11.309
▁ساید	-11.3092
دامس	-11.3095
▁امریکا	-11.3098
▁اعدا	-11.3105
گشاد	-11.3107
▁مادی	-11.3109
ایند	-11.3112
▁مبا	-11.3115
▁افش	-11.3118
▁وض	-11.3118
پذیر	-11.3119
▁بیتل	-11.3121
▁کاپل	-11.3122
▁لوکه	-11.3137
▁مصم	-11.3144
هدیه	-11.3147
▁کلاه	-11.3165
لقی	-11.317
خط	-11.3187
ستر	-11.3201
▁هادی	-11.3203
انت	-11.3208
کند	-11.3211
ذل	-11.3216
فره	-11.3221
▁سارا	-11.3223
▁جنی	-11.3227
▁۸۴	-11.3231
▁گرما	-11.3237
▁درآمدزا	-11.3246
اهی	-11.3247
▁بخشید	-11.3255
▁رز	-11.326
لانتی	-11.3268
گرا	-11.3271
لاب	-11.3272
یج	-11.3277
▁نر	-11.3281
▁اسپی	-11.3295
دمای	-11.3299
▁گویا	-11.3303
ریگو	-11.3309
▁استادان	-11.3309
▁طاق	-11.3311
▁اینج	-11.332
گوئر	-11.3322
کنون	-11.3331
أ	-11.3332
▁لاش	-11.3333
فتن	-11.3348
ژهای	-11.3359
ایه	-11.337
رها	-11.3373
▁پوشیدن	-11.3378
▁فهم	-11.3389
مسابقه	-11.3397
سری	-11.3402
▁سناریو	-11.3405
رکورد	-11.3422
▁رقبا	-11.3461
▁بنیا	-11.3466
برداری	-11.3478
▁مغزش	-11.348
▁طل	-11.3483
▁تراز	-11.3487
استرالیا	-11.3488
نتایج	-11.3489
خطر	-11.3491
سرجی	-11.3495
فاصل	-11.3499
▁سیلی	-11.3502
پیروز	-11.3508
▁آپو	-11.3512
اچو	-11.3513
سریع	-11.3518
گارت	-11.3521
مجتب	-11.3522
پولیس	-11.3524
رفه	-11.3531
کینگ	-11.3535
کلوپ	-11.3537
نیف	-11.3539
زود	-11.3539
منظور	-11.3539
▁قوز	-11.354
▁کمیاب	-11.3541
قاسم	-11.3543
داشته	-11.3545
▁مکس	-11.3545
فضل	-11.3556
▁پرز	-11.3557
۲۲	-11.3557
نگرانی	-11.3557
▁هشدارهای	-11.356
راب	-11.3576
▁کرمانشاه	-11.3583
▁معا	-11.3584
تشکر	-11.3585
صرف	-11.3598
▁برایت	-11.3606
▁ناآرام	-11.3609
▁کلیسا	-11.3613
رش	-11.3617
▁پهلو	-11.3619
دایی	-11.362
▁سپید	-11.3622
▁ولد	-11.3625
▁مست	-11.3625
آیا	-11.3628
حق	-11.3643
▁۴۲۰	-11.3644
▁جورجی	-11.366
▁نگر	-11.3685
دنظر	-11.3689
▁دوید	-11.3694
▁پرید	-11.3703
دربند	-11.3708
▁ایرلندی	-11.3709
▁سروده	-11.3726
▁مسیری	-11.373
گیر	-11.3743
حام	-11.3751
▁متخلف	-11.3751
اه	-11.3753
▁خریدن	-11.3753
اکی	-11.3762
▁اخ	-11.377
▁قان	-11.377
▁جیمی	-11.3773
▁زک	-11.3774
▁نماند	-11.3784
▁قاطعان	-11.3785
▁۶۳	-11.3791
بور	-11.3794
حث	-11.3795
▁تبع	-11.3796
کلاهبرداری	-11.3803
مرغ	-11.3804
▁فل	-11.3805
▁تخ	-11.3807
▁بتوانی	-11.3809
▁ایال	-11.381
▁میلیاردرها	-11.3816
▁شاگرد	-11.3817
▁پیشگام	-11.3822
▁۶۹	-11.3822
▁ریوی	-11.3824
▁سفرها	-11.3834
▁معلول	-11.3835
▁اصالت	-11.3839
لال	-11.384
رسیدن	-11.3842
▁مقاوم	-11.3847
▁بوفالو	-11.3853
۸۵	-11.386
▁لیو	-11.3872
▁شم	-11.3873
ستعار	-11.3874
▁فیلسوف	-11.3876
▁ماسویدال	-11.3876
▁کانگورو	-11.3876
▁سانتیگراد	-11.3876
▁عناوین	-11.3876
▁کادرفنی	-11.3876
▁اقتباس	-11.3876
▁سرلشکر	-11.3876
▁تجدد	-11.3876
▁غیرمجاز	-11.3876
▁ژنشنگ	-11.3876
▁سیستماتیک	-11.3876
▁زائر	-11.3876
▁ماراکانا	-11.3876
▁گاگا	-11.3876
▁کلروک	-11.3877
▁جاودان	-11.3878
▁آرسن	-11.3878
▁خاشق	-11.3878
▁طلسم	-11.3878
▁تجدیدنظر	-11.3879
▁۱۹۶۹	-11.3879
▁مرضیه	-11.3879
▁قائم	-11.3879
▁ارژن	-11.3879
▁پابرجاست	-11.3879
▁۱۹۶۶	-11.388
▁نابرابر	-11.388
▁صفوف	-11.388
تصاعد	-11.3881
لث	-11.3881
▁برگردیم	-11.3881
▁معلولیت	-11.3882
▁مولوی	-11.3882
▁شاهرود	-11.3882
▁گریگوریان	-11.3883
▁فرنگی	-11.3884
▁شیرجه	-11.3885
▁۱۹۹۵	-11.3885
▁۷۵۲	-11.3885
▁پابند	-11.3886
▁سازندگی	-11.3887
▁مختاری	-11.3887
▁پاسگاه	-11.3889
▁بیولوژیک	-11.3891
▁هالپ	-11.3894
▁سلتیک	-11.3894
▁سازوکارهای	-11.3896
▁لبخندها	-11.3897
▁برایانت	-11.3897
▁لوک	-11.3899
▁۷۵۰	-11.3899
▁قبیل	-11.39
▁فلزات	-11.39
▁حاتمی	-11.3903
▁گسل	-11.3904
▁اسنپ	-11.3905
طری	-11.3905
▁ارکستر	-11.3906
▁الاکلنگ	-11.3906
▁نابسامان	-11.3906
▁سردرگم	-11.3906
وئرنیک	-11.3907
▁فیروزجا	-11.3908
▁خلبان	-11.3909
▁کیلوولت	-11.391
▁سفیددره	-11.3911
▁سحرگاه	-11.3911
▁امیدوارکننده	-11.3912
▁دادخواست	-11.3912
▁۱۹۶۸	-11.3913
▁یونسی	-11.3914
نان	-11.3915
▁ژنوم	-11.3918
مانه	-11.3918
▁نورمحمد	-11.3918
▁کری	-11.3919
▁اسمیت	-11.392
▁تفکر	-11.3921
▁مأموریت	-11.3922
▁هما	-11.3923
▁آویز	-11.3923
▁ملکشا	-11.3924
▁آسپر	-11.3926
▁هول	-11.3928
▁علیزاده	-11.3928
▁سک	-11.3932
▁نامعلوم	-11.3932
▁پادمان	-11.3933
▁رژه	-11.3936
▁هوشیاری	-11.3936
بپرس	-11.3939
▁پارکور	-11.3941
▁شکننده	-11.3943
ظه	-11.3946
▁فرندز	-11.3949
▁خرمشهر	-11.395
▁ماوریک	-11.395
اید	-11.3956
▁روستاهای	-11.396
▁چابک	-11.396
▁تعلیم	-11.3962
▁درها	-11.3964
▁نیکولا	-11.3968
▁فورا	-11.3969
▁زودرس	-11.397
▁نجومی	-11.397
▁ابدی	-11.3973
▁کلاهبردار	-11.3975
▁سیاهپوست	-11.3976
▁ریختن	-11.3979
عاش	-11.3979
▁کشتند	-11.3983
لوب	-11.3985
▁بگوید	-11.3986
▁دوندگان	-11.3992
▁چادر	-11.3995
▁کوشید	-11.4
ارومیه	-11.4002
حصول	-11.4008
نیچ	-11.4008
مغناطیس	-11.4019
▁لندرو	-11.4019
▁همب	-11.402
▁فرزندانش	-11.4025
▁انگیزترین	-11.4025
شوه	-11.4026
▁نشانگر	-11.4027
▁لیبی	-11.4028
▁مهیب	-11.4031
راک	-11.4032
▁پاسدار	-11.4032
▁کثیر	-11.4036
▁کامران	-11.4037
▁شنید	-11.4041
▁محا	-11.4045
▁برگزارکنند	-11.4051
لانتا	-11.4052
▁موسیقیدان	-11.4053
▁کلیپ	-11.4053
▁اشتباهات	-11.4055
▁ترا	-11.4055
تاکنون	-11.406
ینی	-11.406
گرنه	-11.4063
▁خطا	-11.4066
▁نایا	-11.4068
وزرای	-11.407
▁پیمود	-11.4076
▁لط	-11.4079
▁اقیانوسیه	-11.408
▁بفرستید	-11.4082
یامک	-11.4088
▁کوپر	-11.4088
▁جهانبخ	-11.4092
▁هیولای	-11.4093
▁کاندیدا	-11.4111
میدان	-11.4112
▁سینماگر	-11.4112
▁سلام	-11.4113
ازما	-11.4124
ائی	-11.413
▁نهادی	-11.4132
▁بازیافت	-11.4134
▁چارل	-11.4139
▁مجادل	-11.4139
▁دیوارهای	-11.4139
▁گرفتیم	-11.4144
قیاس	-11.4144
۹۳	-11.4145
▁بلید	-11.4147
باط	-11.4148
▁پاتر	-11.4149
▁برن	-11.4163
▁بشریت	-11.4166
▁تم	-11.4167
▁رول	-11.4177
▁دبی	-11.4177
▁صمیمی	-11.4189
شک	-11.4189
▁شایست	-11.4192
جیک	-11.4193
بنی	-11.4197
▁جراحان	-11.4199
کمی	-11.4206
▁پینک	-11.4207
▁سهامدار	-11.4208
تناسب	-11.4215
▁یوسی	-11.4219
▁خدای	-11.4225
جهان	-11.4233
▁ساترا	-11.4237
▁آرزوهای	-11.4237
اور	-11.424
▁منقل	-11.4248
▁نیستیم	-11.425
▁حواس	-11.4259
زیو	-11.4264
افتاده	-11.4269
▁پیامک	-11.4275
▁کارل	-11.4278
▁بکند	-11.4282
▁۱۸۵	-11.4292
ولد	-11.4293
▁خالد	-11.4308
▁بالاست	-11.4314
روازه	-11.4326
▁بله	-11.4329
یونان	-11.4334
▁نایاب	-11.4335
یکه	-11.4336
▁لیدی	-11.4339
▁مسا	-11.435
▁کلم	-11.4352
ئوری	-11.4353
آفرینی	-11.4356
▁بچ	-11.4358
پای	-11.4359
قو	-11.436
▁ساختند	-11.4362
▁نرفت	-11.4368
مایه	-11.4371
▁همخوان	-11.4389
▁جرد	-11.439
▁کبد	-11.4412
▁زنیم	-11.4415
دریچ	-11.4416
▁پرش	-11.4416
▁اسکان	-11.4418
▁محف	-11.442
آور	-11.4424
الکس	-11.4426
▁گیتار	-11.4432
ویروس	-11.4438
سیلوا	-11.4441
بال	-11.4444
رف	-11.4445
▁فروشند	-11.4455
▁قطعا	-11.4458
صیل	-11.4462
▁ناشر	-11.4468
▁اصولی	-11.4468
▁داروین	-11.4471
▁نشستن	-11.4478
لیه	-11.4482
▁ویروسی	-11.4483
فرجام	-11.4487
▁ترکی	-11.4488
▁سانتو	-11.4492
یگر	-11.4501
تعداد	-11.4502
▁رپ	-11.451
▁غیرع	-11.4516
▁شرک	-11.4537
▁بادی	-11.4547
ایشگاه	-11.4561
وجیه	-11.4563
ئه	-11.4577
▁بریتانیاست	-11.4585
مورد	-11.4591
▁اجراهای	-11.4594
▁سف	-11.46
زندگی	-11.4604
▁سنی	-11.4608
موج	-11.4621
▁دقتی	-11.4625
صول	-11.4632
حوال	-11.4634
▁پردازی	-11.4638
ورهای	-11.4652
▁انتها	-11.4655
سعود	-11.4663
▁ناخوش	-11.4671
▁پژ	-11.4682
شرایط	-11.469
ربی	-11.4692
▁اجت	-11.4695
▁امری	-11.4698
دوستان	-11.4698
رحیم	-11.4703
سید	-11.4707
▁دستی	-11.4708
▁دراین	-11.4729
▁هجدهم	-11.4735
▁سول	-11.4744
مجموع	-11.4746
▁عزا	-11.4752
▁آموخت	-11.4762
▁تصویربردار	-11.4773
▁پوستر	-11.4775
مک	-11.4803
بان	-11.4812
▁فتحی	-11.4815
کشتی	-11.4817
▁شکنی	-11.4823
▁طرفی	-11.4832
▁عج	-11.484
▁حام	-11.4844
کنیم	-11.4845
خیر	-11.4847
پاش	-11.4856
یقه	-11.4857
▁ممیز	-11.4863
▁سکان	-11.4871
جشنواره	-11.4875
ایتالیا	-11.4876
▁داش	-11.4878
▁کارهایش	-11.4882
کارگران	-11.4887
دوران	-11.4896
سرطان	-11.4905
تنیس	-11.4906
▁شناختن	-11.4908
▁اسا	-11.4911
وزی	-11.4913
نزا	-11.4923
شاپی	-11.4927
رغ	-11.4929
حداکثر	-11.4936
جوکوویچ	-11.4942
▁پشتو	-11.4945
▁تحق	-11.4949
محمدرضا	-11.4949
منتقدان	-11.495
جراح	-11.4953
▁په	-11.4953
آذر	-11.4955
فرهاد	-11.4957
▁خوشی	-11.496
خون	-11.4962
مری	-11.4962
جسمی	-11.4963
▁عزادار	-11.4963
مطابق	-11.4964
▁شیوا	-11.4968
منازع	-11.4969
بود	-11.4971
▁صحرا	-11.4974
توماس	-11.4975
دلایل	-11.4978
▁حکمی	-11.4981
کجاست	-11.4981
▁موت	-11.4983
لاله	-11.4986
سکانس	-11.4991
▁یادگار	-11.4993
▁پیگیر	-11.4995
لیدز	-11.5
غوری	-11.5
▁خاور	-11.5002
▁درز	-11.5015
رچه	-11.5016
تحلیلگر	-11.5018
مقامات	-11.5025
تور	-11.5027
لئوپا	-11.5028
وستون	-11.5039
▁مبد	-11.5048
▁چش	-11.505
قدرت	-11.5052
شکاف	-11.5057
▁برگرداند	-11.5059
▁عالم	-11.5059
۳۷	-11.506
▁ول	-11.5062
جن	-11.5067
▁گدا	-11.5069
▁گی	-11.5073
سانس	-11.5076
▁فرضی	-11.508
▁اکرا	-11.5082
آبی	-11.5089
▁مستع	-11.5091
▁تبر	-11.5096
▁۲۹۰	-11.5105
▁پنس	-11.5106
تازه	-11.5106
▁مشتاق	-11.5107
▁بانان	-11.5109
▁اورگ	-11.5111
ماجرای	-11.5114
▁بازده	-11.5117
جامع	-11.5122
▁اصطلاحا	-11.5123
▁دزدی	-11.5152
یوید	-11.5154
▁کاتال	-11.5157
▁نب	-11.5158
۸۹	-11.5159
▁صدایش	-11.5165
▁زینب	-11.5174
▁کور	-11.5178
▁منت	-11.5179
▁کنشگر	-11.5181
▁بگیر	-11.5183
▁بایست	-11.5185
عادی	-11.5186
▁بینم	-11.5187
رایت	-11.5188
▁قوت	-11.5189
هره	-11.5191
نیس	-11.5204
▁کانت	-11.5208
▁برا	-11.521
▁تپند	-11.5216
بند	-11.5216
▁بهت	-11.5225
▁قوم	-11.5225
یزه	-11.5227
رسید	-11.5228
۳۹	-11.5232
▁ناصری	-11.5237
▁بزو	-11.5259
وین	-11.5262
نسل	-11.5266
▁نوین	-11.5266
پزشکی	-11.5268
▁سازوکار	-11.5281
لون	-11.5288
مرد	-11.529
▁سازان	-11.5292
مکش	-11.5292
▁سفیدپوست	-11.5299
▁کپ	-11.5303
▁انیمیشن	-11.5304
▁پلتفرم	-11.5304
▁ژئوپلیتیک	-11.5304
▁انقطاع	-11.5304
▁اویغور	-11.5304
▁اوربیتر	-11.5304
▁بیندازند	-11.5304
▁غلیظ	-11.5304
▁بالیوود	-11.5304
▁تدفین	-11.5304
▁چمپیون	-11.5304
▁ارواح	-11.5304
▁اصغر	-11.5304
▁اسرارآمیز	-11.5304
▁مقتدر	-11.5304
▁قزاق	-11.5305
▁وسعت	-11.5305
▁رزیدن	-11.5305
▁یادماندنی	-11.5305
▁اسراییل	-11.5305
▁فلاکت	-11.5305
▁کانتینر	-11.5305
▁ایسلند	-11.5305
▁جادوگر	-11.5305
▁درام	-11.5305
▁هریرود	-11.5305
▁فونینی	-11.5305
▁کرمانپور	-11.5305
▁هیدرو	-11.5306
▁بیاورند	-11.5306
▁جهرمی	-11.5306
▁تکواندو	-11.5306
▁کلکسیون	-11.5307
▁باثبات	-11.5307
▁پرایس	-11.5307
▁ناچیز	-11.5307
▁بدانید	-11.5307
▁متصل	-11.5308
▁ویلسون	-11.5308
▁فاسد	-11.5309
ژگان	-11.531
▁مخرب	-11.531
▁بریجز	-11.531
▁پرجمعیت	-11.5311
▁نیابد	-11.5312
▁کاشف	-11.5313
▁پرسنل	-11.5314
لای	-11.5314
▁مقیاس	-11.5315
۹۰	-11.5316
▁صلیب	-11.5317
▁خلا	-11.5318
▁دیرتر	-11.5318
▁مردادماه	-11.5318
کاراکاس	-11.5319
▁فیصل	-11.5319
▁جاسک	-11.532
▁قبرستان	-11.532
فشار	-11.532
▁دماغ	-11.532
▁قعر	-11.5323
▁لورک	-11.5323
▁بایستند	-11.5323
▁پرشمار	-11.5324
▁کلمات	-11.5325
▁ابولا	-11.5329
▁واگیر	-11.533
▁مجلات	-11.533
▁اشکالات	-11.533
▁قرائت	-11.5332
▁برونته	-11.5332
پک	-11.5333
کرده	-11.5333
▁کاسپی	-11.5334
▁نیفتاد	-11.5335
▁رفیق	-11.5335
▁تلویح	-11.5336
▁مارلی	-11.5336
▁ازبک	-11.5337
انتینو	-11.5338
▁تعمیرات	-11.5338
▁سیگنال	-11.5339
▁قورباغه	-11.5339
▁نورماگومدوف	-11.534
شریف	-11.534
پاتی	-11.5341
▁مولف	-11.5342
▁تصرف	-11.5345
ذائ	-11.5347
▁تنیده	-11.5349
▁نشوند	-11.535
ریحان	-11.5354
▁گرگور	-11.5357
▁ثور	-11.5357
▁ایستادند	-11.5357
▁بازتاب	-11.5359
▁عزت	-11.5361
▁وکارها	-11.5362
▁فلامینگوها	-11.5364
▁توبین	-11.5365
▁۱۷۳	-11.5367
▁رستم	-11.5372
▁مطیعی	-11.5372
خوانی	-11.5379
▁مانور	-11.5381
▁انکار	-11.5383
▁متکی	-11.5384
▁فهیم	-11.5388
▁تراک	-11.5391
▁گردیم	-11.5396
▁سرخک	-11.54
▁حکیم	-11.5401
▁ایلام	-11.5402
عفون	-11.5405
▁لاپورتا	-11.5405
▁واپس	-11.5406
▁توئیتر	-11.5407
▁جذابیت	-11.5411
▁فضل	-11.5415
جای	-11.5417
آر	-11.542
▁شکن	-11.5421
▁عطا	-11.5425
زیان	-11.5425
▁ترقی	-11.5426
سان	-11.5426
▁محاف	-11.543
▁بخواهند	-11.543
گردانده	-11.5431
▁نگذاشته	-11.5432
▁خران	-11.5433
▁بدنشان	-11.5434
معدنچی	-11.5437
▁حول	-11.5438
▁نوب	-11.5438
جک	-11.544
▁رضایی	-11.5441
▁توتال	-11.5441
▁حف	-11.5447
▁یزد	-11.5449
▁کارند	-11.5451
تفلی	-11.546
▁عینی	-11.547
▁تناقض	-11.5471
▁خفا	-11.5475
تار	-11.5482
▁دردسرهای	-11.5486
▁کشورهاست	-11.5488
▁وول	-11.5489
شدن	-11.549
▁عاج	-11.5499
▁پیمانکاران	-11.5502
▁تشک	-11.5504
▁مشتاقان	-11.5506
▁محدودی	-11.5508
دیمیر	-11.5512
رام	-11.5518
▁جس	-11.5524
▁فاضل	-11.5527
مال	-11.5528
ویل	-11.5529
▁چشید	-11.5535
▁یوسفی	-11.5536
▁بدهید	-11.5537
بورد	-11.5541
▁ناک	-11.5544
ولان	-11.5544
▁مثل	-11.5546
اتیو	-11.5556
▁ورق	-11.556
▁اسعد	-11.5561
زره	-11.5563
▁بقا	-11.5565
▁دندان	-11.5566
▁افول	-11.5567
▁والتر	-11.5591
ادت	-11.56
▁فاطم	-11.5603
▁دانشگر	-11.5604
▁اینف	-11.5605
▁کنسر	-11.5613
▁وزرا	-11.5614
▁نوک	-11.5615
▁مراکش	-11.5619
▁فروند	-11.5624
سام	-11.5631
▁کریس	-11.5635
▁سموم	-11.5637
▁قل	-11.5641
ظن	-11.5642
کارآمد	-11.5643
ورد	-11.5649
▁بلخی	-11.5661
▁سرب	-11.5662
نزل	-11.5665
یوم	-11.5666
۱۱	-11.5667
▁رف	-11.5667
پو	-11.5682
▁گرینو	-11.5683
▁توبی	-11.5686
فروش	-11.5695
▁علما	-11.5706
رضی	-11.5707
▁پژوهشهای	-11.5708
یاس	-11.5712
▁بازگشتند	-11.5716
بینند	-11.5723
▁دیف	-11.5726
▁اینجا	-11.5731
▁صحرای	-11.5735
وزه	-11.5746
▁بازه	-11.5751
▁بایر	-11.5761
۶۳	-11.5765
اط	-11.5773
ماری	-11.5777
▁کورت	-11.5777
▁نماید	-11.5779
▁تردیدهای	-11.5786
برآورد	-11.5787
▁پیامبر	-11.5788
▁تشی	-11.5807
۷۵	-11.5819
ادین	-11.5825
چل	-11.5833
▁عم	-11.5843
گران	-11.5847
ریوس	-11.5856
▁ننگ	-11.5865
▁غر	-11.5865
▁سناریوها	-11.5877
وانی	-11.5881
ولا	-11.5889
▁نیامد	-11.5902
▁۱۳۲	-11.5906
▁افزای	-11.5907
▁شعرهای	-11.5914
▁هواپیماساز	-11.5918
لیس	-11.5924
▁آس	-11.5937
▁ابو	-11.5939
▁امیدهای	-11.594
▁کلیت	-11.5944
وط	-11.5961
ناس	-11.5965
▁بخشیده	-11.5973
هید	-11.5976
▁رفراند	-11.5977
غلو	-11.5977
▁برنا	-11.5979
لوت	-11.5979
▁عمرش	-11.598
▁حریر	-11.5981
▁مستندهای	-11.5982
▁کوری	-11.5983
▁اسکو	-11.5983
▁حکمت	-11.5984
▁گویم	-11.5992
▁عطف	-11.5995
▁کیف	-11.5999
▁دانستن	-11.6001
کوس	-11.6003
▁کانتر	-11.6016
▁دیرو	-11.6017
تک	-11.6022
▁بپذیر	-11.603
گرفتن	-11.6032
بریتانیا	-11.6036
▁استوایی	-11.6039
تالی	-11.6049
خالف	-11.605
▁آوا	-11.6056
▁کوارت	-11.6057
▁محوری	-11.6058
▁میدهد	-11.606
▁آش	-11.6061
▁فک	-11.6061
▁نوآوران	-11.6069
▁بخشد	-11.6077
گویان	-11.6089
▁امیدی	-11.6089
عل	-11.6111
▁بیگ	-11.6111
▁خب	-11.6117
اردو	-11.6127
▁زوم	-11.613
▁اروپاست	-11.6131
▁اصولگرا	-11.6158
▁عی	-11.6159
ینز	-11.6163
▁تولیدش	-11.617
▁ستا	-11.6171
▁بت	-11.6181
▁کوب	-11.6184
عت	-11.6185
۶۷	-11.6187
کسل	-11.6188
▁جیم	-11.6194
تحریم	-11.6201
▁محب	-11.6205
▁لوو	-11.6211
شون	-11.6227
▁اسید	-11.6229
ماشین	-11.6247
گستر	-11.6248
▁مارکو	-11.6255
▁موری	-11.6259
▁نبو	-11.6265
حقوق	-11.6268
▁توا	-11.628
▁۶۶	-11.628
▁شارل	-11.6281
قل	-11.6286
▁آبهای	-11.6288
▁نظ	-11.63
نگین	-11.6302
▁آف	-11.6305
▁بازو	-11.6314
زاک	-11.6324
▁پسران	-11.6327
پرداخت	-11.6333
۳۴	-11.6336
▁رجبی	-11.6342
زر	-11.6343
▁میکروبی	-11.635
▁ماهنام	-11.6351
دیه	-11.6356
جویی	-11.6356
▁محرک	-11.6364
جلیل	-11.6365
دیده	-11.6365
▁اجزا	-11.6367
▁سپرد	-11.6375
▁گپ	-11.638
جایزه	-11.6404
▁نف	-11.6407
۹۷	-11.6407
▁مافی	-11.6412
۷۷	-11.6424
طوف	-11.6425
۲۷	-11.6426
▁شوق	-11.6428
موضوع	-11.6428
نرخ	-11.6431
▁یون	-11.6439
بازداشت	-11.6439
ائو	-11.6443
▁یاسم	-11.6448
▁استیو	-11.6453
▁امپر	-11.6464
▁هرجا	-11.6467
وندی	-11.647
▁سومو	-11.6473
وستا	-11.6474
انتخاب	-11.6476
صنعت	-11.6477
▁کوچ	-11.6478
▁مینیاتور	-11.6481
▁فورب	-11.6482
▁یاب	-11.6483
امید	-11.6484
▁ماریان	-11.6485
فرانسی	-11.6486
▁کامپیوترها	-11.6488
عکاس	-11.649
▁راب	-11.6491
▁پیشنهادهای	-11.6495
▁رویت	-11.6519
▁گفتن	-11.6524
▁نزده	-11.6528
▁نزدیکتر	-11.6531
ومین	-11.6536
▁هرد	-11.6539
▁بستگان	-11.654
▁دال	-11.6541
هواداران	-11.6546
نشست	-11.6547
رفته	-11.6549
نژاد	-11.655
▁چرم	-11.6553
فرانسه	-11.6556
حذف	-11.6556
دینگ	-11.6559
شکنی	-11.6564
نجی	-11.6571
گمرک	-11.6574
قهرمانی	-11.658
کتاب	-11.6581
▁ادوار	-11.6581
▁پروازهایش	-11.6582
▁افرا	-11.6587
رویترز	-11.6588
سفارت	-11.6589
شوند	-11.659
صعود	-11.6597
▁سوزان	-11.6604
اتفاقات	-11.6608
آکادمی	-11.661
▁هرج	-11.6626
هنگام	-11.6627
باخ	-11.6627
▁حفا	-11.663
▁همای	-11.6634
تایسون	-11.6636
▁پذیرفت	-11.6637
کاخ	-11.664
آرامکو	-11.664
خشکسالی	-11.6642
اسناد	-11.6643
اتهامات	-11.6648
درهای	-11.665
▁سمرقند	-11.6652
تاد	-11.6652
بریز	-11.6653
▁پیشا	-11.6655
▁سمی	-11.6656
مردان	-11.666
وکیل	-11.6664
▁اکرم	-11.6664
▁گرین	-11.6672
▁بارور	-11.6674
▁مساعد	-11.6675
▁ریلی	-11.6676
نندگان	-11.6679
لستر	-11.6685
▁ضم	-11.6686
مسترد	-11.6692
آزادی	-11.6695
دادستان	-11.6697
▁صوت	-11.6712
حساب	-11.6713
▁یوسف	-11.6714
▁نمادها	-11.6717
لیگا	-11.6718
▁۲۱۰	-11.6719
علم	-11.6728
▁موسسا	-11.6729
▁روده	-11.673
دنیل	-11.6732
دختر	-11.6733
وران	-11.6734
▁غور	-11.6737
▁هواپیماها	-11.6737
▁سوت	-11.6747
▁پرکار	-11.6747
چر	-11.6748
▁طاهر	-11.6754
هو	-11.6754
▁آلم	-11.6754
تعجب	-11.6757
باد	-11.6758
فل	-11.6758
▁ریگ	-11.676
▁فرز	-11.6775
کشی	-11.6776
▁گیت	-11.6781
▁جمل	-11.6784
▁سنج	-11.6786
واقعی	-11.6788
خانی	-11.6789
▁۷۱	-11.6796
بایی	-11.6803
نقش	-11.6803
▁سلیمان	-11.6804
▁سانتا	-11.6805
▁ماتی	-11.6809
▁ثب	-11.681
▁گوسفند	-11.6813
گت	-11.6817
▁کوبی	-11.6822
▁حوا	-11.6824
وسی	-11.6831
سنگر	-11.684
▁مدرس	-11.6842
انگ	-11.6848
▁فره	-11.6853
▁رویز	-11.6854
ملا	-11.6856
طبی	-11.6867
▁باردار	-11.6869
▁نصر	-11.6869
ملک	-11.6871
ادگی	-11.6877
▁خواستم	-11.6877
▁سفرش	-11.6878
▁سیلا	-11.6883
کیت	-11.6891
▁ولا	-11.6892
▁روزبه	-11.6893
▁همگ	-11.6893
اتح	-11.6898
▁عکسها	-11.6904
▁موفقی	-11.6914
دوج	-11.6918
▁قی	-11.692
سیزدهم	-11.6921
▁نتوان	-11.6925
▁سکو	-11.6929
▁انصاری	-11.6937
سارت	-11.6941
▁پدربزرگ	-11.6945
▁نش	-11.695
▁باخ	-11.6953
▁ریس	-11.6957
▁موزیک	-11.6958
▁نیکو	-11.6966
▁احداث	-11.6971
▁اختاپوس	-11.6971
▁اورشلیم	-11.6971
▁بیضائی	-11.6971
▁زاکربرگ	-11.6971
▁سخاوتمند	-11.6971
▁دموکراسی	-11.6971
▁ناسازگار	-11.6971
▁هژمون	-11.6971
▁محتاط	-11.6971
▁موریکونه	-11.6971
▁حناچی	-11.6971
▁اوقاف	-11.6971
▁بولونیا	-11.6971
▁لاوروف	-11.6971
▁سارقان	-11.6971
▁اکسیدکربن	-11.6971
▁اقوام	-11.6971
▁فرمانروای	-11.6971
▁ناخودآگاه	-11.6971
▁جگوار	-11.6971
▁انسولین	-11.6971
▁مستاجر	-11.6971
▁بلغار	-11.6971
▁الارض	-11.6971
▁انزوا	-11.6971
▁هکتار	-11.6971
▁اوزیل	-11.6971
▁باچان	-11.6972
▁تذکر	-11.6972
▁خشمگین	-11.6972
▁کوشنر	-11.6972
▁متقلب	-11.6972
▁لاتکس	-11.6972
▁نیکزاد	-11.6972
▁کارائیب	-11.6972
▁وسواس	-11.6972
▁اوزون	-11.6972
▁لشکر	-11.6972
▁کواچ	-11.6972
▁تدارک	-11.6972
▁نافرجام	-11.6972
▁ستیزانه	-11.6972
▁کومله	-11.6972
▁کبیری	-11.6972
▁میچام	-11.6972
▁خویشتن	-11.6973
▁بکاهند	-11.6973
▁پاستور	-11.6973
▁موازات	-11.6973
▁مرموز	-11.6973
▁ارباب	-11.6973
▁باشکوه	-11.6973
▁دامغان	-11.6973
▁مبتکر	-11.6973
▁ناخشنود	-11.6974
▁صربستان	-11.6974
▁دشتکی	-11.6974
▁تقریب	-11.6974
▁ارمجانی	-11.6974
▁فراهانی	-11.6975
▁نیرومند	-11.6975
▁۱۹۷۹	-11.6975
زیرو	-11.6975
▁مشروعیت	-11.6975
▁تتلو	-11.6976
▁هتلداران	-11.6976
▁بیضایی	-11.6976
▁لقمان	-11.6976
▁نابویایی	-11.6977
▁دیزل	-11.6977
▁سرسخت	-11.6978
▁فورمن	-11.698
▁مالزی	-11.698
▁نباشند	-11.6981
▁دمکرات	-11.6981
▁درآید	-11.6983
▁نورالله	-11.6983
▁۱۹۹۴	-11.6985
▁سازگار	-11.6985
▁ناسیونالیس	-11.6986
▁زوایا	-11.6986
▁ابول	-11.6986
▁ندارید	-11.6986
▁واجد	-11.6987
▁متوازن	-11.6989
▁بزاق	-11.699
▁تومور	-11.6991
نفی	-11.6996
▁اتلان	-11.6996
▁ژرف	-11.6996
نگا	-11.6996
▁امپرا	-11.6997
▁تحرکات	-11.6997
▁برگرداندن	-11.6997
ضلع	-11.6998
▁تایوان	-11.7
▁لشگر	-11.7
▁صیاد	-11.7001
▁پرستون	-11.7001
▁کابوس	-11.7003
▁برویم	-11.7004
▁ونوس	-11.7009
▁جملات	-11.7009
▁موتورها	-11.701
▁پردازش	-11.7012
▁برلوسکونی	-11.7012
▁عبدالسلام	-11.7012
▁نایتلی	-11.7013
▁شدیم	-11.7014
▁اهرم	-11.7018
▁سیدنی	-11.7018
▁آسا	-11.7019
▁شار	-11.7019
▁لن	-11.7028
▁همسایگان	-11.7029
خواهیم	-11.7031
▁مذک	-11.7036
▁آگوست	-11.7038
▁سرگردان	-11.7044
▁سولو	-11.7045
هفتصد	-11.7045
▁بیانداز	-11.7046
▁قدردان	-11.7047
شاد	-11.705
وتی	-11.705
▁کولاک	-11.705
▁خسرو	-11.7051
▁رسا	-11.7051
▁متقابل	-11.7051
▁پوسید	-11.7052
صر	-11.7053
▁اب	-11.7053
▁کان	-11.7054
▁همفکر	-11.7055
▁امداد	-11.7056
▁دیابت	-11.7058
▁گاردن	-11.7058
▁آزاردید	-11.7058
▁وفا	-11.706
▁زادگاه	-11.7061
▁مجاور	-11.7062
▁خاکستر	-11.7063
۹۶	-11.7064
▁منظوم	-11.7066
▁ندادند	-11.7067
▁معلمان	-11.7067
موتو	-11.7071
▁کوواکس	-11.7073
قراض	-11.7076
▁بشنوید	-11.7076
▁نبی	-11.708
آقازاده	-11.7082
▁مختصر	-11.7082
▁اشخاص	-11.7083
ستانه	-11.7085
▁زشت	-11.7088
لسون	-11.7088
تمامی	-11.7089
▁دریانورد	-11.709
▁نیلی	-11.7091
▁نازل	-11.7093
▁تشوی	-11.7093
▁یوهان	-11.7096
▁شکوه	-11.7099
▁توانمند	-11.7099
گوگوش	-11.71
▁اندازند	-11.7102
بک	-11.7108
▁پاب	-11.7108
▁کامیاب	-11.711
▁رادیوی	-11.7111
▁کمربندهای	-11.7114
یایی	-11.7116
▁شاکی	-11.7118
▁عناب	-11.7119
▁تایی	-11.7123
▁حسگرها	-11.7124
پوستان	-11.7126
▁رخدادهای	-11.7128
▁زالی	-11.7129
▁نثر	-11.7134
▁بازدیدکنند	-11.7134
▁بدهم	-11.7141
نیوز	-11.7145
چال	-11.7146
▁داو	-11.7148
▁سادگی	-11.7149
کری	-11.715
▁برگشتند	-11.7151
▁داگ	-11.7153
▁ابزارهای	-11.7153
سیاس	-11.7154
▁درمیان	-11.7155
▁شمش	-11.7159
▁اکثرا	-11.7162
کاب	-11.7162
▁بزرگسال	-11.7166
▁انتقام	-11.717
کافی	-11.7174
▁چغا	-11.7175
▁مورف	-11.7177
▁چرخید	-11.7178
▁حشر	-11.718
▁آلت	-11.7184
▁قش	-11.7184
▁گریخت	-11.7185
خشنود	-11.7191
▁ماست	-11.7191
▁باج	-11.7194
▁انرو	-11.7201
چهل	-11.7203
▁خوشبین	-11.7205
▁نگهداشت	-11.7208
▁فور	-11.721
رویا	-11.7212
ملی	-11.7217
▁ورزند	-11.7218
▁عثمانی	-11.722
▁بدهیم	-11.7236
عظم	-11.7237
بصر	-11.7241
▁نیافتن	-11.7241
▁کارلو	-11.7248
ائ	-11.7255
▁قامت	-11.7256
حلال	-11.7257
طاع	-11.7261
▁روبات	-11.7261
▁سور	-11.7266
▁منفور	-11.7267
▁عمیقا	-11.7268
▁دن	-11.7276
لیت	-11.7276
▁سیری	-11.7277
▁شیب	-11.7278
▁تشکیلات	-11.7291
رزمی	-11.7296
▁استعفاها	-11.73
▁بدویا	-11.7301
▁فرستادن	-11.7305
▁اقسا	-11.7307
سپاس	-11.7307
شم	-11.7307
زبان	-11.7308
حرف	-11.7309
▁کوچه	-11.7309
▁پهنه	-11.7309
▁آذری	-11.7311
▁اسلو	-11.7311
بومی	-11.7314
دترین	-11.7321
شن	-11.7321
لماس	-11.7326
▁ورای	-11.7328
▁شن	-11.7332
▁چهارمی	-11.7334
▁جادوی	-11.7337
▁بیکارشد	-11.7338
روزهای	-11.7343
خو	-11.7345
وست	-11.7347
رتر	-11.7352
▁لندر	-11.7359
▁گازها	-11.7359
آلبرت	-11.737
▁گراند	-11.7375
▁جع	-11.7376
▁لئوپ	-11.7378
بزرگ	-11.7381
آنچ	-11.7381
ویش	-11.7381
▁ندید	-11.7383
وبیل	-11.7383
▁جوی	-11.7386
▁اینست	-11.7386
آباد	-11.7386
▁کشیدند	-11.7394
سینگ	-11.7394
تقبل	-11.74
▁سالمند	-11.7401
▁درشت	-11.7412
سوی	-11.7415
▁فلم	-11.7421
▁ارغ	-11.7421
یوئیت	-11.7424
▁احتیا	-11.7425
▁بوم	-11.7426
نور	-11.7427
۳۸۰	-11.7431
▁عدل	-11.7439
▁سفت	-11.7441
هرزاد	-11.7451
۰۵	-11.7451
▁شکستگی	-11.7452
ورود	-11.7456
سترسیتی	-11.7461
▁نزدیکانش	-11.7462
▁چاق	-11.7463
▁گلد	-11.747
غا	-11.7475
وده	-11.7484
▁عینک	-11.7485
▁مینیاتوری	-11.7487
لستون	-11.7489
▁دوسال	-11.7492
جیان	-11.7494
رومن	-11.7495
▁رسند	-11.7499
▁همهمه	-11.7503
▁سوزاند	-11.7506
وفون	-11.7521
▁تاثیرات	-11.7521
▁کنارش	-11.7529
▁زدای	-11.7534
۱۲	-11.7538
انزا	-11.7548
▁بیکاران	-11.7557
▁اثرگذار	-11.756
فرانس	-11.7568
▁خودکار	-11.757
اسکورت	-11.7573
▁رانگل	-11.7577
▁اسل	-11.7578
▁بشود	-11.7579
▁روم	-11.758
▁سندی	-11.7583
قبره	-11.7584
میته	-11.7586
▁نظرش	-11.7588
▁الزاما	-11.7604
▁بم	-11.7605
▁گوها	-11.7609
نوی	-11.7615
▁دژ	-11.7617
تورهای	-11.7621
هور	-11.7624
مگان	-11.7628
۴۹	-11.7629
▁پرستاره	-11.7638
▁گذران	-11.7645
▁تحرکی	-11.7654
▁نجفی	-11.7658
▁موریس	-11.7661
ژیل	-11.7663
▁آمونی	-11.7669
▁لوپ	-11.7669
پزشک	-11.7676
▁چهارده	-11.7677
▁مجتب	-11.7679
▁آو	-11.768
اسکو	-11.7685
حاملگی	-11.7686
▁فلور	-11.7692
لاخ	-11.7694
▁خوشنو	-11.7697
راد	-11.7702
▁آموختن	-11.7703
▁شهریاری	-11.7703
کنند	-11.7717
▁شروط	-11.772
مزد	-11.7722
▁غوری	-11.773
▁درب	-11.7732
▁کاف	-11.7732
▁بستند	-11.7733
روس	-11.774
▁هاروی	-11.7742
خود	-11.7742
▁شکستند	-11.7753
وثر	-11.7756
▁پرداز	-11.7758
▁شنای	-11.776
▁جودوکا	-11.7768
▁دانا	-11.7772
جویان	-11.7781
▁رایانه	-11.7785
امه	-11.7786
▁نفربر	-11.7789
▁ویر	-11.7792
▁آشو	-11.7803
▁منسو	-11.7822
▁عاملی	-11.7828
▁انو	-11.7831
کاران	-11.7832
گذشت	-11.7839
▁راوی	-11.7843
▁اقام	-11.7844
▁شاهدان	-11.7856
▁کنو	-11.7856
▁بسر	-11.7862
▁چسب	-11.7869
▁ازس	-11.7871
▁۱۳۱	-11.7873
محل	-11.7883
مکن	-11.7885
جیل	-11.7887
▁فعالیتش	-11.7896
▁تقلا	-11.7896
یار	-11.7905
صلی	-11.7907
▁رویاهای	-11.7911
▁استبا	-11.7913
ونیست	-11.7918
▁شیرینی	-11.7919
ائب	-11.792
زاق	-11.7929
▁توافقات	-11.793
▁شالی	-11.7934
▁الس	-11.7949
▁کورو	-11.7951
▁ترانس	-11.7954
▁بگ	-11.7955
▁انگ	-11.7958
▁استودیوی	-11.7959
ارش	-11.7964
روج	-11.7966
شیر	-11.7967
▁اط	-11.7969
▁اسپا	-11.7978
فری	-11.7988
گویی	-11.7989
راماتیک	-11.7992
مشق	-11.7999
▁نیاورده	-11.8009
▁رج	-11.8016
وتو	-11.8018
▁مزای	-11.8039
۴۴	-11.8046
لار	-11.8052
▁لیلا	-11.8052
یتا	-11.8054
تالیا	-11.8062
یکا	-11.8063
▁بازنش	-11.8068
نجام	-11.807
خور	-11.8074
▁باربی	-11.8076
▁لوس	-11.8079
▁هجدهمی	-11.8081
بن	-11.8082
ندر	-11.8082
سارا	-11.8085
سنج	-11.809
▁شدایران	-11.81
▁منامه	-11.81
مس	-11.8102
وض	-11.811
تامی	-11.8111
توافق	-11.8113
دانی	-11.8116
اثر	-11.8122
▁بندهای	-11.8123
▁جود	-11.8132
▁سوخته	-11.8138
دوزی	-11.8139
کوه	-11.8157
جف	-11.816
ژن	-11.8162
شناسی	-11.8177
رفتن	-11.8181
▁۲۵۰۰	-11.8183
▁دیرین	-11.8186
▁دلو	-11.8197
▁پترو	-11.8199
▁۱۸۹	-11.821
ریان	-11.821
▁دویچ	-11.8212
ضا	-11.8214
فعالیت	-11.8216
کوم	-11.8222
کلیف	-11.8223
▁مسخ	-11.8238
فرشی	-11.8242
▁سازهای	-11.8243
۲۹	-11.8249
بیماری	-11.8252
روف	-11.8255
وجه	-11.8281
▁بیو	-11.8284
▁منا	-11.8301
▁روبین	-11.8304
۳۳	-11.8304
سول	-11.8305
صف	-11.8306
۸۰	-11.831
▁مصو	-11.8313
بازیکن	-11.8314
▁سردست	-11.8323
▁گذاریم	-11.8327
همکاری	-11.8342
▁پرستار	-11.8343
▁شرکا	-11.8344
▁فقی	-11.8357
▁کلک	-11.8358
ورس	-11.8359
مایش	-11.8367
▁امیرم	-11.8375
کشورهای	-11.8376
▁نکو	-11.8388
▁اتری	-11.8395
▁رون	-11.8399
کانس	-11.8401
حکم	-11.8401
ابتدا	-11.8403
ندگی	-11.8404
▁مردن	-11.8406
▁سویی	-11.8407
▁کابلی	-11.8408
محدودیت	-11.8409
▁سنگی	-11.8413
قرنطینه	-11.8431
▁ماریو	-11.8431
بست	-11.8432
ظاهر	-11.8434
زد	-11.8441
▁فرودست	-11.8441
▁نانو	-11.8454
▁سفال	-11.8459
یکون	-11.8469
بارسلونا	-11.847
بحران	-11.8483
قرارداد	-11.8484
▁آرزوها	-11.8491
نهادهای	-11.8494
فارم	-11.8495
۱۴۰۰	-11.8496
▁مدرنی	-11.8501
صلاح	-11.8502
شکایت	-11.8505
الیود	-11.8508
احتمال	-11.851
ترکیب	-11.8514
جمعیت	-11.8518
▁حیا	-11.8525
جواد	-11.8531
جنگ	-11.8531
ریا	-11.8535
ساز	-11.8537
▁برخاست	-11.8539
▁۱۰۹	-11.8539
▁معل	-11.854
فرصت	-11.8541
وادا	-11.8541
ونی	-11.8544
تجرب	-11.8545
▁هفده	-11.8552
▁لیبر	-11.8552
اوپک	-11.8553
▁کمالی	-11.8559
شقان	-11.8563
جنجال	-11.8567
▁سیت	-11.857
مصرف	-11.8572
مطالع	-11.8575
تیراندازی	-11.8575
▁ورز	-11.8576
نیویورک	-11.8578
پالایشگاه	-11.8582
شعر	-11.8583
رکود	-11.8583
واشی	-11.8585
ولو	-11.8586
خودروهای	-11.859
ناوب	-11.8593
سرپرست	-11.8598
لحظ	-11.86
فیزیک	-11.8603
گردانی	-11.8603
نژادپرست	-11.8605
ابراهیم	-11.8605
▁ناکار	-11.8609
ومی	-11.8617
▁پیکا	-11.8619
نفوذ	-11.8622
مناسبت	-11.8624
مالک	-11.8624
▁انسانها	-11.8628
هیچ	-11.8629
جسد	-11.863
مکزیکو	-11.8633
کنگره	-11.8635
بفرستید	-11.8639
▁ربای	-11.8639
مستند	-11.8639
▁هیولا	-11.8639
سازنده	-11.8642
بیانسه	-11.8643
فاضل	-11.8645
هجوم	-11.8646
▁جوج	-11.865
قبض	-11.8652
هدی	-11.8656
▁دخ	-11.8665
▁اینچ	-11.8671
رییس	-11.8671
دقیق	-11.8678
▁هیل	-11.8679
▁حم	-11.8684
تجمع	-11.8686
ربکا	-11.869
▁بلندپرواز	-11.869
▁تجسم	-11.8698
گزا	-11.8699
درحالی	-11.8701
منتظر	-11.8706
▁مزایا	-11.871
▁نوزده	-11.871
مسعود	-11.8717
▁بنده	-11.8722
▁معط	-11.8723
الوح	-11.8725
▁جعفر	-11.8726
▁روما	-11.873
▁آری	-11.8737
▁اراد	-11.8738
▁رویدادها	-11.8742
▁حاج	-11.8748
زای	-11.8748
▁موثرتر	-11.8749
نتینو	-11.8753
فش	-11.876
ادل	-11.876
▁فعالی	-11.8762
▁بازنگشت	-11.8767
▁شجاعی	-11.8772
میلان	-11.8773
▁هک	-11.8778
قد	-11.8779
یمه	-11.8786
ئید	-11.8792
▁چیزها	-11.88
▁میشود	-11.8802
نمایند	-11.8806
امک	-11.8815
▁چرن	-11.8817
▁تئو	-11.8826
▁آئ	-11.8842
▁شناورها	-11.8844
▁کیل	-11.8848
▁توئیت	-11.8849
▁فرح	-11.8849
▁کریستی	-11.8849
بیح	-11.8863
تقل	-11.8867
▁سیبر	-11.887
یدن	-11.8874
کریست	-11.8882
▁فلامینگو	-11.8885
پانز	-11.889
انکن	-11.8898
بالا	-11.8911
ویی	-11.8917
عادل	-11.8925
▁نهادها	-11.8926
تورم	-11.8927
▁جنب	-11.8929
▁گرافی	-11.8937
سانسور	-11.8938
▁تفنگ	-11.8949
▁قدیم	-11.8951
نمی	-11.8953
رزرو	-11.896
▁دکترا	-11.896
▁مخابر	-11.896
▁مکالم	-11.8962
▁معصوم	-11.8963
سیم	-11.8967
▁الاجرا	-11.8969
سیستم	-11.8969
▁ابتذال	-11.8971
▁اسکورسیزی	-11.8971
▁تشعشع	-11.8971
▁روزافزون	-11.8971
▁فیزیولوژی	-11.8971
▁برافراشت	-11.8971
▁میزورام	-11.8971
▁اوزبیک	-11.8971
▁مارگاریتا	-11.8971
▁منسجم	-11.8971
▁فلسفی	-11.8971
▁دگرباش	-11.8971
▁فاکتور	-11.8971
▁هامبورگ	-11.8971
▁غزنوی	-11.8971
▁عنابستانی	-11.8971
▁تنگاتنگ	-11.8971
▁زراعت	-11.8971
▁سانتیاگو	-11.8971
▁ذوالنور	-11.8971
▁بنکدارپور	-11.8971
▁کذب	-11.8971
▁بیندازد	-11.8971
▁نافذ	-11.8971
▁اتمسفر	-11.8971
▁پغمان	-11.8971
▁اردکانیان	-11.8971
یونیسف	-11.8971
▁شریعت	-11.8971
▁مفاهیم	-11.8971
▁سولشر	-11.8971
▁سولیوان	-11.8971
فیروز	-11.8972
▁تسخیر	-11.8972
▁هیوستون	-11.8972
▁سرامیک	-11.8972
▁فکاهی	-11.8972
▁حصبه	-11.8972
▁تمهید	-11.8973
▁سغد	-11.8973
▁ماهرویان	-11.8973
▁شنویم	-11.8973
▁کارم	-11.8973
▁الخروج	-11.8974
▁برسانند	-11.8974
▁حیثیت	-11.8974
▁چندرایان	-11.8974
▁مقاطع	-11.8975
▁ظالمانه	-11.8975
▁تمایز	-11.8975
▁بمیرد	-11.8975
▁آندریا	-11.8975
▁مقادیر	-11.8976
▁مادربزرگ	-11.8976
▁نمک	-11.8976
▁حشرات	-11.8976
▁مخوف	-11.8977
رمانی	-11.8977
▁زیراتمی	-11.8977
▁بلندپایه	-11.8977
▁تجسس	-11.8978
▁بپردازند	-11.8979
▁الاجراست	-11.8979
▁مغایر	-11.8979
▁گوترش	-11.898
▁فواید	-11.898
▁بکشم	-11.898
▁آوینی	-11.898
▁وارث	-11.8982
▁اغما	-11.8982
▁مکالمات	-11.8982
آنگولا	-11.8983
▁بزنیم	-11.8984
▁بانکوک	-11.8986
ینک	-11.8986
▁برنگرداند	-11.8987
▁توفندها	-11.8988
▁هادرون	-11.8988
▁عقاب	-11.899
ردی	-11.8991
▁خودمختار	-11.8991
▁بخوانند	-11.8992
▁اسکلت	-11.8992
▁گنبد	-11.8993
▁چوپ	-11.8993
▁سینا	-11.8993
▁آصف	-11.8993
▁وجدان	-11.8994
▁۲۲۰	-11.8994
▁جداسازی	-11.8994
▁ببریم	-11.8995
▁هندرسون	-11.8996
▁محتمل	-11.8996
▁رونالد	-11.8996
▁جذابی	-11.8996
▁تمیز	-11.8996
▁لرزید	-11.8996
▁بکنید	-11.8998
▁هنگفت	-11.8999
حک	-11.9
موث	-11.9003
▁کاردوس	-11.9004
▁بیگم	-11.9006
▁فری	-11.9006
▁بازدارند	-11.9007
▁شنوایی	-11.9007
▁لوگو	-11.9008
▁آنچنان	-11.9009
ارسل	-11.9009
▁برنامک	-11.9009
▁بخورد	-11.9011
▁معنادار	-11.9013
▁نوابی	-11.9013
▁بهائی	-11.9013
▁تجربیات	-11.9014
▁ملوان	-11.9015
زیمبا	-11.9016
▁هنکس	-11.9017
▁بارکلی	-11.9018
▁راجپوت	-11.902
تیو	-11.902
▁هافکین	-11.902
ریه	-11.9021
▁فاکس	-11.9021
▁۱۹۱۸	-11.9023
▁مالباخت	-11.9023
▁آپوف	-11.9023
▁مجزا	-11.9023
صنوف	-11.9023
▁ژائو	-11.9027
▁۲۴۸	-11.9028
▁درمانگاه	-11.9028
▁آستین	-11.9028
▁بستگ	-11.9028
▁سفیدپوستان	-11.9029
▁گرو	-11.9031
▁بیایند	-11.9036
▁لغز	-11.9036
▁گرافیک	-11.9037
انسون	-11.9038
▁آنتوان	-11.9038
لگار	-11.9038
▁یقین	-11.904
▁متغیرهای	-11.904
۸۱	-11.9043
▁قلمرو	-11.9044
بازد	-11.9045
▁اجداد	-11.9047
▁صیادان	-11.9049
▁نگذاشت	-11.9054
▁خانود	-11.9055
▁کولبران	-11.9056
▁فالک	-11.9056
تعدادی	-11.9058
وژه	-11.9059
داعش	-11.9063
همگی	-11.9063
▁مناسبات	-11.9064
قایق	-11.9064
▁تربت	-11.9065
▁افشاگر	-11.9065
▁هموطنان	-11.9065
▁معلومات	-11.9069
▁عزل	-11.9069
▁کیپ	-11.907
▁بدان	-11.9071
▁پرفسور	-11.9076
▁اخترشناس	-11.9077
▁دانید	-11.9077
▁پولها	-11.9082
▁قبایل	-11.9083
▁مرج	-11.9083
▁کرونازده	-11.9085
▁سلیق	-11.9085
▁نزن	-11.9086
▁فرشید	-11.9089
▁اوساکا	-11.9092
▁اسکات	-11.9094
جله	-11.9098
برگر	-11.9098
▁ایل	-11.9102
▁کوید	-11.9103
پوشانی	-11.9104
▁چاو	-11.9107
▁درخشد	-11.9108
▁متاسفم	-11.9108
رقیز	-11.9108
▁گوارش	-11.911
▁تعرض	-11.9111
▁ترکمان	-11.9112
▁غزل	-11.9115
مور	-11.9116
▁معترضین	-11.9117
مرور	-11.9118
▁بزرگسالان	-11.9118
الف	-11.912
رفت	-11.9122
ختی	-11.9123
نعیم	-11.9123
▁فوتسی	-11.9124
▁بدنم	-11.9125
▁بهم	-11.9129
روسیا	-11.9133
▁لطیفی	-11.9135
▁فول	-11.9135
▁پترولی	-11.9136
انک	-11.9142
کارولین	-11.9143
صریح	-11.9151
ریکا	-11.9155
▁شاهکارهای	-11.9155
گوئه	-11.9161
▁بوتا	-11.9162
▁نیوت	-11.9163
▁شنوند	-11.9165
▁افزودند	-11.9166
▁شگرد	-11.9167
▁تان	-11.9169
ونته	-11.9171
مادر	-11.9172
▁بنفش	-11.9173
نتسب	-11.9176
▁ترمی	-11.9179
تروئ	-11.918
▁تختی	-11.9183
▁مرمر	-11.9185
ایان	-11.9185
▁بخشهای	-11.9185
ائل	-11.9188
۱۹۶۴	-11.9194
میزان	-11.9199
▁یوآن	-11.9199
▁ره	-11.92
▁درصورت	-11.9202
دانه	-11.9205
▁عبدالرحم	-11.9213
ورانه	-11.9219
▁پربار	-11.9221
▁مطمئنا	-11.9223
▁غذاهای	-11.923
پائولو	-11.9233
▁فراخواند	-11.9233
ازاد	-11.9237
▁لیمو	-11.9238
▁حریری	-11.9246
▁تجمعات	-11.926
▁بلندپروازی	-11.9262
ثه	-11.9264
▁ربکا	-11.9264
لنگ	-11.9269
▁راهکارهای	-11.9269
▁السی	-11.9276
▁آمری	-11.9276
▁نصیر	-11.928
▁تجسمی	-11.9287
▁راشد	-11.9295
▁مشاه	-11.9295
اندن	-11.9299
ولوو	-11.9301
▁اشا	-11.9302
▁برنج	-11.9304
▁مهیا	-11.9305
ستیک	-11.9305
▁بادام	-11.9307
▁ندا	-11.9309
▁بویی	-11.9314
شکی	-11.9315
▁وتو	-11.9318
▁قبض	-11.9322
دلی	-11.9325
▁جدیدش	-11.9328
▁قضا	-11.9331
زنان	-11.9342
▁مجت	-11.9344
اپ	-11.9344
▁خصوصیات	-11.9345
▁صاحبش	-11.9356
▁اظهارنظرهای	-11.9356
کردن	-11.9357
شیتز	-11.936
▁بگذاری	-11.9361
▁خودس	-11.9362
▁آندرس	-11.9364
ارز	-11.937
▁بروی	-11.9372
▁افزارهای	-11.9373
صله	-11.9376
▁بعض	-11.9377
▁اغ	-11.9379
▁مادام	-11.9392
هوش	-11.9395
▁دوهزار	-11.9398
▁رکس	-11.9401
▁توسل	-11.9405
▁فراگرفت	-11.9407
▁یادش	-11.9409
▁مکزیکو	-11.941
▁حوت	-11.9417
▁بطر	-11.9428
پانی	-11.9428
▁خش	-11.9432
طوری	-11.9441
هنه	-11.9442
▁محص	-11.9443
▁خودرا	-11.9452
▁غذاخور	-11.9453
سرین	-11.9457
▁اپی	-11.9471
سالار	-11.9477
▁رویکردهای	-11.9481
▁ساندر	-11.9483
▁اصلاحی	-11.949
▁گاف	-11.9492
▁رباب	-11.9493
▁همگان	-11.9496
▁سرم	-11.9497
▁پذیرد	-11.9501
▁آورم	-11.9502
زهای	-11.9502
نای	-11.9506
بق	-11.9509
▁شایان	-11.9515
▁ستود	-11.9523
▁منازع	-11.9525
▁شجاعت	-11.9528
▁مهن	-11.9529
▁استوار	-11.9529
فان	-11.9533
۴۵	-11.9533
▁مراد	-11.9536
نشری	-11.9537
▁تلا	-11.9555
▁۱۷۴	-11.9559
▁نبودند	-11.9564
▁پاش	-11.9568
یال	-11.957
▁باکر	-11.9587
▁اشتها	-11.959
پاری	-11.9595
▁افکند	-11.9596
▁دهی	-11.9597
میلیارد	-11.96
جات	-11.9602
▁لطفی	-11.9603
لوگ	-11.9608
▁سیمین	-11.961
درنا	-11.9619
متن	-11.9628
▁وایت	-11.9631
▁امضاکنند	-11.9637
▁الکسا	-11.9656
▁راهکار	-11.9666
اشا	-11.9667
▁شست	-11.9671
▁آز	-11.9676
دس	-11.9679
شنبه	-11.9689
خوش	-11.9691
▁نتوا	-11.9704
نیو	-11.9707
صدا	-11.9708
میر	-11.9739
▁مینیا	-11.974
وپ	-11.9744
اژ	-11.9746
▁تراشید	-11.9748
تراپ	-11.9756
▁سودجو	-11.9759
تح	-11.976
نار	-11.9763
گرانی	-11.9766
نولد	-11.9778
▁معتبری	-11.9781
شتم	-11.9788
▁کیمی	-11.9791
▁بکار	-11.9799
▁شوراها	-11.98
▁کرددر	-11.9802
ندرت	-11.9805
یح	-11.9811
رح	-11.9818
▁کلن	-11.9821
▁۲۶۰	-11.983
▁آغ	-11.9831
کثیر	-11.9832
برده	-11.9835
▁هایپر	-11.9843
اربی	-11.9844
ستانگ	-11.9844
▁یادم	-11.9849
▁قانونگذار	-11.9851
بوک	-11.9852
▁آفرید	-11.9854
تمایل	-11.9872
شابه	-11.9873
▁لات	-11.9875
▁ببند	-11.9888
▁رقیبان	-11.9892
هکرهای	-11.9894
الا	-11.9894
اشک	-11.9896
خن	-11.9898
▁عطار	-11.9909
▁نوپا	-11.9916
▁نایت	-11.9921
ویا	-11.9932
پژوه	-11.9938
دید	-11.9939
▁پلک	-11.994
▁پنجش	-11.9947
▁توفیقی	-11.9966
وفس	-11.9968
▁وظایفش	-11.9979
یانت	-11.998
رجه	-11.9981
نسون	-11.9987
▁نگا	-11.9989
واضع	-11.9989
نگی	-11.9992
▁زید	-11.9995
تخیلی	-11.9997
سلطان	-12.0005
رخه	-12.0006
▁سنجی	-12.0022
▁ایرانایران	-12.0022
▁گوستا	-12.0027
▁شاپ	-12.0035
▁مث	-12.0037
▁اوکا	-12.0037
انند	-12.004
▁محبو	-12.0054
▁نیت	-12.006
اکس	-12.0073
وود	-12.0075
ادام	-12.0075
مز	-12.0083
▁سوییس	-12.009
▁کاشت	-12.0103
▁شرکتها	-12.0103
باسی	-12.0107
▁ناه	-12.0115
نشأ	-12.012
یدی	-12.0121
▁مگ	-12.0124
یتز	-12.0131
▁ژیل	-12.0137
▁کوپا	-12.0147
خه	-12.0149
▁دیاب	-12.0162
وکسل	-12.017
راث	-12.0174
جمهوری	-12.0178
خضر	-12.0181
۹۴	-12.0182
▁لیز	-12.0188
▁بیک	-12.0189
۳۲	-12.0193
▁یوت	-12.0193
قای	-12.0199
نجره	-12.0206
▁پیا	-12.0208
▁شکوفا	-12.0213
▁اپ	-12.023
▁پان	-12.0238
▁نروژی	-12.0245
ساعت	-12.0248
▁مشق	-12.0249
▁سخ	-12.0249
استان	-12.0252
لز	-12.0255
▁گردهم	-12.026
▁وود	-12.0265
سین	-12.0268
▁گوا	-12.0271
ساسی	-12.0284
مانی	-12.0293
زمانی	-12.0293
▁زین	-12.0294
قهرمان	-12.0302
▁پیت	-12.0304
ستین	-12.0307
▁عذ	-12.0311
▁کارتر	-12.0312
▁اولی	-12.0315
فعال	-12.032
ظ	-12.0339
▁بهرامی	-12.0341
▁اوجی	-12.0341
▁طو	-12.0343
▁ارج	-12.0346
▁یانگ	-12.0355
▁کوکا	-12.0366
▁لاب	-12.0369
▁کریر	-12.037
▁شاد	-12.0371
▁ترسید	-12.0398
واکسن	-12.0406
▁فلا	-12.0409
▁وات	-12.0413
رعلی	-12.0414
۸۸	-12.0419
ئین	-12.0436
▁محو	-12.0439
▁حقوقدان	-12.044
▁قمر	-12.0444
▁محصولش	-12.0449
▁نگفت	-12.045
فین	-12.0451
▁شوی	-12.0459
▁بازن	-12.0462
▁جید	-12.0464
▁فیزیوتراپ	-12.0464
ریتز	-12.0466
▁خطری	-12.0476
اصل	-12.0482
▁بری	-12.0483
ارتوم	-12.0489
▁استانداردها	-12.0492
▁سلیم	-12.0495
جمله	-12.0498
▁چتر	-12.0511
▁لق	-12.0511
▁آلک	-12.0515
گذار	-12.0524
▁پاشید	-12.0528
▁گراز	-12.0532
▁کارول	-12.0538
▁جوانب	-12.0546
یناتور	-12.0555
▁شراب	-12.0556
چندی	-12.056
راجع	-12.0561
منستان	-12.0561
راژ	-12.0563
افشار	-12.057
ریکو	-12.0571
▁پنجاهم	-12.0573
▁حسابدار	-12.0577
▁واژگ	-12.0581
اجرای	-12.0583
دولتی	-12.0585
بول	-12.0586
▁فلی	-12.0592
▁خاکس	-12.0599
لایه	-12.06
▁کامر	-12.0603
▁بلندهای	-12.0603
▁دریاها	-12.0617
زدی	-12.0633
▁دیواره	-12.0634
اسرائیل	-12.0635
وضعیت	-12.0637
▁محی	-12.0651
وانیم	-12.0662
نویس	-12.0665
خصوص	-12.0668
▁سبزی	-12.0674
▁نیکل	-12.0679
ولکس	-12.0681
▁چید	-12.0686
مختار	-12.0688
▁هیو	-12.0697
درآمد	-12.0709
▁۱۲۶	-12.072
فرید	-12.0725
۳۰۰	-12.0729
بزرگتری	-12.0729
▁صبا	-12.0736
دانشگاه	-12.0745
حمایت	-12.0757
میلیا	-12.076
خل	-12.0767
صال	-12.0771
▁دشوارتر	-12.0772
▁محبوبش	-12.0779
ماجرا	-12.0781
▁آتن	-12.0791
عربستان	-12.0795
▁۲۱۶	-12.0799
ناسا	-12.0803
۲۱	-12.0807
ایده	-12.0808
تول	-12.082
۲۰۲۰	-12.0831
بازیکنان	-12.0831
۳۸	-12.0839
ارکان	-12.0845
کسر	-12.085
سرمربی	-12.0853
ربین	-12.0853
صادرات	-12.0861
یانگ	-12.0861
بیانیه	-12.0865
بیت	-12.0866
آثار	-12.0868
فرستند	-12.0872
قطع	-12.0881
ربط	-12.0881
آمدی	-12.0886
مسئول	-12.0892
آزمایش	-12.0894
تعارف	-12.0895
سپاه	-12.0898
▁الک	-12.0901
چاق	-12.0902
پاسخ	-12.0918
ضی	-12.0919
ورزشگاه	-12.0919
▁سواد	-12.0922
کول	-12.0933
جاست	-12.0942
خروج	-12.0943
نگاره	-12.0947
▁عار	-12.0962
▁هجده	-12.0963
▁پود	-12.0969
لکس	-12.0976
▁لنگ	-12.0979
▁حالش	-12.0984
اتهام	-12.0987
▁گنجان	-12.0989
عملکرد	-12.0996
لاس	-12.0997
ادیو	-12.0998
عملیات	-12.0998
حادثه	-12.0999
دنبال	-12.1004
▁کلینت	-12.1007
درخواست	-12.1008
▁استر	-12.1009
جشن	-12.1011
▁ترو	-12.1012
▁بخواب	-12.1014
▁فراخوان	-12.1016
هیج	-12.102
تابستان	-12.1023
تماشاگر	-12.1027
▁نواخت	-12.1038
▁همسری	-12.1038
▁گرجستان	-12.1042
حکام	-12.1045
سوئیس	-12.1048
▁بفهمی	-12.1049
▁داران	-12.105
▁فعل	-12.1054
مداری	-12.1054
دبیر	-12.1054
فرمانده	-12.1055
قسمت	-12.1055
کانال	-12.1056
تخریب	-12.1058
▁۲۰۵	-12.1058
دوت	-12.1058
ومان	-12.1059
حاشیه	-12.1062
طالبان	-12.1064
▁سخنگو	-12.1065
۸۷	-12.1065
نویسندگان	-12.1065
▁کنش	-12.1065
مدیریت	-12.1069
روبرت	-12.1072
▁گروهها	-12.1076
ارل	-12.1077
کشف	-12.1079
▁کاسی	-12.1085
فولاد	-12.1091
▁پولهای	-12.1093
▁محر	-12.1099
بازارهای	-12.1099
▁عثمان	-12.11
▁بهنا	-12.1102
مدیرکل	-12.1103
ئوس	-12.1107
پینو	-12.1108
▁خرم	-12.111
خاوران	-12.1117
وبسایت	-12.112
رابی	-12.112
جیمز	-12.112
▁تحریر	-12.1125
▁کوتاهتر	-12.113
اضطراب	-12.113
سناتور	-12.1132
جمشید	-12.1132
جزییات	-12.1133
▁فراور	-12.1135
تفاهم	-12.1136
پیرلو	-12.1139
▁موسی	-12.1141
ایلنا	-12.1143
▁هورمون	-12.1145
▁اپراتور	-12.1146
اسحاق	-12.1147
کنزو	-12.1147
▁مذهب	-12.1151
داریوش	-12.1155
▁جادو	-12.1157
▁باگ	-12.1165
▁اظهارنظرها	-12.1173
▁لوب	-12.1174
سالم	-12.1177
ادعا	-12.1179
وشن	-12.1185
▁سلب	-12.1187
پیکر	-12.1194
قبلا	-12.1194
رک	-12.1198
امشب	-12.1199
صمد	-12.1199
گردون	-12.1202
فمن	-12.1211
▁کارآمد	-12.1212
نوسان	-12.1212
دریایی	-12.1212
▁سوکا	-12.1216
▁تون	-12.1219
اعظم	-12.1224
▁چر	-12.1229
وردی	-12.123
روث	-12.1236
پوش	-12.1242
شهرهای	-12.1252
▁صمیم	-12.1255
▁تروریست	-12.1255
خالی	-12.1256
پالا	-12.1257
مکرون	-12.126
قا	-12.1263
▁رومانیا	-12.1264
گمش	-12.127
▁طاه	-12.127
▁استانهای	-12.1273
ایکون	-12.1273
ریدار	-12.128
بولت	-12.1283
وص	-12.1285
زمه	-12.1285
▁وجوه	-12.1288
تناقض	-12.1289
ناوگان	-12.1293
▁گارس	-12.1294
سکار	-12.1294
بالگرد	-12.1295
هاب	-12.1299
▁مختص	-12.13
▁باک	-12.1301
▁باش	-12.1301
آفرین	-12.1309
▁معوق	-12.1315
ضرور	-12.1327
لد	-12.1328
هایش	-12.1329
صرب	-12.1342
▁مورفی	-12.1347
▁ساچ	-12.1354
خیز	-12.1354
رث	-12.1355
▁مجا	-12.1356
▁۳۳۰	-12.1357
▁حر	-12.1361
بندی	-12.1361
سبک	-12.1366
ازد	-12.1368
▁جولیا	-12.1371
جنسی	-12.1377
▁۱۰۲	-12.1377
تقابل	-12.138
▁هموطن	-12.1386
▁محک	-12.139
▁همسایگ	-12.1392
▁زیباتر	-12.1394
محسن	-12.1395
راست	-12.1411
▁کارتون	-12.1423
▁غواص	-12.1425
طابق	-12.1426
▁۲۴۰	-12.1428
طل	-12.1434
▁فیو	-12.1437
اندرو	-12.1444
الگو	-12.1446
▁مکاتب	-12.1448
▁ژس	-12.1451
▁مطبوع	-12.1455
▁اندرو	-12.1457
رگبار	-12.1458
▁گلشی	-12.1459
وبی	-12.1459
▁شراف	-12.146
یانی	-12.1466
▁اوگوپوگو	-12.1471
▁اکونومی	-12.1471
▁بورکینافاسو	-12.1471
▁دزفول	-12.1471
▁رامهرمز	-12.1471
▁سوسیالیست	-12.1471
▁ناپلئون	-12.1471
▁ولاسکز	-12.1471
▁پترزبورگ	-12.1471
▁پرینسخرا	-12.1471
▁پومپئو	-12.1471
▁انحراف	-12.1471
▁تمسخر	-12.1471
▁سوبرانا	-12.1471
▁بشنوند	-12.1471
▁سزاوار	-12.1471
▁میکروسکوپ	-12.1471
▁بپیوندد	-12.1471
▁رادیواکتیو	-12.1471
▁معشوق	-12.1471
▁ناپایدار	-12.1471
▁وبلاگ	-12.1471
▁یوردانس	-12.1471
▁فانخیو	-12.1471
▁کاریکاتور	-12.1471
▁غیاث	-12.1471
▁قیراط	-12.1471
▁پرسورینس	-12.1471
▁تشریفات	-12.1471
▁متذکر	-12.1471
▁طنزپرداز	-12.1471
▁سرخپوشان	-12.1471
▁سمنزا	-12.1471
▁بپرسید	-12.1471
▁تظاهر	-12.1471
▁محتکر	-12.1471
▁شرمسار	-12.1471
▁ناآشنا	-12.1471
▁صحافی	-12.1471
▁همجوار	-12.1471
▁مصائب	-12.1471
▁نذری	-12.1471
▁نکونام	-12.1471
▁فرخزاد	-12.1471
▁بیانجامد	-12.1472
▁نوترینو	-12.1472
▁ایرلاین	-12.1472
▁مقننه	-12.1472
▁شیطان	-12.1472
▁معضل	-12.1472
▁سوراخ	-12.1472
▁سوینتن	-12.1472
▁مجارستان	-12.1472
▁غمگین	-12.1472
▁طارمی	-12.1472
▁لوکزامبورگ	-12.1472
▁تظاهرکنندگان	-12.1472
▁اساتید	-12.1472
▁آسایشگاه	-12.1473
▁نقیض	-12.1473
▁مکوندی	-12.1473
▁موتورسوار	-12.1473
▁نباشید	-12.1473
▁برسانیم	-12.1473
▁انهدام	-12.1473
▁بگویید	-12.1474
▁مقصود	-12.1474
▁مترمکعب	-12.1474
▁جانبازان	-12.1474
▁پوتین	-12.1474
▁ستمگر	-12.1475
▁برلیناله	-12.1475
▁عنایت	-12.1475
▁داینا	-12.1475
▁غیرعمد	-12.1476
▁نزاع	-12.1476
▁سرسبز	-12.1476
▁ظلم	-12.1477
▁خمیس	-12.1477
▁سهمگین	-12.1477
▁دفعات	-12.1478
▁قرآن	-12.1478
▁هوندا	-12.1479
▁دوآ	-12.1479
▁بشناسد	-12.1479
▁هیلتون	-12.1479
▁مصادیق	-12.1479
▁شوشتر	-12.1479
▁ببینم	-12.148
▁پوینت	-12.148
▁خاکباز	-12.1481
▁جرارد	-12.1481
▁ایرویز	-12.1481
▁منحنی	-12.1482
▁کوئینز	-12.1482
▁غیرمعمول	-12.1483
▁کوونی	-12.1483
▁صداقت	-12.1483
▁سیندمی	-12.1483
▁بسپارد	-12.1484
▁۱۳۸۶	-12.1484
▁بزنید	-12.1484
▁خوشبو	-12.1485
▁شادگان	-12.1486
▁سنجاب	-12.1486
▁بیفتند	-12.1487
▁بنویسد	-12.1489
▁بفرستد	-12.1489
▁متضاد	-12.149
▁۱۹۴۴	-12.149
▁۱۳۸۰	-12.1492
▁مقبول	-12.1493
▁کوئیک	-12.1493
▁کانتونا	-12.1493
▁ناخو	-12.1494
▁بنویسم	-12.1494
▁باغبان	-12.1495
▁عبرت	-12.1495
▁دیلن	-12.1496
▁عبادی	-12.1496
▁تسل	-12.1496
▁زهیر	-12.1496
▁موزیکال	-12.1498
ارزپاشی	-12.1499
▁باروک	-12.15
پهن	-12.15
▁مزیت	-12.1502
بنز	-12.1506
▁عابران	-12.1507
▁لاستیک	-12.1507
▁صفاری	-12.1507
▁۶۳۰	-12.1509
▁بلندتر	-12.1509
▁بگذارم	-12.151
▁ونچ	-12.1512
▁ترفتال	-12.1512
▁بنی	-12.1513
روا	-12.1513
▁گزاف	-12.1514
▁کالینگ	-12.1516
▁دیسک	-12.1517
▁منکین	-12.1518
▁علیشاهی	-12.1518
▁مرندی	-12.1519
▁۲۳۹	-12.152
▁بوفالوران	-12.152
▁زیباست	-12.1521
▁زادروز	-12.1522
▁روباه	-12.1522
▁زیربنا	-12.1524
▁معبد	-12.1524
▁خیاط	-12.1524
▁کیلی	-12.1526
متری	-12.1528
▁جویانه	-12.1528
▁لرزاند	-12.1528
▁سروصدا	-12.1529
▁تنبل	-12.1529
▁بیولوژی	-12.153
▁مشهود	-12.153
▁الجز	-12.153
ستراح	-12.1533
▁نیابت	-12.1534
▁خجالت	-12.1535
▁قمار	-12.1535
▁خیری	-12.1535
▁باارزش	-12.1536
▁میانمار	-12.1537
▁ناظمی	-12.1538
▁وزیری	-12.154
▁دلنشین	-12.154
امور	-12.1541
▁آموس	-12.1543
▁حدف	-12.1544
▁بگیرم	-12.1545
▁آغا	-12.1546
بنوی	-12.1547
▁خورند	-12.1548
متاز	-12.1553
▁آبراه	-12.1556
▁ایدز	-12.1563
▁بازوهای	-12.1564
▁ثق	-12.1567
▁خطاهای	-12.1567
▁شوکور	-12.1568
▁فدریک	-12.1568
▁محمدحس	-12.157
▁ترمز	-12.1571
▁محصور	-12.1573
▁مشاهدات	-12.1576
▁بازپرس	-12.1578
هالیفیلد	-12.1578
▁کریگ	-12.1579
▁میناری	-12.158
▁شهباز	-12.1581
▁ازآن	-12.1582
▁اتمر	-12.1583
▁پوسترهای	-12.1584
▁پیوندند	-12.1585
▁گیج	-12.1587
▁نبردها	-12.1588
ستحکم	-12.1589
▁بامیه	-12.1589
▁دکترای	-12.1591
۷۲	-12.1593
پوشید	-12.1594
▁زرتشتی	-12.1596
▁نمودار	-12.1597
▁غفاری	-12.16
▁نرود	-12.1602
▁پرور	-12.1604
▁سینایی	-12.1605
▁ریختند	-12.1606
یلو	-12.1614
▁یادمان	-12.1618
پروم	-12.1625
هنگ	-12.1626
جمعی	-12.1628
▁هالووین	-12.1631
▁گیلبرت	-12.1632
▁لایک	-12.1634
▁شکس	-12.1637
پدر	-12.1643
ارنوک	-12.1647
▁ائ	-12.1651
اتل	-12.1651
حور	-12.1651
نچ	-12.1651
هموار	-12.1651
▁رباتیک	-12.1653
▁موازن	-12.1653
▁برسیم	-12.1654
▁تیز	-12.1654
▁مبنا	-12.1655
▁واژگان	-12.1659
▁نرسیدن	-12.1661
▁بنام	-12.1661
▁آرن	-12.1664
▁مواج	-12.1666
▁مفسد	-12.1668
▁سیب	-12.1669
▁ویدئوهای	-12.167
▁ربع	-12.167
▁دارالا	-12.1672
ندرسون	-12.1672
یشان	-12.1674
▁گذراندم	-12.1674
ینا	-12.1675
▁نگذشته	-12.1677
▁ناشده	-12.1686
▁رحیمی	-12.1691
الیزا	-12.1695
▁مرزبان	-12.1697
▁بدیع	-12.1698
▁بدود	-12.1699
▁آزادگان	-12.1699
ارا	-12.1708
▁رجیس	-12.1709
▁محبت	-12.171
▁فراوانش	-12.171
▁نوشتارها	-12.1713
▁تماشگر	-12.1715
لیل	-12.1715
دنی	-12.1718
نادر	-12.1719
▁دستفروش	-12.172
▁سانچ	-12.1721
نما	-12.1727
یروس	-12.1728
▁دلخو	-12.1733
▁چریک	-12.1735
▁گمارد	-12.1737
سوار	-12.1745
▁دوقلوها	-12.1755
۳۵	-12.1758
کال	-12.1759
ویرانگر	-12.1762
▁رازهای	-12.1766
▁صفا	-12.1775
▁قبرهای	-12.1775
▁گماشت	-12.1778
▁مدا	-12.1781
▁رکسا	-12.1786
مق	-12.1787
وماگا	-12.1788
کولبر	-12.1788
تعدد	-12.1788
▁سودده	-12.1788
نمود	-12.1788
▁کتابخوان	-12.1796
▁دروغگو	-12.1799
▁فاصل	-12.1808
▁لغ	-12.1809
طلس	-12.1814
▁صمد	-12.1817
▁صن	-12.1823
▁نبردی	-12.1825
▁شمع	-12.1829
زستان	-12.1838
▁خوانید	-12.1839
▁هنرپیشگ	-12.1841
▁مجلل	-12.1847
▁همتایان	-12.1849
▁دالان	-12.1849
▁یزدان	-12.1855
ستری	-12.1855
▁کشمیر	-12.1855
سایر	-12.1857
دارا	-12.1858
اتب	-12.1858
▁شمرد	-12.1875
▁چهلم	-12.1885
▁مواجهند	-12.1887
▁هزاره	-12.1897
▁تویی	-12.19
اصر	-12.19
▁ایفل	-12.1909
▁گفتم	-12.191
کادی	-12.192
▁داستا	-12.193
▁چون	-12.1933
▁نازک	-12.1934
▁میامی	-12.1936
نشینان	-12.194
▁حک	-12.1941
نگام	-12.1953
▁بون	-12.1954
مانس	-12.1956
هفتم	-12.1956
فشان	-12.1956
شود	-12.1957
سورها	-12.1958
توم	-12.1962
الیف	-12.1969
دهم	-12.1976
اشته	-12.199
رانگ	-12.1991
▁بیدگ	-12.1992
▁وارن	-12.1993
نسوخ	-12.1994
طم	-12.1994
اطبا	-12.1996
▁تهدیدات	-12.1997
اگ	-12.1999
شانت	-12.1999
▁هستی	-12.2002
▁سیاستگذار	-12.2003
اتنگ	-12.2004
▁کلاسیکو	-12.2004
دیو	-12.2005
▁نرفتن	-12.2007
▁همدان	-12.2008
▁وزار	-12.2009
▁پارکین	-12.201
▁قبای	-12.2012
فروشی	-12.2014
نازل	-12.2017
▁دانل	-12.2017
▁۷۶۰	-12.2019
لخ	-12.2026
ذره	-12.2031
خونی	-12.2043
▁رزو	-12.2056
حالی	-12.2063
▁ترسد	-12.2064
▁حجت	-12.2064
▁استدفتر	-12.2065
خدم	-12.2067
رگذشت	-12.2067
▁وانگ	-12.207
▁خوار	-12.2071
گفتگوی	-12.2071
▁افتادند	-12.2075
اکبری	-12.2078
وفیا	-12.2085
▁۲۰۶	-12.2086
ندنی	-12.2093
▁پرتوی	-12.2096
کمیس	-12.2102
انزلی	-12.2106
عد	-12.2121
▁بگذار	-12.2121
▁سپهر	-12.2122
▁دستورات	-12.2127
▁فرستند	-12.2144
رعه	-12.2151
▁اولیو	-12.2155
▁بنین	-12.2155
گذشته	-12.2159
▁دخترم	-12.2163
▁شرت	-12.2171
▁خوابیدن	-12.2175
▁نبرده	-12.2176
ارگ	-12.2192
▁کوئین	-12.2194
▁راهیاب	-12.22
▁فرگوس	-12.2203
▁نگ	-12.221
▁مگنو	-12.2211
▁پدرو	-12.2215
هشت	-12.2218
هان	-12.2221
شاملو	-12.2224
ورز	-12.2226
کسیون	-12.2229
گراد	-12.2234
چندان	-12.2242
مثبت	-12.2245
▁شغلهای	-12.2252
صیر	-12.226
هلن	-12.2266
▁مته	-12.2269
▁ناخ	-12.2277
ناعت	-12.2278
▁بکر	-12.2282
▁مورخ	-12.2287
▁ایرانسل	-12.229
▁هوم	-12.2293
▁کولبری	-12.2296
چار	-12.2297
▁راهور	-12.2299
اتری	-12.2304
▁جنگید	-12.2312
▁بارتو	-12.2317
▁جور	-12.2331
ورو	-12.2331
▁شناختند	-12.2335
▁میزبانش	-12.2358
▁نفی	-12.2364
▁استعماری	-12.2367
▁مرم	-12.237
دانف	-12.2372
پن	-12.2379
▁یابی	-12.2382
پوآ	-12.2388
▁نحس	-12.2406
تحرک	-12.2421
▁چکی	-12.2423
▁اعم	-12.2433
یوس	-12.2435
▁تعبی	-12.2437
▁فونت	-12.2442
▁آورید	-12.2463
▁دربا	-12.2473
▁انقلابی	-12.2476
▁۱۲۸	-12.2479
▁سوپ	-12.2482
▁مایا	-12.2498
▁بازنده	-12.251
▁آریا	-12.2517
پرده	-12.2523
زیا	-12.2534
▁کوک	-12.2537
▁عس	-12.2545
▁دیدگ	-12.2553
▁تولی	-12.2555
فلورای	-12.256
▁دانستم	-12.2567
▁همسران	-12.2568
فای	-12.2568
گذرانند	-12.2569
گوین	-12.257
ذاب	-12.2587
▁فیزیوتراپی	-12.2589
نفت	-12.259
▁پرداختند	-12.2597
▁گزی	-12.2599
دری	-12.2608
یغ	-12.2609
۹۶۰	-12.2617
لیور	-12.2617
برند	-12.262
رژی	-12.2627
▁خند	-12.2662
انچی	-12.2672
▁مزد	-12.2673
▁رسیم	-12.2674
لیا	-12.2676
گنجی	-12.2677
▁حوال	-12.2682
نقدر	-12.2687
▁مذاکراتش	-12.2693
▁سندر	-12.2703
▁عفون	-12.271
اینس	-12.2716
▁؛	-12.2725
نوان	-12.2731
راکت	-12.2749
▁ادین	-12.2749
گور	-12.2751
مندان	-12.2759
▁۱۳۳	-12.2765
کیا	-12.2777
تانک	-12.2777
▁نورال	-12.2784
▁گار	-12.279
▁برخاستن	-12.2792
▁ولت	-12.2801
▁دوور	-12.2803
موش	-12.2808
خوانده	-12.2813
▁بخوان	-12.2815
▁فرجی	-12.2815
▁بیگان	-12.282
▁لویی	-12.2822
▁برازند	-12.2827
لیو	-12.2831
جین	-12.2836
مالا	-12.2837
ارسیا	-12.284
اوت	-12.2845
▁آنف	-12.2851
لوی	-12.2852
نگو	-12.2861
▁۱۱۹	-12.2869
الان	-12.2872
▁رگی	-12.2875
فاهی	-12.2876
▁شکم	-12.2878
ماد	-12.2883
▁آرنو	-12.2885
▁کنسولی	-12.2889
▁میانج	-12.2893
وشیرو	-12.2896
▁بایستی	-12.2911
▁آسمانی	-12.2919
۵۳	-12.292
رال	-12.292
▁تنه	-12.2924
▁بریج	-12.2927
▁نخل	-12.2927
تال	-12.293
▁بدنساز	-12.2931
تس	-12.2935
▁ایرایی	-12.2949
گمان	-12.2951
▁لج	-12.2965
یختگ	-12.2967
عود	-12.2971
قانون	-12.2979
وانگ	-12.2997
گشایش	-12.3002
کسان	-12.3009
یافت	-12.3011
▁پرمخاط	-12.3014
خنده	-12.3036
▁مشترکان	-12.3039
▁وینس	-12.3042
▁مصل	-12.3042
▁جدیدتر	-12.3042
یاب	-12.3048
احسا	-12.3058
▁دلجو	-12.3058
سوری	-12.3062
۶۸	-12.3067
ورگان	-12.3071
۹۵	-12.308
▁کلانی	-12.308
▁ماخ	-12.3081
دوم	-12.3085
▁ریچ	-12.3087
اغذی	-12.3088
نفوس	-12.3091
بسیار	-12.3093
▁ث	-12.3097
وشه	-12.3099
▁نقاشان	-12.3101
▁چشمک	-12.3104
ینکی	-12.3106
▁مگو	-12.3124
اویر	-12.3132
اختا	-12.3136
یگری	-12.314
اشق	-12.3141
▁ویول	-12.3142
▁والد	-12.3158
أت	-12.3161
▁وث	-12.3169
سترش	-12.3177
▁ابراهیمی	-12.318
فونی	-12.3186
▁وصدا	-12.3196
چو	-12.3198
▁منه	-12.3199
▁قه	-12.3199
سیل	-12.3207
انگر	-12.3209
ورن	-12.321
▁ویلر	-12.3218
▁دز	-12.3219
نگاه	-12.3221
کنی	-12.3222
▁آخ	-12.3225
▁درخشند	-12.3241
▁فرما	-12.3243
▁مخاط	-12.3245
▁راین	-12.3251
▁افزا	-12.3253
▁۱۵۲	-12.3257
▁کربی	-12.3263
▁تراژ	-12.3264
ادبی	-12.3269
▁لین	-12.3269
▁فوب	-12.3274
تعی	-12.3274
▁بگو	-12.3276
لاند	-12.3278
رایش	-12.3281
▁آنجل	-12.3283
▁کشاورزان	-12.3286
▁آین	-12.3289
دوش	-12.329
▁خائ	-12.3294
دستان	-12.3297
نگوی	-12.3298
دخای	-12.3301
▁خصوصا	-12.3317
موس	-12.3325
شهری	-12.3333
جدید	-12.3338
کسوت	-12.3338
هیه	-12.3342
▁ببری	-12.3347
▁هید	-12.336
هستند	-12.336
ضیا	-12.336
ذخا	-12.3363
۹۸	-12.337
ورای	-12.3376
پرت	-12.3378
▁کوما	-12.3383
▁شارپ	-12.3387
▁هندو	-12.3393
دونا	-12.3402
لیات	-12.3402
▁اسکور	-12.3411
سند	-12.3427
پایان	-12.3428
شهره	-12.3428
▁بمان	-12.3428
زاوی	-12.343
نزو	-12.3442
گوش	-12.3443
▁چسبی	-12.3449
چون	-12.3462
کلاس	-12.3463
▁زمام	-12.3475
▁کیش	-12.3476
گرم	-12.3482
تاریخ	-12.3483
سمانی	-12.3484
رید	-12.3487
نزدیک	-12.3489
رونالدو	-12.3492
▁فرسا	-12.3495
نمای	-12.3498
گارد	-12.35
یاط	-12.3502
انوس	-12.3504
▁رایکو	-12.3518
کولی	-12.3522
حی	-12.3522
ناتور	-12.3522
نوم	-12.3524
ردام	-12.3525
انشهر	-12.3528
▁تدا	-12.3534
▁هیچگ	-12.3538
▁دکترها	-12.3561
▁استرا	-12.3562
خواند	-12.3568
▁کتابدار	-12.357
▁الف	-12.3576
▁منح	-12.3581
▁اندروز	-12.3585
انریک	-12.3586
▁ژر	-12.3589
نند	-12.3595
▁تشخیصی	-12.3595
▁رویاها	-12.3601
▁محم	-12.3604
ودن	-12.3606
▁مرب	-12.3617
▁واکسنی	-12.3619
▁آنه	-12.3623
▁اسکا	-12.363
عمل	-12.3654
▁جاست	-12.3656
آقا	-12.3657
ئیل	-12.3659
▁بده	-12.3675
افراد	-12.3677
رصد	-12.3682
آینده	-12.3686
لام	-12.3694
ارهای	-12.3709
▁۱۱۴	-12.3709
۰۳	-12.3712
قچی	-12.3713
▁چیپ	-12.3713
▁نائ	-12.3718
منان	-12.3723
پیدا	-12.3734
▁انبارها	-12.3735
▁شهره	-12.3744
ضراب	-12.3748
▁زبانه	-12.3749
وازا	-12.3753
▁اجسا	-12.3754
▁آبیار	-12.3761
▁فهمیدن	-12.3765
روحانی	-12.3769
▁گود	-12.3775
▁دس	-12.3778
▁غیرب	-12.3784
نیت	-12.3786
▁لینگ	-12.3794
▁سکس	-12.3798
▁خونی	-12.3799
انیس	-12.3806
یزی	-12.3809
▁واردکنند	-12.381
▁هال	-12.3812
▁مبه	-12.3818
▁مارسل	-12.3818
▁واحده	-12.3819
تگان	-12.3824
▁تخار	-12.3828
▁بدق	-12.3835
برابر	-12.3844
▁دستمزدها	-12.3858
▁فضاپیما	-12.3861
برمی	-12.3866
▁کلو	-12.3868
۸۶	-12.3871
عکسی	-12.3872
▁الو	-12.3876
▁جل	-12.3887
برت	-12.3889
▁آزم	-12.3893
▁سونا	-12.3894
انح	-12.3899
▁صداها	-12.3902
دوستانه	-12.3907
میان	-12.3911
عیار	-12.3912
▁زنم	-12.3914
چگون	-12.3916
داخل	-12.3917
فیه	-12.3927
▁ولای	-12.3928
یلد	-12.3929
ارپنت	-12.3937
ریاست	-12.3937
▁دستش	-12.3939
▁ند	-12.3939
سترد	-12.3943
▁ماجراجو	-12.395
تفاوت	-12.3954
یری	-12.3965
تحریر	-12.3968
فرنو	-12.3971
▁ماسا	-12.3974
کای	-12.3987
▁آلیس	-12.3997
لومین	-12.4007
ابات	-12.4012
تناب	-12.4014
▁کیس	-12.4019
تهم	-12.4021
ریز	-12.4024
▁هوک	-12.4027
بله	-12.4032
▁کران	-12.4043
اقدام	-12.4044
تایید	-12.4046
المپیک	-12.4048
شهدا	-12.4048
انسان	-12.4049
قاب	-12.4054
قامت	-12.4058
اعت	-12.4059
حکومت	-12.4063
پار	-12.4066
▁چپگرا	-12.4066
▁نابینا	-12.4072
▁دیپلم	-12.4084
▁دیگ	-12.4089
▁پنداشت	-12.4098
قوی	-12.41
۱۰	-12.4102
▁پارسا	-12.4105
انتقال	-12.4109
شناخت	-12.4112
۴۳	-12.4115
▁مگن	-12.4121
مهندس	-12.4126
▁بالاگ	-12.4128
نایی	-12.4129
▁کمپا	-12.4129
▁رسیدم	-12.4131
ظریف	-12.4135
نیایی	-12.4141
▁اتکای	-12.4143
فکر	-12.4145
▁درازا	-12.4154
▁شغلش	-12.4155
▁زیرین	-12.416
▁گیران	-12.4161
اصله	-12.4162
ینس	-12.4162
حرکت	-12.4164
کاظم	-12.4165
شیده	-12.4168
اقش	-12.417
دپای	-12.4171
▁وج	-12.4177
ناتان	-12.4186
صراف	-12.4189
▁وسائ	-12.4194
خرید	-12.4198
▁الیو	-12.4203
جنوب	-12.4206
برداشت	-12.4213
▁نشا	-12.4219
▁ونزوئلای	-12.422
واردات	-12.4229
سپی	-12.4232
سالگی	-12.4235
سیاسی	-12.4239
دستور	-12.425
آتش	-12.425
▁لیک	-12.4253
▁آک	-12.4254
الکلی	-12.426
چهارم	-12.4263
سقوط	-12.4264
توییتر	-12.4264
▁شرو	-12.4266
اعتراضات	-12.4266
رسانی	-12.4267
مجید	-12.4271
▁آسو	-12.4273
روسیه	-12.4279
▁اشع	-12.4283
بریتانیایی	-12.4285
برخورد	-12.4288
منچستر	-12.4289
سوخت	-12.4291
نوشت	-12.4292
اسکا	-12.4298
ئل	-12.43
امنیتی	-12.4302
رقم	-12.4303
▁منو	-12.4307
اتاق	-12.4309
عاب	-12.431
فساد	-12.4312
سفیر	-12.4313
زند	-12.4315
لینک	-12.4317
جدول	-12.4317
ساختمان	-12.4317
کاملا	-12.4318
وهای	-12.4321
جزئیات	-12.4321
هشتم	-12.4324
خواننده	-12.4324
▁گردآ	-12.4325
چپ	-12.4325
▁لک	-12.4327
گلدار	-12.433
معترضان	-12.4331
آلبر	-12.4333
پنجشنبه	-12.434
کمبود	-12.4342
▁لوت	-12.4344
▁مشروع	-12.4346
جوایز	-12.4346
ساخته	-12.4346
واشنگتن	-12.4348
مدیرعامل	-12.4351
▁بز	-12.4354
برزیل	-12.4356
توییت	-12.4357
فیفا	-12.4358
معمولا	-12.4364
▁جنگیدن	-12.4365
▁دلیلش	-12.4368
مجله	-12.4376
خیابان	-12.4376
رمت	-12.4377
رئال	-12.4377
خبرنگاران	-12.4378
آرسنال	-12.4383
جامعه	-12.4384
مشاور	-12.4396
نادال	-12.4396
کریستین	-12.4398
بازدید	-12.4398
اطمینان	-12.4399
اصلاح	-12.4399
▁زوا	-12.44
خودکشی	-12.4402
پادشاه	-12.4403
مرح	-12.4403
عصر	-12.4403
بنیا	-12.4406
امارات	-12.4407
▁مط	-12.4407
کیفیت	-12.4409
حراج	-12.441
تبعیض	-12.4415
حشم	-12.4416
منچسترسیتی	-12.4417
فایزر	-12.4419
اسپوت	-12.442
تکمیل	-12.4428
عرص	-12.4428
سپاهان	-12.4429
کاوشگر	-12.4429
اسکار	-12.443
▁نیروها	-12.4432
▁۱۸۴	-12.4432
اگون	-12.4437
رامش	-12.444
ستردا	-12.444
▁..	-12.4441
عطرساز	-12.4441
ویلیام	-12.4441
ماگو	-12.4442
▁اوار	-12.4443
پژوهش	-12.4443
نوروز	-12.4445
رگاه	-12.4445
ستیو	-12.4446
منچستریونایتد	-12.4447
مالاریا	-12.4451
معمول	-12.4451
دروس	-12.4451
ثروت	-12.4452
واقعیت	-12.4454
انتقادات	-12.4458
دیتر	-12.4459
کوئین	-12.446
رونالدینیو	-12.4461
بنفش	-12.4461
شرف	-12.4462
مارتین	-12.4465
توتال	-12.4469
تماس	-12.447
خالق	-12.4475
▁تیرانداز	-12.4477
جلسات	-12.4477
کز	-12.4478
▁پناهجو	-12.448
▁اصلان	-12.4484
عبدالله	-12.4485
▁وکلا	-12.4489
جعفر	-12.4495
جدال	-12.4497
▁جهنم	-12.4498
▁گرسن	-12.4506
▁نارنج	-12.4508
▁محتوا	-12.451
▁حسگر	-12.4517
▁اتل	-12.4522
اقت	-12.4523
▁خانوارها	-12.4525
▁ادعاها	-12.4525
دات	-12.4528
پناه	-12.4529
آشفت	-12.4533
▁مطهر	-12.4534
متیو	-12.4536
▁نجوم	-12.4538
یدند	-12.4551
▁گرداند	-12.4552
▁مقدا	-12.4554
سپ	-12.4562
▁بیس	-12.4565
مدیران	-12.4569
تراپی	-12.457
حبیب	-12.4574
مثل	-12.4584
▁ساق	-12.4586
▁علا	-12.4588
نصر	-12.459
کوبا	-12.4594
▁شغلها	-12.4594
▁لطیف	-12.4605
▁۲۰۷	-12.4607
▁جهانگیر	-12.461
حکمت	-12.4616
نیاز	-12.4617
یتون	-12.4617
کران	-12.4618
پزشکان	-12.4626
وکس	-12.4628
▁لاین	-12.4628
اوبر	-12.4629
شرط	-12.463
لنگر	-12.4631
▁دومی	-12.4635
تعارض	-12.4641
▁سایتش	-12.4642
▁فروخت	-12.4643
▁تابع	-12.465
دالر	-12.4651
اخترشناس	-12.4653
یویا	-12.4659
پائی	-12.4664
▁عر	-12.4666
ارگردان	-12.4666
▁دیوارها	-12.4669
▁جوری	-12.467
امد	-12.4674
باری	-12.4675
▁تجر	-12.4676
▁تجار	-12.4682
▁وینفر	-12.4683
دومین	-12.4684
کیهان	-12.4687
جاز	-12.4689
شرکتهای	-12.4695
▁تسا	-12.4696
▁شوخ	-12.4698
ونتی	-12.47
ژی	-12.4702
مانیا	-12.4709
▁خطرهای	-12.471
ضمن	-12.4712
جهش	-12.4713
گذراند	-12.4716
ئرنیک	-12.4717
▁دهشت	-12.4728
وزش	-12.4732
منتف	-12.4734
▁جمهو	-12.4736
یدا	-12.4738
قول	-12.474
▁تهدیدها	-12.4745
▁لیپ	-12.4746
▁رخشان	-12.475
▁دستورها	-12.4752
▁قراردادها	-12.4754
▁لال	-12.4761
▁الاح	-12.4764
شهرت	-12.4768
وک	-12.4768
قطعی	-12.477
سترازنکا	-12.4774
▁دلسوز	-12.4777
▁لول	-12.4778
▁کانتون	-12.4785
ائیه	-12.4785
▁بپرداز	-12.4786
ریزش	-12.4787
▁زحم	-12.4789
▁قرائ	-12.4794
▁ظالم	-12.4798
کات	-12.4799
درس	-12.48
▁هاشم	-12.4802
▁دیپ	-12.4804
▁ابوظبی	-12.4804
▁ایزوتوپ	-12.4804
▁تمساح	-12.4804
▁دیپلومات	-12.4804
▁سریلانکا	-12.4804
▁سولوویوف	-12.4804
▁ژئوپلتیک	-12.4804
▁یوکوکورا	-12.4804
▁غوغای	-12.4804
▁مرتضوی	-12.4804
▁شقاقی	-12.4804
▁نامطلوب	-12.4804
▁پورنوگرافی	-12.4804
▁هخامنشی	-12.4804
▁پوآرو	-12.4804
▁وبیتکو	-12.4804
▁سبحانی	-12.4804
▁استروئید	-12.4804
▁مدودف	-12.4804
▁واکاندا	-12.4804
▁ابطحی	-12.4804
▁روانشناختی	-12.4804
▁نیفتد	-12.4804
▁سانفرانسیسکو	-12.4804
▁سمنگان	-12.4804
▁هیدروژن	-12.4804
▁سیدابراهیم	-12.4804
▁پورتلند	-12.4804
▁برگکمپ	-12.4805
▁هولدینگ	-12.4805
▁کاذب	-12.4805
▁العالم	-12.4805
▁هورایزن	-12.4805
▁فینچر	-12.4805
▁فاحش	-12.4805
▁واینالد	-12.4805
▁نگرائو	-12.4805
▁ابریشم	-12.4805
▁بیاموز	-12.4805
گاتی	-12.4805
▁شکوهمند	-12.4805
▁خونسرد	-12.4805
▁مخترع	-12.4806
▁اسنوبرد	-12.4806
▁کمرشکن	-12.4806
▁بیندازید	-12.4806
▁گمپرت	-12.4806
▁سیلیکون	-12.4806
▁ریاکاری	-12.4806
▁خرگوش	-12.4806
▁نیفتند	-12.4806
▁الشع	-12.4806
▁وصیت	-12.4807
▁پاکیزگی	-12.4807
▁اتوبان	-12.4807
▁واعظ	-12.4807
▁ضابط	-12.4808
▁فورهند	-12.4808
کانا	-12.4808
▁مزاح	-12.4808
▁بکشاند	-12.4808
▁۵۳ساله	-12.4808
▁جماعت	-12.4808
▁برگردانند	-12.4808
▁آنالیز	-12.4809
▁اوباش	-12.4809
▁گنجایش	-12.4809
▁پاندمی	-12.4809
▁ببخشد	-12.4809
▁کربلا	-12.481
▁کلمبو	-12.481
▁ندوشن	-12.481
▁بمانید	-12.481
▁فرازمند	-12.4811
▁ویسکانس	-12.4811
▁ژئو	-12.4811
▁سرمنشا	-12.4811
▁عاقبت	-12.4812
▁بنشینند	-12.4812
▁فرازمینی	-12.4812
▁افتضاح	-12.4812
▁ناخدا	-12.4812
▁کلسترو	-12.4813
▁پردیس	-12.4813
▁بکاهد	-12.4813
▁حیفا	-12.4814
▁سردادند	-12.4815
▁اوب	-12.4815
▁ارنست	-12.4816
▁گاندو	-12.4816
▁کلارک	-12.4816
▁آسایش	-12.4816
مویرگی	-12.4817
▁پرنفوذ	-12.4817
▁شگرف	-12.4817
▁بنگال	-12.4817
▁معصومانه	-12.4818
▁قاپید	-12.4818
▁شئون	-12.4819
▁بازگردم	-12.4819
▁بصیر	-12.4819
▁بیاییم	-12.482
▁سالوادور	-12.482
▁سعیدپور	-12.4822
▁پاسداشت	-12.4822
باستان	-12.4822
لگرام	-12.4822
▁مشکاتیان	-12.4822
▁سمنان	-12.4823
▁بنویس	-12.4824
▁آتلانتا	-12.4824
▁اسطور	-12.4824
▁شادمان	-12.4824
▁آبتین	-12.4824
▁دستگیرزاده	-12.4825
▁۱۹۱۲	-12.4826
▁اپوز	-12.4826
▁بیابند	-12.4826
▁احمق	-12.4826
▁بروکلی	-12.4828
▁فاضلاب	-12.4828
▁ارمنی	-12.4828
▁بندپی	-12.4829
▁متهیا	-12.4829
شمالی	-12.483
▁ترفندهای	-12.483
▁مولایی	-12.4831
▁گریختند	-12.4831
▁کتا	-12.4831
▁آلمادو	-12.4831
▁خانلو	-12.4832
▁بوسد	-12.4832
▁تشابه	-12.4832
▁۶۱۲	-12.4833
▁معابد	-12.4833
▁بگریز	-12.4833
▁مزارش	-12.4834
تقی	-12.4835
▁۱۹۳۹	-12.4835
▁واداشته	-12.4835
▁کوروت	-12.4835
▁المپی	-12.4836
▁فرمایش	-12.4836
▁تمجید	-12.4836
▁حصار	-12.4837
▁بردارم	-12.484
▁موثق	-12.4841
رزاده	-12.4842
چیز	-12.4843
▁بیابد	-12.4846
▁نگیرد	-12.4847
▁ولیحی	-12.4847
▁آلترن	-12.4847
روژن	-12.4847
▁کولون	-12.4847
▁نشناخت	-12.4849
▁بریز	-12.4851
▁هدفمند	-12.4851
انو	-12.4852
دخیل	-12.4852
▁حماسی	-12.4853
▁کد	-12.4853
▁پرالتهاب	-12.4853
فال	-12.4855
▁لاهه	-12.4855
زیستی	-12.4855
▁ریتم	-12.4856
پابلیک	-12.4856
▁سرمست	-12.4857
▁بای	-12.4858
▁آغازکرد	-12.4858
▁ندانستند	-12.486
لازم	-12.4861
▁اخت	-12.4862
▁عنف	-12.4864
▁۲۶۶	-12.4864
ورش	-12.4865
▁آپارت	-12.4865
▁رافا	-12.4867
آگاهی	-12.4867
نکات	-12.4868
▁پراوی	-12.4868
▁گسست	-12.4869
دلیلش	-12.4869
▁استیشن	-12.487
آل	-12.4874
▁طومار	-12.4875
▁دات	-12.4875
▁گیگاب	-12.4876
▁سنسور	-12.4877
▁نها	-12.488
▁انعکاس	-12.488
▁بساط	-12.4881
▁جنایات	-12.4881
▁رادارها	-12.4883
▁ملایم	-12.4886
▁آشتی	-12.4886
▁کتابها	-12.4892
▁علفزارها	-12.4892
▁اژدها	-12.4893
▁۱۷۵	-12.4894
▁مگاصیص	-12.4894
▁لوکالکان	-12.4895
▁گاسکوئین	-12.4895
نگلا	-12.4897
سکو	-12.4899
▁نومید	-12.4902
▁امدادگر	-12.4903
▁نوگرا	-12.4905
▁مترو	-12.4905
انجیر	-12.4906
▁افراط	-12.4907
▁فرمین	-12.491
▁دیوارنگار	-12.4911
▁ضمیر	-12.4919
روش	-12.4921
▁۱۸۸	-12.4921
▁سرزن	-12.4922
▁۱۵۵	-12.4927
نظار	-12.4932
سرگ	-12.4933
ارآفرین	-12.4934
عطا	-12.4934
▁کاونت	-12.4935
▁احتمالات	-12.4936
▁عمویی	-12.4942
▁گرانبهای	-12.4942
▁کاوش	-12.4944
▁بغل	-12.4946
▁۱۲۲	-12.4946
▁رینت	-12.4947
▁شنیدنش	-12.4948
▁کوکو	-12.495
▁لودو	-12.495
▁ناراحتند	-12.495
▁لئون	-12.495
▁رشدی	-12.4953
▁بازکنند	-12.4956
▁امیدورا	-12.4957
رنوش	-12.496
▁نگشته	-12.4961
▁چرخاند	-12.4962
▁رقصیدن	-12.4962
▁آلپ	-12.4962
▁مانورهای	-12.4963
▁مذا	-12.4966
▁بپیچ	-12.4968
▁تسایت	-12.4968
▁همبازی	-12.4969
▁اردبی	-12.4972
▁چهارصد	-12.4972
▁هرچیز	-12.4976
شواری	-12.4976
▁خف	-12.498
▁روست	-12.4982
رفتار	-12.4985
▁پرتلا	-12.4987
▁دریاب	-12.4988
▁هورن	-12.4989
▁ادیان	-12.4993
امبو	-12.4996
▁آندریاس	-12.4999
وانا	-12.5004
▁وزر	-12.5007
▁کاتل	-12.5009
مایند	-12.5011
خاطرات	-12.5012
▁خوانیم	-12.5016
▁هملت	-12.5016
▁مشوقهای	-12.5018
▁گابریلا	-12.5018
▁رهن	-12.5021
ژوز	-12.5022
▁هزارتومان	-12.5025
▁خطاط	-12.5026
▁دفاعیات	-12.5028
لنی	-12.5028
▁باربارا	-12.5029
ویتز	-12.5029
▁منصف	-12.5034
▁جزیرو	-12.5034
کمپ	-12.5036
▁پنتاگون	-12.5037
▁آجر	-12.5037
▁گردآمد	-12.504
سود	-12.5047
▁لوح	-12.5055
ساتبی	-12.5057
▁پرماجرا	-12.5058
▁اکستر	-12.5058
کریک	-12.5058
▁گزارشش	-12.5066
▁آرمانگرا	-12.5066
کارزار	-12.5066
تراتو	-12.5068
▁خرمش	-12.5069
▁خیرخواه	-12.5071
سمی	-12.5073
▁پالیس	-12.5074
▁فراپا	-12.5075
▁زدیم	-12.5077
لع	-12.5083
▁برت	-12.5084
▁۱۷۷	-12.5085
▁گذرا	-12.5085
▁چسباند	-12.5087
▁حادتر	-12.509
▁پهپادهای	-12.509
▁نواز	-12.5096
▁میلیاردی	-12.5096
اندیش	-12.5099
▁بولدو	-12.5101
▁ملامت	-12.5106
▁هشدارها	-12.5107
قویا	-12.5119
▁نگارم	-12.5125
▁علف	-12.5126
▁مین	-12.5126
▁بوس	-12.5126
▁پسندید	-12.5131
▁لارن	-12.5135
▁نات	-12.5136
میخ	-12.5138
▁عرق	-12.514
زارها	-12.5146
سقف	-12.5148
▁ترسند	-12.515
کوش	-12.5151
▁رن	-12.5152
▁لورن	-12.5152
▁نونو	-12.5155
▁کورن	-12.5156
▁نوشتاری	-12.5156
واگذار	-12.5162
ننده	-12.5167
▁بسط	-12.5168
▁ترها	-12.5168
▁مکید	-12.5172
▁کبود	-12.5173
▁کاکس	-12.5173
▁مخالفند	-12.5175
نهاده	-12.5183
▁بازنگشته	-12.5183
۱۰۰	-12.5185
▁مارکان	-12.5185
▁روایتگر	-12.5187
▁هنرش	-12.5191
▁دلا	-12.5198
تژیک	-12.52
▁الاصل	-12.5201
مانند	-12.5204
دهی	-12.5207
▁گاردی	-12.5209
نیمه	-12.521
فراز	-12.5213
امدا	-12.5214
ونز	-12.5214
▁جوزا	-12.5215
▁کینگز	-12.5216
توت	-12.5217
▁دیسکی	-12.5223
درمانی	-12.5226
۸۴	-12.5228
▁کاو	-12.523
شکر	-12.5234
زیاد	-12.5239
▁غنای	-12.5241
▁الاه	-12.5243
▁مستعد	-12.5243
▁رحیم	-12.5243
▁مولد	-12.5243
ارمی	-12.5264
▁ابزارک	-12.527
▁خص	-12.5272
کنفرانس	-12.5276
▁سپه	-12.5281
تورباز	-12.5281
▁مبتلای	-12.5281
امع	-12.5285
مونت	-12.5287
▁تحص	-12.5287
▁بشناسی	-12.5291
▁نقدهای	-12.5291
▁آغازکرده	-12.5302
▁فاخر	-12.5303
جمعه	-12.5305
▁غیرم	-12.5306
▁دائما	-12.531
▁انریک	-12.5319
یکل	-12.532
حا	-12.5322
صالحی	-12.5322
▁مسیریاب	-12.5322
امگاه	-12.5325
▁اسپری	-12.5328
قش	-12.5329
▁تایلندی	-12.533
تایی	-12.5332
▁غیران	-12.5334
▁کامی	-12.5334
▁افزو	-12.5335
▁قهری	-12.5338
فرود	-12.5339
چیان	-12.5339
نورلند	-12.5344
▁آمر	-12.5346
▁پوک	-12.5346
▁لگو	-12.5349
▁کراش	-12.5353
قت	-12.5355
سمت	-12.5355
▁آهنگی	-12.5362
▁محرومند	-12.5363
۷۱۰	-12.5364
رونا	-12.5365
▁عطش	-12.5369
▁نخواست	-12.5373
▁نوای	-12.5381
وئر	-12.5381
▁چانگ	-12.5382
▁دفع	-12.5384
▁بلندق	-12.5384
پارد	-12.5384
گردها	-12.5388
یژ	-12.5392
میانه	-12.5394
▁هلن	-12.5395
۸۰۰	-12.5395
گزین	-12.5398
رشنا	-12.5402
▁نوزدهمی	-12.5402
پیک	-12.5403
▁وسای	-12.5404
فوت	-12.5406
▁اوس	-12.5407
کلاسی	-12.5414
نیز	-12.5423
▁رق	-12.5425
▁میگویند	-12.5426
▁انگشتان	-12.5428
▁کلور	-12.5431
کشید	-12.5437
راس	-12.5437
▁چم	-12.5439
▁لاپ	-12.5442
شمال	-12.5444
▁فاین	-12.5445
تمع	-12.5447
ثر	-12.5448
▁جرئ	-12.5459
▁سط	-12.5464
▁نشرات	-12.5474
دربار	-12.5475
پشتکاری	-12.548
▁هیج	-12.5481
▁روئی	-12.5486
▁مجرمان	-12.549
عزیز	-12.5496
▁پاور	-12.5501
▁مضا	-12.5503
▁سرکو	-12.5508
نیتو	-12.5509
▁باگز	-12.5509
وث	-12.552
▁آنتو	-12.553
▁تراش	-12.5532
رض	-12.5535
▁رفتیم	-12.5535
▁پیوستند	-12.5539
▁استکه	-12.554
باند	-12.5541
▁چول	-12.5544
▁یونیو	-12.5546
نبه	-12.5549
دفو	-12.555
دیر	-12.5552
▁نکردم	-12.5557
بردی	-12.5559
▁جولیان	-12.5561
۱۴۶	-12.5563
▁بارس	-12.5564
▁درایو	-12.557
کاسی	-12.5571
یران	-12.5573
▁جوانا	-12.5574
۵۴	-12.5575
عابد	-12.5575
▁شیاد	-12.5576
▁تنی	-12.5587
▁گرون	-12.5592
▁دلی	-12.5593
گوت	-12.5599
▁کلوز	-12.5602
لائو	-12.5603
▁ستیز	-12.5603
▁نابینای	-12.5609
سکین	-12.5614
یلند	-12.5616
▁پهنا	-12.5628
وفق	-12.5632
▁شدیک	-12.5633
▁بشویی	-12.5634
▁تازیان	-12.5642
▁شناسانه	-12.5644
قطب	-12.5651
▁عاشقان	-12.5651
▁آسم	-12.5654
▁افراز	-12.5656
رهایش	-12.5659
▁کارکنانش	-12.5661
▁استرلی	-12.5662
▁بازیکنانش	-12.5669
▁میانسال	-12.5676
▁پخت	-12.5682
انع	-12.5685
اگرا	-12.5691
▁بوها	-12.5694
▁وای	-12.5696
گیرند	-12.5705
ینیو	-12.5709
▁کارکرد	-12.5711
▁نوآ	-12.5712
▁دارداین	-12.5713
▁نپرداخت	-12.5714
ستن	-12.5727
▁کرمانشاهی	-12.573
اسا	-12.5734
▁نپذیرفت	-12.5746
اقبال	-12.5747
▁دارن	-12.5751
▁اندیشید	-12.5751
الش	-12.5753
یرو	-12.576
▁رزمند	-12.5761
▁مساعدت	-12.5762
▁خوردند	-12.5764
▁ماجراهای	-12.577
▁غلا	-12.5773
▁معذ	-12.5775
طب	-12.5778
وتنبرگ	-12.5783
▁شدگ	-12.5785
بای	-12.5789
ستگاه	-12.5789
لابی	-12.5791
▁درهم	-12.5792
راز	-12.5799
▁نطق	-12.5801
▁کنگو	-12.5802
▁سیلوا	-12.5804
▁وک	-12.5817
▁نفیس	-12.5822
شستن	-12.5824
▁رسیدیم	-12.5832
▁پودر	-12.5851
ندا	-12.5852
جدی	-12.5852
ذه	-12.5856
قطر	-12.5861
▁رک	-12.5867
شایست	-12.5891
▁برگشتن	-12.5894
▁عص	-12.5906
▁نوده	-12.5906
▁اروپای	-12.5909
▁بخوانی	-12.5915
▁سالفورد	-12.5915
دئو	-12.5916
▁قلو	-12.5922
▁طاهری	-12.5929
چیده	-12.5932
▁دایم	-12.5932
دبی	-12.5935
▁دمید	-12.5939
▁فتو	-12.5944
صه	-12.5952
▁سالگ	-12.5955
عب	-12.5965
▁آمو	-12.5966
▁بقدر	-12.5984
▁غیرقا	-12.5986
▁ناگ	-12.5987
▁چپگرای	-12.5994
سای	-12.5999
▁لبن	-12.5999
محمدی	-12.6016
▁السلط	-12.6025
سمعی	-12.6029
صادف	-12.6033
▁برسید	-12.6038
ترونیک	-12.6039
▁ایرانروزها	-12.6043
▁پریان	-12.605
وبند	-12.6051
▁خرابکاران	-12.6052
▁زهی	-12.6058
وارت	-12.6063
یکس	-12.6067
▁بغ	-12.607
الج	-12.6072
▁دره	-12.6076
▁اکسپو	-12.608
پلی	-12.6092
عرض	-12.6095
اسب	-12.61
▁عز	-12.6101
حریف	-12.6101
یاد	-12.6109
یعی	-12.6109
دآور	-12.6114
هانسی	-12.6116
▁دق	-12.6124
▁گیریم	-12.6138
▁نشدم	-12.6144
هاپ	-12.6148
روسازی	-12.6153
▁انگلی	-12.6156
▁سپین	-12.6164
▁هوی	-12.6172
جلس	-12.6172
▁تبعی	-12.6172
▁زیرپا	-12.6174
▁ایوب	-12.6175
ساکن	-12.6176
▁برع	-12.6176
▁آمل	-12.6182
▁لائو	-12.6184
▁گذرانی	-12.6194
▁اشتباهی	-12.6196
رسیویر	-12.6197
ورگ	-12.6201
شانس	-12.6203
▁پوشا	-12.6203
▁راکل	-12.6206
ونیا	-12.6211
▁لیر	-12.6214
▁سرگرفت	-12.6217
▁مم	-12.6222
▁کامپیوترهای	-12.6229
▁گچ	-12.6239
ونت	-12.6242
▁ممد	-12.6246
مالیا	-12.6248
ریتا	-12.6253
▁گنجه	-12.6261
▁اتفاقا	-12.6262
▁روا	-12.6265
راندن	-12.6265
▁حقوقش	-12.6272
شمن	-12.6274
تد	-12.6282
▁علام	-12.6283
▁خرو	-12.6292
زمین	-12.6294
▁لیم	-12.6309
چای	-12.6317
▁جهانگرد	-12.6318
متعارف	-12.6327
کرون	-12.6339
هده	-12.6344
▁خوابید	-12.6345
▁موم	-12.6345
عات	-12.6351
ورسوی	-12.6359
▁خوابی	-12.6362
وما	-12.6388
▁بیند	-12.6396
گوی	-12.641
▁فلین	-12.6411
رجی	-12.6423
هند	-12.6426
▁پولاد	-12.6428
قضی	-12.6431
▁پریا	-12.6431
▁دینا	-12.6436
▁نواختن	-12.6455
▁عزیزانم	-12.6461
چک	-12.6461
▁آرین	-12.6466
▁اقیانوسی	-12.647
▁موزی	-12.6471
▁بخو	-12.6475
▁موی	-12.648
۱۱۲	-12.6481
▁روپر	-12.6502
سولا	-12.6503
▁هراتی	-12.6503
اطی	-12.6503
۴۸	-12.6517
▁بلن	-12.6522
الیس	-12.6527
▁سوز	-12.6527
▁کساد	-12.6531
▁برگر	-12.6535
وسط	-12.6541
لوژی	-12.6544
▁بلندگو	-12.6547
وئی	-12.6552
▁پیس	-12.6553
▁زدم	-12.6559
▁ناامیدی	-12.6568
ژو	-12.6568
▁ایت	-12.6572
▁تونسی	-12.6574
دگار	-12.6577
▁موتورس	-12.658
▁هرسال	-12.6582
▁حواسش	-12.6609
ارس	-12.6614
خرج	-12.6631
▁کریک	-12.6634
▁جووان	-12.6634
لیتو	-12.6639
ایرانی	-12.6646
▁خریدند	-12.6648
عدد	-12.6659
درومن	-12.6662
سرع	-12.6662
▁اض	-12.6668
▁تامی	-12.6674
اندا	-12.668
اعی	-12.669
▁دگر	-12.6694
▁مستن	-12.6696
سک	-12.6696
یوه	-12.6703
▁پولدار	-12.6724
حقوقدانان	-12.6726
▁خدایا	-12.6728
رویش	-12.6733
رسد	-12.6735
لول	-12.6736
▁دخترشا	-12.6736
▁ماهان	-12.674
وکسین	-12.6746
▁همکاریها	-12.6746
زندگان	-12.6758
ریف	-12.6764
▁لم	-12.6785
▁فد	-12.679
یوب	-12.68
نگر	-12.6808
سلی	-12.6811
▁گوتر	-12.6816
▁کانتی	-12.6819
▁زب	-12.6823
▁مساو	-12.6824
مردم	-12.6831
▁چکهای	-12.6842
▁استبر	-12.6845
۷۸	-12.6846
▁مخاطر	-12.6857
▁امرال	-12.6862
▁وایلر	-12.6871
ایم	-12.6874
گوید	-12.6874
عمر	-12.6874
▁واری	-12.6877
۵۱	-12.6878
رار	-12.688
▁مافیا	-12.6893
لوف	-12.6895
وازی	-12.6908
۰۱	-12.6918
▁شهنا	-12.6929
▁هوادارن	-12.6935
ائیم	-12.6936
▁سراغش	-12.6946
نل	-12.6959
▁دک	-12.696
نسی	-12.6965
▁جوانتر	-12.697
▁سازمانها	-12.6973
رادو	-12.698
نسک	-12.6981
▁اورک	-12.6984
پورت	-12.6987
رآواز	-12.6996
وساز	-12.6999
▁مدد	-12.7
▁یوس	-12.7015
▁کریستین	-12.702
راهه	-12.7033
▁متح	-12.7041
▁غیربورسی	-12.7046
▁ویز	-12.7053
▁کوچکتری	-12.7069
سادگی	-12.7075
شخصی	-12.7077
طرافشان	-12.7078
واری	-12.7081
▁جبار	-12.709
▁گردهما	-12.7095
لکت	-12.7102
گرفت	-12.7103
▁آزاری	-12.7118
تعادل	-12.7119
یچه	-12.7119
لیدی	-12.712
مب	-12.7125
▁صب	-12.7126
والد	-12.7128
اشتن	-12.7136
دمان	-12.7156
▁نیمرخ	-12.7164
▁اعلا	-12.717
▁پیراهنش	-12.7184
▁بارد	-12.7185
وگو	-12.7189
تف	-12.719
▁راهگشای	-12.7209
▁دری	-12.7212
▁کرونایش	-12.7213
حقیقی	-12.7215
▁اشتو	-12.7225
فور	-12.7229
▁بازد	-12.7232
▁موها	-12.7235
هفت	-12.7245
ولف	-12.7252
▁بلاف	-12.7253
▁گارا	-12.7295
▁صل	-12.7299
▁دولتها	-12.7299
▁نامد	-12.7302
افق	-12.7303
فهمد	-12.7303
خواهر	-12.7306
دیوم	-12.7313
▁حض	-12.7315
▁ارو	-12.7333
جار	-12.7341
جاب	-12.7353
▁فینل	-12.7355
▁رکن	-12.7357
۵۵	-12.7358
ادیوم	-12.7358
▁میلو	-12.7362
▁کانا	-12.7365
▁سلمانی	-12.7366
پیشین	-12.739
▁استعدادی	-12.7399
▁بیوا	-12.7408
کورا	-12.7422
▁ساو	-12.7423
دانش	-12.7431
▁جاس	-12.7434
ابه	-12.7439
▁مالدار	-12.7441
▁مخا	-12.7445
ژیک	-12.7445
انیو	-12.7448
وتیو	-12.7459
پزی	-12.7462
▁ماهیان	-12.7465
جماع	-12.7466
▁رسوب	-12.7472
سیمون	-12.748
اشار	-12.7483
آمده	-12.7485
بندهای	-12.7489
ریش	-12.7495
فلیک	-12.7506
فاو	-12.7506
▁خی	-12.7508
هیز	-12.7508
قدیم	-12.7513
▁فیلی	-12.7516
غازه	-12.7517
▁دوجا	-12.7529
▁آلبا	-12.753
▁وینگ	-12.7536
▁آملی	-12.7543
پیس	-12.7544
یرجان	-12.7548
▁کالو	-12.7559
رتاک	-12.756
▁رهنو	-12.7567
▁بخ	-12.7571
▁دهن	-12.7572
میسی	-12.758
▁فرزان	-12.7581
شتر	-12.7586
شایند	-12.7588
ونا	-12.7597
ئر	-12.7598
فرد	-12.76
▁آنجلی	-12.7601
سعی	-12.7602
▁دوروت	-12.7603
▁عوا	-12.7603
ضب	-12.7613
کلا	-12.7614
جهانی	-12.7615
رآمیز	-12.7637
یگ	-12.7638
▁دانی	-12.7642
وشش	-12.7664
▁آیزا	-12.7667
▁داس	-12.7667
▁نبات	-12.7689
▁استف	-12.7697
▁اتم	-12.7707
▁صفی	-12.7712
▁میلک	-12.7714
▁سرگذاشت	-12.7721
▁تول	-12.7727
▁پرگا	-12.7736
▁بولد	-12.7745
مقابل	-12.7753
کین	-12.7754
بوه	-12.7762
ردین	-12.7766
رع	-12.7769
ربه	-12.7778
▁ایز	-12.7795
اتور	-12.7799
نترل	-12.7831
▁یکصدم	-12.7831
▁نبودن	-12.7838
▁واز	-12.7841
▁والا	-12.7843
▁آیر	-12.7845
راج	-12.7851
۸۲	-12.7864
تجا	-12.7865
▁هارو	-12.7865
۴۰۰	-12.7875
توان	-12.7885
▁نمودن	-12.7925
▁بازاری	-12.7944
منتو	-12.7944
▁کردآ	-12.7949
▁استیل	-12.7972
▁تورب	-12.798
اندی	-12.799
خشک	-12.799
یمن	-12.7995
هن	-12.8003
▁کالی	-12.8031
▁اقامتش	-12.8045
▁غیرمت	-12.8046
▁لوف	-12.8051
▁فراو	-12.8057
جاری	-12.8059
زلی	-12.8064
▁بایس	-12.8071
اخته	-12.8078
چهر	-12.8078
سپر	-12.8089
۳۱۴	-12.8091
▁نع	-12.8093
فیک	-12.8095
▁نیایش	-12.8107
▁بیشمار	-12.811
▁گرب	-12.8118
▁نگرفتن	-12.8127
یادی	-12.8135
روهای	-12.8137
▁شکا	-12.8147
ریل	-12.815
▁ویلای	-12.815
▁سرایی	-12.8155
مریکایی	-12.8159
▁امیلی	-12.8169
ندیس	-12.8172
▁عبداله	-12.818
آزاد	-12.8184
▁دایان	-12.8186
▁پش	-12.8196
▁بودا	-12.8203
▁فران	-12.8205
▁بک	-12.8209
الگرد	-12.8223
▁تز	-12.8231
یوشیت	-12.824
نهایی	-12.8243
▁دژها	-12.8258
یچک	-12.8264
▁زبر	-12.8274
عفو	-12.8274
لاف	-12.8277
سخت	-12.8287
تحقیق	-12.8301
انجی	-12.831
▁آنگو	-12.8324
▁کسا	-12.8335
نتین	-12.8336
▁آپار	-12.8359
غیر	-12.837
روزی	-12.8373
اختگ	-12.8388
تص	-12.8394
یکو	-12.8397
▁ناهم	-12.8399
▁بوستا	-12.84
▁مارین	-12.8401
ناور	-12.8419
انده	-12.8426
▁خست	-12.8428
فسر	-12.8428
وای	-12.8439
▁آدا	-12.845
سینما	-12.8456
نتر	-12.8457
▁مائوریت	-12.8459
ئ	-12.8461
وحه	-12.8468
هرام	-12.8479
وقف	-12.8486
اعتراض	-12.8494
▁درآمدش	-12.8498
لبی	-12.8502
رمند	-12.8505
نهاد	-12.8514
▁بازیها	-12.8515
ساخت	-12.8524
▁بهمین	-12.8525
حسی	-12.8527
برجام	-12.8532
ارث	-12.8533
▁متأ	-12.8535
یکصد	-12.8542
▁رادی	-12.8551
وبل	-12.8559
ولز	-12.8564
میلادی	-12.8567
خواهانه	-12.8567
▁کوئ	-12.8568
▁کورس	-12.8573
کمک	-12.8573
مج	-12.8577
اچی	-12.8596
مدار	-12.86
ورزش	-12.8608
▁بوئن	-12.8622
عراق	-12.8623
رساز	-12.8625
▁کیان	-12.8639
ستقر	-12.8643
▁حمایتها	-12.8663
▁عصا	-12.8675
ترامپ	-12.8679
وقی	-12.868
▁هانس	-12.8686
گرایان	-12.8687
یتی	-12.8702
رایان	-12.8702
▁۱۰۵	-12.8707
ویت	-12.8709
مربوط	-12.8712
▁همد	-12.8713
رویس	-12.8714
▁۱۹۲	-12.8716
▁پاکس	-12.8721
▁همت	-12.8727
قاد	-12.8735
▁نست	-12.8739
بودجه	-12.8741
آدام	-12.8744
گذران	-12.8751
ربا	-12.8755
رهنگ	-12.8757
یزلی	-12.8758
شکست	-12.876
مبارز	-12.8761
تاثیر	-12.8761
▁چنگ	-12.8771
متهم	-12.8777
دها	-12.8778
▁نظران	-12.8778
▁حائ	-12.8783
یکایی	-12.8789
زیتو	-12.8799
▁کالیفرنیای	-12.8808
▁پشم	-12.8812
▁۳۵۰۰	-12.8814
نامزد	-12.882
▁''	-12.8823
▁ورزید	-12.883
▁باورم	-12.8832
شاهد	-12.8838
سهام	-12.884
رجا	-12.8849
اذ	-12.8857
۰۹	-12.8864
▁انتظا	-12.8867
▁تاجر	-12.8887
میچ	-12.8895
اغت	-12.8898
دوی	-12.8901
نمایش	-12.8902
لوئی	-12.8909
▁فلسطین	-12.8912
▁تراشی	-12.8921
مصاحبه	-12.8923
▁سرز	-12.8925
روسا	-12.8932
اص	-12.8934
انتقاد	-12.8936
رزی	-12.8936
▁متما	-12.8946
نوار	-12.8953
طول	-12.8953
▁آوی	-12.8957
طراح	-12.8965
ارگری	-12.8971
▁تحقی	-12.8971
گلستان	-12.8972
▁مسجدی	-12.8973
▁ماورا	-12.8977
ونس	-12.8983
نهم	-12.8986
تینگ	-12.899
مونیک	-12.8995
▁۱۲۵	-12.9002
▁بازم	-12.9004
ساکو	-12.9006
معاملات	-12.9008
معرف	-12.9012
حبو	-12.9012
کارگردان	-12.9017
شبی	-12.9019
قوانین	-12.9022
▁اشت	-12.9023
▁مادو	-12.9023
▁تاخت	-12.9024
یامده	-12.9036
▁گزار	-12.9038
پرداز	-12.9039
ارسال	-12.9042
▁برو	-12.9047
آرژانتین	-12.9052
رند	-12.9056
▁مدس	-12.9056
▁پیل	-12.9059
شهروندان	-12.906
▁رودر	-12.9062
ماسک	-12.9063
سریال	-12.9065
اختیار	-12.9069
کوچک	-12.9077
▁مستر	-12.9078
صحبت	-12.9078
ناو	-12.9079
تولد	-12.9079
۷۴	-12.908
▁کاپ	-12.9082
آم	-12.9082
انفجار	-12.9085
اختلاف	-12.9086
تهدید	-12.9087
▁کون	-12.909
▁کفا	-12.909
خبرنگار	-12.9092
لن	-12.9092
کنترل	-12.9093
▁پائول	-12.9093
ظاهری	-12.9094
یکشنبه	-12.9095
نوس	-12.9098
▁سرگ	-12.91
تقریبا	-12.9103
معروف	-12.9104
استار	-12.9105
داگ	-12.9105
درمان	-12.9108
پارسال	-12.9108
استه	-12.9109
▁همدست	-12.9111
تجارت	-12.9113
▁ناتو	-12.9114
کالا	-12.9115
▁اکو	-12.9116
اطب	-12.9116
ربات	-12.9124
▁سیرو	-12.9124
چاپ	-12.9124
اسفند	-12.9125
کوتاه	-12.9131
بحرین	-12.9133
تحلیل	-12.9135
لاشی	-12.9136
▁آنتون	-12.9138
حده	-12.9139
خورشید	-12.9139
یوتی	-12.914
▁صحبتها	-12.9144
۲۰۲۱	-12.9145
پرواز	-12.9148
جنر	-12.9149
درینو	-12.9153
خودروساز	-12.9154
تغییرات	-12.9158
▁بره	-12.917
گذارد	-12.9172
طبیعی	-12.9176
▁موسیق	-12.9177
مواجه	-12.9179
ماند	-12.918
سونی	-12.9187
تمن	-12.9189
▁دبیل	-12.919
▁راهکارها	-12.9191
▁دوقلو	-12.9197
اظهارات	-12.9199
▁موک	-12.92
وژان	-12.9203
عمده	-12.9204
قاچاق	-12.9205
۱۳۹۹	-12.9209
جوان	-12.9211
▁دویدن	-12.9216
▁جنگلی	-12.9216
هدایت	-12.9225
▁آسود	-12.9225
▁دوب	-12.9228
رابطه	-12.923
تزریق	-12.9242
▁ایرانشناس	-12.9242
جرد	-12.9246
داش	-12.9246
اخ	-12.9247
جنگل	-12.9254
▁نویسند	-12.9254
▁کمکها	-12.9256
مدافع	-12.9257
عجیب	-12.9258
فرزند	-12.9264
فرا	-12.9273
ماموران	-12.9274
▁وکار	-12.9276
▁خفت	-12.9279
▁سوریا	-12.9286
بورگ	-12.9292
آلودگی	-12.9294
▁همسو	-12.9295
معمار	-12.9295
نجا	-12.9297
سیدن	-12.9298
اندیشی	-12.9304
کوئ	-12.9304
▁گذاشتم	-12.9305
پروتکل	-12.9305
تاسیسات	-12.9306
طع	-12.9308
▁لرد	-12.931
▁درشبا	-12.9311
نیرو	-12.9312
استاندار	-12.9314
ورزشکار	-12.9316
سخنان	-12.9317
یوونتوس	-12.9318
فیسبوک	-12.932
گواردیولا	-12.9321
اختلال	-12.9321
▁الکتریک	-12.9323
پرای	-12.9326
فراموش	-12.9327
مجسمه	-12.9329
دارایی	-12.9331
ناپس	-12.9331
شعار	-12.9331
▁۱۶۶	-12.9335
شهرداری	-12.9335
دستورالعمل	-12.9335
پرتاب	-12.9336
▁همجنسگرا	-12.9336
ناپذیر	-12.9337
دسامبر	-12.9342
گورک	-12.9344
سکوت	-12.9351
عشق	-12.9355
پانزده	-12.9355
دیوان	-12.9356
فرانسوی	-12.9357
عروس	-12.9357
معامل	-12.9359
خاورمیانه	-12.9362
خصوصا	-12.9363
متخصص	-12.9364
قتل	-12.9365
ابو	-12.9366
ناهی	-12.9367
ناتالی	-12.9367
پرتغال	-12.9369
▁محدو	-12.9372
سوئد	-12.9373
پلاستیک	-12.9373
نمایندگی	-12.9373
▁معتمد	-12.9373
تجهیزات	-12.9374
بلژیک	-12.9374
فروشگاه	-12.9376
کابل	-12.9377
برادر	-12.9377
برنده	-12.9382
تالاب	-12.9383
اورتون	-12.9389
ایرباس	-12.9391
تحولات	-12.9393
سرزمین	-12.9394
صادق	-12.9394
▁آمی	-12.9395
تدریج	-12.9398
برگزیت	-12.9399
اشتغال	-12.9401
اولسان	-12.9403
پیوند	-12.9403
موکورمایکوزیس	-12.9403
وام	-12.9404
▁فردای	-12.9405
استادیوم	-12.9406
سطح	-12.9407
▁مختا	-12.9408
زان	-12.9409
بیلسا	-12.9409
هیوندای	-12.941
دایناسور	-12.9412
مبا	-12.9412
فردا	-12.9413
طالب	-12.9413
لبخند	-12.9414
مادرش	-12.9415
کارلوس	-12.9417
فرونشست	-12.9418
بهبود	-12.9419
▁کلر	-12.9419
ذهن	-12.9419
جواب	-12.942
گوگل	-12.942
حجت	-12.9421
▁میا	-12.9422
دیوار	-12.9423
فتاح	-12.9425
غریب	-12.9425
کریسمس	-12.9427
جاسوس	-12.9427
تقوی	-12.9427
کیانوش	-12.9427
مفسد	-12.9428
نسیون	-12.9428
تکنولوژی	-12.9429
مریخ	-12.943
بازرسان	-12.9431
تیرماه	-12.9431
دموکرات	-12.9432
تماشای	-12.9432
تسهیلات	-12.9433
سیاستگذار	-12.9434
بیروت	-12.9434
پنتاگون	-12.9434
ستارگان	-12.9435
استراتژی	-12.9438
ودگی	-12.9438
شواهد	-12.9439
مرتضی	-12.9439
آلزایمر	-12.944
گابریل	-12.944
محبت	-12.9441
عقرب	-12.9441
رانندگان	-12.9443
لاپورتا	-12.9444
توخل	-12.9445
مهاجمان	-12.9445
کوپتر	-12.9445
تعویض	-12.9448
گیلبرت	-12.9448
▁ربود	-12.9449
هالووین	-12.945
باربارا	-12.945
وستهم	-12.9451
مزایای	-12.9451
مسئولین	-12.9451
خوشبخت	-12.9451
▁سونت	-12.9453
امپراتور	-12.9453
اشخاص	-12.9454
ستانی	-12.9454
لوکا	-12.9454
▁سبی	-12.9455
سوزاند	-12.9455
خرمشهر	-12.9455
بشنوید	-12.9455
کلیسای	-12.9455
بنکسی	-12.9456
فرندز	-12.9457
ماوریک	-12.9457
ماراتن	-12.9458
اوساکا	-12.9458
راموس	-12.9458
▁کرای	-12.9458
آغوش	-12.9459
رعب	-12.946
سهراب	-12.9462
گزارشگران	-12.9462
وکلای	-12.9467
استودیوی	-12.9467
فاطم	-12.9469
بنیاد	-12.9469
بیاید	-12.9471
انحصار	-12.9471
ترافیک	-12.9472
شهریار	-12.9473
جاشوا	-12.9473
▁قزوین	-12.9474
منشا	-12.9475
▁بلاتکلیف	-12.9475
ساترا	-12.9476
ایرنا	-12.9477
دندان	-12.9477
مجری	-12.9478
سادات	-12.948
گرانتر	-12.948
توگراف	-12.9484
صحیح	-12.9484
رحمانی	-12.9486
بهرام	-12.9487
مسلح	-12.9489
▁سانتریفیوژها	-12.949
رابرت	-12.949
▁آقاخان	-12.949
قبرس	-12.9498
ماینر	-12.9503
همسایه	-12.9504
▁آنج	-12.9504
▁نخاع	-12.9507
اشرف	-12.9507
شکوف	-12.9511
ماخ	-12.9513
تاریخی	-12.9515
ابهام	-12.9516
یور	-12.9516
اقتصاددان	-12.9517
▁قبرها	-12.9517
باقی	-12.9519
رخواهی	-12.952
خلیل	-12.952
▁غفار	-12.9521
▁افزارها	-12.9524
پشت	-12.9532
▁درآو	-12.9535
دوره	-12.9535
بدهی	-12.9535
آلن	-12.9535
نوا	-12.9535
▁مطیع	-12.9537
▁مخف	-12.9539
آب	-12.954
پیمان	-12.954
فات	-12.9541
۱۶۰	-12.9542
نوشتن	-12.9543
استعفای	-12.9543
مامور	-12.9544
فرض	-12.9545
آموز	-12.9547
▁رخدادها	-12.9548
▁هوشیار	-12.955
▁تیفو	-12.9551
معاش	-12.9556
ضرب	-12.9557
▁امیدها	-12.9562
▁معیارها	-12.9564
یابان	-12.9564
ابتدای	-12.9566
جیپ	-12.957
نست	-12.9577
یمز	-12.9582
پیشرفته	-12.9585
▁۱۰۷	-12.9585
خریدند	-12.9586
▁پروژ	-12.9588
ائونی	-12.9591
ریتانی	-12.9591
رسا	-12.9593
▁درآمدن	-12.9599
ضایع	-12.96
خبرهای	-12.9601
تیپ	-12.9603
گفتگوهای	-12.9605
▁عادلا	-12.9606
▁خاورمیان	-12.9609
▁مسلما	-12.9611
▁رودخ	-12.9612
▁لئو	-12.9621
▁ودیع	-12.9622
عظیم	-12.9623
ابوال	-12.9627
▁نرساند	-12.963
سروده	-12.9634
فرخ	-12.9637
صبا	-12.9638
متولی	-12.9639
زلزل	-12.964
غیبت	-12.9642
یای	-12.9642
▁مجال	-12.9644
▁سلین	-12.965
▁جویا	-12.965
بلوم	-12.965
امضای	-12.9657
▁غفور	-12.9658
کینگز	-12.9663
وانه	-12.9664
▁تحم	-12.9664
درخت	-12.9668
اض	-12.9669
▁۶۲۰	-12.9669
هشتاد	-12.967
▁ترانزی	-12.9674
▁کردید	-12.9678
ستایش	-12.9683
ریسک	-12.9683
اوا	-12.9689
سنا	-12.969
فیل	-12.9694
▁اپلیکیش	-12.9697
▁گیگا	-12.9704
▁بقایا	-12.9708
کاظمی	-12.9711
▁دوشان	-12.9716
لومبر	-12.9716
ذا	-12.9734
▁الکترود	-12.9734
ونک	-12.974
ورده	-12.9741
سینمای	-12.9748
لود	-12.9755
ثار	-12.9758
طح	-12.9764
درآمدهای	-12.9766
▁پرداختن	-12.9769
▁ترفند	-12.9774
سپورت	-12.9776
رنیک	-12.9777
عزیزی	-12.9782
خب	-12.9783
▁پابرجا	-12.9786
بیورن	-12.9787
▁کارتن	-12.979
▁شدنش	-12.9791
▁بشنوی	-12.9794
اراگوئه	-12.9796
نگل	-12.9797
پارتمان	-12.9797
▁آتلانت	-12.98
▁لوکزامبور	-12.9801
موزگار	-12.9801
▁اختصا	-12.9803
▁جوردیزج	-12.9804
▁گالاپاگوس	-12.9804
زیرخاکی	-12.9804
▁آریزونا	-12.9804
▁افروختن	-12.9804
▁الکترومغناطیس	-12.9804
▁اورنیتودیر	-12.9804
▁برافروختن	-12.9804
▁بولگاکف	-12.9804
▁ثلاثه	-12.9804
▁رآکتور	-12.9804
▁لیاخوف	-12.9804
▁متابولیک	-12.9804
▁هادرسفیلد	-12.9804
▁هوآیفنگ	-12.9804
▁کداخدایی	-12.9804
▁فراماسون	-12.9804
▁قنبرزاده	-12.9804
▁دیکتاتور	-12.9804
▁سپاسگزار	-12.9804
▁مخروطی	-12.9804
▁نپاشید	-12.9804
▁پاخاسته	-12.9804
▁کامفیروزی	-12.9804
▁هادیانفر	-12.9804
▁فخرالدینی	-12.9804
▁مددکاران	-12.9804
▁زاپاتا	-12.9804
▁پیکارجوی	-12.9804
▁اسپانسر	-12.9804
▁نپایید	-12.9804
▁مالوچی	-12.9804
▁هلیکوپتر	-12.9804
▁بلفاست	-12.9804
▁آزارنکا	-12.9804
▁رنگارنگ	-12.9804
▁وسکات	-12.9804
▁شرافتمند	-12.9805
▁تکنسین	-12.9805
▁مفاسد	-12.9805
▁بااستعداد	-12.9805
▁بلموندو	-12.9805
▁تارانتینو	-12.9805
▁مانیتور	-12.9805
▁آجرلو	-12.9805
▁رهنمود	-12.9805
بعدا	-12.9805
▁دایموند	-12.9805
▁نردبان	-12.9805
معجزه	-12.9806
▁اقتدارگرا	-12.9806
▁گلاسگو	-12.9806
لجستیک	-12.9806
▁یوآ	-12.9806
▁جوکووی	-12.9806
▁گریبانگیر	-12.9806
▁عقوبت	-12.9807
▁عبادت	-12.9807
▁آنفلو	-12.9807
▁نگذارند	-12.9807
▁باواریا	-12.9807
▁قدرناشناس	-12.9807
▁سربگیرند	-12.9808
▁پرچالش	-12.9808
▁ریزتراشه	-12.9808
▁ماراکا	-12.9809
▁هواخواهان	-12.9809
▁آسانژ	-12.9809
▁حیث	-12.9809
▁غرابت	-12.9809
▁بنکدار	-12.9809
▁ابرقهرمانی	-12.981
▁صابری	-12.981
▁پلاکاردهایی	-12.981
غات	-12.981
▁واتسون	-12.981
▁بزهکار	-12.981
▁۱۷۴۷	-12.981
▁بغض	-12.9811
▁هایپریون	-12.9811
▁لنکش	-12.9811
▁ورزیدند	-12.9811
تیاگو	-12.9811
▁الشعرای	-12.9812
▁رادیوتلسکوپ	-12.9812
▁امدادرسان	-12.9812
▁رزمندگان	-12.9812
▁نگریست	-12.9813
▁مرزبندی	-12.9813
▁پرستو	-12.9813
▁اکر	-12.9813
متنع	-12.9813
▁برنگردد	-12.9814
▁بسازند	-12.9814
▁اکلاه	-12.9814
▁بدردنخور	-12.9814
▁تکراری	-12.9814
▁دزدیدند	-12.9815
▁اندروی	-12.9816
▁مهمانپذیر	-12.9816
▁بازگردیم	-12.9816
▁فروزان	-12.9817
▁بالادستی	-12.9818
▁پرستویی	-12.9818
مراه	-12.9818
ندگرن	-12.9818
▁انسداد	-12.9818
▁متنعم	-12.982
▁استمفورد	-12.982
▁بیکینی	-12.982
▁آذ	-12.982
▁اوصاف	-12.982
▁عواطف	-12.9821
▁نشیمن	-12.9821
▁اعل	-12.9822
▁گلیزر	-12.9823
▁ضدویروس	-12.9824
▁گندم	-12.9824
کادمیم	-12.9825
▁بولیوی	-12.9825
▁نترس	-12.9826
▁بشوید	-12.9826
▁جانورشناس	-12.9826
▁بازگردند	-12.9826
صور	-12.9826
کپلر	-12.9827
رجان	-12.9827
▁خرچ	-12.9827
رافی	-12.9827
▁معذور	-12.9828
▁ننوشت	-12.9828
سلیمان	-12.9828
▁غیردقیق	-12.9828
▁فرایدی	-12.9829
▁نامتعارف	-12.983
▁نیکول	-12.983
▁قرادادهای	-12.983
صمت	-12.9832
▁کلودیون	-12.9832
▁بریم	-12.9832
▁منفعت	-12.9834
▁درنوردید	-12.9834
▁هوشی	-12.9835
▁اوتاوا	-12.9836
▁گوریل	-12.9836
▁۱۳۵۵	-12.9836
▁یوشی	-12.9836
▁سندیکا	-12.9837
▁فیروزکو	-12.9837
▁زوکر	-12.9837
▁جوبیل	-12.9837
▁بیایید	-12.9839
فرانک	-12.984
▁جاشو	-12.984
▁الاغ	-12.9841
▁یوکو	-12.9841
▁فض	-12.9842
ایرا	-12.9842
سیلو	-12.9843
▁پلینز	-12.9844
▁کلارین	-12.9844
▁نامتناسب	-12.9844
▁نکنم	-12.9844
▁فراقانونی	-12.9845
▁انجیل	-12.9845
▁خواباند	-12.9846
▁۷۲۲	-12.9848
سبز	-12.9849
▁اوتنز	-12.9849
غرب	-12.985
▁وروو	-12.985
والو	-12.9851
▁مرورگر	-12.9851
▁تایماز	-12.9851
▁شیمیدان	-12.9851
▁رعیت	-12.9852
اسف	-12.9852
گاری	-12.9854
برج	-12.9854
▁خودخواهانه	-12.9854
▁چاقو	-12.9854
انگیخت	-12.9854
عمیق	-12.9854
▁مکاتبات	-12.9859
▁۵۵۶	-12.9859
▁دلهره	-12.9862
رجب	-12.9863
۴۱	-12.9863
ارق	-12.9864
▁جوابگوی	-12.9865
▁نویدبخش	-12.9865
▁کسوف	-12.9866
▁شمشیر	-12.9869
▁افسا	-12.9869
▁گرانفروش	-12.987
▁رازگشای	-12.987
مثال	-12.9871
▁برآید	-12.9872
حاف	-12.9877
ستشوی	-12.9877
▁مرغوب	-12.9878
▁عابر	-12.9878
▁ادینبور	-12.9879
▁فلاح	-12.9879
▁گرده	-12.9879
▁چرچ	-12.9881
▁عوام	-12.9881
تروف	-12.9881
▁آناتول	-12.9883
▁پورنو	-12.9883
▁تویتتر	-12.9886
▁نامهربان	-12.9887
▁انجلس	-12.9888
شمسی	-12.9889
▁لوکوم	-12.9889
▁رهنوش	-12.9892
▁تعصب	-12.9896
▁اکشن	-12.9896
▁۴۱۰	-12.9896
یورو	-12.9897
نماید	-12.9897
خواستند	-12.9901
▁داوو	-12.9901
▁بیولو	-12.9902
▁شرافت	-12.9902
▁برچی	-12.9902
یگز	-12.9903
▁پدربزرگش	-12.9908
▁غواصان	-12.9909
▁سرآمد	-12.9909
▁تفنگدار	-12.9912
سد	-12.9912
خمری	-12.9915
▁کوبیدند	-12.9916
▁عقلانی	-12.9916
▁بایستد	-12.992
گذرانی	-12.992
▁حکاک	-12.9924
▁بندها	-12.9925
▁ضامن	-12.9925
دوبندها	-12.9927
وتنز	-12.9927
چلو	-12.993
مینی	-12.993
▁تفریحات	-12.9931
▁ایرادات	-12.9932
▁ریسمان	-12.9933
پارسی	-12.9937
▁آزا	-12.9937
▁متنف	-12.9937
▁دیگرش	-12.9938
یرا	-12.9939
▁گابر	-12.9941
فائ	-12.9941
▁سانتر	-12.9942
▁پوشاندند	-12.9944
▁اختر	-12.9946
▁بنرهای	-12.9949
▁گلگیر	-12.995
یوهان	-12.9952
▁کورتون	-12.9954
▁شهرزاد	-12.9955
▁میزنند	-12.9956
▁تکاپو	-12.9957
حاک	-12.9957
فرانسیسکو	-12.9958
باکرگی	-12.9958
▁لافت	-12.9958
وچی	-12.996
▁بسازم	-12.9963
اینتس	-12.9963
▁آدمکها	-12.9967
▁فروتن	-12.9969
▁متروک	-12.9971
پیانیست	-12.9972
▁لنفو	-12.9975
▁سندگرن	-12.9976
▁وکا	-12.9979
بارور	-12.9979
▁کامب	-12.9979
▁درآمی	-12.9982
میل	-12.9984
▁میکرو	-12.9984
▁العم	-12.9986
▁داستانها	-12.9987
▁خاط	-12.9987
▁اصالتا	-12.9988
▁برگرداندند	-12.9989
▁واتس	-12.999
شاهزاد	-12.9995
▁سوزد	-12.9999
▁عب	-12.9999
▁هیپی	-13.0002
▁بیندیش	-13.0003
▁لمب	-13.0019
▁استنلی	-13.0019
▁نیافتند	-13.002
باخته	-13.0022
▁بیهوش	-13.0024
▁اینجور	-13.0025
گلوب	-13.0025
▁خونبار	-13.0026
▁پاندا	-13.0026
روت	-13.0029
پسربچه	-13.003
▁نگرفتم	-13.003
هران	-13.0031
▁سپی	-13.0032
▁ملیت	-13.0033
▁تهاتر	-13.0035
▁جوانمرد	-13.0035
نسان	-13.0036
پشمک	-13.0037
▁شکو	-13.0038
خامت	-13.0039
▁بکاه	-13.004
▁نرسیدند	-13.0041
▁شتابزد	-13.0044
▁موکور	-13.005
تاژ	-13.0052
▁رقابتها	-13.0053
▁دلیری	-13.0059
▁فلام	-13.006
▁جالبند	-13.006
▁قرادادش	-13.0062
▁الکترودهای	-13.0063
▁استعدادیاب	-13.0064
▁متفکر	-13.0065
خوف	-13.0067
▁گریگوری	-13.0068
رخوری	-13.007
دف	-13.007
استیون	-13.0073
اهواز	-13.0074
▁نرسانده	-13.0081
نتخاباتی	-13.0083
شور	-13.0084
▁بوت	-13.0085
الری	-13.0088
اتمی	-13.0088
ایمن	-13.009
▁خرنامه	-13.0097
یرانی	-13.0099
▁یدک	-13.0102
▁قبلش	-13.0102
▁مأ	-13.011
▁عن	-13.0115
شکاران	-13.0117
اغر	-13.012
فردو	-13.0123
▁نخاعی	-13.0127
رباتی	-13.0134
وگرافی	-13.0135
▁آقاخانی	-13.0136
▁پت	-13.0137
ماتیک	-13.0139
شنود	-13.0141
بکار	-13.0142
▁رساندیم	-13.0143
رکز	-13.0143
▁استمقام	-13.0144
▁قزوینی	-13.0145
▁چیزور	-13.0151
▁مقالات	-13.0151
▁انیستی	-13.0154
▁لارس	-13.0155
▁اینترف	-13.0155
قایی	-13.0156
▁مارات	-13.0157
▁تیفوها	-13.0157
▁مولتی	-13.0158
▁بروک	-13.016
مناف	-13.0162
▁متنفری	-13.0176
بلک	-13.0181
▁تبرهای	-13.0184
▁شنیدند	-13.0185
بلند	-13.0191
▁وجد	-13.0191
انندگان	-13.0196
زمایش	-13.0198
▁ندادم	-13.0198
▁عبدالح	-13.02
عطف	-13.0203
▁بکنیم	-13.0204
راپ	-13.0204
▁آبخو	-13.0205
▁شلو	-13.0211
▁دلسوزان	-13.0211
ضطر	-13.0211
گلد	-13.0212
▁مارگار	-13.0212
ودزاده	-13.0213
منوچ	-13.0214
▁بحری	-13.0215
شعب	-13.0219
▁درانتخابات	-13.0221
▁موکورمایکوزیس	-13.0221
▁قدیس	-13.0231
رنس	-13.0233
گردانیم	-13.0235
واجه	-13.0235
سیاست	-13.0236
ئویی	-13.0244
▁وسکو	-13.0255
امبی	-13.0261
▁لعن	-13.0265
▁تقو	-13.0266
▁حسی	-13.0272
▁بردارند	-13.0275
الفبا	-13.0277
▁معت	-13.0278
▁فراخواندن	-13.0284
▁بسپار	-13.0285
▁برخوردارند	-13.0286
دستی	-13.029
تراژ	-13.0294
▁فابیان	-13.0299
▁ریچار	-13.03
▁بلاتکلیفی	-13.0303
شبانه	-13.0312
آیی	-13.0313
▁الاسلام	-13.0313
یلانی	-13.0319
▁اینچنین	-13.0319
کاتان	-13.0325
▁کالین	-13.033
▁میچ	-13.033
یما	-13.0331
▁همجنسگرای	-13.0337
▁پویش	-13.0338
▁مازند	-13.0343
سکری	-13.0343
زهره	-13.0345
آواز	-13.0346
رتون	-13.0346
فیر	-13.0359
▁بفرست	-13.036
▁دورهم	-13.0363
کستان	-13.0365
▁سازند	-13.0369
▁جهنمی	-13.037
حمد	-13.0372
رایزن	-13.0375
▁یورک	-13.0376
▁گذراندند	-13.0377
▁کبری	-13.038
تمالا	-13.038
▁مدعای	-13.0386
▁گوسفندان	-13.0388
▁والنتین	-13.0392
▁نورا	-13.0395
▁دیری	-13.0399
مهار	-13.04
▁پاکیز	-13.0403
وادور	-13.0403
آمدن	-13.0409
▁بریزب	-13.041
▁گردو	-13.0411
تیچ	-13.0411
وسازی	-13.0411
▁جنگیم	-13.0425
▁نترسید	-13.0426
بناب	-13.0427
▁گفتار	-13.0432
▁انگی	-13.0432
▁چنار	-13.0434
▁وفن	-13.0436
رسانده	-13.044
وتا	-13.0442
فرام	-13.0443
تز	-13.0444
امرویل	-13.0444
▁خوابگاه	-13.0448
▁کوو	-13.0449
مرک	-13.0451
مرا	-13.0452
▁آد	-13.0452
پراتور	-13.0455
استفان	-13.0472
پش	-13.0485
▁شنود	-13.0487
روسکوپ	-13.049
▁فرزندانم	-13.0491
زیرا	-13.05
شیروان	-13.0504
وستان	-13.0505
اننده	-13.0507
▁ایستادن	-13.0517
یوآ	-13.0523
▁هندرس	-13.0529
کشن	-13.0531
کوب	-13.0536
▁پشتکار	-13.0537
مارس	-13.0537
مولان	-13.0537
اینک	-13.0539
▁سلامتش	-13.0554
▁سمپ	-13.0555
انپزشک	-13.0557
▁صدیق	-13.0561
▁برداریم	-13.0563
الیات	-13.0566
▁مالت	-13.0569
ماک	-13.057
▁نزند	-13.0574
وناک	-13.058
▁سرلش	-13.0582
▁سع	-13.0582
رمو	-13.0583
▁هورمونی	-13.0585
نشدن	-13.0587
▁بگذری	-13.0595
ناکا	-13.0597
فیف	-13.0598
مینا	-13.0599
خلاقی	-13.0599
ودم	-13.0602
رب	-13.0604
گانی	-13.0606
▁بوات	-13.0617
▁معتر	-13.0621
▁فلات	-13.0624
بوم	-13.0625
شرق	-13.0625
اتوری	-13.0632
یاهو	-13.0633
دافع	-13.0633
کوویچ	-13.0636
پذیری	-13.0637
۶۵	-13.0639
▁هایما	-13.064
▁حری	-13.0657
توپ	-13.0661
▁هارد	-13.0663
▁آفریدندم	-13.0666
▁داکا	-13.0669
▁آوازم	-13.0675
▁وآمدها	-13.0676
▁کالیفرنیایی	-13.0679
العمل	-13.0683
▁بلیک	-13.0692
یدکی	-13.0693
سوا	-13.0703
ونگر	-13.0704
باف	-13.0704
▁ساختیم	-13.0705
▁استادکار	-13.0716
▁کثی	-13.0729
دپرس	-13.073
▁فضاپیماها	-13.0737
سف	-13.075
▁دستورهای	-13.0751
▁فرانکن	-13.0752
ئولی	-13.0752
یض	-13.0755
▁کارن	-13.0756
▁تصو	-13.077
▁ترد	-13.077
ابا	-13.0772
خاص	-13.0776
▁فتوا	-13.0776
▁وایل	-13.0782
▁زدنند	-13.0807
▁پذیرفتن	-13.0813
▁گواه	-13.0815
موفق	-13.0817
▁خاش	-13.0829
دونده	-13.083
▁لانک	-13.083
▁بارکی	-13.0837
راکتور	-13.0845
حسا	-13.0847
برا	-13.0848
نتال	-13.0864
سرخ	-13.087
ثمی	-13.0873
▁آزمود	-13.0874
▁اعلامی	-13.0879
▁مشغولند	-13.0881
▁گالی	-13.0885
رختک	-13.0888
▁مسج	-13.0889
▁یکجا	-13.0889
ستار	-13.0891
▁الری	-13.0897
▁کود	-13.0899
▁جلا	-13.0899
زانه	-13.0901
▁اشتری	-13.0912
فتی	-13.0913
▁هیکل	-13.0913
دهه	-13.0913
تاق	-13.0916
▁شیک	-13.0916
الگری	-13.0927
۹۳۹	-13.0928
▁وکیلش	-13.0937
▁استکرونا	-13.0945
کتر	-13.0945
تلاق	-13.0946
▁تندر	-13.0947
۳۸۵	-13.0949
▁ناکا	-13.0957
▁استوای	-13.0962
خسار	-13.0963
▁جنگجو	-13.0964
▁بردیم	-13.0982
▁برخوردند	-13.0984
خری	-13.0987
ریح	-13.0988
کانی	-13.1002
معی	-13.1002
قاعد	-13.1002
غر	-13.1002
قیاف	-13.1005
لخت	-13.1007
▁دلم	-13.1013
گفتار	-13.1014
▁مائور	-13.1015
▁فریم	-13.1019
▁اکرمی	-13.1021
وپنجاه	-13.1021
هامر	-13.1023
▁سمرقندی	-13.1027
▁گذا	-13.103
درگیری	-13.1042
رمی	-13.1042
▁حسابش	-13.1044
نائو	-13.1054
▁دوخت	-13.1055
ژیر	-13.1056
▁گرانت	-13.1064
▁بنشین	-13.1065
▁هاس	-13.1078
تین	-13.1079
▁اکسی	-13.1086
▁فرس	-13.1088
شناس	-13.1092
بودن	-13.1092
ولیوی	-13.1095
▁صر	-13.1096
▁اوکل	-13.1098
یوآن	-13.1103
▁سلط	-13.1135
▁بخوابان	-13.1141
▁فروشگاهها	-13.1146
▁نشاند	-13.1149
ازار	-13.1153
▁آمریکااست	-13.1157
▁هرل	-13.1163
ریدلی	-13.1164
۶۶	-13.1165
کاریر	-13.1166
نگه	-13.1167
دریانو	-13.1168
▁براندا	-13.117
▁انع	-13.1182
▁حماس	-13.1187
عبدالو	-13.1189
▁آرشی	-13.119
بخت	-13.1193
ولاتش	-13.1194
▁گردان	-13.1199
▁بلای	-13.1208
ظره	-13.1213
فهیم	-13.1216
▁گندی	-13.1217
▁درهایش	-13.1223
▁متش	-13.1224
▁لنز	-13.1236
▁عرا	-13.124
▁واسک	-13.1243
▁کوچی	-13.125
▁جهاندار	-13.1256
▁یادگاری	-13.1258
ونیک	-13.1267
▁بدتری	-13.1269
▁جبر	-13.1281
همان	-13.1283
▁یاکو	-13.1285
ورگین	-13.129
▁غد	-13.129
▁فراه	-13.129
▁کوئی	-13.1302
▁منش	-13.1306
بوش	-13.1306
▁کارنا	-13.1307
نکو	-13.1308
صی	-13.131
▁سبیل	-13.1312
خوار	-13.1312
▁پین	-13.1315
▁مکث	-13.1326
▁اندبا	-13.1361
ارک	-13.1365
ئیت	-13.1366
▁دینامی	-13.1368
بات	-13.1371
افی	-13.1372
جنب	-13.1389
فرنی	-13.1393
▁استانها	-13.14
▁نگذشت	-13.1403
خیل	-13.1406
۲۶	-13.141
▁استراز	-13.1412
منوعیت	-13.1418
▁ژست	-13.1421
▁قضای	-13.1432
کالیف	-13.1433
انتری	-13.1435
▁شبان	-13.1444
رالم	-13.1447
▁خودستا	-13.1448
▁خندد	-13.1448
▁هیب	-13.1457
۷۰۰	-13.146
ندتر	-13.1464
▁ماهر	-13.1464
رسیده	-13.1466
▁پانز	-13.1471
موتورها	-13.1474
▁باختر	-13.1484
▁کندی	-13.1484
والدین	-13.1486
▁ترویس	-13.1489
پادمان	-13.149
▁انس	-13.1491
▁کنک	-13.1492
▁نکاست	-13.1492
رساندن	-13.1495
▁ماتیس	-13.1495
مام	-13.1498
▁تاس	-13.151
▁الط	-13.1511
ونتو	-13.1512
فوتبال	-13.1532
▁دمش	-13.1543
▁هرمی	-13.1545
دوستد	-13.1558
▁زر	-13.156
ریستو	-13.1567
▁گسترد	-13.1572
لانی	-13.1573
۹۱۲	-13.1575
عفر	-13.1591
▁زیا	-13.1592
وگند	-13.1603
▁پژوه	-13.1617
توس	-13.1619
▁گلها	-13.1623
پنها	-13.1641
زرویس	-13.1648
▁نشو	-13.1656
تاس	-13.1658
▁بوسی	-13.1658
....	-13.166
▁باورهای	-13.1674
یتسی	-13.1674
انگلر	-13.1675
▁نقط	-13.1676
رکنا	-13.168
▁نامند	-13.168
دول	-13.1685
فورا	-13.1687
▁والن	-13.169
ولس	-13.1695
▁مامن	-13.1696
وئیس	-13.1701
▁اتا	-13.1703
زبور	-13.1703
▁ایرا	-13.1707
امیلی	-13.1711
رپر	-13.1715
روید	-13.1716
کاس	-13.1719
استاد	-13.1719
مردی	-13.1722
▁کاتالو	-13.1724
یمو	-13.1725
▁مز	-13.1725
سماع	-13.173
▁صور	-13.1732
یکن	-13.1734
داستانی	-13.1738
روژان	-13.174
▁نداری	-13.1753
بوق	-13.1754
▁نگو	-13.1763
تصدی	-13.1766
گام	-13.1774
▁بط	-13.1774
وتک	-13.1786
▁ایزد	-13.179
▁سوک	-13.1803
▁تاریکتر	-13.1805
دیوی	-13.1811
منت	-13.1813
▁بستگانش	-13.1815
ادر	-13.1823
۵۰۰	-13.1838
▁سرن	-13.1846
▁بام	-13.1872
تروسپ	-13.1883
زلا	-13.1886
نکن	-13.1895
▁دورا	-13.1896
▁پالی	-13.1897
▁ترسم	-13.1905
▁کارآ	-13.1907
▁دیز	-13.1911
خاس	-13.1918
▁اورت	-13.1919
▁پره	-13.1919
▁کیفی	-13.1921
▁انگیزش	-13.1922
▁تعری	-13.1925
گوپ	-13.1939
کوتا	-13.1939
انچین	-13.1943
▁ساختم	-13.1947
▁مشترکا	-13.1953
فاشی	-13.1958
روبین	-13.1963
▁بیگانگ	-13.1971
دای	-13.1986
▁مستم	-13.2001
نظم	-13.2007
بستگ	-13.2012
ارزیا	-13.2028
▁ماجراجوی	-13.2036
▁آیوا	-13.2042
▁تیمور	-13.2043
▁گنا	-13.2054
▁ابی	-13.2061
▁تفسیرها	-13.2061
▁انف	-13.2064
واکس	-13.2075
▁ماندم	-13.2077
راتو	-13.2087
▁آسیاب	-13.2095
▁الب	-13.2098
سیس	-13.2102
▁لیورپولی	-13.2111
▁فریبی	-13.2122
علیر	-13.2127
تش	-13.2128
کیه	-13.2137
▁پاراد	-13.2137
▁درگذشتم	-13.2139
▁زال	-13.214
سپارد	-13.2145
▁نظرها	-13.2151
▁ووت	-13.2153
دورا	-13.2159
▁برسم	-13.2165
سامی	-13.2166
▁دزدید	-13.2172
▁فرام	-13.2175
▁اندیشی	-13.2175
▁یورد	-13.2205
▁گردم	-13.2208
یلتون	-13.2212
▁چهارتا	-13.2212
▁مونش	-13.2218
▁پک	-13.2222
▁مومن	-13.2223
میتسو	-13.2228
▁عاشورا	-13.2231
▁الگ	-13.2231
دخواهان	-13.2235
▁مش	-13.2245
بگ	-13.2266
یابند	-13.2273
سمن	-13.2285
آمارها	-13.229
▁رسال	-13.2296
گلی	-13.2297
مترو	-13.2313
والدی	-13.2326
▁اقتصادها	-13.2329
ویایی	-13.2329
۳۹۸	-13.233
▁فعالند	-13.234
عبور	-13.2341
قیق	-13.2344
مگ	-13.2346
وتر	-13.2348
▁شماست	-13.2351
چوب	-13.2357
▁فیض	-13.2382
ترن	-13.2385
ساعد	-13.2397
▁هادس	-13.2404
▁الد	-13.2406
انگیزترین	-13.241
انگیز	-13.2415
▁خانو	-13.2417
پال	-13.2429
یرشا	-13.2435
حکیم	-13.2441
رژ	-13.2445
▁ضمی	-13.2454
▁مرک	-13.2468
یلان	-13.2468
رشا	-13.247
▁اقبالی	-13.2484
▁سیلو	-13.2485
کون	-13.2494
▁تعزی	-13.2511
▁الان	-13.2514
▁ناتی	-13.2515
▁بازدیدها	-13.2519
▁مصد	-13.2527
یمون	-13.2528
گات	-13.2529
الاس	-13.2531
ورکا	-13.2551
▁آلو	-13.2563
▁پیوندان	-13.2579
بعیدی	-13.2581
▁پشتی	-13.2586
▁بمیر	-13.259
▁غا	-13.2591
ورال	-13.2593
غفو	-13.2596
رانر	-13.261
یتو	-13.2614
ریض	-13.2621
وگ	-13.2628
▁کنددر	-13.2632
چنان	-13.2638
▁چشمم	-13.2646
مغان	-13.265
ئن	-13.2655
کوست	-13.2656
▁برادرهای	-13.2669
▁ویلیامس	-13.2671
ساس	-13.2673
▁باردو	-13.2679
▁فلورا	-13.2683
جیح	-13.2686
فراغ	-13.2687
لمن	-13.2691
لیاتی	-13.2698
بوتی	-13.2702
▁سمع	-13.2704
مزه	-13.2705
تلف	-13.2707
گار	-13.2707
▁صنا	-13.2718
سیام	-13.272
ضیه	-13.2738
دیک	-13.2741
باخت	-13.2753
▁دربر	-13.2762
▁پاشی	-13.2769
قتی	-13.277
▁پارت	-13.2771
▁ویلی	-13.2781
ساط	-13.2784
▁معر	-13.2788
▁شیپ	-13.2793
▁فرشت	-13.2808
▁پرفروشی	-13.2815
▁حدود۲	-13.2815
▁زمانه	-13.2833
لندن	-13.2852
▁تورس	-13.2854
امان	-13.2859
نسیم	-13.286
▁اندی	-13.286
روشی	-13.2873
یتس	-13.2876
عط	-13.2891
▁ارس	-13.2905
سوب	-13.2907
اندیشد	-13.2914
شعا	-13.2927
وجی	-13.293
▁کاغذها	-13.2931
لدی	-13.2956
کارت	-13.2969
زرد	-13.2981
کوف	-13.2983
شیری	-13.2986
▁قهار	-13.2991
وارتر	-13.2995
اسم	-13.2999
سط	-13.3005
رمیم	-13.3021
▁ونت	-13.3027
▁نظار	-13.3042
▁ممی	-13.3066
پایی	-13.3078
باوری	-13.3079
▁هری	-13.3082
▁آوریم	-13.3085
لمبار	-13.3085
▁مواقعی	-13.3107
ردند	-13.3114
گاو	-13.3115
روسکو	-13.3117
یچی	-13.3129
مارکان	-13.3131
خا	-13.3136
ودرو	-13.3137
▁دادنش	-13.3161
دهای	-13.3166
▁تباه	-13.3166
اتان	-13.3178
اگان	-13.3185
ایا	-13.3186
دسیمون	-13.3188
▁توک	-13.3193
شمول	-13.3197
موت	-13.3221
ازن	-13.3239
▁عطری	-13.3279
▁موید	-13.3289
لبه	-13.329
فیو	-13.33
انیا	-13.3311
یانه	-13.3316
چا	-13.3327
تحری	-13.3328
اسکی	-13.3337
▁بنزم	-13.3339
سنده	-13.3342
▁فون	-13.3343
اتم	-13.3349
▁جورن	-13.3359
قان	-13.3365
مش	-13.3396
پتا	-13.3417
جده	-13.3418
اقلان	-13.342
نخ	-13.342
حمدرضا	-13.3424
▁خور	-13.3425
موم	-13.3429
؟'	-13.3431
ستمز	-13.3434
دستگیر	-13.3457
▁استخرا	-13.3468
▁آنگ	-13.3471
▁سطل	-13.3472
یدمن	-13.3478
تعرض	-13.3486
اونت	-13.3494
صولا	-13.3502
▁بالدار	-13.3503
لوح	-13.3506
پولی	-13.3521
بدی	-13.3525
مساعد	-13.3525
▁رایک	-13.3532
صدق	-13.3533
جریان	-13.3534
کادا	-13.3542
ازهای	-13.3549
احس	-13.3552
▁همدم	-13.3553
دعوا	-13.3554
زخ	-13.3557
زگی	-13.3557
▁غری	-13.356
▁امپ	-13.3564
▁سرخورد	-13.3581
تنی	-13.3582
گولد	-13.3583
▁اینه	-13.3585
سگ	-13.359
باق	-13.3593
وضو	-13.3599
▁شدمحمد	-13.3608
تئو	-13.3625
پروف	-13.3628
گوئ	-13.3642
یدون	-13.3648
صدو	-13.3649
▁اکوس	-13.3662
▁مانو	-13.3663
▁مدی	-13.369
▁میلانی	-13.3695
پارچ	-13.3715
▁شرا	-13.3716
آمد	-13.3723
لب	-13.3729
▁متروی	-13.3738
چسب	-13.3749
▁جمهوریخواه	-13.3754
▁،	-13.3762
▁درگذشتند	-13.3772
واچ	-13.3775
یمار	-13.3784
▁ورزی	-13.3786
▁نهی	-13.3802
▁اتو	-13.3806
▁نامیدن	-13.3812
▁ناتالی	-13.3818
▁وو	-13.3818
▁پائ	-13.3826
مکار	-13.383
حراستی	-13.3831
گردیده	-13.3833
▁اندر	-13.3835
اپیما	-13.3842
▁حما	-13.385
تخم	-13.3856
▁۱۷۸	-13.3879
رچ	-13.3879
طه	-13.3885
▁وز	-13.3915
اماتیک	-13.3915
▁عجم	-13.3926
رکی	-13.3927
نموده	-13.3938
اتوار	-13.3947
▁کنج	-13.395
گرمی	-13.3951
▁صادرکنن	-13.3963
▁ضخ	-13.3977
جذ	-13.3981
▁بورسی	-13.3987
اچ	-13.3991
گلیسم	-13.3996
▁بطل	-13.3999
ورل	-13.4026
احتی	-13.4028
▁تفر	-13.4032
دخواهانه	-13.4044
لوگر	-13.4072
▁مزا	-13.4073
▁شدندیک	-13.4081
▁تض	-13.4114
▁بریس	-13.4118
گش	-13.4137
▁نرسی	-13.4146
▁سکونتش	-13.4146
فولک	-13.4152
▁نبوی	-13.4153
▁رابی	-13.4153
ورهم	-13.417
رنا	-13.417
بدن	-13.4181
▁عبدالو	-13.4193
خراش	-13.42
سینا	-13.4203
اروس	-13.4204
▁ویرجین	-13.4209
▁گذاشتد	-13.4215
▁نعل	-13.4216
نتن	-13.422
یندازیم	-13.4224
ضو	-13.4225
۹۸۰	-13.4225
▁۱۸۷	-13.4226
غدار	-13.4231
نکر	-13.4246
▁گلش	-13.4248
ترود	-13.4249
▁کنت	-13.4253
سیو	-13.4278
صل	-13.428
ناقل	-13.4282
▁لیل	-13.4288
یتار	-13.4296
▁مثا	-13.4308
▁آزمایند	-13.4309
نیان	-13.4312
کردند	-13.4324
▁هواس	-13.4327
تامین	-13.4336
▁راپ	-13.4351
رلند	-13.4354
▁نخود	-13.4375
بلین	-13.438
▁ابط	-13.4384
ژا	-13.4388
▁قدرتمندتر	-13.4392
۲۶۰	-13.4397
▁ساد	-13.4407
▁کارتونی	-13.4407
یگانی	-13.4413
نالد	-13.4425
ارج	-13.4458
▁جش	-13.4458
▁پاشو	-13.4461
ایستند	-13.4464
نویسم	-13.449
▁رومان	-13.4495
افکا	-13.4499
روم	-13.4503
سازان	-13.4504
▁کاملتر	-13.4505
داول	-13.4507
قر	-13.4512
نوپ	-13.4515
▁یافتم	-13.4523
فیا	-13.4523
▁برخوردها	-13.4529
هارت	-13.4532
▁نزدی	-13.4534
آئو	-13.4545
حریم	-13.4555
▁مئ	-13.4559
قض	-13.4573
وشند	-13.4588
▁پاشیدن	-13.4591
روان	-13.4591
مداران	-13.4594
▁استلا	-13.4594
▁پولیت	-13.4597
مهر	-13.4613
▁پرشک	-13.4621
اقی	-13.4621
صفر	-13.4626
▁صع	-13.4628
▁خیا	-13.4661
یدگی	-13.4663
▁ردی	-13.4669
▁مشخصا	-13.467
▁میتوان	-13.4686
رائ	-13.469
خلق	-13.4694
ایز	-13.4696
سار	-13.4703
▁میزبانان	-13.4728
▁مبل	-13.4729
▁تاثیرگذارتر	-13.4738
تنه	-13.476
دلار	-13.4762
امن	-13.4771
▁گالا	-13.4781
▁نوارها	-13.4784
▁فریادها	-13.4793
▁باشی	-13.4795
▁ویسل	-13.4797
کریم	-13.4809
خمی	-13.4814
▁گیتاری	-13.4826
رزم	-13.4845
▁انج	-13.485
ادزه	-13.4851
▁استم	-13.4861
۸۳	-13.4868
اسک	-13.4873
▁سوزن	-13.488
▁بیفت	-13.4886
▁اوتا	-13.4893
پری	-13.4896
لوغ	-13.4901
یشکر	-13.4912
ردیف	-13.4915
حیط	-13.4915
▁برگز	-13.4938
▁هیچک	-13.494
▁مف	-13.4943
▁حمی	-13.4945
انتانا	-13.4951
▁تازی	-13.4965
▁افتند	-13.4974
▁ِ	-13.4979
▁هنک	-13.4983
▁محمودی	-13.4986
دهند	-13.4992
▁ابد	-13.5021
دهد	-13.5037
▁تقی	-13.5037
ثری	-13.504
▁طلبی	-13.5042
▁بردار	-13.505
باغ	-13.5052
▁ورش	-13.5057
۹۲	-13.5063
▁ایرانمقام	-13.5068
▁فلان	-13.5092
بورسی۳	-13.5092
▁سعیدی	-13.5112
رنامه	-13.5134
▁روبل	-13.5138
▁گلاس	-13.514
▁گیرم	-13.515
سران	-13.515
▁سرورها	-13.5164
نورد	-13.5166
نداشته	-13.517
بیز	-13.5173
وهش	-13.5177
▁سودی	-13.5184
▁هانت	-13.5185
صادر	-13.5191
▁لع	-13.5203
▁شف	-13.5206
▁اکت	-13.5212
▁دوی	-13.5221
▁عبدالر	-13.5226
سلر	-13.5234
▁صوفی	-13.5244
▁شکای	-13.5267
خیو	-13.5269
▁افکارش	-13.527
مایی	-13.5279
▁صیا	-13.5283
▁بگیری	-13.5286
سالت	-13.5294
▁عت	-13.5295
▁مینگ	-13.5298
▁رئیسان	-13.5324
وصدای	-13.5351
▁جلیل	-13.5352
▁کولی	-13.5359
اقب	-13.5362
▁زندگ	-13.5392
▁بلان	-13.5398
▁رباتی	-13.541
ومئ	-13.5414
▁تبعیدی	-13.5425
خورند	-13.544
بلا	-13.544
رشدی	-13.5447
خوب	-13.5448
دقت	-13.549
▁ابدا	-13.5502
▁هکر	-13.5523
ائوس	-13.5526
▁چرت	-13.5534
درت	-13.5539
وآلا	-13.554
▁گلای	-13.5544
▁جاه	-13.5551
▁نابی	-13.556
رگان	-13.5569
رشو	-13.5584
لویی	-13.5609
▁توم	-13.5616
برهای	-13.5625
بستند	-13.5627
▁بارت	-13.5632
هنام	-13.5634
▁عموی	-13.5649
▁توما	-13.5661
لوده	-13.5681
▁همدل	-13.5683
فانه	-13.5687
▁توص	-13.5687
ورها	-13.5691
▁نوش	-13.5696
▁چت	-13.5697
لقو	-13.57
نتا	-13.5706
دارد	-13.572
شین	-13.5727
ژیو	-13.5731
قدان	-13.5739
نونی	-13.5747
ترینگ	-13.5763
اخت	-13.5766
▁سروی	-13.5783
لوم	-13.5783
اخلاق	-13.5785
▁دوتای	-13.58
مطمئن	-13.5805
▁ماکرو	-13.5813
تفا	-13.5833
▁کجاها	-13.5836
دحال	-13.5837
▁منص	-13.5838
یپ	-13.5843
▁گردی	-13.5847
▁تلک	-13.5849
جزی	-13.5862
▁آسای	-13.5867
مرو	-13.5869
▁مجل	-13.5888
▁جها	-13.5889
▁آبه	-13.589
▁افز	-13.5892
عاده	-13.5911
نقیب	-13.5911
لیزا	-13.5914
▁کیک	-13.5916
سات	-13.5923
نشاهی	-13.5925
▁سرل	-13.5929
نقا	-13.5932
استیل	-13.5944
▁آنی	-13.5955
▁دریابا	-13.5956
کلر	-13.5964
زبال	-13.5965
▁پلن	-13.5966
دوگا	-13.5983
▁گنب	-13.5995
▁پوشی	-13.6003
لیخ	-13.6032
''	-13.6038
▁لیری	-13.607
▁دریابی	-13.6086
▁فمین	-13.6088
اکستر	-13.6091
ماس	-13.6092
واس	-13.6094
▁کردنش	-13.6095
نف	-13.6102
▁طبا	-13.6118
▁ظاهرش	-13.6123
تومان	-13.6125
▁ماندگارتر	-13.6129
▁هاف	-13.6148
ماز	-13.616
▁نباش	-13.6169
کونی	-13.6192
▁بساز	-13.6202
المللی	-13.6205
▁اندبر	-13.6212
▁وسو	-13.6237
عصب	-13.6241
الیز	-13.6251
▁شدیدتری	-13.6274
ماندند	-13.6283
اهد	-13.6298
▁استادی	-13.6322
دوغا	-13.6323
گردیم	-13.6324
▁مشک	-13.6335
▁راکد	-13.6337
▁شیل	-13.6344
کنت	-13.6362
بگذاری	-13.6366
وروف	-13.6387
▁خودت	-13.6392
روژ	-13.641
▁زنج	-13.6423
▁ممت	-13.6434
پنجاه	-13.6444
شیا	-13.6445
▁بسا	-13.645
▁تریلی	-13.6452
۵۶	-13.6455
ششم	-13.6489
▁ساند	-13.6497
درو	-13.6503
زارهای	-13.6513
روفی	-13.6549
بوده	-13.6559
کنار	-13.657
▁ورا	-13.6585
ابلاغ	-13.6585
پارات	-13.6596
▁پستو	-13.66
▁تهرانی	-13.6604
وخته	-13.6609
گاس	-13.661
جباری	-13.6635
▁گیرا	-13.6636
۰۲	-13.664
گردی	-13.6649
ویلا	-13.6653
▁رید	-13.6659
یفرانس	-13.6661
▁هردو	-13.6673
یوز	-13.6673
نبع	-13.6676
▁رویش	-13.6689
▁درسا	-13.6695
تغییر	-13.6718
ثی	-13.6745
تحق	-13.6746
▁فرنو	-13.6765
▁هاستل	-13.6771
▁مقن	-13.6772
کنم	-13.68
اضی	-13.6823
اپه	-13.6833
۳۶	-13.6835
آشو	-13.6838
یسه	-13.6842
کایی	-13.6855
۳۷۹	-13.6857
▁بوین	-13.6874
▁تغییرهای	-13.6874
هیجان	-13.6875
بهر	-13.6875
▁تقلی	-13.6879
بارداری	-13.6888
خوا	-13.6894
▁زیرو	-13.6894
▁اندازهای	-13.6898
داند	-13.6898
▁سازیم	-13.6901
▁قدی	-13.6905
▁بخشند	-13.6905
▁آنجا	-13.6906
▁آه	-13.6908
▁اطرافش	-13.6911
تأم	-13.6912
▁آورا	-13.6913
۶۹	-13.6933
هت	-13.6964
بازگش	-13.6968
وایز	-13.697
چس	-13.6983
▁بول	-13.6986
توما	-13.6989
طن	-13.7012
اینده	-13.7037
وشی	-13.7096
▁ناش	-13.7098
توقف	-13.7116
اتفاق	-13.712
صاص	-13.7147
گانگ	-13.7147
▁ابله	-13.7148
کلت	-13.7158
▁آلب	-13.7163
▁میمن	-13.7169
یکت	-13.7182
▁برجست	-13.7185
نقی	-13.7186
هوا	-13.7189
امنیت	-13.7189
▁لاور	-13.7192
▁پاکی	-13.7193
▁مناز	-13.7194
▁میکر	-13.7205
لمان	-13.725
▁کاندید	-13.7253
▁ندار	-13.7258
▁سالیان	-13.7273
یگان	-13.7276
▁یورکش	-13.7284
ریب	-13.7291
برتو	-13.7291
▁کاره	-13.7298
لیان	-13.7299
آما	-13.7301
▁قای	-13.7303
کشیم	-13.7306
همسر	-13.7317
نوشته	-13.7333
▁فولا	-13.7336
دریافت	-13.7337
واکسین	-13.7352
نفرانس	-13.7384
مسر	-13.7392
▁جند	-13.7398
یاران	-13.7409
کتیو	-13.7412
▁عظ	-13.7421
اسیو	-13.7423
▁همنوا	-13.7432
▁هیون	-13.7443
▁کرون	-13.7458
▁مراو	-13.7463
▁فقیرتر	-13.7477
▁آلف	-13.7497
▁کلار	-13.7504
انرژی	-13.7504
افع	-13.7508
▁هزارم	-13.7514
اهت	-13.7527
تلویزیون	-13.7529
▁نبست	-13.7541
امت	-13.756
▁گان	-13.756
نکرده	-13.7571
زمی	-13.7576
▁حرا	-13.7582
▁متض	-13.7587
تاکو	-13.7592
میرا	-13.7598
پیچ	-13.76
سترسی	-13.7612
رآورده	-13.762
اصلی	-13.7631
نظام	-13.7638
دش	-13.7655
▁ابری	-13.7675
کاه	-13.7677
▁نکنی	-13.7695
یاری	-13.7699
آمدتر	-13.7711
▁ضرو	-13.7732
▁آدریا	-13.774
▁مائو	-13.7743
اسپوتین	-13.7756
▁چرخد	-13.7764
تبدیل	-13.7766
▁موع	-13.7772
▁ماسی	-13.7774
▁ماموری	-13.7788
▁اولا	-13.7788
▁رفتارش	-13.7809
تعطیل	-13.7809
▁۱۴۵	-13.7813
ترو	-13.7813
بازگشت	-13.7815
اندر	-13.7828
▁درخشیدن	-13.7829
اریو	-13.7846
▁نخوان	-13.7848
شل	-13.785
مبل	-13.7851
اپور	-13.7853
▁فاطمی	-13.7853
▁سالخورد	-13.786
▁درگذشتگ	-13.7866
بوری	-13.7874
۵۲	-13.7874
آرت	-13.7882
▁یوور	-13.7887
پاس	-13.7903
نتس	-13.7908
فرهنگ	-13.7911
ایفا	-13.7925
▁گوه	-13.7931
انقلاب	-13.7934
▁پدی	-13.7945
▁۱۷۱۰	-13.7954
دینامیک	-13.7954
▁پارکها	-13.7987
سلامی	-13.7987
آورده	-13.799
اپل	-13.8007
وضع	-13.8034
آنا	-13.8035
رساند	-13.8041
مالیات	-13.8045
سور	-13.8047
▁کندبا	-13.806
انستان	-13.8061
نگار	-13.8066
روری	-13.807
نگون	-13.8088
گسترده	-13.8094
▁ترج	-13.8105
کثی	-13.8114
تباهی	-13.8117
مشکلات	-13.812
اردن	-13.8128
جلو	-13.8129
ارتباط	-13.8147
▁نکن	-13.815
لغو	-13.815
متوقف	-13.8156
مسئ	-13.818
اورا	-13.818
کودکان	-13.818
پرا	-13.8188
▁پد	-13.82
نتونیو	-13.8201
تع	-13.8201
▁شیرها	-13.8205
فینال	-13.8213
خواهم	-13.8232
نیروهای	-13.8237
هد	-13.8239
دوشنبه	-13.824
کووید	-13.8245
کشورها	-13.8245
وئن	-13.8248
ساری	-13.8254
رشید	-13.8267
▁تعذی	-13.8312
اروی	-13.8315
▁بوهای	-13.8315
▁بازگردان	-13.8329
یتسو	-13.833
پروژه	-13.8337
آبان	-13.8356
چهارشنبه	-13.8359
الم	-13.8363
مبتلا	-13.8369
▁ریا	-13.8375
اعات	-13.8377
ونزوئلا	-13.8387
گردد	-13.8404
▁مسابق	-13.8406
مصوب	-13.8407
فرهنگی	-13.8412
فهرست	-13.8413
طلق	-13.8417
واحد	-13.8417
جانبدار	-13.8417
رینیو	-13.8424
▁متب	-13.8425
▁گوتنب	-13.8445
بلیت	-13.8445
فارسی	-13.8455
اعدام	-13.8458
▁نورها	-13.8459
شیو	-13.8463
پرش	-13.8467
نشده	-13.8477
فضای	-13.8488
▁بردم	-13.8495
سرا	-13.8507
▁نیمو	-13.8509
▁یولی	-13.851
همیشه	-13.8524
▁شیم	-13.8541
دمین	-13.8543
▁شعبا	-13.8553
مناطق	-13.8554
مذاکر	-13.8563
وسمی	-13.8565
سراسر	-13.8569
اردی	-13.8572
▁ممل	-13.8576
اعمال	-13.8577
فغانستان	-13.8578
افغان	-13.8579
▁سالار	-13.858
بیرون	-13.858
رعایت	-13.8583
هواپیما	-13.8583
دفاع	-13.8596
توسعه	-13.8598
آوریل	-13.86
جنس	-13.8605
▁مغر	-13.861
▁آبرو	-13.8611
فارس	-13.8613
قدم	-13.8638
موفقیت	-13.8641
▁مارتا	-13.8642
▁بکش	-13.8646
پاریس	-13.8651
موافقت	-13.8655
کنشی	-13.8662
▁دوگا	-13.8666
نزی	-13.8675
▁پون	-13.8675
نرم	-13.8686
نظارت	-13.8701
رگزار	-13.8702
نفتکش	-13.8705
گسترد	-13.8708
بریت	-13.8717
ورزشی	-13.8722
ارات	-13.8724
پروازهای	-13.8737
امیدوار	-13.8739
موارد	-13.8739
مجوز	-13.8743
اردیبهشت	-13.875
▁سوان	-13.875
کودک	-13.8757
بالای	-13.8758
▁فیلترکنند	-13.8763
کارکنان	-13.8776
رپیچ	-13.8779
کلور	-13.8781
اکثر	-13.8783
یگو	-13.8785
عدالت	-13.879
معتقد	-13.8791
هنرمند	-13.8795
رچی	-13.8798
▁میخ	-13.8803
آلبوم	-13.8805
گردید	-13.8816
اقیانوس	-13.8829
وبا	-13.8829
برسد	-13.883
▁لیند	-13.883
آید	-13.8833
اوراق	-13.8837
صبح	-13.8842
آموزش	-13.8843
اولیه	-13.8845
علاقه	-13.8846
▁معال	-13.885
مسدود	-13.8851
شاعر	-13.8856
میلی	-13.8857
نروژ	-13.8857
پیام	-13.8866
پاکستان	-13.888
ریاک	-13.889
اسطوره	-13.8892
مهمان	-13.8892
کشاورز	-13.8896
مشکل	-13.8897
افزوده	-13.8902
کلانش	-13.8905
▁رادار	-13.8905
روایت	-13.8907
صنایع	-13.8909
نوامبر	-13.8909
▁کندایران	-13.8914
اینترنت	-13.8917
▁باشگا	-13.8918
▁سرودها	-13.8918
مبلغ	-13.8919
گوهای	-13.8926
بایدن	-13.8928
زندانیان	-13.893
▁۱۲۴	-13.8931
حزب	-13.8934
آدریان	-13.8936
بهشت	-13.8938
ادبیات	-13.8939
▁۱۶۱	-13.8941
▁بهمنی	-13.8943
آمازون	-13.8944
آنلاین	-13.8944
ندج	-13.8951
جز	-13.8952
آسمان	-13.8954
محیط	-13.8963
عوامل	-13.8965
▁ایف	-13.8965
صفح	-13.8969
دستمزد	-13.897
کنسرت	-13.8974
اخبار	-13.8974
بازنشستگان	-13.8976
تمدید	-13.8977
اکتبر	-13.898
آهنگ	-13.8988
مدرسه	-13.8993
وواک	-13.8997
ماموریت	-13.8997
حفاظت	-13.9009
ارقام	-13.9016
▁محبوبی	-13.9016
▁باورها	-13.9018
کرز	-13.9018
آفریقا	-13.902
اینستاگرام	-13.9021
شهریور	-13.9027
هنرمندان	-13.9028
واپسی	-13.9028
بندها	-13.9029
محمو	-13.9029
▁چسبان	-13.903
فتند	-13.9031
ثابت	-13.9036
قربانیان	-13.904
آموزند	-13.9047
ایستگاه	-13.9052
▁جودود	-13.9052
▁شهرتش	-13.9055
تسلا	-13.9056
آزم	-13.9058
▁نوشید	-13.9067
قبول	-13.907
کستر	-13.907
مسافر	-13.9072
▁گریگور	-13.9073
فلور	-13.9073
▁غنا	-13.9079
نحو	-13.9082
▁متوس	-13.9092
سوپر	-13.9096
سوال	-13.9096
ایسنا	-13.9098
▁زرتشت	-13.9104
یرس	-13.9107
خزان	-13.9109
رقیب	-13.9111
کاو	-13.9118
چشمگیر	-13.9123
رویکرد	-13.9123
فایل	-13.9124
داوطلبان	-13.9125
▁۱۰۵۰	-13.9125
علائم	-13.9126
هنری	-13.913
دختران	-13.9132
شگاه	-13.9134
▁قراداد	-13.9138
تصوی	-13.9139
پارلمان	-13.9139
تقاضای	-13.9143
تاسیس	-13.9143
▁کوار	-13.9146
تکرار	-13.9149
نگران	-13.9149
۲۰۱۵	-13.915
مجازات	-13.9152
دیف	-13.9154
کربن	-13.9157
▁راهنما	-13.9157
غافلگیر	-13.9161
▁زیب	-13.9161
▁هام	-13.9161
پایگاه	-13.9167
ناتی	-13.9169
شفاف	-13.9172
ظاهرا	-13.9173
▁شعارها	-13.9177
محکومیت	-13.918
سلمان	-13.9181
کریستیان	-13.9182
روستای	-13.9183
فوریه	-13.9184
تراکتور	-13.9186
▁لگ	-13.9186
ساعات	-13.9201
هافبک	-13.9203
سرکوب	-13.9208
رادیو	-13.9211
برکنار	-13.9212
کلمبیا	-13.9215
کارشناس	-13.9216
موقع	-13.922
پهلوی	-13.9221
روبات	-13.9226
پادتن	-13.9227
پرورش	-13.9233
نابودی	-13.9234
دانشجویان	-13.924
مرجان	-13.9241
مطلب	-13.9242
مذهبی	-13.9243
قدرتمند	-13.9245
▁جار	-13.9251
کامپیوتر	-13.9251
پاییز	-13.9252
جوز	-13.9253
شکنج	-13.9253
تابلو	-13.9258
فراگیر	-13.9259
خواب	-13.9263
تاجیک	-13.9264
ندلی	-13.9265
کالاهای	-13.9266
نیروگاه	-13.9267
عروسک	-13.9267
آستان	-13.9273
خورشیدی	-13.9281
ساطی	-13.9281
ورتینگ	-13.9283
ولسوال	-13.9284
اوکراین	-13.9285
ویلموتس	-13.9286
سپار	-13.9289
مشورت	-13.9294
▁گرانبها	-13.9296
امکانات	-13.9301
مرداد	-13.9304
▁مذ	-13.931
مبادل	-13.9311
هب	-13.9311
▁لبر	-13.9312
تصویری	-13.9314
خرداد	-13.9317
▁لام	-13.9322
سیاستمداران	-13.9324
درخشند	-13.9327
رپ	-13.9328
مطالعات	-13.9329
بوندس	-13.933
بامداد	-13.933
انصاریان	-13.9332
عنکبوت	-13.9332
الین	-13.9332
▁آت	-13.9335
▁۲میل	-13.9335
ابعاد	-13.9336
فریاد	-13.9338
ولتی	-13.9338
▁الکترودها	-13.9341
فیوری	-13.9342
متقاضی	-13.9345
هفتاد	-13.9346
اکتشاف	-13.9348
▁سانت	-13.9348
▁الا	-13.9349
تخلفات	-13.9349
▁آگوس	-13.9349
پیوستن	-13.9351
یلن	-13.9354
سرتیپ	-13.9354
جنایت	-13.9354
چراغ	-13.9355
ارتش	-13.9356
[...]
