{
  "src_word2id": {
    "<pad>": 0,
    "<s>": 1,
    "</s>": 2,
    "<unk>": 3,
    "ی": 4,
    ".": 5,
    "ه": 6,
    "▁است": 7,
    "▁": 8,
    "▁می": 9,
    "▁های": 10,
    "▁ایران": 11,
    "▁شده": 12,
    "،": 13,
    "▁سال": 14,
    "▁بود": 15,
    "▁یک": 16,
    "▁ها": 17,
    "▁شد": 18,
    "▁تصویر": 19,
    "▁کرده": 20,
    "▁ای": 21,
    "▁کرد": 22,
    "منبع": 23,
    "ان": 24,
    "▁شود": 25,
    "▁گفته": 26,
    "▁بر": 27,
    "▁دو": 28,
    "▁کند": 29,
    "؛": 30,
    "▁خود": 31,
    "ین": 32,
    "▁اند": 33,
    "▁کرونا": 34,
    "▁در": 35,
    "ت": 36,
    "ش": 37,
    "ن": 38,
    "▁پیش": 39,
    "▁آمریکا": 40,
    "▁گزارش": 41,
    "▁ماه": 42,
    "▁کشور": 43,
    "▁روز": 44,
    "▁م": 45,
    "▁کار": 46,
    "▁بی": 47,
    "▁فوتبال": 48,
    "▁دارد": 49,
    "▁ا": 50,
    "▁دهد": 51,
    "▁گفت": 52,
    "▁تیم": 53,
    "▁اعلام": 54,
    "▁بازی": 55,
    "▁کنند": 56,
    "▁دیگر": 57,
    "▁قرار": 58,
    "▁شرکت": 59,
    "▁هزار": 60,
    "▁داده": 61,
    "م": 62,
    "▁دولت": 63,
    "▁یا": 64,
    "▁به": 65,
    "▁دست": 66,
    "▁و": 67,
    "▁رئیس": 68,
    "▁با": 69,
    "▁سه": 70,
    "▁جهان": 71,
    "▁گذشته": 72,
    "▁بین": 73,
    "▁خواهد": 74,
    "▁پس": 75,
    "▁گوید": 76,
    "▁آقای": 77,
    "▁هر": 78,
    "▁تهران": 79,
    "▁دربار": 80,
    "▁بار": 81,
    "▁آنها": 82,
    "▁میلیون": 83,
    "▁نفر": 84,
    "در": 85,
    "▁درصد": 86,
    "▁دلیل": 87,
    "▁افزایش": 88,
    "▁ب": 89,
    "▁افغانستان": 90,
    "▁بوده": 91,
    "'": 92,
    "▁فیلم": 93,
    "▁بعد": 94,
    "▁'": 95,
    "▁هفته": 96,
    "▁یکی": 97,
    "▁چند": 98,
    "▁از": 99,
    "▁داد": 100,
    "های": 101,
    "این": 102,
    "▁لیگ": 103,
    "ر": 104,
    "ا": 105,
    "▁قیمت": 106,
    "▁حال": 107,
    "▁بازار": 108,
    "▁جهانی": 109,
    "ل": 110,
    ":": 111,
    "▁ملی": 112,
    "▁خبر": 113,
    "▁نام": 114,
    "▁جدید": 115,
    "▁ت": 116,
    "▁جمهوری": 117,
    "▁نمی": 118,
    "د": 119,
    "▁سازمان": 120,
    "▁همه": 121,
    "▁هستند": 122,
    "▁برگزار": 123,
    "▁دلار": 124,
    "▁ویروس": 125,
    "▁مورد": 126,
    "▁همچن": 127,
    "▁عنوان": 128,
    "▁تولید": 129,
    "▁گرفته": 130,
    "▁ترین": 131,
    "▁باید": 132,
    "ند": 133,
    "▁روی": 134,
    "▁داشت": 135,
    "▁امروز": 136,
    "▁نظر": 137,
    "▁کردند": 138,
    "▁شدن": 139,
    "▁نفت": 140,
    "▁بزرگ": 141,
    "▁مجلس": 142,
    "▁بیش": 143,
    "▁علی": 144,
    "▁کاهش": 145,
    "▁شب": 146,
    "▁وزیر": 147,
    "▁بیشتر": 148,
    "▁نیست": 149,
    "▁وزارت": 150,
    "ز": 151,
    "▁چین": 152,
    "▁بریتانیا": 153,
    "▁خارج": 154,
    "▁اروپا": 155,
    "▁سر": 156,
    "▁اخیر": 157,
    "▁مقابل": 158,
    "به": 159,
    "▁نیز": 160,
    "▁آغاز": 161,
    "▁بودند": 162,
    "▁حدود": 163,
    "▁ایرانی": 164,
    "▁داشته": 165,
    "▁سی": 166,
    "ب": 167,
    "▁راه": 168,
    "▁ف": 169,
    "▁نشان": 170,
    "▁بانک": 171,
    "▁را": 172,
    "▁پایان": 173,
    "▁زمان": 174,
    "▁برنامه": 175,
    "س": 176,
    "▁حضور": 177,
    "▁اقتصادی": 178,
    "▁باشد": 179,
    "▁انجام": 180,
    "▁باشگاه": 181,
    "▁منتشر": 182,
    "▁اش": 183,
    "▁تر": 184,
    "▁اول": 185,
    "ات": 186,
    "▁اساس": 187,
    "▁واکسن": 188,
    "که": 189,
    "▁هایی": 190,
    "▁اولین": 191,
    "▁آن": 192,
    "▁باز": 193,
    "▁صورت": 194,
    "▁تحریم": 195,
    "▁شهر": 196,
    "▁استفاده": 197,
    "▁جمله": 198,
    "▁شیوع": 199,
    "▁شوند": 200,
    "دامه": 201,
    "له": 202,
    "▁توافق": 203,
    "▁گل": 204,
    "▁فصل": 205,
    "آقای": 206,
    "▁بخش": 207,
    "▁میان": 208,
    "▁رسید": 209,
    "▁زندگی": 210,
    "▁وجود": 211,
    "▁مسابقه": 212,
    "▁گروه": 213,
    "▁میلیارد": 214,
    "▁پ": 215,
    "▁ماشین": 216,
    "▁کم": 217,
    "▁چهار": 218,
    "▁مسابقات": 219,
    "▁دارند": 220,
    "و": 221,
    "▁همین": 222,
    "▁س": 223,
    "؟": 224,
    "▁ارز": 225,
    "او": 226,
    "▁حقوق": 227,
    "▁مردم": 228,
    "▁المللی": 229,
    "▁مقام": 230,
    "▁ن": 231,
    "▁تمام": 232,
    "▁تومان": 233,
    "▁گیری": 234,
    "▁خواست": 235,
    "▁شدند": 236,
    "▁نزدیک": 237,
    "▁حالی": 238,
    "▁گرفت": 239,
    "▁تنها": 240,
    "▁وقت": 241,
    "▁جام": 242,
    "▁زنان": 243,
    "▁تواند": 244,
    "گی": 245,
    "▁آینده": 246,
    "▁افراد": 247,
    "▁خانه": 248,
    "▁بیماری": 249,
    "▁بسیاری": 250,
    "▁وارد": 251,
    "▁نرخ": 252,
    "▁زیاد": 253,
    "▁غیر": 254,
    "▁اسلامی": 255,
    "▁قبل": 256,
    "▁ساله": 257,
    "▁گویند": 258,
    "▁شرایط": 259,
    "ترین": 260,
    "▁دوران": 261,
    "▁اجتماعی": 262,
    "▁فعالیت": 263,
    "▁امسال": 264,
    "▁کردن": 265,
    "▁هیچ": 266,
    "▁ش": 267,
    "▁برتر": 268,
    "▁توان": 269,
    "انه": 270,
    "عث": 271,
    "▁رسان": 272,
    "▁تلاش": 273,
    "▁۲۰": 274,
    "▁تازه": 275,
    "بدون": 276,
    "▁انتخابات": 277,
    "▁مختلف": 278,
    "▁وضعیت": 279,
    "▁نخست": 280,
    "▁طرح": 281,
    "▁طور": 282,
    "▁محمد": 283,
    "▁پر": 284,
    "▁ولی": 285,
    "▁ه": 286,
    "▁جان": 287,
    "▁تغییر": 288,
    "▁کشورهای": 289,
    "▁تصمیم": 290,
    "▁روحانی": 291,
    "▁سوی": 292,
    "▁زمین": 293,
    "▁فروش": 294,
    "▁نه": 295,
    "▁قهرمان": 296,
    "▁خانواده": 297,
    "▁ک": 298,
    "▁ریاست": 299,
    "▁مدت": 300,
    "▁بورس": 301,
    "ار": 302,
    "▁پنج": 303,
    "▁منبع": 304,
    "▁برابر": 305,
    "▁د": 306,
    "یت": 307,
    "▁اقتصاد": 308,
    "▁کمک": 309,
    "▁تاریخ": 310,
    "نه": 311,
    "▁برای": 312,
    "▁حالا": 313,
    "▁مرکزی": 314,
    "▁دوم": 315,
    "▁دهه": 316,
    "▁اثر": 317,
    "▁منطقه": 318,
    "شان": 319,
    "▁بسیار": 320,
    "▁دوره": 321,
    "▁خودرو": 322,
    "▁مهم": 323,
    "قط": 324,
    "▁۱۹": 325,
    "ثبت": 326,
    "▁پی": 327,
    "▁هم": 328,
    "▁درگذشت": 329,
    "▁موسیقی": 330,
    "▁نقش": 331,
    "▁مرکز": 332,
    "▁دی": 333,
    "▁پیدا": 334,
    "▁رسمی": 335,
    "▁سرمایه": 336,
    "▁همراه": 337,
    "▁آمار": 338,
    "▁آخر": 339,
    "ده": 340,
    "یک": 341,
    "یه": 342,
    "▁قهرمانی": 343,
    "▁زن": 344,
    "▁رسیده": 345,
    "شروع": 346,
    "▁بعضی": 347,
    "نامه": 348,
    "▁کنار": 349,
    "▁رقابت": 350,
    "▁ر": 351,
    "▁آمریکایی": 352,
    "▁نوشته": 353,
    "▁برجام": 354,
    "▁هسته": 355,
    "▁اصلی": 356,
    "▁پول": 357,
    "▁عکس": 358,
    "ک": 359,
    "شورای": 360,
    "▁مراسم": 361,
    "▁جمهور": 362,
    "▁اطلاعات": 363,
    "▁شکست": 364,
    "▁نشده": 365,
    "▁برخ": 366,
    "▁بررسی": 367,
    "▁دنیا": 368,
    "▁ویژ": 369,
    "▁سفر": 370,
    "▁پرسپولیس": 371,
    "▁زیر": 372,
    "▁اعتراض": 373,
    "▁ممکن": 374,
    "نی": 375,
    "ایی": 376,
    "▁۵": 377,
    "▁استقلال": 378,
    "▁۴": 379,
    "▁استان": 380,
    "▁همکاری": 381,
    "▁نتیج": 382,
    "▁شش": 383,
    "▁کل": 384,
    "ست": 385,
    "▁توجه": 386,
    "▁بالا": 387,
    "▁اینک": 388,
    "▁کشتی": 389,
    "▁که": 390,
    "▁دنبال": 391,
    "▁حمله": 392,
    "▁جایزه": 393,
    "▁حاضر": 394,
    "▁عراق": 395,
    "▁آزاد": 396,
    "▁میلادی": 397,
    "▁یافته": 398,
    "▁کمتر": 399,
    "▁۱۰": 400,
    "▁سیاسی": 401,
    "▁حمایت": 402,
    "▁رفت": 403,
    "▁واکنش": 404,
    "▁دور": 405,
    "▁ساعت": 406,
    "توسط": 407,
    "ها": 408,
    "با": 409,
    "▁آب": 410,
    "▁آ": 411,
    "▁ترکیه": 412,
    "▁۲": 413,
    "▁بازیکن": 414,
    "▁پرداخت": 415,
    "▁دریافت": 416,
    "▁دانشگاه": 417,
    "▁فدراسیون": 418,
    "بر": 419,
    "▁الله": 420,
    "▁نیمه": 421,
    "▁انتشار": 422,
    "▁کتاب": 423,
    "▁مالی": 424,
    "▁آلمان": 425,
    "▁دهند": 426,
    "▁فرانسه": 427,
    "▁سیاست": 428,
    "▁خاطر": 429,
    "▁مدیر": 430,
    "▁روند": 431,
    "▁انرژی": 432,
    "▁او": 433,
    "▁مجموعه": 434,
    "▁رشد": 435,
    "▁هدف": 436,
    "گان": 437,
    "▁طی": 438,
    "▁ندارد": 439,
    "▁عرض": 440,
    "▁ترامپ": 441,
    "▁کر": 442,
    "ِ": 443,
    "▁گذاری": 444,
    "حتی": 445,
    "▁موضوع": 446,
    "▁آژانس": 447,
    "▁شنبه": 448,
    "▁اتحاد": 449,
    "▁کنیم": 450,
    "ری": 451,
    "▁مذاکرات": 452,
    "▁بهداشت": 453,
    ")": 454,
    "▁آمده": 455,
    "▁سهام": 456,
    "▁هشدار": 457,
    "▁شمار": 458,
    "▁این": 459,
    "▁رسد": 460,
    "اکنون": 461,
    "▁ایجاد": 462,
    "▁هفت": 463,
    "گیری": 464,
    "▁سازی": 465,
    "▁رو": 466,
    "▁مبارز": 467,
    "▁۶": 468,
    "▁دیدار": 469,
    "▁کشته": 470,
    "▁خواهند": 471,
    "▁مربوط": 472,
    "▁متهم": 473,
    "▁خرید": 474,
    "▁آزمایش": 475,
    "▁عربستان": 476,
    "▁سابق": 477,
    "▁نامه": 478,
    "▁بازیکنان": 479,
    "▁خارجی": 480,
    "▁ده": 481,
    "▁۲۰۲۰": 482,
    "▁بودجه": 483,
    "▁نیاز": 484,
    "▁اشار": 485,
    "▁تایید": 486,
    "▁یافت": 487,
    "کسب": 488,
    "▁ح": 489,
    "▁(": 490,
    "▁چنین": 491,
    "▁تلویزیون": 492,
    "▁رهبر": 493,
    "▁مرگ": 494,
    "خانه": 495,
    "▁اقدام": 496,
    "▁۳": 497,
    "از": 498,
    "▁دادگاه": 499,
    "▁دولتی": 500,
    "ای": 501,
    "▁زبان": 502,
    "▁بازداشت": 503,
    "▁قهرمانان": 504,
    "▁پیروز": 505,
    "▁اجرای": 506,
    "▁همان": 507,
    "▁انسان": 508,
    "▁جنوبی": 509,
    "▁بیمارستان": 510,
    "▁قابل": 511,
    "▁محل": 512,
    "▁فاصله": 513,
    "▁حسن": 514,
    "▁مرد": 515,
    "▁تاثیر": 516,
    "▁دیده": 517,
    "▁نهایی": 518,
    "زاری": 519,
    "▁میزان": 520,
    "▁زده": 521,
    "▁ورزش": 522,
    "نوز": 523,
    "▁خبرگ": 524,
    "می": 525,
    "▁معاون": 526,
    "▁تبدیل": 527,
    "▁زمانی": 528,
    "▁ج": 529,
    "▁مدل": 530,
    "▁جریان": 531,
    "▁ساخت": 532,
    "▁مشخص": 533,
    "▁حکومت": 534,
    "▁کننده": 535,
    "یم": 536,
    "▁محدودیت": 537,
    "▁قانون": 538,
    "▁زمینه": 539,
    "▁ابتلا": 540,
    "▁صد": 541,
    "▁صنعت": 542,
    "▁نا": 543,
    "▁نمایش": 544,
    "▁لندن": 545,
    "▁خط": 546,
    "▁تعطیل": 547,
    "▁طول": 548,
    "▁شناخت": 549,
    "▁زندان": 550,
    "▁منابع": 551,
    "▁آسیا": 552,
    "▁جلو": 553,
    "▁انگلیس": 554,
    "▁درآمد": 555,
    "▁خام": 556,
    "▁بشر": 557,
    "▁ساخته": 558,
    "▁بازگشت": 559,
    "ون": 560,
    "▁آثار": 561,
    "▁.": 562,
    "▁سالگی": 563,
    "▁نامزد": 564,
    "چه": 565,
    "▁امنیت": 566,
    "▁سرمربی": 567,
    "▁نگاه": 568,
    "▁بیانیه": 569,
    "▁رای": 570,
    "▁تعداد": 571,
    "▁سطح": 572,
    "▁چیز": 573,
    "▁چرا": 574,
    "طرح": 575,
    "▁نمایند": 576,
    "▁روسیه": 577,
    "▁صادرات": 578,
    "▁پلیس": 579,
    "▁اتمی": 580,
    "▁نمایندگان": 581,
    "▁سو": 582,
    "▁سخنگوی": 583,
    "▁اعضای": 584,
    "▁حکم": 585,
    "▁خطر": 586,
    "▁کمی": 587,
    "▁بالای": 588,
    "▁کابل": 589,
    "▁همزمان": 590,
    "▁عمومی": 591,
    "▁سوم": 592,
    "▁۲۰۰": 593,
    "▁لیورپول": 594,
    "▁رود": 595,
    "▁طرف": 596,
    "▁نقل": 597,
    "▁جو": 598,
    "▁شکل": 599,
    "▁رکورد": 600,
    "▁امنیتی": 601,
    "▁تو": 602,
    "▁جلس": 603,
    "▁انتخاب": 604,
    "▁قرنطینه": 605,
    "▁رد": 606,
    "▁۲۵": 607,
    "▁ارزش": 608,
    "▁نسبت": 609,
    "▁شورا": 610,
    "▁آی": 611,
    "▁المپیک": 612,
    "▁جاری": 613,
    "▁انقلاب": 614,
    "▁جا": 615,
    "روز": 616,
    "▁ترک": 617,
    "▁سپاه": 618,
    "▁نیم": 619,
    "▁اسرائیل": 620,
    "▁عضو": 621,
    "▁ام": 622,
    "▁سخت": 623,
    "▁جنگ": 624,
    "▁۳۰": 625,
    "مین": 626,
    "▁گو": 627,
    "▁کامل": 628,
    "▁لغو": 629,
    "▁تنیس": 630,
    "▁سن": 631,
    "▁برد": 632,
    "خیلی": 633,
    "ره": 634,
    "▁گرفتن": 635,
    "▁بهتری": 636,
    "ینه": 637,
    "▁ظریف": 638,
    "▁حرکت": 639,
    "▁دیگری": 640,
    "▁برق": 641,
    "▁بخشی": 642,
    "▁نشست": 643,
    "▁افت": 644,
    "▁سابقه": 645,
    "▁مرح": 646,
    "▁ارائه": 647,
    "ال": 648,
    "▁برنده": 649,
    "▁سینما": 650,
    "▁متحده": 651,
    "▁پزشکی": 652,
    "ور": 653,
    "▁گسترده": 654,
    "▁آیا": 655,
    "▁گاز": 656,
    "-": 657,
    "▁بایدن": 658,
    "▁امور": 659,
    "▁شدید": 660,
    "▁فشار": 661,
    "▁روزهای": 662,
    "▁تع": 663,
    "▁نگرانی": 664,
    "▁امتیاز": 665,
    "▁تورم": 666,
    "▁توانست": 667,
    "ق": 668,
    "▁تح": 669,
    "▁هوای": 670,
    "▁انتقال": 671,
    "▁نوشت": 672,
    "▁نکرده": 673,
    "▁معرف": 674,
    "▁وی": 675,
    "▁طراح": 676,
    "▁۱۳": 677,
    "▁پاسخ": 678,
    "▁اج": 679,
    "▁آزادی": 680,
    "▁دانست": 681,
    "▁خودش": 682,
    "▁متوقف": 683,
    "▁فرهنگی": 684,
    "▁جدی": 685,
    "▁چ": 686,
    "▁هند": 687,
    "▁نظامی": 688,
    "▁عالی": 689,
    "▁چشم": 690,
    "▁چهر": 691,
    "▁جامعه": 692,
    "▁هز": 693,
    "▁رفته": 694,
    "▁بحران": 695,
    "▁ورود": 696,
    "▁۱۵": 697,
    "▁بست": 698,
    "▁جای": 699,
    "▁کشید": 700,
    "▁مصاحبه": 701,
    "▁مشکلات": 702,
    "▁خوب": 703,
    "▁خانم": 704,
    "▁دادن": 705,
    "▁ورزشی": 706,
    "▁دستگاه": 707,
    "▁گذاشته": 708,
    "ازه": 709,
    "▁داخل": 710,
    "▁قو": 711,
    "اما": 712,
    "▁بلند": 713,
    "▁باشند": 714,
    "ف": 715,
    "▁بشک": 716,
    "الات": 717,
    "▁اتفاق": 718,
    "ستاره": 719,
    "▁بینی": 720,
    "▁قطع": 721,
    "▁۱۲": 722,
    "▁انتظار": 723,
    "▁داستان": 724,
    "وز": 725,
    "▁ارتباط": 726,
    "▁تاریخی": 727,
    "▁اسفند": 728,
    "▁کودکان": 729,
    "▁شدت": 730,
    "▁تن": 731,
    "▁نفتی": 732,
    "▁۷": 733,
    "▁محکوم": 734,
    "سی": 735,
    "▁داشتند": 736,
    "▁هنگام": 737,
    "▁بهتر": 738,
    "▁سیستم": 739,
    "▁فینال": 740,
    "▁آبان": 741,
    "▁نوع": 742,
    "▁الکتریکی": 743,
    "▁۱۴۰۰": 744,
    "▁۱": 745,
    "▁رقم": 746,
    "▁مارادونا": 747,
    "▁نو": 748,
    "▁پیشین": 749,
    "▁کسان": 750,
    "▁کس": 751,
    "▁فروردین": 752,
    "▁۲۰۱۹": 753,
    "▁داخلی": 754,
    "▁چگون": 755,
    "▁مسئولان": 756,
    "▁ورزشگاه": 757,
    "▁دوبار": 758,
    "▁قدرت": 759,
    "▁صندوق": 760,
    "▁مانده": 761,
    "▁فرهنگ": 762,
    "▁دار": 763,
    "لی": 764,
    "▁فارسی": 765,
    "▁انتقاد": 766,
    "▁موج": 767,
    "▁تحقیقات": 768,
    "▁کووید": 769,
    "▁کلی": 770,
    "▁بارسلونا": 771,
    "▁ایتالیا": 772,
    "دی": 773,
    "▁مصوب": 774,
    "▁قرارداد": 775,
    "▁چهارم": 776,
    "▁نبود": 777,
    "رونده": 778,
    "▁اروپایی": 779,
    "▁اتهام": 780,
    "نده": 781,
    "▁شامل": 782,
    "▁آنچ": 783,
    "▁تحقیق": 784,
    "▁تصوی": 785,
    "▁جمعیت": 786,
    "▁موسس": 787,
    "۸": 788,
    "▁دوشنبه": 789,
    "▁اسکار": 790,
    "▁جنوب": 791,
    "وی": 792,
    "▁مرغ": 793,
    "▁قبلی": 794,
    "▁مربی": 795,
    "▁سیاه": 796,
    "▁فعال": 797,
    "▁نیروهای": 798,
    "▁نهاد": 799,
    "▁طولانی": 800,
    "▁دونالد": 801,
    "▁آمد": 802,
    "▁۹": 803,
    "ستاد": 804,
    "▁روزنامه": 805,
    "▁معاملات": 806,
    "▁گیرد": 807,
    "▁فکر": 808,
    "▁شهرهای": 809,
    "▁یاد": 810,
    "▁کنید": 811,
    "▁قرن": 812,
    "بی": 813,
    "▁دقیقه": 814,
    "▁محیط": 815,
    "▁خروج": 816,
    "▁ماسک": 817,
    "▁ناشی": 818,
    "▁دادند": 819,
    "▁طر": 820,
    "▁سایر": 821,
    "▁هنر": 822,
    "▁تشکیل": 823,
    "▁مبتلا": 824,
    "▁جشنواره": 825,
    "▁پشت": 826,
    "▁شکایت": 827,
    "▁بودن": 828,
    "▁امکان": 829,
    "▁۶۰": 830,
    "▁مشکل": 831,
    "▁غنی": 832,
    "▁هنری": 833,
    "▁فن": 834,
    "▁دستور": 835,
    "▁کارگران": 836,
    "▁شجریان": 837,
    "▁پروژه": 838,
    "▁محلی": 839,
    "▁۲۲": 840,
    "▁طبق": 841,
    "▁واحد": 842,
    "▁تامین": 843,
    "▁تجاری": 844,
    "▁ملل": 845,
    "▁درمان": 846,
    "▁اجرا": 847,
    "▁احتمال": 848,
    "▁سریال": 849,
    "▁ع": 850,
    "▁حساب": 851,
    "▁ممنوع": 852,
    "▁تاکید": 853,
    "▁قوانین": 854,
    "▁نویسنده": 855,
    "▁پرو": 856,
    "▁نیروی": 857,
    "▁کنم": 858,
    "▁گ": 859,
    "▁آسیب": 860,
    "پس": 861,
    "ج": 862,
    "▁واردات": 863,
    "▁علت": 864,
    "▁شاخص": 865,
    "گاه": 866,
    "▁فضای": 867,
    "▁متفاوت": 868,
    "▁شماری": 869,
    "▁دسترس": 870,
    "▁باقی": 871,
    "▁۸": 872,
    "▁ابتدای": 873,
    "▁کنترل": 874,
    "▁درخواست": 875,
    "▁ضرب": 876,
    "▁تک": 877,
    "▁کارگردان": 878,
    "نگ": 879,
    "یق": 880,
    "انی": 881,
    "▁آورد": 882,
    "▁یع": 883,
    "▁شان": 884,
    "▁سیتی": 885,
    "▁ترتیب": 886,
    "▁محدود": 887,
    "▁آتش": 888,
    "▁قرمز": 889,
    "▁نقاشی": 890,
    "▁بندی": 891,
    "▁تجرب": 892,
    "▁مسی": 893,
    "▁فعالان": 894,
    "▁نگهبان": 895,
    "▁اولیه": 896,
    "▁فهرست": 897,
    "▁چپ": 898,
    "▁تهدید": 899,
    "▁علاو": 900,
    "▁مسیر": 901,
    "▁۱۱": 902,
    "▁اختیار": 903,
    "▁اف": 904,
    "▁آوریل": 905,
    "▁پایین": 906,
    "▁سنت": 907,
    "▁پای": 908,
    "۰": 909,
    "▁عامل": 910,
    "▁عباس": 911,
    "▁شما": 912,
    "▁چهارشنبه": 913,
    "▁یکشنبه": 914,
    "▁صحبت": 915,
    "▁کوتاه": 916,
    "▁گذشت": 917,
    "▁هایش": 918,
    "▁روبرو": 919,
    "▁همیشه": 920,
    "▁جمعه": 921,
    "▁ونزوئلا": 922,
    "▁مشترک": 923,
    "▁بنزین": 924,
    "▁کوچک": 925,
    "▁ط": 926,
    "▁رنگ": 927,
    "▁۴۰": 928,
    "سیون": 929,
    "▁زد": 930,
    "۴": 931,
    "▁مواد": 932,
    "▁اعدام": 933,
    "▁سوخت": 934,
    "▁وین": 935,
    "▁حذف": 936,
    "▁بتوان": 937,
    "▁بیرون": 938,
    "▁زاده": 939,
    "▁صفح": 940,
    "▁ترکیب": 941,
    "۰۰": 942,
    "▁مسئول": 943,
    "▁موارد": 944,
    "▁احمد": 945,
    "▁روابط": 946,
    "▁نژاد": 947,
    "▁خصوصی": 948,
    "▁بگیرد": 949,
    "▁چاپ": 950,
    "▁اتاق": 951,
    "یی": 952,
    "▁توپ": 953,
    "▁رییس": 954,
    "▁۵۰": 955,
    "▁هرات": 956,
    "▁شهروندان": 957,
    "▁محمود": 958,
    "▁صادر": 959,
    "▁عمل": 960,
    "▁من": 961,
    "▁اس": 962,
    "▁آرژانتین": 963,
    "حفظ": 964,
    "▁سمت": 965,
    "▁حرفه": 966,
    "۲": 967,
    "▁احتمالا": 968,
    "▁هشت": 969,
    "▁خوانده": 970,
    "طور": 971,
    "▁مرتبط": 972,
    "▁خوزستان": 973,
    "▁نقطه": 974,
    "▁سراسر": 975,
    "▁میزبان": 976,
    "▁فرد": 977,
    "▁قطر": 978,
    "سازی": 979,
    "▁احیا": 980,
    "اساس": 981,
    "▁حل": 982,
    "▁سرعت": 983,
    "▁خون": 984,
    "▁هوا": 985,
    "▁۱۴": 986,
    "▁ال": 987,
    "▁آستان": 988,
    "▁اختلاف": 989,
    "▁ولایت": 990,
    "▁انفجار": 991,
    "ید": 992,
    "▁قصد": 993,
    "▁بارها": 994,
    "▁اندازه": 995,
    "▁کالا": 996,
    "▁کیلومتر": 997,
    "▁نظام": 998,
    "▁شاهد": 999,
    "▁بیست": 1000,
    "▁امضا": 1001,
    "مه": 1002,
    "▁جمع": 1003,
    "▁سلامت": 1004,
    "▁ما": 1005,
    "▁اخیرا": 1006,
    "▁سقوط": 1007,
    "▁متر": 1008,
    "▁دفاع": 1009,
    "▁سرطان": 1010,
    "▁برده": 1011,
    "▁بیشتری": 1012,
    "▁بدن": 1013,
    "▁شاید": 1014,
    "▁تاکنون": 1015,
    "▁اطلاع": 1016,
    "▁شناس": 1017,
    "▁غرب": 1018,
    "▁مارس": 1019,
    "▁نتایج": 1020,
    "▁مصرف": 1021,
    "▁جهش": 1022,
    "▁۱۶": 1023,
    "▁هواپیمایی": 1024,
    "▁کاملا": 1025,
    "▁جز": 1026,
    "▁۲۰۱": 1027,
    "▁بازیگر": 1028,
    "▁لازم": 1029,
    "▁معروف": 1030,
    "▁توییتر": 1031,
    "▁افتاد": 1032,
    "▁قانونی": 1033,
    "▁روشن": 1034,
    "▁فرصت": 1035,
    "▁هواداران": 1036,
    "▁دارایی": 1037,
    "▁۱۷": 1038,
    "یین": 1039,
    "▁تا": 1040,
    "▁مه": 1041,
    "لق": 1042,
    "▁ندارند": 1043,
    "▁مناطق": 1044,
    "▁اعمال": 1045,
    "▁تقریبا": 1046,
    "▁پارسال": 1047,
    "▁تجارت": 1048,
    "رفع": 1049,
    "▁پیشنهاد": 1050,
    "▁کنندگان": 1051,
    "▁عد": 1052,
    "▁آماده": 1053,
    "▁نهادهای": 1054,
    "▁اداره": 1055,
    "۵": 1056,
    "▁مرز": 1057,
    "▁ان": 1058,
    "▁گفتگو": 1059,
    "▁کاری": 1060,
    "▁بریتانیایی": 1061,
    "▁نظیر": 1062,
    "▁موفق": 1063,
    "▁واقع": 1064,
    "▁تجمع": 1065,
    "▁پاریس": 1066,
    "▁استرالیا": 1067,
    "▁رسیدن": 1068,
    "▁شمال": 1069,
    "▁گروهی": 1070,
    "▁افغان": 1071,
    "▁ق": 1072,
    "▁رعایت": 1073,
    "▁کارگر": 1074,
    "▁یورو": 1075,
    "▁هنو": 1076,
    "▁صفر": 1077,
    "▁مذاکر": 1078,
    "▁حادثه": 1079,
    "▁عملیات": 1080,
    "▁اقدامات": 1081,
    "▁۹۸": 1082,
    "▁دلایل": 1083,
    "▁اعتراضات": 1084,
    "▁فضایی": 1085,
    "▁رفتن": 1086,
    "▁ماند": 1087,
    "▁توسعه": 1088,
    "▁۲۰۲۱": 1089,
    "▁عملکرد": 1090,
    "▁اوپک": 1091,
    "▁تصاویر": 1092,
    "▁تاج": 1093,
    "▁کن": 1094,
    "▁۱۸": 1095,
    "▁مشهور": 1096,
    "▁پژوهش": 1097,
    "▁مردان": 1098,
    "▁مقایس": 1099,
    "▁طلا": 1100,
    "▁بحرین": 1101,
    "▁پرواز": 1102,
    "علی": 1103,
    "▁قلب": 1104,
    "▁خ": 1105,
    "▁باخت": 1106,
    "▁زنده": 1107,
    "▁دهم": 1108,
    "▁تابستان": 1109,
    "▁دومین": 1110,
    "▁بد": 1111,
    "▁ماهه": 1112,
    "▁تاجیکستان": 1113,
    "▁کشف": 1114,
    "▁یونایتد": 1115,
    "▁خودروساز": 1116,
    "تی": 1117,
    "▁انگیز": 1118,
    "▁حد": 1119,
    "▁مواجه": 1120,
    "▁پایتخت": 1121,
    "▁مد": 1122,
    "▁پا": 1123,
    "▁خواننده": 1124,
    "۶": 1125,
    "▁بخوانید": 1126,
    "▁توصیف": 1127,
    "▁سفید": 1128,
    "▁مالیات": 1129,
    "▁فوت": 1130,
    "▁بالاتر": 1131,
    "▁۵۰۰": 1132,
    "▁واکسین": 1133,
    "ع": 1134,
    "▁سنگ": 1135,
    "▁حق": 1136,
    "ایران": 1137,
    "▁کاخ": 1138,
    "▁سنگین": 1139,
    "▁رانند": 1140,
    "▁جنسی": 1141,
    "▁رشت": 1142,
    "▁موفقیت": 1143,
    "▁پخ": 1144,
    "حه": 1145,
    "▁محمو": 1146,
    "▁مانع": 1147,
    "یون": 1148,
    "▁خواهان": 1149,
    "▁رساند": 1150,
    "▁مجموع": 1151,
    "▁منتق": 1152,
    "▁تهی": 1153,
    "▁بال": 1154,
    "▁سود": 1155,
    "عده": 1156,
    "▁مهر": 1157,
    "▁ایمن": 1158,
    "▁مجدد": 1159,
    "▁سریع": 1160,
    "▁مشابه": 1161,
    "▁برخورد": 1162,
    "▁نشد": 1163,
    "▁۱۰۰": 1164,
    "▁کانال": 1165,
    "▁بهبود": 1166,
    "براز": 1167,
    "▁کدام": 1168,
    "▁پور": 1169,
    "▁مشغول": 1170,
    "▁مجبور": 1171,
    "▁نظارت": 1172,
    "▁مجوز": 1173,
    "▁خصوص": 1174,
    "▁برسد": 1175,
    "▁موافقت": 1176,
    "▁گردد": 1177,
    "▁اسپانیا": 1178,
    "▁گمرک": 1179,
    "▁بیکار": 1180,
    "▁صدای": 1181,
    "▁تغییرات": 1182,
    "▁روش": 1183,
    "▁گون": 1184,
    "▁زیست": 1185,
    "ممنوعیت": 1186,
    "۳": 1187,
    "▁رکود": 1188,
    "▁موزه": 1189,
    "▁عمده": 1190,
    "▁نسل": 1191,
    "▁پیام": 1192,
    "گر": 1193,
    "▁سایت": 1194,
    "▁خالی": 1195,
    "اخر": 1196,
    "▁محروم": 1197,
    "▁کشورها": 1198,
    "▁دنیای": 1199,
    "▁فدرر": 1200,
    "▁کمیت": 1201,
    "▁کنون": 1202,
    "▁واقعی": 1203,
    "▁آید": 1204,
    "▁مستند": 1205,
    "▁حوز": 1206,
    "▁نفتکش": 1207,
    "▁حت": 1208,
    "▁افتاده": 1209,
    "▁مل": 1210,
    "▁خواند": 1211,
    "▁سفیر": 1212,
    "▁بحث": 1213,
    "▁چلسی": 1214,
    "▁خاک": 1215,
    "▁نگران": 1216,
    "▁خبرنگار": 1217,
    "▁عبور": 1218,
    "▁مت": 1219,
    "▁ارزی": 1220,
    "مان": 1221,
    "▁دچار": 1222,
    "▁ظرف": 1223,
    "▁احمدی": 1224,
    "▁فساد": 1225,
    "▁جدول": 1226,
    "▁طبیعی": 1227,
    "▁علمی": 1228,
    "▁مجازی": 1229,
    "▁صدا": 1230,
    "▁ابتدا": 1231,
    "▁تماشاگر": 1232,
    "▁شاه": 1233,
    "▁سوار": 1234,
    "▁یابد": 1235,
    "▁حداقل": 1236,
    "▁ژوئن": 1237,
    "▁پدر": 1238,
    "▁تاتنهام": 1239,
    "▁لای": 1240,
    "▁خودروهای": 1241,
    "▁سا": 1242,
    "▁گذار": 1243,
    "▁رمان": 1244,
    "▁رفتار": 1245,
    "▁اضاف": 1246,
    "▁ایالت": 1247,
    "▁مر": 1248,
    "▁ارشد": 1249,
    "▁اینترنت": 1250,
    "▁منچستر": 1251,
    "▁زخم": 1252,
    "▁مادر": 1253,
    "▁پیشتر": 1254,
    "▁ز": 1255,
    "▁بهمن": 1256,
    "▁گذاشت": 1257,
    "اس": 1258,
    "▁دریا": 1259,
    "یر": 1260,
    "▁بازارهای": 1261,
    "یا": 1262,
    "▁تی": 1263,
    "ام": 1264,
    "▁دفتر": 1265,
    "▁فنی": 1266,
    "▁حریف": 1267,
    "خبرگزا": 1268,
    "۷": 1269,
    "▁جشن": 1270,
    "▁عهد": 1271,
    "▁درست": 1272,
    "▁وضع": 1273,
    "▁۲۴": 1274,
    "▁شعر": 1275,
    "▁چه": 1276,
    "▁میدان": 1277,
    "▁مادرید": 1278,
    "▁مغز": 1279,
    "▁سینمایی": 1280,
    "▁مجله": 1281,
    "▁۲۳": 1282,
    "▁بهار": 1283,
    "▁جنگل": 1284,
    "▁کودک": 1285,
    "▁پروازهای": 1286,
    "▁۹۰": 1287,
    "دو": 1288,
    "وایل": 1289,
    "▁۱۳۹۹": 1290,
    "▁قدیمی": 1291,
    "محمد": 1292,
    "▁پنجم": 1293,
    "▁ل": 1294,
    "▁رخ": 1295,
    "▁اورا": 1296,
    "▁کارشناسان": 1297,
    "▁حسین": 1298,
    "ویه": 1299,
    "▁برداشت": 1300,
    "▁توضیح": 1301,
    "ریق": 1302,
    "▁صبح": 1303,
    "▁هدایت": 1304,
    "باره": 1305,
    "▁پل": 1306,
    "▁پوند": 1307,
    "▁فارس": 1308,
    "خش": 1309,
    "▁راست": 1310,
    "▁ژاپن": 1311,
    "بیشتر": 1312,
    "▁جدا": 1313,
    "▁امیر": 1314,
    "▁حزب": 1315,
    "▁پاسداران": 1316,
    "▁عدالت": 1317,
    "▁معتقد": 1318,
    "▁دختر": 1319,
    "▁رابطه": 1320,
    "▁امیدوار": 1321,
    "نمایی": 1322,
    "▁حرف": 1323,
    "▁گر": 1324,
    "▁بو": 1325,
    "▁اوت": 1326,
    "▁بنز": 1327,
    "▁بستر": 1328,
    "▁سکه": 1329,
    "▁-": 1330,
    "▁نقاط": 1331,
    "▁تورنمنت": 1332,
    "▁سوئیس": 1333,
    "▁قاچاق": 1334,
    "عودی": 1335,
    "▁دوست": 1336,
    "▁درواز": 1337,
    "▁مخالفت": 1338,
    "▁موجب": 1339,
    "▁اوراق": 1340,
    "▁دارو": 1341,
    "▁سعید": 1342,
    "نیوم": 1343,
    "▁روزانه": 1344,
    "▁نشری": 1345,
    "▁انگلستان": 1346,
    "▁مقررات": 1347,
    "▁گوش": 1348,
    "▁سرشناس": 1349,
    "▁اردیبهشت": 1350,
    "▁موجود": 1351,
    "▁ضد": 1352,
    "▁زدن": 1353,
    "▁سوریه": 1354,
    "▁خورد": 1355,
    "▁جایی": 1356,
    "اسیون": 1357,
    "۱": 1358,
    "▁دکتر": 1359,
    "▁ملت": 1360,
    "▁دید": 1361,
    "▁زنی": 1362,
    "▁ارتش": 1363,
    "▁اظهارات": 1364,
    "▁فر": 1365,
    "▁بیمار": 1366,
    "▁صدر": 1367,
    "▁۲۸": 1368,
    "▁امید": 1369,
    "▁کارکنان": 1370,
    "▁فرستاد": 1371,
    "▁تقوی": 1372,
    "▁شرق": 1373,
    "▁فراهم": 1374,
    "▁آلبوم": 1375,
    "▁قتل": 1376,
    "▁جنجال": 1377,
    "▁بنا": 1378,
    "▁زندانی": 1379,
    "▁دقیق": 1380,
    "▁ترانه": 1381,
    "▁آورده": 1382,
    "▁اساسی": 1383,
    "ط": 1384,
    "تر": 1385,
    "▁تعدادی": 1386,
    "▁احساس": 1387,
    "▁قضائیه": 1388,
    "▁بایرن": 1389,
    "▁هستیم": 1390,
    "▁دانند": 1391,
    "▁ساختمان": 1392,
    "۹": 1393,
    "▁نویس": 1394,
    "داری": 1395,
    "▁آوری": 1396,
    "▁امام": 1397,
    "کس": 1398,
    "▁هنرمند": 1399,
    "▁قضایی": 1400,
    "▁بیت": 1401,
    "▁جدیدی": 1402,
    "یات": 1403,
    "▁غربی": 1404,
    "▁دانشمندان": 1405,
    "▁انگلیسی": 1406,
    "▁وابست": 1407,
    "▁زود": 1408,
    "▁معادل": 1409,
    "▁جزئیات": 1410,
    "▁آموزش": 1411,
    "▁آلمانی": 1412,
    "گ": 1413,
    "▁نداشته": 1414,
    "▁علیرضا": 1415,
    "▁کارهای": 1416,
    "▁اجرایی": 1417,
    "▁قطعی": 1418,
    "▁بهداشتی": 1419,
    "▁روایت": 1420,
    "▁مک": 1421,
    "▁مثبت": 1422,
    "▁فیفا": 1423,
    "▁سخنران": 1424,
    "▁قبلا": 1425,
    "▁دریایی": 1426,
    "▁سینمای": 1427,
    "▁چندان": 1428,
    "▁آبی": 1429,
    "▁ظاهر": 1430,
    "▁رونالدو": 1431,
    "▁کالاهای": 1432,
    "▁مستقیم": 1433,
    "▁وزن": 1434,
    "▁استاد": 1435,
    "▁زاغری": 1436,
    "▁هوشمند": 1437,
    "▁استقبال": 1438,
    "▁دوربین": 1439,
    "▁علاقه": 1440,
    "▁تزریق": 1441,
    "▁عجیب": 1442,
    "▁کمبود": 1443,
    "▁رویترز": 1444,
    "▁تیراندازی": 1445,
    "▁تشخیص": 1446,
    "▁۲۱": 1447,
    "▁جوان": 1448,
    "▁منف": 1449,
    "▁خورشیدی": 1450,
    "▁ژان": 1451,
    "▁همسر": 1452,
    "▁افزوده": 1453,
    "▁مسکن": 1454,
    "▁مسدود": 1455,
    "▁خدمات": 1456,
    "▁خانگی": 1457,
    "▁تماس": 1458,
    "▁مرداد": 1459,
    "▁سفارت": 1460,
    "▁گستر": 1461,
    "▁دبیر": 1462,
    "▁مدیریت": 1463,
    "▁شخصیت": 1464,
    "▁متع": 1465,
    "▁مقامات": 1466,
    "▁شخصی": 1467,
    "▁دریای": 1468,
    "▁دل": 1469,
    "▁نهایت": 1470,
    "▁ژوئیه": 1471,
    "▁اخراج": 1472,
    "▁سند": 1473,
    "▁قسمت": 1474,
    "▁بنابر": 1475,
    "▁محمدرضا": 1476,
    "کنندگان": 1477,
    "▁قدم": 1478,
    "▁خواهیم": 1479,
    "▁صحنه": 1480,
    "▁اقیانوس": 1481,
    "فورد": 1482,
    "▁پیشرفت": 1483,
    "▁متوسط": 1484,
    "▁فوری": 1485,
    "▁محصولات": 1486,
    "▁داریم": 1487,
    "▁گرفتند": 1488,
    "▁فعلی": 1489,
    "▁نور": 1490,
    "▁بازرگانی": 1491,
    "▁فوریه": 1492,
    "▁راهی": 1493,
    "▁بیماران": 1494,
    "پ": 1495,
    "فدراسیون": 1496,
    "▁تومانی": 1497,
    "▁مالک": 1498,
    "▁پوست": 1499,
    "▁بن": 1500,
    "▁غذا": 1501,
    "▁مکان": 1502,
    "▁مدافع": 1503,
    "▁چک": 1504,
    "▁دوچرخه": 1505,
    "▁مدعی": 1506,
    "▁طالبان": 1507,
    "▁موقت": 1508,
    "▁معترضان": 1509,
    "▁توصی": 1510,
    "مهدی": 1511,
    "▁رضا": 1512,
    "▁معنای": 1513,
    "▁ساز": 1514,
    "ازگی": 1515,
    "▁پیوست": 1516,
    "گاهی": 1517,
    "▁پذیر": 1518,
    "توجه": 1519,
    "▁العاده": 1520,
    "▁موقعیت": 1521,
    "▁لحظ": 1522,
    "▁جوایز": 1523,
    "▁کاربران": 1524,
    "▁خرداد": 1525,
    "▁کوین": 1526,
    "▁معمولا": 1527,
    "▁حداکثر": 1528,
    "▁دانش": 1529,
    "▁رئال": 1530,
    "▁فرمانده": 1531,
    "▁مجید": 1532,
    "▁ناظر": 1533,
    "▁۳۰۰": 1534,
    "▁جمعی": 1535,
    "▁۲۰۱۷": 1536,
    "▁مبلغ": 1537,
    "▁نوامبر": 1538,
    "▁مبتلایان": 1539,
    "▁سرخ": 1540,
    "▁نشود": 1541,
    "▁سیستان": 1542,
    "▁نخواه": 1543,
    "▁صوتی": 1544,
    "▁ارسال": 1545,
    "▁۲۶": 1546,
    "▁صعود": 1547,
    "▁نداشت": 1548,
    "▁دین": 1549,
    "▁کنونی": 1550,
    "کی": 1551,
    "ول": 1552,
    "▁گرم": 1553,
    "▁خورده": 1554,
    "▁مهار": 1555,
    "▁غذای": 1556,
    "▁نقدینگی": 1557,
    "▁بلوچستان": 1558,
    "▁اسطوره": 1559,
    "▁پنجشنبه": 1560,
    "▁مراجع": 1561,
    "▁تخریب": 1562,
    "▁مطالع": 1563,
    "▁تقاضا": 1564,
    "▁۷۰": 1565,
    "▁مدیران": 1566,
    "▁سوال": 1567,
    "ح": 1568,
    "نقض": 1569,
    "رد": 1570,
    "▁اوج": 1571,
    "▁درآمدهای": 1572,
    "وم": 1573,
    "▁شهروند": 1574,
    "▁اصلاح": 1575,
    "▁فرزند": 1576,
    "▁صنایع": 1577,
    "▁مسلح": 1578,
    "▁خلق": 1579,
    "▁فایل": 1580,
    "▁ماموران": 1581,
    "▁نیویورک": 1582,
    "▁دستگیر": 1583,
    "▁۹۹": 1584,
    "▁پاکستان": 1585,
    "▁نشر": 1586,
    "یابی": 1587,
    "▁کشاورز": 1588,
    "▁هموار": 1589,
    "لیک": 1590,
    "▁منج": 1591,
    "▁هاست": 1592,
    "▁۳۵": 1593,
    "قیف": 1594,
    "قانونی": 1595,
    "▁صاحب": 1596,
    "▁نگهداری": 1597,
    "مقام": 1598,
    "▁لباس": 1599,
    "▁درگیری": 1600,
    "▁مخالفان": 1601,
    "▁دختران": 1602,
    "▁کشورش": 1603,
    "حسین": 1604,
    "▁مجری": 1605,
    "▁برج": 1606,
    "اوری": 1607,
    "▁احتمالی": 1608,
    "▁زندانیان": 1609,
    "سازمان": 1610,
    "▁معتبر": 1611,
    "▁مرزی": 1612,
    "▁آل": 1613,
    "▁تحویل": 1614,
    "▁سراوان": 1615,
    "▁فو": 1616,
    "▁چالش": 1617,
    "▁معرض": 1618,
    "یان": 1619,
    "▁حاشیه": 1620,
    "▁گران": 1621,
    "رنگ": 1622,
    "▁یکدیگر": 1623,
    "▁نوری": 1624,
    "▁مسافران": 1625,
    "▁سعی": 1626,
    "▁عرب": 1627,
    "▁خبرنگاران": 1628,
    "▁تصور": 1629,
    "▁حمل": 1630,
    "▁ساکن": 1631,
    "▁یو": 1632,
    "وزارت": 1633,
    "▁تیر": 1634,
    "▁صلح": 1635,
    "کسی": 1636,
    "▁لو": 1637,
    "▁کمیس": 1638,
    "▁معامل": 1639,
    "▁چیست": 1640,
    "▁ادبیات": 1641,
    "▁واشنگتن": 1642,
    "▁فردا": 1643,
    "▁نویسندگان": 1644,
    "▁شاعر": 1645,
    "▁گیرند": 1646,
    "▁رافائل": 1647,
    "وق": 1648,
    "قب": 1649,
    "▁اسرائیلی": 1650,
    "▁۳۱": 1651,
    "تان": 1652,
    "▁برود": 1653,
    "▁مایک": 1654,
    "▁سپاهان": 1655,
    "▁نتوانست": 1656,
    "سال": 1657,
    "▁کردم": 1658,
    "▁برگشت": 1659,
    "▁توکیو": 1660,
    "▁آرام": 1661,
    "▁دشوار": 1662,
    "▁برزیل": 1663,
    "▁۸۰": 1664,
    "خواهد": 1665,
    "▁تقاضای": 1666,
    "▁بعدی": 1667,
    "▁جراح": 1668,
    "▁تمرین": 1669,
    "▁اختصاص": 1670,
    "▁اهمیت": 1671,
    "▁متعدد": 1672,
    "▁بهادار": 1673,
    "▁تاخیر": 1674,
    "▁اخبار": 1675,
    "▁مدیرعامل": 1676,
    "▁صرف": 1677,
    "است": 1678,
    "▁درگیر": 1679,
    "▁آسمان": 1680,
    "▁عین": 1681,
    "▁پژوهشگران": 1682,
    "▁پارک": 1683,
    "▁مالکی": 1684,
    "▁آهنگ": 1685,
    "یروز": 1686,
    "▁فرمو": 1687,
    "▁۱۳۹۸": 1688,
    "▁حاصل": 1689,
    "▁تمدید": 1690,
    "▁آمازون": 1691,
    "▁آنلاین": 1692,
    "▁عوامل": 1693,
    "▁کنسرت": 1694,
    "▁فرانسوی": 1695,
    "▁حذفی": 1696,
    "▁نحو": 1697,
    "▁جوکوویچ": 1698,
    "▁ادبی": 1699,
    "▁خدم": 1700,
    "▁جودو": 1701,
    "ستان": 1702,
    "▁سیما": 1703,
    "زه": 1704,
    "▁هنرپیشه": 1705,
    "▁اکتبر": 1706,
    "▁تمامی": 1707,
    "▁دیوان": 1708,
    "▁توقف": 1709,
    "▁پالایشگاه": 1710,
    "▁عادی": 1711,
    "▁مراقب": 1712,
    "▁تلفن": 1713,
    "▁مو": 1714,
    "▁خیابان": 1715,
    "▁لی": 1716,
    "▁توییت": 1717,
    "▁ایم": 1718,
    "▁مناسب": 1719,
    "▁هست": 1720,
    "▁تعویق": 1721,
    "▁اصفهان": 1722,
    "▁ارقام": 1723,
    "▁نوبل": 1724,
    "▁لوکس": 1725,
    "▁تسلا": 1726,
    "▁آلودگی": 1727,
    "▁نارنجی": 1728,
    "▁نادال": 1729,
    "▁سبک": 1730,
    "▁دیدن": 1731,
    "▁صف": 1732,
    "▁بعدا": 1733,
    "▁هماهنگ": 1734,
    "▁دستمزد": 1735,
    "▁روزها": 1736,
    "▁پست": 1737,
    "▁کا": 1738,
    "▁تعهدات": 1739,
    "▁مهاجم": 1740,
    "▁اوپ": 1741,
    "▁جواد": 1742,
    "▁فردی": 1743,
    "▁موتور": 1744,
    "▁کارها": 1745,
    "ته": 1746,
    "▁خوش": 1747,
    "▁هواپیما": 1748,
    "▁تئاتر": 1749,
    "▁کاپیتان": 1750,
    "هر": 1751,
    "غلب": 1752,
    "▁مدرسه": 1753,
    "▁جایگاه": 1754,
    "▁کارمندان": 1755,
    "▁ض": 1756,
    "▁انجمن": 1757,
    "رکت": 1758,
    "▁راجر": 1759,
    "دار": 1760,
    "▁حیات": 1761,
    "▁برمی": 1762,
    "دولت": 1763,
    "رضا": 1764,
    "▁مشا": 1765,
    "هایی": 1766,
    "▁جذب": 1767,
    "▁مونیخ": 1768,
    "▁خیل": 1769,
    "▁ثابت": 1770,
    "▁حفاظت": 1771,
    "▁مریخ": 1772,
    "▁ضمن": 1773,
    "خانم": 1774,
    "▁گرند": 1775,
    "اره": 1776,
    "▁چهل": 1777,
    "▁نفس": 1778,
    "▁ثانی": 1779,
    "▁محبوب": 1780,
    "▁هنرمندان": 1781,
    "▁کافی": 1782,
    "▁حسینی": 1783,
    "▁شبانه": 1784,
    "▁بازگرداند": 1785,
    "▁فرود": 1786,
    "▁واقعیت": 1787,
    "▁نوروز": 1788,
    "اسی": 1789,
    "▁ابلاغ": 1790,
    "تبه": 1791,
    "▁قالیباف": 1792,
    "▁بقیه": 1793,
    "▁ماهی": 1794,
    "▁هواپیمای": 1795,
    "▁عصر": 1796,
    "▁حاکی": 1797,
    "من": 1798,
    "▁واگذار": 1799,
    "▁سهم": 1800,
    "▁کرونای": 1801,
    "▁فرهاد": 1802,
    "وع": 1803,
    "▁گذارد": 1804,
    "▁آمیز": 1805,
    "ران": 1806,
    "رسدس": 1807,
    "▁مربیان": 1808,
    "▁اشتباه": 1809,
    "▁داروی": 1810,
    "▁نمو": 1811,
    "▁مراک": 1812,
    "برای": 1813,
    "▁آزار": 1814,
    "▁رادیو": 1815,
    "▁وکیل": 1816,
    "▁متولد": 1817,
    "▁وگو": 1818,
    "▁برجسته": 1819,
    "▁ماموریت": 1820,
    "▁جیمز": 1821,
    "▁حکام": 1822,
    "وه": 1823,
    "لو": 1824,
    "▁خشک": 1825,
    "▁برقرار": 1826,
    "▁پزشک": 1827,
    "چند": 1828,
    "بط": 1829,
    "▁ارزها": 1830,
    "▁اتریش": 1831,
    "▁اتفاقات": 1832,
    "سه": 1833,
    "▁نگه": 1834,
    "▁مارک": 1835,
    "را": 1836,
    "رئیس": 1837,
    "▁شیو": 1838,
    "▁اینستاگرام": 1839,
    "▁ناگهان": 1840,
    "▁خسارت": 1841,
    "▁نجات": 1842,
    "▁صلاحیت": 1843,
    "▁میراث": 1844,
    "▁بازنشستگان": 1845,
    "▁شهریور": 1846,
    "▁گذرد": 1847,
    "ذیب": 1848,
    "▁لیون": 1849,
    "▁کوه": 1850,
    "▁گلستان": 1851,
    "تنظیم": 1852,
    "▁داشتن": 1853,
    "▁همتی": 1854,
    "▁رهبری": 1855,
    "▁حقوقی": 1856,
    "▁دامن": 1857,
    "▁درجه": 1858,
    "▁اکبر": 1859,
    "امبر": 1860,
    "▁رقیب": 1861,
    "▁لس": 1862,
    "▁داور": 1863,
    "▁۲۹": 1864,
    "▁باره": 1865,
    "▁شمالی": 1866,
    "▁پرس": 1867,
    "▁تحصیل": 1868,
    "▁مسائل": 1869,
    "▁مواردی": 1870,
    "قدر": 1871,
    "▁مسئ": 1872,
    "باید": 1873,
    "▁ایستگاه": 1874,
    "▁بدهی": 1875,
    "▁ساحل": 1876,
    "▁رسما": 1877,
    "▁شناسا": 1878,
    "ود": 1879,
    "▁اندازی": 1880,
    "▁ورزشکاران": 1881,
    "بس": 1882,
    "نا": 1883,
    "▁اصل": 1884,
    "▁تخم": 1885,
    "▁منتقدان": 1886,
    "▁مشاهد": 1887,
    "▁بنیاد": 1888,
    "▁مخالف": 1889,
    "تیم": 1890,
    "▁نکرد": 1891,
    "▁عدد": 1892,
    "ما": 1893,
    "▁دسته": 1894,
    "▁گام": 1895,
    "▁آفریقا": 1896,
    "▁ذهن": 1897,
    "▁آور": 1898,
    "کار": 1899,
    "▁دا": 1900,
    "▁سلطنت": 1901,
    "▁آنجلس": 1902,
    "▁تردد": 1903,
    "▁شناسی": 1904,
    "▁آذر": 1905,
    "▁امارات": 1906,
    "▁شرقی": 1907,
    "▁ملک": 1908,
    "واج": 1909,
    "▁مطابق": 1910,
    "▁پاس": 1911,
    "▁نرم": 1912,
    "پیش": 1913,
    "▁محمدی": 1914,
    "▁ترس": 1915,
    "▁سهمی": 1916,
    "▁ناز": 1917,
    "▁گفتند": 1918,
    "▁مسافر": 1919,
    "▁گیر": 1920,
    "گزارش": 1921,
    "▁بان": 1922,
    "یکی": 1923,
    "▁زند": 1924,
    "▁خشونت": 1925,
    "▁اجلاس": 1926,
    "▁مصنوعی": 1927,
    "▁مشمول": 1928,
    "علوم": 1929,
    "▁ایسنا": 1930,
    "▁افتخار": 1931,
    "▁پروتکل": 1932,
    "▁تاسیسات": 1933,
    "▁حس": 1934,
    "▁سرپرست": 1935,
    "شیدا": 1936,
    "▁سلیمانی": 1937,
    "▁آکادمی": 1938,
    "▁ایتالیایی": 1939,
    "▁سامانه": 1940,
    "▁گمان": 1941,
    "سته": 1942,
    "اب": 1943,
    "▁گرانی": 1944,
    "▁کلاس": 1945,
    "▁محققان": 1946,
    "▁شغل": 1947,
    "▁پدرش": 1948,
    "▁پسر": 1949,
    "گری": 1950,
    "▁ورزشکار": 1951,
    "▁کارشناس": 1952,
    "▁ماجرا": 1953,
    "▁توزیع": 1954,
    "▁دیجیتال": 1955,
    "▁تشویق": 1956,
    "ضاع": 1957,
    "▁فرودگاه": 1958,
    "▁آهن": 1959,
    "▁پلاس": 1960,
    "▁شاغل": 1961,
    "▁قبول": 1962,
    "▁رانندگان": 1963,
    "▁هویت": 1964,
    "▁موثر": 1965,
    "▁توانسته": 1966,
    "▁زاد": 1967,
    "▁تولد": 1968,
    "▁محرم": 1969,
    "▁عبدال": 1970,
    "▁دارای": 1971,
    "▁درک": 1972,
    "▁نهم": 1973,
    "یست": 1974,
    "▁تری": 1975,
    "▁صدو": 1976,
    "▁بزرگتری": 1977,
    "▁هرچ": 1978,
    "▁سخنان": 1979,
    "ساوی": 1980,
    "شب": 1981,
    "▁ازد": 1982,
    "▁اجا": 1983,
    "▁میلان": 1984,
    "▁داند": 1985,
    "▁برآورد": 1986,
    "▁دام": 1987,
    "▁قالب": 1988,
    "▁جبران": 1989,
    "▁سوپر": 1990,
    "▁اجاره": 1991,
    "▁آرسنال": 1992,
    "▁قربانیان": 1993,
    "▁کردیم": 1994,
    "▁برادر": 1995,
    "▁کلوپ": 1996,
    "▁انتخاباتی": 1997,
    "اری": 1998,
    "▁دادستان": 1999,
    "▁الدین": 2000,
    "۱۸": 2001,
    "▁ابراهیم": 2002,
    "▁الملل": 2003,
    "▁شهرداری": 2004,
    "▁فضا": 2005,
    "▁اطراف": 2006,
    "شویی": 2007,
    "▁اقلیم": 2008,
    "▁خلی": 2009,
    "▁عمیق": 2010,
    "▁حوادث": 2011,
    "▁اتومبیل": 2012,
    "▁اعتبار": 2013,
    "▁الهام": 2014,
    "▁روان": 2015,
    "▁اهواز": 2016,
    "▁عرص": 2017,
    "▁ایرنا": 2018,
    "▁گری": 2019,
    "▁خیریه": 2020,
    "▁طرفداران": 2021,
    "▁نقاش": 2022,
    "▁بیان": 2023,
    "▁عکاسی": 2024,
    "▁گردشگری": 2025,
    "▁اطلاعی": 2026,
    "▁جوانان": 2027,
    "▁بندر": 2028,
    "▁جلوی": 2029,
    "انجام": 2030,
    "▁موسو": 2031,
    "▁زمستان": 2032,
    "رگز": 2033,
    "▁قول": 2034,
    "جا": 2035,
    "▁۴۵": 2036,
    "▁یخ": 2037,
    "▁قوی": 2038,
    "چنین": 2039,
    "▁نیستند": 2040,
    "▁رویکرد": 2041,
    "▁مج": 2042,
    "▁موشک": 2043,
    "▁جه": 2044,
    "وئل": 2045,
    "▁نطنز": 2046,
    "▁مشهد": 2047,
    "▁باور": 2048,
    "▁دما": 2049,
    "▁فیسبوک": 2050,
    "▁یوونتوس": 2051,
    "▁حراج": 2052,
    "▁صراف": 2053,
    "وس": 2054,
    "▁تأ": 2055,
    "▁مشاور": 2056,
    "▁سپت": 2057,
    "گرد": 2058,
    "اد": 2059,
    "▁نداده": 2060,
    "▁بند": 2061,
    "▁خاص": 2062,
    "▁خورشید": 2063,
    "▁۳۲": 2064,
    "▁ریز": 2065,
    "▁نبوده": 2066,
    "▁کی": 2067,
    "ناصر": 2068,
    "همزمان": 2069,
    "هم": 2070,
    "وال": 2071,
    "شار": 2072,
    "▁کالاها": 2073,
    "▁حملات": 2074,
    "▁مجسمه": 2075,
    "گانه": 2076,
    "▁ناسا": 2077,
    "▁فیزیک": 2078,
    "▁استعفا": 2079,
    "▁چنان": 2080,
    "▁شیر": 2081,
    "▁سخن": 2082,
    "ونه": 2083,
    "▁پنجاه": 2084,
    "فسور": 2085,
    "▁گاه": 2086,
    "وید": 2087,
    "یل": 2088,
    "▁رحمان": 2089,
    "▁شهرت": 2090,
    "▁محافظ": 2091,
    "▁کارت": 2092,
    "▁دعوت": 2093,
    "▁مقصد": 2094,
    "▁نیازمند": 2095,
    "▁عشق": 2096,
    "▁فراموش": 2097,
    "▁قاسم": 2098,
    "▁پرتاب": 2099,
    "▁ناپذیر": 2100,
    "▁اسکی": 2101,
    "▁منتظر": 2102,
    "▁فولاد": 2103,
    "▁فرا": 2104,
    "کش": 2105,
    "تا": 2106,
    "▁روانی": 2107,
    "▁پزشکان": 2108,
    "گفته": 2109,
    "افسانه": 2110,
    "▁تخت": 2111,
    "▁جامع": 2112,
    "▁بازرس": 2113,
    "▁افزود": 2114,
    "▁کیلومتری": 2115,
    "نین": 2116,
    "▁دوستان": 2117,
    "...": 2118,
    "▁اسکاتلند": 2119,
    "▁۱۳۹۷": 2120,
    "▁فعلا": 2121,
    "▁مستقل": 2122,
    "▁چرخ": 2123,
    "▁موضع": 2124,
    "▁شهرستان": 2125,
    "▁گواردیولا": 2126,
    "▁دیپلما": 2127,
    "▁کارزار": 2128,
    "▁دانیم": 2129,
    "▁اطمینان": 2130,
    "▁نژادپرست": 2131,
    "▁اهل": 2132,
    "دست": 2133,
    "آزادسازی": 2134,
    "▁ملایی": 2135,
    "نس": 2136,
    "▁فوتبالیست": 2137,
    "▁نماد": 2138,
    "۱۶": 2139,
    "▁تعرف": 2140,
    "▁دیوار": 2141,
    "▁۴۲": 2142,
    "▁اع": 2143,
    "▁سری": 2144,
    "▁سوزی": 2145,
    "▁عکاس": 2146,
    "▁بلا": 2147,
    "دان": 2148,
    "▁بخت": 2149,
    "تمام": 2150,
    "▁نامداری": 2151,
    "ریمه": 2152,
    "▁مجاز": 2153,
    "▁نی": 2154,
    "▁جذاب": 2155,
    "صد": 2156,
    "▁ویمبلدون": 2157,
    "▁سرنگون": 2158,
    "▁نداریم": 2159,
    "▁رونق": 2160,
    "▁نشدن": 2161,
    "▁محسو": 2162,
    "▁دسامبر": 2163,
    "▁جلب": 2164,
    "▁بدهد": 2165,
    "▁برخوردار": 2166,
    "▁مشتریان": 2167,
    "▁ژاپنی": 2168,
    "▁همسرش": 2169,
    "کته": 2170,
    "▁عید": 2171,
    "▁شاملو": 2172,
    "▁هوش": 2173,
    "▁متن": 2174,
    "▁اختلال": 2175,
    "▁ایستاده": 2176,
    "▁عق": 2177,
    "کره": 2178,
    "▁نوروزی": 2179,
    "▁هشتم": 2180,
    "رت": 2181,
    "▁۴۰۰": 2182,
    "▁تست": 2183,
    "▁بابا": 2184,
    "▁بازدید": 2185,
    "نجر": 2186,
    "شته": 2187,
    "▁بسکتبال": 2188,
    "▁ژافره": 2189,
    "▁اندونزی": 2190,
    "▁پرچم": 2191,
    "زاده": 2192,
    "▁بگیرند": 2193,
    "▁تنفس": 2194,
    "▁علائم": 2195,
    "▁حامل": 2196,
    "▁۲۰۱۵": 2197,
    "▁۲۷": 2198,
    "▁عذر": 2199,
    "▁اسپانیایی": 2200,
    "▁نفوذ": 2201,
    "▁نمایندگی": 2202,
    "غم": 2203,
    "▁آمدن": 2204,
    "صت": 2205,
    "▁لح": 2206,
    "▁بالاتری": 2207,
    "یو": 2208,
    "▁مادرش": 2209,
    "▁ژا": 2210,
    "▁انداخته": 2211,
    "▁دوز": 2212,
    "ماه": 2213,
    "▁فرار": 2214,
    "▁چشمگیر": 2215,
    "▁معدن": 2216,
    "▁نامش": 2217,
    "▁ژرمن": 2218,
    "▁تاسیس": 2219,
    "▁شبی": 2220,
    "▁مشاغل": 2221,
    "▁تعلیق": 2222,
    "▁طبیعت": 2223,
    "▁هلند": 2224,
    "▁آواز": 2225,
    "▁فروخته": 2226,
    "▁متحد": 2227,
    "▁بنیان": 2228,
    "▁تبعیض": 2229,
    "▁رمز": 2230,
    "▁کیفیت": 2231,
    "▁خودکشی": 2232,
    "▁پن": 2233,
    "▁جسد": 2234,
    "▁تفاوت": 2235,
    "▁مسعود": 2236,
    "▁زودتر": 2237,
    "▁کشوری": 2238,
    "خراج": 2239,
    "▁جانب": 2240,
    "▁میانه": 2241,
    "▁محصول": 2242,
    "▁قضاییه": 2243,
    "▁همچو": 2244,
    "سون": 2245,
    "▁بردن": 2246,
    "▁یمن": 2247,
    "▁روستای": 2248,
    "قیمت": 2249,
    "شدید": 2250,
    "▁خاتمی": 2251,
    "▁لبنان": 2252,
    "▁هن": 2253,
    "▁رویداد": 2254,
    "▁چارچوب": 2255,
    "▁اعتماد": 2256,
    "▁پنهان": 2257,
    "▁صدرنشین": 2258,
    "▁تکرار": 2259,
    "▁هفتم": 2260,
    "▁شگفت": 2261,
    "▁دستورالعمل": 2262,
    "▁پاری": 2263,
    "▁هاشمی": 2264,
    "▁پادشاه": 2265,
    "▁پکن": 2266,
    "▁عمر": 2267,
    "▁دقیقا": 2268,
    "▁کانادا": 2269,
    "▁داوطلبان": 2270,
    "▁قله": 2271,
    "▁توجهی": 2272,
    "▁گوشت": 2273,
    "بعضی": 2274,
    "▁خودروسازی": 2275,
    "▁ششم": 2276,
    "▁یافتن": 2277,
    "▁سفرهای": 2278,
    "خواهی": 2279,
    "▁تحلیل": 2280,
    "▁مع": 2281,
    "▁نوجوان": 2282,
    "▁گزین": 2283,
    "▁توانای": 2284,
    "قرار": 2285,
    "▁روغن": 2286,
    "▁انتظامی": 2287,
    "▁۳۳": 2288,
    "▁مالیاتی": 2289,
    "▁زهرا": 2290,
    "▁بماند": 2291,
    "▁پایگاه": 2292,
    "▁شفاف": 2293,
    "▁شهرسازی": 2294,
    "▁هفتاد": 2295,
    "▁برگزید": 2296,
    "▁ثبات": 2297,
    "▁مهاجرت": 2298,
    "▁نامید": 2299,
    "▁نادر": 2300,
    "رانی": 2301,
    "▁اسناد": 2302,
    "شرکت": 2303,
    "▁آلوده": 2304,
    "▁عملا": 2305,
    "▁ایفا": 2306,
    "لان": 2307,
    "▁بازیگران": 2308,
    "ئی": 2309,
    "▁ساده": 2310,
    "یش": 2311,
    "هفته": 2312,
    "▁نگار": 2313,
    "ص": 2314,
    "▁خاصی": 2315,
    "▁اسدی": 2316,
    "▁آنتونی": 2317,
    "لاک": 2318,
    "▁حقیق": 2319,
    "▁امیدواری": 2320,
    "▁سرد": 2321,
    "▁خلاف": 2322,
    "▁معمول": 2323,
    "▁نامزدهای": 2324,
    "▁اظهار": 2325,
    "▁حالت": 2326,
    "▁جری": 2327,
    "▁خان": 2328,
    "▁عبارت": 2329,
    "▁استانبول": 2330,
    "▁خطرناک": 2331,
    "▁اولویت": 2332,
    "▁پارلمان": 2333,
    "▁تراکتور": 2334,
    "▁کالیفرنیا": 2335,
    "▁درخشان": 2336,
    "▁مجازات": 2337,
    "▁نفع": 2338,
    "▁انداخت": 2339,
    "طفی": 2340,
    "▁گشایش": 2341,
    "▁یادآور": 2342,
    "▁مدیرکل": 2343,
    "اگر": 2344,
    "داد": 2345,
    "▁پانزده": 2346,
    "▁سازنده": 2347,
    "▁فراز": 2348,
    "▁تپ": 2349,
    "▁شاهین": 2350,
    "عهد": 2351,
    "رده": 2352,
    "▁مرور": 2353,
    "▁مس": 2354,
    "▁شانس": 2355,
    "▁اسماعیل": 2356,
    "غول": 2357,
    "▁مرزها": 2358,
    "▁۱۵۰": 2359,
    "▁درمانی": 2360,
    "▁پاک": 2361,
    "▁ریش": 2362,
    "▁نود": 2363,
    "دکتر": 2364,
    "▁وحش": 2365,
    "اک": 2366,
    "▁عاص": 2367,
    "▁اص": 2368,
    "▁تصادف": 2369,
    "شاره": 2370,
    "اظ": 2371,
    "حدود": 2372,
    "▁دیپلماتیک": 2373,
    "▁راحت": 2374,
    "▁مقدمات": 2375,
    "▁استاندار": 2376,
    "▁ساعات": 2377,
    "▁خطیب": 2378,
    "▁متخصص": 2379,
    "▁پوشش": 2380,
    "▁شواهد": 2381,
    "▁مطلب": 2382,
    "خ": 2383,
    "▁مسئولیت": 2384,
    "▁نوسان": 2385,
    "▁تعطیلات": 2386,
    "▁سانسور": 2387,
    "▁جورج": 2388,
    "زی": 2389,
    "▁واقعا": 2390,
    "وش": 2391,
    "▁۹۷": 2392,
    "▁قار": 2393,
    "وخیم": 2394,
    "▁شک": 2395,
    "حسن": 2396,
    "خمین": 2397,
    "▁امر": 2398,
    "▁دهنده": 2399,
    "▁فق": 2400,
    "▁تبار": 2401,
    "▁منع": 2402,
    "▁بازگش": 2403,
    "▁تاجیک": 2404,
    "▁هتل": 2405,
    "▁۳۴": 2406,
    "▁خواه": 2407,
    "آمریکا": 2408,
    "نویه": 2409,
    "▁انداز": 2410,
    "▁بودم": 2411,
    "▁افزار": 2412,
    "▁مبن": 2413,
    "▁عوارض": 2414,
    "▁هالیوود": 2415,
    "▁مورینیو": 2416,
    "▁تعریف": 2417,
    "▁سلول": 2418,
    "پدیده": 2419,
    "▁۲۰۱۱": 2420,
    "▁غافلگیر": 2421,
    "▁خطاب": 2422,
    "▁فیوری": 2423,
    "▁ماراتن": 2424,
    "▁شویم": 2425,
    "▁تحولات": 2426,
    "▁وانت": 2427,
    "▁ریال": 2428,
    "▁قلع": 2429,
    "▁محکومیت": 2430,
    "▁مذهبی": 2431,
    "▁فرمان": 2432,
    "▁یاران": 2433,
    "▁تماشای": 2434,
    "▁اضطرار": 2435,
    "▁منظور": 2436,
    "▁ویدیوی": 2437,
    "▁تجا": 2438,
    "▁آشنا": 2439,
    "▁مناسبت": 2440,
    "بیشترین": 2441,
    "▁ضرور": 2442,
    "▁ذر": 2443,
    "▁مدرن": 2444,
    "▁ژنتیکی": 2445,
    "▁سرود": 2446,
    "▁تردید": 2447,
    "▁شرکتهای": 2448,
    "▁دفاعی": 2449,
    "اسلم": 2450,
    "▁۳۹": 2451,
    "▁گشت": 2452,
    "▁نیرو": 2453,
    "▁بلینکن": 2454,
    "▁کیلوگرم": 2455,
    "▁ازبکستان": 2456,
    "▁نباشد": 2457,
    "▁صادرکنندگان": 2458,
    "▁تبریز": 2459,
    "رو": 2460,
    "▁نسخ": 2461,
    "▁کانون": 2462,
    "▁برکنار": 2463,
    "▁تالاب": 2464,
    "▁کربن": 2465,
    "▁مثال": 2466,
    "▁سپرده": 2467,
    "▁مرجان": 2468,
    "▁بوکس": 2469,
    "مت": 2470,
    "▁قطب": 2471,
    "▁ماجرای": 2472,
    "▁زاهد": 2473,
    "▁ماندن": 2474,
    "▁بهای": 2475,
    "▁کریمی": 2476,
    "▁همکاران": 2477,
    "▁اقامت": 2478,
    "▁وقف": 2479,
    "واع": 2480,
    "یده": 2481,
    "▁مسئولین": 2482,
    "حمل": 2483,
    "کن": 2484,
    "▁سالم": 2485,
    "▁تحول": 2486,
    "▁تل": 2487,
    "▁اسب": 2488,
    "بانک": 2489,
    "▁تماشا": 2490,
    "وثی": 2491,
    "▁۷۰۰": 2492,
    "ریزی": 2493,
    "▁قطعه": 2494,
    "▁قدر": 2495,
    "▁بودیم": 2496,
    "▁صادقی": 2497,
    "کا": 2498,
    "▁کارمند": 2499,
    "سکی": 2500,
    "کل": 2501,
    "جی": 2502,
    "▁امضای": 2503,
    "▁شهری": 2504,
    "▁کهکشان": 2505,
    "▁آذربایجان": 2506,
    "▁احترام": 2507,
    "▁غزنی": 2508,
    "▁فراوان": 2509,
    "▁سرنوشت": 2510,
    "▁آشکار": 2511,
    "▁گروسی": 2512,
    "▁فروشگاه": 2513,
    "▁هو": 2514,
    "▁باشیم": 2515,
    "▁ردیف": 2516,
    "▁کلید": 2517,
    "▁فایزر": 2518,
    "▁فرو": 2519,
    "▁معلوم": 2520,
    "▁کیو": 2521,
    "ایر": 2522,
    "▁محافظت": 2523,
    "▁طلب": 2524,
    "▁ناکام": 2525,
    "▁معن": 2526,
    "▁جنسیت": 2527,
    "▁باغ": 2528,
    "▁کادر": 2529,
    "▁درحالی": 2530,
    "▁پیگیری": 2531,
    "اپی": 2532,
    "▁گلزن": 2533,
    "▁اجباری": 2534,
    "▁خرد": 2535,
    "▁۷۵": 2536,
    "▁جک": 2537,
    "بار": 2538,
    "▁جزیر": 2539,
    "▁۴۸": 2540,
    "▁حا": 2541,
    "▁اور": 2542,
    "▁برنت": 2543,
    "خالت": 2544,
    "▁عطر": 2545,
    "▁موقع": 2546,
    "امروز": 2547,
    "وزیر": 2548,
    "▁اصلا": 2549,
    "ابت": 2550,
    "۱۴": 2551,
    "▁نیمی": 2552,
    "▁عفو": 2553,
    "▁بهایی": 2554,
    "بنابر": 2555,
    "▁موافق": 2556,
    "▁پژوهشگر": 2557,
    "▁اتفاقی": 2558,
    "▁آموزشی": 2559,
    "▁مدار": 2560,
    "▁عمدتا": 2561,
    "▁جایگزین": 2562,
    "▁مشروط": 2563,
    "▁فراتر": 2564,
    "▁هافبک": 2565,
    "▁مخاطبان": 2566,
    "▁پاییز": 2567,
    "▁بلژیک": 2568,
    "▁پرتغال": 2569,
    "▁خمینی": 2570,
    "▁اورتون": 2571,
    "▁سقف": 2572,
    "▁هشتاد": 2573,
    "▁خاورمیانه": 2574,
    "▁مقدار": 2575,
    "▁برگزیت": 2576,
    "آزمای": 2577,
    "▁خبرساز": 2578,
    "▁شرط": 2579,
    "▁دهیم": 2580,
    "▁بیستم": 2581,
    "▁سوئد": 2582,
    "▁ابر": 2583,
    "▁کریستیان": 2584,
    "▁مساوی": 2585,
    "▁مرا": 2586,
    "▁هجوم": 2587,
    "▁کارش": 2588,
    "▁خواهم": 2589,
    "▁پاپ": 2590,
    "ئو": 2591,
    "ینگ": 2592,
    "▁دایک": 2593,
    "▁داغ": 2594,
    "▁اتهامات": 2595,
    "▁زدند": 2596,
    "▁۶۵": 2597,
    "▁ذخ": 2598,
    "▁علم": 2599,
    "مدال": 2600,
    "▁تب": 2601,
    "دگی": 2602,
    "▁کجا": 2603,
    "▁حلق": 2604,
    "فر": 2605,
    "ستگی": 2606,
    "باقر": 2607,
    "▁بردند": 2608,
    "▁فولک": 2609,
    "▁دلاری": 2610,
    "▁عاشق": 2611,
    "سبب": 2612,
    "▁مسافرت": 2613,
    "▁دائم": 2614,
    "▁عظیم": 2615,
    "سعید": 2616,
    "▁زیبای": 2617,
    "▁زنند": 2618,
    "▁فقر": 2619,
    "▁لذت": 2620,
    "▁نساجی": 2621,
    "▁آکسفورد": 2622,
    "▁جستجو": 2623,
    "▁اقلام": 2624,
    "▁سلاح": 2625,
    "▁اماکن": 2626,
    "▁عراقچی": 2627,
    "▁جنبش": 2628,
    "▁وسیع": 2629,
    "▁بگذارد": 2630,
    "پور": 2631,
    "▁خفاش": 2632,
    "▁تجدید": 2633,
    "▁مدارس": 2634,
    "▁ست": 2635,
    "▁پرورش": 2636,
    "▁شیری": 2637,
    "بری": 2638,
    "▁تکمیل": 2639,
    "▁وال": 2640,
    "▁درون": 2641,
    "▁ابتلای": 2642,
    "▁سرکوب": 2643,
    "▁آرایش": 2644,
    "▁فرم": 2645,
    "▁رویدادهای": 2646,
    "▁مدنی": 2647,
    "▁پهلوی": 2648,
    "▁روس": 2649,
    "▁آماد": 2650,
    "نش": 2651,
    "▁برون": 2652,
    "فرین": 2653,
    "▁فان": 2654,
    "▁خواب": 2655,
    "▁خواهی": 2656,
    "▁رحمانی": 2657,
    "▁حب": 2658,
    "وقت": 2659,
    "جمه": 2660,
    "▁رویا": 2661,
    "▁مح": 2662,
    "لند": 2663,
    "▁دان": 2664,
    "▁مان": 2665,
    "▁جی": 2666,
    "جه": 2667,
    "سخنگوی": 2668,
    "رسمی": 2669,
    "▁لستر": 2670,
    "ادی": 2671,
    "▁مص": 2672,
    "▁تبلیغ": 2673,
    "▁ستار": 2674,
    "▁رستوران": 2675,
    "▁مازندران": 2676,
    "▁غیرمستقیم": 2677,
    "▁خطوط": 2678,
    "▁نصب": 2679,
    "▁مصدومیت": 2680,
    "▁هیا": 2681,
    "▁عمق": 2682,
    "▁شتاب": 2683,
    "▁حیوانات": 2684,
    "▁منافع": 2685,
    "چ": 2686,
    "▁تجهیزات": 2687,
    "▁بزند": 2688,
    "▁تدریج": 2689,
    "▁کنفرانس": 2690,
    "▁کاوشگر": 2691,
    "▁شنا": 2692,
    "▁منچسترسیتی": 2693,
    "▁ارتباطات": 2694,
    "نوبت": 2695,
    "▁جواب": 2696,
    "▁مسجد": 2697,
    "▁آرامش": 2698,
    "▁خاوران": 2699,
    "▁بخار": 2700,
    "▁دانستند": 2701,
    "▁اکثر": 2702,
    "▁هی": 2703,
    "▁فرماندار": 2704,
    "▁نابودی": 2705,
    "اده": 2706,
    "▁صالح": 2707,
    "▁خاطرات": 2708,
    "▁قص": 2709,
    "▁فکری": 2710,
    "▁پو": 2711,
    "▁گزارشگر": 2712,
    "غ": 2713,
    "نظر": 2714,
    "تصاب": 2715,
    "برگ": 2716,
    "▁تف": 2717,
    "▁وام": 2718,
    "▁اسکن": 2719,
    "خلاف": 2720,
    "▁کسر": 2721,
    "الی": 2722,
    "▁خیر": 2723,
    "لت": 2724,
    "▁طلایی": 2725,
    "▁زا": 2726,
    "ازم": 2727,
    "▁۹۶": 2728,
    "▁درحال": 2729,
    "▁هیئت": 2730,
    "▁فرآیند": 2731,
    "▁ترجیح": 2732,
    "▁واگ": 2733,
    "▁پادتن": 2734,
    "▁کلمبیا": 2735,
    "▁قادر": 2736,
    "▁بازنشست": 2737,
    "▁پلاستیک": 2738,
    "▁جانشین": 2739,
    "▁مستمر": 2740,
    "▁درد": 2741,
    "▁روزگار": 2742,
    "▁سوئیسی": 2743,
    "▁گذراند": 2744,
    "▁روح": 2745,
    "▁ضرورت": 2746,
    "▁عبدالله": 2747,
    "▁شناور": 2748,
    "▁قر": 2749,
    "▁داری": 2750,
    "▁انت": 2751,
    "▁ذو": 2752,
    "طی": 2753,
    "▁بهشت": 2754,
    "▁فاش": 2755,
    "▁باند": 2756,
    "ناوند": 2757,
    "▁عبوری": 2758,
    "عکس": 2759,
    "▁غلام": 2760,
    "▁طلبان": 2761,
    "▁آم": 2762,
    "دن": 2763,
    "▁شی": 2764,
    "▁تقس": 2765,
    "فت": 2766,
    "▁حساس": 2767,
    "ریک": 2768,
    "خره": 2769,
    "▁ضرر": 2770,
    "▁برداری": 2771,
    "▁صادراتی": 2772,
    "▁آزمایشگاه": 2773,
    "یس": 2774,
    "نازنی": 2775,
    "قابل": 2776,
    "ابی": 2777,
    "▁نیمک": 2778,
    "سا": 2779,
    "ذ": 2780,
    "لوله": 2781,
    "▁باری": 2782,
    "▁خوان": 2783,
    "کاری": 2784,
    "▁اینتر": 2785,
    "وند": 2786,
    "▁اعزام": 2787,
    "▁آفتاب": 2788,
    "▁تسلیحات": 2789,
    "▁حکایت": 2790,
    "▁فلوید": 2791,
    "وف": 2792,
    "▁مطبوعات": 2793,
    "▁جانسون": 2794,
    "▁بخصوص": 2795,
    "▁بدهند": 2796,
    "بسیاری": 2797,
    "▁هیجان": 2798,
    "▁اندک": 2799,
    "▁اختلافات": 2800,
    "▁فیلمساز": 2801,
    "▁ری": 2802,
    "▁بامیان": 2803,
    "▁اپل": 2804,
    "▁قایق": 2805,
    "یف": 2806,
    "▁مطالب": 2807,
    "▁آر": 2808,
    "▁خاتم": 2809,
    "▁سفارش": 2810,
    "▁شا": 2811,
    "▁صادق": 2812,
    "▁اوبر": 2813,
    "▁سالن": 2814,
    "▁اقدامی": 2815,
    "▁ادا": 2816,
    "بنا": 2817,
    "▁فیل": 2818,
    "▁تاثیرگذار": 2819,
    "▁نمای": 2820,
    "فاصله": 2821,
    "▁ایست": 2822,
    "▁پتروش": 2823,
    "▁گذر": 2824,
    "▁لوئی": 2825,
    "▁پرفروش": 2826,
    "جمع": 2827,
    "▁۴۴": 2828,
    "لا": 2829,
    "▁زانو": 2830,
    "▁آسان": 2831,
    "▁برایش": 2832,
    "▁مهمتری": 2833,
    "▁صورتی": 2834,
    "▁جر": 2835,
    "رون": 2836,
    "▁بیمه": 2837,
    "▁زیرا": 2838,
    "امسال": 2839,
    "▁محاسب": 2840,
    "▁قاجار": 2841,
    "▁بغداد": 2842,
    "▁خراسان": 2843,
    "▁معاصر": 2844,
    "▁خداحافظ": 2845,
    "▁گوناگون": 2846,
    "▁آنفلوآنزا": 2847,
    "▁کش": 2848,
    "۲۰۱۲": 2849,
    "▁کانری": 2850,
    "▁۱۹۸": 2851,
    "پیشتر": 2852,
    "▁طبری": 2853,
    "▁عروسک": 2854,
    "▁ایرباس": 2855,
    "▁کف": 2856,
    "▁تاکسی": 2857,
    "▁تور": 2858,
    "▁مهد": 2859,
    "▁راز": 2860,
    "▁تمایل": 2861,
    "▁شنیده": 2862,
    "▁تاپ": 2863,
    "▁توماس": 2864,
    "▁اردو": 2865,
    "▁ظاهرا": 2866,
    "▁منشا": 2867,
    "▁نماز": 2868,
    "▁همیلتون": 2869,
    "▁ار": 2870,
    "▁چندی": 2871,
    "▁سنا": 2872,
    "▁شهرها": 2873,
    "دا": 2874,
    "▁۲۵۰": 2875,
    "▁آفریقای": 2876,
    "حال": 2877,
    "شی": 2878,
    "ض": 2879,
    "▁ویدیو": 2880,
    "▁طلای": 2881,
    "▁خیابانی": 2882,
    "احل": 2883,
    "▁حج": 2884,
    "▁کهن": 2885,
    "▁جم": 2886,
    "▁آتی": 2887,
    "▁رفتند": 2888,
    "۱۹": 2889,
    "▁کو": 2890,
    "▁امان": 2891,
    "▁کلاسیک": 2892,
    "▁۵۷": 2893,
    "▁مطل": 2894,
    "طئ": 2895,
    "▁شوک": 2896,
    "مون": 2897,
    "▁گوشی": 2898,
    "اولین": 2899,
    "▁شایع": 2900,
    "▁باب": 2901,
    "▁تگزاس": 2902,
    "▁موبایل": 2903,
    "▁الکترونیک": 2904,
    "▁شوماخر": 2905,
    "▁پیامدهای": 2906,
    "▁دقایق": 2907,
    "▁۲۰۲۲": 2908,
    "خیص": 2909,
    "▁مسکونی": 2910,
    "▁ارشاد": 2911,
    "▁سرقت": 2912,
    "▁ی": 2913,
    "▁اسم": 2914,
    "▁صمت": 2915,
    "▁رسیدند": 2916,
    "▁لمس": 2917,
    "▁بورل": 2918,
    "تری": 2919,
    "▁جاسوس": 2920,
    "▁درخت": 2921,
    "قاضی": 2922,
    "▁سرزمین": 2923,
    "▁استادیوم": 2924,
    "▁لحظات": 2925,
    "▁بیاید": 2926,
    "▁نداشتند": 2927,
    "▁سیل": 2928,
    "▁منتقد": 2929,
    "▁تایسون": 2930,
    "▁صند": 2931,
    "▁قلم": 2932,
    "▁سران": 2933,
    "▁نگرفته": 2934,
    "▁برند": 2935,
    "▁کاسته": 2936,
    "پیچیده": 2937,
    "▁شکاف": 2938,
    "ادورو": 2939,
    "▁۵۵": 2940,
    "▁۳۷": 2941,
    "▁قدرتمند": 2942,
    "▁فقیر": 2943,
    "▁بدتر": 2944,
    "اند": 2945,
    "▁والی": 2946,
    "▁حضورش": 2947,
    "▁قیمتها": 2948,
    "آنها": 2949,
    "کو": 2950,
    "حت": 2951,
    "▁کشد": 2952,
    "▁گرا": 2953,
    "بو": 2954,
    "اکان": 2955,
    "▁دانشمند": 2956,
    "پی": 2957,
    "▁عملی": 2958,
    "▁مطمئن": 2959,
    "▁لب": 2960,
    "جونز": 2961,
    "تو": 2962,
    "▁الحاق": 2963,
    "▁پانصد": 2964,
    "▁موانع": 2965,
    "▁سایپا": 2966,
    "چی": 2967,
    "اجع": 2968,
    "▁یوفا": 2969,
    "▁خلاص": 2970,
    "▁بنیانگذار": 2971,
    "▁وسایل": 2972,
    "▁۱۹۸۶": 2973,
    "▁یادداشت": 2974,
    "▁علامت": 2975,
    "▁مقاومت": 2976,
    "▁ولسوال": 2977,
    "▁باشید": 2978,
    "▁۲۰۱۰": 2979,
    "▁سهامداران": 2980,
    "▁نمایشگر": 2981,
    "▁سپ": 2982,
    "▁اشتغال": 2983,
    "▁اولسان": 2984,
    "▁شکنج": 2985,
    "▁اسلام": 2986,
    "▁جن": 2987,
    "▁دانشجویان": 2988,
    "▁وبسایت": 2989,
    "▁تاک": 2990,
    "▁ربط": 2991,
    "رچند": 2992,
    "▁بلیت": 2993,
    "▁گردن": 2994,
    "شده": 2995,
    "▁نرسیده": 2996,
    "▁خودم": 2997,
    "نکه": 2998,
    "▁خودروها": 2999,
    "▁حمید": 3000,
    "▁فاز": 3001,
    "▁ربات": 3002,
    "پلیس": 3003,
    "▁۳۶": 3004,
    "راضی": 3005,
    "▁امین": 3006,
    "▁ذ": 3007,
    "▁بشری": 3008,
    "▁انبار": 3009,
    "▁بزرگتر": 3010,
    "دم": 3011,
    "▁نقدی": 3012,
    "ازی": 3013,
    "ساله": 3014,
    "▁خو": 3015,
    "▁گروگان": 3016,
    "افزایش": 3017,
    "▁مقال": 3018,
    "▁سالها": 3019,
    "▁عام": 3020,
    "وری": 3021,
    "احض": 3022,
    "▁خا": 3023,
    "▁دونده": 3024,
    "ریم": 3025,
    "دل": 3026,
    "▁باد": 3027,
    "۳۱": 3028,
    "▁کامپیوتر": 3029,
    "▁شر": 3030,
    "▁سئوال": 3031,
    "▁ارتفاع": 3032,
    "▁پروتئین": 3033,
    "▁ناحیه": 3034,
    "▁استراماچونی": 3035,
    "▁پرافتخار": 3036,
    "▁فردوسی": 3037,
    "▁ببینید": 3038,
    "▁برساند": 3039,
    "▁طوفان": 3040,
    "▁نیروگاه": 3041,
    "▁آدم": 3042,
    "▁ویران": 3043,
    "▁وستهم": 3044,
    "▁نشین": 3045,
    "▁دیگو": 3046,
    "▁انگار": 3047,
    "▁پذیرفته": 3048,
    "▁بدو": 3049,
    "▁جیب": 3050,
    "▁مار": 3051,
    "▁هنرها": 3052,
    "▁عزاداری": 3053,
    "▁جلسات": 3054,
    "▁سرای": 3055,
    "▁حامی": 3056,
    "▁موضوعات": 3057,
    "هزار": 3058,
    "▁عادل": 3059,
    "▁فتح": 3060,
    "▁یونان": 3061,
    "▁شعب": 3062,
    "▁مبادل": 3063,
    "مند": 3064,
    "ناف": 3065,
    "▁۴۳": 3066,
    "▁سلطان": 3067,
    "آ": 3068,
    "▁۳۸": 3069,
    "▁شوم": 3070,
    "▁وق": 3071,
    "▁ساختار": 3072,
    "▁برانگیز": 3073,
    "▁دوام": 3074,
    "نام": 3075,
    "▁پرسی": 3076,
    "▁روزه": 3077,
    "▁تبلیغاتی": 3078,
    "▁۹۵": 3079,
    "▁یازدهم": 3080,
    "▁طوری": 3081,
    "▁ماهوار": 3082,
    "▁معمار": 3083,
    "▁مکانی": 3084,
    "▁شور": 3085,
    "▁داوطلب": 3086,
    "وت": 3087,
    "گین": 3088,
    "رسی": 3089,
    "التی": 3090,
    "امی": 3091,
    "▁مور": 3092,
    "حص": 3093,
    "رستان": 3094,
    "▁۱۹۹": 3095,
    "▁تائ": 3096,
    "▁ریه": 3097,
    "تون": 3098,
    "▁ثمر": 3099,
    "▁بکشد": 3100,
    "▁نتانیاهو": 3101,
    "▁تظاهرات": 3102,
    "▁انفرادی": 3103,
    "▁تبعات": 3104,
    "▁تعدیل": 3105,
    "▁تلفیق": 3106,
    "▁معافیت": 3107,
    "▁نکنید": 3108,
    "▁عفونت": 3109,
    "▁مفهوم": 3110,
    "▁منزل": 3111,
    "▁زلزله": 3112,
    "▁آنقدر": 3113,
    "۵۰": 3114,
    "▁فرگوسن": 3115,
    "▁بیلسا": 3116,
    "▁رها": 3117,
    "▁سرنشینان": 3118,
    "▁مدارک": 3119,
    "▁نیک": 3120,
    "▁اشرف": 3121,
    "▁مطالعات": 3122,
    "اقات": 3123,
    "▁تروریستی": 3124,
    "▁اشک": 3125,
    "▁نمایشگاه": 3126,
    "▁برندگان": 3127,
    "▁ولز": 3128,
    "▁۵۶": 3129,
    "▁زرد": 3130,
    "▁هندی": 3131,
    "▁مکرون": 3132,
    "▁ایرانیان": 3133,
    "▁مغزی": 3134,
    "▁بازرسان": 3135,
    "شه": 3136,
    "▁یاری": 3137,
    "▁عمان": 3138,
    "خالص": 3139,
    "▁آهنگساز": 3140,
    "▁افشار": 3141,
    "سر": 3142,
    "▁ساک": 3143,
    "عبدال": 3144,
    "جم": 3145,
    "▁اقلیمی": 3146,
    "▁عادت": 3147,
    "▁طیف": 3148,
    "عه": 3149,
    "▁قد": 3150,
    "▁محمدجواد": 3151,
    "فق": 3152,
    "▁فریاد": 3153,
    "▁وایلد": 3154,
    "نادیده": 3155,
    "▁رویای": 3156,
    "▁خواستند": 3157,
    "▁خریدار": 3158,
    "بخش": 3159,
    "▁کمال": 3160,
    "▁جرم": 3161,
    "▁اگر": 3162,
    "▁بعید": 3163,
    "▁۶۷": 3164,
    "▁غار": 3165,
    "▁قاطع": 3166,
    "داشت": 3167,
    "نیک": 3168,
    "رز": 3169,
    "▁افکن": 3170,
    "▁ابزار": 3171,
    "پنج": 3172,
    "▁باران": 3173,
    "جان": 3174,
    "غان": 3175,
    "▁باخته": 3176,
    "▁۱۲۰": 3177,
    "رداد": 3178,
    "▁ناراحت": 3179,
    "▁متاسف": 3180,
    "▁جالب": 3181,
    "▁منحصر": 3182,
    "▁مفید": 3183,
    "▁دانمارک": 3184,
    "▁مترجم": 3185,
    "▁زنگنه": 3186,
    "▁رمزارزها": 3187,
    "▁محدودیتهای": 3188,
    "▁کیم": 3189,
    "▁مخفی": 3190,
    "▁مشورت": 3191,
    "▁مسلمان": 3192,
    "▁پیک": 3193,
    "▁ایام": 3194,
    "▁مرخص": 3195,
    "▁بران": 3196,
    "▁اصلاحات": 3197,
    "▁ستایش": 3198,
    "▁مطهری": 3199,
    "▁یمانی": 3200,
    "▁منته": 3201,
    "بیش": 3202,
    "▁کارگزار": 3203,
    "▁ایلنا": 3204,
    "▁امکانات": 3205,
    "عباس": 3206,
    "▁تج": 3207,
    "آن": 3208,
    "رویی": 3209,
    "▁سانتی": 3210,
    "▁عروس": 3211,
    "▁فلز": 3212,
    "▁پیمان": 3213,
    "▁لیدز": 3214,
    "▁قربانی": 3215,
    "▁قدس": 3216,
    "▁قوا": 3217,
    "▁ادعا": 3218,
    "▁خبرهای": 3219,
    "▁گذاشتن": 3220,
    "الب": 3221,
    "▁عل": 3222,
    "دانشمندان": 3223,
    "▁تبلیغات": 3224,
    "▁۴۹": 3225,
    "▁اوکراین": 3226,
    "▁کشی": 3227,
    "▁پیست": 3228,
    "▁فراگیر": 3229,
    "▁خوردن": 3230,
    "▁برقی": 3231,
    "عوض": 3232,
    "▁رنج": 3233,
    "▁آمارها": 3234,
    "کننده": 3235,
    "▁واژ": 3236,
    "واک": 3237,
    "▁۱۵۰۰": 3238,
    "▁نبرد": 3239,
    "▁چا": 3240,
    "کت": 3241,
    "▁ویلیام": 3242,
    "▁سای": 3243,
    "▁تکان": 3244,
    "▁مهاجر": 3245,
    "▁داستانی": 3246,
    "راحل": 3247,
    "▁تعامل": 3248,
    "▁۷۷": 3249,
    "▁زیان": 3250,
    "▁مزار": 3251,
    "▁جسم": 3252,
    "بچه": 3253,
    "▁۰": 3254,
    "افغانستان": 3255,
    "▁بازیگری": 3256,
    "پوری": 3257,
    "▁آیین": 3258,
    "▁درهای": 3259,
    "▁محقق": 3260,
    "▁دارم": 3261,
    "▁خوشحال": 3262,
    "تن": 3263,
    "▁تفریح": 3264,
    "▁همجنس": 3265,
    "▁شطرنج": 3266,
    "▁محوطه": 3267,
    "▁اخطار": 3268,
    "▁تروریسم": 3269,
    "▁شارژ": 3270,
    "▁هیأت": 3271,
    "▁همیشگی": 3272,
    "خصیص": 3273,
    "▁حیوان": 3274,
    "▁برانگیخت": 3275,
    "▁دادگستری": 3276,
    "▁مدیترانه": 3277,
    "▁کریکت": 3278,
    "▁محور": 3279,
    "▁آیند": 3280,
    "▁تلخ": 3281,
    "▁نقص": 3282,
    "▁ویلموتس": 3283,
    "▁قرص": 3284,
    "▁لبخند": 3285,
    "خارج": 3286,
    "محمود": 3287,
    "▁نکنند": 3288,
    "▁ص": 3289,
    "▁شاخ": 3290,
    "▁دموکرات": 3291,
    "▁خرج": 3292,
    "▁شیراز": 3293,
    "▁برلین": 3294,
    "▁صبر": 3295,
    "▁۴۶": 3296,
    "▁سان": 3297,
    "▁ناامن": 3298,
    "▁محتوای": 3299,
    "▁مسکو": 3300,
    "▁مادری": 3301,
    "▁گوگل": 3302,
    "▁دادسرا": 3303,
    "▁سوالات": 3304,
    "▁معمولی": 3305,
    "▁ایرلند": 3306,
    "▁خشم": 3307,
    "▁پرسش": 3308,
    "▁جنبه": 3309,
    "تواند": 3310,
    "▁دانم": 3311,
    "کر": 3312,
    "▁پیکر": 3313,
    "▁رغ": 3314,
    "▁سین": 3315,
    "▁پوشید": 3316,
    "▁پیوستن": 3317,
    "▁سد": 3318,
    "مجموعه": 3319,
    "▁خودران": 3320,
    "▁کیلو": 3321,
    "ظهر": 3322,
    "▁محسن": 3323,
    "▁پستان": 3324,
    "▁ویکتور": 3325,
    "▁هاوس": 3326,
    "▁آسیای": 3327,
    "▁جهانگیری": 3328,
    "▁تس": 3329,
    "▁افتد": 3330,
    "▁باستانی": 3331,
    "التهاب": 3332,
    "▁سیف": 3333,
    "بورن": 3334,
    "مرث": 3335,
    "▁مهندس": 3336,
    "▁شبه": 3337,
    "▁ناصر": 3338,
    "۲۵": 3339,
    "وان": 3340,
    "▁تنگ": 3341,
    "▁تاب": 3342,
    "لینگ": 3343,
    "▁داشتم": 3344,
    "▁پدید": 3345,
    "باران": 3346,
    "▁سیا": 3347,
    "▁خواندن": 3348,
    "▁کرمان": 3349,
    "▁ویل": 3350,
    "▁گرد": 3351,
    "▁راستا": 3352,
    "▁ادعای": 3353,
    "رس": 3354,
    "▁یور": 3355,
    "▁کشیدن": 3356,
    "سیا": 3357,
    "▁کام": 3358,
    "راه": 3359,
    "آوری": 3360,
    "▁سراسری": 3361,
    "فیلم": 3362,
    "▁غ": 3363,
    "▁روسی": 3364,
    "▁نامدار": 3365,
    "▁بوش": 3366,
    "رسان": 3367,
    "▁نقد": 3368,
    "▁شعار": 3369,
    "▁مخصوص": 3370,
    "▁تخلف": 3371,
    "▁امتحان": 3372,
    "▁کانسپت": 3373,
    "▁شمخانی": 3374,
    "▁اصرار": 3375,
    "▁جوانی": 3376,
    "▁تحمیل": 3377,
    "▁خوراک": 3378,
    "▁وسط": 3379,
    "▁خوک": 3380,
    "▁ویلیامز": 3381,
    "▁استراتژیک": 3382,
    "▁دراز": 3383,
    "▁سرویس": 3384,
    "▁حاکم": 3385,
    "▁خوا": 3386,
    "▁گردشگران": 3387,
    "▁هیوندای": 3388,
    "▁زوج": 3389,
    "▁موش": 3390,
    "▁دستیابی": 3391,
    "▁کارلوس": 3392,
    "▁ثروت": 3393,
    "▁جدایی": 3394,
    "▁پارسی": 3395,
    "▁ناجی": 3396,
    "▁طنز": 3397,
    "▁تعهد": 3398,
    "نیم": 3399,
    "زن": 3400,
    "▁ابوال": 3401,
    "▁حیدر": 3402,
    "▁ارزان": 3403,
    "▁فرزندان": 3404,
    "▁کنگره": 3405,
    "▁صرفا": 3406,
    "▁عطرساز": 3407,
    "احمد": 3408,
    "جو": 3409,
    "▁منوچ": 3410,
    "▁بدل": 3411,
    "وات": 3412,
    "▁فرید": 3413,
    "▁آوردند": 3414,
    "▁قدمت": 3415,
    "شاخص": 3416,
    "▁ریخت": 3417,
    "▁موشکی": 3418,
    "▁میلیاردها": 3419,
    "▁ذخا": 3420,
    "▁یازده": 3421,
    "▁انتقادها": 3422,
    "▁سبز": 3423,
    "▁پراکند": 3424,
    "▁ژنتیک": 3425,
    "اش": 3426,
    "▁تابلوی": 3427,
    "▁پیراهن": 3428,
    "▁آوردن": 3429,
    "اسل": 3430,
    "▁گفتگوها": 3431,
    "▁آباد": 3432,
    "▁تمرکز": 3433,
    "▁گم": 3434,
    "▁هنگ": 3435,
    "▁نم": 3436,
    "▁بستن": 3437,
    "ارد": 3438,
    "▁بروند": 3439,
    "▁کنگ": 3440,
    "▁نژادی": 3441,
    "▁پوری": 3442,
    "▁۸۰۰": 3443,
    "▁افشا": 3444,
    "▁اقلی": 3445,
    "▁توانم": 3446,
    "▁کشت": 3447,
    "▁دیر": 3448,
    "▁صادرکنند": 3449,
    "▁گفتگوی": 3450,
    "قه": 3451,
    "▁جین": 3452,
    "شهر": 3453,
    "▁علن": 3454,
    "▁راس": 3455,
    "▁افسر": 3456,
    "▁ایستاد": 3457,
    "گذاری": 3458,
    "▁نیوک": 3459,
    "یب": 3460,
    "▁پارالمپیک": 3461,
    "▁اکسیژن": 3462,
    "▁دهقان": 3463,
    "▁بدانیم": 3464,
    "▁مخابرات": 3465,
    "یشه": 3466,
    "▁پرندگان": 3467,
    "▁اهداف": 3468,
    "▁پردازد": 3469,
    "▁محاسبات": 3470,
    "▁فسیل": 3471,
    "▁متقاضی": 3472,
    "گن": 3473,
    "▁ملا": 3474,
    "▁اطل": 3475,
    "▁علاقمندان": 3476,
    "▁رابرت": 3477,
    "▁ببرد": 3478,
    "▁ستارگان": 3479,
    "▁دایناسور": 3480,
    "▁غریب": 3481,
    "▁آورند": 3482,
    "▁مقیم": 3483,
    "▁میر": 3484,
    "▁سناتور": 3485,
    "▁نکند": 3486,
    "▁استرالیایی": 3487,
    "▁جمال": 3488,
    "▁احت": 3489,
    "استقلال": 3490,
    "▁هستم": 3491,
    "معاون": 3492,
    "▁معترض": 3493,
    "ونده": 3494,
    "وا": 3495,
    "لر": 3496,
    "▁اما": 3497,
    "ضعیف": 3498,
    "▁نکردن": 3499,
    "▁آندر": 3500,
    "▁شخص": 3501,
    "▁جدال": 3502,
    "▁رقص": 3503,
    "▁اهدا": 3504,
    "▁اپرا": 3505,
    "آخر": 3506,
    "▁شریفی": 3507,
    "▁نسب": 3508,
    "▁وا": 3509,
    "▁۵۲": 3510,
    "▁سرا": 3511,
    "▁بهرام": 3512,
    "▁افتتاح": 3513,
    "▁وسی": 3514,
    "▁اذ": 3515,
    "▁میل": 3516,
    "▁گرایان": 3517,
    "▁عموم": 3518,
    "▁ات": 3519,
    "▁استعداد": 3520,
    "▁شدم": 3521,
    "بین": 3522,
    "▁نان": 3523,
    "▁اوکراینی": 3524,
    "۳۰": 3525,
    "▁پوش": 3526,
    "▁بازماند": 3527,
    "▁ضعیف": 3528,
    "▁بومی": 3529,
    "▁پیوند": 3530,
    "بدترین": 3531,
    "▁بدی": 3532,
    "▁لیس": 3533,
    "▁متو": 3534,
    "رین": 3535,
    "▁ساختن": 3536,
    "▁سلف": 3537,
    "▁نزد": 3538,
    "برخ": 3539,
    "▁۹۱": 3540,
    "▁اسد": 3541,
    "▁منار": 3542,
    "▁هجومی": 3543,
    "▁هرگ": 3544,
    "▁مشتری": 3545,
    "▁صعودی": 3546,
    "▁شیش": 3547,
    "▁راهبر": 3548,
    "▁ریاض": 3549,
    "▁۷۳": 3550,
    "رج": 3551,
    "▁گیاه": 3552,
    "▁دبلیو": 3553,
    "▁فلوریدا": 3554,
    "▁رضوی": 3555,
    "▁خانوادگی": 3556,
    "▁اخلال": 3557,
    "ژانس": 3558,
    "▁بازگردد": 3559,
    "▁لزوم": 3560,
    "▁اپلیکیشن": 3561,
    "▁خاموش": 3562,
    "▁ونیز": 3563,
    "▁استراحت": 3564,
    "▁ابعاد": 3565,
    "▁بوندس": 3566,
    "▁رتکلیف": 3567,
    "▁پلاک": 3568,
    "▁مرگبار": 3569,
    "عنوان": 3570,
    "پرو": 3571,
    "▁خرند": 3572,
    "▁شاگردان": 3573,
    "▁سالمندان": 3574,
    "تب": 3575,
    "▁راموس": 3576,
    "▁احساسات": 3577,
    "▁۵۹": 3578,
    "▁ترسیم": 3579,
    "▁غالب": 3580,
    "▁۷۴": 3581,
    "▁کمپین": 3582,
    "▁آموزان": 3583,
    "▁مالاریا": 3584,
    "▁رسول": 3585,
    "▁فتاح": 3586,
    "▁دیپلمات": 3587,
    "▁حافظ": 3588,
    "▁خانوارهای": 3589,
    "استفاده": 3590,
    "▁آشفت": 3591,
    "▁کشاند": 3592,
    "۱۳": 3593,
    "▁اصطلاح": 3594,
    "▁نمکی": 3595,
    "▁فراری": 3596,
    "▁رم": 3597,
    "▁کاربر": 3598,
    "▁صنف": 3599,
    "▁تاز": 3600,
    "غال": 3601,
    "ونگ": 3602,
    "▁خوانندگ": 3603,
    "▁خلو": 3604,
    "وریس": 3605,
    "▁کاظم": 3606,
    "▁وزارتخانه": 3607,
    "نو": 3608,
    "▁عکسی": 3609,
    "▁۱۳۹": 3610,
    "▁لیور": 3611,
    "▁قراردادش": 3612,
    "وطن": 3613,
    "▁نهاده": 3614,
    "هالی": 3615,
    "▁۹۰۰": 3616,
    "▁اسلم": 3617,
    "ممکن": 3618,
    "▁هامر": 3619,
    "▁ویدئویی": 3620,
    "طبق": 3621,
    "▁رساندن": 3622,
    "▁عقید": 3623,
    "▁مون": 3624,
    "▁اریک": 3625,
    "▁زیستی": 3626,
    "▁پلی": 3627,
    "گه": 3628,
    "▁تحلیلگر": 3629,
    "▁فروشی": 3630,
    "▁شورو": 3631,
    "▁کیفر": 3632,
    "▁حریفان": 3633,
    "شد": 3634,
    "▁حیاتی": 3635,
    "▁سلمان": 3636,
    "▁ثروتمند": 3637,
    "گروه": 3638,
    "▁بس": 3639,
    "▁دقت": 3640,
    "▁رحم": 3641,
    "▁استخر": 3642,
    "تمرکز": 3643,
    "▁ور": 3644,
    "▁همچ": 3645,
    "▁اوست": 3646,
    "▁طرز": 3647,
    "▁گانه": 3648,
    "دون": 3649,
    "▁شو": 3650,
    "▁بدر": 3651,
    "کدام": 3652,
    "▁ازای": 3653,
    "▁خودروی": 3654,
    "وب": 3655,
    "▁آنک": 3656,
    "▁وست": 3657,
    "▁زو": 3658,
    "▁مرغدار": 3659,
    "▁کریست": 3660,
    "▁سپر": 3661,
    "▁تایم": 3662,
    "▁شاعران": 3663,
    "▁باشگاهی": 3664,
    "▁سم": 3665,
    "▁بوک": 3666,
    "ث": 3667,
    "▁پرسید": 3668,
    "خی": 3669,
    "▁فلسفه": 3670,
    "▁موظف": 3671,
    "▁نیوزیلند": 3672,
    "▁تأثیر": 3673,
    "▁استخدام": 3674,
    "▁منتخب": 3675,
    "▁غربالگری": 3676,
    "▁ارمنستان": 3677,
    "▁ثامن": 3678,
    "▁شلوغ": 3679,
    "▁اعتراف": 3680,
    "وله": 3681,
    "▁یوگا": 3682,
    "▁لهستان": 3683,
    "▁خلاقیت": 3684,
    "▁لنون": 3685,
    "▁حرکات": 3686,
    "▁رولز": 3687,
    "▁بزنند": 3688,
    "▁ذکر": 3689,
    "اول": 3690,
    "▁بروکسل": 3691,
    "▁تماشاچی": 3692,
    "▁متعهد": 3693,
    "▁خادم": 3694,
    "▁نادرست": 3695,
    "▁بامداد": 3696,
    "▁غرق": 3697,
    "▁جاستین": 3698,
    "▁تلگرام": 3699,
    "▁چراغ": 3700,
    "▁رانندگی": 3701,
    "▁همسایه": 3702,
    "▁قطار": 3703,
    "▁فرونشست": 3704,
    "▁پیاده": 3705,
    "▁سیاستمداران": 3706,
    "▁گیاهان": 3707,
    "▁توضیحات": 3708,
    "آی": 3709,
    "▁امن": 3710,
    "▁متشک": 3711,
    "▁تفاهم": 3712,
    "▁امشب": 3713,
    "▁وجه": 3714,
    "▁اعطا": 3715,
    "▁اندازد": 3716,
    "پل": 3717,
    "▁خشکسالی": 3718,
    "▁کرو": 3719,
    "ولی": 3720,
    "▁انتقادهای": 3721,
    "مراسم": 3722,
    "▁مستق": 3723,
    "مل": 3724,
    "▁پولی": 3725,
    "▁آمدند": 3726,
    "ختم": 3727,
    "▁شه": 3728,
    "مسئولان": 3729,
    "▁اح": 3730,
    "▁سرباز": 3731,
    "صوفی": 3732,
    "بون": 3733,
    "▁ژوز": 3734,
    "▁شمسی": 3735,
    "▁سازد": 3736,
    "▁اعضا": 3737,
    "▁آگاه": 3738,
    "رهای": 3739,
    "الله": 3740,
    "▁آزمای": 3741,
    "ناز": 3742,
    "▁نروژ": 3743,
    "▁سراغ": 3744,
    "▁کال": 3745,
    "▁نامزدها": 3746,
    "▁مرس": 3747,
    "ویز": 3748,
    "▁شهردار": 3749,
    "▁رش": 3750,
    "▁شکار": 3751,
    "▁تحقیقی": 3752,
    "▁ناو": 3753,
    "▁نت": 3754,
    "▁۱۳۵": 3755,
    "▁مقطع": 3756,
    "▁بها": 3757,
    "بت": 3758,
    "▁تصویری": 3759,
    "▁رصد": 3760,
    "▁استاین": 3761,
    "▁مگا": 3762,
    "برگزار": 3763,
    "▁منتف": 3764,
    "شمار": 3765,
    "▁افکار": 3766,
    "▁دروغ": 3767,
    "▁تند": 3768,
    "▁فضانورد": 3769,
    "مار": 3770,
    "▁اوا": 3771,
    "▁اوین": 3772,
    "▁یکم": 3773,
    "▁دردسر": 3774,
    "ژه": 3775,
    "▁درس": 3776,
    "مرکز": 3777,
    "▁شاهکار": 3778,
    "▁تعقیب": 3779,
    "▁خسارات": 3780,
    "▁لالیگا": 3781,
    "▁تضمین": 3782,
    "▁انبوه": 3783,
    "▁یهودی": 3784,
    "▁ناپدید": 3785,
    "▁بگویم": 3786,
    "▁بیفتد": 3787,
    "▁خیانت": 3788,
    "▁سایبری": 3789,
    "▁بزوس": 3790,
    "▁اسپرت": 3791,
    "▁ارزشمند": 3792,
    "▁کووید۱۹": 3793,
    "▁لاریجان": 3794,
    "▁مهرماه": 3795,
    "بعد": 3796,
    "▁طرفدار": 3797,
    "▁اکسید": 3798,
    "▁سرو": 3799,
    "▁وار": 3800,
    "▁متناسب": 3801,
    "▁یکصد": 3802,
    "▁مبادلات": 3803,
    "لحق": 3804,
    "یحی": 3805,
    "▁عنکبوت": 3806,
    "▁۲۰۰۴": 3807,
    "▁تالار": 3808,
    "▁فجر": 3809,
    "▁مداوم": 3810,
    "▁الحسن": 3811,
    "▁چیزهای": 3812,
    "▁انصاریان": 3813,
    "کم": 3814,
    "▁تندرو": 3815,
    "▁جاشوا": 3816,
    "▁تکلیف": 3817,
    "ناد": 3818,
    "▁بیروت": 3819,
    "صورت": 3820,
    "یخ": 3821,
    "▁عضلا": 3822,
    "▁جزییات": 3823,
    "▁مرتب": 3824,
    "▁کنزو": 3825,
    "وجود": 3826,
    "یلی": 3827,
    "▁مامور": 3828,
    "▁صلاح": 3829,
    "▁پایدار": 3830,
    "▁آرامکو": 3831,
    "▁تقابل": 3832,
    "▁زور": 3833,
    "نت": 3834,
    "پرس": 3835,
    "شاهی": 3836,
    "▁گریز": 3837,
    "▁ترور": 3838,
    "▁هواپیماهای": 3839,
    "▁دوحه": 3840,
    "سم": 3841,
    "▁پناهندگ": 3842,
    "▁راک": 3843,
    "جایی": 3844,
    "▁مسیحی": 3845,
    "▁۱۳۶": 3846,
    "وپن": 3847,
    "حالا": 3848,
    "▁جهاد": 3849,
    "زم": 3850,
    "دادگاه": 3851,
    "اتحاد": 3852,
    "اینها": 3853,
    "پژوهشگران": 3854,
    "▁پیرو": 3855,
    "▁پیشرفته": 3856,
    "منه": 3857,
    "شماری": 3858,
    "▁کپی": 3859,
    "▁آرا": 3860,
    "▁گنج": 3861,
    "▁متوا": 3862,
    "▁دپ": 3863,
    "▁روب": 3864,
    "▁جبه": 3865,
    "▁عضوی": 3866,
    "▁ثروتمندتر": 3867,
    "▁ظه": 3868,
    "▁داروهای": 3869,
    "ستون": 3870,
    "▁مادران": 3871,
    "▁نظم": 3872,
    "▁استعفای": 3873,
    "▁پرهی": 3874,
    "▁برزیلی": 3875,
    "جری": 3876,
    "▁راند": 3877,
    "برنامه": 3878,
    "▁تلف": 3879,
    "▁نورد": 3880,
    "▁اختلا": 3881,
    "دیگر": 3882,
    "▁ایراد": 3883,
    "▁صحن": 3884,
    "▁خرابکار": 3885,
    "▁گرفتار": 3886,
    "رگن": 3887,
    "رنو": 3888,
    "▁راستی": 3889,
    "▁بازگشا": 3890,
    "▁اید": 3891,
    "▁مکزیک": 3892,
    "▁سحر": 3893,
    "وریا": 3894,
    "▁حو": 3895,
    "▁سیزدهم": 3896,
    "گل": 3897,
    "▁آغداشلو": 3898,
    "▁سامسونگ": 3899,
    "▁تدابیر": 3900,
    "▁اعتقاد": 3901,
    "▁بفروشد": 3902,
    "▁وقایع": 3903,
    "▁ظهر": 3904,
    "▁بلوچ": 3905,
    "▁انقراض": 3906,
    "▁تدوین": 3907,
    "▁دماوند": 3908,
    "▁زغال": 3909,
    "▁جعل": 3910,
    "▁استرازنکا": 3911,
    "▁مکرر": 3912,
    "▁مسایل": 3913,
    "▁ببینند": 3914,
    "▁برگردد": 3915,
    "▁نشیب": 3916,
    "▁بوشهر": 3917,
    "▁ببیند": 3918,
    "▁مسافت": 3919,
    "▁فروپاشی": 3920,
    "رجمه": 3921,
    "رات": 3922,
    "▁سیگار": 3923,
    "▁اکتشاف": 3924,
    "▁سرتیپ": 3925,
    "▁زنجان": 3926,
    "▁بختیار": 3927,
    "▁غیاب": 3928,
    "▁ابهام": 3929,
    "▁محبوبیت": 3930,
    "قات": 3931,
    "▁تخلفات": 3932,
    "▁صحیح": 3933,
    "▁رضایت": 3934,
    "▁ترافیک": 3935,
    "▁سادات": 3936,
    "▁دستاوردهای": 3937,
    "▁ضایع": 3938,
    "▁کریسمس": 3939,
    "▁کیانوش": 3940,
    "ردن": 3941,
    "▁تیرماه": 3942,
    "▁صالحی": 3943,
    "▁مقدم": 3944,
    "گرفته": 3945,
    "▁جنایت": 3946,
    "▁مصون": 3947,
    "▁منچستریونایتد": 3948,
    "▁همینطور": 3949,
    "▁انتخابی": 3950,
    "رق": 3951,
    "▁الکس": 3952,
    "کان": 3953,
    "▁کابین": 3954,
    "▁ماهیگیر": 3955,
    "▁کاربرد": 3956,
    "▁مهاجران": 3957,
    "رای": 3958,
    "▁گلف": 3959,
    "▁شوید": 3960,
    "▁مبنای": 3961,
    "▁ابرا": 3962,
    "نواک": 3963,
    "▁نکردند": 3964,
    "▁قوس": 3965,
    "▁درختان": 3966,
    "▁صفحات": 3967,
    "▁چوب": 3968,
    "▁فدرال": 3969,
    "▁حدی": 3970,
    "▁رادیویی": 3971,
    "▁درانی": 3972,
    "▁وحید": 3973,
    "▁همسان": 3974,
    "سب": 3975,
    "▁آمریکاست": 3976,
    "▁شانزدهم": 3977,
    "▁نوید": 3978,
    "اج": 3979,
    "▁همرسان": 3980,
    "▁داشتیم": 3981,
    "▁گروگانگیر": 3982,
    "▁رویس": 3983,
    "رقابت": 3984,
    "▁وزرای": 3985,
    "▁دهک": 3986,
    "▁مغاز": 3987,
    "▁معیشتی": 3988,
    "▁مهمان": 3989,
    "▁ژن": 3990,
    "▁فیلمبردار": 3991,
    "▁۱۳۷": 3992,
    "▁کردستان": 3993,
    "▁۶۸": 3994,
    "یمی": 3995,
    "انصراف": 3996,
    "▁فیلتر": 3997,
    "▁دعوا": 3998,
    "▁روبرت": 3999,
    "لک": 4000,
    "▁رس": 4001,
    "▁کاست": 4002,
    "▁کتی": 4003,
    "▁روستا": 4004,
    "▁رئیسی": 4005,
    "صاف": 4006,
    "▁موازی": 4007,
    "▁کادی": 4008,
    "▁پوشاند": 4009,
    "هرانا": 4010,
    "هز": 4011,
    "▁مرگش": 4012,
    "▁آلن": 4013,
    "▁سختگیر": 4014,
    "اتی": 4015,
    "▁فی": 4016,
    "ماهی": 4017,
    "▁کوچکتر": 4018,
    "▁یکسال": 4019,
    "▁اهدای": 4020,
    "▁چی": 4021,
    "▁دوج": 4022,
    "▁بینند": 4023,
    "یره": 4024,
    "▁سل": 4025,
    "▁درآورد": 4026,
    "▁هروی": 4027,
    "▁آگ": 4028,
    "▁لوان": 4029,
    "▁شیرین": 4030,
    "ویژ": 4031,
    "اقد": 4032,
    "▁نیما": 4033,
    "▁شون": 4034,
    "شاید": 4035,
    "عی": 4036,
    "▁پیشگیر": 4037,
    "▁باستان": 4038,
    "خیره": 4039,
    "▁بینیم": 4040,
    "▁آفریقایی": 4041,
    "▁اظهارنظر": 4042,
    "▁فرانک": 4043,
    "خواست": 4044,
    "▁علیر": 4045,
    "ساب": 4046,
    "▁کارداشیان": 4047,
    "▁المستقبل": 4048,
    "▁مکتوب": 4049,
    "▁اوباما": 4050,
    "▁ناچار": 4051,
    "▁محاکم": 4052,
    "▁بندرعباس": 4053,
    "روی": 4054,
    "▁معدود": 4055,
    "▁آسمایی": 4056,
    "▁مرجع": 4057,
    "▁آشوری": 4058,
    "▁مواضع": 4059,
    "▁۱۳۹۶": 4060,
    "▁ساویز": 4061,
    "▁ثانوی": 4062,
    "▁کامیون": 4063,
    "گراندپری": 4064,
    "▁مختل": 4065,
    "▁ندارم": 4066,
    "▁حباب": 4067,
    "▁توجیه": 4068,
    "جوبی": 4069,
    "▁مداخل": 4070,
    "▁استراتژی": 4071,
    "▁برانکو": 4072,
    "▁رفاه": 4073,
    "▁کمرنگ": 4074,
    "▁معارف": 4075,
    "▁متنوع": 4076,
    "▁نوشیدن": 4077,
    "▁تکنولوژی": 4078,
    "▁دشمنان": 4079,
    "موند": 4080,
    "▁خرسند": 4081,
    "▁جف": 4082,
    "وداع": 4083,
    "▁تعادل": 4084,
    "▁سکوت": 4085,
    "▁عصب": 4086,
    "صخره": 4087,
    "شیبا": 4088,
    "بازار": 4089,
    "دور": 4090,
    "قص": 4091,
    "▁خریداران": 4092,
    "▁گوی": 4093,
    "▁داریوش": 4094,
    "▁قبال": 4095,
    "▁برنز": 4096,
    "▁سگ": 4097,
    "▁دهید": 4098,
    "▁کاردن": 4099,
    "دوف": 4100,
    "▁تعجب": 4101,
    "باشگاه": 4102,
    "▁ادعاهای": 4103,
    "▁هفدهم": 4104,
    "▁ناآرامی": 4105,
    "▁سیزده": 4106,
    "▁زیبا": 4107,
    "▁کشتار": 4108,
    "▁کیست": 4109,
    "▁خارا": 4110,
    "سل": 4111,
    "▁اسپوت": 4112,
    "▁وب": 4113,
    "خته": 4114,
    "اف": 4115,
    "▁شانه": 4116,
    "▁حکمتی": 4117,
    "▁اصول": 4118,
    "لاق": 4119,
    "▁همانند": 4120,
    "▁شیمی": 4121,
    "▁اسپ": 4122,
    "▁ریچارد": 4123,
    "لیورپول": 4124,
    "▁واسط": 4125,
    "▁مصاد": 4126,
    "▁پسرش": 4127,
    "▁کوچکی": 4128,
    "▁عزیزی": 4129,
    "لف": 4130,
    "▁روزمر": 4131,
    "علیرضا": 4132,
    "▁شاپو": 4133,
    "▁ترکمن": 4134,
    "▁برادرش": 4135,
    "▁اله": 4136,
    "▁پالا": 4137,
    "▁آقا": 4138,
    "▁کنسول": 4139,
    "▁اشیا": 4140,
    "▁خدا": 4141,
    "فصل": 4142,
    "▁تعهداتش": 4143,
    "▁ناب": 4144,
    "اداری": 4145,
    "ماده": 4146,
    "یعن": 4147,
    "▁نوشتن": 4148,
    "هدف": 4149,
    "ایش": 4150,
    "▁کارگردانان": 4151,
    "▁شوهر": 4152,
    "▁خال": 4153,
    "غذی": 4154,
    "▁نمود": 4155,
    "▁شهیدی": 4156,
    "▁۸۲": 4157,
    "▁آگاهی": 4158,
    "▁کلا": 4159,
    "▁آرای": 4160,
    "▁سینماها": 4161,
    "▁تخیل": 4162,
    "▁برداشتن": 4163,
    "حافظه": 4164,
    "▁تش": 4165,
    "▁۶۴": 4166,
    "▁ادار": 4167,
    "اوی": 4168,
    "▁کمربند": 4169,
    "▁نوزدهم": 4170,
    "تلاف": 4171,
    "▁معیار": 4172,
    "شدت": 4173,
    "▁بنگلادش": 4174,
    "▁تأیید": 4175,
    "▁تخفیف": 4176,
    "▁ترسناک": 4177,
    "▁بگوییم": 4178,
    "▁آموزگار": 4179,
    "▁سوگوار": 4180,
    "▁منفجر": 4181,
    "▁خوشنام": 4182,
    "▁سردبیر": 4183,
    "▁احتیاط": 4184,
    "▁ماز": 4185,
    "▁بهر": 4186,
    "▁عبد": 4187,
    "▁کلینیک": 4188,
    "▁۱۹۹۸": 4189,
    "▁خفیف": 4190,
    "▁۱۹۹۰": 4191,
    "▁بمب": 4192,
    "▁۲۰۳۰": 4193,
    "▁خزر": 4194,
    "▁پیشتاز": 4195,
    "▁وصل": 4196,
    "▁زیستگاه": 4197,
    "▁ادب": 4198,
    "▁روسا": 4199,
    "▁خرس": 4200,
    "▁مزرعه": 4201,
    "▁خراب": 4202,
    "▁گرایش": 4203,
    "▁هشتگ": 4204,
    "▁تحصیلات": 4205,
    "▁پراید": 4206,
    "▁ناتوان": 4207,
    "▁نزول": 4208,
    "▁دف": 4209,
    "▁تسلیت": 4210,
    "▁مدرک": 4211,
    "▁شایعات": 4212,
    "▁دیدگاه": 4213,
    "▁توخل": 4214,
    "▁تسهیلات": 4215,
    "▁بقایای": 4216,
    "▁سربازان": 4217,
    "تیک": 4218,
    "▁کلود": 4219,
    "▁ارا": 4220,
    "▁پناهجویان": 4221,
    "▁سنبل": 4222,
    "▁مقصر": 4223,
    "▁موجودات": 4224,
    "▁هل": 4225,
    "▁کیهان": 4226,
    "▁نکات": 4227,
    "▁گذارند": 4228,
    "▁لا": 4229,
    "▁رایج": 4230,
    "▁نک": 4231,
    "▁۱۳۸": 4232,
    "▁ارد": 4233,
    "▁اضطراب": 4234,
    "چین": 4235,
    "یژن": 4236,
    "▁وع": 4237,
    "▁گردند": 4238,
    "▁عالمی": 4239,
    "▁دارید": 4240,
    "▁ارت": 4241,
    "▁قطعات": 4242,
    "حل": 4243,
    "▁زبا": 4244,
    "خاطر": 4245,
    "▁شناسان": 4246,
    "▁پارس": 4247,
    "▁بلوم": 4248,
    "قریب": 4249,
    "▁حداد": 4250,
    "سلیم": 4251,
    "وار": 4252,
    "▁اعتراضی": 4253,
    "▁منصور": 4254,
    "▁الگوی": 4255,
    "▁نوار": 4256,
    "چرخه": 4257,
    "▁خیال": 4258,
    "زکی": 4259,
    "▁خوست": 4260,
    "▁ماندگار": 4261,
    "شیوع": 4262,
    "▁تصمیمات": 4263,
    "▁شادی": 4264,
    "▁انتقالات": 4265,
    "انس": 4266,
    "۶۰": 4267,
    "▁کمتری": 4268,
    "▁انتقادات": 4269,
    "بهار": 4270,
    "داوم": 4271,
    "▁الکل": 4272,
    "مدیر": 4273,
    "▁جلالی": 4274,
    "مدت": 4275,
    "▁گور": 4276,
    "▁جنس": 4277,
    "گو": 4278,
    "▁بناها": 4279,
    "▁تسلی": 4280,
    "▁تقویم": 4281,
    "▁کاوه": 4282,
    "▁خواهر": 4283,
    "▁انیس": 4284,
    "گبا": 4285,
    "محققان": 4286,
    "▁شدیدتر": 4287,
    "تاسف": 4288,
    "زا": 4289,
    "اق": 4290,
    "▁کوبا": 4291,
    "▁مارچ": 4292,
    "پینگ": 4293,
    "▁درخش": 4294,
    "▁فلیک": 4295,
    "▁کلام": 4296,
    "▁تابلو": 4297,
    "▁نق": 4298,
    "▁۱۹۴": 4299,
    "▁پروازها": 4300,
    "▁دهان": 4301,
    "عشی": 4302,
    "▁قراردادهای": 4303,
    "▁بافت": 4304,
    "لم": 4305,
    "▁طب": 4306,
    "علاو": 4307,
    "▁سیام": 4308,
    "▁اکس": 4309,
    "▁فا": 4310,
    "تولید": 4311,
    "▁شریف": 4312,
    "نک": 4313,
    "▁کت": 4314,
    "▁نداد": 4315,
    "▁انگل": 4316,
    "لس": 4317,
    "نوردی": 4318,
    "▁مایل": 4319,
    "▁خل": 4320,
    "▁مالکان": 4321,
    "▁اندیش": 4322,
    "مرگ": 4323,
    "ندی": 4324,
    "▁۴۱": 4325,
    "▁انگشت": 4326,
    "▁نوآور": 4327,
    "▁همتای": 4328,
    "▁مقر": 4329,
    "فلاتو": 4330,
    "مول": 4331,
    "▁برجا": 4332,
    "▁دیوی": 4333,
    "▁تقدی": 4334,
    "▁سانتریفیوژ": 4335,
    "فی": 4336,
    "▁۶۲": 4337,
    "▁گشود": 4338,
    "▁مشکات": 4339,
    "▁اتوبوس": 4340,
    "▁وحدت": 4341,
    "▁پیرامون": 4342,
    "▁صداوسیما": 4343,
    "▁تورنتو": 4344,
    "▁قائدی": 4345,
    "▁اشتراک": 4346,
    "▁نوبخت": 4347,
    "▁آپارتمان": 4348,
    "▁طعم": 4349,
    "▁آثارش": 4350,
    "▁حجاب": 4351,
    "▁گابریل": 4352,
    "▁۱۳۹۵": 4353,
    "▁بفتا": 4354,
    "▁پاکبان": 4355,
    "▁بپردازد": 4356,
    "▁بگیرید": 4357,
    "▁بگیریم": 4358,
    "▁ناشناخت": 4359,
    "سانه": 4360,
    "▁بمانند": 4361,
    "▁۱۹۴۰": 4362,
    "▁کوهستان": 4363,
    "▁مخدر": 4364,
    "▁پایبند": 4365,
    "▁رمزارز": 4366,
    "▁آرشیو": 4367,
    "▁مظاهری": 4368,
    "آمار": 4369,
    "▁دانشکد": 4370,
    "▁ببرند": 4371,
    "▁تمدن": 4372,
    "▁حساسیت": 4373,
    "▁لامبورگینی": 4374,
    "▁قفس": 4375,
    "▁فرایند": 4376,
    "▁آبادی": 4377,
    "▁جابجا": 4378,
    "دهنده": 4379,
    "▁مقرر": 4380,
    "▁آغوش": 4381,
    "▁مرتضی": 4382,
    "▁عقرب": 4383,
    "▁عقل": 4384,
    "▁مردگان": 4385,
    "▁گازی": 4386,
    "▁رکوردهای": 4387,
    "▁موکو": 4388,
    "▁سالیوان": 4389,
    "▁جانور": 4390,
    "▁محض": 4391,
    "▁اسحاق": 4392,
    "▁ضربات": 4393,
    "▁جمشید": 4394,
    "▁استونز": 4395,
    "واسط": 4396,
    "▁۷۸": 4397,
    "▁شناسند": 4398,
    "درصد": 4399,
    "▁گذاشتند": 4400,
    "▁کشند": 4401,
    "▁بولت": 4402,
    "▁رفتارهای": 4403,
    "نوایی": 4404,
    "▁رایزن": 4405,
    "▁دنیاست": 4406,
    "سانی": 4407,
    "▁شهید": 4408,
    "▁ون": 4409,
    "▁نمادهای": 4410,
    "▁خطای": 4411,
    "▁شغلی": 4412,
    "▁گزارشگران": 4413,
    "▁هکرها": 4414,
    "▁نیافت": 4415,
    "▁نشانی": 4416,
    "▁نفری": 4417,
    "اع": 4418,
    "▁اموا": 4419,
    "▁بوی": 4420,
    "خانواده": 4421,
    "مپ": 4422,
    "▁۴۷": 4423,
    "چهار": 4424,
    "اشی": 4425,
    "▁ذهنی": 4426,
    "▁نظرات": 4427,
    "یچ": 4428,
    "▁سیم": 4429,
    "۱۵": 4430,
    "▁سکونت": 4431,
    "▁۸۱": 4432,
    "بویایی": 4433,
    "▁امی": 4434,
    "▁ایر": 4435,
    "▁غم": 4436,
    "▁تدری": 4437,
    "▁هوادار": 4438,
    "سپاری": 4439,
    "▁قبر": 4440,
    "▁روزی": 4441,
    "▁بل": 4442,
    "مارک": 4443,
    "ایت": 4444,
    "▁مب": 4445,
    "▁پروان": 4446,
    "▁معیشت": 4447,
    "▁تونس": 4448,
    "انا": 4449,
    "▁ناامید": 4450,
    "▁اجبار": 4451,
    "▁فرج": 4452,
    "▁ماد": 4453,
    "▁بنیادی": 4454,
    "▁کارفرمای": 4455,
    "▁ظ": 4456,
    "▁منطق": 4457,
    "▁کاغذ": 4458,
    "▁قومی": 4459,
    "▁بازارها": 4460,
    "ایتون": 4461,
    "کور": 4462,
    "نوش": 4463,
    "▁جست": 4464,
    "▁خالص": 4465,
    "شاه": 4466,
    "▁خزان": 4467,
    "▁نشت": 4468,
    "▁خریده": 4469,
    "▁پاهای": 4470,
    "▁جاهای": 4471,
    "▁عمران": 4472,
    "▁پیشرو": 4473,
    "▁۱۹۰": 4474,
    "باز": 4475,
    "امیر": 4476,
    "گشایی": 4477,
    "▁تایلند": 4478,
    "▁یکسان": 4479,
    "▁۱۴۰": 4480,
    "▁۷۲": 4481,
    "▁شع": 4482,
    "▁موجودی": 4483,
    "▁تثب": 4484,
    "فع": 4485,
    "۲۰۰": 4486,
    "▁منظر": 4487,
    "▁لوکا": 4488,
    "▁قطبی": 4489,
    "تراشه": 4490,
    "▁۷۶": 4491,
    "▁رنگی": 4492,
    "▁مأمور": 4493,
    "▁فزاینده": 4494,
    "▁مایکروسافت": 4495,
    "▁واضح": 4496,
    "▁اپیدمی": 4497,
    "▁پرطرفدار": 4498,
    "▁وحشتناک": 4499,
    "▁یونسکو": 4500,
    "▁ابتکار": 4501,
    "▁گلمکانی": 4502,
    "▁شباهت": 4503,
    "▁بکشند": 4504,
    "▁سوپرلیگ": 4505,
    "▁متاثر": 4506,
    "▁راپینو": 4507,
    "▁پشتیبان": 4508,
    "▁وفادار": 4509,
    "▁فلج": 4510,
    "▁آشام": 4511,
    "▁اسرار": 4512,
    "▁لگن": 4513,
    "▁امواج": 4514,
    "▁ناقض": 4515,
    "▁ترانزیت": 4516,
    "▁معما": 4517,
    "▁پرستاران": 4518,
    "▁درخشانی": 4519,
    "▁تعبیر": 4520,
    "▁زودهنگام": 4521,
    "▁توفان": 4522,
    "▁سارس": 4523,
    "نظرسنجی": 4524,
    "▁غفوری": 4525,
    "▁هستید": 4526,
    "▁دورت": 4527,
    "دغدغه": 4528,
    "▁گلایه": 4529,
    "لاشه": 4530,
    "سئول": 4531,
    "▁عاشقانه": 4532,
    "▁مخصوصا": 4533,
    "▁ریاضی": 4534,
    "▁دخترش": 4535,
    "▁دهندگان": 4536,
    "▁گودال": 4537,
    "▁بنکسی": 4538,
    "▁تبادل": 4539,
    "▁مارتین": 4540,
    "▁برگ": 4541,
    "▁ندیده": 4542,
    "▁فضانوردان": 4543,
    "▁شمارش": 4544,
    "▁زهره": 4545,
    "جیب": 4546,
    "▁کما": 4547,
    "▁محکم": 4548,
    "▁ریزش": 4549,
    "▁فیس": 4550,
    "▁حاجی": 4551,
    "▁نداشتم": 4552,
    "▁تار": 4553,
    "▁معاش": 4554,
    "▁خواندند": 4555,
    "▁قند": 4556,
    "بع": 4557,
    "▁برف": 4558,
    "▁دهلی": 4559,
    "▁نداشتن": 4560,
    "▁رسم": 4561,
    "▁کج": 4562,
    "▁سرگرمی": 4563,
    "▁تاکتیکی": 4564,
    "ایدو": 4565,
    "▁پژو": 4566,
    "▁سوئ": 4567,
    "مع": 4568,
    "▁رت": 4569,
    "قی": 4570,
    "▁زایی": 4571,
    "▁دم": 4572,
    "▁وجو": 4573,
    "▁نیا": 4574,
    "▁۱۳۴": 4575,
    "▁درج": 4576,
    "▁تاریکی": 4577,
    "▁پورتو": 4578,
    "تنها": 4579,
    "▁آرزوی": 4580,
    "نشینی": 4581,
    "وح": 4582,
    "▁دوازدهم": 4583,
    "▁شناسد": 4584,
    "آمیز": 4585,
    "▁استدر": 4586,
    "▁جوز": 4587,
    "▁اد": 4588,
    "▁استثنا": 4589,
    "▁لیست": 4590,
    "▁تاریک": 4591,
    "▁افتادن": 4592,
    "▁یافتند": 4593,
    "بازی": 4594,
    "ندان": 4595,
    "۴۰": 4596,
    "▁ماریا": 4597,
    "▁گیل": 4598,
    "▁جانش": 4599,
    "نمایندگان": 4600,
    "منابع": 4601,
    "▁سامان": 4602,
    "انتظار": 4603,
    "▁تام": 4604,
    "سلسل": 4605,
    "▁ژ": 4606,
    "▁ویرجی": 4607,
    "▁سطو": 4608,
    "بانی": 4609,
    "▁نزدیکان": 4610,
    "تحول": 4611,
    "کوبی": 4612,
    "▁اسک": 4613,
    "۲۳": 4614,
    "▁رخت": 4615,
    "▁استودیو": 4616,
    "لات": 4617,
    "▁نسبتا": 4618,
    "▁تهدیدهای": 4619,
    "وازه": 4620,
    "▁نرسید": 4621,
    "▁دوازده": 4622,
    "▁داروها": 4623,
    "▁نجف": 4624,
    "گون": 4625,
    "بریج": 4626,
    "سوزی": 4627,
    "▁تحرک": 4628,
    "۴۶": 4629,
    "فرج": 4630,
    "▁محدودیتها": 4631,
    "سو": 4632,
    "▁روال": 4633,
    "▁بریت": 4634,
    "▁سلطانی": 4635,
    "▁میرزا": 4636,
    "▁قرمزها": 4637,
    "راتی": 4638,
    "▁شهریار": 4639,
    "▁خالق": 4640,
    "نز": 4641,
    "زمان": 4642,
    "سپری": 4643,
    "آبادی": 4644,
    "درفتار": 4645,
    "▁مند": 4646,
    "هام": 4647,
    "▁قم": 4648,
    "▁نمادی": 4649,
    "ظیف": 4650,
    "▁شجاع": 4651,
    "پپ": 4652,
    "▁نوازند": 4653,
    "سن": 4654,
    "خر": 4655,
    "خواهند": 4656,
    "▁چشمان": 4657,
    "▁مقا": 4658,
    "▁پیمانکار": 4659,
    "▁نویی": 4660,
    "▁۵۳": 4661,
    "بینی": 4662,
    "خت": 4663,
    "▁۸۶": 4664,
    "▁لیگا": 4665,
    "زیگ": 4666,
    "▁دشمن": 4667,
    "▁دستاورد": 4668,
    "▁شنیدن": 4669,
    "▁کاریر": 4670,
    "▁۱۹۵": 4671,
    "▁شهرک": 4672,
    "▁پالایش": 4673,
    "▁پناهجوی": 4674,
    "▁۱۹۷": 4675,
    "▁پار": 4676,
    "▁مصدوم": 4677,
    "▁معلم": 4678,
    "▁الانبیا": 4679,
    "▁بوچانی": 4680,
    "▁جامائیکا": 4681,
    "▁دژپسند": 4682,
    "▁پوچتینو": 4683,
    "▁باورنکردنی": 4684,
    "▁رولزرویس": 4685,
    "▁زریاب": 4686,
    "▁غرامت": 4687,
    "▁وروورت": 4688,
    "▁آسوشیتد": 4689,
    "▁پلامر": 4690,
    "▁والیبال": 4691,
    "▁ارجاع": 4692,
    "▁کالبد": 4693,
    "▁قزاقستان": 4694,
    "▁بلاروس": 4695,
    "▁ببینیم": 4696,
    "▁بیاورد": 4697,
    "▁جرایم": 4698,
    "▁اثبات": 4699,
    "▁مطلوب": 4700,
    "▁تایتان": 4701,
    "▁نارضای": 4702,
    "▁تکنیک": 4703,
    "▁زحمت": 4704,
    "▁پنگوئن": 4705,
    "▁مسترز": 4706,
    "▁محترم": 4707,
    "▁معاف": 4708,
    "جیمزباند": 4709,
    "▁مکمل": 4710,
    "▁گوگ": 4711,
    "لتیک": 4712,
    "▁احکام": 4713,
    "▁مخفیانه": 4714,
    "▁فیلیپ": 4715,
    "▁بدانند": 4716,
    "ضعف": 4717,
    "فینیتی": 4718,
    "▁پاد": 4719,
    "ایح": 4720,
    "▁اردوگاه": 4721,
    "▁آفرین": 4722,
    "▁انستیتو": 4723,
    "▁بوکسور": 4724,
    "▁اتصال": 4725,
    "همه": 4726,
    "▁اشکال": 4727,
    "▁۱۹۸۰": 4728,
    "▁فیلیپین": 4729,
    "▁گردش": 4730,
    "▁گرمایش": 4731,
    "▁آلزایمر": 4732,
    "▁معوقه": 4733,
    "▁قبرس": 4734,
    "▁شوخی": 4735,
    "▁نمایشنامه": 4736,
    "▁دارا": 4737,
    "▁حبیب": 4738,
    "▁بوئین": 4739,
    "▁عزم": 4740,
    "▁۹۴": 4741,
    "▁جزای": 4742,
    "شر": 4743,
    "▁کمدی": 4744,
    "▁پیتر": 4745,
    "▁باختند": 4746,
    "مانده": 4747,
    "▁بردارد": 4748,
    "▁فلسطینی": 4749,
    "لژی": 4750,
    "▁۶۵۰": 4751,
    "▁۸۵": 4752,
    "▁نیش": 4753,
    "▁شمس": 4754,
    "▁بارز": 4755,
    "▁شعارهای": 4756,
    "▁فضلی": 4757,
    "▁تشری": 4758,
    "▁فیروز": 4759,
    "▁الم": 4760,
    "▁تنوع": 4761,
    "▁بلوک": 4762,
    "▁سالان": 4763,
    "▁تحقیر": 4764,
    "▁انجامید": 4765,
    "▁نویسد": 4766,
    "▁جلد": 4767,
    "▁خطرات": 4768,
    "▁سرش": 4769,
    "▁کرج": 4770,
    "▁شمایل": 4771,
    "▁اعتیاد": 4772,
    "۷۰": 4773,
    "▁گرمای": 4774,
    "▁نوشتند": 4775,
    "▁تابعیت": 4776,
    "بل": 4777,
    "▁دستک": 4778,
    "▁بارداری": 4779,
    "▁فرض": 4780,
    "▁دینی": 4781,
    "نکور": 4782,
    "جیغ": 4783,
    "وایی": 4784,
    "مجلس": 4785,
    "▁همکار": 4786,
    "خان": 4787,
    "پرها": 4788,
    "▁کودتای": 4789,
    "▁تای": 4790,
    "▁دادیم": 4791,
    "▁دانشجویی": 4792,
    "سیتی": 4793,
    "دام": 4794,
    "الدین": 4795,
    "▁۳۵۰": 4796,
    "▁برایم": 4797,
    "▁سید": 4798,
    "▁زم": 4799,
    "یوان": 4800,
    "تکب": 4801,
    "ناشناس": 4802,
    "پرسپولیس": 4803,
    "▁معنا": 4804,
    "یسون": 4805,
    "▁دیدارهای": 4806,
    "▁ایا": 4807,
    "▁کاس": 4808,
    "▁مای": 4809,
    "انتشار": 4810,
    "▁۱۶۰": 4811,
    "▁رزم": 4812,
    "▁سعد": 4813,
    "▁کنی": 4814,
    "رگس": 4815,
    "زنی": 4816,
    "وارد": 4817,
    "▁۱۷۶": 4818,
    "▁۵۸": 4819,
    "نصف": 4820,
    "▁۶۱": 4821,
    "کارشناسان": 4822,
    "▁استخوان": 4823,
    "▁تیک": 4824,
    "ادا": 4825,
    "موسس": 4826,
    "▁شوش": 4827,
    "محمدجواد": 4828,
    "▁ویدئو": 4829,
    "▁امو": 4830,
    "▁مغ": 4831,
    "یشب": 4832,
    "روزنامه": 4833,
    "▁کرایس": 4834,
    "▁نخ": 4835,
    "لندر": 4836,
    "▁سوگ": 4837,
    "▁عزیز": 4838,
    "▁مهاجمان": 4839,
    "دال": 4840,
    "▁جلال": 4841,
    "▁الزام": 4842,
    "▁ته": 4843,
    "ناظر": 4844,
    "رهبر": 4845,
    "▁۵۴": 4846,
    "▁مشت": 4847,
    "ستا": 4848,
    "▁پاکستانی": 4849,
    "رشد": 4850,
    "▁بلی": 4851,
    "▁بهانه": 4852,
    "▁کیت": 4853,
    "احی": 4854,
    "▁عا": 4855,
    "▁نای": 4856,
    "گز": 4857,
    "رانه": 4858,
    "▁هلی": 4859,
    "▁برگشته": 4860,
    "▁پوشان": 4861,
    "▁بانکها": 4862,
    "رونمای": 4863,
    "▁گزارشها": 4864,
    "سوم": 4865,
    "لور": 4866,
    "▁منصوری": 4867,
    "▁احمدشا": 4868,
    "▁آنتی": 4869,
    "▁سام": 4870,
    "غه": 4871,
    "▁دانشجوی": 4872,
    "▁نامی": 4873,
    "عداد": 4874,
    "▁چال": 4875,
    "▁جنای": 4876,
    "▁دادم": 4877,
    "▁گفتگوهای": 4878,
    "▁اعما": 4879,
    "▁املا": 4880,
    "▁قض": 4881,
    "▁سازه": 4882,
    "▁۵۱": 4883,
    "▁موسوی": 4884,
    "▁ببر": 4885,
    "▁شوت": 4886,
    "▁نس": 4887,
    "▁مشوق": 4888,
    "▁سومی": 4889,
    "▁ذی": 4890,
    "▁تغییری": 4891,
    "کید": 4892,
    "▁سرنشین": 4893,
    "▁فرخ": 4894,
    "▁تعمیر": 4895,
    "▁انوش": 4896,
    "▁خانوار": 4897,
    "▁پائی": 4898,
    "▁آلومینیوم": 4899,
    "▁جغرافیای": 4900,
    "▁مستضعفان": 4901,
    "▁دگرگون": 4902,
    "▁رستگار": 4903,
    "▁سرتاسر": 4904,
    "▁تفکیک": 4905,
    "▁بنتلی": 4906,
    "▁لاجورد": 4907,
    "▁سنگاپور": 4908,
    "▁خرچنگ": 4909,
    "▁بدخشان": 4910,
    "▁برشمرد": 4911,
    "▁سرماخورد": 4912,
    "▁مشکوک": 4913,
    "ودی": 4914,
    "▁کولمن": 4915,
    "▁بوزمن": 4916,
    "▁فحش": 4917,
    "▁هواشناسی": 4918,
    "▁نصیب": 4919,
    "▁خدایاری": 4920,
    "▁ارتقا": 4921,
    "▁ریورا": 4922,
    "▁مکتب": 4923,
    "▁آویو": 4924,
    "▁مسموم": 4925,
    "▁وگوی": 4926,
    "▁بسیج": 4927,
    "▁متوفی": 4928,
    "▁پناه": 4929,
    "▁بهبهان": 4930,
    "▁فطر": 4931,
    "▁اشعار": 4932,
    "▁عسل": 4933,
    "▁حاکمیت": 4934,
    "▁سیارک": 4935,
    "▁هرمز": 4936,
    "▁تعل": 4937,
    "▁ادارات": 4938,
    "▁حضرت": 4939,
    "▁تلفات": 4940,
    "رطوب": 4941,
    "▁۲۰۰۱": 4942,
    "▁قسط": 4943,
    "هار": 4944,
    "▁متروکه": 4945,
    "▁فروغ": 4946,
    "▁بازنشستگی": 4947,
    "تلسکوپ": 4948,
    "▁غلط": 4949,
    "▁تصاحب": 4950,
    "▁دیدیم": 4951,
    "▁کانادایی": 4952,
    "زار": 4953,
    "▁کاش": 4954,
    "▁عارف": 4955,
    "▁نارس": 4956,
    "ناک": 4957,
    "دین": 4958,
    "▁ندانست": 4959,
    "▁جیپ": 4960,
    "وخامت": 4961,
    "▁آلود": 4962,
    "▁آرمان": 4963,
    "▁ندهد": 4964,
    "▁اعتنا": 4965,
    "نال": 4966,
    "▁آبادان": 4967,
    "▁والدین": 4968,
    "▁رونالدینیو": 4969,
    "برید": 4970,
    "شت": 4971,
    "بخشی": 4972,
    "خورده": 4973,
    "▁چهاردهم": 4974,
    "فته": 4975,
    "فاد": 4976,
    "▁توریست": 4977,
    "▁گرسنگ": 4978,
    "▁ناوگان": 4979,
    "▁خوانند": 4980,
    "▁پیرلو": 4981,
    "▁دشت": 4982,
    "▁مغول": 4983,
    "عارض": 4984,
    "▁بالگرد": 4985,
    "▁گلوب": 4986,
    "▁مض": 4987,
    "وکی": 4988,
    "▁فشرد": 4989,
    "▁اقتصاددان": 4990,
    "▁مخلو": 4991,
    "کسین": 4992,
    "▁زنگ": 4993,
    "یع": 4994,
    "▁رساندند": 4995,
    "▁مرادی": 4996,
    "▁گردانند": 4997,
    "سابقه": 4998,
    "▁راکت": 4999,
    "▁تیل": 5000,
    "▁بور": 5001,
    "انش": 5002,
    "کرد": 5003,
    "▁اتکا": 5004,
    "▁حتما": 5005,
    "▁میهمان": 5006,
    "▁لرز": 5007,
    "▁مستقیما": 5008,
    "▁ادوارد": 5009,
    "علت": 5010,
    "یسم": 5011,
    "▁آما": 5012,
    "۱۷": 5013,
    "▁تیموری": 5014,
    "مجانی": 5015,
    "▁گوهر": 5016,
    "▁بورگ": 5017,
    "وفر": 5018,
    "▁پرآ": 5019,
    "سفر": 5020,
    "▁ماهها": 5021,
    "▁امپراتوری": 5022,
    "▁سردار": 5023,
    "فن": 5024,
    "رگ": 5025,
    "▁ورشکست": 5026,
    "▁تبعید": 5027,
    "▁زانوی": 5028,
    "ژان": 5029,
    "ندگان": 5030,
    "▁بدنی": 5031,
    "▁درگذشته": 5032,
    "▁کمپ": 5033,
    "۲۴": 5034,
    "▁پرتر": 5035,
    "رخی": 5036,
    "▁رانت": 5037,
    "شا": 5038,
    "ارغ": 5039,
    "▁ماری": 5040,
    "نوعی": 5041,
    "▁مباد": 5042,
    "واره": 5043,
    "▁آندری": 5044,
    "کرونا": 5045,
    "▁میز": 5046,
    "بیه": 5047,
    "▁یخی": 5048,
    "▁وگوهای": 5049,
    "▁اصولگرای": 5050,
    "جر": 5051,
    "▁۱۹۶۰": 5052,
    "▁ایمان": 5053,
    "واکنش": 5054,
    "آژانس": 5055,
    "▁ویزا": 5056,
    "خبر": 5057,
    "کمیت": 5058,
    "اعضای": 5059,
    "شنگ": 5060,
    "▁وظایف": 5061,
    "مانع": 5062,
    "امضاکنندگان": 5063,
    "ترا": 5064,
    "فعالان": 5065,
    "فدرر": 5066,
    "▁تروی": 5067,
    "أی": 5068,
    "▁گرگ": 5069,
    "▁۸۸": 5070,
    "۹۹": 5071,
    "آنتونی": 5072,
    "اسماعیل": 5073,
    "کانادا": 5074,
    "▁ارگ": 5075,
    "▁بدین": 5076,
    "▁رایان": 5077,
    "اخیرا": 5078,
    "▁اک": 5079,
    "ریچارد": 5080,
    "▁عمو": 5081,
    "▁شاهزاد": 5082,
    "▁مهندسی": 5083,
    "▁پراکن": 5084,
    "▁اپرای": 5085,
    "▁۸۷": 5086,
    "رخ": 5087,
    "▁۸۹": 5088,
    "▁پرت": 5089,
    "▁قربان": 5090,
    "حرفه": 5091,
    "جیره": 5092,
    "لیون": 5093,
    "▁اقبال": 5094,
    "▁استون": 5095,
    "▁آنهاست": 5096,
    "▁رخداد": 5097,
    "▁شانزده": 5098,
    "▁امپراتور": 5099,
    "میم": 5100,
    "▁۱۹۳": 5101,
    "▁بخواهی": 5102,
    "دالله": 5103,
    "مای": 5104,
    "▁کارتو": 5105,
    "▁دوش": 5106,
    "راجر": 5107,
    "▁سفارشی": 5108,
    "▁متیو": 5109,
    "▁پیر": 5110,
    "▁دیو": 5111,
    "گفت": 5112,
    "▁لحن": 5113,
    "خامن": 5114,
    "▁فرزندش": 5115,
    "▁ویلا": 5116,
    "▁دایر": 5117,
    "پول": 5118,
    "▁پیچید": 5119,
    "▁۱۷۰": 5120,
    "رشاد": 5121,
    "▁لخت": 5122,
    "لتی": 5123,
    "سخ": 5124,
    "زین": 5125,
    "اکثریت": 5126,
    "▁پاسخگو": 5127,
    "▁آرش": 5128,
    "بالغ": 5129,
    "▁علاقمند": 5130,
    "▁سیار": 5131,
    "▁بازخوان": 5132,
    "▁نوزاد": 5133,
    "▁گویی": 5134,
    "جانب": 5135,
    "▁پیچ": 5136,
    "ائیل": 5137,
    "▁تسهیل": 5138,
    "▁گارد": 5139,
    "▁ژنو": 5140,
    "▁چرنکوف": 5141,
    "▁اتیوپی": 5142,
    "▁جاذبه": 5143,
    "▁دانچیچ": 5144,
    "▁تزئین": 5145,
    "▁اختراع": 5146,
    "▁مصیبت": 5147,
    "▁مونتاژ": 5148,
    "▁ویتنام": 5149,
    "▁رئوف": 5150,
    "▁امتداد": 5151,
    "▁عواقب": 5152,
    "▁کامبوج": 5153,
    "▁البرز": 5154,
    "▁معاین": 5155,
    "▁مثلث": 5156,
    "▁فروزش": 5157,
    "▁گیگز": 5158,
    "▁تعزیری": 5159,
    "▁زیرساخت": 5160,
    "▁وودز": 5161,
    "▁اعصاب": 5162,
    "▁پیشکسوت": 5163,
    "▁روشنفکر": 5164,
    "▁طناب": 5165,
    "▁آث": 5166,
    "▁زیارت": 5167,
    "▁بازنگری": 5168,
    "▁نعمت": 5169,
    "▁جناح": 5170,
    "▁علایم": 5171,
    "▁ابهامات": 5172,
    "▁یادبود": 5173,
    "▁دبیرستان": 5174,
    "لیگ": 5175,
    "▁کشم": 5176,
    "▁ژیمناست": 5177,
    "▁ریل": 5178,
    "▁ویدئوی": 5179,
    "▁ماس": 5180,
    "▁مرکل": 5181,
    "▁سازندگان": 5182,
    "▁نامجو": 5183,
    "▁جولی": 5184,
    "رکاب": 5185,
    "▁متحدان": 5186,
    "▁مساحت": 5187,
    "▁تمرینات": 5188,
    "▁تیره": 5189,
    "▁انحصار": 5190,
    "▁تعویض": 5191,
    "▁غیبت": 5192,
    "بالاحصار": 5193,
    "واد": 5194,
    "▁خبرها": 5195,
    "▁عرفان": 5196,
    "▁سرمای": 5197,
    "▁شیع": 5198,
    "▁گیلان": 5199,
    "▁مایع": 5200,
    "▁گذراندن": 5201,
    "▁دیوانه": 5202,
    "نم": 5203,
    "مر": 5204,
    "▁خشن": 5205,
    "▁صریح": 5206,
    "▁دورانگو": 5207,
    "▁ماشه": 5208,
    "▁مستندساز": 5209,
    "▁سانتریفیوژهای": 5210,
    "▁ریالی": 5211,
    "▁روبروست": 5212,
    "▁خیام": 5213,
    "صداق": 5214,
    "▁توس": 5215,
    "▁گرفتم": 5216,
    "▁ذات": 5217,
    "▁آزمو": 5218,
    "▁متخلفان": 5219,
    "▁اپراتورها": 5220,
    "▁باشم": 5221,
    "▁رامش": 5222,
    "▁انداختن": 5223,
    "▁نگارش": 5224,
    "▁باختری": 5225,
    "▁جاد": 5226,
    "قرض": 5227,
    "▁مال": 5228,
    "▁نوجوانان": 5229,
    "▁گرجستانی": 5230,
    "▁عرف": 5231,
    "▁ایندی": 5232,
    "▁ژور": 5233,
    "▁نیو": 5234,
    "▁نمانده": 5235,
    "▁رومانی": 5236,
    "▁بقای": 5237,
    "▁پارکر": 5238,
    "▁اخلاق": 5239,
    "▁جعفری": 5240,
    "▁بدنش": 5241,
    "مکعب": 5242,
    "▁خلیل": 5243,
    "▁بوئنو": 5244,
    "▁ویدیوهای": 5245,
    "▁کینگ": 5246,
    "▁پذیرای": 5247,
    "▁لیتر": 5248,
    "▁علوی": 5249,
    "▁صاف": 5250,
    "▁شیلی": 5251,
    "▁الیز": 5252,
    "وانند": 5253,
    "گفتگو": 5254,
    "تهران": 5255,
    "▁ابلاغی": 5256,
    "▁تخصص": 5257,
    "▁زی": 5258,
    "غیب": 5259,
    "تخا": 5260,
    "▁رحمت": 5261,
    "نشان": 5262,
    "▁فرش": 5263,
    "داستان": 5264,
    "طرف": 5265,
    "▁خالقی": 5266,
    "▁لاری": 5267,
    "باب": 5268,
    "لینی": 5269,
    "▁نگرفت": 5270,
    "▁میکروب": 5271,
    "▁صح": 5272,
    "▁عکاسان": 5273,
    "▁قا": 5274,
    "▁رجب": 5275,
    "ولت": 5276,
    "۲۸": 5277,
    "▁میلیاردر": 5278,
    "▁۹۳": 5279,
    "▁گال": 5280,
    "▁افتتاحی": 5281,
    "▁جوش": 5282,
    "▁گاو": 5283,
    "▁پریش": 5284,
    "▁برآمد": 5285,
    "▁شیفت": 5286,
    "مسی": 5287,
    "دلال": 5288,
    "▁سون": 5289,
    "۲۰": 5290,
    "▁حراست": 5291,
    "▁سوری": 5292,
    "داران": 5293,
    "▁افکاری": 5294,
    "▁استاندارد": 5295,
    "▁نوا": 5296,
    "▁اعت": 5297,
    "آلمان": 5298,
    "بررسی": 5299,
    "آمریکایی": 5300,
    "پر": 5301,
    "▁فای": 5302,
    "رم": 5303,
    "▁یگان": 5304,
    "▁توفیق": 5305,
    "مد": 5306,
    "تحقیقات": 5307,
    "صندوق": 5308,
    "شکل": 5309,
    "دونالد": 5310,
    "یونایتد": 5311,
    "(": 5312,
    "▁عط": 5313,
    "▁دلال": 5314,
    "روابط": 5315,
    "▁کالای": 5316,
    "عان": 5317,
    "▁افق": 5318,
    "▁چاب": 5319,
    "▁جواهر": 5320,
    "▁بوق": 5321,
    "▁فوریت": 5322,
    "▁آرم": 5323,
    "▁فوتبالی": 5324,
    "▁گنجی": 5325,
    "▁مواقع": 5326,
    "خیم": 5327,
    "▁نما": 5328,
    "▁فار": 5329,
    "▁آمریکای": 5330,
    "سرعت": 5331,
    "غلام": 5332,
    "▁کودتا": 5333,
    "همیلتون": 5334,
    "رافائل": 5335,
    "▁گردشگر": 5336,
    "▁ضر": 5337,
    "▁برفی": 5338,
    "ویکتور": 5339,
    "▁برتری": 5340,
    "▁هرکس": 5341,
    "▁آشنای": 5342,
    "▁میلاد": 5343,
    "▁نیکلا": 5344,
    "▁مسیح": 5345,
    "▁باتر": 5346,
    "▁فریب": 5347,
    "وازم": 5348,
    "▁استرس": 5349,
    "▁۳۲۰": 5350,
    "زاب": 5351,
    "سیویر": 5352,
    "رالله": 5353,
    "گزار": 5354,
    "هنورد": 5355,
    "▁تابو": 5356,
    "نیروی": 5357,
    "▁رسن": 5358,
    "ومبل": 5359,
    "▁کول": 5360,
    "▁سرور": 5361,
    "خوان": 5362,
    "واز": 5363,
    "▁پویا": 5364,
    "▁میکل": 5365,
    "جانی": 5366,
    "▁درآمدها": 5367,
    "زادگان": 5368,
    "ویر": 5369,
    "▁سیر": 5370,
    "▁درو": 5371,
    "▁جیل": 5372,
    "▁بینید": 5373,
    "▁مصرفی": 5374,
    "نیا": 5375,
    "ارت": 5376,
    "▁گا": 5377,
    "لمپ": 5378,
    "بدا": 5379,
    "▁۷۹": 5380,
    "▁پهپاد": 5381,
    "بته": 5382,
    "یرت": 5383,
    "▁معاد": 5384,
    "▁متغیر": 5385,
    "▁مضر": 5386,
    "ریت": 5387,
    "▁جاپلقی": 5388,
    "▁لابراتوار": 5389,
    "▁ملاحظ": 5390,
    "▁رمضان": 5391,
    "▁دریابندری": 5392,
    "▁کالدرون": 5393,
    "▁کرگدن": 5394,
    "▁اقتدار": 5395,
    "▁تضاد": 5396,
    "▁جونیور": 5397,
    "▁آرتتا": 5398,
    "▁قضاوت": 5399,
    "▁رژیم": 5400,
    "▁گریبان": 5401,
    "▁وگاس": 5402,
    "▁پاراگوئه": 5403,
    "▁الاجل": 5404,
    "▁بفروشند": 5405,
    "▁یخچال": 5406,
    "▁معالج": 5407,
    "▁واریز": 5408,
    "▁دوستداران": 5409,
    "تاکس": 5410,
    "▁تکامل": 5411,
    "▁۱۹۷۰": 5412,
    "▁گردنبند": 5413,
    "▁نوازندگان": 5414,
    "▁اذیت": 5415,
    "▁تنگنا": 5416,
    "بهم": 5417,
    "▁بخرد": 5418,
    "وحید": 5419,
    "▁تبریک": 5420,
    "▁فروشندگان": 5421,
    "▁استفانو": 5422,
    "▁تهاجمی": 5423,
    "▁کلانتری": 5424,
    "▁مبالغ": 5425,
    "▁اقامتگاه": 5426,
    "▁تویوتا": 5427,
    "▁بتهوون": 5428,
    "▁موکل": 5429,
    "▁خلاق": 5430,
    "▁ودیعه": 5431,
    "هادی": 5432,
    "▁شناگر": 5433,
    "▁آموز": 5434,
    "▁برسند": 5435,
    "▁اشنویه": 5436,
    "▁ندادن": 5437,
    "رود": 5438,
    "▁هشتصد": 5439,
    "▁حی": 5440,
    "▁شرح": 5441,
    "▁خلوت": 5442,
    "▁مردمی": 5443,
    "▁گرامی": 5444,
    "▁پیشگامان": 5445,
    "▁گرانتر": 5446,
    "▁خوشحالم": 5447,
    "▁خوشبخت": 5448,
    "فون": 5449,
    "▁نوزادان": 5450,
    "▁خویش": 5451,
    "▁تصدی": 5452,
    "▁راهنمای": 5453,
    "▁گریه": 5454,
    "فه": 5455,
    "▁نویسندگ": 5456,
    "▁فرق": 5457,
    "▁ماهشهر": 5458,
    "▁گلو": 5459,
    "ورا": 5460,
    "▁پرشور": 5461,
    "▁افسران": 5462,
    "دوست": 5463,
    "▁اعظم": 5464,
    "▁اینستاگرامش": 5465,
    "▁تورین": 5466,
    "▁عظیمی": 5467,
    "▁گزینش": 5468,
    "▁سالیانه": 5469,
    "زمینی": 5470,
    "▁گره": 5471,
    "نشین": 5472,
    "▁متولی": 5473,
    "▁خر": 5474,
    "▁امتیازات": 5475,
    "▁ساری": 5476,
    "▁سینماگران": 5477,
    "زو": 5478,
    "ناب": 5479,
    "▁بازیار": 5480,
    "▁راد": 5481,
    "▁شرع": 5482,
    "▁مزایای": 5483,
    "▁واحدها": 5484,
    "▁میلی": 5485,
    "▁حاد": 5486,
    "▁تق": 5487,
    "▁کوهن": 5488,
    "لفظ": 5489,
    "▁مائوریتس": 5490,
    "حض": 5491,
    "▁مظ": 5492,
    "کیو": 5493,
    "▁پیداست": 5494,
    "▁ماندند": 5495,
    "▁گردون": 5496,
    "▁رامی": 5497,
    "اران": 5498,
    "▁نشدند": 5499,
    "▁کلیسای": 5500,
    "دترا": 5501,
    "بادی": 5502,
    "قبل": 5503,
    "میلیون": 5504,
    "▁کشمی": 5505,
    "▁ارگان": 5506,
    "▁مشهورتر": 5507,
    "شش": 5508,
    "جاد": 5509,
    "▁اکا": 5510,
    "▁بازگو": 5511,
    "▁اچ": 5512,
    "۹۱": 5513,
    "▁دیدم": 5514,
    "زمن": 5515,
    "▁قرض": 5516,
    "زاد": 5517,
    "پا": 5518,
    "وظ": 5519,
    "پچو": 5520,
    "▁شرم": 5521,
    "کاهش": 5522,
    "▁مونت": 5523,
    "▁معاهد": 5524,
    "▁شورش": 5525,
    "▁نظری": 5526,
    "▁سوا": 5527,
    "▁حرم": 5528,
    "▁شرمن": 5529,
    "انتخابات": 5530,
    "دلیل": 5531,
    "▁مسال": 5532,
    "▁مینا": 5533,
    "دفتر": 5534,
    "مسابقات": 5535,
    "ویچ": 5536,
    "▁حریم": 5537,
    "▁استیون": 5538,
    "▁بصر": 5539,
    "یاپی": 5540,
    "▁گودا": 5541,
    "▁اولیان": 5542,
    "▁مدتها": 5543,
    "فا": 5544,
    "▁ریو": 5545,
    "▁محسوس": 5546,
    "اقتصاد": 5547,
    "اطلاعات": 5548,
    "▁لوا": 5549,
    "▁دود": 5550,
    "▁اغل": 5551,
    "کمتر": 5552,
    "یکپا": 5553,
    "▁فال": 5554,
    "▁سفی": 5555,
    "▁غل": 5556,
    "اوش": 5557,
    "دگان": 5558,
    "▁صدد": 5559,
    "ترکیه": 5560,
    "نخست": 5561,
    "زیه": 5562,
    "▁شل": 5563,
    "▁تحری": 5564,
    "▁آرزو": 5565,
    "▁شعبان": 5566,
    "چرا": 5567,
    "پایه": 5568,
    "▁ژو": 5569,
    "▁سفره": 5570,
    "▁دوری": 5571,
    "تاتنهام": 5572,
    "همین": 5573,
    "چلسی": 5574,
    "مو": 5575,
    "▁ثا": 5576,
    "▁ملته": 5577,
    "اسپانیا": 5578,
    "انجمن": 5579,
    "گوف": 5580,
    "سایت": 5581,
    "▁طیب": 5582,
    "▁تفسیر": 5583,
    "نظامی": 5584,
    "اتریش": 5585,
    "اله": 5586,
    "▁بازرگان": 5587,
    "▁ژاک": 5588,
    "اداره": 5589,
    "▁پنا": 5590,
    "▁اندام": 5591,
    "▁جنر": 5592,
    "رتب": 5593,
    "▁دانشجو": 5594,
    "نگاران": 5595,
    "▁استعمار": 5596,
    "▁وگوها": 5597,
    "کاوه": 5598,
    "والی": 5599,
    "دخت": 5600,
    "لاتین": 5601,
    "▁تاکتیک": 5602,
    "▁سرگرم": 5603,
    "تخصصی": 5604,
    "گا": 5605,
    "▁مندان": 5606,
    "▁۲۰۲": 5607,
    "▁لطف": 5608,
    "▁یکبار": 5609,
    "▁مصر": 5610,
    "▁قطرک": 5611,
    "▁درآمده": 5612,
    "شما": 5613,
    "▁وظ": 5614,
    "عادت": 5615,
    "جل": 5616,
    "▁فردین": 5617,
    "منی": 5618,
    "▁رکوردها": 5619,
    "زیر": 5620,
    "حمید": 5621,
    "▁کولبر": 5622,
    "سنگ": 5623,
    "▁فین": 5624,
    "ضرر": 5625,
    "▁مقد": 5626,
    "رینگ": 5627,
    "▁نظرهای": 5628,
    "رگیری": 5629,
    "▁رنجر": 5630,
    "ابلو": 5631,
    "نر": 5632,
    "▁کلان": 5633,
    "حمله": 5634,
    "تل": 5635,
    "تصور": 5636,
    "▁بلو": 5637,
    "▁مجرم": 5638,
    "یز": 5639,
    "ولوژی": 5640,
    "ورت": 5641,
    "بجای": 5642,
    "یلیون": 5643,
    "▁نیل": 5644,
    "▁سینو": 5645,
    "▁تخل": 5646,
    "▁کوبید": 5647,
    "▁دستیار": 5648,
    "▁اندرکار": 5649,
    "▁سیاستمدار": 5650,
    "▁بیل": 5651,
    "گیل": 5652,
    "▁بجا": 5653,
    "تاب": 5654,
    "▁مسیرها": 5655,
    "نفتی": 5656,
    "نجیره": 5657,
    "▁گردید": 5658,
    "▁مسن": 5659,
    "▁محصولاتش": 5660,
    "▁دول": 5661,
    "▁جزئی": 5662,
    "▁آبراموویچ": 5663,
    "▁زاناردی": 5664,
    "▁الگوریتم": 5665,
    "▁خنثی": 5666,
    "▁پولیتزر": 5667,
    "▁ایوانکوویچ": 5668,
    "▁بلانشت": 5669,
    "▁ربیعی": 5670,
    "▁ناگزیر": 5671,
    "▁زاکانی": 5672,
    "▁خاشقچی": 5673,
    "▁دردناک": 5674,
    "▁اسپایدر": 5675,
    "▁آوازخوان": 5676,
    "▁آژیر": 5677,
    "▁آشپز": 5678,
    "▁ذیبخش": 5679,
    "▁متمایز": 5680,
    "▁ووهان": 5681,
    "▁مصلحت": 5682,
    "▁ابداع": 5683,
    "▁عنصر": 5684,
    "▁ناپولی": 5685,
    "▁نامم": 5686,
    "▁آنکارا": 5687,
    "▁بشردوستانه": 5688,
    "▁سانتیمتر": 5689,
    "▁نامناسب": 5690,
    "▁بسازد": 5691,
    "▁مارسیال": 5692,
    "▁قائل": 5693,
    "▁بدهکار": 5694,
    "▁داوود": 5695,
    "▁نکشید": 5696,
    "▁محفظه": 5697,
    "ضاح": 5698,
    "▁آمبول": 5699,
    "▁شکارچی": 5700,
    "▁۱۹۲۰": 5701,
    "▁حسرت": 5702,
    "رسون": 5703,
    "▁نپال": 5704,
    "▁انباشت": 5705,
    "▁بارچا": 5706,
    "▁عصبانی": 5707,
    "شنا": 5708,
    "▁روانشناس": 5709,
    "▁یوو": 5710,
    "▁اجساد": 5711,
    "▁موعد": 5712,
    "تلاش": 5713,
    "▁صراحت": 5714,
    "راق": 5715,
    "▁منظم": 5716,
    "▁معاونان": 5717,
    "نفر": 5718,
    "▁نامگذاری": 5719,
    "▁بیم": 5720,
    "هین": 5721,
    "▁کادیس": 5722,
    "▁رخشانه": 5723,
    "▁صید": 5724,
    "▁بذر": 5725,
    "▁کریم": 5726,
    "▁بزن": 5727,
    "▁گواهی": 5728,
    "▁مشروب": 5729,
    "▁گوییم": 5730,
    "▁غرو": 5731,
    "▁پرند": 5732,
    "▁ساسانی": 5733,
    "▁گناه": 5734,
    "▁ریسک": 5735,
    "▁مسبب": 5736,
    "▁باریک": 5737,
    "▁هلندی": 5738,
    "▁پردازند": 5739,
    "▁بیورن": 5740,
    "▁پستاندار": 5741,
    "▁معیارهای": 5742,
    "▁انداختند": 5743,
    "▁نامشخص": 5744,
    "تصویر": 5745,
    "▁دانشگاهی": 5746,
    "اعلام": 5747,
    "▁موس": 5748,
    "▁مرت": 5749,
    "▁رابین": 5750,
    "▁فرحی": 5751,
    "نقل": 5752,
    "▁نهفته": 5753,
    "۱۹۶۵": 5754,
    "بریتی": 5755,
    "▁بهزاد": 5756,
    "▁مهمانان": 5757,
    "مص": 5758,
    "▁متحدانش": 5759,
    "▁گدار": 5760,
    "▁چار": 5761,
    "▁گوف": 5762,
    "▁سهراب": 5763,
    "گرایی": 5764,
    "برد": 5765,
    "▁کتک": 5766,
    "ابل": 5767,
    "▁برنگشت": 5768,
    "▁بلک": 5769,
    "▁کارگروه": 5770,
    "گروهی": 5771,
    "هرابی": 5772,
    "▁سالی": 5773,
    "شیپ": 5774,
    "▁پردرآمد": 5775,
    "▁ژنرا": 5776,
    "▁بش": 5777,
    "▁قاسمی": 5778,
    "قدس": 5779,
    "▁روحی": 5780,
    "▁وحشت": 5781,
    "▁توقع": 5782,
    "▁نوی": 5783,
    "▁یاوری": 5784,
    "▁القا": 5785,
    "سوس": 5786,
    "▁درخشید": 5787,
    "▁بفهم": 5788,
    "سایه": 5789,
    "▁نیس": 5790,
    "▁اق": 5791,
    "▁کیا": 5792,
    "▁خیز": 5793,
    "▁ناقل": 5794,
    "▁ژی": 5795,
    "ستی": 5796,
    "خواه": 5797,
    "لپ": 5798,
    "حقق": 5799,
    "مایک": 5800,
    "▁سرف": 5801,
    "صدای": 5802,
    "▁فابی": 5803,
    "▁حفر": 5804,
    "▁آلایند": 5805,
    "▁خاوری": 5806,
    "▁چرب": 5807,
    "▁قید": 5808,
    "▁مق": 5809,
    "▁وادار": 5810,
    "▁فنل": 5811,
    "ملو": 5812,
    "فیلد": 5813,
    "امین": 5814,
    "▁ساعته": 5815,
    "▁عمدی": 5816,
    "یسی": 5817,
    "▁سب": 5818,
    "▁جنگی": 5819,
    "جام": 5820,
    "▁همر": 5821,
    "▁صده": 5822,
    "▁مخ": 5823,
    "هکرها": 5824,
    "▁مبارک": 5825,
    "▁رقبای": 5826,
    "▁مانند": 5827,
    "۴۲": 5828,
    "▁معین": 5829,
    "▁مسافری": 5830,
    "▁کلاین": 5831,
    "نها": 5832,
    "▁کارفرما": 5833,
    "▁نخب": 5834,
    "▁گلی": 5835,
    "▁بخواهد": 5836,
    "▁شام": 5837,
    "▁بازجوی": 5838,
    "▁فهمید": 5839,
    "ریس": 5840,
    "▁احسا": 5841,
    "شو": 5842,
    "پتون": 5843,
    "داده": 5844,
    "▁تابستانی": 5845,
    "آغاز": 5846,
    "▁گرای": 5847,
    "نج": 5848,
    "یفه": 5849,
    "اکبر": 5850,
    "۶۱": 5851,
    "▁منک": 5852,
    "مرز": 5853,
    "▁نیاورد": 5854,
    "▁زلا": 5855,
    "▁برآورده": 5856,
    "▁کوش": 5857,
    "حضور": 5858,
    "وزن": 5859,
    "▁یار": 5860,
    "▁۱۸۰": 5861,
    "افت": 5862,
    "▁فخر": 5863,
    "▁پری": 5864,
    "ارتاک": 5865,
    "▁شکوف": 5866,
    "▁آتا": 5867,
    "خودرو": 5868,
    "تصمیم": 5869,
    "▁لاس": 5870,
    "کست": 5871,
    "درگذشت": 5872,
    "▁دزد": 5873,
    "▁مبت": 5874,
    "▁برهم": 5875,
    "الت": 5876,
    "▁کاران": 5877,
    "▁تندی": 5878,
    "ارو": 5879,
    "▁گز": 5880,
    "▁آلبر": 5881,
    "▁باقر": 5882,
    "زده": 5883,
    "مذاکرات": 5884,
    "▁کشتن": 5885,
    "شدیدترین": 5886,
    "▁استثنای": 5887,
    "صالح": 5888,
    "▁بانو": 5889,
    "▁جوا": 5890,
    "▁پینگ": 5891,
    "قصد": 5892,
    "▁سنگر": 5893,
    "▁الن": 5894,
    "مارادونا": 5895,
    "▁۱۱۰": 5896,
    "▁تجلی": 5897,
    "چشم": 5898,
    "▁قب": 5899,
    "نتی": 5900,
    "مشخص": 5901,
    "هشدار": 5902,
    "تصاویر": 5903,
    "▁رفتم": 5904,
    "ارزش": 5905,
    "فو": 5906,
    "نقاشی": 5907,
    "▁اجتماع": 5908,
    "بورس": 5909,
    "ژ": 5910,
    "▁پرد": 5911,
    "فرگوس": 5912,
    "وویچ": 5913,
    "▁تص": 5914,
    "▁منصو": 5915,
    "بحث": 5916,
    "هماهنگ": 5917,
    "روند": 5918,
    "تابعیت": 5919,
    "▁مهمتر": 5920,
    "▁توانی": 5921,
    "▁۸۳": 5922,
    "نون": 5923,
    "▁کنیا": 5924,
    "لیچ": 5925,
    "اطم": 5926,
    "▁رائو": 5927,
    "په": 5928,
    "الیاس": 5929,
    "▁کروناست": 5930,
    "▁بالی": 5931,
    "سلط": 5932,
    "▁بلخ": 5933,
    "▁نابود": 5934,
    "دلان": 5935,
    "▁سهیم": 5936,
    "▁نمازی": 5937,
    "ایف": 5938,
    "باتری": 5939,
    "ترانه": 5940,
    "یافته": 5941,
    "▁جنگند": 5942,
    "▁دعا": 5943,
    "دند": 5944,
    "▁الع": 5945,
    "▁پسرم": 5946,
    "صاب": 5947,
    "▁برپا": 5948,
    "آلود": 5949,
    "▁پذیری": 5950,
    "اراک": 5951,
    "▁لوی": 5952,
    "خانقا": 5953,
    "رمان": 5954,
    "غی": 5955,
    "▁اکبری": 5956,
    "▁غیربو": 5957,
    "▁۹۲": 5958,
    "۶۲": 5959,
    "نتیج": 5960,
    "▁برآوردها": 5961,
    "▁ایوان": 5962,
    "▁دادخواه": 5963,
    "▁الی": 5964,
    "▁کین": 5965,
    "لیسب": 5966,
    "▁۱۳۰": 5967,
    "ستند": 5968,
    "▁تیتر": 5969,
    "▁فرانسیس": 5970,
    "▁صدم": 5971,
    "بیست": 5972,
    "▁الگو": 5973,
    "▁مطلبی": 5974,
    "نگیز": 5975,
    "▁درسی": 5976,
    "▁عزیزان": 5977,
    "▁آکسفام": 5978,
    "▁بلایندرز": 5979,
    "▁رفسنجان": 5980,
    "▁شیکاگو": 5981,
    "▁ضوابط": 5982,
    "▁لومامبا": 5983,
    "▁پدافند": 5984,
    "▁راهپیمایی": 5985,
    "▁دفاتر": 5986,
    "▁التحصیل": 5987,
    "▁ترشح": 5988,
    "▁تأسیس": 5989,
    "▁مضاعف": 5990,
    "▁مسوول": 5991,
    "▁النصر": 5992,
    "▁هلمند": 5993,
    "▁باکتری": 5994,
    "▁قاعدتا": 5995,
    "▁فرناند": 5996,
    "▁فرسایش": 5997,
    "▁حرارت": 5998,
    "▁خودکفا": 5999,
    "▁نادری": 6000,
    "▁رغبت": 6001,
    "▁نیچر": 6002,
    "▁خلوتگر": 6003,
    "ایل": 6004,
    "▁کالینز": 6005,
    "▁۱۹۷۳": 6006,
    "▁کفایت": 6007,
    "▁فرنود": 6008,
    "▁تعاون": 6009,
    "▁بنشیند": 6010,
    "▁مجاهد": 6011,
    "▁برگردند": 6012,
    "▁بیافتد": 6013,
    "▁۱۹۶۷": 6014,
    "▁خردسال": 6015,
    "▁آنفیلد": 6016,
    "▁قاتل": 6017,
    "▁تبلت": 6018,
    "▁بگذارند": 6019,
    "▁مخاطب": 6020,
    "▁آهسته": 6021,
    "▁قارچ": 6022,
    "▁انتصاب": 6023,
    "▁۱۳۵۰": 6024,
    "▁زادگاهش": 6025,
    "▁تربیت": 6026,
    "▁توازن": 6027,
    "▁عروق": 6028,
    "▁حوض": 6029,
    "▁اتومات": 6030,
    "قندهار": 6031,
    "▁کدخدایی": 6032,
    "▁لامرد": 6033,
    "▁پرتو": 6034,
    "▁فرستد": 6035,
    "▁نجوا": 6036,
    "▁پیانو": 6037,
    "▁تقلب": 6038,
    "▁مری": 6039,
    "▁ندهند": 6040,
    "▁رکوردشکن": 6041,
    "▁بگویند": 6042,
    "▁آرایشگاه": 6043,
    "▁فرسود": 6044,
    "▁شفا": 6045,
    "▁معلولان": 6046,
    "▁خوانی": 6047,
    "ستثن": 6048,
    "▁۲۰۰۶": 6049,
    "▁خطی": 6050,
    "▁کوهنورد": 6051,
    "▁منفرد": 6052,
    "▁رودکی": 6053,
    "▁هاپک": 6054,
    "▁جد": 6055,
    "تاج": 6056,
    "▁دوتار": 6057,
    "جوزپ": 6058,
    "▁پناهند": 6059,
    "عضو": 6060,
    "▁ونگر": 6061,
    "▁اندرکاران": 6062,
    "▁استانداری": 6063,
    "▁اسپورت": 6064,
    "واقع": 6065,
    "▁استقامت": 6066,
    "رن": 6067,
    "▁کوپتر": 6068,
    "▁لبنانی": 6069,
    "▁نیمروز": 6070,
    "کشته": 6071,
    "▁یابند": 6072,
    "▁مورل": 6073,
    "▁معتمدی": 6074,
    "▁ران": 6075,
    "▁جرج": 6076,
    "▁سکوها": 6077,
    "▁هولم": 6078,
    "▁شکستن": 6079,
    "جد": 6080,
    "▁صرب": 6081,
    "▁آرت": 6082,
    "▁شخصا": 6083,
    "▁کانل": 6084,
    "تفرق": 6085,
    "▁شانگ": 6086,
    "اوران": 6087,
    "▁اختیارات": 6088,
    "▁دلتا": 6089,
    "موسیقی": 6090,
    "۵۸": 6091,
    "▁مصا": 6092,
    "▁قاب": 6093,
    "▁فضاپیمای": 6094,
    "▁دستیاران": 6095,
    "▁چرخش": 6096,
    "▁کیمن": 6097,
    "▁عمد": 6098,
    "▁آنا": 6099,
    "▁هامون": 6100,
    "▁خد": 6101,
    "▁راستش": 6102,
    "▁پسند": 6103,
    "▁بروم": 6104,
    "▁اضافی": 6105,
    "▁وکلای": 6106,
    "ایب": 6107,
    "▁برگردانده": 6108,
    "▁پهن": 6109,
    "▁محتوی": 6110,
    "▁مهل": 6111,
    "▁پال": 6112,
    "▁بیانسه": 6113,
    "▁قاعد": 6114,
    "▁ادل": 6115,
    "▁کلدی": 6116,
    "▁بدوی": 6117,
    "▁پروست": 6118,
    "▁جون": 6119,
    "بد": 6120,
    "▁لینک": 6121,
    "▁گرمی": 6122,
    "▁مشخصات": 6123,
    "▁منجم": 6124,
    "بیل": 6125,
    "ائم": 6126,
    "▁تولیدکنند": 6127,
    "▁مراود": 6128,
    "▁نیوز": 6129,
    "▁تحریمها": 6130,
    "رنج": 6131,
    "▁بروید": 6132,
    "▁آپ": 6133,
    "▁نهایتا": 6134,
    "▁کجاست": 6135,
    "▁منظره": 6136,
    "مهربان": 6137,
    "۵۷": 6138,
    "ترک": 6139,
    "تم": 6140,
    "کام": 6141,
    "▁کاوا": 6142,
    "▁سریعتر": 6143,
    "▁مولان": 6144,
    "گاوا": 6145,
    "▁جفت": 6146,
    "ولین": 6147,
    "▁درمی": 6148,
    "دیدار": 6149,
    "سیما": 6150,
    "▁فشارها": 6151,
    "▁قف": 6152,
    "▁هریس": 6153,
    "▁ضیا": 6154,
    "▁دنیل": 6155,
    "▁جراحت": 6156,
    "▁دیدند": 6157,
    "▁قبا": 6158,
    "▁سرما": 6159,
    "▁چای": 6160,
    "روح": 6161,
    "لین": 6162,
    "▁صفرها": 6163,
    "▁کویت": 6164,
    "▁افزودن": 6165,
    "هی": 6166,
    "▁بیدار": 6167,
    "▁تاجیکان": 6168,
    "ابق": 6169,
    "▁خم": 6170,
    "▁مول": 6171,
    "▁پارچ": 6172,
    "▁ساع": 6173,
    "▁سیمون": 6174,
    "▁توق": 6175,
    "▁رسی": 6176,
    "▁۱۹۶": 6177,
    "▁خار": 6178,
    "باع": 6179,
    "همچن": 6180,
    "▁هراس": 6181,
    "▁نیازها": 6182,
    "▁رشید": 6183,
    "پیر": 6184,
    "▁دنی": 6185,
    "کلی": 6186,
    "▁نیستم": 6187,
    "▁ساید": 6188,
    "دامس": 6189,
    "▁امریکا": 6190,
    "▁اعدا": 6191,
    "گشاد": 6192,
    "▁مادی": 6193,
    "ایند": 6194,
    "▁مبا": 6195,
    "▁افش": 6196,
    "▁وض": 6197,
    "پذیر": 6198,
    "▁بیتل": 6199,
    "▁کاپل": 6200,
    "▁لوکه": 6201,
    "▁مصم": 6202,
    "هدیه": 6203,
    "▁کلاه": 6204,
    "لقی": 6205,
    "خط": 6206,
    "ستر": 6207,
    "▁هادی": 6208,
    "انت": 6209,
    "کند": 6210,
    "ذل": 6211,
    "فره": 6212,
    "▁سارا": 6213,
    "▁جنی": 6214,
    "▁۸۴": 6215,
    "▁گرما": 6216,
    "▁درآمدزا": 6217,
    "اهی": 6218,
    "▁بخشید": 6219,
    "▁رز": 6220,
    "لانتی": 6221,
    "گرا": 6222,
    "لاب": 6223,
    "یج": 6224,
    "▁نر": 6225,
    "▁اسپی": 6226,
    "دمای": 6227,
    "▁گویا": 6228,
    "ریگو": 6229,
    "▁استادان": 6230,
    "▁طاق": 6231,
    "▁اینج": 6232,
    "گوئر": 6233,
    "کنون": 6234,
    "أ": 6235,
    "▁لاش": 6236,
    "فتن": 6237,
    "ژهای": 6238,
    "ایه": 6239,
    "رها": 6240,
    "▁پوشیدن": 6241,
    "▁فهم": 6242,
    "مسابقه": 6243,
    "سری": 6244,
    "▁سناریو": 6245,
    "رکورد": 6246,
    "▁رقبا": 6247,
    "▁بنیا": 6248,
    "برداری": 6249,
    "▁مغزش": 6250,
    "▁طل": 6251,
    "▁تراز": 6252,
    "استرالیا": 6253,
    "نتایج": 6254,
    "خطر": 6255,
    "سرجی": 6256,
    "فاصل": 6257,
    "▁سیلی": 6258,
    "پیروز": 6259,
    "▁آپو": 6260,
    "اچو": 6261,
    "سریع": 6262,
    "گارت": 6263,
    "مجتب": 6264,
    "پولیس": 6265,
    "رفه": 6266,
    "کینگ": 6267,
    "کلوپ": 6268,
    "نیف": 6269,
    "زود": 6270,
    "منظور": 6271,
    "▁قوز": 6272,
    "▁کمیاب": 6273,
    "قاسم": 6274,
    "داشته": 6275,
    "▁مکس": 6276,
    "فضل": 6277,
    "▁پرز": 6278,
    "۲۲": 6279,
    "نگرانی": 6280,
    "▁هشدارهای": 6281,
    "راب": 6282,
    "▁کرمانشاه": 6283,
    "▁معا": 6284,
    "تشکر": 6285,
    "صرف": 6286,
    "▁برایت": 6287,
    "▁ناآرام": 6288,
    "▁کلیسا": 6289,
    "رش": 6290,
    "▁پهلو": 6291,
    "دایی": 6292,
    "▁سپید": 6293,
    "▁ولد": 6294,
    "▁مست": 6295,
    "آیا": 6296,
    "حق": 6297,
    "▁۴۲۰": 6298,
    "▁جورجی": 6299,
    "▁نگر": 6300,
    "دنظر": 6301,
    "▁دوید": 6302,
    "▁پرید": 6303,
    "دربند": 6304,
    "▁ایرلندی": 6305,
    "▁سروده": 6306,
    "▁مسیری": 6307,
    "گیر": 6308,
    "حام": 6309,
    "▁متخلف": 6310,
    "اه": 6311,
    "▁خریدن": 6312,
    "اکی": 6313,
    "▁اخ": 6314,
    "▁قان": 6315,
    "▁جیمی": 6316,
    "▁زک": 6317,
    "▁نماند": 6318,
    "▁قاطعان": 6319,
    "▁۶۳": 6320,
    "بور": 6321,
    "حث": 6322,
    "▁تبع": 6323,
    "کلاهبرداری": 6324,
    "مرغ": 6325,
    "▁فل": 6326,
    "▁تخ": 6327,
    "▁بتوانی": 6328,
    "▁ایال": 6329,
    "▁میلیاردرها": 6330,
    "▁شاگرد": 6331,
    "▁پیشگام": 6332,
    "▁۶۹": 6333,
    "▁ریوی": 6334,
    "▁سفرها": 6335,
    "▁معلول": 6336,
    "▁اصالت": 6337,
    "لال": 6338,
    "رسیدن": 6339,
    "▁مقاوم": 6340,
    "▁بوفالو": 6341,
    "۸۵": 6342,
    "▁لیو": 6343,
    "▁شم": 6344,
    "ستعار": 6345,
    "▁فیلسوف": 6346,
    "▁ماسویدال": 6347,
    "▁کانگورو": 6348,
    "▁سانتیگراد": 6349,
    "▁عناوین": 6350,
    "▁کادرفنی": 6351,
    "▁اقتباس": 6352,
    "▁سرلشکر": 6353,
    "▁تجدد": 6354,
    "▁غیرمجاز": 6355,
    "▁ژنشنگ": 6356,
    "▁سیستماتیک": 6357,
    "▁زائر": 6358,
    "▁ماراکانا": 6359,
    "▁گاگا": 6360,
    "▁کلروک": 6361,
    "▁جاودان": 6362,
    "▁آرسن": 6363,
    "▁خاشق": 6364,
    "▁طلسم": 6365,
    "▁تجدیدنظر": 6366,
    "▁۱۹۶۹": 6367,
    "▁مرضیه": 6368,
    "▁قائم": 6369,
    "▁ارژن": 6370,
    "▁پابرجاست": 6371,
    "▁۱۹۶۶": 6372,
    "▁نابرابر": 6373,
    "▁صفوف": 6374,
    "تصاعد": 6375,
    "لث": 6376,
    "▁برگردیم": 6377,
    "▁معلولیت": 6378,
    "▁مولوی": 6379,
    "▁شاهرود": 6380,
    "▁گریگوریان": 6381,
    "▁فرنگی": 6382,
    "▁شیرجه": 6383,
    "▁۱۹۹۵": 6384,
    "▁۷۵۲": 6385,
    "▁پابند": 6386,
    "▁سازندگی": 6387,
    "▁مختاری": 6388,
    "▁پاسگاه": 6389,
    "▁بیولوژیک": 6390,
    "▁هالپ": 6391,
    "▁سلتیک": 6392,
    "▁سازوکارهای": 6393,
    "▁لبخندها": 6394,
    "▁برایانت": 6395,
    "▁لوک": 6396,
    "▁۷۵۰": 6397,
    "▁قبیل": 6398,
    "▁فلزات": 6399,
    "▁حاتمی": 6400,
    "▁گسل": 6401,
    "▁اسنپ": 6402,
    "طری": 6403,
    "▁ارکستر": 6404,
    "▁الاکلنگ": 6405,
    "▁نابسامان": 6406,
    "▁سردرگم": 6407,
    "وئرنیک": 6408,
    "▁فیروزجا": 6409,
    "▁خلبان": 6410,
    "▁کیلوولت": 6411,
    "▁سفیددره": 6412,
    "▁سحرگاه": 6413,
    "▁امیدوارکننده": 6414,
    "▁دادخواست": 6415,
    "▁۱۹۶۸": 6416,
    "▁یونسی": 6417,
    "نان": 6418,
    "▁ژنوم": 6419,
    "مانه": 6420,
    "▁نورمحمد": 6421,
    "▁کری": 6422,
    "▁اسمیت": 6423,
    "▁تفکر": 6424,
    "▁مأموریت": 6425,
    "▁هما": 6426,
    "▁آویز": 6427,
    "▁ملکشا": 6428,
    "▁آسپر": 6429,
    "▁هول": 6430,
    "▁علیزاده": 6431,
    "▁سک": 6432,
    "▁نامعلوم": 6433,
    "▁پادمان": 6434,
    "▁رژه": 6435,
    "▁هوشیاری": 6436,
    "بپرس": 6437,
    "▁پارکور": 6438,
    "▁شکننده": 6439,
    "ظه": 6440,
    "▁فرندز": 6441,
    "▁خرمشهر": 6442,
    "▁ماوریک": 6443,
    "اید": 6444,
    "▁روستاهای": 6445,
    "▁چابک": 6446,
    "▁تعلیم": 6447,
    "▁درها": 6448,
    "▁نیکولا": 6449,
    "▁فورا": 6450,
    "▁زودرس": 6451,
    "▁نجومی": 6452,
    "▁ابدی": 6453,
    "▁کلاهبردار": 6454,
    "▁سیاهپوست": 6455,
    "▁ریختن": 6456,
    "عاش": 6457,
    "▁کشتند": 6458,
    "لوب": 6459,
    "▁بگوید": 6460,
    "▁دوندگان": 6461,
    "▁چادر": 6462,
    "▁کوشید": 6463,
    "ارومیه": 6464,
    "حصول": 6465,
    "نیچ": 6466,
    "مغناطیس": 6467,
    "▁لندرو": 6468,
    "▁همب": 6469,
    "▁فرزندانش": 6470,
    "▁انگیزترین": 6471,
    "شوه": 6472,
    "▁نشانگر": 6473,
    "▁لیبی": 6474,
    "▁مهیب": 6475,
    "راک": 6476,
    "▁پاسدار": 6477,
    "▁کثیر": 6478,
    "▁کامران": 6479,
    "▁شنید": 6480,
    "▁محا": 6481,
    "▁برگزارکنند": 6482,
    "لانتا": 6483,
    "▁موسیقیدان": 6484,
    "▁کلیپ": 6485,
    "▁اشتباهات": 6486,
    "▁ترا": 6487,
    "تاکنون": 6488,
    "ینی": 6489,
    "گرنه": 6490,
    "▁خطا": 6491,
    "▁نایا": 6492,
    "وزرای": 6493,
    "▁پیمود": 6494,
    "▁لط": 6495,
    "▁اقیانوسیه": 6496,
    "▁بفرستید": 6497,
    "یامک": 6498,
    "▁کوپر": 6499,
    "▁جهانبخ": 6500,
    "▁هیولای": 6501,
    "▁کاندیدا": 6502,
    "میدان": 6503,
    "▁سینماگر": 6504,
    "▁سلام": 6505,
    "ازما": 6506,
    "ائی": 6507,
    "▁نهادی": 6508,
    "▁بازیافت": 6509,
    "▁چارل": 6510,
    "▁مجادل": 6511,
    "▁دیوارهای": 6512,
    "▁گرفتیم": 6513,
    "قیاس": 6514,
    "۹۳": 6515,
    "▁بلید": 6516,
    "باط": 6517,
    "▁پاتر": 6518,
    "▁برن": 6519,
    "▁بشریت": 6520,
    "▁تم": 6521,
    "▁رول": 6522,
    "▁دبی": 6523,
    "▁صمیمی": 6524,
    "شک": 6525,
    "▁شایست": 6526,
    "جیک": 6527,
    "بنی": 6528,
    "▁جراحان": 6529,
    "کمی": 6530,
    "▁پینک": 6531,
    "▁سهامدار": 6532,
    "تناسب": 6533,
    "▁یوسی": 6534,
    "▁خدای": 6535,
    "جهان": 6536,
    "▁ساترا": 6537,
    "▁آرزوهای": 6538,
    "اور": 6539,
    "▁منقل": 6540,
    "▁نیستیم": 6541,
    "▁حواس": 6542,
    "زیو": 6543,
    "افتاده": 6544,
    "▁پیامک": 6545,
    "▁کارل": 6546,
    "▁بکند": 6547,
    "▁۱۸۵": 6548,
    "ولد": 6549,
    "▁خالد": 6550,
    "▁بالاست": 6551,
    "روازه": 6552,
    "▁بله": 6553,
    "یونان": 6554,
    "▁نایاب": 6555,
    "یکه": 6556,
    "▁لیدی": 6557,
    "▁مسا": 6558,
    "▁کلم": 6559,
    "ئوری": 6560,
    "آفرینی": 6561,
    "▁بچ": 6562,
    "پای": 6563,
    "قو": 6564,
    "▁ساختند": 6565,
    "▁نرفت": 6566,
    "مایه": 6567,
    "▁همخوان": 6568,
    "▁جرد": 6569,
    "▁کبد": 6570,
    "▁زنیم": 6571,
    "دریچ": 6572,
    "▁پرش": 6573,
    "▁اسکان": 6574,
    "▁محف": 6575,
    "آور": 6576,
    "الکس": 6577,
    "▁گیتار": 6578,
    "ویروس": 6579,
    "سیلوا": 6580,
    "بال": 6581,
    "رف": 6582,
    "▁فروشند": 6583,
    "▁قطعا": 6584,
    "صیل": 6585,
    "▁ناشر": 6586,
    "▁اصولی": 6587,
    "▁داروین": 6588,
    "▁نشستن": 6589,
    "لیه": 6590,
    "▁ویروسی": 6591,
    "فرجام": 6592,
    "▁ترکی": 6593,
    "▁سانتو": 6594,
    "یگر": 6595,
    "تعداد": 6596,
    "▁رپ": 6597,
    "▁غیرع": 6598,
    "▁شرک": 6599,
    "▁بادی": 6600,
    "ایشگاه": 6601,
    "وجیه": 6602,
    "ئه": 6603,
    "▁بریتانیاست": 6604,
    "مورد": 6605,
    "▁اجراهای": 6606,
    "▁سف": 6607,
    "زندگی": 6608,
    "▁سنی": 6609,
    "موج": 6610,
    "▁دقتی": 6611,
    "صول": 6612,
    "حوال": 6613,
    "▁پردازی": 6614,
    "ورهای": 6615,
    "▁انتها": 6616,
    "سعود": 6617,
    "▁ناخوش": 6618,
    "▁پژ": 6619,
    "شرایط": 6620,
    "ربی": 6621,
    "▁اجت": 6622,
    "▁امری": 6623,
    "دوستان": 6624,
    "رحیم": 6625,
    "سید": 6626,
    "▁دستی": 6627,
    "▁دراین": 6628,
    "▁هجدهم": 6629,
    "▁سول": 6630,
    "مجموع": 6631,
    "▁عزا": 6632,
    "▁آموخت": 6633,
    "▁تصویربردار": 6634,
    "▁پوستر": 6635,
    "مک": 6636,
    "بان": 6637,
    "▁فتحی": 6638,
    "کشتی": 6639,
    "▁شکنی": 6640,
    "▁طرفی": 6641,
    "▁عج": 6642,
    "▁حام": 6643,
    "کنیم": 6644,
    "خیر": 6645,
    "پاش": 6646,
    "یقه": 6647,
    "▁ممیز": 6648,
    "▁سکان": 6649,
    "جشنواره": 6650,
    "ایتالیا": 6651,
    "▁داش": 6652,
    "▁کارهایش": 6653,
    "کارگران": 6654,
    "دوران": 6655,
    "سرطان": 6656,
    "تنیس": 6657,
    "▁شناختن": 6658,
    "▁اسا": 6659,
    "وزی": 6660,
    "نزا": 6661,
    "شاپی": 6662,
    "رغ": 6663,
    "حداکثر": 6664,
    "جوکوویچ": 6665,
    "▁پشتو": 6666,
    "▁تحق": 6667,
    "محمدرضا": 6668,
    "منتقدان": 6669,
    "جراح": 6670,
    "▁په": 6671,
    "آذر": 6672,
    "فرهاد": 6673,
    "▁خوشی": 6674,
    "خون": 6675,
    "مری": 6676,
    "جسمی": 6677,
    "▁عزادار": 6678,
    "مطابق": 6679,
    "▁شیوا": 6680,
    "منازع": 6681,
    "بود": 6682,
    "▁صحرا": 6683,
    "توماس": 6684,
    "دلایل": 6685,
    "▁حکمی": 6686,
    "کجاست": 6687,
    "▁موت": 6688,
    "لاله": 6689,
    "سکانس": 6690,
    "▁یادگار": 6691,
    "▁پیگیر": 6692,
    "لیدز": 6693,
    "غوری": 6694,
    "▁خاور": 6695,
    "▁درز": 6696,
    "رچه": 6697,
    "تحلیلگر": 6698,
    "مقامات": 6699,
    "تور": 6700,
    "لئوپا": 6701,
    "وستون": 6702,
    "▁مبد": 6703,
    "▁چش": 6704,
    "قدرت": 6705,
    "شکاف": 6706,
    "▁برگرداند": 6707,
    "▁عالم": 6708,
    "۳۷": 6709,
    "▁ول": 6710,
    "جن": 6711,
    "▁گدا": 6712,
    "▁گی": 6713,
    "سانس": 6714,
    "▁فرضی": 6715,
    "▁اکرا": 6716,
    "آبی": 6717,
    "▁مستع": 6718,
    "▁تبر": 6719,
    "▁۲۹۰": 6720,
    "▁پنس": 6721,
    "تازه": 6722,
    "▁مشتاق": 6723,
    "▁بانان": 6724,
    "▁اورگ": 6725,
    "ماجرای": 6726,
    "▁بازده": 6727,
    "جامع": 6728,
    "▁اصطلاحا": 6729,
    "▁دزدی": 6730,
    "یوید": 6731,
    "▁کاتال": 6732,
    "▁نب": 6733,
    "۸۹": 6734,
    "▁صدایش": 6735,
    "▁زینب": 6736,
    "▁کور": 6737,
    "▁منت": 6738,
    "▁کنشگر": 6739,
    "▁بگیر": 6740,
    "▁بایست": 6741,
    "عادی": 6742,
    "▁بینم": 6743,
    "رایت": 6744,
    "▁قوت": 6745,
    "هره": 6746,
    "نیس": 6747,
    "▁کانت": 6748,
    "▁برا": 6749,
    "▁تپند": 6750,
    "بند": 6751,
    "▁بهت": 6752,
    "▁قوم": 6753,
    "یزه": 6754,
    "رسید": 6755,
    "۳۹": 6756,
    "▁ناصری": 6757,
    "▁بزو": 6758,
    "وین": 6759,
    "نسل": 6760,
    "▁نوین": 6761,
    "پزشکی": 6762,
    "▁سازوکار": 6763,
    "لون": 6764,
    "مرد": 6765,
    "▁سازان": 6766,
    "مکش": 6767,
    "▁سفیدپوست": 6768,
    "▁کپ": 6769,
    "▁انیمیشن": 6770,
    "▁پلتفرم": 6771,
    "▁ژئوپلیتیک": 6772,
    "▁انقطاع": 6773,
    "▁اویغور": 6774,
    "▁اوربیتر": 6775,
    "▁بیندازند": 6776,
    "▁غلیظ": 6777,
    "▁بالیوود": 6778,
    "▁تدفین": 6779,
    "▁چمپیون": 6780,
    "▁ارواح": 6781,
    "▁اصغر": 6782,
    "▁اسرارآمیز": 6783,
    "▁مقتدر": 6784,
    "▁قزاق": 6785,
    "▁وسعت": 6786,
    "▁رزیدن": 6787,
    "▁یادماندنی": 6788,
    "▁اسراییل": 6789,
    "▁فلاکت": 6790,
    "▁کانتینر": 6791,
    "▁ایسلند": 6792,
    "▁جادوگر": 6793,
    "▁درام": 6794,
    "▁هریرود": 6795,
    "▁فونینی": 6796,
    "▁کرمانپور": 6797,
    "▁هیدرو": 6798,
    "▁بیاورند": 6799,
    "▁جهرمی": 6800,
    "▁تکواندو": 6801,
    "▁کلکسیون": 6802,
    "▁باثبات": 6803,
    "▁پرایس": 6804,
    "▁ناچیز": 6805,
    "▁بدانید": 6806,
    "▁متصل": 6807,
    "▁ویلسون": 6808,
    "▁فاسد": 6809,
    "ژگان": 6810,
    "▁مخرب": 6811,
    "▁بریجز": 6812,
    "▁پرجمعیت": 6813,
    "▁نیابد": 6814,
    "▁کاشف": 6815,
    "▁پرسنل": 6816,
    "لای": 6817,
    "▁مقیاس": 6818,
    "۹۰": 6819,
    "▁صلیب": 6820,
    "▁خلا": 6821,
    "▁دیرتر": 6822,
    "▁مردادماه": 6823,
    "کاراکاس": 6824,
    "▁فیصل": 6825,
    "▁جاسک": 6826,
    "▁قبرستان": 6827,
    "فشار": 6828,
    "▁دماغ": 6829,
    "▁قعر": 6830,
    "▁لورک": 6831,
    "▁بایستند": 6832,
    "▁پرشمار": 6833,
    "▁کلمات": 6834,
    "▁ابولا": 6835,
    "▁واگیر": 6836,
    "▁مجلات": 6837,
    "▁اشکالات": 6838,
    "▁قرائت": 6839,
    "▁برونته": 6840,
    "پک": 6841,
    "کرده": 6842,
    "▁کاسپی": 6843,
    "▁نیفتاد": 6844,
    "▁رفیق": 6845,
    "▁تلویح": 6846,
    "▁مارلی": 6847,
    "▁ازبک": 6848,
    "انتینو": 6849,
    "▁تعمیرات": 6850,
    "▁سیگنال": 6851,
    "▁قورباغه": 6852,
    "▁نورماگومدوف": 6853,
    "شریف": 6854,
    "پاتی": 6855,
    "▁مولف": 6856,
    "▁تصرف": 6857,
    "ذائ": 6858,
    "▁تنیده": 6859,
    "▁نشوند": 6860,
    "ریحان": 6861,
    "▁گرگور": 6862,
    "▁ثور": 6863,
    "▁ایستادند": 6864,
    "▁بازتاب": 6865,
    "▁عزت": 6866,
    "▁وکارها": 6867,
    "▁فلامینگوها": 6868,
    "▁توبین": 6869,
    "▁۱۷۳": 6870,
    "▁رستم": 6871,
    "▁مطیعی": 6872,
    "خوانی": 6873,
    "▁مانور": 6874,
    "▁انکار": 6875,
    "▁متکی": 6876,
    "▁فهیم": 6877,
    "▁تراک": 6878,
    "▁گردیم": 6879,
    "▁سرخک": 6880,
    "▁حکیم": 6881,
    "▁ایلام": 6882,
    "عفون": 6883,
    "▁لاپورتا": 6884,
    "▁واپس": 6885,
    "▁توئیتر": 6886,
    "▁جذابیت": 6887,
    "▁فضل": 6888,
    "جای": 6889,
    "آر": 6890,
    "▁شکن": 6891,
    "▁عطا": 6892,
    "زیان": 6893,
    "▁ترقی": 6894,
    "سان": 6895,
    "▁محاف": 6896,
    "▁بخواهند": 6897,
    "گردانده": 6898,
    "▁نگذاشته": 6899,
    "▁خران": 6900,
    "▁بدنشان": 6901,
    "معدنچی": 6902,
    "▁حول": 6903,
    "▁نوب": 6904,
    "جک": 6905,
    "▁رضایی": 6906,
    "▁توتال": 6907,
    "▁حف": 6908,
    "▁یزد": 6909,
    "▁کارند": 6910,
    "تفلی": 6911,
    "▁عینی": 6912,
    "▁تناقض": 6913,
    "▁خفا": 6914,
    "تار": 6915,
    "▁دردسرهای": 6916,
    "▁کشورهاست": 6917,
    "▁وول": 6918,
    "شدن": 6919,
    "▁عاج": 6920,
    "▁پیمانکاران": 6921,
    "▁تشک": 6922,
    "▁مشتاقان": 6923,
    "▁محدودی": 6924,
    "دیمیر": 6925,
    "رام": 6926,
    "▁جس": 6927,
    "▁فاضل": 6928,
    "مال": 6929,
    "ویل": 6930,
    "▁چشید": 6931,
    "▁یوسفی": 6932,
    "▁بدهید": 6933,
    "بورد": 6934,
    "▁ناک": 6935,
    "ولان": 6936,
    "▁مثل": 6937,
    "اتیو": 6938,
    "▁ورق": 6939,
    "▁اسعد": 6940,
    "زره": 6941,
    "▁بقا": 6942,
    "▁دندان": 6943,
    "▁افول": 6944,
    "▁والتر": 6945,
    "ادت": 6946,
    "▁فاطم": 6947,
    "▁دانشگر": 6948,
    "▁اینف": 6949,
    "▁کنسر": 6950,
    "▁وزرا": 6951,
    "▁نوک": 6952,
    "▁مراکش": 6953,
    "▁فروند": 6954,
    "سام": 6955,
    "▁کریس": 6956,
    "▁سموم": 6957,
    "▁قل": 6958,
    "ظن": 6959,
    "کارآمد": 6960,
    "ورد": 6961,
    "▁بلخی": 6962,
    "▁سرب": 6963,
    "نزل": 6964,
    "یوم": 6965,
    "۱۱": 6966,
    "▁رف": 6967,
    "پو": 6968,
    "▁گرینو": 6969,
    "▁توبی": 6970,
    "فروش": 6971,
    "▁علما": 6972,
    "رضی": 6973,
    "▁پژوهشهای": 6974,
    "یاس": 6975,
    "▁بازگشتند": 6976,
    "بینند": 6977,
    "▁دیف": 6978,
    "▁اینجا": 6979,
    "▁صحرای": 6980,
    "وزه": 6981,
    "▁بازه": 6982,
    "▁بایر": 6983,
    "۶۳": 6984,
    "اط": 6985,
    "ماری": 6986,
    "▁کورت": 6987,
    "▁نماید": 6988,
    "▁تردیدهای": 6989,
    "برآورد": 6990,
    "▁پیامبر": 6991,
    "▁تشی": 6992,
    "۷۵": 6993,
    "ادین": 6994,
    "چل": 6995,
    "▁عم": 6996,
    "گران": 6997,
    "ریوس": 6998,
    "▁ننگ": 6999,
    "▁غر": 7000,
    "▁سناریوها": 7001,
    "وانی": 7002,
    "ولا": 7003,
    "▁نیامد": 7004,
    "▁۱۳۲": 7005,
    "▁افزای": 7006,
    "▁شعرهای": 7007,
    "▁هواپیماساز": 7008,
    "لیس": 7009,
    "▁آس": 7010,
    "▁ابو": 7011,
    "▁امیدهای": 7012,
    "▁کلیت": 7013,
    "وط": 7014,
    "ناس": 7015,
    "▁بخشیده": 7016,
    "هید": 7017,
    "▁رفراند": 7018,
    "غلو": 7019,
    "▁برنا": 7020,
    "لوت": 7021,
    "▁عمرش": 7022,
    "▁حریر": 7023,
    "▁مستندهای": 7024,
    "▁کوری": 7025,
    "▁اسکو": 7026,
    "▁حکمت": 7027,
    "▁گویم": 7028,
    "▁عطف": 7029,
    "▁کیف": 7030,
    "▁دانستن": 7031,
    "کوس": 7032,
    "▁کانتر": 7033,
    "▁دیرو": 7034,
    "تک": 7035,
    "▁بپذیر": 7036,
    "گرفتن": 7037,
    "بریتانیا": 7038,
    "▁استوایی": 7039,
    "تالی": 7040,
    "خالف": 7041,
    "▁آوا": 7042,
    "▁کوارت": 7043,
    "▁محوری": 7044,
    "▁میدهد": 7045,
    "▁آش": 7046,
    "▁فک": 7047,
    "▁نوآوران": 7048,
    "▁بخشد": 7049,
    "گویان": 7050,
    "▁امیدی": 7051,
    "عل": 7052,
    "▁بیگ": 7053,
    "▁خب": 7054,
    "اردو": 7055,
    "▁زوم": 7056,
    "▁اروپاست": 7057,
    "▁اصولگرا": 7058,
    "▁عی": 7059,
    "ینز": 7060,
    "▁تولیدش": 7061,
    "▁ستا": 7062,
    "▁بت": 7063,
    "▁کوب": 7064,
    "عت": 7065,
    "۶۷": 7066,
    "کسل": 7067,
    "▁جیم": 7068,
    "تحریم": 7069,
    "▁محب": 7070,
    "▁لوو": 7071,
    "شون": 7072,
    "▁اسید": 7073,
    "ماشین": 7074,
    "گستر": 7075,
    "▁مارکو": 7076,
    "▁موری": 7077,
    "▁نبو": 7078,
    "حقوق": 7079,
    "▁توا": 7080,
    "▁۶۶": 7081,
    "▁شارل": 7082,
    "قل": 7083,
    "▁آبهای": 7084,
    "▁نظ": 7085,
    "نگین": 7086,
    "▁آف": 7087,
    "▁بازو": 7088,
    "زاک": 7089,
    "▁پسران": 7090,
    "پرداخت": 7091,
    "۳۴": 7092,
    "▁رجبی": 7093,
    "زر": 7094,
    "▁میکروبی": 7095,
    "▁ماهنام": 7096,
    "دیه": 7097,
    "جویی": 7098,
    "▁محرک": 7099,
    "جلیل": 7100,
    "دیده": 7101,
    "▁اجزا": 7102,
    "▁سپرد": 7103,
    "▁گپ": 7104,
    "جایزه": 7105,
    "▁نف": 7106,
    "۹۷": 7107,
    "▁مافی": 7108,
    "۷۷": 7109,
    "طوف": 7110,
    "۲۷": 7111,
    "▁شوق": 7112,
    "موضوع": 7113,
    "نرخ": 7114,
    "▁یون": 7115,
    "بازداشت": 7116,
    "ائو": 7117,
    "▁یاسم": 7118,
    "▁استیو": 7119,
    "▁امپر": 7120,
    "▁هرجا": 7121,
    "وندی": 7122,
    "▁سومو": 7123,
    "وستا": 7124,
    "انتخاب": 7125,
    "صنعت": 7126,
    "▁کوچ": 7127,
    "▁مینیاتور": 7128,
    "▁فورب": 7129,
    "▁یاب": 7130,
    "امید": 7131,
    "▁ماریان": 7132,
    "فرانسی": 7133,
    "▁کامپیوترها": 7134,
    "عکاس": 7135,
    "▁راب": 7136,
    "▁پیشنهادهای": 7137,
    "▁رویت": 7138,
    "▁گفتن": 7139,
    "▁نزده": 7140,
    "▁نزدیکتر": 7141,
    "ومین": 7142,
    "▁هرد": 7143,
    "▁بستگان": 7144,
    "▁دال": 7145,
    "هواداران": 7146,
    "نشست": 7147,
    "رفته": 7148,
    "نژاد": 7149,
    "▁چرم": 7150,
    "فرانسه": 7151,
    "حذف": 7152,
    "دینگ": 7153,
    "شکنی": 7154,
    "نجی": 7155,
    "گمرک": 7156,
    "قهرمانی": 7157,
    "کتاب": 7158,
    "▁ادوار": 7159,
    "▁پروازهایش": 7160,
    "▁افرا": 7161,
    "رویترز": 7162,
    "سفارت": 7163,
    "شوند": 7164,
    "صعود": 7165,
    "▁سوزان": 7166,
    "اتفاقات": 7167,
    "آکادمی": 7168,
    "▁هرج": 7169,
    "هنگام": 7170,
    "باخ": 7171,
    "▁حفا": 7172,
    "▁همای": 7173,
    "تایسون": 7174,
    "▁پذیرفت": 7175,
    "کاخ": 7176,
    "آرامکو": 7177,
    "خشکسالی": 7178,
    "اسناد": 7179,
    "اتهامات": 7180,
    "درهای": 7181,
    "▁سمرقند": 7182,
    "تاد": 7183,
    "بریز": 7184,
    "▁پیشا": 7185,
    "▁سمی": 7186,
    "مردان": 7187,
    "وکیل": 7188,
    "▁اکرم": 7189,
    "▁گرین": 7190,
    "▁بارور": 7191,
    "▁مساعد": 7192,
    "▁ریلی": 7193,
    "نندگان": 7194,
    "لستر": 7195,
    "▁ضم": 7196,
    "مسترد": 7197,
    "آزادی": 7198,
    "دادستان": 7199,
    "▁صوت": 7200,
    "حساب": 7201,
    "▁یوسف": 7202,
    "▁نمادها": 7203,
    "لیگا": 7204,
    "▁۲۱۰": 7205,
    "علم": 7206,
    "▁موسسا": 7207,
    "▁روده": 7208,
    "دنیل": 7209,
    "دختر": 7210,
    "وران": 7211,
    "▁غور": 7212,
    "▁هواپیماها": 7213,
    "▁سوت": 7214,
    "▁پرکار": 7215,
    "چر": 7216,
    "▁طاهر": 7217,
    "هو": 7218,
    "▁آلم": 7219,
    "تعجب": 7220,
    "باد": 7221,
    "فل": 7222,
    "▁ریگ": 7223,
    "▁فرز": 7224,
    "کشی": 7225,
    "▁گیت": 7226,
    "▁جمل": 7227,
    "▁سنج": 7228,
    "واقعی": 7229,
    "خانی": 7230,
    "▁۷۱": 7231,
    "بایی": 7232,
    "نقش": 7233,
    "▁سلیمان": 7234,
    "▁سانتا": 7235,
    "▁ماتی": 7236,
    "▁ثب": 7237,
    "▁گوسفند": 7238,
    "گت": 7239,
    "▁کوبی": 7240,
    "▁حوا": 7241,
    "وسی": 7242,
    "سنگر": 7243,
    "▁مدرس": 7244,
    "انگ": 7245,
    "▁فره": 7246,
    "▁رویز": 7247,
    "ملا": 7248,
    "طبی": 7249,
    "▁باردار": 7250,
    "▁نصر": 7251,
    "ملک": 7252,
    "ادگی": 7253,
    "▁خواستم": 7254,
    "▁سفرش": 7255,
    "▁سیلا": 7256,
    "کیت": 7257,
    "▁ولا": 7258,
    "▁روزبه": 7259,
    "▁همگ": 7260,
    "اتح": 7261,
    "▁عکسها": 7262,
    "▁موفقی": 7263,
    "دوج": 7264,
    "▁قی": 7265,
    "سیزدهم": 7266,
    "▁نتوان": 7267,
    "▁سکو": 7268,
    "▁انصاری": 7269,
    "سارت": 7270,
    "▁پدربزرگ": 7271,
    "▁نش": 7272,
    "▁باخ": 7273,
    "▁ریس": 7274,
    "▁موزیک": 7275,
    "▁نیکو": 7276,
    "▁احداث": 7277,
    "▁اختاپوس": 7278,
    "▁اورشلیم": 7279,
    "▁بیضائی": 7280,
    "▁زاکربرگ": 7281,
    "▁سخاوتمند": 7282,
    "▁دموکراسی": 7283,
    "▁ناسازگار": 7284,
    "▁هژمون": 7285,
    "▁محتاط": 7286,
    "▁موریکونه": 7287,
    "▁حناچی": 7288,
    "▁اوقاف": 7289,
    "▁بولونیا": 7290,
    "▁لاوروف": 7291,
    "▁سارقان": 7292,
    "▁اکسیدکربن": 7293,
    "▁اقوام": 7294,
    "▁فرمانروای": 7295,
    "▁ناخودآگاه": 7296,
    "▁جگوار": 7297,
    "▁انسولین": 7298,
    "▁مستاجر": 7299,
    "▁بلغار": 7300,
    "▁الارض": 7301,
    "▁انزوا": 7302,
    "▁هکتار": 7303,
    "▁اوزیل": 7304,
    "▁باچان": 7305,
    "▁تذکر": 7306,
    "▁خشمگین": 7307,
    "▁کوشنر": 7308,
    "▁متقلب": 7309,
    "▁لاتکس": 7310,
    "▁نیکزاد": 7311,
    "▁کارائیب": 7312,
    "▁وسواس": 7313,
    "▁اوزون": 7314,
    "▁لشکر": 7315,
    "▁کواچ": 7316,
    "▁تدارک": 7317,
    "▁نافرجام": 7318,
    "▁ستیزانه": 7319,
    "▁کومله": 7320,
    "▁کبیری": 7321,
    "▁میچام": 7322,
    "▁خویشتن": 7323,
    "▁بکاهند": 7324,
    "▁پاستور": 7325,
    "▁موازات": 7326,
    "▁مرموز": 7327,
    "▁ارباب": 7328,
    "▁باشکوه": 7329,
    "▁دامغان": 7330,
    "▁مبتکر": 7331,
    "▁ناخشنود": 7332,
    "▁صربستان": 7333,
    "▁دشتکی": 7334,
    "▁تقریب": 7335,
    "▁ارمجانی": 7336,
    "▁فراهانی": 7337,
    "▁نیرومند": 7338,
    "▁۱۹۷۹": 7339,
    "زیرو": 7340,
    "▁مشروعیت": 7341,
    "▁تتلو": 7342,
    "▁هتلداران": 7343,
    "▁بیضایی": 7344,
    "▁لقمان": 7345,
    "▁نابویایی": 7346,
    "▁دیزل": 7347,
    "▁سرسخت": 7348,
    "▁فورمن": 7349,
    "▁مالزی": 7350,
    "▁نباشند": 7351,
    "▁دمکرات": 7352,
    "▁درآید": 7353,
    "▁نورالله": 7354,
    "▁۱۹۹۴": 7355,
    "▁سازگار": 7356,
    "▁ناسیونالیس": 7357,
    "▁زوایا": 7358,
    "▁ابول": 7359,
    "▁ندارید": 7360,
    "▁واجد": 7361,
    "▁متوازن": 7362,
    "▁بزاق": 7363,
    "▁تومور": 7364,
    "نفی": 7365,
    "▁اتلان": 7366,
    "▁ژرف": 7367,
    "نگا": 7368,
    "▁امپرا": 7369,
    "▁تحرکات": 7370,
    "▁برگرداندن": 7371,
    "ضلع": 7372,
    "▁تایوان": 7373,
    "▁لشگر": 7374,
    "▁صیاد": 7375,
    "▁پرستون": 7376,
    "▁کابوس": 7377,
    "▁برویم": 7378,
    "▁ونوس": 7379,
    "▁جملات": 7380,
    "▁موتورها": 7381,
    "▁پردازش": 7382,
    "▁برلوسکونی": 7383,
    "▁عبدالسلام": 7384,
    "▁نایتلی": 7385,
    "▁شدیم": 7386,
    "▁اهرم": 7387,
    "▁سیدنی": 7388,
    "▁آسا": 7389,
    "▁شار": 7390,
    "▁لن": 7391,
    "▁همسایگان": 7392,
    "خواهیم": 7393,
    "▁مذک": 7394,
    "▁آگوست": 7395,
    "▁سرگردان": 7396,
    "▁سولو": 7397,
    "هفتصد": 7398,
    "▁بیانداز": 7399,
    "▁قدردان": 7400,
    "شاد": 7401,
    "وتی": 7402,
    "▁کولاک": 7403,
    "▁خسرو": 7404,
    "▁رسا": 7405,
    "▁متقابل": 7406,
    "▁پوسید": 7407,
    "صر": 7408,
    "▁اب": 7409,
    "▁کان": 7410,
    "▁همفکر": 7411,
    "▁امداد": 7412,
    "▁دیابت": 7413,
    "▁گاردن": 7414,
    "▁آزاردید": 7415,
    "▁وفا": 7416,
    "▁زادگاه": 7417,
    "▁مجاور": 7418,
    "▁خاکستر": 7419,
    "۹۶": 7420,
    "▁منظوم": 7421,
    "▁ندادند": 7422,
    "▁معلمان": 7423,
    "موتو": 7424,
    "▁کوواکس": 7425,
    "قراض": 7426,
    "▁بشنوید": 7427,
    "▁نبی": 7428,
    "آقازاده": 7429,
    "▁مختصر": 7430,
    "▁اشخاص": 7431,
    "ستانه": 7432,
    "▁زشت": 7433,
    "لسون": 7434,
    "تمامی": 7435,
    "▁دریانورد": 7436,
    "▁نیلی": 7437,
    "▁نازل": 7438,
    "▁تشوی": 7439,
    "▁یوهان": 7440,
    "▁شکوه": 7441,
    "▁توانمند": 7442,
    "گوگوش": 7443,
    "▁اندازند": 7444,
    "بک": 7445,
    "▁پاب": 7446,
    "▁کامیاب": 7447,
    "▁رادیوی": 7448,
    "▁کمربندهای": 7449,
    "یایی": 7450,
    "▁شاکی": 7451,
    "▁عناب": 7452,
    "▁تایی": 7453,
    "▁حسگرها": 7454,
    "پوستان": 7455,
    "▁رخدادهای": 7456,
    "▁زالی": 7457,
    "▁نثر": 7458,
    "▁بازدیدکنند": 7459,
    "▁بدهم": 7460,
    "نیوز": 7461,
    "چال": 7462,
    "▁داو": 7463,
    "▁سادگی": 7464,
    "کری": 7465,
    "▁برگشتند": 7466,
    "▁داگ": 7467,
    "▁ابزارهای": 7468,
    "سیاس": 7469,
    "▁درمیان": 7470,
    "▁شمش": 7471,
    "▁اکثرا": 7472,
    "کاب": 7473,
    "▁بزرگسال": 7474,
    "▁انتقام": 7475,
    "کافی": 7476,
    "▁چغا": 7477,
    "▁مورف": 7478,
    "▁چرخید": 7479,
    "▁حشر": 7480,
    "▁آلت": 7481,
    "▁قش": 7482,
    "▁گریخت": 7483,
    "خشنود": 7484,
    "▁ماست": 7485,
    "▁باج": 7486,
    "▁انرو": 7487,
    "چهل": 7488,
    "▁خوشبین": 7489,
    "▁نگهداشت": 7490,
    "▁فور": 7491,
    "رویا": 7492,
    "ملی": 7493,
    "▁ورزند": 7494,
    "▁عثمانی": 7495,
    "▁بدهیم": 7496,
    "عظم": 7497,
    "بصر": 7498,
    "▁نیافتن": 7499,
    "▁کارلو": 7500,
    "ائ": 7501,
    "▁قامت": 7502,
    "حلال": 7503,
    "طاع": 7504,
    "▁روبات": 7505,
    "▁سور": 7506,
    "▁منفور": 7507,
    "▁عمیقا": 7508,
    "▁دن": 7509,
    "لیت": 7510,
    "▁سیری": 7511,
    "▁شیب": 7512,
    "▁تشکیلات": 7513,
    "رزمی": 7514,
    "▁استعفاها": 7515,
    "▁بدویا": 7516,
    "▁فرستادن": 7517,
    "▁اقسا": 7518,
    "سپاس": 7519,
    "شم": 7520,
    "زبان": 7521,
    "حرف": 7522,
    "▁کوچه": 7523,
    "▁پهنه": 7524,
    "▁آذری": 7525,
    "▁اسلو": 7526,
    "بومی": 7527,
    "دترین": 7528,
    "شن": 7529,
    "لماس": 7530,
    "▁ورای": 7531,
    "▁شن": 7532,
    "▁چهارمی": 7533,
    "▁جادوی": 7534,
    "▁بیکارشد": 7535,
    "روزهای": 7536,
    "خو": 7537,
    "وست": 7538,
    "رتر": 7539,
    "▁لندر": 7540,
    "▁گازها": 7541,
    "آلبرت": 7542,
    "▁گراند": 7543,
    "▁جع": 7544,
    "▁لئوپ": 7545,
    "بزرگ": 7546,
    "آنچ": 7547,
    "ویش": 7548,
    "▁ندید": 7549,
    "وبیل": 7550,
    "▁جوی": 7551,
    "▁اینست": 7552,
    "آباد": 7553,
    "▁کشیدند": 7554,
    "سینگ": 7555,
    "تقبل": 7556,
    "▁سالمند": 7557,
    "▁درشت": 7558,
    "سوی": 7559,
    "▁فلم": 7560,
    "▁ارغ": 7561,
    "یوئیت": 7562,
    "▁احتیا": 7563,
    "▁بوم": 7564,
    "نور": 7565,
    "۳۸۰": 7566,
    "▁عدل": 7567,
    "▁سفت": 7568,
    "هرزاد": 7569,
    "۰۵": 7570,
    "▁شکستگی": 7571,
    "ورود": 7572,
    "سترسیتی": 7573,
    "▁نزدیکانش": 7574,
    "▁چاق": 7575,
    "▁گلد": 7576,
    "غا": 7577,
    "وده": 7578,
    "▁عینک": 7579,
    "▁مینیاتوری": 7580,
    "لستون": 7581,
    "▁دوسال": 7582,
    "جیان": 7583,
    "رومن": 7584,
    "▁رسند": 7585,
    "▁همهمه": 7586,
    "▁سوزاند": 7587,
    "وفون": 7588,
    "▁تاثیرات": 7589,
    "▁کنارش": 7590,
    "▁زدای": 7591,
    "۱۲": 7592,
    "انزا": 7593,
    "▁بیکاران": 7594,
    "▁اثرگذار": 7595,
    "فرانس": 7596,
    "▁خودکار": 7597,
    "اسکورت": 7598,
    "▁رانگل": 7599,
    "▁اسل": 7600,
    "▁بشود": 7601,
    "▁روم": 7602,
    "▁سندی": 7603,
    "قبره": 7604,
    "میته": 7605,
    "▁نظرش": 7606,
    "▁الزاما": 7607,
    "▁بم": 7608,
    "▁گوها": 7609,
    "نوی": 7610,
    "▁دژ": 7611,
    "تورهای": 7612,
    "هور": 7613,
    "مگان": 7614,
    "۴۹": 7615,
    "▁پرستاره": 7616,
    "▁گذران": 7617,
    "▁تحرکی": 7618,
    "▁نجفی": 7619,
    "▁موریس": 7620,
    "ژیل": 7621,
    "▁آمونی": 7622,
    "▁لوپ": 7623,
    "پزشک": 7624,
    "▁چهارده": 7625,
    "▁مجتب": 7626,
    "▁آو": 7627,
    "اسکو": 7628,
    "حاملگی": 7629,
    "▁فلور": 7630,
    "لاخ": 7631,
    "▁خوشنو": 7632,
    "راد": 7633,
    "▁آموختن": 7634,
    "▁شهریاری": 7635,
    "کنند": 7636,
    "▁شروط": 7637,
    "مزد": 7638,
    "▁غوری": 7639,
    "▁درب": 7640,
    "▁کاف": 7641,
    "▁بستند": 7642,
    "روس": 7643,
    "▁هاروی": 7644,
    "خود": 7645,
    "▁شکستند": 7646,
    "وثر": 7647,
    "▁پرداز": 7648,
    "▁شنای": 7649,
    "▁جودوکا": 7650,
    "▁دانا": 7651,
    "جویان": 7652,
    "▁رایانه": 7653,
    "امه": 7654,
    "▁نفربر": 7655,
    "▁ویر": 7656,
    "▁آشو": 7657,
    "▁منسو": 7658,
    "▁عاملی": 7659,
    "▁انو": 7660,
    "کاران": 7661,
    "گذشت": 7662,
    "▁راوی": 7663,
    "▁اقام": 7664,
    "▁شاهدان": 7665,
    "▁کنو": 7666,
    "▁بسر": 7667,
    "▁چسب": 7668,
    "▁ازس": 7669,
    "▁۱۳۱": 7670,
    "محل": 7671,
    "مکن": 7672,
    "جیل": 7673,
    "▁فعالیتش": 7674,
    "▁تقلا": 7675,
    "یار": 7676,
    "صلی": 7677,
    "▁رویاهای": 7678,
    "▁استبا": 7679,
    "ونیست": 7680,
    "▁شیرینی": 7681,
    "ائب": 7682,
    "زاق": 7683,
    "▁توافقات": 7684,
    "▁شالی": 7685,
    "▁الس": 7686,
    "▁کورو": 7687,
    "▁ترانس": 7688,
    "▁بگ": 7689,
    "▁انگ": 7690,
    "▁استودیوی": 7691,
    "ارش": 7692,
    "روج": 7693,
    "شیر": 7694,
    "▁اط": 7695,
    "▁اسپا": 7696,
    "فری": 7697,
    "گویی": 7698,
    "راماتیک": 7699,
    "مشق": 7700,
    "▁نیاورده": 7701,
    "▁رج": 7702,
    "وتو": 7703,
    "▁مزای": 7704,
    "۴۴": 7705,
    "لار": 7706,
    "▁لیلا": 7707,
    "یتا": 7708,
    "تالیا": 7709,
    "یکا": 7710,
    "▁بازنش": 7711,
    "نجام": 7712,
    "خور": 7713,
    "▁باربی": 7714,
    "▁لوس": 7715,
    "▁هجدهمی": 7716,
    "بن": 7717,
    "ندر": 7718,
    "سارا": 7719,
    "سنج": 7720,
    "▁شدایران": 7721,
    "▁منامه": 7722,
    "مس": 7723,
    "وض": 7724,
    "تامی": 7725,
    "توافق": 7726,
    "دانی": 7727,
    "اثر": 7728,
    "▁بندهای": 7729,
    "▁جود": 7730,
    "▁سوخته": 7731,
    "دوزی": 7732,
    "کوه": 7733,
    "جف": 7734,
    "ژن": 7735,
    "شناسی": 7736,
    "رفتن": 7737,
    "▁۲۵۰۰": 7738,
    "▁دیرین": 7739,
    "▁دلو": 7740,
    "▁پترو": 7741,
    "▁۱۸۹": 7742,
    "ریان": 7743,
    "▁دویچ": 7744,
    "ضا": 7745,
    "فعالیت": 7746,
    "کوم": 7747,
    "کلیف": 7748,
    "▁مسخ": 7749,
    "فرشی": 7750,
    "▁سازهای": 7751,
    "۲۹": 7752,
    "بیماری": 7753,
    "روف": 7754,
    "وجه": 7755,
    "▁بیو": 7756,
    "▁منا": 7757,
    "▁روبین": 7758,
    "۳۳": 7759,
    "سول": 7760,
    "صف": 7761,
    "۸۰": 7762,
    "▁مصو": 7763,
    "بازیکن": 7764,
    "▁سردست": 7765,
    "▁گذاریم": 7766,
    "همکاری": 7767,
    "▁پرستار": 7768,
    "▁شرکا": 7769,
    "▁فقی": 7770,
    "▁کلک": 7771,
    "ورس": 7772,
    "مایش": 7773,
    "▁امیرم": 7774,
    "کشورهای": 7775,
    "▁نکو": 7776,
    "▁اتری": 7777,
    "▁رون": 7778,
    "کانس": 7779,
    "حکم": 7780,
    "ابتدا": 7781,
    "ندگی": 7782,
    "▁مردن": 7783,
    "▁سویی": 7784,
    "▁کابلی": 7785,
    "محدودیت": 7786,
    "▁سنگی": 7787,
    "قرنطینه": 7788,
    "▁ماریو": 7789,
    "بست": 7790,
    "ظاهر": 7791,
    "زد": 7792,
    "▁فرودست": 7793,
    "▁نانو": 7794,
    "▁سفال": 7795,
    "یکون": 7796,
    "بارسلونا": 7797,
    "بحران": 7798,
    "قرارداد": 7799,
    "▁آرزوها": 7800,
    "نهادهای": 7801,
    "فارم": 7802,
    "۱۴۰۰": 7803,
    "▁مدرنی": 7804,
    "صلاح": 7805,
    "شکایت": 7806,
    "الیود": 7807,
    "احتمال": 7808,
    "ترکیب": 7809,
    "جمعیت": 7810,
    "▁حیا": 7811,
    "جواد": 7812,
    "جنگ": 7813,
    "ریا": 7814,
    "ساز": 7815,
    "▁برخاست": 7816,
    "▁۱۰۹": 7817,
    "▁معل": 7818,
    "فرصت": 7819,
    "وادا": 7820,
    "ونی": 7821,
    "تجرب": 7822,
    "▁هفده": 7823,
    "▁لیبر": 7824,
    "اوپک": 7825,
    "▁کمالی": 7826,
    "شقان": 7827,
    "جنجال": 7828,
    "▁سیت": 7829,
    "مصرف": 7830,
    "مطالع": 7831,
    "تیراندازی": 7832,
    "▁ورز": 7833,
    "نیویورک": 7834,
    "پالایشگاه": 7835,
    "شعر": 7836,
    "رکود": 7837,
    "واشی": 7838,
    "ولو": 7839,
    "خودروهای": 7840,
    "ناوب": 7841,
    "سرپرست": 7842,
    "لحظ": 7843,
    "فیزیک": 7844,
    "گردانی": 7845,
    "نژادپرست": 7846,
    "ابراهیم": 7847,
    "▁ناکار": 7848,
    "ومی": 7849,
    "▁پیکا": 7850,
    "نفوذ": 7851,
    "مناسبت": 7852,
    "مالک": 7853,
    "▁انسانها": 7854,
    "هیچ": 7855,
    "جسد": 7856,
    "مکزیکو": 7857,
    "کنگره": 7858,
    "بفرستید": 7859,
    "▁ربای": 7860,
    "مستند": 7861,
    "▁هیولا": 7862,
    "سازنده": 7863,
    "بیانسه": 7864,
    "فاضل": 7865,
    "هجوم": 7866,
    "▁جوج": 7867,
    "قبض": 7868,
    "هدی": 7869,
    "▁دخ": 7870,
    "▁اینچ": 7871,
    "رییس": 7872,
    "دقیق": 7873,
    "▁هیل": 7874,
    "▁حم": 7875,
    "تجمع": 7876,
    "ربکا": 7877,
    "▁بلندپرواز": 7878,
    "▁تجسم": 7879,
    "گزا": 7880,
    "درحالی": 7881,
    "منتظر": 7882,
    "▁مزایا": 7883,
    "▁نوزده": 7884,
    "مسعود": 7885,
    "▁بنده": 7886,
    "▁معط": 7887,
    "الوح": 7888,
    "▁جعفر": 7889,
    "▁روما": 7890,
    "▁آری": 7891,
    "▁اراد": 7892,
    "▁رویدادها": 7893,
    "▁حاج": 7894,
    "زای": 7895,
    "▁موثرتر": 7896,
    "نتینو": 7897,
    "فش": 7898,
    "ادل": 7899,
    "▁فعالی": 7900,
    "▁بازنگشت": 7901,
    "▁شجاعی": 7902,
    "میلان": 7903,
    "▁هک": 7904,
    "قد": 7905,
    "یمه": 7906,
    "ئید": 7907,
    "▁چیزها": 7908,
    "▁میشود": 7909,
    "نمایند": 7910,
    "امک": 7911,
    "▁چرن": 7912,
    "▁تئو": 7913,
    "▁آئ": 7914,
    "▁شناورها": 7915,
    "▁کیل": 7916,
    "▁توئیت": 7917,
    "▁فرح": 7918,
    "▁کریستی": 7919,
    "بیح": 7920,
    "تقل": 7921,
    "▁سیبر": 7922,
    "یدن": 7923,
    "کریست": 7924,
    "▁فلامینگو": 7925,
    "پانز": 7926,
    "انکن": 7927,
    "بالا": 7928,
    "ویی": 7929,
    "عادل": 7930,
    "▁نهادها": 7931,
    "تورم": 7932,
    "▁جنب": 7933,
    "▁گرافی": 7934,
    "سانسور": 7935,
    "▁تفنگ": 7936,
    "▁قدیم": 7937,
    "نمی": 7938,
    "رزرو": 7939,
    "▁دکترا": 7940,
    "▁مخابر": 7941,
    "▁مکالم": 7942,
    "▁معصوم": 7943,
    "سیم": 7944,
    "▁الاجرا": 7945,
    "سیستم": 7946,
    "▁ابتذال": 7947,
    "▁اسکورسیزی": 7948,
    "▁تشعشع": 7949,
    "▁روزافزون": 7950,
    "▁فیزیولوژی": 7951,
    "▁برافراشت": 7952,
    "▁میزورام": 7953,
    "▁اوزبیک": 7954,
    "▁مارگاریتا": 7955,
    "▁منسجم": 7956,
    "▁فلسفی": 7957,
    "▁دگرباش": 7958,
    "▁فاکتور": 7959,
    "▁هامبورگ": 7960,
    "▁غزنوی": 7961,
    "▁عنابستانی": 7962,
    "▁تنگاتنگ": 7963,
    "▁زراعت": 7964,
    "▁سانتیاگو": 7965,
    "▁ذوالنور": 7966,
    "▁بنکدارپور": 7967,
    "▁کذب": 7968,
    "▁بیندازد": 7969,
    "▁نافذ": 7970,
    "▁اتمسفر": 7971,
    "▁پغمان": 7972,
    "▁اردکانیان": 7973,
    "یونیسف": 7974,
    "▁شریعت": 7975,
    "▁مفاهیم": 7976,
    "▁سولشر": 7977,
    "▁سولیوان": 7978,
    "فیروز": 7979,
    "▁تسخیر": 7980,
    "▁هیوستون": 7981,
    "▁سرامیک": 7982,
    "▁فکاهی": 7983,
    "▁حصبه": 7984,
    "▁تمهید": 7985,
    "▁سغد": 7986,
    "▁ماهرویان": 7987,
    "▁شنویم": 7988,
    "▁کارم": 7989,
    "▁الخروج": 7990,
    "▁برسانند": 7991,
    "▁حیثیت": 7992,
    "▁چندرایان": 7993,
    "▁مقاطع": 7994,
    "▁ظالمانه": 7995,
    "▁تمایز": 7996,
    "▁بمیرد": 7997,
    "▁آندریا": 7998,
    "▁مقادیر": 7999,
    "▁مادربزرگ": 8000,
    "▁نمک": 8001,
    "▁حشرات": 8002,
    "▁مخوف": 8003,
    "رمانی": 8004,
    "▁زیراتمی": 8005,
    "▁بلندپایه": 8006,
    "▁تجسس": 8007,
    "▁بپردازند": 8008,
    "▁الاجراست": 8009,
    "▁مغایر": 8010,
    "▁گوترش": 8011,
    "▁فواید": 8012,
    "▁بکشم": 8013,
    "▁آوینی": 8014,
    "▁وارث": 8015,
    "▁اغما": 8016,
    "▁مکالمات": 8017,
    "آنگولا": 8018,
    "▁بزنیم": 8019,
    "▁بانکوک": 8020,
    "ینک": 8021,
    "▁برنگرداند": 8022,
    "▁توفندها": 8023,
    "▁هادرون": 8024,
    "▁عقاب": 8025,
    "ردی": 8026,
    "▁خودمختار": 8027,
    "▁بخوانند": 8028,
    "▁اسکلت": 8029,
    "▁گنبد": 8030,
    "▁چوپ": 8031,
    "▁سینا": 8032,
    "▁آصف": 8033,
    "▁وجدان": 8034,
    "▁۲۲۰": 8035,
    "▁جداسازی": 8036,
    "▁ببریم": 8037,
    "▁هندرسون": 8038,
    "▁محتمل": 8039,
    "▁رونالد": 8040,
    "▁جذابی": 8041,
    "▁تمیز": 8042,
    "▁لرزید": 8043,
    "▁بکنید": 8044,
    "▁هنگفت": 8045,
    "حک": 8046,
    "موث": 8047,
    "▁کاردوس": 8048,
    "▁بیگم": 8049,
    "▁فری": 8050,
    "▁بازدارند": 8051,
    "▁شنوایی": 8052,
    "▁لوگو": 8053,
    "▁آنچنان": 8054,
    "ارسل": 8055,
    "▁برنامک": 8056,
    "▁بخورد": 8057,
    "▁معنادار": 8058,
    "▁نوابی": 8059,
    "▁بهائی": 8060,
    "▁تجربیات": 8061,
    "▁ملوان": 8062,
    "زیمبا": 8063,
    "▁هنکس": 8064,
    "▁بارکلی": 8065,
    "▁راجپوت": 8066,
    "تیو": 8067,
    "▁هافکین": 8068,
    "ریه": 8069,
    "▁فاکس": 8070,
    "▁۱۹۱۸": 8071,
    "▁مالباخت": 8072,
    "▁آپوف": 8073,
    "▁مجزا": 8074,
    "صنوف": 8075,
    "▁ژائو": 8076,
    "▁۲۴۸": 8077,
    "▁درمانگاه": 8078,
    "▁آستین": 8079,
    "▁بستگ": 8080,
    "▁سفیدپوستان": 8081,
    "▁گرو": 8082,
    "▁بیایند": 8083,
    "▁لغز": 8084,
    "▁گرافیک": 8085,
    "انسون": 8086,
    "▁آنتوان": 8087,
    "لگار": 8088,
    "▁یقین": 8089,
    "▁متغیرهای": 8090,
    "۸۱": 8091,
    "▁قلمرو": 8092,
    "بازد": 8093,
    "▁اجداد": 8094,
    "▁صیادان": 8095,
    "▁نگذاشت": 8096,
    "▁خانود": 8097,
    "▁کولبران": 8098,
    "▁فالک": 8099,
    "تعدادی": 8100,
    "وژه": 8101,
    "داعش": 8102,
    "همگی": 8103,
    "▁مناسبات": 8104,
    "قایق": 8105,
    "▁تربت": 8106,
    "▁افشاگر": 8107,
    "▁هموطنان": 8108,
    "▁معلومات": 8109,
    "▁عزل": 8110,
    "▁کیپ": 8111,
    "▁بدان": 8112,
    "▁پرفسور": 8113,
    "▁اخترشناس": 8114,
    "▁دانید": 8115,
    "▁پولها": 8116,
    "▁قبایل": 8117,
    "▁مرج": 8118,
    "▁کرونازده": 8119,
    "▁سلیق": 8120,
    "▁نزن": 8121,
    "▁فرشید": 8122,
    "▁اوساکا": 8123,
    "▁اسکات": 8124,
    "جله": 8125,
    "برگر": 8126,
    "▁ایل": 8127,
    "▁کوید": 8128,
    "پوشانی": 8129,
    "▁چاو": 8130,
    "▁درخشد": 8131,
    "▁متاسفم": 8132,
    "رقیز": 8133,
    "▁گوارش": 8134,
    "▁تعرض": 8135,
    "▁ترکمان": 8136,
    "▁غزل": 8137,
    "مور": 8138,
    "▁معترضین": 8139,
    "مرور": 8140,
    "▁بزرگسالان": 8141,
    "الف": 8142,
    "رفت": 8143,
    "ختی": 8144,
    "نعیم": 8145,
    "▁فوتسی": 8146,
    "▁بدنم": 8147,
    "▁بهم": 8148,
    "روسیا": 8149,
    "▁لطیفی": 8150,
    "▁فول": 8151,
    "▁پترولی": 8152,
    "انک": 8153,
    "کارولین": 8154,
    "صریح": 8155,
    "ریکا": 8156,
    "▁شاهکارهای": 8157,
    "گوئه": 8158,
    "▁بوتا": 8159,
    "▁نیوت": 8160,
    "▁شنوند": 8161,
    "▁افزودند": 8162,
    "▁شگرد": 8163,
    "▁تان": 8164,
    "ونته": 8165,
    "مادر": 8166,
    "▁بنفش": 8167,
    "نتسب": 8168,
    "▁ترمی": 8169,
    "تروئ": 8170,
    "▁تختی": 8171,
    "▁مرمر": 8172,
    "ایان": 8173,
    "▁بخشهای": 8174,
    "ائل": 8175,
    "۱۹۶۴": 8176,
    "میزان": 8177,
    "▁یوآن": 8178,
    "▁ره": 8179,
    "▁درصورت": 8180,
    "دانه": 8181,
    "▁عبدالرحم": 8182,
    "ورانه": 8183,
    "▁پربار": 8184,
    "▁مطمئنا": 8185,
    "▁غذاهای": 8186,
    "پائولو": 8187,
    "▁فراخواند": 8188,
    "ازاد": 8189,
    "▁لیمو": 8190,
    "▁حریری": 8191,
    "▁تجمعات": 8192,
    "▁بلندپروازی": 8193,
    "ثه": 8194,
    "▁ربکا": 8195,
    "لنگ": 8196,
    "▁راهکارهای": 8197,
    "▁السی": 8198,
    "▁آمری": 8199,
    "▁نصیر": 8200,
    "▁تجسمی": 8201,
    "▁راشد": 8202,
    "▁مشاه": 8203,
    "اندن": 8204,
    "ولوو": 8205,
    "▁اشا": 8206,
    "▁برنج": 8207,
    "▁مهیا": 8208,
    "ستیک": 8209,
    "▁بادام": 8210,
    "▁ندا": 8211,
    "▁بویی": 8212,
    "شکی": 8213,
    "▁وتو": 8214,
    "▁قبض": 8215,
    "دلی": 8216,
    "▁جدیدش": 8217,
    "▁قضا": 8218,
    "زنان": 8219,
    "▁مجت": 8220,
    "اپ": 8221,
    "▁خصوصیات": 8222,
    "▁صاحبش": 8223,
    "▁اظهارنظرهای": 8224,
    "کردن": 8225,
    "شیتز": 8226,
    "▁بگذاری": 8227,
    "▁خودس": 8228,
    "▁آندرس": 8229,
    "ارز": 8230,
    "▁بروی": 8231,
    "▁افزارهای": 8232,
    "صله": 8233,
    "▁بعض": 8234,
    "▁اغ": 8235,
    "▁مادام": 8236,
    "هوش": 8237,
    "▁دوهزار": 8238,
    "▁رکس": 8239,
    "▁توسل": 8240,
    "▁فراگرفت": 8241,
    "▁یادش": 8242,
    "▁مکزیکو": 8243,
    "▁حوت": 8244,
    "▁بطر": 8245,
    "پانی": 8246,
    "▁خش": 8247,
    "طوری": 8248,
    "هنه": 8249,
    "▁محص": 8250,
    "▁خودرا": 8251,
    "▁غذاخور": 8252,
    "سرین": 8253,
    "▁اپی": 8254,
    "سالار": 8255,
    "▁رویکردهای": 8256,
    "▁ساندر": 8257,
    "▁اصلاحی": 8258,
    "▁گاف": 8259,
    "▁رباب": 8260,
    "▁همگان": 8261,
    "▁سرم": 8262,
    "▁پذیرد": 8263,
    "▁آورم": 8264,
    "زهای": 8265,
    "نای": 8266,
    "بق": 8267,
    "▁شایان": 8268,
    "▁ستود": 8269,
    "▁منازع": 8270,
    "▁شجاعت": 8271,
    "▁مهن": 8272,
    "▁استوار": 8273,
    "فان": 8274,
    "۴۵": 8275,
    "▁مراد": 8276,
    "نشری": 8277,
    "▁تلا": 8278,
    "▁۱۷۴": 8279,
    "▁نبودند": 8280,
    "▁پاش": 8281,
    "یال": 8282,
    "▁باکر": 8283,
    "▁اشتها": 8284,
    "پاری": 8285,
    "▁افکند": 8286,
    "▁دهی": 8287,
    "میلیارد": 8288,
    "جات": 8289,
    "▁لطفی": 8290,
    "لوگ": 8291,
    "▁سیمین": 8292,
    "درنا": 8293,
    "متن": 8294,
    "▁وایت": 8295,
    "▁امضاکنند": 8296,
    "▁الکسا": 8297,
    "▁راهکار": 8298,
    "اشا": 8299,
    "▁شست": 8300,
    "▁آز": 8301,
    "دس": 8302,
    "شنبه": 8303,
    "خوش": 8304,
    "▁نتوا": 8305,
    "نیو": 8306,
    "صدا": 8307,
    "میر": 8308,
    "▁مینیا": 8309,
    "وپ": 8310,
    "اژ": 8311,
    "▁تراشید": 8312,
    "تراپ": 8313,
    "▁سودجو": 8314,
    "تح": 8315,
    "نار": 8316,
    "گرانی": 8317,
    "نولد": 8318,
    "▁معتبری": 8319,
    "شتم": 8320,
    "▁کیمی": 8321,
    "▁بکار": 8322,
    "▁شوراها": 8323,
    "▁کرددر": 8324,
    "ندرت": 8325,
    "یح": 8326,
    "رح": 8327,
    "▁کلن": 8328,
    "▁۲۶۰": 8329,
    "▁آغ": 8330,
    "کثیر": 8331,
    "برده": 8332,
    "▁هایپر": 8333,
    "اربی": 8334,
    "ستانگ": 8335,
    "▁یادم": 8336,
    "▁قانونگذار": 8337,
    "بوک": 8338,
    "▁آفرید": 8339,
    "تمایل": 8340,
    "شابه": 8341,
    "▁لات": 8342,
    "▁ببند": 8343,
    "▁رقیبان": 8344,
    "هکرهای": 8345,
    "الا": 8346,
    "اشک": 8347,
    "خن": 8348,
    "▁عطار": 8349,
    "▁نوپا": 8350,
    "▁نایت": 8351,
    "ویا": 8352,
    "پژوه": 8353,
    "دید": 8354,
    "▁پلک": 8355,
    "▁پنجش": 8356,
    "▁توفیقی": 8357,
    "وفس": 8358,
    "▁وظایفش": 8359,
    "یانت": 8360,
    "رجه": 8361,
    "نسون": 8362,
    "▁نگا": 8363,
    "واضع": 8364,
    "نگی": 8365,
    "▁زید": 8366,
    "تخیلی": 8367,
    "سلطان": 8368,
    "رخه": 8369,
    "▁سنجی": 8370,
    "▁ایرانایران": 8371,
    "▁گوستا": 8372,
    "▁شاپ": 8373,
    "▁مث": 8374,
    "▁اوکا": 8375,
    "انند": 8376,
    "▁محبو": 8377,
    "▁نیت": 8378,
    "اکس": 8379,
    "وود": 8380,
    "ادام": 8381,
    "مز": 8382,
    "▁سوییس": 8383,
    "▁کاشت": 8384,
    "▁شرکتها": 8385,
    "باسی": 8386,
    "▁ناه": 8387,
    "نشأ": 8388,
    "یدی": 8389,
    "▁مگ": 8390,
    "یتز": 8391,
    "▁ژیل": 8392,
    "▁کوپا": 8393,
    "خه": 8394,
    "▁دیاب": 8395,
    "وکسل": 8396,
    "راث": 8397,
    "جمهوری": 8398,
    "خضر": 8399,
    "۹۴": 8400,
    "▁لیز": 8401,
    "▁بیک": 8402,
    "۳۲": 8403,
    "▁یوت": 8404,
    "قای": 8405,
    "نجره": 8406,
    "▁پیا": 8407,
    "▁شکوفا": 8408,
    "▁اپ": 8409,
    "▁پان": 8410,
    "▁نروژی": 8411,
    "ساعت": 8412,
    "▁مشق": 8413,
    "▁سخ": 8414,
    "استان": 8415,
    "لز": 8416,
    "▁گردهم": 8417,
    "▁وود": 8418,
    "سین": 8419,
    "▁گوا": 8420,
    "ساسی": 8421,
    "مانی": 8422,
    "زمانی": 8423,
    "▁زین": 8424,
    "قهرمان": 8425,
    "▁پیت": 8426,
    "ستین": 8427,
    "▁عذ": 8428,
    "▁کارتر": 8429,
    "▁اولی": 8430,
    "فعال": 8431,
    "ظ": 8432,
    "▁بهرامی": 8433,
    "▁اوجی": 8434,
    "▁طو": 8435,
    "▁ارج": 8436,
    "▁یانگ": 8437,
    "▁کوکا": 8438,
    "▁لاب": 8439,
    "▁کریر": 8440,
    "▁شاد": 8441,
    "▁ترسید": 8442,
    "واکسن": 8443,
    "▁فلا": 8444,
    "▁وات": 8445,
    "رعلی": 8446,
    "۸۸": 8447,
    "ئین": 8448,
    "▁محو": 8449,
    "▁حقوقدان": 8450,
    "▁قمر": 8451,
    "▁محصولش": 8452,
    "▁نگفت": 8453,
    "فین": 8454,
    "▁شوی": 8455,
    "▁بازن": 8456,
    "▁جید": 8457,
    "▁فیزیوتراپ": 8458,
    "ریتز": 8459,
    "▁خطری": 8460,
    "اصل": 8461,
    "▁بری": 8462,
    "ارتوم": 8463,
    "▁استانداردها": 8464,
    "▁سلیم": 8465,
    "جمله": 8466,
    "▁چتر": 8467,
    "▁لق": 8468,
    "▁آلک": 8469,
    "گذار": 8470,
    "▁پاشید": 8471,
    "▁گراز": 8472,
    "▁کارول": 8473,
    "▁جوانب": 8474,
    "یناتور": 8475,
    "▁شراب": 8476,
    "چندی": 8477,
    "راجع": 8478,
    "منستان": 8479,
    "راژ": 8480,
    "افشار": 8481,
    "ریکو": 8482,
    "▁پنجاهم": 8483,
    "▁حسابدار": 8484,
    "▁واژگ": 8485,
    "اجرای": 8486,
    "دولتی": 8487,
    "بول": 8488,
    "▁فلی": 8489,
    "▁خاکس": 8490,
    "لایه": 8491,
    "▁کامر": 8492,
    "▁بلندهای": 8493,
    "▁دریاها": 8494,
    "زدی": 8495,
    "▁دیواره": 8496,
    "اسرائیل": 8497,
    "وضعیت": 8498,
    "▁محی": 8499,
    "وانیم": 8500,
    "نویس": 8501,
    "خصوص": 8502,
    "▁سبزی": 8503,
    "▁نیکل": 8504,
    "ولکس": 8505,
    "▁چید": 8506,
    "مختار": 8507,
    "▁هیو": 8508,
    "درآمد": 8509,
    "▁۱۲۶": 8510,
    "فرید": 8511,
    "۳۰۰": 8512,
    "بزرگتری": 8513,
    "▁صبا": 8514,
    "دانشگاه": 8515,
    "حمایت": 8516,
    "میلیا": 8517,
    "خل": 8518,
    "صال": 8519,
    "▁دشوارتر": 8520,
    "▁محبوبش": 8521,
    "ماجرا": 8522,
    "▁آتن": 8523,
    "عربستان": 8524,
    "▁۲۱۶": 8525,
    "ناسا": 8526,
    "۲۱": 8527,
    "ایده": 8528,
    "تول": 8529,
    "۲۰۲۰": 8530,
    "بازیکنان": 8531,
    "۳۸": 8532,
    "ارکان": 8533,
    "کسر": 8534,
    "سرمربی": 8535,
    "ربین": 8536,
    "صادرات": 8537,
    "یانگ": 8538,
    "بیانیه": 8539,
    "بیت": 8540,
    "آثار": 8541,
    "فرستند": 8542,
    "قطع": 8543,
    "ربط": 8544,
    "آمدی": 8545,
    "مسئول": 8546,
    "آزمایش": 8547,
    "تعارف": 8548,
    "سپاه": 8549,
    "▁الک": 8550,
    "چاق": 8551,
    "پاسخ": 8552,
    "ضی": 8553,
    "ورزشگاه": 8554,
    "▁سواد": 8555,
    "کول": 8556,
    "جاست": 8557,
    "خروج": 8558,
    "نگاره": 8559,
    "▁عار": 8560,
    "▁هجده": 8561,
    "▁پود": 8562,
    "لکس": 8563,
    "▁لنگ": 8564,
    "▁حالش": 8565,
    "اتهام": 8566,
    "▁گنجان": 8567,
    "عملکرد": 8568,
    "لاس": 8569,
    "ادیو": 8570,
    "عملیات": 8571,
    "حادثه": 8572,
    "دنبال": 8573,
    "▁کلینت": 8574,
    "درخواست": 8575,
    "▁استر": 8576,
    "جشن": 8577,
    "▁ترو": 8578,
    "▁بخواب": 8579,
    "▁فراخوان": 8580,
    "هیج": 8581,
    "تابستان": 8582,
    "تماشاگر": 8583,
    "▁نواخت": 8584,
    "▁همسری": 8585,
    "▁گرجستان": 8586,
    "حکام": 8587,
    "سوئیس": 8588,
    "▁بفهمی": 8589,
    "▁داران": 8590,
    "▁فعل": 8591,
    "مداری": 8592,
    "دبیر": 8593,
    "فرمانده": 8594,
    "قسمت": 8595,
    "کانال": 8596,
    "تخریب": 8597,
    "▁۲۰۵": 8598,
    "دوت": 8599,
    "ومان": 8600,
    "حاشیه": 8601,
    "طالبان": 8602,
    "▁سخنگو": 8603,
    "۸۷": 8604,
    "نویسندگان": 8605,
    "▁کنش": 8606,
    "مدیریت": 8607,
    "روبرت": 8608,
    "▁گروهها": 8609,
    "ارل": 8610,
    "کشف": 8611,
    "▁کاسی": 8612,
    "فولاد": 8613,
    "▁پولهای": 8614,
    "▁محر": 8615,
    "بازارهای": 8616,
    "▁عثمان": 8617,
    "▁بهنا": 8618,
    "مدیرکل": 8619,
    "ئوس": 8620,
    "پینو": 8621,
    "▁خرم": 8622,
    "خاوران": 8623,
    "وبسایت": 8624,
    "رابی": 8625,
    "جیمز": 8626,
    "▁تحریر": 8627,
    "▁کوتاهتر": 8628,
    "اضطراب": 8629,
    "سناتور": 8630,
    "جمشید": 8631,
    "جزییات": 8632,
    "▁فراور": 8633,
    "تفاهم": 8634,
    "پیرلو": 8635,
    "▁موسی": 8636,
    "ایلنا": 8637,
    "▁هورمون": 8638,
    "▁اپراتور": 8639,
    "اسحاق": 8640,
    "کنزو": 8641,
    "▁مذهب": 8642,
    "داریوش": 8643,
    "▁جادو": 8644,
    "▁باگ": 8645,
    "▁اظهارنظرها": 8646,
    "▁لوب": 8647,
    "سالم": 8648,
    "ادعا": 8649,
    "وشن": 8650,
    "▁سلب": 8651,
    "پیکر": 8652,
    "قبلا": 8653,
    "رک": 8654,
    "امشب": 8655,
    "صمد": 8656,
    "گردون": 8657,
    "فمن": 8658,
    "▁کارآمد": 8659,
    "نوسان": 8660,
    "دریایی": 8661,
    "▁سوکا": 8662,
    "▁تون": 8663,
    "اعظم": 8664,
    "▁چر": 8665,
    "وردی": 8666,
    "روث": 8667,
    "پوش": 8668,
    "شهرهای": 8669,
    "▁صمیم": 8670,
    "▁تروریست": 8671,
    "خالی": 8672,
    "پالا": 8673,
    "مکرون": 8674,
    "قا": 8675,
    "▁رومانیا": 8676,
    "گمش": 8677,
    "▁طاه": 8678,
    "▁استانهای": 8679,
    "ایکون": 8680,
    "ریدار": 8681,
    "بولت": 8682,
    "وص": 8683,
    "زمه": 8684,
    "▁وجوه": 8685,
    "تناقض": 8686,
    "ناوگان": 8687,
    "▁گارس": 8688,
    "سکار": 8689,
    "بالگرد": 8690,
    "هاب": 8691,
    "▁مختص": 8692,
    "▁باک": 8693,
    "▁باش": 8694,
    "آفرین": 8695,
    "▁معوق": 8696,
    "ضرور": 8697,
    "لد": 8698,
    "هایش": 8699,
    "صرب": 8700,
    "▁مورفی": 8701,
    "▁ساچ": 8702,
    "خیز": 8703,
    "رث": 8704,
    "▁مجا": 8705,
    "▁۳۳۰": 8706,
    "▁حر": 8707,
    "بندی": 8708,
    "سبک": 8709,
    "ازد": 8710,
    "▁جولیا": 8711,
    "جنسی": 8712,
    "▁۱۰۲": 8713,
    "تقابل": 8714,
    "▁هموطن": 8715,
    "▁محک": 8716,
    "▁همسایگ": 8717,
    "▁زیباتر": 8718,
    "محسن": 8719,
    "راست": 8720,
    "▁کارتون": 8721,
    "▁غواص": 8722,
    "طابق": 8723,
    "▁۲۴۰": 8724,
    "طل": 8725,
    "▁فیو": 8726,
    "اندرو": 8727,
    "الگو": 8728,
    "▁مکاتب": 8729,
    "▁ژس": 8730,
    "▁مطبوع": 8731,
    "▁اندرو": 8732,
    "رگبار": 8733,
    "▁گلشی": 8734,
    "وبی": 8735,
    "▁شراف": 8736,
    "یانی": 8737,
    "▁اوگوپوگو": 8738,
    "▁اکونومی": 8739,
    "▁بورکینافاسو": 8740,
    "▁دزفول": 8741,
    "▁رامهرمز": 8742,
    "▁سوسیالیست": 8743,
    "▁ناپلئون": 8744,
    "▁ولاسکز": 8745,
    "▁پترزبورگ": 8746,
    "▁پرینسخرا": 8747,
    "▁پومپئو": 8748,
    "▁انحراف": 8749,
    "▁تمسخر": 8750,
    "▁سوبرانا": 8751,
    "▁بشنوند": 8752,
    "▁سزاوار": 8753,
    "▁میکروسکوپ": 8754,
    "▁بپیوندد": 8755,
    "▁رادیواکتیو": 8756,
    "▁معشوق": 8757,
    "▁ناپایدار": 8758,
    "▁وبلاگ": 8759,
    "▁یوردانس": 8760,
    "▁فانخیو": 8761,
    "▁کاریکاتور": 8762,
    "▁غیاث": 8763,
    "▁قیراط": 8764,
    "▁پرسورینس": 8765,
    "▁تشریفات": 8766,
    "▁متذکر": 8767,
    "▁طنزپرداز": 8768,
    "▁سرخپوشان": 8769,
    "▁سمنزا": 8770,
    "▁بپرسید": 8771,
    "▁تظاهر": 8772,
    "▁محتکر": 8773,
    "▁شرمسار": 8774,
    "▁ناآشنا": 8775,
    "▁صحافی": 8776,
    "▁همجوار": 8777,
    "▁مصائب": 8778,
    "▁نذری": 8779,
    "▁نکونام": 8780,
    "▁فرخزاد": 8781,
    "▁بیانجامد": 8782,
    "▁نوترینو": 8783,
    "▁ایرلاین": 8784,
    "▁مقننه": 8785,
    "▁شیطان": 8786,
    "▁معضل": 8787,
    "▁سوراخ": 8788,
    "▁سوینتن": 8789,
    "▁مجارستان": 8790,
    "▁غمگین": 8791,
    "▁طارمی": 8792,
    "▁لوکزامبورگ": 8793,
    "▁تظاهرکنندگان": 8794,
    "▁اساتید": 8795,
    "▁آسایشگاه": 8796,
    "▁نقیض": 8797,
    "▁مکوندی": 8798,
    "▁موتورسوار": 8799,
    "▁نباشید": 8800,
    "▁برسانیم": 8801,
    "▁انهدام": 8802,
    "▁بگویید": 8803,
    "▁مقصود": 8804,
    "▁مترمکعب": 8805,
    "▁جانبازان": 8806,
    "▁پوتین": 8807,
    "▁ستمگر": 8808,
    "▁برلیناله": 8809,
    "▁عنایت": 8810,
    "▁داینا": 8811,
    "▁غیرعمد": 8812,
    "▁نزاع": 8813,
    "▁سرسبز": 8814,
    "▁ظلم": 8815,
    "▁خمیس": 8816,
    "▁سهمگین": 8817,
    "▁دفعات": 8818,
    "▁قرآن": 8819,
    "▁هوندا": 8820,
    "▁دوآ": 8821,
    "▁بشناسد": 8822,
    "▁هیلتون": 8823,
    "▁مصادیق": 8824,
    "▁شوشتر": 8825,
    "▁ببینم": 8826,
    "▁پوینت": 8827,
    "▁خاکباز": 8828,
    "▁جرارد": 8829,
    "▁ایرویز": 8830,
    "▁منحنی": 8831,
    "▁کوئینز": 8832,
    "▁غیرمعمول": 8833,
    "▁کوونی": 8834,
    "▁صداقت": 8835,
    "▁سیندمی": 8836,
    "▁بسپارد": 8837,
    "▁۱۳۸۶": 8838,
    "▁بزنید": 8839,
    "▁خوشبو": 8840,
    "▁شادگان": 8841,
    "▁سنجاب": 8842,
    "▁بیفتند": 8843,
    "▁بنویسد": 8844,
    "▁بفرستد": 8845,
    "▁متضاد": 8846,
    "▁۱۹۴۴": 8847,
    "▁۱۳۸۰": 8848,
    "▁مقبول": 8849,
    "▁کوئیک": 8850,
    "▁کانتونا": 8851,
    "▁ناخو": 8852,
    "▁بنویسم": 8853,
    "▁باغبان": 8854,
    "▁عبرت": 8855,
    "▁دیلن": 8856,
    "▁عبادی": 8857,
    "▁تسل": 8858,
    "▁زهیر": 8859,
    "▁موزیکال": 8860,
    "ارزپاشی": 8861,
    "▁باروک": 8862,
    "پهن": 8863,
    "▁مزیت": 8864,
    "بنز": 8865,
    "▁عابران": 8866,
    "▁لاستیک": 8867,
    "▁صفاری": 8868,
    "▁۶۳۰": 8869,
    "▁بلندتر": 8870,
    "▁بگذارم": 8871,
    "▁ونچ": 8872,
    "▁ترفتال": 8873,
    "▁بنی": 8874,
    "روا": 8875,
    "▁گزاف": 8876,
    "▁کالینگ": 8877,
    "▁دیسک": 8878,
    "▁منکین": 8879,
    "▁علیشاهی": 8880,
    "▁مرندی": 8881,
    "▁۲۳۹": 8882,
    "▁بوفالوران": 8883,
    "▁زیباست": 8884,
    "▁زادروز": 8885,
    "▁روباه": 8886,
    "▁زیربنا": 8887,
    "▁معبد": 8888,
    "▁خیاط": 8889,
    "▁کیلی": 8890,
    "متری": 8891,
    "▁جویانه": 8892,
    "▁لرزاند": 8893,
    "▁سروصدا": 8894,
    "▁تنبل": 8895,
    "▁بیولوژی": 8896,
    "▁مشهود": 8897,
    "▁الجز": 8898,
    "ستراح": 8899,
    "▁نیابت": 8900,
    "▁خجالت": 8901,
    "▁قمار": 8902,
    "▁خیری": 8903,
    "▁باارزش": 8904,
    "▁میانمار": 8905,
    "▁ناظمی": 8906,
    "▁وزیری": 8907,
    "▁دلنشین": 8908,
    "امور": 8909,
    "▁آموس": 8910,
    "▁حدف": 8911,
    "▁بگیرم": 8912,
    "▁آغا": 8913,
    "بنوی": 8914,
    "▁خورند": 8915,
    "متاز": 8916,
    "▁آبراه": 8917,
    "▁ایدز": 8918,
    "▁بازوهای": 8919,
    "▁ثق": 8920,
    "▁خطاهای": 8921,
    "▁شوکور": 8922,
    "▁فدریک": 8923,
    "▁محمدحس": 8924,
    "▁ترمز": 8925,
    "▁محصور": 8926,
    "▁مشاهدات": 8927,
    "▁بازپرس": 8928,
    "هالیفیلد": 8929,
    "▁کریگ": 8930,
    "▁میناری": 8931,
    "▁شهباز": 8932,
    "▁ازآن": 8933,
    "▁اتمر": 8934,
    "▁پوسترهای": 8935,
    "▁پیوندند": 8936,
    "▁گیج": 8937,
    "▁نبردها": 8938,
    "ستحکم": 8939,
    "▁بامیه": 8940,
    "▁دکترای": 8941,
    "۷۲": 8942,
    "پوشید": 8943,
    "▁زرتشتی": 8944,
    "▁نمودار": 8945,
    "▁غفاری": 8946,
    "▁نرود": 8947,
    "▁پرور": 8948,
    "▁سینایی": 8949,
    "▁ریختند": 8950,
    "یلو": 8951,
    "▁یادمان": 8952,
    "پروم": 8953,
    "هنگ": 8954,
    "جمعی": 8955,
    "▁هالووین": 8956,
    "▁گیلبرت": 8957,
    "▁لایک": 8958,
    "▁شکس": 8959,
    "پدر": 8960,
    "ارنوک": 8961,
    "▁ائ": 8962,
    "اتل": 8963,
    "حور": 8964,
    "نچ": 8965,
    "هموار": 8966,
    "▁رباتیک": 8967,
    "▁موازن": 8968,
    "▁برسیم": 8969,
    "▁تیز": 8970,
    "▁مبنا": 8971,
    "▁واژگان": 8972,
    "▁نرسیدن": 8973,
    "▁بنام": 8974,
    "▁آرن": 8975,
    "▁مواج": 8976,
    "▁مفسد": 8977,
    "▁سیب": 8978,
    "▁ویدئوهای": 8979,
    "▁ربع": 8980,
    "▁دارالا": 8981,
    "ندرسون": 8982,
    "یشان": 8983,
    "▁گذراندم": 8984,
    "ینا": 8985,
    "▁نگذشته": 8986,
    "▁ناشده": 8987,
    "▁رحیمی": 8988,
    "الیزا": 8989,
    "▁مرزبان": 8990,
    "▁بدیع": 8991,
    "▁بدود": 8992,
    "▁آزادگان": 8993,
    "ارا": 8994,
    "▁رجیس": 8995,
    "▁محبت": 8996,
    "▁فراوانش": 8997,
    "▁نوشتارها": 8998,
    "▁تماشگر": 8999,
    "لیل": 9000,
    "دنی": 9001,
    "نادر": 9002,
    "▁دستفروش": 9003,
    "▁سانچ": 9004,
    "نما": 9005,
    "یروس": 9006,
    "▁دلخو": 9007,
    "▁چریک": 9008,
    "▁گمارد": 9009,
    "سوار": 9010,
    "▁دوقلوها": 9011,
    "۳۵": 9012,
    "کال": 9013,
    "ویرانگر": 9014,
    "▁رازهای": 9015,
    "▁صفا": 9016,
    "▁قبرهای": 9017,
    "▁گماشت": 9018,
    "▁مدا": 9019,
    "▁رکسا": 9020,
    "مق": 9021,
    "وماگا": 9022,
    "کولبر": 9023,
    "تعدد": 9024,
    "▁سودده": 9025,
    "نمود": 9026,
    "▁کتابخوان": 9027,
    "▁دروغگو": 9028,
    "▁فاصل": 9029,
    "▁لغ": 9030,
    "طلس": 9031,
    "▁صمد": 9032,
    "▁صن": 9033,
    "▁نبردی": 9034,
    "▁شمع": 9035,
    "زستان": 9036,
    "▁خوانید": 9037,
    "▁هنرپیشگ": 9038,
    "▁مجلل": 9039,
    "▁همتایان": 9040,
    "▁دالان": 9041,
    "▁یزدان": 9042,
    "ستری": 9043,
    "▁کشمیر": 9044,
    "سایر": 9045,
    "دارا": 9046,
    "اتب": 9047,
    "▁شمرد": 9048,
    "▁چهلم": 9049,
    "▁مواجهند": 9050,
    "▁هزاره": 9051,
    "▁تویی": 9052,
    "اصر": 9053,
    "▁ایفل": 9054,
    "▁گفتم": 9055,
    "کادی": 9056,
    "▁داستا": 9057,
    "▁چون": 9058,
    "▁نازک": 9059,
    "▁میامی": 9060,
    "نشینان": 9061,
    "▁حک": 9062,
    "نگام": 9063,
    "▁بون": 9064,
    "مانس": 9065,
    "هفتم": 9066,
    "فشان": 9067,
    "شود": 9068,
    "سورها": 9069,
    "توم": 9070,
    "الیف": 9071,
    "دهم": 9072,
    "اشته": 9073,
    "رانگ": 9074,
    "▁بیدگ": 9075,
    "▁وارن": 9076,
    "نسوخ": 9077,
    "طم": 9078,
    "اطبا": 9079,
    "▁تهدیدات": 9080,
    "اگ": 9081,
    "شانت": 9082,
    "▁هستی": 9083,
    "▁سیاستگذار": 9084,
    "اتنگ": 9085,
    "▁کلاسیکو": 9086,
    "دیو": 9087,
    "▁نرفتن": 9088,
    "▁همدان": 9089,
    "▁وزار": 9090,
    "▁پارکین": 9091,
    "▁قبای": 9092,
    "فروشی": 9093,
    "نازل": 9094,
    "▁دانل": 9095,
    "▁۷۶۰": 9096,
    "لخ": 9097,
    "ذره": 9098,
    "خونی": 9099,
    "▁رزو": 9100,
    "حالی": 9101,
    "▁ترسد": 9102,
    "▁حجت": 9103,
    "▁استدفتر": 9104,
    "خدم": 9105,
    "رگذشت": 9106,
    "▁وانگ": 9107,
    "▁خوار": 9108,
    "گفتگوی": 9109,
    "▁افتادند": 9110,
    "اکبری": 9111,
    "وفیا": 9112,
    "▁۲۰۶": 9113,
    "ندنی": 9114,
    "▁پرتوی": 9115,
    "کمیس": 9116,
    "انزلی": 9117,
    "عد": 9118,
    "▁بگذار": 9119,
    "▁سپهر": 9120,
    "▁دستورات": 9121,
    "▁فرستند": 9122,
    "رعه": 9123,
    "▁اولیو": 9124,
    "▁بنین": 9125,
    "گذشته": 9126,
    "▁دخترم": 9127,
    "▁شرت": 9128,
    "▁خوابیدن": 9129,
    "▁نبرده": 9130,
    "ارگ": 9131,
    "▁کوئین": 9132,
    "▁راهیاب": 9133,
    "▁فرگوس": 9134,
    "▁نگ": 9135,
    "▁مگنو": 9136,
    "▁پدرو": 9137,
    "هشت": 9138,
    "هان": 9139,
    "شاملو": 9140,
    "ورز": 9141,
    "کسیون": 9142,
    "گراد": 9143,
    "چندان": 9144,
    "مثبت": 9145,
    "▁شغلهای": 9146,
    "صیر": 9147,
    "هلن": 9148,
    "▁مته": 9149,
    "▁ناخ": 9150,
    "ناعت": 9151,
    "▁بکر": 9152,
    "▁مورخ": 9153,
    "▁ایرانسل": 9154,
    "▁هوم": 9155,
    "▁کولبری": 9156,
    "چار": 9157,
    "▁راهور": 9158,
    "اتری": 9159,
    "▁جنگید": 9160,
    "▁بارتو": 9161,
    "▁جور": 9162,
    "ورو": 9163,
    "▁شناختند": 9164,
    "▁میزبانش": 9165,
    "▁نفی": 9166,
    "▁استعماری": 9167,
    "▁مرم": 9168,
    "دانف": 9169,
    "پن": 9170,
    "▁یابی": 9171,
    "پوآ": 9172,
    "▁نحس": 9173,
    "تحرک": 9174,
    "▁چکی": 9175,
    "▁اعم": 9176,
    "یوس": 9177,
    "▁تعبی": 9178,
    "▁فونت": 9179,
    "▁آورید": 9180,
    "▁دربا": 9181,
    "▁انقلابی": 9182,
    "▁۱۲۸": 9183,
    "▁سوپ": 9184,
    "▁مایا": 9185,
    "▁بازنده": 9186,
    "▁آریا": 9187,
    "پرده": 9188,
    "زیا": 9189,
    "▁کوک": 9190,
    "▁عس": 9191,
    "▁دیدگ": 9192,
    "▁تولی": 9193,
    "فلورای": 9194,
    "▁دانستم": 9195,
    "▁همسران": 9196,
    "فای": 9197,
    "گذرانند": 9198,
    "گوین": 9199,
    "ذاب": 9200,
    "▁فیزیوتراپی": 9201,
    "نفت": 9202,
    "▁پرداختند": 9203,
    "▁گزی": 9204,
    "دری": 9205,
    "یغ": 9206,
    "۹۶۰": 9207,
    "لیور": 9208,
    "برند": 9209,
    "رژی": 9210,
    "▁خند": 9211,
    "انچی": 9212,
    "▁مزد": 9213,
    "▁رسیم": 9214,
    "لیا": 9215,
    "گنجی": 9216,
    "▁حوال": 9217,
    "نقدر": 9218,
    "▁مذاکراتش": 9219,
    "▁سندر": 9220,
    "▁عفون": 9221,
    "اینس": 9222,
    "▁؛": 9223,
    "نوان": 9224,
    "راکت": 9225,
    "▁ادین": 9226,
    "گور": 9227,
    "مندان": 9228,
    "▁۱۳۳": 9229,
    "کیا": 9230,
    "تانک": 9231,
    "▁نورال": 9232,
    "▁گار": 9233,
    "▁برخاستن": 9234,
    "▁ولت": 9235,
    "▁دوور": 9236,
    "موش": 9237,
    "خوانده": 9238,
    "▁بخوان": 9239,
    "▁فرجی": 9240,
    "▁بیگان": 9241,
    "▁لویی": 9242,
    "▁برازند": 9243,
    "لیو": 9244,
    "جین": 9245,
    "مالا": 9246,
    "ارسیا": 9247,
    "اوت": 9248,
    "▁آنف": 9249,
    "لوی": 9250,
    "نگو": 9251,
    "▁۱۱۹": 9252,
    "الان": 9253,
    "▁رگی": 9254,
    "فاهی": 9255,
    "▁شکم": 9256,
    "ماد": 9257,
    "▁آرنو": 9258,
    "▁کنسولی": 9259,
    "▁میانج": 9260,
    "وشیرو": 9261,
    "▁بایستی": 9262,
    "▁آسمانی": 9263,
    "۵۳": 9264,
    "رال": 9265,
    "▁تنه": 9266,
    "▁بریج": 9267,
    "▁نخل": 9268,
    "تال": 9269,
    "▁بدنساز": 9270,
    "تس": 9271,
    "▁ایرایی": 9272,
    "گمان": 9273,
    "▁لج": 9274,
    "یختگ": 9275,
    "عود": 9276,
    "قانون": 9277,
    "وانگ": 9278,
    "گشایش": 9279,
    "کسان": 9280,
    "یافت": 9281,
    "▁پرمخاط": 9282,
    "خنده": 9283,
    "▁مشترکان": 9284,
    "▁وینس": 9285,
    "▁مصل": 9286,
    "▁جدیدتر": 9287,
    "یاب": 9288,
    "احسا": 9289,
    "▁دلجو": 9290,
    "سوری": 9291,
    "۶۸": 9292,
    "ورگان": 9293,
    "۹۵": 9294,
    "▁کلانی": 9295,
    "▁ماخ": 9296,
    "دوم": 9297,
    "▁ریچ": 9298,
    "اغذی": 9299,
    "نفوس": 9300,
    "بسیار": 9301,
    "▁ث": 9302,
    "وشه": 9303,
    "▁نقاشان": 9304,
    "▁چشمک": 9305,
    "ینکی": 9306,
    "▁مگو": 9307,
    "اویر": 9308,
    "اختا": 9309,
    "یگری": 9310,
    "اشق": 9311,
    "▁ویول": 9312,
    "▁والد": 9313,
    "أت": 9314,
    "▁وث": 9315,
    "سترش": 9316,
    "▁ابراهیمی": 9317,
    "فونی": 9318,
    "▁وصدا": 9319,
    "چو": 9320,
    "▁منه": 9321,
    "▁قه": 9322,
    "سیل": 9323,
    "انگر": 9324,
    "ورن": 9325,
    "▁ویلر": 9326,
    "▁دز": 9327,
    "نگاه": 9328,
    "کنی": 9329,
    "▁آخ": 9330,
    "▁درخشند": 9331,
    "▁فرما": 9332,
    "▁مخاط": 9333,
    "▁راین": 9334,
    "▁افزا": 9335,
    "▁۱۵۲": 9336,
    "▁کربی": 9337,
    "▁تراژ": 9338,
    "ادبی": 9339,
    "▁لین": 9340,
    "▁فوب": 9341,
    "تعی": 9342,
    "▁بگو": 9343,
    "لاند": 9344,
    "رایش": 9345,
    "▁آنجل": 9346,
    "▁کشاورزان": 9347,
    "▁آین": 9348,
    "دوش": 9349,
    "▁خائ": 9350,
    "دستان": 9351,
    "نگوی": 9352,
    "دخای": 9353,
    "▁خصوصا": 9354,
    "موس": 9355,
    "شهری": 9356,
    "جدید": 9357,
    "کسوت": 9358,
    "هیه": 9359,
    "▁ببری": 9360,
    "▁هید": 9361,
    "هستند": 9362,
    "ضیا": 9363,
    "ذخا": 9364,
    "۹۸": 9365,
    "ورای": 9366,
    "پرت": 9367,
    "▁کوما": 9368,
    "▁شارپ": 9369,
    "▁هندو": 9370,
    "دونا": 9371,
    "لیات": 9372,
    "▁اسکور": 9373,
    "سند": 9374,
    "پایان": 9375,
    "شهره": 9376,
    "▁بمان": 9377,
    "زاوی": 9378,
    "نزو": 9379,
    "گوش": 9380,
    "▁چسبی": 9381,
    "چون": 9382,
    "کلاس": 9383,
    "▁زمام": 9384,
    "▁کیش": 9385,
    "گرم": 9386,
    "تاریخ": 9387,
    "سمانی": 9388,
    "رید": 9389,
    "نزدیک": 9390,
    "رونالدو": 9391,
    "▁فرسا": 9392,
    "نمای": 9393,
    "گارد": 9394,
    "یاط": 9395,
    "انوس": 9396,
    "▁رایکو": 9397,
    "کولی": 9398,
    "حی": 9399,
    "ناتور": 9400,
    "نوم": 9401,
    "ردام": 9402,
    "انشهر": 9403,
    "▁تدا": 9404,
    "▁هیچگ": 9405,
    "▁دکترها": 9406,
    "▁استرا": 9407,
    "خواند": 9408,
    "▁کتابدار": 9409,
    "▁الف": 9410,
    "▁منح": 9411,
    "▁اندروز": 9412,
    "انریک": 9413,
    "▁ژر": 9414,
    "نند": 9415,
    "▁تشخیصی": 9416,
    "▁رویاها": 9417,
    "▁محم": 9418,
    "ودن": 9419,
    "▁مرب": 9420,
    "▁واکسنی": 9421,
    "▁آنه": 9422,
    "▁اسکا": 9423,
    "عمل": 9424,
    "▁جاست": 9425,
    "آقا": 9426,
    "ئیل": 9427,
    "▁بده": 9428,
    "افراد": 9429,
    "رصد": 9430,
    "آینده": 9431,
    "لام": 9432,
    "ارهای": 9433,
    "▁۱۱۴": 9434,
    "۰۳": 9435,
    "قچی": 9436,
    "▁چیپ": 9437,
    "▁نائ": 9438,
    "منان": 9439,
    "پیدا": 9440,
    "▁انبارها": 9441,
    "▁شهره": 9442,
    "ضراب": 9443,
    "▁زبانه": 9444,
    "وازا": 9445,
    "▁اجسا": 9446,
    "▁آبیار": 9447,
    "▁فهمیدن": 9448,
    "روحانی": 9449,
    "▁گود": 9450,
    "▁دس": 9451,
    "▁غیرب": 9452,
    "نیت": 9453,
    "▁لینگ": 9454,
    "▁سکس": 9455,
    "▁خونی": 9456,
    "انیس": 9457,
    "یزی": 9458,
    "▁واردکنند": 9459,
    "▁هال": 9460,
    "▁مبه": 9461,
    "▁مارسل": 9462,
    "▁واحده": 9463,
    "تگان": 9464,
    "▁تخار": 9465,
    "▁بدق": 9466,
    "برابر": 9467,
    "▁دستمزدها": 9468,
    "▁فضاپیما": 9469,
    "برمی": 9470,
    "▁کلو": 9471,
    "۸۶": 9472,
    "عکسی": 9473,
    "▁الو": 9474,
    "▁جل": 9475,
    "برت": 9476,
    "▁آزم": 9477,
    "▁سونا": 9478,
    "انح": 9479,
    "▁صداها": 9480,
    "دوستانه": 9481,
    "میان": 9482,
    "عیار": 9483,
    "▁زنم": 9484,
    "چگون": 9485,
    "داخل": 9486,
    "فیه": 9487,
    "▁ولای": 9488,
    "یلد": 9489,
    "ارپنت": 9490,
    "ریاست": 9491,
    "▁دستش": 9492,
    "▁ند": 9493,
    "سترد": 9494,
    "▁ماجراجو": 9495,
    "تفاوت": 9496,
    "یری": 9497,
    "تحریر": 9498,
    "فرنو": 9499,
    "▁ماسا": 9500,
    "کای": 9501,
    "▁آلیس": 9502,
    "لومین": 9503,
    "ابات": 9504,
    "تناب": 9505,
    "▁کیس": 9506,
    "تهم": 9507,
    "ریز": 9508,
    "▁هوک": 9509,
    "بله": 9510,
    "▁کران": 9511,
    "اقدام": 9512,
    "تایید": 9513,
    "المپیک": 9514,
    "شهدا": 9515,
    "انسان": 9516,
    "قاب": 9517,
    "قامت": 9518,
    "اعت": 9519,
    "حکومت": 9520,
    "پار": 9521,
    "▁چپگرا": 9522,
    "▁نابینا": 9523,
    "▁دیپلم": 9524,
    "▁دیگ": 9525,
    "▁پنداشت": 9526,
    "قوی": 9527,
    "۱۰": 9528,
    "▁پارسا": 9529,
    "انتقال": 9530,
    "شناخت": 9531,
    "۴۳": 9532,
    "▁مگن": 9533,
    "مهندس": 9534,
    "▁بالاگ": 9535,
    "نایی": 9536,
    "▁کمپا": 9537,
    "▁رسیدم": 9538,
    "ظریف": 9539,
    "نیایی": 9540,
    "▁اتکای": 9541,
    "فکر": 9542,
    "▁درازا": 9543,
    "▁شغلش": 9544,
    "▁زیرین": 9545,
    "▁گیران": 9546,
    "اصله": 9547,
    "ینس": 9548,
    "حرکت": 9549,
    "کاظم": 9550,
    "شیده": 9551,
    "اقش": 9552,
    "دپای": 9553,
    "▁وج": 9554,
    "ناتان": 9555,
    "صراف": 9556,
    "▁وسائ": 9557,
    "خرید": 9558,
    "▁الیو": 9559,
    "جنوب": 9560,
    "برداشت": 9561,
    "▁نشا": 9562,
    "▁ونزوئلای": 9563,
    "واردات": 9564,
    "سپی": 9565,
    "سالگی": 9566,
    "سیاسی": 9567,
    "دستور": 9568,
    "آتش": 9569,
    "▁لیک": 9570,
    "▁آک": 9571,
    "الکلی": 9572,
    "چهارم": 9573,
    "سقوط": 9574,
    "توییتر": 9575,
    "▁شرو": 9576,
    "اعتراضات": 9577,
    "رسانی": 9578,
    "مجید": 9579,
    "▁آسو": 9580,
    "روسیه": 9581,
    "▁اشع": 9582,
    "بریتانیایی": 9583,
    "برخورد": 9584,
    "منچستر": 9585,
    "سوخت": 9586,
    "نوشت": 9587,
    "اسکا": 9588,
    "ئل": 9589,
    "امنیتی": 9590,
    "رقم": 9591,
    "▁منو": 9592,
    "اتاق": 9593,
    "عاب": 9594,
    "فساد": 9595,
    "سفیر": 9596,
    "زند": 9597,
    "لینک": 9598,
    "جدول": 9599,
    "ساختمان": 9600,
    "کاملا": 9601,
    "وهای": 9602,
    "جزئیات": 9603,
    "هشتم": 9604,
    "خواننده": 9605,
    "▁گردآ": 9606,
    "چپ": 9607,
    "▁لک": 9608,
    "گلدار": 9609,
    "معترضان": 9610,
    "آلبر": 9611,
    "پنجشنبه": 9612,
    "کمبود": 9613,
    "▁لوت": 9614,
    "▁مشروع": 9615,
    "جوایز": 9616,
    "ساخته": 9617,
    "واشنگتن": 9618,
    "مدیرعامل": 9619,
    "▁بز": 9620,
    "برزیل": 9621,
    "توییت": 9622,
    "فیفا": 9623,
    "معمولا": 9624,
    "▁جنگیدن": 9625,
    "▁دلیلش": 9626,
    "مجله": 9627,
    "خیابان": 9628,
    "رمت": 9629,
    "رئال": 9630,
    "خبرنگاران": 9631,
    "آرسنال": 9632,
    "جامعه": 9633,
    "مشاور": 9634,
    "نادال": 9635,
    "کریستین": 9636,
    "بازدید": 9637,
    "اطمینان": 9638,
    "اصلاح": 9639,
    "▁زوا": 9640,
    "خودکشی": 9641,
    "پادشاه": 9642,
    "مرح": 9643,
    "عصر": 9644,
    "بنیا": 9645,
    "امارات": 9646,
    "▁مط": 9647,
    "کیفیت": 9648,
    "حراج": 9649,
    "تبعیض": 9650,
    "حشم": 9651,
    "منچسترسیتی": 9652,
    "فایزر": 9653,
    "اسپوت": 9654,
    "تکمیل": 9655,
    "عرص": 9656,
    "سپاهان": 9657,
    "کاوشگر": 9658,
    "اسکار": 9659,
    "▁نیروها": 9660,
    "▁۱۸۴": 9661,
    "اگون": 9662,
    "رامش": 9663,
    "ستردا": 9664,
    "▁..": 9665,
    "عطرساز": 9666,
    "ویلیام": 9667,
    "ماگو": 9668,
    "▁اوار": 9669,
    "پژوهش": 9670,
    "نوروز": 9671,
    "رگاه": 9672,
    "ستیو": 9673,
    "منچستریونایتد": 9674,
    "مالاریا": 9675,
    "معمول": 9676,
    "دروس": 9677,
    "ثروت": 9678,
    "واقعیت": 9679,
    "انتقادات": 9680,
    "دیتر": 9681,
    "کوئین": 9682,
    "رونالدینیو": 9683,
    "بنفش": 9684,
    "شرف": 9685,
    "مارتین": 9686,
    "توتال": 9687,
    "تماس": 9688,
    "خالق": 9689,
    "▁تیرانداز": 9690,
    "جلسات": 9691,
    "کز": 9692,
    "▁پناهجو": 9693,
    "▁اصلان": 9694,
    "عبدالله": 9695,
    "▁وکلا": 9696,
    "جعفر": 9697,
    "جدال": 9698,
    "▁جهنم": 9699,
    "▁گرسن": 9700,
    "▁نارنج": 9701,
    "▁محتوا": 9702,
    "▁حسگر": 9703,
    "▁اتل": 9704,
    "اقت": 9705,
    "▁خانوارها": 9706,
    "▁ادعاها": 9707,
    "دات": 9708,
    "پناه": 9709,
    "آشفت": 9710,
    "▁مطهر": 9711,
    "متیو": 9712,
    "▁نجوم": 9713,
    "یدند": 9714,
    "▁گرداند": 9715,
    "▁مقدا": 9716,
    "سپ": 9717,
    "▁بیس": 9718,
    "مدیران": 9719,
    "تراپی": 9720,
    "حبیب": 9721,
    "مثل": 9722,
    "▁ساق": 9723,
    "▁علا": 9724,
    "نصر": 9725,
    "کوبا": 9726,
    "▁شغلها": 9727,
    "▁لطیف": 9728,
    "▁۲۰۷": 9729,
    "▁جهانگیر": 9730,
    "حکمت": 9731,
    "نیاز": 9732,
    "یتون": 9733,
    "کران": 9734,
    "پزشکان": 9735,
    "وکس": 9736,
    "▁لاین": 9737,
    "اوبر": 9738,
    "شرط": 9739,
    "لنگر": 9740,
    "▁دومی": 9741,
    "تعارض": 9742,
    "▁سایتش": 9743,
    "▁فروخت": 9744,
    "▁تابع": 9745,
    "دالر": 9746,
    "اخترشناس": 9747,
    "یویا": 9748,
    "پائی": 9749,
    "▁عر": 9750,
    "ارگردان": 9751,
    "▁دیوارها": 9752,
    "▁جوری": 9753,
    "امد": 9754,
    "باری": 9755,
    "▁تجر": 9756,
    "▁تجار": 9757,
    "▁وینفر": 9758,
    "دومین": 9759,
    "کیهان": 9760,
    "جاز": 9761,
    "شرکتهای": 9762,
    "▁تسا": 9763,
    "▁شوخ": 9764,
    "ونتی": 9765,
    "ژی": 9766,
    "مانیا": 9767,
    "▁خطرهای": 9768,
    "ضمن": 9769,
    "جهش": 9770,
    "گذراند": 9771,
    "ئرنیک": 9772,
    "▁دهشت": 9773,
    "وزش": 9774,
    "منتف": 9775,
    "▁جمهو": 9776,
    "یدا": 9777,
    "قول": 9778,
    "▁تهدیدها": 9779,
    "▁لیپ": 9780,
    "▁رخشان": 9781,
    "▁دستورها": 9782,
    "▁قراردادها": 9783,
    "▁لال": 9784,
    "▁الاح": 9785,
    "شهرت": 9786,
    "وک": 9787,
    "قطعی": 9788,
    "سترازنکا": 9789,
    "▁دلسوز": 9790,
    "▁لول": 9791,
    "▁کانتون": 9792,
    "ائیه": 9793,
    "▁بپرداز": 9794,
    "ریزش": 9795,
    "▁زحم": 9796,
    "▁قرائ": 9797,
    "▁ظالم": 9798,
    "کات": 9799,
    "درس": 9800,
    "▁هاشم": 9801,
    "▁دیپ": 9802,
    "▁ابوظبی": 9803,
    "▁ایزوتوپ": 9804,
    "▁تمساح": 9805,
    "▁دیپلومات": 9806,
    "▁سریلانکا": 9807,
    "▁سولوویوف": 9808,
    "▁ژئوپلتیک": 9809,
    "▁یوکوکورا": 9810,
    "▁غوغای": 9811,
    "▁مرتضوی": 9812,
    "▁شقاقی": 9813,
    "▁نامطلوب": 9814,
    "▁پورنوگرافی": 9815,
    "▁هخامنشی": 9816,
    "▁پوآرو": 9817,
    "▁وبیتکو": 9818,
    "▁سبحانی": 9819,
    "▁استروئید": 9820,
    "▁مدودف": 9821,
    "▁واکاندا": 9822,
    "▁ابطحی": 9823,
    "▁روانشناختی": 9824,
    "▁نیفتد": 9825,
    "▁سانفرانسیسکو": 9826,
    "▁سمنگان": 9827,
    "▁هیدروژن": 9828,
    "▁سیدابراهیم": 9829,
    "▁پورتلند": 9830,
    "▁برگکمپ": 9831,
    "▁هولدینگ": 9832,
    "▁کاذب": 9833,
    "▁العالم": 9834,
    "▁هورایزن": 9835,
    "▁فینچر": 9836,
    "▁فاحش": 9837,
    "▁واینالد": 9838,
    "▁نگرائو": 9839,
    "▁ابریشم": 9840,
    "▁بیاموز": 9841,
    "گاتی": 9842,
    "▁شکوهمند": 9843,
    "▁خونسرد": 9844,
    "▁مخترع": 9845,
    "▁اسنوبرد": 9846,
    "▁کمرشکن": 9847,
    "▁بیندازید": 9848,
    "▁گمپرت": 9849,
    "▁سیلیکون": 9850,
    "▁ریاکاری": 9851,
    "▁خرگوش": 9852,
    "▁نیفتند": 9853,
    "▁الشع": 9854,
    "▁وصیت": 9855,
    "▁پاکیزگی": 9856,
    "▁اتوبان": 9857,
    "▁واعظ": 9858,
    "▁ضابط": 9859,
    "▁فورهند": 9860,
    "کانا": 9861,
    "▁مزاح": 9862,
    "▁بکشاند": 9863,
    "▁۵۳ساله": 9864,
    "▁جماعت": 9865,
    "▁برگردانند": 9866,
    "▁آنالیز": 9867,
    "▁اوباش": 9868,
    "▁گنجایش": 9869,
    "▁پاندمی": 9870,
    "▁ببخشد": 9871,
    "▁کربلا": 9872,
    "▁کلمبو": 9873,
    "▁ندوشن": 9874,
    "▁بمانید": 9875,
    "▁فرازمند": 9876,
    "▁ویسکانس": 9877,
    "▁ژئو": 9878,
    "▁سرمنشا": 9879,
    "▁عاقبت": 9880,
    "▁بنشینند": 9881,
    "▁فرازمینی": 9882,
    "▁افتضاح": 9883,
    "▁ناخدا": 9884,
    "▁کلسترو": 9885,
    "▁پردیس": 9886,
    "▁بکاهد": 9887,
    "▁حیفا": 9888,
    "▁سردادند": 9889,
    "▁اوب": 9890,
    "▁ارنست": 9891,
    "▁گاندو": 9892,
    "▁کلارک": 9893,
    "▁آسایش": 9894,
    "مویرگی": 9895,
    "▁پرنفوذ": 9896,
    "▁شگرف": 9897,
    "▁بنگال": 9898,
    "▁معصومانه": 9899,
    "▁قاپید": 9900,
    "▁شئون": 9901,
    "▁بازگردم": 9902,
    "▁بصیر": 9903,
    "▁بیاییم": 9904,
    "▁سالوادور": 9905,
    "▁سعیدپور": 9906,
    "▁پاسداشت": 9907,
    "باستان": 9908,
    "لگرام": 9909,
    "▁مشکاتیان": 9910,
    "▁سمنان": 9911,
    "▁بنویس": 9912,
    "▁آتلانتا": 9913,
    "▁اسطور": 9914,
    "▁شادمان": 9915,
    "▁آبتین": 9916,
    "▁دستگیرزاده": 9917,
    "▁۱۹۱۲": 9918,
    "▁اپوز": 9919,
    "▁بیابند": 9920,
    "▁احمق": 9921,
    "▁بروکلی": 9922,
    "▁فاضلاب": 9923,
    "▁ارمنی": 9924,
    "▁بندپی": 9925,
    "▁متهیا": 9926,
    "شمالی": 9927,
    "▁ترفندهای": 9928,
    "▁مولایی": 9929,
    "▁گریختند": 9930,
    "▁کتا": 9931,
    "▁آلمادو": 9932,
    "▁خانلو": 9933,
    "▁بوسد": 9934,
    "▁تشابه": 9935,
    "▁۶۱۲": 9936,
    "▁معابد": 9937,
    "▁بگریز": 9938,
    "▁مزارش": 9939,
    "تقی": 9940,
    "▁۱۹۳۹": 9941,
    "▁واداشته": 9942,
    "▁کوروت": 9943,
    "▁المپی": 9944,
    "▁فرمایش": 9945,
    "▁تمجید": 9946,
    "▁حصار": 9947,
    "▁بردارم": 9948,
    "▁موثق": 9949,
    "رزاده": 9950,
    "چیز": 9951,
    "▁بیابد": 9952,
    "▁نگیرد": 9953,
    "▁ولیحی": 9954,
    "▁آلترن": 9955,
    "روژن": 9956,
    "▁کولون": 9957,
    "▁نشناخت": 9958,
    "▁بریز": 9959,
    "▁هدفمند": 9960,
    "انو": 9961,
    "دخیل": 9962,
    "▁حماسی": 9963,
    "▁کد": 9964,
    "▁پرالتهاب": 9965,
    "فال": 9966,
    "▁لاهه": 9967,
    "زیستی": 9968,
    "▁ریتم": 9969,
    "پابلیک": 9970,
    "▁سرمست": 9971,
    "▁بای": 9972,
    "▁آغازکرد": 9973,
    "▁ندانستند": 9974,
    "لازم": 9975,
    "▁اخت": 9976,
    "▁عنف": 9977,
    "▁۲۶۶": 9978,
    "ورش": 9979,
    "▁آپارت": 9980,
    "▁رافا": 9981,
    "آگاهی": 9982,
    "نکات": 9983,
    "▁پراوی": 9984,
    "▁گسست": 9985,
    "دلیلش": 9986,
    "▁استیشن": 9987,
    "آل": 9988,
    "▁طومار": 9989,
    "▁دات": 9990,
    "▁گیگاب": 9991,
    "▁سنسور": 9992,
    "▁نها": 9993,
    "▁انعکاس": 9994,
    "▁بساط": 9995,
    "▁جنایات": 9996,
    "▁رادارها": 9997,
    "▁ملایم": 9998,
    "▁آشتی": 9999,
    "▁کتابها": 10000,
    "▁علفزارها": 10001,
    "▁اژدها": 10002,
    "▁۱۷۵": 10003,
    "▁مگاصیص": 10004,
    "▁لوکالکان": 10005,
    "▁گاسکوئین": 10006,
    "نگلا": 10007,
    "سکو": 10008,
    "▁نومید": 10009,
    "▁امدادگر": 10010,
    "▁نوگرا": 10011,
    "▁مترو": 10012,
    "انجیر": 10013,
    "▁افراط": 10014,
    "▁فرمین": 10015,
    "▁دیوارنگار": 10016,
    "▁ضمیر": 10017,
    "روش": 10018,
    "▁۱۸۸": 10019,
    "▁سرزن": 10020,
    "▁۱۵۵": 10021,
    "نظار": 10022,
    "سرگ": 10023,
    "ارآفرین": 10024,
    "عطا": 10025,
    "▁کاونت": 10026,
    "▁احتمالات": 10027,
    "▁عمویی": 10028,
    "▁گرانبهای": 10029,
    "▁کاوش": 10030,
    "▁بغل": 10031,
    "▁۱۲۲": 10032,
    "▁رینت": 10033,
    "▁شنیدنش": 10034,
    "▁کوکو": 10035,
    "▁لودو": 10036,
    "▁ناراحتند": 10037,
    "▁لئون": 10038,
    "▁رشدی": 10039,
    "▁بازکنند": 10040,
    "▁امیدورا": 10041,
    "رنوش": 10042,
    "▁نگشته": 10043,
    "▁چرخاند": 10044,
    "▁رقصیدن": 10045,
    "▁آلپ": 10046,
    "▁مانورهای": 10047,
    "▁مذا": 10048,
    "▁بپیچ": 10049,
    "▁تسایت": 10050,
    "▁همبازی": 10051,
    "▁اردبی": 10052,
    "▁چهارصد": 10053,
    "▁هرچیز": 10054,
    "شواری": 10055,
    "▁خف": 10056,
    "▁روست": 10057,
    "رفتار": 10058,
    "▁پرتلا": 10059,
    "▁دریاب": 10060,
    "▁هورن": 10061,
    "▁ادیان": 10062,
    "امبو": 10063,
    "▁آندریاس": 10064,
    "وانا": 10065,
    "▁وزر": 10066,
    "▁کاتل": 10067,
    "مایند": 10068,
    "خاطرات": 10069,
    "▁خوانیم": 10070,
    "▁هملت": 10071,
    "▁مشوقهای": 10072,
    "▁گابریلا": 10073,
    "▁رهن": 10074,
    "ژوز": 10075,
    "▁هزارتومان": 10076,
    "▁خطاط": 10077,
    "▁دفاعیات": 10078,
    "لنی": 10079,
    "▁باربارا": 10080,
    "ویتز": 10081,
    "▁منصف": 10082,
    "▁جزیرو": 10083,
    "کمپ": 10084,
    "▁پنتاگون": 10085,
    "▁آجر": 10086,
    "▁گردآمد": 10087,
    "سود": 10088,
    "▁لوح": 10089,
    "ساتبی": 10090,
    "▁پرماجرا": 10091,
    "▁اکستر": 10092,
    "کریک": 10093,
    "▁گزارشش": 10094,
    "▁آرمانگرا": 10095,
    "کارزار": 10096,
    "تراتو": 10097,
    "▁خرمش": 10098,
    "▁خیرخواه": 10099,
    "سمی": 10100,
    "▁پالیس": 10101,
    "▁فراپا": 10102,
    "▁زدیم": 10103,
    "لع": 10104,
    "▁برت": 10105,
    "▁۱۷۷": 10106,
    "▁گذرا": 10107,
    "▁چسباند": 10108,
    "▁حادتر": 10109,
    "▁پهپادهای": 10110,
    "▁نواز": 10111,
    "▁میلیاردی": 10112,
    "اندیش": 10113,
    "▁بولدو": 10114,
    "▁ملامت": 10115,
    "▁هشدارها": 10116,
    "قویا": 10117,
    "▁نگارم": 10118,
    "▁علف": 10119,
    "▁مین": 10120,
    "▁بوس": 10121,
    "▁پسندید": 10122,
    "▁لارن": 10123,
    "▁نات": 10124,
    "میخ": 10125,
    "▁عرق": 10126,
    "زارها": 10127,
    "سقف": 10128,
    "▁ترسند": 10129,
    "کوش": 10130,
    "▁رن": 10131,
    "▁لورن": 10132,
    "▁نونو": 10133,
    "▁کورن": 10134,
    "▁نوشتاری": 10135,
    "واگذار": 10136,
    "ننده": 10137,
    "▁بسط": 10138,
    "▁ترها": 10139,
    "▁مکید": 10140,
    "▁کبود": 10141,
    "▁کاکس": 10142,
    "▁مخالفند": 10143,
    "نهاده": 10144,
    "▁بازنگشته": 10145,
    "۱۰۰": 10146,
    "▁مارکان": 10147,
    "▁روایتگر": 10148,
    "▁هنرش": 10149,
    "▁دلا": 10150,
    "تژیک": 10151,
    "▁الاصل": 10152,
    "مانند": 10153,
    "دهی": 10154,
    "▁گاردی": 10155,
    "نیمه": 10156,
    "فراز": 10157,
    "امدا": 10158,
    "ونز": 10159,
    "▁جوزا": 10160,
    "▁کینگز": 10161,
    "توت": 10162,
    "▁دیسکی": 10163,
    "درمانی": 10164,
    "۸۴": 10165,
    "▁کاو": 10166,
    "شکر": 10167,
    "زیاد": 10168,
    "▁غنای": 10169,
    "▁الاه": 10170,
    "▁مستعد": 10171,
    "▁رحیم": 10172,
    "▁مولد": 10173,
    "ارمی": 10174,
    "▁ابزارک": 10175,
    "▁خص": 10176,
    "کنفرانس": 10177,
    "▁سپه": 10178,
    "تورباز": 10179,
    "▁مبتلای": 10180,
    "امع": 10181,
    "مونت": 10182,
    "▁تحص": 10183,
    "▁بشناسی": 10184,
    "▁نقدهای": 10185,
    "▁آغازکرده": 10186,
    "▁فاخر": 10187,
    "جمعه": 10188,
    "▁غیرم": 10189,
    "▁دائما": 10190,
    "▁انریک": 10191,
    "یکل": 10192,
    "حا": 10193,
    "صالحی": 10194,
    "▁مسیریاب": 10195,
    "امگاه": 10196,
    "▁اسپری": 10197,
    "قش": 10198,
    "▁تایلندی": 10199,
    "تایی": 10200,
    "▁غیران": 10201,
    "▁کامی": 10202,
    "▁افزو": 10203,
    "▁قهری": 10204,
    "فرود": 10205,
    "چیان": 10206,
    "نورلند": 10207,
    "▁آمر": 10208,
    "▁پوک": 10209,
    "▁لگو": 10210,
    "▁کراش": 10211,
    "قت": 10212,
    "سمت": 10213,
    "▁آهنگی": 10214,
    "▁محرومند": 10215,
    "۷۱۰": 10216,
    "رونا": 10217,
    "▁عطش": 10218,
    "▁نخواست": 10219,
    "▁نوای": 10220,
    "وئر": 10221,
    "▁چانگ": 10222,
    "▁دفع": 10223,
    "▁بلندق": 10224,
    "پارد": 10225,
    "گردها": 10226,
    "یژ": 10227,
    "میانه": 10228,
    "▁هلن": 10229,
    "۸۰۰": 10230,
    "گزین": 10231,
    "رشنا": 10232,
    "▁نوزدهمی": 10233,
    "پیک": 10234,
    "▁وسای": 10235,
    "فوت": 10236,
    "▁اوس": 10237,
    "کلاسی": 10238,
    "نیز": 10239,
    "▁رق": 10240,
    "▁میگویند": 10241,
    "▁انگشتان": 10242,
    "▁کلور": 10243,
    "کشید": 10244,
    "راس": 10245,
    "▁چم": 10246,
    "▁لاپ": 10247,
    "شمال": 10248,
    "▁فاین": 10249,
    "تمع": 10250,
    "ثر": 10251,
    "▁جرئ": 10252,
    "▁سط": 10253,
    "▁نشرات": 10254,
    "دربار": 10255,
    "پشتکاری": 10256,
    "▁هیج": 10257,
    "▁روئی": 10258,
    "▁مجرمان": 10259,
    "عزیز": 10260,
    "▁پاور": 10261,
    "▁مضا": 10262,
    "▁سرکو": 10263,
    "نیتو": 10264,
    "▁باگز": 10265,
    "وث": 10266,
    "▁آنتو": 10267,
    "▁تراش": 10268,
    "رض": 10269,
    "▁رفتیم": 10270,
    "▁پیوستند": 10271,
    "▁استکه": 10272,
    "باند": 10273,
    "▁چول": 10274,
    "▁یونیو": 10275,
    "نبه": 10276,
    "دفو": 10277,
    "دیر": 10278,
    "▁نکردم": 10279,
    "بردی": 10280,
    "▁جولیان": 10281,
    "۱۴۶": 10282,
    "▁بارس": 10283,
    "▁درایو": 10284,
    "کاسی": 10285,
    "یران": 10286,
    "▁جوانا": 10287,
    "۵۴": 10288,
    "عابد": 10289,
    "▁شیاد": 10290,
    "▁تنی": 10291,
    "▁گرون": 10292,
    "▁دلی": 10293,
    "گوت": 10294,
    "▁کلوز": 10295,
    "لائو": 10296,
    "▁ستیز": 10297,
    "▁نابینای": 10298,
    "سکین": 10299,
    "یلند": 10300,
    "▁پهنا": 10301,
    "وفق": 10302,
    "▁شدیک": 10303,
    "▁بشویی": 10304,
    "▁تازیان": 10305,
    "▁شناسانه": 10306,
    "قطب": 10307,
    "▁عاشقان": 10308,
    "▁آسم": 10309,
    "▁افراز": 10310,
    "رهایش": 10311,
    "▁کارکنانش": 10312,
    "▁استرلی": 10313,
    "▁بازیکنانش": 10314,
    "▁میانسال": 10315,
    "▁پخت": 10316,
    "انع": 10317,
    "اگرا": 10318,
    "▁بوها": 10319,
    "▁وای": 10320,
    "گیرند": 10321,
    "ینیو": 10322,
    "▁کارکرد": 10323,
    "▁نوآ": 10324,
    "▁دارداین": 10325,
    "▁نپرداخت": 10326,
    "ستن": 10327,
    "▁کرمانشاهی": 10328,
    "اسا": 10329,
    "▁نپذیرفت": 10330,
    "اقبال": 10331,
    "▁دارن": 10332,
    "▁اندیشید": 10333,
    "الش": 10334,
    "یرو": 10335,
    "▁رزمند": 10336,
    "▁مساعدت": 10337,
    "▁خوردند": 10338,
    "▁ماجراهای": 10339,
    "▁غلا": 10340,
    "▁معذ": 10341,
    "طب": 10342,
    "وتنبرگ": 10343,
    "▁شدگ": 10344,
    "بای": 10345,
    "ستگاه": 10346,
    "لابی": 10347,
    "▁درهم": 10348,
    "راز": 10349,
    "▁نطق": 10350,
    "▁کنگو": 10351,
    "▁سیلوا": 10352,
    "▁وک": 10353,
    "▁نفیس": 10354,
    "شستن": 10355,
    "▁رسیدیم": 10356,
    "▁پودر": 10357,
    "ندا": 10358,
    "جدی": 10359,
    "ذه": 10360,
    "قطر": 10361,
    "▁رک": 10362,
    "شایست": 10363,
    "▁برگشتن": 10364,
    "▁عص": 10365,
    "▁نوده": 10366,
    "▁اروپای": 10367,
    "▁بخوانی": 10368,
    "▁سالفورد": 10369,
    "دئو": 10370,
    "▁قلو": 10371,
    "▁طاهری": 10372,
    "چیده": 10373,
    "▁دایم": 10374,
    "دبی": 10375,
    "▁دمید": 10376,
    "▁فتو": 10377,
    "صه": 10378,
    "▁سالگ": 10379,
    "عب": 10380,
    "▁آمو": 10381,
    "▁بقدر": 10382,
    "▁غیرقا": 10383,
    "▁ناگ": 10384,
    "▁چپگرای": 10385,
    "سای": 10386,
    "▁لبن": 10387,
    "محمدی": 10388,
    "▁السلط": 10389,
    "سمعی": 10390,
    "صادف": 10391,
    "▁برسید": 10392,
    "ترونیک": 10393,
    "▁ایرانروزها": 10394,
    "▁پریان": 10395,
    "وبند": 10396,
    "▁خرابکاران": 10397,
    "▁زهی": 10398,
    "وارت": 10399,
    "یکس": 10400,
    "▁بغ": 10401,
    "الج": 10402,
    "▁دره": 10403,
    "▁اکسپو": 10404,
    "پلی": 10405,
    "عرض": 10406,
    "اسب": 10407,
    "▁عز": 10408,
    "حریف": 10409,
    "یاد": 10410,
    "یعی": 10411,
    "دآور": 10412,
    "هانسی": 10413,
    "▁دق": 10414,
    "▁گیریم": 10415,
    "▁نشدم": 10416,
    "هاپ": 10417,
    "روسازی": 10418,
    "▁انگلی": 10419,
    "▁سپین": 10420,
    "▁هوی": 10421,
    "جلس": 10422,
    "▁تبعی": 10423,
    "▁زیرپا": 10424,
    "▁ایوب": 10425,
    "ساکن": 10426,
    "▁برع": 10427,
    "▁آمل": 10428,
    "▁لائو": 10429,
    "▁گذرانی": 10430,
    "▁اشتباهی": 10431,
    "رسیویر": 10432,
    "ورگ": 10433,
    "شانس": 10434,
    "▁پوشا": 10435,
    "▁راکل": 10436,
    "ونیا": 10437,
    "▁لیر": 10438,
    "▁سرگرفت": 10439,
    "▁مم": 10440,
    "▁کامپیوترهای": 10441,
    "▁گچ": 10442,
    "ونت": 10443,
    "▁ممد": 10444,
    "مالیا": 10445,
    "ریتا": 10446,
    "▁گنجه": 10447,
    "▁اتفاقا": 10448,
    "▁روا": 10449,
    "راندن": 10450,
    "▁حقوقش": 10451,
    "شمن": 10452,
    "تد": 10453,
    "▁علام": 10454,
    "▁خرو": 10455,
    "زمین": 10456,
    "▁لیم": 10457,
    "چای": 10458,
    "▁جهانگرد": 10459,
    "متعارف": 10460,
    "کرون": 10461,
    "هده": 10462,
    "▁خوابید": 10463,
    "▁موم": 10464,
    "عات": 10465,
    "ورسوی": 10466,
    "▁خوابی": 10467,
    "وما": 10468,
    "▁بیند": 10469,
    "گوی": 10470,
    "▁فلین": 10471,
    "رجی": 10472,
[...]
