<pad>	0
▁می	-3.98757
</s>	0
<unk>	0
▁های	-4.39178
▁ایران	-4.5276
▁است	-4.6846
▁شده	-4.78788
▁سال	-4.99875
▁یک	-5.01997
▁ها	-5.10424
▁کرده	-5.17065
▁است.	-5.25882
▁ای	-5.30697
▁تصویر	-5.3105
▁بود	-5.43237
▁گفته	-5.43593
▁خود	-5.61496
▁دو	-5.62945
▁بر	-5.65685
▁کرونا	-5.78721
▁پیش	-5.86278
▁کشور	-5.86688
▁آمریکا	-5.90033
▁شد	-5.90033
▁در	-5.90959
▁روز	-5.92836
▁ماه	-5.92836
▁گزارش	-5.93128
▁کرد	-5.98922
▁فوتبال	-6.05071
▁بی	-6.06314
▁اعلام	-6.11448
▁گفت	-6.12419
▁بازی	-6.12685
▁قرار	-6.14569
▁داده	-6.15479
▁شرکت	-6.15845
▁تیم	-6.20734
▁دیگر	-6.20927
▁شود	-6.21313
▁دولت	-6.2327
▁رئیس	-6.24864
▁خواهد	-6.24964
▁هزار	-6.25468
▁یا	-6.272
▁سه	-6.28026
▁گذشته	-6.28337
▁کار	-6.29593
▁آقای	-6.29803
▁پس	-6.32584
▁به	-6.32801
▁بین	-6.34666
▁دست	-6.34666
▁گوید	-6.3668
▁اند	-6.39778
▁کند	-6.40129
▁جهان	-6.41069
▁یکی	-6.4178
▁درباره	-6.42256
▁آنها	-6.45289
▁میلیون	-6.45659
▁دلیل	-6.46528
▁افزایش	-6.47656
▁هر	-6.48543
▁لیگ	-6.48925
▁و	-6.49438
▁دارد	-6.50082
▁بوده	-6.5073
▁هفته	-6.5073
▁درصد	-6.51644
▁تهران	-6.53231
▁شد.	-6.539
▁بار	-6.54709
▁ملی	-6.55797
▁نفر	-6.56209
▁افغانستان	-6.56484
▁از	-6.57592
▁بازار	-6.58572
▁جهانی	-6.59419
▁همه	-6.59845
▁نمی	-6.60274
▁بعد	-6.60417
▁سازمان	-6.60992
▁جمهوری	-6.61136
▁جدید	-6.6128
▁قیمت	-6.61715
▁باید	-6.6186
▁ویروس	-6.62883
▁ترین	-6.63916
▁چند	-6.6511
▁ایرانی	-6.65863
▁حال	-6.65863
▁دلار	-6.66015
▁گرفته	-6.66166
▁بیش	-6.67081
▁هایی	-6.67388
▁مورد	-6.69248
▁عنوان	-6.69562
▁مجلس	-6.69562
▁نظر	-6.69562
▁نفت	-6.69562
▁شدن	-6.69719
▁دهد.	-6.70192
▁نام	-6.70508
▁کاهش	-6.71304
▁فیلم	-6.73077
▁امروز	-6.73729
▁وزارت	-6.75379
▁روی	-6.76383
▁آغاز	-6.77226
▁اخیر	-6.77566
▁شود.	-6.77736
▁بود.	-6.78764
▁نیز	-6.79281
▁تولید	-6.79628
▁وزیر	-6.79976
▁اقتصادی	-6.81027
▁حدود	-6.81027
▁بریتانیا	-6.82445
▁کرد.	-6.82803
▁برنامه	-6.86082
▁همچنین	-6.86453
▁داشته	-6.87012
▁راه	-6.87387
▁چین	-6.87763
▁بیشتر	-6.8814
▁کند.	-6.8814
▁تحریم	-6.88519
▁اروپا	-6.89281
▁انجام	-6.89856
▁اولین	-6.90241
▁باشگاه	-6.90241
▁خبر	-6.91016
▁حضور	-6.92191
▁کنند	-6.92191
▁شیوع	-6.94581
▁منتشر	-6.94581
▁بانک	-6.95594
▁زمان	-6.95594
▁اساس	-6.96003
▁اش	-6.98697
▁پایان	-6.99541
▁صورت	-6.99753
▁واکسن	-6.99753
▁استفاده	-7.00178
▁جمله	-7.0082
▁را	-7.0082
▁ادامه	-7.01899
▁سی	-7.0277
▁با	-7.03209
▁وجود	-7.04092
▁بخش	-7.04983
▁نشان	-7.04983
▁میلیارد	-7.05207
▁برگزار	-7.05431
▁توافق	-7.05431
▁اول	-7.05656
▁بزرگ	-7.07704
▁مردم	-7.08396
▁همین	-7.08628
▁مسابقه	-7.0886
▁میان	-7.09093
▁المللی	-7.10265
▁شهر	-7.10265
▁ساله	-7.1193
▁تومان	-7.12894
▁دهد	-7.13136
▁شورای	-7.13623
▁زندگی	-7.14357
▁مسابقات	-7.14357
▁اند.	-7.15843
▁سر	-7.15843
▁آینده	-7.16343
▁حقوق	-7.16845
▁گیری	-7.17097
▁تر	-7.1735
▁خانه	-7.17858
▁فصل	-7.17858
▁گروه	-7.18113
▁مقام	-7.19396
▁تمام	-7.19655
▁داد	-7.19655
▁تنها	-7.19914
▁مقابل	-7.19914
▁چهار	-7.19914
▁اسلامی	-7.20697
▁خارجه	-7.20697
▁بدون	-7.20959
▁نرخ	-7.20959
▁منبع	-7.21485
▁بسیاری	-7.22014
▁باعث	-7.2228
▁کردن	-7.2228
▁بیماری	-7.22813
▁امسال	-7.23081
▁ماشین	-7.24159
▁دوران	-7.25798
▁کم	-7.26074
▁وضعیت	-7.26351
▁تواند	-7.27465
▁اجتماعی	-7.28027
▁اقتصاد	-7.28027
▁هستند	-7.28027
▁فعالیت	-7.28309
▁قبل	-7.28592
▁برتر	-7.2916
▁تازه	-7.2916
▁مرکزی	-7.29445
▁ارز	-7.29732
▁تصویر،	-7.30019
▁زنان	-7.30019
▁حالا	-7.31175
▁شبکه	-7.31175
▁بودند	-7.32051
▁نیست	-7.32051
▁خانواده	-7.32344
▁طور	-7.32344
▁جام	-7.32934
▁نزدیک	-7.3323
▁گل	-7.33528
▁تلاش	-7.33826
▁وارد	-7.34125
▁هیچ	-7.34725
▁کمک	-7.34725
▁گویند	-7.34725
▁بسیار	-7.35027
▁هنوز	-7.35633
▁علی	-7.35937
▁منطقه	-7.36549
▁حتی	-7.36856
▁دوره	-7.36856
▁طرح	-7.37474
▁سرمایه	-7.38095
▁ولی	-7.38095
▁تغییر	-7.38407
▁فروش	-7.38407
▁بعضی	-7.3872
▁دهه	-7.39034
▁بورس	-7.39349
▁حالی	-7.39349
▁داشت	-7.39349
▁انتخابات	-7.39665
▁روحانی	-7.39982
▁سوی	-7.39982
▁موسیقی	-7.40618
▁ریاست	-7.41582
▁قهرمانی	-7.41582
▁همراه	-7.41582
▁قهرمان	-7.41905
▁رسانه	-7.42229
▁شرایط	-7.42554
▁محمد	-7.42554
▁اشاره	-7.43208
▁مرکز	-7.43536
▁کشورهای	-7.43536
▁استان	-7.43865
▁کنند.	-7.43865
▁اصلی	-7.44196
▁برای	-7.44196
▁آن	-7.44528
▁تاریخ	-7.44528
▁حمله	-7.44861
▁فقط	-7.44861
▁نوشته	-7.44861
▁افراد	-7.45529
▁بررسی	-7.45866
▁رسمی	-7.45866
▁تصمیم	-7.46203
▁شروع	-7.46203
▁فدراسیون	-7.46541
▁که	-7.46541
▁اینکه	-7.46881
▁باز	-7.47222
▁جان	-7.47222
▁پرسپولیس	-7.47222
▁پیدا	-7.47563
▁مختلف	-7.47906
▁کردند	-7.47906
▁برخی	-7.48596
▁علیه	-7.48943
▁هسته	-7.49291
▁رسیده	-7.4964
▁زمین	-7.4964
▁آمریکایی	-7.4999
▁دوم	-7.4999
▁اثر	-7.50341
▁اطلاعات	-7.50341
▁ثبت	-7.50341
▁یافته	-7.50694
▁آمار	-7.51403
▁میلادی	-7.51403
▁مراسم	-7.52118
▁زیادی	-7.52477
▁نتیجه	-7.52477
▁نه	-7.52477
▁باشد	-7.52837
▁برابر	-7.53199
▁زن	-7.53562
▁اعتراض	-7.53926
▁جمهور	-7.53926
▁رقابت	-7.53926
▁کشتی	-7.54292
▁پنج	-7.54659
▁برجام	-7.55397
▁دانشگاه	-7.55397
▁الله	-7.55768
▁توسط	-7.56514
▁سیاسی	-7.56889
▁مدت	-7.56889
▁کنار	-7.56889
▁حاضر	-7.57266
▁ممکن	-7.57266
▁همکاری	-7.57266
▁مالی	-7.57644
▁شنبه	-7.58023
▁عکس	-7.58023
▁نامه	-7.58023
▁گذاری	-7.58404
▁بهترین	-7.59171
▁توجه	-7.59171
▁ساعت	-7.59171
▁دنبال	-7.59556
▁نشده	-7.59943
▁پرونده	-7.59943
▁شش	-7.60331
▁جایزه	-7.60721
▁سفر	-7.61112
▁سیاست	-7.62296
▁طی	-7.62296
▁ویژه	-7.62296
▁بودجه	-7.62693
▁دولتی	-7.62693
▁سابق	-7.62693
▁۴	-7.62693
▁خودرو	-7.63896
▁زیر	-7.643
▁سهام	-7.643
▁موضوع	-7.643
▁کره	-7.643
▁آژانس	-7.64706
▁سازی	-7.64706
▁نیمه	-7.64706
▁پی	-7.64706
▁۱۰	-7.64706
▁۵	-7.65113
▁آمده	-7.65522
▁مهم	-7.65522
▁پول	-7.65522
▁ترامپ	-7.65933
▁خبرگزاری	-7.65933
▁رشد	-7.65933
▁کمتر	-7.65933
▁واکنش	-7.66345
▁انتشار	-7.66759
▁انرژی	-7.66759
▁دنیا	-7.66759
▁ترکیه	-7.67175
▁دارند	-7.67175
▁شکست	-7.67175
▁عرضه	-7.67592
▁فرانسه	-7.67592
▁نقش	-7.68856
▁استقلال	-7.6928
▁هدف	-7.6928
▁دریافت	-7.70135
▁حمایت	-7.70565
▁چنین	-7.70565
▁خارجی	-7.70997
▁دارد.	-7.70997
▁کسب	-7.70997
▁اکنون	-7.71867
▁تبدیل	-7.71867
▁حسن	-7.72304
▁اجرای	-7.73185
▁بازیکن	-7.73629
▁تایید	-7.73629
▁زمانی	-7.73629
▁عربستان	-7.73629
▁خیلی	-7.74074
▁میزان	-7.74074
▁آخرین	-7.74522
▁ده	-7.74522
▁طریق	-7.74522
▁مجموعه	-7.74522
▁هشدار	-7.74522
▁کننده	-7.74522
▁بازداشت	-7.74971
▁دور	-7.74971
▁مذاکرات	-7.74971
▁ایجاد	-7.75422
▁وقتی	-7.75422
▁آلمان	-7.75876
▁اجازه	-7.75876
▁دیده	-7.75876
▁دیگری	-7.75876
▁قهرمانان	-7.75876
▁کتاب	-7.75876
▁شب	-7.76332
▁شوند	-7.76332
▁صادرات	-7.76332
▁کشته	-7.76332
▁است؛	-7.76789
▁بهداشت	-7.76789
▁خواهند	-7.76789
▁۱۹	-7.76789
▁۲	-7.76789
▁بالا	-7.77249
▁آزاد	-7.77711
▁زبان	-7.77711
▁عراق	-7.77711
▁همان	-7.77711
▁اتحادیه	-7.78175
▁برگزاری	-7.78175
▁جریان	-7.78641
▁لیورپول	-7.78641
▁نهایی	-7.78641
▁۲۰	-7.78641
▁اقدام	-7.80053
▁هفت	-7.80053
▁خرید	-7.80528
▁ورزش	-7.80528
▁۲۰۲۰	-7.80528
▁متهم	-7.81005
▁زمینه	-7.81485
▁خارج	-7.81967
▁مبارزه	-7.81967
▁جنوبی	-7.82451
▁لغو	-7.82451
▁قابل	-7.83427
▁قانون	-7.83427
▁دیدار	-7.83918
▁نیاز	-7.83918
▁روند	-7.84412
▁زده	-7.84412
▁مربوط	-7.84412
▁مرگ	-7.84412
▁روسیه	-7.84908
▁فاصله	-7.84908
▁خامنه	-7.85407
▁دوباره	-7.85407
▁امنیت	-7.85908
▁خط	-7.85908
▁ابتلا	-7.86412
▁ارزش	-7.86412
▁امنیتی	-7.86412
▁زندان	-7.86412
▁ساخته	-7.86412
▁نماینده	-7.86412
▁اتمی	-7.86918
▁اعضای	-7.86918
▁مدل	-7.86918
▁سرمربی	-7.87427
▁محل	-7.87427
▁خطر	-7.87939
▁خواسته	-7.87939
▁آب	-7.88453
▁نسبت	-7.88453
▁پلیس	-7.88453
▁چرا	-7.88453
▁کل	-7.88453
▁انتخاب	-7.8897
▁دادگاه	-7.8897
▁رفت	-7.8897
▁رهبر	-7.8897
▁سخنگوی	-7.8897
▁محدودیت	-7.8897
▁بشر	-7.89489
▁نقل	-7.89489
▁گرفت	-7.89489
▁بخشی	-7.90011
▁بیانیه	-7.90011
▁پرداخت	-7.90011
▁است.در	-7.90536
▁اسرائیل	-7.90536
▁بازیکنان	-7.90536
▁تعداد	-7.90536
▁خاطر	-7.90536
▁عمومی	-7.90536
▁پیروزی	-7.91064
▁طول	-7.91595
▁بازگشت	-7.92128
▁۳	-7.92128
▁توان	-7.92664
▁نمایندگان	-7.92664
▁این	-7.93203
▁بینی	-7.93203
▁جلسه	-7.93745
▁نخستین	-7.93745
▁کامل	-7.93745
▁آزمایش	-7.9429
▁انگلیس	-7.9429
▁جاری	-7.9429
▁حکم	-7.9429
▁رد	-7.9429
▁روزهای	-7.9429
▁مشخص	-7.9429
▁مدیر	-7.94838
▁منابع	-7.94838
▁نفتی	-7.94838
▁مقابله	-7.95389
▁همزمان	-7.95389
▁کمیسیون	-7.95389
▁سالگی	-7.95943
▁شدت	-7.95943
▁پخش	-7.95943
▁پزشکی	-7.95943
▁۶	-7.95943
▁۳۰	-7.965
▁بالای	-7.9706
▁تحت	-7.9706
▁آثار	-7.97624
▁کابل	-7.97624
▁رسد	-7.9819
▁سابقه	-7.9819
▁ستاره	-7.9819
▁سپاه	-7.9819
▁المپیک	-7.9876
▁تنیس	-7.9876
▁مطرح	-7.9876
▁نیروهای	-7.9876
▁هم	-7.9876
▁چهره	-7.9876
▁صندوق	-7.9991
▁عالی	-7.9991
▁۲۵	-7.9991
▁قرنطینه	-8.00489
▁لندن	-8.00489
▁گسترده	-8.00489
▁متحده	-8.01072
▁نگرانی	-8.01072
▁بیمارستان	-8.01659
▁مصاحبه	-8.01659
▁برنده	-8.02249
▁داستان	-8.02249
▁شدند	-8.02249
▁معرفی	-8.02249
▁است.این	-8.02842
▁افت	-8.02842
▁انقلاب	-8.02842
▁جنگ	-8.02842
▁عضو	-8.02842
▁هزینه	-8.02842
▁آیا	-8.03439
▁تعیین	-8.03439
▁رفته	-8.03439
▁کسانی	-8.03439
▁کودکان	-8.03439
▁.	-8.0404
▁حکومت	-8.0404
▁کسی	-8.0404
▁تصویب	-8.04644
▁شکل	-8.04644
▁گرفتن	-8.04644
▁آسیا	-8.05252
▁بایدن	-8.05252
▁برق	-8.05252
▁داد.	-8.05252
▁سطح	-8.05252
▁معاون	-8.05252
▁نمایش	-8.05252
▁آزادی	-8.05864
▁متوقف	-8.05864
▁کنیم	-8.05864
▁انتقال	-8.06479
▁جدی	-8.06479
▁رای	-8.06479
▁نکرده	-8.06479
▁ترک	-8.07098
▁ساخت	-8.07098
▁صنعت	-8.07098
▁نخست	-8.07098
▁نیم	-8.07098
▁گذاشته	-8.07098
▁ارائه	-8.07721
▁جامعه	-8.07721
▁داخل	-8.07721
▁مرحله	-8.07721
▁وقت	-8.07721
▁وی	-8.07721
▁تاثیر	-8.08348
▁دونالد	-8.08348
▁سن	-8.08348
▁ورزشی	-8.08348
▁فشار	-8.08979
▁امور	-8.09614
▁خبری	-8.09614
▁درآمد	-8.09614
▁ستاد	-8.09614
▁نظامی	-8.09614
▁بسته	-8.10253
▁طرف	-8.10253
▁آنچه	-8.10896
▁امتیاز	-8.10896
▁روزنامه	-8.10896
▁شمار	-8.10896
▁قرارداد	-8.10896
▁جای	-8.11543
▁خانم	-8.11543
▁سوم	-8.11543
▁شناخته	-8.11543
▁قبلی	-8.11543
▁همچنان	-8.11543
▁اتفاق	-8.12195
▁یعنی	-8.12195
▁است.آقای	-8.12851
▁بشکه	-8.12851
▁حرکت	-8.12851
▁قدرت	-8.12851
▁رکورد	-8.13511
▁فارسی	-8.13511
▁فعال	-8.13511
▁محکوم	-8.13511
▁پیشین	-8.13511
▁الکتریکی	-8.14175
▁فینال	-8.14175
▁قوه	-8.14175
▁مانده	-8.14175
▁محلی	-8.14175
▁ملل	-8.14175
▁انتظار	-8.14844
▁ایتالیا	-8.14844
▁فروردین	-8.14844
▁تاریخی	-8.15518
▁سایر	-8.15518
▁فرهنگی	-8.15518
▁فضای	-8.15518
▁هستند.	-8.15518
▁دستگاه	-8.16195
▁ایالات	-8.16878
▁رسید	-8.16878
▁قرن	-8.16878
▁معاملات	-8.16878
▁پر	-8.16878
▁آبان	-8.17565
▁است.منبع	-8.17565
▁بحران	-8.17565
▁تورم	-8.17565
▁حساب	-8.17565
▁خودش	-8.17565
▁مرغ	-8.17565
▁نیست.	-8.17565
▁هوایی	-8.17565
▁اتهام	-8.18257
▁اسفند	-8.18257
▁انتقاد	-8.18257
▁دادن	-8.18257
▁دستور	-8.18257
▁شدمنبع	-8.18257
▁غنی	-8.18257
▁کووید	-8.18257
▁تشکیل	-8.18954
▁جنوب	-8.18954
▁دوشنبه	-8.18954
▁فکر	-8.18954
▁شامل	-8.19656
▁شدید	-8.19656
▁مرد	-8.19656
▁ناشی	-8.19656
▁گاز	-8.19656
▁بودن	-8.20363
▁۱۴۰۰	-8.20363
▁۲۰۱۹	-8.20363
▁۹	-8.20363
▁آیت	-8.21074
▁دی	-8.21074
▁شان	-8.21074
▁موج	-8.21074
▁ورزشگاه	-8.21074
▁۷	-8.21074
▁آوریل	-8.21791
▁جمعیت	-8.21791
▁مسئولان	-8.21791
▁هند	-8.21791
▁پشت	-8.21791
▁اجرا	-8.22513
▁احتمال	-8.22513
▁خروج	-8.22513
▁سخت	-8.22513
▁شماری	-8.22513
▁ظریف	-8.22513
▁فرهنگ	-8.22513
▁پاسخ	-8.22513
▁۱۵	-8.22513
▁ارتباط	-8.23241
▁انسان	-8.23241
▁تجاری	-8.23241
▁جمعه	-8.23241
▁رشته	-8.23241
▁شاخص	-8.23241
▁علت	-8.23241
▁مشکلات	-8.23241
▁چشم	-8.23241
▁آسیب	-8.23973
▁داخلی	-8.23973
▁دفاع	-8.23973
▁دهند	-8.23973
▁سیستم	-8.23973
▁ام	-8.24711
▁جلوگیری	-8.24711
▁صد	-8.24711
▁نیروی	-8.24711
▁تاکید	-8.25455
▁تجربه	-8.25455
▁شهرهای	-8.25455
▁طولانی	-8.25455
▁ورود	-8.25455
▁اروپایی	-8.26204
▁نشست	-8.26204
▁کارگران	-8.26204
▁احتمالا	-8.26959
▁خواستار	-8.26959
▁داشت.	-8.26959
▁لازم	-8.26959
▁مشکل	-8.26959
▁کاری	-8.26959
▁کردند.	-8.26959
▁امکان	-8.27719
▁اولیه	-8.27719
▁بارسلونا	-8.27719
▁باقی	-8.27719
▁توانست	-8.27719
▁حفظ	-8.27719
▁دسترسی	-8.27719
▁مرتبط	-8.27719
▁ندارد	-8.27719
▁نوشت	-8.27719
▁۵۰	-8.27719
▁شناسایی	-8.28485
▁شهروندان	-8.28485
▁غیر	-8.28485
▁مربی	-8.28485
▁نویسنده	-8.28485
▁پروژه	-8.28485
▁اسکار	-8.29258
▁تامین	-8.29258
▁تلویزیون	-8.29258
▁شما	-8.29258
▁نقاشی	-8.29258
▁۱۲	-8.29258
▁رفع	-8.30036
▁سقوط	-8.30036
▁ماسک	-8.30036
▁هایش	-8.30036
▁پایین	-8.30036
▁ابراز	-8.3082
▁اختیار	-8.3082
▁درخواست	-8.3082
▁مواد	-8.3082
▁چهارم	-8.3082
▁کارخانه	-8.3082
▁گروهی	-8.3082
▁حذف	-8.31611
▁شکایت	-8.31611
▁آتش	-8.32407
▁باشد.	-8.32407
▁جو	-8.32407
▁خوانده	-8.32407
▁صحبت	-8.32407
▁قوانین	-8.32407
▁مبتلا	-8.32407
▁مسیر	-8.32407
▁ممنوع	-8.32407
▁چپ	-8.32407
▁کنترل	-8.32407
▁یکشنبه	-8.32407
▁آستانه	-8.33211
▁برده	-8.33211
▁توسعه	-8.33211
▁درمان	-8.33211
▁قانونی	-8.33211
▁مسی	-8.33211
▁نظام	-8.33211
▁ترتیب	-8.3402
▁موارد	-8.3402
▁بندی	-8.34837
▁روابط	-8.34837
▁رییس	-8.34837
▁شاهد	-8.34837
▁عمل	-8.34837
▁مشترک	-8.34837
▁بیرون	-8.3566
▁رقم	-8.3566
▁سینما	-8.3566
▁شاید	-8.3566
▁شوند.	-8.3566
▁طراحی	-8.3566
▁فرد	-8.3566
▁محدود	-8.3566
▁نظیر	-8.3566
▁همیشه	-8.3566
▁هیات	-8.3566
▁کوچک	-8.3566
▁اختلاف	-8.3649
▁انفجار	-8.3649
▁بلند	-8.3649
▁روبرو	-8.3649
▁سمت	-8.3649
▁علاوه	-8.3649
▁محیط	-8.3649
▁توانند	-8.37326
▁دقیقه	-8.37326
▁قرمز	-8.37326
▁مسئول	-8.37326
▁موسسه	-8.37326
▁نهاد	-8.37326
▁هنری	-8.37326
▁هنگام	-8.37326
▁گونه	-8.37326
▁سیاه	-8.3817
▁هشت	-8.3817
▁آماده	-8.39021
▁اخیرا	-8.39021
▁است.او	-8.39021
▁صفر	-8.39021
▁نوع	-8.39021
▁ونزوئلا	-8.39021
▁چهارشنبه	-8.39021
▁بارها	-8.3988
▁جشنواره	-8.3988
▁رسیدن	-8.3988
▁سراسر	-8.3988
▁فعالان	-8.3988
▁فهرست	-8.3988
▁نتایج	-8.3988
▁۴۰	-8.3988
▁اداره	-8.40746
▁ایران،	-8.40746
▁تحقیق	-8.40746
▁حادثه	-8.40746
▁حل	-8.40746
▁دیروز	-8.40746
▁قصد	-8.40746
▁هواپیمایی	-8.40746
▁۸	-8.40746
▁بیشتری	-8.41619
▁تاکنون	-8.41619
▁ترکیب	-8.41619
▁شجریان	-8.41619
▁واحد	-8.41619
▁ولایت	-8.41619
▁اعمال	-8.425
▁تهیه	-8.425
▁نگهبان	-8.425
▁هرات	-8.425
▁یاد	-8.425
▁اتاق	-8.43389
▁تعطیلی	-8.43389
▁رفتن	-8.43389
▁شمال	-8.43389
▁صفحه	-8.43389
▁مصرف	-8.43389
▁اف	-8.44286
▁بودند.	-8.44286
▁دارایی	-8.44286
▁محمود	-8.44286
▁معروف	-8.44286
▁نقطه	-8.44286
▁اندازه	-8.45191
▁تجارت	-8.45191
▁ماهه	-8.45191
▁نخواهد	-8.45191
▁وین	-8.45191
▁۶۰	-8.45191
▁رعایت	-8.46104
▁رود	-8.46104
▁صادر	-8.46104
▁طلا	-8.46104
▁هواداران	-8.46104
▁اوپک	-8.47026
▁بیست	-8.47026
▁حرفه	-8.47026
▁سریال	-8.47026
▁سوخت	-8.47026
▁مجازی	-8.47026
▁پارسال	-8.47026
▁کمیته	-8.47026
▁جمع	-8.47956
▁مارس	-8.47956
▁چگونه	-8.47956
▁۱۱	-8.47956
▁زنده	-8.48895
▁فضایی	-8.48895
▁محموله	-8.48895
▁چیزی	-8.48895
▁کاخ	-8.48895
▁یافت	-8.48895
▁۱	-8.48895
▁۲۰۲۱	-8.48895
▁۹۸	-8.48895
▁برد	-8.49843
▁تابستان	-8.49843
▁تن	-8.49843
▁توصیف	-8.49843
▁حوزه	-8.49843
▁خصوصی	-8.49843
▁دلایل	-8.49843
▁نهادهای	-8.49843
▁ژانویه	-8.49843
▁۲۲	-8.49843
▁ایران؛	-8.508
▁بنزین	-8.508
▁جدیدی	-8.508
▁فوق	-8.508
▁منجر	-8.508
▁نژاد	-8.508
▁کشف	-8.508
▁کشورها	-8.508
▁تقریبا	-8.51766
▁حق	-8.51766
▁رکود	-8.51766
▁سایت	-8.51766
▁سیتی	-8.51766
▁عمده	-8.51766
▁غرب	-8.51766
▁فساد	-8.51766
▁مالیات	-8.51766
▁موفق	-8.51766
▁اطلاع	-8.52741
▁رابطه	-8.52741
▁عامل	-8.52741
▁مارادونا	-8.52741
▁نگاهی	-8.52741
▁واردات	-8.52741
▁کالا	-8.52741
▁کاملا	-8.52741
▁کردمنبع	-8.52741
▁کمی	-8.52741
▁کیلومتر	-8.52741
▁امضا	-8.53727
▁بریتانیایی	-8.53727
▁تلویزیونی	-8.53727
▁خواهان	-8.53727
▁رسید.	-8.53727
▁سلامت	-8.53727
▁مصوبه	-8.53727
▁بایرن	-8.54722
▁بزرگترین	-8.54722
▁جهش	-8.54722
▁حزب	-8.54722
▁سرعت	-8.54722
▁مذاکره	-8.54722
▁مناطق	-8.54722
▁آمد	-8.55727
▁خون	-8.55727
▁درگذشت	-8.55727
▁رمان	-8.55727
▁زاده	-8.55727
▁مهدی	-8.55727
▁کنندگان	-8.55727
▁کنون	-8.55727
▁یونایتد	-8.55727
▁۵۰۰	-8.55727
▁اعتراضات	-8.56742
▁اواخر	-8.56742
▁ایمنی	-8.56742
▁بالاترین	-8.56742
▁تی	-8.56742
▁جا	-8.56742
▁جدول	-8.56742
▁ممنوعیت	-8.56742
▁نگاه	-8.56742
▁هنر	-8.56742
▁۱۴	-8.56742
▁ابتدای	-8.57768
▁تعطیل	-8.57768
▁حبس	-8.57768
▁دنیای	-8.57768
▁رنگ	-8.57768
▁سکه	-8.57768
▁عدالت	-8.57768
▁مرز	-8.57768
▁یورو	-8.57768
▁اجرایی	-8.58804
▁خوزستان	-8.58804
▁زندانی	-8.58804
▁سفید	-8.58804
▁عبور	-8.58804
▁فدرر	-8.58804
▁قطر	-8.58804
▁پایتخت	-8.58804
▁بازیگر	-8.59851
▁توپ	-8.59851
▁خواننده	-8.59851
▁سوریه	-8.59851
▁مقایسه	-8.59851
▁نسل	-8.59851
▁کشیده	-8.59851
▁گفتگو	-8.59851
▁احمدی	-8.60909
▁اعدام	-8.60909
▁سعید	-8.60909
▁صدای	-8.60909
▁علمی	-8.60909
▁متفاوت	-8.60909
▁مجموع	-8.60909
▁مقررات	-8.60909
▁پرواز	-8.60909
▁پروازهای	-8.60909
▁ژوئن	-8.60909
▁کدام	-8.60909
▁کنم	-8.60909
▁ارزی	-8.61979
▁افتاده	-8.61979
▁سریع	-8.61979
▁منتقل	-8.61979
▁نگران	-8.61979
▁واقعی	-8.61979
▁چاپ	-8.61979
▁۱۶	-8.61979
▁تاج	-8.6306
▁خالی	-8.6306
▁روزانه	-8.6306
▁عدم	-8.6306
▁مشغول	-8.6306
▁موافقت	-8.6306
▁پیشتر	-8.6306
▁چه	-8.6306
▁کنید	-8.6306
▁گزارشی	-8.6306
▁۹۰	-8.6306
▁آنان	-8.64153
▁احمد	-8.64153
▁اضافه	-8.64153
▁بهداشتی	-8.64153
▁بیشترین	-8.64153
▁راننده	-8.64153
▁سعودی	-8.64153
▁مجله	-8.64153
▁واقع	-8.64153
▁ارتش	-8.65258
▁ارشد	-8.65258
▁اقدامات	-8.65258
▁انگلیسی	-8.65258
▁توییتر	-8.65258
▁جشن	-8.65258
▁جنسی	-8.65258
▁راهی	-8.65258
▁سخنرانی	-8.65258
▁عملیات	-8.65258
▁فرمول	-8.65258
▁قضایی	-8.65258
▁موفقیت	-8.65258
▁۲۴	-8.65258
▁احیای	-8.66375
▁افرادی	-8.66375
▁افغان	-8.66375
▁بهتر	-8.66375
▁بهمن	-8.66375
▁تجمع	-8.66375
▁تهدید	-8.66375
▁حد	-8.66375
▁حسین	-8.66375
▁رونمایی	-8.66375
▁زنی	-8.66375
▁زیست	-8.66375
▁ضربه	-8.66375
▁طبق	-8.66375
▁مجوز	-8.66375
▁مدیریت	-8.66375
▁نفتکش	-8.66375
▁اوت	-8.67505
▁بیت	-8.67505
▁تشخیص	-8.67505
▁جوان	-8.67505
▁حداقل	-8.67505
▁خصوص	-8.67505
▁خوب	-8.67505
▁دومین	-8.67505
▁دوچرخه	-8.67505
▁رتبه	-8.67505
▁فرصت	-8.67505
▁قطعی	-8.67505
▁مجبور	-8.67505
▁مرداد	-8.67505
▁ملت	-8.67505
▁منفی	-8.67505
▁نظارت	-8.67505
▁پیشنهاد	-8.67505
▁کلی	-8.67505
▁۱۰۰	-8.67505
▁۱۳	-8.67505
▁آلمانی	-8.68648
▁است.به	-8.68648
▁است،	-8.68648
▁بهبود	-8.68648
▁تحقیقات	-8.68648
▁توضیح	-8.68648
▁داشتند	-8.68648
▁دچار	-8.68648
▁سالانه	-8.68648
▁سرطان	-8.68648
▁سنگ	-8.68648
▁عملکرد	-8.68648
▁ماهی	-8.68648
▁مواجه	-8.68648
▁نقاط	-8.68648
▁چندین	-8.68648
▁انگلستان	-8.69804
▁اوایل	-8.69804
▁بیکاری	-8.69804
▁تاجیکستان	-8.69804
▁سفیر	-8.69804
▁سنگین	-8.69804
▁فنی	-8.69804
▁قدیمی	-8.69804
▁مانع	-8.69804
▁مه	-8.69804
▁پاریس	-8.69804
▁اظهارات	-8.70974
▁ایالت	-8.70974
▁بحث	-8.70974
▁تاتنهام	-8.70974
▁تعدادی	-8.70974
▁تومانی	-8.70974
▁تیمی	-8.70974
▁حرف	-8.70974
▁دروازه	-8.70974
▁دفتر	-8.70974
▁رخ	-8.70974
▁روش	-8.70974
▁ساختمان	-8.70974
▁سرشناس	-8.70974
▁سینمایی	-8.70974
▁علاقه	-8.70974
▁فوت	-8.70974
▁لایحه	-8.70974
▁متر	-8.70974
▁محمدرضا	-8.70974
▁مشهور	-8.70974
▁نمونه	-8.70974
▁پاسداران	-8.70974
▁کنونی	-8.70974
▁آورده	-8.72157
▁اسپانیا	-8.72157
▁بعدی	-8.72157
▁جریمه	-8.72157
▁خواست	-8.72157
▁درآمدهای	-8.72157
▁دکتر	-8.72157
▁زدن	-8.72157
▁صدور	-8.72157
▁فراهم	-8.72157
▁مسکن	-8.72157
▁نامزد	-8.72157
▁نبود	-8.72157
▁نوری	-8.72157
▁چلسی	-8.72157
▁گرفت.	-8.72157
▁۱۷	-8.72157
▁آوری	-8.73355
▁بدن	-8.73355
▁برخورد	-8.73355
▁درست	-8.73355
▁دوربین	-8.73355
▁صدا	-8.73355
▁قتل	-8.73355
▁مجدد	-8.73355
▁موجب	-8.73355
▁نامزدی	-8.73355
▁گو	-8.73355
▁۲۰۱۸	-8.73355
▁ابتدا	-8.74567
▁بازارهای	-8.74567
▁خبرنگار	-8.74567
▁درصدی	-8.74567
▁سود	-8.74567
▁کشوری	-8.74567
▁اوراق	-8.75794
▁باره	-8.75794
▁براساس	-8.75794
▁تازگی	-8.75794
▁تزریق	-8.75794
▁تغییرات	-8.75794
▁تورنمنت	-8.75794
▁زیاد	-8.75794
▁شخصی	-8.75794
▁طبیعی	-8.75794
▁عهده	-8.75794
▁مشابه	-8.75794
▁نهایت	-8.75794
▁چیز	-8.75794
▁کارشناسان	-8.75794
▁کانال	-8.75794
▁کوتاه	-8.75794
▁کوین	-8.75794
▁۱۸	-8.75794
▁امام	-8.77036
▁منچستر	-8.77036
▁هدایت	-8.77036
▁وضع	-8.77036
▁پای	-8.77036
▁پژوهش	-8.77036
▁گذشت	-8.77036
▁جمعی	-8.78294
▁دانشمندان	-8.78294
▁درگذشت.	-8.78294
▁شرق	-8.78294
▁فرانسوی	-8.78294
▁فعلی	-8.78294
▁فوریه	-8.78294
▁مالکیت	-8.78294
▁هنرمند	-8.78294
▁واشنگتن	-8.78294
▁کرونا؛	-8.78294
▁آخر	-8.79568
▁اساسی	-8.79568
▁استرالیا	-8.79568
▁بهار	-8.79568
▁بود؛	-8.79568
▁حریف	-8.79568
▁دارند.	-8.79568
▁دریای	-8.79568
▁سینمای	-8.79568
▁صبح	-8.79568
▁مبتلایان	-8.79568
▁مردان	-8.79568
▁معامله	-8.79568
▁مقامات	-8.79568
▁ژاپن	-8.79568
▁۲۰۰	-8.79568
▁ارسال	-8.80858
▁بیمار	-8.80858
▁جایی	-8.80858
▁خانگی	-8.80858
▁روشن	-8.80858
▁شدند.	-8.80858
▁عده	-8.80858
▁قطع	-8.80858
▁مدتی	-8.80858
▁نداشته	-8.80858
▁نشانه	-8.80858
▁نشریه	-8.80858
▁هرچند	-8.80858
▁کرونای	-8.80858
▁۲۸	-8.80858
▁-	-8.82165
▁تمامی	-8.82165
▁خرداد	-8.82165
▁خودروهای	-8.82165
▁درگیری	-8.82165
▁صحنه	-8.82165
▁موجود	-8.82165
▁وعده	-8.82165
▁ی	-8.82165
▁آلبوم	-8.8349
▁آموزش	-8.8349
▁بستری	-8.8349
▁خوبی	-8.8349
▁سوئیس	-8.8349
▁متعلق	-8.8349
▁مطالعه	-8.8349
▁معادل	-8.8349
▁مغز	-8.8349
▁هوا	-8.8349
▁وابسته	-8.8349
▁پیام	-8.8349
▁کودک	-8.8349
▁۱۳۹۹	-8.8349
▁۷۰	-8.8349
▁امید	-8.84832
▁بحرین	-8.84832
▁تقویت	-8.84832
▁جز	-8.84832
▁رضا	-8.84832
▁صعود	-8.84832
▁طالبان	-8.84832
▁مخالفت	-8.84832
▁مرزی	-8.84832
▁پدر	-8.84832
▁پنجم	-8.84832
▁اسرائیلی	-8.86193
▁اصلاح	-8.86193
▁افزوده	-8.86193
▁اقیانوس	-8.86193
▁بالاتر	-8.86193
▁بن	-8.86193
▁حالیست	-8.86193
▁حمل	-8.86193
▁دقیق	-8.86193
▁زخمی	-8.86193
▁شخصیت	-8.86193
▁عقب	-8.86193
▁مثبت	-8.86193
▁مستقیم	-8.86193
▁کشورش	-8.86193
▁کمبود	-8.86193
▁۹۹	-8.86193
▁آبی	-8.87572
▁آی	-8.87572
▁استمنبع	-8.87572
▁العاده	-8.87572
▁بدهی	-8.87572
▁خاک	-8.87572
▁دار	-8.87572
▁دختر	-8.87572
▁دختران	-8.87572
▁دهم	-8.87572
▁شدگان	-8.87572
▁قبلا	-8.87572
▁قضائیه	-8.87572
▁مادر	-8.87572
▁متوجه	-8.87572
▁مدیرعامل	-8.87572
▁ایران:	-8.88971
▁بیماران	-8.88971
▁صدر	-8.88971
▁فرمانده	-8.88971
▁فناوری	-8.88971
▁مادرید	-8.88971
▁نزدیکی	-8.88971
▁وزن	-8.88971
▁کاربران	-8.88971
▁گسترش	-8.88971
▁استقبال	-8.90389
▁اورانیوم	-8.90389
▁بازرگانی	-8.90389
▁بخوانید	-8.90389
▁بزرگی	-8.90389
▁توصیه	-8.90389
▁جوایز	-8.90389
▁خلق	-8.90389
▁علیرضا	-8.90389
▁غربی	-8.90389
▁قطعنامه	-8.90389
▁معمولا	-8.90389
▁نقدینگی	-8.90389
▁پوند	-8.90389
▁احتمالی	-8.91828
▁اینترنتی	-8.91828
▁تقاضای	-8.91828
▁خدمات	-8.91828
▁خورشیدی	-8.91828
▁دانش	-8.91828
▁دریایی	-8.91828
▁رونالدو	-8.91828
▁سفارت	-8.91828
▁عادی	-8.91828
▁معترضان	-8.91828
▁موزه	-8.91828
▁مک	-8.91828
▁میدان	-8.91828
▁هرگز	-8.91828
▁ژوئیه	-8.91828
▁آ	-8.93288
▁اردیبهشت	-8.93288
▁بنا	-8.93288
▁تخریب	-8.93288
▁تصاویر	-8.93288
▁دیوان	-8.93288
▁رویترز	-8.93288
▁زاغری	-8.93288
▁زندانیان	-8.93288
▁سنتی	-8.93288
▁شده،	-8.93288
▁صنایع	-8.93288
▁فیفا	-8.93288
▁قاچاق	-8.93288
▁مدیران	-8.93288
▁نقض	-8.93288
▁چالش	-8.93288
▁کافی	-8.93288
▁۲۳	-8.93288
▁آمازون	-8.94769
▁استاد	-8.94769
▁برزیل	-8.94769
▁برمی	-8.94769
▁تصور	-8.94769
▁تقاضا	-8.94769
▁دانسته	-8.94769
▁دسته	-8.94769
▁راست	-8.94769
▁سواری	-8.94769
▁صلح	-8.94769
▁عباس	-8.94769
▁لحظه	-8.94769
▁مخالفان	-8.94769
▁پور	-8.94769
▁۱۳۹۸	-8.94769
▁۳۰۰	-8.94769
▁آرژانتین	-8.96273
▁تا	-8.96273
▁تخمین	-8.96273
▁حاصل	-8.96273
▁حسینی	-8.96273
▁خورده	-8.96273
▁سختی	-8.96273
▁شاسی	-8.96273
▁شبیه	-8.96273
▁فرهاد	-8.96273
▁محصولات	-8.96273
▁مهر	-8.96273
▁نگه	-8.96273
▁نگهداری	-8.96273
▁واکسیناسیون	-8.96273
▁کارکنان	-8.96273
▁گیرد	-8.96273
▁اشتباه	-8.978
▁انتخاباتی	-8.978
▁باشند	-8.978
▁تحویل	-8.978
▁توقیف	-8.978
▁حاشیه	-8.978
▁روایت	-8.978
▁سری	-8.978
▁سند	-8.978
▁سیستان	-8.978
▁فارس	-8.978
▁ماموران	-8.978
▁متوسط	-8.978
▁مونیخ	-8.978
▁مکان	-8.978
▁پروتکل	-8.978
▁کالاهای	-8.978
▁۲۰۱۶	-8.978
▁ان	-8.9935
▁انجمن	-8.9935
▁اوپن	-8.9935
▁بهادار	-8.9935
▁تعویق	-8.9935
▁تیراندازی	-8.9935
▁خواهیم	-8.9935
▁دین	-8.9935
▁رئال	-8.9935
▁رفتار	-8.9935
▁ریزی	-8.9935
▁زاد	-8.9935
▁شماره	-8.9935
▁صوتی	-8.9935
▁لباس	-8.9935
▁مسافران	-8.9935
▁مسدود	-8.9935
▁نازنین	-8.9935
▁واقعیت	-8.9935
▁پیشرفت	-8.9935
▁گاهی	-8.9935
▁۲۱	-8.9935
▁بال	-9.00925
▁برجسته	-9.00925
▁تصویری	-9.00925
▁تمدید	-9.00925
▁سومین	-9.00925
▁سپس	-9.00925
▁شرایطی	-9.00925
▁شعر	-9.00925
▁مجری	-9.00925
▁میانه	-9.00925
▁نشر	-9.00925
▁هزاران	-9.00925
▁پنجشنبه	-9.00925
▁آنلاین	-9.02525
▁بانکی	-9.02525
▁تنظیم	-9.02525
▁توقف	-9.02525
▁حذفی	-9.02525
▁حفاظت	-9.02525
▁درگیر	-9.02525
▁رافائل	-9.02525
▁روزها	-9.02525
▁ظاهر	-9.02525
▁عجیب	-9.02525
▁معنای	-9.02525
▁مواردی	-9.02525
▁موقعیت	-9.02525
▁میزبان	-9.02525
▁میلان	-9.02525
▁نجات	-9.02525
▁نویسندگان	-9.02525
▁همچون	-9.02525
▁ورزشکاران	-9.02525
▁وکیل	-9.02525
▁پرداخته	-9.02525
▁چینی	-9.02525
▁۳۵	-9.02525
▁آهنگ	-9.04151
▁ادبیات	-9.04151
▁ارقام	-9.04151
▁بلوچستان	-9.04151
▁ترانه	-9.04151
▁تماس	-9.04151
▁شمالی	-9.04151
▁غیرقانونی	-9.04151
▁مبلغ	-9.04151
▁مربیان	-9.04151
▁مهاجم	-9.04151
▁نو	-9.04151
▁کارگردانی	-9.04151
▁گمرک	-9.04151
▁آهن	-9.05804
▁اخراج	-9.05804
▁الدین	-9.05804
▁اهمیت	-9.05804
▁اوج	-9.05804
▁تک	-9.05804
▁جذب	-9.05804
▁جزئیات	-9.05804
▁زودی	-9.05804
▁سهم	-9.05804
▁صرافی	-9.05804
▁مالک	-9.05804
▁میزبانی	-9.05804
▁پلاس	-9.05804
▁کارها	-9.05804
▁۸۰	-9.05804
▁احساس	-9.07485
▁ادبی	-9.07485
▁اسطوره	-9.07485
▁اکتبر	-9.07485
▁باری	-9.07485
▁داشتن	-9.07485
▁رده	-9.07485
▁شبانه	-9.07485
▁عین	-9.07485
▁فردا	-9.07485
▁قسمت	-9.07485
▁مسئله	-9.07485
▁مشارکت	-9.07485
▁ندارد.	-9.07485
▁نوبل	-9.07485
▁پالایشگاه	-9.07485
▁۲۰۱۷	-9.07485
▁۲۶	-9.07485
▁آسمان	-9.09194
▁اس	-9.09194
▁افتاد	-9.09194
▁امارات	-9.09194
▁انگیز	-9.09194
▁ایسنا	-9.09194
▁بنز	-9.09194
▁دادند	-9.09194
▁رسیدگی	-9.09194
▁سعی	-9.09194
▁سپاهان	-9.09194
▁مدرسه	-9.09194
▁مطابق	-9.09194
▁معرض	-9.09194
▁پاکستان	-9.09194
▁پایانی	-9.09194
▁پژوهشگران	-9.09194
▁کارگر	-9.09194
▁کنسرت	-9.09194
▁کنیم.	-9.09194
▁یکدیگر	-9.09194
▁اجاره	-9.10934
▁باخت	-9.10934
▁بقیه	-9.10934
▁ترس	-9.10934
▁تنش	-9.10934
▁توکیو	-9.10934
▁جلوی	-9.10934
▁جنگل	-9.10934
▁حجم	-9.10934
▁حقوقی	-9.10934
▁خوش	-9.10934
▁خیریه	-9.10934
▁سراوان	-9.10934
▁سوال	-9.10934
▁شاه	-9.10934
▁عباسی	-9.10934
▁عصر	-9.10934
▁عوامل	-9.10934
▁فایل	-9.10934
▁فردی	-9.10934
▁قوی	-9.10934
▁لوکس	-9.10934
▁محروم	-9.10934
▁مدافع	-9.10934
▁مراقبت	-9.10934
▁موشک	-9.10934
▁هنرپیشه	-9.10934
▁پست	-9.10934
▁گران	-9.10934
▁گلستان	-9.10934
▁است.بر	-9.12704
▁اصل	-9.12704
▁امیدوار	-9.12704
▁اندازی	-9.12704
▁بچه	-9.12704
▁تعهدات	-9.12704
▁دعوت	-9.12704
▁سپتامبر	-9.12704
▁غذا	-9.12704
▁ماده	-9.12704
▁مراکز	-9.12704
▁مشاهده	-9.12704
▁مهمترین	-9.12704
▁نوامبر	-9.12704
▁هاست	-9.12704
▁ویمبلدون	-9.12704
▁چطور	-9.12704
▁کردم	-9.12704
▁کلوپ	-9.12704
▁اتفاقات	-9.14505
▁بازنشستگان	-9.14505
▁توانسته	-9.14505
▁تیر	-9.14505
▁ثابت	-9.14505
▁جهت	-9.14505
▁درجه	-9.14505
▁رهبری	-9.14505
▁سبک	-9.14505
▁سنت	-9.14505
▁شد؛	-9.14505
▁علوم	-9.14505
▁قالیباف	-9.14505
▁نارنجی	-9.14505
▁نیویورک	-9.14505
▁چندان	-9.14505
▁کارهای	-9.14505
▁کارگردان	-9.14505
▁آید	-9.1634
▁ارزیابی	-9.1634
▁اطلاعاتی	-9.1634
▁اغلب	-9.1634
▁باشند.	-9.1634
▁تاسیسات	-9.1634
▁تساوی	-9.1634
▁توزیع	-9.1634
▁جیمز	-9.1634
▁خسارت	-9.1634
▁خودرو؛	-9.1634
▁دوست	-9.1634
▁زد	-9.1634
▁ساز	-9.1634
▁سالهای	-9.1634
▁سهمیه	-9.1634
▁شهری	-9.1634
▁فرار	-9.1634
▁فرستاده	-9.1634
▁قضاییه	-9.1634
▁ماجرا	-9.1634
▁مجاز	-9.1634
▁مخالف	-9.1634
▁مد	-9.1634
▁مشمول	-9.1634
▁معتبر	-9.1634
▁موسوم	-9.1634
▁نادال	-9.1634
▁هنرمندان	-9.1634
▁هواپیما	-9.1634
▁پرتاب	-9.1634
▁پزشک	-9.1634
▁چهل	-9.1634
▁چک	-9.1634
▁۱۳۹۷	-9.1634
▁۳۱	-9.1634
▁آکادمی	-9.1821
▁بازسازی	-9.1821
▁بازگشایی	-9.1821
▁بندر	-9.1821
▁بگیرد	-9.1821
▁تست	-9.1821
▁جواد	-9.1821
▁دیجیتال	-9.1821
▁سامانه	-9.1821
▁ضمن	-9.1821
▁عکاسی	-9.1821
▁فن	-9.1821
▁محبوب	-9.1821
▁محسوب	-9.1821
▁منتظر	-9.1821
▁موتور	-9.1821
▁ورزشکار	-9.1821
▁وگو	-9.1821
▁گرم	-9.1821
▁ایستگاه	-9.20114
▁بوکس	-9.20114
▁تری	-9.20114
▁تمرین	-9.20114
▁خام	-9.20114
▁سرخ	-9.20114
▁صف	-9.20114
▁طبیعت	-9.20114
▁قاره	-9.20114
▁قبول	-9.20114
▁قربانیان	-9.20114
▁قلب	-9.20114
▁ماههای	-9.20114
▁مسائل	-9.20114
▁مسلح	-9.20114
▁هواپیمای	-9.20114
▁پایه	-9.20114
▁گذاران	-9.20114
▁گفته:	-9.20114
▁۲۹	-9.20114
▁ارزهای	-9.22056
▁اهل	-9.22056
▁برداشته	-9.22056
▁بهای	-9.22056
▁تاخیر	-9.22056
▁توانایی	-9.22056
▁ثانیه	-9.22056
▁حیات	-9.22056
▁خبرنگاران	-9.22056
▁خیابان	-9.22056
▁دارای	-9.22056
▁داربی	-9.22056
▁شلیک	-9.22056
▁صاحب	-9.22056
▁عید	-9.22056
▁لیونل	-9.22056
▁متولد	-9.22056
▁مستند	-9.22056
▁منتقدان	-9.22056
▁مهار	-9.22056
▁همسرش	-9.22056
▁پا	-9.22056
▁پیروز	-9.22056
▁کرد؛	-9.22056
▁کلاس	-9.22056
▁گام	-9.22056
▁گرانی	-9.22056
▁یوونتوس	-9.22056
▁آلودگی	-9.24036
▁آورد	-9.24036
▁اخبار	-9.24036
▁افسانه	-9.24036
▁بعدا	-9.24036
▁تلفن	-9.24036
▁جدا	-9.24036
▁جنجالی	-9.24036
▁خلیج	-9.24036
▁دستگیر	-9.24036
▁دهند.	-9.24036
▁رقیب	-9.24036
▁شهروند	-9.24036
▁شیوه	-9.24036
▁ضد	-9.24036
▁ظرف	-9.24036
▁قاسم	-9.24036
▁متحد	-9.24036
▁مدعی	-9.24036
▁ملایی	-9.24036
▁نباید	-9.24036
▁همتی	-9.24036
▁همسر	-9.24036
▁همواره	-9.24036
▁پارک	-9.24036
▁۴۰۰	-9.24036
▁اصفهان	-9.26057
▁انسانی	-9.26057
▁اینستاگرام	-9.26057
▁بروز	-9.26057
▁تئاتر	-9.26057
▁ترجمه	-9.26057
▁تکرار	-9.26057
▁جایگاه	-9.26057
▁خشونت	-9.26057
▁خودروساز	-9.26057
▁دارو	-9.26057
▁درک	-9.26057
▁رادیو	-9.26057
▁ست	-9.26057
▁شناسی	-9.26057
▁فراموش	-9.26057
▁فرزند	-9.26057
▁نبوده	-9.26057
▁وام	-9.26057
▁پایگاه	-9.26057
▁کشورهایی	-9.26057
▁گفتند	-9.26057
▁گیر	-9.26057
▁الهام	-9.28119
▁انداخته	-9.28119
▁بتواند	-9.28119
▁برآورد	-9.28119
▁بهره	-9.28119
▁تسلا	-9.28119
▁حوادث	-9.28119
▁داریم	-9.28119
▁دانست	-9.28119
▁راجر	-9.28119
▁رویکرد	-9.28119
▁شد،	-9.28119
▁شصت	-9.28119
▁عرصه	-9.28119
▁فروخته	-9.28119
▁فورد	-9.28119
▁قالب	-9.28119
▁متوالی	-9.28119
▁محمدی	-9.28119
▁مصنوعی	-9.28119
▁مناسب	-9.28119
▁نامش	-9.28119
▁ندارند	-9.28119
▁ها،	-9.28119
▁پدرش	-9.28119
▁چقدر	-9.28119
▁آزار	-9.30224
▁آمادگی	-9.30224
▁اداری	-9.30224
▁الملل	-9.30224
▁اوضاع	-9.30224
▁ایرنا	-9.30224
▁بازرسی	-9.30224
▁بان	-9.30224
▁تحصیل	-9.30224
▁تخت	-9.30224
▁توجهی	-9.30224
▁حس	-9.30224
▁حملات	-9.30224
▁خاص	-9.30224
▁خطرناک	-9.30224
▁خودشان	-9.30224
▁خورشید	-9.30224
▁دبیر	-9.30224
▁دلاری	-9.30224
▁رسما	-9.30224
▁روانی	-9.30224
▁ریال	-9.30224
▁سوزی	-9.30224
▁سوپر	-9.30224
▁شاعر	-9.30224
▁طرفداران	-9.30224
▁قطعه	-9.30224
▁قول	-9.30224
▁مبنی	-9.30224
▁مریخ	-9.30224
▁مشهد	-9.30224
▁میراث	-9.30224
▁پزشکان	-9.30224
▁پسر	-9.30224
▁پنجاه	-9.30224
▁کارشناس	-9.30224
▁کیلومتری	-9.30224
▁۲۰۱۵	-9.30224
▁اتفاقی	-9.32375
▁اطلاعیه	-9.32375
▁افزود	-9.32375
▁امیر	-9.32375
▁باور	-9.32375
▁بنیاد	-9.32375
▁جاده	-9.32375
▁حالت	-9.32375
▁حامل	-9.32375
▁حاکی	-9.32375
▁حکام	-9.32375
▁خودداری	-9.32375
▁خودروسازان	-9.32375
▁درمانی	-9.32375
▁دهنده	-9.32375
▁رحمان	-9.32375
▁رو	-9.32375
▁سلیمانی	-9.32375
▁شرقی	-9.32375
▁شرکتهای	-9.32375
▁شغل	-9.32375
▁شهرسازی	-9.32375
▁شهریور	-9.32375
▁عمیق	-9.32375
▁فرودگاه	-9.32375
▁فیلمی	-9.32375
▁مهمی	-9.32375
▁موقت	-9.32375
▁ژافره	-9.32375
▁کلیه	-9.32375
▁کی	-9.32375
▁یافت.	-9.32375
▁آرسنال	-9.34573
▁آفریقا	-9.34573
▁است.با	-9.34573
▁اعتصاب	-9.34573
▁برسد	-9.34573
▁برگشت	-9.34573
▁بند	-9.34573
▁بیان	-9.34573
▁تولیدکنندگان	-9.34573
▁جذاب	-9.34573
▁جراحی	-9.34573
▁جسد	-9.34573
▁جوانان	-9.34573
▁جودو	-9.34573
▁حداکثر	-9.34573
▁دریاچه	-9.34573
▁دید	-9.34573
▁سالی	-9.34573
▁سرپرست	-9.34573
▁ضبط	-9.34573
▁طلای	-9.34573
▁قلبی	-9.34573
▁لس	-9.34573
▁معدن	-9.34573
▁نحوه	-9.34573
▁نور	-9.34573
▁هستیم	-9.34573
▁هویت	-9.34573
▁پیاپی	-9.34573
▁کارگری	-9.34573
▁کانادا	-9.34573
▁کردیم	-9.34573
▁اجلاس	-9.3682
▁ازدواج	-9.3682
▁است:	-9.3682
▁اطراف	-9.3682
▁اطمینان	-9.3682
▁اموال	-9.3682
▁ایتالیایی	-9.3682
▁تاسیس	-9.3682
▁تماشاگران	-9.3682
▁خاصی	-9.3682
▁خودروسازی	-9.3682
▁دستمزد	-9.3682
▁دل	-9.3682
▁رانندگان	-9.3682
▁روزی	-9.3682
▁صدها	-9.3682
▁ضروری	-9.3682
▁عضویت	-9.3682
▁فوری	-9.3682
▁فولاد	-9.3682
▁فیسبوک	-9.3682
▁متن	-9.3682
▁ناسا	-9.3682
▁نداده	-9.3682
▁نرم	-9.3682
▁نقاش	-9.3682
▁نهم	-9.3682
▁نویس	-9.3682
▁نیمی	-9.3682
▁هوای	-9.3682
▁پدیده	-9.3682
▁پیگیری	-9.3682
▁کادر	-9.3682
▁کند.این	-9.3682
▁کندمنبع	-9.3682
▁گردد	-9.3682
▁گزینه	-9.3682
▁آشنا	-9.39119
▁آمیز	-9.39119
▁آکسفورد	-9.39119
▁اسپانیایی	-9.39119
▁اظهار	-9.39119
▁انتظامی	-9.39119
▁انداز	-9.39119
▁بتوانند	-9.39119
▁بلینکن	-9.39119
▁تعلیق	-9.39119
▁جبران	-9.39119
▁جوکوویچ	-9.39119
▁خواند	-9.39119
▁دسامبر	-9.39119
▁دوز	-9.39119
▁رمز	-9.39119
▁رویداد	-9.39119
▁ریشه	-9.39119
▁ساده	-9.39119
▁سایه	-9.39119
▁سخنان	-9.39119
▁سرایت	-9.39119
▁صلاحیت	-9.39119
▁صورتی	-9.39119
▁عدد	-9.39119
▁علنی	-9.39119
▁ماراتن	-9.39119
▁مارک	-9.39119
▁ماموریت	-9.39119
▁محصول	-9.39119
▁مختلفی	-9.39119
▁مردی	-9.39119
▁مقصد	-9.39119
▁موضع	-9.39119
▁نطنز	-9.39119
▁هایشان	-9.39119
▁پاری	-9.39119
▁پوست	-9.39119
▁پکن	-9.39119
▁کوه	-9.39119
▁یافتن	-9.39119
▁۱۵۰	-9.39119
▁۲۷	-9.39119
▁۷۰۰	-9.39119
▁آنجلس	-9.41472
▁آور	-9.41472
▁ابراهیم	-9.41472
▁اتریش	-9.41472
▁استعفا	-9.41472
▁اقدامی	-9.41472
▁امضای	-9.41472
▁انواع	-9.41472
▁جی	-9.41472
▁خاتمی	-9.41472
▁خودکشی	-9.41472
▁دریا	-9.41472
▁دیپلماسی	-9.41472
▁زودتر	-9.41472
▁سالن	-9.41472
▁سالگرد	-9.41472
▁سخن	-9.41472
▁شهرداری	-9.41472
▁شهرستان	-9.41472
▁عربی	-9.41472
▁عکاس	-9.41472
▁مدال	-9.41472
▁معتقدند	-9.41472
▁معلوم	-9.41472
▁نشود	-9.41472
▁نفس	-9.41472
▁نمایندگی	-9.41472
▁نوعی	-9.41472
▁نیمکت	-9.41472
▁هوشمندی	-9.41472
▁پاس	-9.41472
▁پیچیده	-9.41472
▁گذار	-9.41472
▁گوش	-9.41472
▁۲۰۱۴	-9.41472
▁۳۲	-9.41472
▁.آقای	-9.43882
▁ابلاغ	-9.43882
▁احضار	-9.43882
▁اختصاص	-9.43882
▁اضطراری	-9.43882
▁بد	-9.43882
▁برداری	-9.43882
▁تبعیض	-9.43882
▁تکذیب	-9.43882
▁جلب	-9.43882
▁خان	-9.43882
▁خراسان	-9.43882
▁دشوار	-9.43882
▁رفت.	-9.43882
▁ساحل	-9.43882
▁سیما	-9.43882
▁ضرب	-9.43882
▁طوری	-9.43882
▁فضا	-9.43882
▁لحاظ	-9.43882
▁مادرش	-9.43882
▁مایکل	-9.43882
▁محققان	-9.43882
▁مدنی	-9.43882
▁مسعود	-9.43882
▁مشتریان	-9.43882
▁مطلب	-9.43882
▁مورینیو	-9.43882
▁نوروزی	-9.43882
▁هفتاد	-9.43882
▁واگن	-9.43882
▁چارچوب	-9.43882
▁ژرمن	-9.43882
▁کارمندان	-9.43882
▁کارنامه	-9.43882
▁کالاها	-9.43882
▁کرونا،	-9.43882
▁گری	-9.43882
▁اسب	-9.46351
▁افتخار	-9.46351
▁او	-9.46351
▁ایستاده	-9.46351
▁برقرار	-9.46351
▁تحقیقاتی	-9.46351
▁تحولات	-9.46351
▁تولد	-9.46351
▁جامع	-9.46351
▁حقیقت	-9.46351
▁خفاش	-9.46351
▁دفاعی	-9.46351
▁دیدن	-9.46351
▁ردیف	-9.46351
▁شاملو	-9.46351
▁شهرت	-9.46351
▁شود.در	-9.46351
▁فرود	-9.46351
▁فوتبالیست	-9.46351
▁فولکس	-9.46351
▁لبنان	-9.46351
▁ما	-9.46351
▁متعددی	-9.46351
▁مجازات	-9.46351
▁مجسمه	-9.46351
▁مجیدی	-9.46351
▁مرسدس	-9.46351
▁معمول	-9.46351
▁مناسبت	-9.46351
▁مهاجرت	-9.46351
▁نفوذ	-9.46351
▁واقعا	-9.46351
▁چگونگی	-9.46351
▁کالیفرنیا	-9.46351
▁گردشگری	-9.46351
▁گرفتند	-9.46351
▁آمدن	-9.48883
▁آنکه	-9.48883
▁ارتباطات	-9.48883
▁اسناد	-9.48883
▁امیدواری	-9.48883
▁ایده	-9.48883
▁اینها	-9.48883
▁تجهیزات	-9.48883
▁تراکتور	-9.48883
▁تعریف	-9.48883
▁جزیره	-9.48883
▁حکومتی	-9.48883
▁دانند	-9.48883
▁روزه	-9.48883
▁روغن	-9.48883
▁ساکن	-9.48883
▁صنعتی	-9.48883
▁غذایی	-9.48883
▁فرمان	-9.48883
▁فعلا	-9.48883
▁فیوری	-9.48883
▁مجمع	-9.48883
▁محرمانه	-9.48883
▁مشاور	-9.48883
▁موثر	-9.48883
▁میناوند	-9.48883
▁ندارند.	-9.48883
▁نسخه	-9.48883
▁نشد	-9.48883
▁نوروز	-9.48883
▁نکته	-9.48883
▁ژاپنی	-9.48883
▁کارت	-9.48883
▁گشایش	-9.48883
▁یابد	-9.48883
▁استانبول	-9.5148
▁اهواز	-9.5148
▁باغ	-9.5148
▁بنابر	-9.5148
▁بهشت	-9.5148
▁تشویق	-9.5148
▁تصمیمی	-9.5148
▁تفاوت	-9.5148
▁تماشاگر	-9.5148
▁تپه	-9.5148
▁جواب	-9.5148
▁حکایت	-9.5148
▁خبرساز	-9.5148
▁خطیب	-9.5148
▁خلاف	-9.5148
▁درون	-9.5148
▁دستورالعمل	-9.5148
▁ذهن	-9.5148
▁رونق	-9.5148
▁سازنده	-9.5148
▁سالم	-9.5148
▁سفرهای	-9.5148
▁شود؛	-9.5148
▁شورا	-9.5148
▁ظرفیت	-9.5148
▁عرب	-9.5148
▁عمدتا	-9.5148
▁فراز	-9.5148
▁لوازم	-9.5148
▁متفاوتی	-9.5148
▁محاسبه	-9.5148
▁مهرداد	-9.5148
▁ناگهانی	-9.5148
▁نشدن	-9.5148
▁نصب	-9.5148
▁نیازمند	-9.5148
▁هست	-9.5148
▁پنهان	-9.5148
▁چیست	-9.5148
▁کانون	-9.5148
▁کاپیتان	-9.5148
▁کند؛	-9.5148
▁۹۷	-9.5148
▁آذر	-9.54147
▁ابتدایی	-9.54147
▁ابتلای	-9.54147
▁اتومبیل	-9.54147
▁اجباری	-9.54147
▁استاندار	-9.54147
▁استخراج	-9.54147
▁اند.منبع	-9.54147
▁اند؛	-9.54147
▁اکبر	-9.54147
▁ایم	-9.54147
▁اینترنت	-9.54147
▁بابت	-9.54147
▁بازگرداندن	-9.54147
▁باند	-9.54147
▁بدست	-9.54147
▁برخوردار	-9.54147
▁بردن	-9.54147
▁بنابراین	-9.54147
▁بگیرد.	-9.54147
▁تردد	-9.54147
▁تعطیلات	-9.54147
▁جزو	-9.54147
▁خمینی	-9.54147
▁خواب	-9.54147
▁دادند.	-9.54147
▁داند	-9.54147
▁دیشب	-9.54147
▁دیپلماتیک	-9.54147
▁دیگران	-9.54147
▁ذخیره	-9.54147
▁سرانجام	-9.54147
▁شانس	-9.54147
▁شده.	-9.54147
▁صدرنشین	-9.54147
▁صرف	-9.54147
▁عملا	-9.54147
▁قطب	-9.54147
▁مالیاتی	-9.54147
▁مدیرکل	-9.54147
▁مراجعه	-9.54147
▁مسجد	-9.54147
▁منظور	-9.54147
▁نامداری	-9.54147
▁نامزدهای	-9.54147
▁نداشت	-9.54147
▁هیئت	-9.54147
▁وایلدر	-9.54147
▁پهلوی	-9.54147
▁پوشش	-9.54147
▁کجا	-9.54147
▁کیلوگرم	-9.54147
▁گاه	-9.54147
▁گواردیولا	-9.54147
▁گوشی	-9.54147
▁یمن	-9.54147
▁آرام	-9.56887
▁آزادسازی	-9.56887
▁آلوده	-9.56887
▁آواز	-9.56887
▁اسکاتلند	-9.56887
▁الحاقی	-9.56887
▁بازیگران	-9.56887
▁برد.	-9.56887
▁بنیان	-9.56887
▁تحلیل	-9.56887
▁توییت	-9.56887
▁خدمه	-9.56887
▁خطاب	-9.56887
▁داروی	-9.56887
▁داشتند.	-9.56887
▁دخالت	-9.56887
▁رویدادهای	-9.56887
▁شکسته	-9.56887
▁عذرخواهی	-9.56887
▁علائم	-9.56887
▁غول	-9.56887
▁فاش	-9.56887
▁فایزر	-9.56887
▁لی	-9.56887
▁مثال	-9.56887
▁مذهبی	-9.56887
▁مشاغل	-9.56887
▁معنی	-9.56887
▁نفری	-9.56887
▁نقشه	-9.56887
▁هتل	-9.56887
▁هفتم	-9.56887
▁پتروشیمی	-9.56887
▁پذیرش	-9.56887
▁پرس	-9.56887
▁چهارمین	-9.56887
▁کسری	-9.56887
▁کند،	-9.56887
▁کنفرانس	-9.56887
▁گیرد.	-9.56887
▁۰	-9.56887
▁۲۰۱۱	-9.56887
▁۳۳	-9.56887
▁آمد.	-9.59704
▁آورد.	-9.59704
▁اختلال	-9.59704
▁اسدی	-9.59704
▁اسکناس	-9.59704
▁اعتماد	-9.59704
▁امشب	-9.59704
▁اندونزی	-9.59704
▁اولویت	-9.59704
▁اکثر	-9.59704
▁بازدید	-9.59704
▁بازیکنی	-9.59704
▁بیمه	-9.59704
▁تحمل	-9.59704
▁توافقی	-9.59704
▁حاوی	-9.59704
▁حراج	-9.59704
▁حیوانات	-9.59704
▁خاورمیانه	-9.59704
▁درحال	-9.59704
▁ذخایر	-9.59704
▁سانسور	-9.59704
▁سبب	-9.59704
▁سراسری	-9.59704
▁سلطنت	-9.59704
▁سپرده	-9.59704
▁شد.این	-9.59704
▁شد.در	-9.59704
▁شنیده	-9.59704
▁صادقی	-9.59704
▁عاصمی	-9.59704
▁عوارض	-9.59704
▁فاجعه	-9.59704
▁فراتر	-9.59704
▁متهمان	-9.59704
▁محرومیت	-9.59704
▁مستقل	-9.59704
▁مطمئن	-9.59704
▁معاصر	-9.59704
▁مقدار	-9.59704
▁ناظر	-9.59704
▁نوبت	-9.59704
▁نود	-9.59704
▁هشتم	-9.59704
▁هیجان	-9.59704
▁وخیم	-9.59704
▁وضعیتی	-9.59704
▁پنجمین	-9.59704
▁پیامدهای	-9.59704
▁کشید	-9.59704
▁کهکشان	-9.59704
▁کیفیت	-9.59704
▁یورگن	-9.59704
▁۴۵	-9.59704
▁آرایش	-9.62603
▁امکانات	-9.62603
▁اورتون	-9.62603
▁باد	-9.62603
▁بازرسان	-9.62603
▁باشگاهی	-9.62603
▁بالینی	-9.62603
▁برادر	-9.62603
▁برج	-9.62603
▁بطور	-9.62603
▁بودم	-9.62603
▁توانیم	-9.62603
▁تیمش	-9.62603
▁جنجال	-9.62603
▁خاطره	-9.62603
▁خورد	-9.62603
▁دیوار	-9.62603
▁رحمانی	-9.62603
▁رسانی	-9.62603
▁رغم	-9.62603
▁زمستان	-9.62603
▁زیرا	-9.62603
▁سرنوشت	-9.62603
▁شد.منبع	-9.62603
▁شود،	-9.62603
▁عشق	-9.62603
▁عظیم	-9.62603
▁فروشگاه	-9.62603
▁فقر	-9.62603
▁ماند	-9.62603
▁مدیره	-9.62603
▁مسئولیت	-9.62603
▁میانگین	-9.62603
▁نیرو	-9.62603
▁هماهنگی	-9.62603
▁وانت	-9.62603
▁پرچم	-9.62603
▁پیوسته	-9.62603
▁کرد،	-9.62603
▁کلمبیا	-9.62603
▁گورستان	-9.62603
▁گوشت	-9.62603
▁یازده	-9.62603
▁۲۰۱۲	-9.62603
▁۴۲	-9.62603
▁آموزشی	-9.65588
▁ارزها	-9.65588
▁اقلام	-9.65588
▁اقلیم	-9.65588
▁ال	-9.65588
▁امر	-9.65588
▁اند.این	-9.65588
▁برگزیده	-9.65588
▁بهتری	-9.65588
▁بود.در	-9.65588
▁تاثیری	-9.65588
▁تبریز	-9.65588
▁تجاوز	-9.65588
▁تشدید	-9.65588
▁تصاویری	-9.65588
▁توهین	-9.65588
▁جانسون	-9.65588
▁حالیکه	-9.65588
▁خطوط	-9.65588
▁دمای	-9.65588
▁دونده	-9.65588
▁زند	-9.65588
▁سرکوب	-9.65588
▁سهامداران	-9.65588
▁شیری	-9.65588
▁صادراتی	-9.65588
▁طبقه	-9.65588
▁طراح	-9.65588
▁عبوری	-9.65588
▁عمر	-9.65588
▁عمق	-9.65588
▁فکری	-9.65588
▁قدم	-9.65588
▁نابودی	-9.65588
▁نتوانسته	-9.65588
▁نمایشی	-9.65588
▁نویسی	-9.65588
▁هلند	-9.65588
▁ویژگی	-9.65588
▁پرورش	-9.65588
▁پله	-9.65588
▁چنان	-9.65588
▁کوتاهی	-9.65588
▁گزارشگر	-9.65588
▁یخ	-9.65588
▁آرامش	-9.68665
▁آسان	-9.68665
▁آفریقای	-9.68665
▁ادعای	-9.68665
▁اعتبار	-9.68665
▁ایست	-9.68665
▁برداشت	-9.68665
▁برندگان	-9.68665
▁بسکتبال	-9.68665
▁بیستم	-9.68665
▁تائید	-9.68665
▁تبار	-9.68665
▁تقسیم	-9.68665
▁تکمیل	-9.68665
▁جدایی	-9.68665
▁حساس	-9.68665
▁داری	-9.68665
▁داستانی	-9.68665
▁دامن	-9.68665
▁دقیقا	-9.68665
▁دیوید	-9.68665
▁رئیسی	-9.68665
▁رسد.	-9.68665
▁رقمی	-9.68665
▁رها	-9.68665
▁ریه	-9.68665
▁سرقت	-9.68665
▁سلاح	-9.68665
▁سپری	-9.68665
▁شودمنبع	-9.68665
▁شکنجه	-9.68665
▁شیر	-9.68665
▁طلایی	-9.68665
▁ماجرای	-9.68665
▁ماند.	-9.68665
▁ماهواره	-9.68665
▁مرور	-9.68665
▁ملکه	-9.68665
▁موقع	-9.68665
▁نباشد	-9.68665
▁نفره	-9.68665
▁نفع	-9.68665
▁نیستند	-9.68665
▁ویلموتس	-9.68665
▁پاپ	-9.68665
▁کاوشگر	-9.68665
▁کرد.این	-9.68665
▁کریمی	-9.68665
▁کشاورزی	-9.68665
▁گیرند	-9.68665
▁۴۸	-9.68665
▁۹۶	-9.68665
▁آزاده	-9.7184
▁آنتونی	-9.7184
▁احترام	-9.7184
▁استراماچونی	-9.7184
▁اسم	-9.7184
▁اماکن	-9.7184
▁ایرانمنبع	-9.7184
▁بغداد	-9.7184
▁بلافاصله	-9.7184
▁تردید	-9.7184
▁تعرفه	-9.7184
▁ثبات	-9.7184
▁جانشین	-9.7184
▁خاوران	-9.7184
▁خواهم	-9.7184
▁دام	-9.7184
▁درحالی	-9.7184
▁سفارش	-9.7184
▁سقف	-9.7184
▁سوئیسی	-9.7184
▁شناس	-9.7184
▁شگفت	-9.7184
▁صادرکنندگان	-9.7184
▁عاشق	-9.7184
▁عبدالله	-9.7184
▁عطر	-9.7184
▁علم	-9.7184
▁عملی	-9.7184
▁غیرمستقیم	-9.7184
▁فصلی	-9.7184
▁قلعه	-9.7184
▁مقاله	-9.7184
▁منافع	-9.7184
▁نایب	-9.7184
▁نداریم	-9.7184
▁نظامیان	-9.7184
▁هجوم	-9.7184
▁هنرهای	-9.7184
▁وارداتی	-9.7184
▁پارلمان	-9.7184
▁پژوهشگر	-9.7184
▁کارآزمایی	-9.7184
▁کارمند	-9.7184
▁کلاسیک	-9.7184
▁کنگره	-9.7184
▁۲۵۰	-9.7184
▁۶۰۰	-9.7184
▁۷۵	-9.7184
▁آذربایجان	-9.75119
▁آزمایشی	-9.75119
▁اتهامات	-9.75119
▁ارشاد	-9.75119
▁استادیوم	-9.75119
▁اولسان	-9.75119
▁بازیگری	-9.75119
▁برانگیز	-9.75119
▁بهرنگ	-9.75119
▁بیمارستانی	-9.75119
▁تأمین	-9.75119
▁تاثیرگذار	-9.75119
▁تماشای	-9.75119
▁جرم	-9.75119
▁خودروی	-9.75119
▁درخشان	-9.75119
▁دیه	-9.75119
▁رساند	-9.75119
▁زمینی	-9.75119
▁زهرا	-9.75119
▁سرنگونی	-9.75119
▁سلطان	-9.75119
▁سو	-9.75119
▁سواحل	-9.75119
▁ششم	-9.75119
▁شناور	-9.75119
▁شهرها	-9.75119
▁ضرورت	-9.75119
▁غیررسمی	-9.75119
▁فان	-9.75119
▁فرمانداری	-9.75119
▁قدس	-9.75119
▁قدم؛	-9.75119
▁قرارگاه	-9.75119
▁قله	-9.75119
▁ماندن	-9.75119
▁محافظت	-9.75119
▁محکومیت	-9.75119
▁مسئولین	-9.75119
▁مساوی	-9.75119
▁مسکونی	-9.75119
▁مشابهی	-9.75119
▁ملاقات	-9.75119
▁منع	-9.75119
▁نرسیده	-9.75119
▁نشینی	-9.75119
▁نمایشگاه	-9.75119
▁نگرفته	-9.75119
▁نیروگاه	-9.75119
▁هاشمی	-9.75119
▁هافبک	-9.75119
▁وحش	-9.75119
▁پانصد	-9.75119
▁پل	-9.75119
▁پیشگیری	-9.75119
▁کتابی	-9.75119
▁کریستیانو	-9.75119
▁کشاورز	-9.75119
▁کنم.	-9.75119
▁کودکی	-9.75119
▁گذاشت	-9.75119
▁گربه	-9.75119
▁یارانه	-9.75119
▁۳۴	-9.75119
▁۴۹	-9.75119
▁۹۵	-9.75119
▁آگاه	-9.78509
▁آید.	-9.78509
▁اشرف	-9.78509
▁اندکی	-9.78509
▁ایرانیان	-9.78509
▁ب	-9.78509
▁باخته	-9.78509
▁بخت	-9.78509
▁بخوانید:	-9.78509
▁برنت	-9.78509
▁برگزیت	-9.78509
▁جاسوسی	-9.78509
▁جلو	-9.78509
▁جوانی	-9.78509
▁حضورش	-9.78509
▁خداحافظی	-9.78509
▁خوانندگان	-9.78509
▁خودم	-9.78509
▁دانشجویان	-9.78509
▁داوران	-9.78509
▁دفن	-9.78509
▁راهبردی	-9.78509
▁رهبران	-9.78509
▁سلول	-9.78509
▁سوئد	-9.78509
▁سوار	-9.78509
▁سوالات	-9.78509
▁شوروی	-9.78509
▁شیشه	-9.78509
▁طرحی	-9.78509
▁طلبان	-9.78509
▁عادت	-9.78509
▁عفو	-9.78509
▁فیلیپ	-9.78509
▁قدر	-9.78509
▁قیمتها	-9.78509
▁لستر	-9.78509
▁مادورو	-9.78509
▁متری	-9.78509
▁محمدجواد	-9.78509
▁میدانی	-9.78509
▁نقشی	-9.78509
▁نماد	-9.78509
▁همیشگی	-9.78509
▁هنگامی	-9.78509
▁هوشمند	-9.78509
▁واژه	-9.78509
▁پروفسور	-9.78509
▁گرنداسلم	-9.78509
▁ادعا	-9.82018
▁اسامی	-9.82018
▁اسکی	-9.82018
▁اصناف	-9.82018
▁انگیزه	-9.82018
▁بالاخره	-9.82018
▁بدترین	-9.82018
▁برایش	-9.82018
▁برسد.	-9.82018
▁برقی	-9.82018
▁برود	-9.82018
▁بود.این	-9.82018
▁بود،	-9.82018
▁بودیم	-9.82018
▁ترخیص	-9.82018
▁تنفسی	-9.82018
▁حیرت	-9.82018
▁دادستان	-9.82018
▁دبلیو	-9.82018
▁درهای	-9.82018
▁دسترس	-9.82018
▁ذوب	-9.82018
▁راستی	-9.82018
▁رضوی	-9.82018
▁سایپا	-9.82018
▁سد	-9.82018
▁سلطنتی	-9.82018
▁شود.آقای	-9.82018
▁شود.این	-9.82018
▁شود.منبع	-9.82018
▁شویم	-9.82018
▁غیرقابل	-9.82018
▁فراری	-9.82018
▁قاجار	-9.82018
▁مبادله	-9.82018
▁متخصص	-9.82018
▁مسافر	-9.82018
▁مساله	-9.82018
▁ملک	-9.82018
▁هشتاد	-9.82018
▁وسایل	-9.82018
▁وقوع	-9.82018
▁ون	-9.82018
▁پادتن	-9.82018
▁پاییز	-9.82018
▁پذیر	-9.82018
▁پرنده	-9.82018
▁پروانه	-9.82018
▁پیوست	-9.82018
▁چرخه	-9.82018
▁چشمگیر	-9.82018
▁ژنتیکی	-9.82018
▁کربن	-9.82018
▁کلیدی	-9.82018
▁گذرد	-9.82018
▁۲۰۰۰	-9.82018
▁۵۷	-9.82018
▁'به	-9.85655
▁اسلام	-9.85655
▁اسماعیلی	-9.85655
▁افتاد.	-9.85655
▁اقامت	-9.85655
▁اقلیت	-9.85655
▁اند.در	-9.85655
▁انفرادی	-9.85655
▁اوبر	-9.85655
▁باران	-9.85655
▁بران	-9.85655
▁برانکو	-9.85655
▁برقراری	-9.85655
▁تاکسی	-9.85655
▁تب	-9.85655
▁تبلیغ	-9.85655
▁تصادف	-9.85655
▁تظاهرات	-9.85655
▁تلخ	-9.85655
▁تکان	-9.85655
▁جنبش	-9.85655
▁خانوارهای	-9.85655
▁خلوص	-9.85655
▁دانست.	-9.85655
▁داوطلب	-9.85655
▁دهیم	-9.85655
▁دوستانه	-9.85655
▁راستای	-9.85655
▁زنند	-9.85655
▁زیبایی	-9.85655
▁سالها	-9.85655
▁شاهزاده	-9.85655
▁شبه	-9.85655
▁شرط	-9.85655
▁صمت	-9.85655
▁صندلی	-9.85655
▁عمان	-9.85655
▁عکسی	-9.85655
▁فیلمنامه	-9.85655
▁محیطی	-9.85655
▁مدار	-9.85655
▁مریم	-9.85655
▁مطلع	-9.85655
▁معتقد	-9.85655
▁مغزی	-9.85655
▁منتقد	-9.85655
▁منچسترسیتی	-9.85655
▁موانع	-9.85655
▁ناپذیر	-9.85655
▁نژادپرستی	-9.85655
▁همسایه	-9.85655
▁هوش	-9.85655
▁وسیع	-9.85655
▁وظیفه	-9.85655
▁پذیرفته	-9.85655
▁پرتغال	-9.85655
▁پرده	-9.85655
▁پنالتی	-9.85655
▁پولشویی	-9.85655
▁پولی	-9.85655
▁پیست	-9.85655
▁کماکان	-9.85655
▁کوچکی	-9.85655
▁یو	-9.85655
▁۳۹	-9.85655
▁آتی	-9.89429
▁آسیایی	-9.89429
▁آشکار	-9.89429
▁آمارهای	-9.89429
▁ارتباطی	-9.89429
▁استخوان	-9.89429
▁اصلا	-9.89429
▁املاک	-9.89429
▁اند،	-9.89429
▁ایلنا	-9.89429
▁بابا	-9.89429
▁بازیکنانی	-9.89429
▁بتوان	-9.89429
▁بدتر	-9.89429
▁تبعات	-9.89429
▁تجدید	-9.89429
▁تروریسم	-9.89429
▁جدال	-9.89429
▁جورج	-9.89429
▁خاطرات	-9.89429
▁خرج	-9.89429
▁خواستند	-9.89429
▁خواندن	-9.89429
▁دادگاهی	-9.89429
▁دانشمند	-9.89429
▁دانمارک	-9.89429
▁درد	-9.89429
▁رم	-9.89429
▁رمزارزها	-9.89429
▁روح	-9.89429
▁زرد	-9.89429
▁زیستی	-9.89429
▁سامسونگ	-9.89429
▁سانتی	-9.89429
▁سران	-9.89429
▁سرزمین	-9.89429
▁سرود	-9.89429
▁شتاب	-9.89429
▁شده؛	-9.89429
▁شوک	-9.89429
▁شک	-9.89429
▁شیدا	-9.89429
▁صلاح	-9.89429
▁ضرر	-9.89429
▁ضعیف	-9.89429
▁عراقی	-9.89429
▁عفونت	-9.89429
▁غزنی	-9.89429
▁غلبه	-9.89429
▁فردوسی	-9.89429
▁فروشی	-9.89429
▁فریاد	-9.89429
▁قایق	-9.89429
▁قربانی	-9.89429
▁قیمتی	-9.89429
▁ماهنامه	-9.89429
▁مخاطبان	-9.89429
▁مدارس	-9.89429
▁مشتری	-9.89429
▁مصاف	-9.89429
▁مصدومیت	-9.89429
▁مقدماتی	-9.89429
▁موسسات	-9.89429
▁موضوعات	-9.89429
▁میر	-9.89429
▁ناحیه	-9.89429
▁نادیده	-9.89429
▁نامیده	-9.89429
▁نقدی	-9.89429
▁نمایشگر	-9.89429
▁هرچه	-9.89429
▁والی	-9.89429
▁واگذاری	-9.89429
▁ویدئویی	-9.89429
▁پانزده	-9.89429
▁پرسش	-9.89429
▁پرفروش	-9.89429
▁پپ	-9.89429
▁پیراهن	-9.89429
▁کارزار	-9.89429
▁کارهایی	-9.89429
▁کاسته	-9.89429
▁کانری	-9.89429
▁کلیات	-9.89429
▁کنفدراسیون	-9.89429
▁گرچه	-9.89429
▁گوشه	-9.89429
▁یاری	-9.89429
▁۲۰۰۸	-9.89429
▁۴۴	-9.89429
▁آدم	-9.93351
▁آزمایی	-9.93351
▁آندره	-9.93351
▁اختلافات	-9.93351
▁است.اما	-9.93351
▁اشتغال	-9.93351
▁التهاب	-9.93351
▁امن	-9.93351
▁اند.به	-9.93351
▁برون	-9.93351
▁برکنار	-9.93351
▁بلیت	-9.93351
▁بوندس	-9.93351
▁تبلیغات	-9.93351
▁توانستند	-9.93351
▁تگزاس	-9.93351
▁ثامن	-9.93351
▁جانبی	-9.93351
▁جایگزین	-9.93351
▁جنسیت	-9.93351
▁خشم	-9.93351
▁خورد.	-9.93351
▁خیابانی	-9.93351
▁دائم	-9.93351
▁دادگستری	-9.93351
▁دانستند	-9.93351
▁ربات	-9.93351
▁رسانده	-9.93351
▁رستوران	-9.93351
▁روسی	-9.93351
▁رویارویی	-9.93351
▁ریاض	-9.93351
▁ساعات	-9.93351
▁سرد	-9.93351
▁شد.او	-9.93351
▁شد.با	-9.93351
▁شیرین	-9.93351
▁صاحبان	-9.93351
▁صالح	-9.93351
▁صرفا	-9.93351
▁طلب	-9.93351
▁عروسی	-9.93351
▁فاز	-9.93351
▁فر	-9.93351
▁فرش	-9.93351
▁قراردادی	-9.93351
▁لذت	-9.93351
▁لیسبون	-9.93351
▁متعدد	-9.93351
▁مجید	-9.93351
▁محافظه	-9.93351
▁محقق	-9.93351
▁مدارک	-9.93351
▁مدرن	-9.93351
▁مطالعات	-9.93351
▁موبایل	-9.93351
▁موضوعی	-9.93351
▁ناخالص	-9.93351
▁نادر	-9.93351
▁نادرست	-9.93351
▁نان	-9.93351
▁نبرد	-9.93351
▁نگار	-9.93351
▁هالیوود	-9.93351
▁همسان	-9.93351
▁هیوندای	-9.93351
▁واکسینه	-9.93351
▁وبسایت	-9.93351
▁وست	-9.93351
▁ولیعهد	-9.93351
▁ویدیویی	-9.93351
▁پرافتخارترین	-9.93351
▁چابهار	-9.93351
▁چرخ	-9.93351
▁چندانی	-9.93351
▁ژان	-9.93351
▁کارش	-9.93351
▁کیم	-9.93351
▁گروگان	-9.93351
▁گمانه	-9.93351
▁۳۸	-9.93351
▁۵۵	-9.93351
▁آبادی	-9.97433
▁آرژانتینی	-9.97433
▁آمریکا،	-9.97433
▁است.از	-9.97433
▁است؟منبع	-9.97433
▁اعتراضی	-9.97433
▁اعداد	-9.97433
▁امتحان	-9.97433
▁اهالی	-9.97433
▁اهدا	-9.97433
▁اپلیکیشن	-9.97433
▁اگر	-9.97433
▁بامیان	-9.97433
▁بحرانی	-9.97433
▁بدنه	-9.97433
▁بدی	-9.97433
▁بشری	-9.97433
▁بهرام	-9.97433
▁تاجیک	-9.97433
▁تبلیغاتی	-9.97433
▁تحول	-9.97433
▁ترکیبی	-9.97433
▁تعهد	-9.97433
▁تماشا	-9.97433
▁توانم	-9.97433
▁توماس	-9.97433
▁توییتی	-9.97433
▁جلسات	-9.97433
▁خاتم	-9.97433
▁خانوادگی	-9.97433
▁خشکی	-9.97433
▁خودروها	-9.97433
▁داوطلبان	-9.97433
▁دبیرکل	-9.97433
▁دستگیری	-9.97433
▁دوام	-9.97433
▁راحت	-9.97433
▁رسیدمنبع	-9.97433
▁رنو	-9.97433
▁روان	-9.97433
▁زنگنه	-9.97433
▁سرنشینان	-9.97433
▁سلمان	-9.97433
▁شعار	-9.97433
▁شفافیت	-9.97433
▁شمخانی	-9.97433
▁شناخت	-9.97433
▁شواهد	-9.97433
▁صادرکننده	-9.97433
▁صحن	-9.97433
▁عبارت	-9.97433
▁عزاداری	-9.97433
▁عزیزی	-9.97433
▁فراوان	-9.97433
▁فرزندان	-9.97433
▁فرم	-9.97433
▁قادر	-9.97433
▁قاضی	-9.97433
▁لایه	-9.97433
▁مانکن	-9.97433
▁محتوای	-9.97433
▁محدودیتهای	-9.97433
▁مخفی	-9.97433
▁مرجان	-9.97433
▁مسافرتی	-9.97433
▁مشخصی	-9.97433
▁مصوبات	-9.97433
▁معافیت	-9.97433
▁من	-9.97433
▁منتهی	-9.97433
▁موافق	-9.97433
▁موشکی	-9.97433
▁میلیاردها	-9.97433
▁ناظران	-9.97433
▁نشانی	-9.97433
▁نماز	-9.97433
▁نژادی	-9.97433
▁همیلتون	-9.97433
▁هنگ	-9.97433
▁واگذار	-9.97433
▁وزیران	-9.97433
▁ولز	-9.97433
▁پاک	-9.97433
▁پوریا	-9.97433
▁پیاده	-9.97433
▁چندی	-9.97433
▁کاردن	-9.97433
▁کریکت	-9.97433
▁کس	-9.97433
▁کمال	-9.97433
▁کمترین	-9.97433
▁کن	-9.97433
▁گردشگران	-9.97433
▁گردن	-9.97433
▁گیرند.	-9.97433
▁یازدهم	-9.97433
▁۲۰۲۲	-9.97433
▁'	-10.0169
▁آنقدر	-10.0169
▁آگهی	-10.0169
▁اخلال	-10.0169
▁ارمنستان	-10.0169
▁ازبکستان	-10.0169
▁استدر	-10.0169
▁اضطراب	-10.0169
▁اقلیمی	-10.0169
▁امتیازی	-10.0169
▁ایام	-10.0169
▁بامداد	-10.0169
▁بخار	-10.0169
▁بخصوص	-10.0169
▁برابری	-10.0169
▁برتری	-10.0169
▁بزرگداشت	-10.0169
▁بلخ	-10.0169
▁بود.منبع	-10.0169
▁بوش	-10.0169
▁بیلسا	-10.0169
▁تایمز	-10.0169
▁تحمیل	-10.0169
▁تخلف	-10.0169
▁تدابیر	-10.0169
▁تداوم	-10.0169
▁تدوین	-10.0169
▁تسلیحاتی	-10.0169
▁تعدیل	-10.0169
▁تفحص	-10.0169
▁تنهایی	-10.0169
▁تورمی	-10.0169
▁توطئه	-10.0169
▁جلالی	-10.0169
▁جک	-10.0169
▁حداکثری	-10.0169
▁حیاتی	-10.0169
▁دادمنبع	-10.0169
▁دارم	-10.0169
▁داریم.	-10.0169
▁دانیم	-10.0169
▁ذرات	-10.0169
▁رقص	-10.0169
▁روس	-10.0169
▁روستایی	-10.0169
▁رویه	-10.0169
▁زلزله	-10.0169
▁زیان	-10.0169
▁ساعاتی	-10.0169
▁شاهین	-10.0169
▁شریک	-10.0169
▁شفاف	-10.0169
▁شکاف	-10.0169
▁صبر	-10.0169
▁طیف	-10.0169
▁عادل	-10.0169
▁عبدالناصر	-10.0169
▁عراقچی	-10.0169
▁عوض	-10.0169
▁فیل	-10.0169
▁قاطع	-10.0169
▁قریب	-10.0169
▁قصه	-10.0169
▁لایپزیگ	-10.0169
▁لوئیس	-10.0169
▁لیدز	-10.0169
▁لیگا	-10.0169
▁مادری	-10.0169
▁مبنای	-10.0169
▁مصوب	-10.0169
▁میانی	-10.0169
▁نامی	-10.0169
▁ناکامی	-10.0169
▁ناگهان	-10.0169
▁نخواهند	-10.0169
▁نظریه	-10.0169
▁نقص	-10.0169
▁نوجوان	-10.0169
▁نکردن	-10.0169
▁هیأت	-10.0169
▁والیبال	-10.0169
▁ولسوالی	-10.0169
▁ویدیو	-10.0169
▁پادشاه	-10.0169
▁پلاستیکی	-10.0169
▁پوشیده	-10.0169
▁پیشنهادی	-10.0169
▁کرد.در	-10.0169
▁کمرنگ	-10.0169
▁گذارد	-10.0169
▁گروسی	-10.0169
▁گمرکی	-10.0169
▁یکم	-10.0169
▁آموزان	-10.0613
▁اتمام	-10.0613
▁احساسات	-10.0613
▁ارزان	-10.0613
▁استعفای	-10.0613
▁اسپرت	-10.0613
▁اصطلاح	-10.0613
▁اطلس	-10.0613
▁افکن	-10.0613
▁اقداماتی	-10.0613
▁امین	-10.0613
▁انتگرال	-10.0613
▁اهداف	-10.0613
▁اکسیژن	-10.0613
▁ایم.	-10.0613
▁برخلاف	-10.0613
▁برعهده	-10.0613
▁بستن	-10.0613
▁بشار	-10.0613
▁بعدازظهر	-10.0613
▁تایسون	-10.0613
▁ترور	-10.0613
▁ترویج	-10.0613
▁تعلق	-10.0613
▁تلگرام	-10.0613
▁تمرکز	-10.0613
▁تکلیف	-10.0613
▁جنبه	-10.0613
▁جونز	-10.0613
▁حلقه	-10.0613
▁حمایتی	-10.0613
▁حوثی	-10.0613
▁ختم	-10.0613
▁خریداران	-10.0613
▁خلاصه	-10.0613
▁دارویی	-10.0613
▁دایک	-10.0613
▁دروغ	-10.0613
▁دستکم	-10.0613
▁دستی	-10.0613
▁دهقان	-10.0613
▁دویست	-10.0613
▁راز	-10.0613
▁راموس	-10.0613
▁رساندن	-10.0613
▁زانو	-10.0613
▁زاهدان	-10.0613
▁زوج	-10.0613
▁سئوال	-10.0613
▁سحر	-10.0613
▁سگ	-10.0613
▁شکار	-10.0613
▁شکلی	-10.0613
▁صرفه	-10.0613
▁ظاهرا	-10.0613
▁ظهر	-10.0613
▁عموم	-10.0613
▁غذای	-10.0613
▁فقیر	-10.0613
▁فیزیک	-10.0613
▁متمرکز	-10.0613
▁مجهز	-10.0613
▁محسن	-10.0613
▁محله	-10.0613
▁مراحل	-10.0613
▁مردمی	-10.0613
▁مرزهای	-10.0613
▁معاونت	-10.0613
▁معتبرترین	-10.0613
▁مفید	-10.0613
▁منتفی	-10.0613
▁مهاجر	-10.0613
▁مهارت	-10.0613
▁موظف	-10.0613
▁مکرون	-10.0613
▁نازی	-10.0613
▁نداشتند	-10.0613
▁نساجی	-10.0613
▁نشت	-10.0613
▁نشد.	-10.0613
▁نواک	-10.0613
▁نوسان	-10.0613
▁نیوزیلند	-10.0613
▁هاوس	-10.0613
▁هجومی	-10.0613
▁هستیم.	-10.0613
▁وستهم	-10.0613
▁ویران	-10.0613
▁پروتئین	-10.0613
▁پنجره	-10.0613
▁پیمان	-10.0613
▁پیوند	-10.0613
▁کرام	-10.0613
▁کشد	-10.0613
▁کند.در	-10.0613
▁کنگ	-10.0613
▁گذاشتن	-10.0613
▁گفتگوها	-10.0613
▁گلوله	-10.0613
▁گمان	-10.0613
▁یوفا	-10.0613
▁۲۰۰۹	-10.0613
▁۲۰۲۰)	-10.0613
▁۵۲	-10.0613
▁۶۷	-10.0613
▁۷۷	-10.0613
▁...	-10.1079
▁.این	-10.1079
▁آوردن	-10.1079
▁ابعاد	-10.1079
▁ارایه	-10.1079
▁اردوغان	-10.1079
▁ازای	-10.1079
▁استاین	-10.1079
▁استناد	-10.1079
▁اصلاحات	-10.1079
▁اعضا	-10.1079
▁افتتاح	-10.1079
▁اورژانس	-10.1079
▁اوکراین	-10.1079
▁اوین	-10.1079
▁ایفای	-10.1079
▁اینتر	-10.1079
▁باستانی	-10.1079
▁بالایی	-10.1079
▁بعنوان	-10.1079
▁بلژیک	-10.1079
▁بماند	-10.1079
▁بها	-10.1079
▁بود.به	-10.1079
▁بویایی	-10.1079
▁تاسف	-10.1079
▁تالاب	-10.1079
▁تخصیص	-10.1079
▁ترسیم	-10.1079
▁تروریستی	-10.1079
▁تسلیت	-10.1079
▁تغییری	-10.1079
▁تلفیق	-10.1079
▁جستجوی	-10.1079
▁خبرهای	-10.1079
▁خدمت	-10.1079
▁خرد	-10.1079
▁خریدهای	-10.1079
▁خشک	-10.1079
▁خوردن	-10.1079
▁دارد؛	-10.1079
▁دستیابی	-10.1079
▁دشواری	-10.1079
▁دوپینگ	-10.1079
▁دیگو	-10.1079
▁رود.	-10.1079
▁زاهدی	-10.1079
▁زود	-10.1079
▁سراغ	-10.1079
▁سطحی	-10.1079
▁شاغل	-10.1079
▁شاغلان	-10.1079
▁شد.آقای	-10.1079
▁شعبه	-10.1079
▁شنا	-10.1079
▁شوماخر	-10.1079
▁ظاهری	-10.1079
▁غافلگیر	-10.1079
▁غربالگری	-10.1079
▁غرق	-10.1079
▁غریب	-10.1079
▁قابلیت	-10.1079
▁قوس	-10.1079
▁لقب	-10.1079
▁لنون	-10.1079
▁لوله	-10.1079
▁مارتین	-10.1079
▁متاثر	-10.1079
▁متاسفانه	-10.1079
▁محافظ	-10.1079
▁محبوبیت	-10.1079
▁محرم	-10.1079
▁محمدباقر	-10.1079
▁مستقر	-10.1079
▁مشکلاتی	-10.1079
▁مقاومت	-10.1079
▁مهرماه	-10.1079
▁موسوی	-10.1079
▁موش	-10.1079
▁مین	-10.1079
▁نبود.	-10.1079
▁نتانیاهو	-10.1079
▁نیک	-10.1079
▁هرگونه	-10.1079
▁همراهی	-10.1079
▁وسیله	-10.1079
▁وقفه	-10.1079
▁پیوستن	-10.1079
▁پیکر	-10.1079
▁چراغ	-10.1079
▁کاشی	-10.1079
▁گذشته،	-10.1079
▁گلزنی	-10.1079
▁یادآوری	-10.1079
▁یکصد	-10.1079
▁۲۰۰۳	-10.1079
▁۶۵	-10.1079
▁۹۱	-10.1079
▁آل	-10.1567
▁ابزار	-10.1567
▁احتساب	-10.1567
▁اختلاس	-10.1567
▁اردلان	-10.1567
▁استرالیایی	-10.1567
▁اعزام	-10.1567
▁انبار	-10.1567
▁انگار	-10.1567
▁اهدای	-10.1567
▁باختگان	-10.1567
▁بدر	-10.1567
▁بدل	-10.1567
▁برادرش	-10.1567
▁بندرعباس	-10.1567
▁بوریس	-10.1567
▁بوک	-10.1567
▁بویژه	-10.1567
▁تابلوی	-10.1567
▁تحلیلگران	-10.1567
▁ترکمنستان	-10.1567
▁تغییراتی	-10.1567
▁تقابل	-10.1567
▁تلاشی	-10.1567
▁تلفنی	-10.1567
▁تنفس	-10.1567
▁تور	-10.1567
▁ثمر	-10.1567
▁جداگانه	-10.1567
▁جعلی	-10.1567
▁جمال	-10.1567
▁جنسیتی	-10.1567
▁حمید	-10.1567
▁خوان	-10.1567
▁دادستانی	-10.1567
▁دادسرای	-10.1567
▁درخت	-10.1567
▁درس	-10.1567
▁دوحه	-10.1567
▁رسمیت	-10.1567
▁روزگار	-10.1567
▁روسای	-10.1567
▁رویای	-10.1567
▁زد.	-10.1567
▁زکی	-10.1567
▁زیرمجموعه	-10.1567
▁ساسی	-10.1567
▁ساویز	-10.1567
▁سربازان	-10.1567
▁سیاره	-10.1567
▁سیزده	-10.1567
▁سیف	-10.1567
▁شانه	-10.1567
▁ششمین	-10.1567
▁شهروندی	-10.1567
▁شون	-10.1567
▁شیخ	-10.1567
▁صعودی	-10.1567
▁طبری	-10.1567
▁طنز	-10.1567
▁ظهور	-10.1567
▁عروسک	-10.1567
▁علیرغم	-10.1567
▁فارغ	-10.1567
▁فرآیند	-10.1567
▁فرا	-10.1567
▁فوتبالی	-10.1567
▁قد	-10.1567
▁قراردادش	-10.1567
▁قضیه	-10.1567
▁لاشه	-10.1567
▁مایکروسافت	-10.1567
▁مترجم	-10.1567
▁متناسب	-10.1567
▁محدوده	-10.1567
▁محمدعلی	-10.1567
▁مراجع	-10.1567
▁مراسمی	-10.1567
▁مرخصی	-10.1567
▁مصادره	-10.1567
▁معمولی	-10.1567
▁مقصر	-10.1567
▁ملحق	-10.1567
▁ملقب	-10.1567
▁منتخب	-10.1567
▁ناجی	-10.1567
▁نامدار	-10.1567
▁ناپدید	-10.1567
▁نجف	-10.1567
▁نزد	-10.1567
▁نظارتی	-10.1567
▁نقد	-10.1567
▁نمایی	-10.1567
▁نوشتن	-10.1567
▁نگاری	-10.1567
▁هندی	-10.1567
▁هوشنگ	-10.1567
▁وب	-10.1567
▁وداع	-10.1567
▁وزارتخانه	-10.1567
▁وسط	-10.1567
▁ویلیامز	-10.1567
▁پرندگان	-10.1567
▁پستان	-10.1567
▁پژوهشی	-10.1567
▁پیامی	-10.1567
▁کارلوس	-10.1567
▁کتیبه	-10.1567
▁کردستان	-10.1567
▁کرده،	-10.1567
▁کش	-10.1567
▁کف	-10.1567
▁کناره	-10.1567
▁کند.آقای	-10.1567
▁کند.منبع	-10.1567
▁کنکور	-10.1567
▁گذاشت.	-10.1567
▁گوناگون	-10.1567
▁یمانی	-10.1567
▁۱۰۰۰	-10.1567
▁۱۲۰	-10.1567
▁۱۵۰۰	-10.1567
▁۱۹۸۶	-10.1567
▁۲۰۱۰	-10.1567
▁۳۶	-10.1567
▁۳۷	-10.1567
▁۴۲۰۰	-10.1567
▁۴۳	-10.1567
▁.او	-10.2079
▁آباد	-10.2079
▁آبادان	-10.2079
▁آفتاب	-10.2079
▁آفریقایی	-10.2079
▁آمریکای	-10.2079
▁اختصاصی	-10.2079
▁ارتفاع	-10.2079
▁اریک	-10.2079
▁است.مقام	-10.2079
▁استراتژیک	-10.2079
▁استراحت	-10.2079
▁استرازنکا	-10.2079
▁اسکیت	-10.2079
▁افتد	-10.2079
▁الکترونیکی	-10.2079
▁انتقادها	-10.2079
▁انداخت	-10.2079
▁انقراض	-10.2079
▁اوکراینی	-10.2079
▁ایاصوفیه	-10.2079
▁ایرلند	-10.2079
▁ایمان	-10.2079
▁باتری	-10.2079
▁باشید	-10.2079
▁باشیم	-10.2079
▁بدهد	-10.2079
▁بزوس	-10.2079
▁بلومبرگ	-10.2079
▁بنگلادش	-10.2079
▁بنیانگذار	-10.2079
▁بومی	-10.2079
▁بیاید	-10.2079
▁تثبیت	-10.2079
▁تدریجی	-10.2079
▁ترجیح	-10.2079
▁تضعیف	-10.2079
▁تعامل	-10.2079
▁تعجب	-10.2079
▁تعقیب	-10.2079
▁تفاهم	-10.2079
▁تل	-10.2079
▁تمایل	-10.2079
▁توفیق	-10.2079
▁تکه	-10.2079
▁تیلور	-10.2079
▁ثروت	-10.2079
▁جداول	-10.2079
▁جلوپنجره	-10.2079
▁جهاد	-10.2079
▁حریفان	-10.2079
▁حضوری	-10.2079
▁خاتمه	-10.2079
▁خاموش	-10.2079
▁خوراکی	-10.2079
▁خیانت	-10.2079
▁خیر	-10.2079
▁داروهای	-10.2079
▁داشتم	-10.2079
▁دانشگاهی	-10.2079
▁دانند.	-10.2079
▁دراز	-10.2079
▁دقت	-10.2079
▁دژپسند	-10.2079
▁ذکر	-10.2079
▁رادیویی	-10.2079
▁ربط	-10.2079
▁رسول	-10.2079
▁رنجرز	-10.2079
▁روبه	-10.2079
▁روزمره	-10.2079
▁روستای	-10.2079
▁رکوردی	-10.2079
▁زاده،	-10.2079
▁زباله	-10.2079
▁زدند	-10.2079
▁ستارگان	-10.2079
▁سرتیپ	-10.2079
▁سفینه	-10.2079
▁سنا	-10.2079
▁سکونت	-10.2079
▁شاخه	-10.2079
▁شلوغ	-10.2079
▁عبدی	-10.2079
▁عملیاتی	-10.2079
▁غم	-10.2079
▁فرونشست	-10.2079
▁فلوریدا	-10.2079
▁قبادی	-10.2079
▁قطار	-10.2079
▁مادران	-10.2079
▁مان	-10.2079
▁ماهانه	-10.2079
▁مبادلات	-10.2079
▁مبهم	-10.2079
▁متخصصان	-10.2079
▁متشکل	-10.2079
▁محاسبات	-10.2079
▁مراتب	-10.2079
▁مرزها	-10.2079
▁مرمت	-10.2079
▁مستمری	-10.2079
▁مشهورترین	-10.2079
▁مشورت	-10.2079
▁مشکلی	-10.2079
▁مصونیت	-10.2079
▁مفاد	-10.2079
▁مقرر	-10.2079
▁منحصر	-10.2079
▁مهاجران	-10.2079
▁موکول	-10.2079
▁نتوانست	-10.2079
▁نسبی	-10.2079
▁نشسته	-10.2079
▁نمکی	-10.2079
▁نوبخت	-10.2079
▁نوجوانی	-10.2079
▁ها.	-10.2079
▁هدیه	-10.2079
▁واکنشی	-10.2079
▁وحید	-10.2079
▁ویدیوی	-10.2079
▁پاسخی	-10.2079
▁پراکنده	-10.2079
▁پوشانده	-10.2079
▁کابینه	-10.2079
▁کادیلاک	-10.2079
▁کاربری	-10.2079
▁کرد.آقای	-10.2079
▁کسر	-10.2079
▁کشمکش	-10.2079
▁کشیدن	-10.2079
▁کلاب	-10.2079
▁کمتری	-10.2079
▁کنند،	-10.2079
▁کنوانسیون	-10.2079
▁کووید-۱۹	-10.2079
▁گانه	-10.2079
▁گذارد.	-10.2079
▁گرمای	-10.2079
▁گرند	-10.2079
▁گزارشگران	-10.2079
▁گفت:	-10.2079
▁گلف	-10.2079
▁گوگ	-10.2079
▁یونان	-10.2079
▁یوگا	-10.2079
▁۱۳۹۵	-10.2079
▁۲۰۰۵	-10.2079
▁۲۰۳۰	-10.2079
▁۴۶	-10.2079
▁۵۶	-10.2079
▁۸۰۰	-10.2079
▁،	-10.262
▁آرامگاه	-10.262
▁آیین	-10.262
▁اثری	-10.262
▁استیون	-10.262
▁اسلم	-10.262
▁اسپوتنیک	-10.262
▁اعتقاد	-10.262
▁اعدامیان	-10.262
▁امیرشاهی	-10.262
▁انبوه	-10.262
▁باب	-10.262
▁بازنشسته	-10.262
▁باستان	-10.262
▁برزیلی	-10.262
▁بریتانیا،	-10.262
▁بزند	-10.262
▁بشدت	-10.262
▁بلاروس	-10.262
▁بوشهر	-10.262
▁بگوییم	-10.262
▁بگیریم	-10.262
▁تالار	-10.262
▁تجلیل	-10.262
▁تحقق	-10.262
▁تحقیقی	-10.262
▁تخلفات	-10.262
▁تراشه	-10.262
▁تلقی	-10.262
▁تهران،	-10.262
▁توافقنامه	-10.262
▁جاشوا	-10.262
▁جسمی	-10.262
▁جلال	-10.262
▁جنس	-10.262
▁جیب	-10.262
▁حاجی	-10.262
▁حاکم	-10.262
▁حجاب	-10.262
▁حداد	-10.262
▁حرکات	-10.262
▁حکمتی	-10.262
▁حین	-10.262
▁خریداری	-10.262
▁خواهید	-10.262
▁خوشحال	-10.262
▁خوشنام	-10.262
▁داروها	-10.262
▁دامنه	-10.262
▁دانشکده	-10.262
▁درگذشتمنبع	-10.262
▁دموکرات	-10.262
▁دنیامنبع	-10.262
▁دوازده	-10.262
▁دوج	-10.262
▁دوستان	-10.262
▁دیپلمات	-10.262
▁راحتی	-10.262
▁راند	-10.262
▁رسید؛	-10.262
▁رفاه	-10.262
▁زخم	-10.262
▁زنجیره	-10.262
▁ساختن	-10.262
▁ساکنان	-10.262
▁سرباز	-10.262
▁سردبیر	-10.262
▁سرمربیگری	-10.262
▁سیمای	-10.262
▁سینه	-10.262
▁شاگردان	-10.262
▁شخص	-10.262
▁شدم	-10.262
▁شود؟منبع	-10.262
▁شیراز	-10.262
▁صادق	-10.262
▁صالحی	-10.262
▁عرض	-10.262
▁عقیده	-10.262
▁فتح	-10.262
▁فرصتی	-10.262
▁فرو	-10.262
▁قدرتمند	-10.262
▁لالیگا	-10.262
▁لهستان	-10.262
▁ماشینی	-10.262
▁مجانی	-10.262
▁محاکمه	-10.262
▁مربوطه	-10.262
▁مرگبار	-10.262
▁مس	-10.262
▁مسایل	-10.262
▁مشروط	-10.262
▁معارف	-10.262
▁مفهوم	-10.262
▁مقدس	-10.262
▁ملبورن	-10.262
▁منچستریونایتد	-10.262
▁مکتب	-10.262
▁مکرر	-10.262
▁میوه	-10.262
▁نامزدها	-10.262
▁ناچار	-10.262
▁نداشتن	-10.262
▁نسبتا	-10.262
▁نشریات	-10.262
▁نشود.	-10.262
▁نه.	-10.262
▁نکرد	-10.262
▁هفتمین	-10.262
▁هماهنگ	-10.262
▁همرسانی	-10.262
▁همگی	-10.262
▁همینطور	-10.262
▁وزرای	-10.262
▁وقایع	-10.262
▁ویلیام	-10.262
▁پارسی	-10.262
▁پدری	-10.262
▁پرسی	-10.262
▁پرهیز	-10.262
▁پناهجویان	-10.262
▁پناهندگی	-10.262
▁پوش	-10.262
▁ژوزه	-10.262
▁کارشان	-10.262
▁کارگروه	-10.262
▁کرد.منبع	-10.262
▁کرده.	-10.262
▁کشور،	-10.262
▁کشی	-10.262
▁کلود	-10.262
▁کندی	-10.262
▁کووید۱۹	-10.262
▁گازهای	-10.262
▁گازی	-10.262
▁گرگ	-10.262
▁گم	-10.262
▁یادداشت	-10.262
▁یادگیری	-10.262
▁یحیی	-10.262
▁یکسال	-10.262
▁۱۹۹۰	-10.262
▁۹۰۰	-10.262
▁؛	-10.3192
▁آر	-10.3192
▁آماری	-10.3192
▁آمریکا؛	-10.3192
▁آویو	-10.3192
▁اتلتیکو	-10.3192
▁اساسنامه	-10.3192
▁است.محمد	-10.3192
▁استخر	-10.3192
▁استراتژی	-10.3192
▁اشغال	-10.3192
▁اشک	-10.3192
▁افکار	-10.3192
▁الیزابت	-10.3192
▁انتقادی	-10.3192
▁انصاریان	-10.3192
▁انفجاری	-10.3192
▁اکسید	-10.3192
▁ایرانی،	-10.3192
▁اینستاگرامی	-10.3192
▁بجای	-10.3192
▁بدانیم	-10.3192
▁بردند	-10.3192
▁بست	-10.3192
▁بعید	-10.3192
▁بود.آقای	-10.3192
▁بود.او	-10.3192
▁بگیرند	-10.3192
▁بیل	-10.3192
▁تأثیر	-10.3192
▁تأیید	-10.3192
▁تخیلی	-10.3192
▁تدریج	-10.3192
▁تسلیم	-10.3192
▁تسنیم	-10.3192
▁تصمیمات	-10.3192
▁تعبیر	-10.3192
▁تقویم	-10.3192
▁تنوع	-10.3192
▁تولیدات	-10.3192
▁تیرماه	-10.3192
▁ثروتمندترین	-10.3192
▁جانشان	-10.3192
▁جانی	-10.3192
▁جین	-10.3192
▁حافظه	-10.3192
▁حامی	-10.3192
▁حامیان	-10.3192
▁حاکمیت	-10.3192
▁حدی	-10.3192
▁خارا	-10.3192
▁خاکسپاری	-10.3192
▁خرابکاری	-10.3192
▁خرسندی	-10.3192
▁خریده	-10.3192
▁خودتان	-10.3192
▁دارا	-10.3192
▁دانم	-10.3192
▁دردسر	-10.3192
▁دماوند	-10.3192
▁دهمین	-10.3192
▁دوش	-10.3192
▁رئیسه	-10.3192
▁رابرت	-10.3192
▁رایحه	-10.3192
▁رتکلیف	-10.3192
▁ردیابی	-10.3192
▁رسیدند	-10.3192
▁رنج	-10.3192
▁روحانی،	-10.3192
▁رکورددار	-10.3192
▁ریچارد	-10.3192
▁زوال	-10.3192
▁ساحلی	-10.3192
▁سالمندان	-10.3192
▁سایبری	-10.3192
▁سرنگون	-10.3192
▁سون	-10.3192
▁سویه	-10.3192
▁سیل	-10.3192
▁شدندمنبع	-10.3192
▁شریفی	-10.3192
▁شغلی	-10.3192
▁شلاق	-10.3192
▁شمسی	-10.3192
▁شوید	-10.3192
▁صنفی	-10.3192
▁ضعف	-10.3192
▁طرفدار	-10.3192
▁علامت	-10.3192
▁فاقد	-10.3192
▁فراوانی	-10.3192
▁فرگوسن	-10.3192
▁فرین	-10.3192
▁فلسفه	-10.3192
▁فلوید	-10.3192
▁فوتی	-10.3192
▁فیس	-10.3192
▁قوا	-10.3192
▁لاتین	-10.3192
▁لحظات	-10.3192
▁لمس	-10.3192
▁مایک	-10.3192
▁مبدا	-10.3192
▁مجاهدین	-10.3192
▁محور	-10.3192
▁مختل	-10.3192
▁مخصوص	-10.3192
▁مرا	-10.3192
▁مرتکب	-10.3192
▁مرغداران	-10.3192
▁مسافربری	-10.3192
▁مسافرت	-10.3192
▁مستندی	-10.3192
▁مشکوک	-10.3192
▁مصطفی	-10.3192
▁معترض	-10.3192
▁مغازه	-10.3192
▁مقطعی	-10.3192
▁مواضع	-10.3192
▁مکانیسم	-10.3192
▁میز	-10.3192
▁میلیونی	-10.3192
▁نرخی	-10.3192
▁نهاده	-10.3192
▁نیازهای	-10.3192
▁همکاران	-10.3192
▁هواوی	-10.3192
▁واقعه	-10.3192
▁وجه	-10.3192
▁وحدت	-10.3192
▁وحشی	-10.3192
▁وصل	-10.3192
▁ویروسی	-10.3192
▁پسرش	-10.3192
▁پنجه	-10.3192
▁پوگبا	-10.3192
▁پیشرفته	-10.3192
▁کارداشیان	-10.3192
▁کارشناسی	-10.3192
▁کالج	-10.3192
▁کمربند	-10.3192
▁کنند؛	-10.3192
▁کیوان	-10.3192
▁گردد.	-10.3192
▁گشت	-10.3192
▁یادداشتی	-10.3192
▁آزمایشگاهی	-10.3798
▁آزمون	-10.3798
▁آسوشیتدپرس	-10.3798
▁آهنگساز	-10.3798
▁ئی	-10.3798
▁ابتکار	-10.3798
▁اتحاد	-10.3798
▁اتهامی	-10.3798
▁ادای	-10.3798
▁ارزشمند	-10.3798
▁ارگ	-10.3798
▁است'منبع	-10.3798
▁استون	-10.3798
▁اشتراک	-10.3798
▁اطلاعی	-10.3798
▁اظهارنظر	-10.3798
▁اعماق	-10.3798
▁افزار	-10.3798
▁افسر	-10.3798
▁افشار	-10.3798
▁اما	-10.3798
▁اواسط	-10.3798
▁بارسا	-10.3798
▁بازگشته	-10.3798
▁بخاطر	-10.3798
▁بدخشان	-10.3798
▁بدرفتاری	-10.3798
▁بدهند	-10.3798
▁برداشتن	-10.3798
▁برود.	-10.3798
▁بروکسل	-10.3798
▁بزرگتر	-10.3798
▁بنیادی	-10.3798
▁بودا	-10.3798
▁بودند،	-10.3798
▁بورل	-10.3798
▁بینایی	-10.3798
▁تابلو	-10.3798
▁تاک	-10.3798
▁تتلو	-10.3798
▁تجویز	-10.3798
▁تخصصی	-10.3798
▁ترسناک	-10.3798
▁تضمین	-10.3798
▁تعهداتش	-10.3798
▁تفریحی	-10.3798
▁تقریباً	-10.3798
▁تلافی	-10.3798
▁تلف	-10.3798
▁تولیدی	-10.3798
▁جردن	-10.3798
▁جستجو	-10.3798
▁حرم	-10.3798
▁حیدری	-10.3798
▁خالکوبی	-10.3798
▁خزانه	-10.3798
▁خواند.	-10.3798
▁خودران	-10.3798
▁خوک	-10.3798
▁دارد.این	-10.3798
▁دانشجویی	-10.3798
▁داور	-10.3798
▁درگذشته	-10.3798
▁دوانی	-10.3798
▁دورتموند	-10.3798
▁دیگر،	-10.3798
▁راس	-10.3798
▁رانی	-10.3798
▁رایج	-10.3798
▁رحم	-10.3798
▁رقابتی	-10.3798
▁رودخانه	-10.3798
▁روستا	-10.3798
▁ری	-10.3798
▁زنانی	-10.3798
▁زنجان	-10.3798
▁زیستگاه	-10.3798
▁سادات	-10.3798
▁ساشا	-10.3798
▁ستایش	-10.3798
▁سرخیو	-10.3798
▁سرویس	-10.3798
▁سرگیری	-10.3798
▁سناتور	-10.3798
▁سیاستمداران	-10.3798
▁شد'منبع	-10.3798
▁شد.به	-10.3798
▁شعله	-10.3798
▁شناسان	-10.3798
▁شنیدن	-10.3798
▁شود.به	-10.3798
▁شی	-10.3798
▁صداوسیما	-10.3798
▁طوفان	-10.3798
▁عجله	-10.3798
▁علاقمندان	-10.3798
▁عنکبوت	-10.3798
▁غار	-10.3798
▁فن؛	-10.3798
▁قاب	-10.3798
▁قدمت	-10.3798
▁قزاقستان	-10.3798
▁قلم	-10.3798
▁لزوم	-10.3798
▁لیست	-10.3798
▁مارماهی	-10.3798
▁متعهد	-10.3798
▁محوطه	-10.3798
▁مداوم	-10.3798
▁مرتب	-10.3798
▁مرجع	-10.3798
▁مرس	-10.3798
▁مرگش	-10.3798
▁مزرعه	-10.3798
▁مسلمان	-10.3798
▁مسکو	-10.3798
▁مسیرهای	-10.3798
▁مطهری	-10.3798
▁مهلت	-10.3798
▁موجی	-10.3798
▁مگاوات	-10.3798
▁ناراحت	-10.3798
▁نداشت.	-10.3798
▁نشیب	-10.3798
▁نصف	-10.3798
▁نظرات	-10.3798
▁نظم	-10.3798
▁نهمین	-10.3798
▁نوسانات	-10.3798
▁نکند	-10.3798
▁هشتگ	-10.3798
▁هواپیماهای	-10.3798
▁ویرجیل	-10.3798
▁پادشاهی	-10.3798
▁پالایشگاهی	-10.3798
▁پایدار	-10.3798
▁پرتره	-10.3798
▁پلاک	-10.3798
▁پلنگ	-10.3798
▁پیرلو	-10.3798
▁پیشتاز	-10.3798
▁ژنتیک	-10.3798
▁ژنو	-10.3798
▁کاربرد	-10.3798
▁کارگاه	-10.3798
▁کارگردانان	-10.3798
▁کرد.او	-10.3798
▁کشتار	-10.3798
▁کفش	-10.3798
▁کمدین	-10.3798
▁کنید.	-10.3798
▁کهن	-10.3798
▁کپی	-10.3798
▁کیلویی	-10.3798
▁کیهان	-10.3798
▁گرا	-10.3798
▁گراندپری	-10.3798
▁گرفتم	-10.3798
▁گلی	-10.3798
▁۱۳۹۶	-10.3798
▁۲۰۰۴	-10.3798
▁۲۰۱۳	-10.3798
▁۶۴	-10.3798
▁۷۲	-10.3798
▁.به	-10.4443
▁آتالانتا	-10.4443
▁آسیای	-10.4443
▁آشوری	-10.4443
▁آنطور	-10.4443
▁آگاهی	-10.4443
▁آیند	-10.4443
▁احسان	-10.4443
▁احیا	-10.4443
▁ادب	-10.4443
▁اردوگاه	-10.4443
▁اسد	-10.4443
▁اسماعیل	-10.4443
▁اعتبارنامه	-10.4443
▁اعتراف	-10.4443
▁اعلامیه	-10.4443
▁افزاری	-10.4443
▁افشنگ	-10.4443
▁الانبیا	-10.4443
▁الکس	-10.4443
▁الگوی	-10.4443
▁امی	-10.4443
▁انتقالات	-10.4443
▁انصراف	-10.4443
▁اکران	-10.4443
▁اید	-10.4443
▁ایفا	-10.4443
▁ایلان	-10.4443
▁بارداری	-10.4443
▁بتوانیم	-10.4443
▁بدنی	-10.4443
▁بدین	-10.4443
▁برانگیخته	-10.4443
▁برایم	-10.4443
▁برگزارکنندگان	-10.4443
▁بستر	-10.4443
▁بسرعت	-10.4443
▁بلوچ	-10.4443
▁بنکسی	-10.4443
▁بودند؛	-10.4443
▁بکشد	-10.4443
▁بگذارد	-10.4443
▁بگویم	-10.4443
▁بیروت	-10.4443
▁تاریخچه	-10.4443
▁تاریک	-10.4443
▁تاپی	-10.4443
▁تایلند	-10.4443
▁تبادل	-10.4443
▁تحسین	-10.4443
▁تحصیلات	-10.4443
▁تریلیون	-10.4443
▁تسهیلات	-10.4443
▁تشریح	-10.4443
▁تعزیری	-10.4443
▁تعمیر	-10.4443
▁تغذیه	-10.4443
▁تند	-10.4443
▁تهدیدی	-10.4443
▁توفان	-10.4443
▁تکیه	-10.4443
▁تیک	-10.4443
▁ثانوی	-10.4443
▁جالب	-10.4443
▁جبهه	-10.4443
▁جزییات	-10.4443
▁جنسیس	-10.4443
▁جهانپور	-10.4443
▁جهانگیری	-10.4443
▁حقیقی	-10.4443
▁خزر	-10.4443
▁خسارات	-10.4443
▁دارد،	-10.4443
▁داغستان	-10.4443
▁دان	-10.4443
▁داوری	-10.4443
▁داوطلبانه	-10.4443
▁دخترش	-10.4443
▁درخشش	-10.4443
▁درستی	-10.4443
▁دریابندری	-10.4443
▁دشمنان	-10.4443
▁دعوای	-10.4443
▁دیدگاه	-10.4443
▁ذهنی	-10.4443
▁رانندگی	-10.4443
▁رسم	-10.4443
▁رشوه	-10.4443
▁رصد	-10.4443
▁رفتاری	-10.4443
▁رمانی	-10.4443
▁رمزارز	-10.4443
▁روحانی:	-10.4443
▁ریالی	-10.4443
▁ریزش	-10.4443
▁زاویه	-10.4443
▁ساختار	-10.4443
▁سارا	-10.4443
▁سبز	-10.4443
▁سلامتی	-10.4443
▁سکوت	-10.4443
▁سیامک	-10.4443
▁سیصد	-10.4443
▁سیم	-10.4443
▁سیگار	-10.4443
▁شانزدهم	-10.4443
▁شاهکار	-10.4443
▁شاپور	-10.4443
▁شدیدتر	-10.4443
▁شدیدترین	-10.4443
▁شدیدی	-10.4443
▁شطرنج	-10.4443
▁شهریار	-10.4443
▁شهید	-10.4443
▁شور	-10.4443
▁شوم	-10.4443
▁صدد	-10.4443
▁ضدحمله	-10.4443
▁ضربات	-10.4443
▁عزم	-10.4443
▁غرامت	-10.4443
▁فرج	-10.4443
▁فروپاشی	-10.4443
▁فلیک	-10.4443
▁فوتبالیستی	-10.4443
▁لاله	-10.4443
▁مازاد	-10.4443
▁مالاریا	-10.4443
▁مامور	-10.4443
▁ماهیگیری	-10.4443
▁متقاضی	-10.4443
▁مخابرات	-10.4443
▁مدیترانه	-10.4443
▁مرعشی	-10.4443
▁مشکات	-10.4443
▁مطبوعات	-10.4443
▁معادن	-10.4443
▁معدود	-10.4443
▁مقامهای	-10.4443
▁مهمان	-10.4443
▁موجودی	-10.4443
▁مکعب	-10.4443
▁مگر	-10.4443
▁ناآرامی	-10.4443
▁ناامنی	-10.4443
▁نابغه	-10.4443
▁ناشناخته	-10.4443
▁ناوبری	-10.4443
▁نت	-10.4443
▁نروژ	-10.4443
▁نظرسنجی	-10.4443
▁نوآوری	-10.4443
▁نوازنده	-10.4443
▁نویی	-10.4443
▁نیست؛	-10.4443
▁هشتمین	-10.4443
▁همانطور	-10.4443
▁همایش	-10.4443
▁همتای	-10.4443
▁همجنس	-10.4443
▁واحدهای	-10.4443
▁واحدی	-10.4443
▁ودیعه	-10.4443
▁ورشکستگی	-10.4443
▁ورودی	-10.4443
▁وقف	-10.4443
▁ویدئوی	-10.4443
▁ویلا	-10.4443
▁پارالمپیک	-10.4443
▁پارس	-10.4443
▁پردازد	-10.4443
▁پروازها	-10.4443
▁پوستان	-10.4443
▁چشمگیری	-10.4443
▁چنانچه	-10.4443
▁کارگزاری	-10.4443
▁کامپیوتری	-10.4443
▁کامیون	-10.4443
▁کرده؛	-10.4443
▁کرونامنبع	-10.4443
▁کلام	-10.4443
▁کلان	-10.4443
▁کلید	-10.4443
▁کلیک	-10.4443
▁کمپین	-10.4443
▁کنندمنبع	-10.4443
▁گر	-10.4443
▁گرایانه	-10.4443
▁گرایی	-10.4443
▁گریز	-10.4443
▁گلخانه	-10.4443
▁گلزن	-10.4443
▁گنجینه	-10.4443
▁گیاهی	-10.4443
▁یر	-10.4443
▁یورش	-10.4443
▁یووه	-10.4443
▁یکبار	-10.4443
▁یکسان	-10.4443
▁۱۷۰	-10.4443
▁۱۹۶۰	-10.4443
▁۴۱	-10.4443
▁۵۹	-10.4443
▁۷۴	-10.4443
▁۷۸	-10.4443
▁۹۴	-10.4443
▁(	-10.5133
▁.منبع	-10.5133
▁آثارش	-10.5133
▁آثاری	-10.5133
▁آرای	-10.5133
▁آرش	-10.5133
▁آزمایشگاه	-10.5133
▁آشفته	-10.5133
▁آمارها	-10.5133
▁ادعاهای	-10.5133
▁ارجاع	-10.5133
▁است.دولت	-10.5133
▁استاندارد	-10.5133
▁استخدام	-10.5133
▁اسرار	-10.5133
▁اصرار	-10.5133
▁اعتیاد	-10.5133
▁افتادن	-10.5133
▁ام.	-10.5133
▁انتظارات	-10.5133
▁انتقادهای	-10.5133
▁انیس	-10.5133
▁اوباما	-10.5133
▁اکس	-10.5133
▁ایالتی	-10.5133
▁ایرباس	-10.5133
▁ایرج	-10.5133
▁بازارها	-10.5133
▁بازخوانی	-10.5133
▁بازمی	-10.5133
▁باشیم.	-10.5133
▁بانکها	-10.5133
▁بختیاری	-10.5133
▁برایتون	-10.5133
▁برگ	-10.5133
▁برگشته	-10.5133
▁بلندمدت	-10.5133
▁بلوکه	-10.5133
▁بهایی	-10.5133
▁بهروز	-10.5133
▁بودم.	-10.5133
▁بوده؛	-10.5133
▁بگیرند.	-10.5133
▁بینیم	-10.5133
▁تبعید	-10.5133
▁تحریمهای	-10.5133
▁تعادل	-10.5133
▁تیره	-10.5133
▁جانبه	-10.5133
▁جت	-10.5133
▁جهان،	-10.5133
▁جهانبخش	-10.5133
▁حساسیت	-10.5133
▁خالص	-10.5133
▁خانوار	-10.5133
▁خبرگان	-10.5133
▁خران	-10.5133
▁خرده	-10.5133
▁خواهی	-10.5133
▁خونین	-10.5133
▁داردمنبع	-10.5133
▁داروسازی	-10.5133
▁داغ	-10.5133
▁درآمدی	-10.5133
▁درج	-10.5133
▁دستگاهی	-10.5133
▁دشت	-10.5133
▁دشمن	-10.5133
▁دقایقی	-10.5133
▁دلایلی	-10.5133
▁دهد؛	-10.5133
▁دود	-10.5133
▁دوری	-10.5133
▁دوگانه	-10.5133
▁دیدارهای	-10.5133
▁ذره	-10.5133
▁راک	-10.5133
▁رفتند	-10.5133
▁رهنورد	-10.5133
▁روایتی	-10.5133
▁روجا	-10.5133
▁رویا	-10.5133
▁زازی	-10.5133
▁زبانی	-10.5133
▁زغال	-10.5133
▁زهره	-10.5133
▁سانتریفیوژ	-10.5133
▁سرنشین	-10.5133
▁سطوح	-10.5133
▁سلف	-10.5133
▁سوارز	-10.5133
▁سیاوش	-10.5133
▁سید	-10.5133
▁شایعه	-10.5133
▁شرح	-10.5133
▁شریف	-10.5133
▁شهردار	-10.5133
▁شوخی	-10.5133
▁شوداین	-10.5133
▁شیمی	-10.5133
▁صحت	-10.5133
▁صحیح	-10.5133
▁صخره	-10.5133
▁صدمه	-10.5133
▁طرز	-10.5133
▁طرفه	-10.5133
▁غیاب	-10.5133
▁فدرال	-10.5133
▁فراگیر	-10.5133
▁فرماندهان	-10.5133
▁فریدون	-10.5133
▁فضانورد	-10.5133
▁فلزی	-10.5133
▁فین	-10.5133
▁قبال	-10.5133
▁قراردادهای	-10.5133
▁قرص	-10.5133
▁قرعه	-10.5133
▁قسمتی	-10.5133
▁قطعات	-10.5133
▁قفل	-10.5133
▁لامبورگینی	-10.5133
▁لوفت	-10.5133
▁مازندران	-10.5133
▁ماشه	-10.5133
▁مایه	-10.5133
▁متحول	-10.5133
▁مجددا	-10.5133
▁محض	-10.5133
▁مخابراتی	-10.5133
▁مخدر	-10.5133
▁مداخله	-10.5133
▁مرتضی	-10.5133
▁مستقیما	-10.5133
▁مستمر	-10.5133
▁مسیری	-10.5133
▁مصلحت	-10.5133
▁مطبوعاتی	-10.5133
▁معلق	-10.5133
▁معلم	-10.5133
▁معیشتی	-10.5133
▁مغناطیسی	-10.5133
▁مفقود	-10.5133
▁مقیم	-10.5133
▁منزل	-10.5133
▁منطقی	-10.5133
▁منظر	-10.5133
▁منوچهر	-10.5133
▁مهندس	-10.5133
▁موسس	-10.5133
▁میلیاردر	-10.5133
▁ناتمام	-10.5133
▁ناقص	-10.5133
▁ناکام	-10.5133
▁نمادین	-10.5133
▁نوار	-10.5133
▁نوجوانان	-10.5133
▁نوید	-10.5133
▁نویسد	-10.5133
▁نکات	-10.5133
▁نیازی	-10.5133
▁نیسان	-10.5133
▁هانزا	-10.5133
▁هرکدام	-10.5133
▁هستید	-10.5133
▁همدیگر	-10.5133
▁همکارانش	-10.5133
▁هوادار	-10.5133
▁والش	-10.5133
▁وطن	-10.5133
▁ویزای	-10.5133
▁پانزدهم	-10.5133
▁پراید	-10.5133
▁پرطرفدار	-10.5133
▁پشتیبانی	-10.5133
▁پنجشیر	-10.5133
▁پوتین	-10.5133
▁پیشرو	-10.5133
▁چهاردهم	-10.5133
▁کاران	-10.5133
▁کلاهبرداری	-10.5133
▁کند؟منبع	-10.5133
▁کنسولگری	-10.5133
▁کنند.این	-10.5133
▁کنند.منبع	-10.5133
▁کوهن	-10.5133
▁کوچکتر	-10.5133
▁کیانوش	-10.5133
▁گذر	-10.5133
▁گذراندن	-10.5133
▁گرمایش	-10.5133
▁گزارشها	-10.5133
▁گفتگوهای	-10.5133
▁گفتگوی	-10.5133
▁گوایدو	-10.5133
▁گورهای	-10.5133
▁۱۷۶	-10.5133
▁۳۵۰	-10.5133
▁۵۳	-10.5133
▁۷۳	-10.5133
▁۸۵	-10.5133
▁.آیت	-10.5874
▁آذری	-10.5874
▁آرشیو	-10.5874
▁آسمایی	-10.5874
▁آشام	-10.5874
▁آشنایی	-10.5874
▁آقایان	-10.5874
▁آندری	-10.5874
▁آنهایی	-10.5874
▁آیرس	-10.5874
▁ابهام	-10.5874
▁اتوبوس	-10.5874
▁اتومبیلرانی	-10.5874
▁اتکا	-10.5874
▁اجبار	-10.5874
▁احتیاط	-10.5874
▁اراضی	-10.5874
▁اروپا:	-10.5874
▁است.بیشتر	-10.5874
▁است.خانم	-10.5874
▁است.روز	-10.5874
▁است.وزارت	-10.5874
▁استثنا	-10.5874
▁اسنپ	-10.5874
▁اصابت	-10.5874
▁اصول	-10.5874
▁امواج	-10.5874
▁امیدوارند	-10.5874
▁انتخابی	-10.5874
▁انداختن	-10.5874
▁اندک	-10.5874
▁ایران.	-10.5874
▁باراک	-10.5874
▁بازنگری	-10.5874
▁بازیهای	-10.5874
▁بافت	-10.5874
▁بالاتری	-10.5874
▁بالغ	-10.5874
▁باورنکردنی	-10.5874
▁ببر	-10.5874
▁ببرد	-10.5874
▁بردند.	-10.5874
▁برلین	-10.5874
▁برند	-10.5874
▁بقایای	-10.5874
▁بناهای	-10.5874
▁بوکسور	-10.5874
▁بیکار	-10.5874
▁تابستانی	-10.5874
▁تان	-10.5874
▁تایگر	-10.5874
▁تجزیه	-10.5874
▁ترمیم	-10.5874
▁تقدیم	-10.5874
▁تماشاچی	-10.5874
▁تمدن	-10.5874
▁توانید	-10.5874
▁توده	-10.5874
▁تکنولوژی	-10.5874
▁ثباتی	-10.5874
▁جلد	-10.5874
▁جنایی	-10.5874
▁جنگی	-10.5874
▁جودوی	-10.5874
▁جیمزباند	-10.5874
▁جیپ	-10.5874
▁حافظ	-10.5874
▁حدس	-10.5874
▁حراجی	-10.5874
▁حومه	-10.5874
▁حیوان	-10.5874
▁خریدار	-10.5874
▁خشن	-10.5874
▁خطای	-10.5874
▁خطی	-10.5874
▁خلاقیت	-10.5874
▁خلوت	-10.5874
▁خواه	-10.5874
▁خودی	-10.5874
▁دارید	-10.5874
▁دبیرخانه	-10.5874
▁دربند	-10.5874
▁درخشانی	-10.5874
▁دستکاری	-10.5874
▁دلیلی	-10.5874
▁دما	-10.5874
▁دهان	-10.5874
▁دهندگان	-10.5874
▁دهک	-10.5874
▁دوستش	-10.5874
▁دوستی	-10.5874
▁دیداری	-10.5874
▁دینی	-10.5874
▁رایت	-10.5874
▁رساند.	-10.5874
▁رضایت	-10.5874
▁رضایی	-10.5874
▁رفتارهای	-10.5874
▁رنگی	-10.5874
▁روال	-10.5874
▁روانه	-10.5874
▁روبروی	-10.5874
▁رژیم	-10.5874
▁رینگ	-10.5874
▁زحمت	-10.5874
▁زمستانی	-10.5874
▁زیبا	-10.5874
▁سارس	-10.5874
▁سالیوان	-10.5874
▁سختگیرانه	-10.5874
▁سده	-10.5874
▁سرعتی	-10.5874
▁سرفه	-10.5874
▁سریالی	-10.5874
▁سفری	-10.5874
▁سلطانی	-10.5874
▁سنی	-10.5874
▁سکته	-10.5874
▁سیلندر	-10.5874
▁شاعران	-10.5874
▁شاهنامه	-10.5874
▁شتم	-10.5874
▁شرکای	-10.5874
▁شناسند	-10.5874
▁شهرک	-10.5874
▁شواهدی	-10.5874
▁شیلی	-10.5874
▁ظن	-10.5874
▁عاشقانه	-10.5874
▁غیرنفتی	-10.5874
▁فروشندگان	-10.5874
▁فزاینده	-10.5874
▁فضاهای	-10.5874
▁فوریت	-10.5874
▁فیلتر	-10.5874
▁فیلمبرداری	-10.5874
▁قطعیت	-10.5874
▁قم	-10.5874
▁لاریجانی	-10.5874
▁لگن	-10.5874
▁ماریا	-10.5874
▁مالکان	-10.5874
▁مانه	-10.5874
▁مت	-10.5874
▁مدعیان	-10.5874
▁مرجانی	-10.5874
▁مصرفی	-10.5874
▁مصلی	-10.5874
▁معاف	-10.5874
▁مند	-10.5874
▁مهاجمان	-10.5874
▁مواقع	-10.5874
▁موجودات	-10.5874
▁موقعیتی	-10.5874
▁مولوی	-10.5874
▁میمندی	-10.5874
▁نابود	-10.5874
▁ناشناس	-10.5874
▁ناپذیری	-10.5874
▁نداریم.	-10.5874
▁ندیده	-10.5874
▁نزدیکان	-10.5874
▁نزولی	-10.5874
▁نمای	-10.5874
▁نویسندگی	-10.5874
▁نکنند	-10.5874
▁نگاران	-10.5874
▁نیجریه	-10.5874
▁نیوکاسل	-10.5874
▁هست.	-10.5874
▁هستم	-10.5874
▁هشتصد	-10.5874
▁هل	-10.5874
▁هکرها	-10.5874
▁واضح	-10.5874
▁ویدئو	-10.5874
▁ویکتور	-10.5874
▁پائین	-10.5874
▁پرآوازه	-10.5874
▁پستی	-10.5874
▁پلی	-10.5874
▁پوری	-10.5874
▁پیش،	-10.5874
▁پیشکسوت	-10.5874
▁پیکان	-10.5874
▁کارایی	-10.5874
▁کاهشی	-10.5874
▁کرایسلر	-10.5874
▁کرج	-10.5874
▁کرد.به	-10.5874
▁کردیم.	-10.5874
▁کنند.در	-10.5874
▁کوبا	-10.5874
▁کیت	-10.5874
▁کیلو	-10.5874
▁کین	-10.5874
▁گذاشتند	-10.5874
▁گذرانده	-10.5874
▁گردآوری	-10.5874
▁گرمی	-10.5874
▁گزارش،	-10.5874
▁گویی	-10.5874
▁یادآور	-10.5874
▁یادبود	-10.5874
▁یونسکو	-10.5874
▁۱۹۴۰	-10.5874
▁۱۹۸۲	-10.5874
▁۲۰۰۱	-10.5874
▁۶۸	-10.5874
▁'در	-10.6675
▁(آمریکا)،	-10.6675
▁(کانادا)،	-10.6675
▁.در	-10.6675
▁آث	-10.6675
▁آرزوی	-10.6675
▁آلن	-10.6675
▁آمدند	-10.6675
▁آمستردام	-10.6675
▁آن،	-10.6675
▁آنتونیو	-10.6675
▁آنفلوآنزا	-10.6675
▁آنفیلد	-10.6675
▁اتخاذ	-10.6675
▁احساسی	-10.6675
▁اخلاقی	-10.6675
▁است.بعضی	-10.6675
▁است.بنا	-10.6675
▁است.خبرگزاری	-10.6675
▁است.یکی	-10.6675
▁استریت	-10.6675
▁استعداد	-10.6675
▁استقرار	-10.6675
▁اسپیرز	-10.6675
▁افتتاحیه	-10.6675
▁افشای	-10.6675
▁افغانستان،	-10.6675
▁اقتدار	-10.6675
▁الحسن	-10.6675
▁القرض	-10.6675
▁الیاس	-10.6675
▁امامی	-10.6675
▁امانوئل	-10.6675
▁امضاکنندگان	-10.6675
▁امیدواریم	-10.6675
▁اندام	-10.6675
▁اندمنبع	-10.6675
▁اندی	-10.6675
▁اندیشه	-10.6675
▁انوشه	-10.6675
▁انگشت	-10.6675
▁ایر	-10.6675
▁ایراد	-10.6675
▁ایشان	-10.6675
▁اینک	-10.6675
▁بارز	-10.6675
▁باروری	-10.6675
▁بازنشستگی	-10.6675
▁بازوی	-10.6675
▁بازگردانده	-10.6675
▁باشد.این	-10.6675
▁باقیمانده	-10.6675
▁ببینند	-10.6675
▁بخاری	-10.6675
▁بختگان	-10.6675
▁برهنه	-10.6675
▁بنتلی	-10.6675
▁بود.اما	-10.6675
▁بگذارد.	-10.6675
▁بیم	-10.6675
▁تاب	-10.6675
▁تاریکی	-10.6675
▁تاکتیکی	-10.6675
▁تخلیه	-10.6675
▁تدریس	-10.6675
▁ترافیک	-10.6675
▁ترغیب	-10.6675
▁تشکر	-10.6675
▁تقدیر	-10.6675
▁توانگر	-10.6675
▁توخل	-10.6675
▁توضیحات	-10.6675
▁جانب	-10.6675
▁جرایم	-10.6675
▁جست	-10.6675
▁جف	-10.6675
▁جم	-10.6675
▁جنایت	-10.6675
▁حبیب	-10.6675
▁حفاری	-10.6675
▁حیدرآبادی	-10.6675
▁خادم	-10.6675
▁خالق	-10.6675
▁خبرنامه	-10.6675
▁خبرها	-10.6675
▁خنده	-10.6675
▁خواجه	-10.6675
▁خواهر	-10.6675
▁خود،	-10.6675
▁دائمی	-10.6675
▁داد؛	-10.6675
▁دارد.به	-10.6675
▁دارد.منبع	-10.6675
▁داشت؛	-10.6675
▁دامی	-10.6675
▁درگذشت.او	-10.6675
▁دستاورد	-10.6675
▁دندان	-10.6675
▁دهم.	-10.6675
▁دهید	-10.6675
▁دورانی	-10.6675
▁دورتر	-10.6675
▁دومینیک	-10.6675
▁رانت	-10.6675
▁راپینو	-10.6675
▁رایان	-10.6675
▁رجایی	-10.6675
▁رشفورد	-10.6675
▁رمدسیویر	-10.6675
▁رنگین	-10.6675
▁روشی	-10.6675
▁ریل	-10.6675
▁زنگ	-10.6675
▁زودهنگام	-10.6675
▁زیرساخت	-10.6675
▁سئول	-10.6675
▁ساقط	-10.6675
▁ساکی	-10.6675
▁سدان	-10.6675
▁سرش	-10.6675
▁سلتیک	-10.6675
▁سلسله	-10.6675
▁سوری	-10.6675
▁سیارک	-10.6675
▁سیبری	-10.6675
▁سیزدهمین	-10.6675
▁سینماها	-10.6675
▁شادی	-10.6675
▁شارژ	-10.6675
▁شد؟منبع	-10.6675
▁شرکتی	-10.6675
▁شستا	-10.6675
▁شمارش	-10.6675
▁شود.او	-10.6675
▁شوند،	-10.6675
▁شگفتی	-10.6675
▁شیکاگو	-10.6675
▁صفرها	-10.6675
▁صیانت	-10.6675
▁طرفی	-10.6675
▁طعم	-10.6675
▁ظریف؛	-10.6675
▁عارف	-10.6675
▁عازم	-10.6675
▁عاملان	-10.6675
▁غفوری	-10.6675
▁غلامحسین	-10.6675
▁غیرممکن	-10.6675
▁غیرنظامی	-10.6675
▁فجر	-10.6675
▁فخری	-10.6675
▁فراگیری	-10.6675
▁فرزندش	-10.6675
▁فرستاد	-10.6675
▁فرض	-10.6675
▁فیلمساز	-10.6675
▁قبر	-10.6675
▁قبرس	-10.6675
▁قدمی	-10.6675
▁قسطی	-10.6675
▁قشم	-10.6675
▁قطری	-10.6675
▁قوای	-10.6675
▁لاری	-10.6675
▁لب	-10.6675
▁لوایح	-10.6675
▁لیور،	-10.6675
▁مأموران	-10.6675
▁مارچلو	-10.6675
▁مازراتی	-10.6675
▁ماندگار	-10.6675
▁متحدان	-10.6675
▁متحمل	-10.6675
▁متروکه	-10.6675
▁محترم	-10.6675
▁مخلوف	-10.6675
▁مدام	-10.6675
▁مدتها	-10.6675
▁مدرک	-10.6675
▁مردگان	-10.6675
▁مزایای	-10.6675
▁مسافت	-10.6675
▁مسلمانان	-10.6675
▁مسیحی	-10.6675
▁مشروطه	-10.6675
▁مطالب	-10.6675
▁مطلوب	-10.6675
▁مظاهری	-10.6675
▁معاینه	-10.6675
▁معوقه	-10.6675
▁معیار	-10.6675
▁ممانعت	-10.6675
▁منصوب	-10.6675
▁مهرابی	-10.6675
▁مواجهه	-10.6675
▁موستانگ	-10.6675
▁مکانی	-10.6675
▁مکمل	-10.6675
▁میلوش	-10.6675
▁نامناسب	-10.6675
▁نحوی	-10.6675
▁ندارم	-10.6675
▁نشین	-10.6675
▁نمادهای	-10.6675
▁نمایشنامه	-10.6675
▁نوستالژی	-10.6675
▁نژادپرستانه	-10.6675
▁نکنید	-10.6675
▁هاست.	-10.6675
▁هفدهم	-10.6675
▁هلی	-10.6675
▁همانند	-10.6675
▁هیچکس	-10.6675
▁واسطه	-10.6675
▁والدین	-10.6675
▁ور	-10.6675
▁پایش	-10.6675
▁پررنگ	-10.6675
▁پری	-10.6675
▁پنگوئن	-10.6675
▁پیتر	-10.6675
▁پیچ	-10.6675
▁چاپک	-10.6675
▁چربی	-10.6675
▁کاربر	-10.6675
▁کارتو	-10.6675
▁کارزاری	-10.6675
▁کاسه	-10.6675
▁کامپیوتر	-10.6675
▁کانادایی	-10.6675
▁کانسپت	-10.6675
▁کاوازاکی	-10.6675
▁کاوه	-10.6675
▁کاپیتان:	-10.6675
▁کریستوفر	-10.6675
▁کریسمس	-10.6675
▁کشید.	-10.6675
▁کما	-10.6675
▁کند.اما	-10.6675
▁کند.به	-10.6675
▁کودتا	-10.6675
▁کودتای	-10.6675
▁کوهستان	-10.6675
▁کینگ	-10.6675
▁گابریل	-10.6675
▁گذرد،	-10.6675
▁گرفتار	-10.6675
▁گرفتند.	-10.6675
▁گفتن	-10.6675
▁گفتگویی	-10.6675
▁گلایه	-10.6675
▁گلمکانی	-10.6675
▁گلوب	-10.6675
▁گوگل	-10.6675
▁گوی	-10.6675
▁یورویی	-10.6675
▁یگان	-10.6675
▁۱۳۵۷	-10.6675
▁۱۹۷۰	-10.6675
▁۱۹۸۰	-10.6675
▁۳۰۰۰	-10.6675
▁۶۱	-10.6675
▁۶۵۰	-10.6675
▁۸۳	-10.6675
▁۸۹	-10.6675
▁آبراموویچ	-10.7545
▁آسیبی	-10.7545
▁آغداشلو	-10.7545
▁آموزگار	-10.7545
▁آوردند.	-10.7545
▁آورند	-10.7545
▁ابر	-10.7545
▁اتصال	-10.7545
▁اختیاری	-10.7545
▁اخذ	-10.7545
▁اخطار	-10.7545
▁ادارات	-10.7545
▁اذیت	-10.7545
▁ارث	-10.7545
▁است.بانک	-10.7545
▁است.پس	-10.7545
▁است.پیش	-10.7545
▁است.یک	-10.7545
▁استبا	-10.7545
▁استیضاح	-10.7545
▁اسفندماه	-10.7545
▁اسلامی،	-10.7545
▁اسلحه	-10.7545
▁اسکاتلندی	-10.7545
▁اقبال	-10.7545
▁اقتصادهای	-10.7545
▁الماس	-10.7545
▁الی	-10.7545
▁امان	-10.7545
▁امتداد	-10.7545
▁انتقادات	-10.7545
▁انتهای	-10.7545
▁اندازد	-10.7545
▁انقلابی	-10.7545
▁اپیدمی	-10.7545
▁اچ	-10.7545
▁ایوانکوویچ	-10.7545
▁باردار	-10.7545
▁بازهم	-10.7545
▁بالقوه	-10.7545
▁باهم	-10.7545
▁ببینید.	-10.7545
▁بدنش	-10.7545
▁بدوی	-10.7545
▁بردارد	-10.7545
▁برساند.	-10.7545
▁برف	-10.7545
▁برند.	-10.7545
▁برکناری	-10.7545
▁بزنند	-10.7545
▁بستگی	-10.7545
▁بفتا	-10.7545
▁بقای	-10.7545
▁بلژیکی	-10.7545
▁بمب	-10.7545
▁بهاری	-10.7545
▁بهانه	-10.7545
▁بوی	-10.7545
▁بیستمین	-10.7545
▁بیفتد	-10.7545
▁بیننده	-10.7545
▁تأکید	-10.7545
▁تئوری	-10.7545
▁ترابی	-10.7545
▁تشبیه	-10.7545
▁تصویربرداری	-10.7545
▁تضاد	-10.7545
▁تفسیر	-10.7545
▁تنگ	-10.7545
▁تهرانمنبع	-10.7545
▁توجیه	-10.7545
▁تورهای	-10.7545
▁توریستی	-10.7545
▁تونی	-10.7545
▁ثروتمند	-10.7545
▁جایگاهی	-10.7545
▁جایگزینی	-10.7545
▁جدیدترین	-10.7545
▁جزئیاتی	-10.7545
▁جعفری	-10.7545
▁جورجیا	-10.7545
▁جکسون	-10.7545
▁حاد	-10.7545
▁حال،	-10.7545
▁حفره	-10.7545
▁خدا	-10.7545
▁خرچنگ	-10.7545
▁خستگی	-10.7545
▁خطرات	-10.7545
▁خلیل	-10.7545
▁خوانی	-10.7545
▁خوست	-10.7545
▁دادم	-10.7545
▁داده.	-10.7545
▁دانشجو	-10.7545
▁درآمده	-10.7545
▁دراین	-10.7545
▁دربار	-10.7545
▁درز	-10.7545
▁دره	-10.7545
▁دقایق	-10.7545
▁دقیقاً	-10.7545
▁دقیقی	-10.7545
▁دهها	-10.7545
▁دید.	-10.7545
▁دیر	-10.7545
▁راجرز	-10.7545
▁روشنی	-10.7545
▁رونالدینیو	-10.7545
▁روندی	-10.7545
▁رکاب	-10.7545
▁زائران	-10.7545
▁زادگان	-10.7545
▁زریاب	-10.7545
▁ساری	-10.7545
▁ساعته	-10.7545
▁ساعتی	-10.7545
▁سالیانه	-10.7545
▁سانحه	-10.7545
▁سبد	-10.7545
▁سردار	-10.7545
▁سرعتش	-10.7545
▁سرو	-10.7545
▁سرگرمی	-10.7545
▁سم	-10.7545
▁سوئدی	-10.7545
▁سوپرلیگ	-10.7545
▁سپیده	-10.7545
▁سکسکه	-10.7545
▁سی،	-10.7545
▁سیزدهم	-10.7545
▁سین	-10.7545
▁سینماهای	-10.7545
▁سیویک	-10.7545
▁شانزده	-10.7545
▁شایعاتی	-10.7545
▁شبی	-10.7545
▁شد.اما	-10.7545
▁شدند.منبع	-10.7545
▁شدهمنبع	-10.7545
▁شر	-10.7545
▁شرمن	-10.7545
▁شکستن	-10.7545
▁شیعه	-10.7545
▁صفحات	-10.7545
▁طیاب	-10.7545
▁طیب	-10.7545
▁عالم	-10.7545
▁عصبی	-10.7545
▁عقل	-10.7545
▁عملکردی	-10.7545
▁عواملی	-10.7545
▁غلامرضا	-10.7545
▁غلط	-10.7545
▁غیبت	-10.7545
▁فتاحی	-10.7545
▁فرستاد.	-10.7545
▁فرماندهی	-10.7545
▁فرهنگیان	-10.7545
▁فروشنده	-10.7545
▁فطر	-10.7545
▁فیزیکی	-10.7545
▁فیلترینگ	-10.7545
▁قطبی	-10.7545
▁قومی	-10.7545
▁لبخند	-10.7545
▁لواندوفسکی	-10.7545
▁متقاضیان	-10.7545
▁مثلث	-10.7545
▁محدودیتها	-10.7545
▁محکم	-10.7545
▁مخصوصا	-10.7545
▁مدرنا	-10.7545
▁مرحوم	-10.7545
▁مشوق	-10.7545
▁مصیبت	-10.7545
▁معماری	-10.7545
▁معنایی	-10.7545
▁معیشت	-10.7545
▁مغلوب	-10.7545
▁مناسبی	-10.7545
▁مناطقی	-10.7545
▁مندان	-10.7545
▁منشا	-10.7545
▁منصور	-10.7545
▁منفجر	-10.7545
▁موازی	-10.7545
▁مکزیک	-10.7545
▁میلی	-10.7545
▁نادری	-10.7545
▁نارسایی	-10.7545
▁ناصر	-10.7545
▁ناقض	-10.7545
▁ناهید	-10.7545
▁ناکارآمدی	-10.7545
▁ندادن	-10.7545
▁ندهد	-10.7545
▁نرگس	-10.7545
▁نصیب	-10.7545
▁نقره	-10.7545
▁نهادینه	-10.7545
▁نژاد،	-10.7545
▁نکرد.	-10.7545
▁نی	-10.7545
▁نیستمنبع	-10.7545
▁نیما	-10.7545
▁نیکلاس	-10.7545
▁ه	-10.7545
▁هامر	-10.7545
▁هامنبع	-10.7545
▁هدفش	-10.7545
▁هرانا	-10.7545
▁هلندی	-10.7545
▁همایون	-10.7545
▁همکار	-10.7545
▁هو	-10.7545
▁هیبرید	-10.7545
▁واریز	-10.7545
▁وال	-10.7545
▁وحشتناک	-10.7545
▁وخامت	-10.7545
▁وزیرخارجه	-10.7545
▁ونقل	-10.7545
▁ووهان	-10.7545
▁وگوی	-10.7545
▁پارسیان	-10.7545
▁پارلمانی	-10.7545
▁پایبند	-10.7545
▁پذیری	-10.7545
▁پرستاران	-10.7545
▁پروازی	-10.7545
▁پرویز	-10.7545
▁پناه	-10.7545
▁پوستی	-10.7545
▁پوندی	-10.7545
▁پژو	-10.7545
▁پیامگیر	-10.7545
▁پیشینه	-10.7545
▁پیمانکار	-10.7545
▁چاره	-10.7545
▁چیست؟منبع	-10.7545
▁کاظم	-10.7545
▁کاغذ	-10.7545
▁کالدرون	-10.7545
▁کج	-10.7545
▁کدخدایی	-10.7545
▁کردم.	-10.7545
▁کردند.در	-10.7545
▁کردند.منبع	-10.7545
▁کری	-10.7545
▁کریستال	-10.7545
▁کلینیک	-10.7545
▁کمپانی	-10.7545
▁کند.او	-10.7545
▁کیفری	-10.7545
▁کیهانی	-10.7545
▁کیو	-10.7545
▁گذشتمنبع	-10.7545
▁گرانتر	-10.7545
▁گرایش	-10.7545
▁گردش	-10.7545
▁گرسنگی	-10.7545
▁گره	-10.7545
▁گروگانگیری	-10.7545
▁یابد.	-10.7545
▁۱۶۰	-10.7545
▁۱۸۰	-10.7545
▁۷۶	-10.7545
▁۸۲	-10.7545
▁۸۸	-10.7545
▁آرا	-10.8498
▁آرامکو	-10.8498
▁آشفتگی	-10.8498
▁آفتابی	-10.8498
▁آقا	-10.8498
▁آلومینیوم	-10.8498
▁آمریکا:	-10.8498
▁آپارتمان	-10.8498
▁ابلاغیه	-10.8498
▁اتباع	-10.8498
▁اجتناب	-10.8498
▁احزاب	-10.8498
▁اختراع	-10.8498
▁اراک	-10.8498
▁اردن	-10.8498
▁ارسلان	-10.8498
▁اسبق	-10.8498
▁است.ایران	-10.8498
▁است.برخی	-10.8498
▁است.سازمان	-10.8498
▁است.هر	-10.8498
▁است.همزمان	-10.8498
▁است.گزارش	-10.8498
▁استادان	-10.8498
▁استانی	-10.8498
▁استرس	-10.8498
▁استودیو	-10.8498
▁اسحاق	-10.8498
▁اسدالله	-10.8498
▁اشنویه	-10.8498
▁اشکال	-10.8498
▁اصولگرایان	-10.8498
▁اضافی	-10.8498
▁اعطای	-10.8498
▁افتخاری	-10.8498
▁افسران	-10.8498
▁اقامتگاه	-10.8498
▁اقشار	-10.8498
▁البرز	-10.8498
▁المصطفی	-10.8498
▁امروزه	-10.8498
▁امپراتوری	-10.8498
▁امیدوارم	-10.8498
▁اند.با	-10.8498
▁انداخت.	-10.8498
▁اندرسون	-10.8498
▁اوربیتر	-10.8498
▁اوست	-10.8498
▁اوکاناگان	-10.8498
▁اپل	-10.8498
▁اکاذیب	-10.8498
▁اکبریان	-10.8498
▁ایمن	-10.8498
▁اینستاگرامش	-10.8498
▁بادی	-10.8498
▁باریک	-10.8498
▁بازبینی	-10.8498
▁بازه	-10.8498
▁بازگردد	-10.8498
▁بازیار	-10.8498
▁باشد؛	-10.8498
▁باشم	-10.8498
▁باقر	-10.8498
▁ببینید	-10.8498
▁بدحال	-10.8498
▁برادران	-10.8498
▁برشمرده	-10.8498
▁برها	-10.8498
▁برهم	-10.8498
▁بزودی	-10.8498
▁بشردوستانه	-10.8498
▁بصورت	-10.8498
▁بعدها	-10.8498
▁بعیدی	-10.8498
▁بله	-10.8498
▁بماند.	-10.8498
▁بمانند	-10.8498
▁بنای	-10.8498
▁بنجامین	-10.8498
▁بهاییان	-10.8498
▁بوجود	-10.8498
▁بوقت	-10.8498
▁بولت	-10.8498
▁بیاورد.	-10.8498
▁بیدار	-10.8498
▁بیژن	-10.8498
▁بیگی	-10.8498
▁تانک	-10.8498
▁تایتانیک	-10.8498
▁تبانی	-10.8498
▁تبریک	-10.8498
▁تحرک	-10.8498
▁تحریک	-10.8498
▁تحلیلگر	-10.8498
▁تخفیف	-10.8498
▁ترانزیت	-10.8498
▁تشویقی	-10.8498
▁تطبیق	-10.8498
▁تقوی	-10.8498
▁تله	-10.8498
▁تمایلی	-10.8498
▁تندرو	-10.8498
▁تنگه	-10.8498
▁تهاجمی	-10.8498
▁توانستیم	-10.8498
▁تویوتا	-10.8498
▁توییتری	-10.8498
▁جابجایی	-10.8498
▁جاهای	-10.8498
▁جرگه	-10.8498
▁جسمانی	-10.8498
▁جغرافیایی	-10.8498
▁جمشید	-10.8498
▁جهرمی	-10.8498
▁جوجه	-10.8498
▁جوزف	-10.8498
▁جولیانی	-10.8498
▁جویی	-10.8498
▁حاضران	-10.8498
▁حامد	-10.8498
▁حراست	-10.8498
▁حضرت	-10.8498
▁حواشی	-10.8498
▁حکمی	-10.8498
▁خارق	-10.8498
▁خرس	-10.8498
▁خریدن	-10.8498
▁خنثی	-10.8498
▁خوابی	-10.8498
▁خواندمنبع	-10.8498
▁خواندند	-10.8498
▁خودرایانی	-10.8498
▁خوشحالی	-10.8498
▁داد.او	-10.8498
▁داریوش	-10.8498
▁داشت.این	-10.8498
▁دانچیچ	-10.8498
▁دایناسورها	-10.8498
▁دختری	-10.8498
▁درگذشتگان	-10.8498
▁دریافتی	-10.8498
▁دستاوردهای	-10.8498
▁دغدغه	-10.8498
▁دم	-10.8498
▁دمانس	-10.8498
▁دهیم.	-10.8498
▁دوئرنیک	-10.8498
▁دوبی	-10.8498
▁دوستانش	-10.8498
▁دوصدایی	-10.8498
▁دولگوف	-10.8498
▁دیدیم	-10.8498
▁دیفرانسیل	-10.8498
▁دینار	-10.8498
▁رئوف	-10.8498
▁راد	-10.8498
▁رخداد	-10.8498
▁رسان	-10.8498
▁رمضان	-10.8498
▁رواج	-10.8498
▁روبروست	-10.8498
▁رومن	-10.8498
▁رویایی	-10.8498
▁رژه	-10.8498
▁ریخته	-10.8498
▁ریورا	-10.8498
▁زایی	-10.8498
▁زدند.	-10.8498
▁زننده	-10.8498
▁زیارت	-10.8498
▁سابقش	-10.8498
▁ساترا	-10.8498
▁ساختگی	-10.8498
▁سادیو	-10.8498
▁سازمانی	-10.8498
▁سازندگان	-10.8498
▁سازه	-10.8498
▁سال،	-10.8498
▁سانتریفیوژهای	-10.8498
▁سبزوار	-10.8498
▁سرزده	-10.8498
▁سرپرستی	-10.8498
▁سرگرم	-10.8498
▁سفره	-10.8498
▁سمانیا	-10.8498
▁سهل	-10.8498
▁سوناک	-10.8498
▁سوژه	-10.8498
▁سیامند	-10.8498
▁سیاهان	-10.8498
▁سیر	-10.8498
▁شایع	-10.8498
▁شجریان،	-10.8498
▁شدم.	-10.8498
▁شعبانی	-10.8498
▁شمس	-10.8498
▁شمیم	-10.8498
▁شهرخودرو	-10.8498
▁شهرهایی	-10.8498
▁شوت	-10.8498
▁ضایعه	-10.8498
▁طرفدارانش	-10.8498
▁طلوع	-10.8498
▁طوفانی	-10.8498
▁عادلانه	-10.8498
▁عارضه	-10.8498
▁عزیز	-10.8498
▁عشقی	-10.8498
▁عقاب	-10.8498
▁عقرب	-10.8498
▁علاقمند	-10.8498
▁علوی	-10.8498
▁عناصر	-10.8498
▁عواقب	-10.8498
▁غالب	-10.8498
▁فایده	-10.8498
▁فتحی	-10.8498
▁فرانسیس	-10.8498
▁فرایند	-10.8498
▁فروغ	-10.8498
▁فریب	-10.8498
▁فسخ	-10.8498
▁فسیلی	-10.8498
▁فلج	-10.8498
▁فیزیکدان	-10.8498
▁فیلیپین	-10.8498
▁قائل	-10.8498
▁قرض	-10.8498
▁قید	-10.8498
▁لاس	-10.8498
▁لبنانی	-10.8498
▁لفظی	-10.8498
▁لو	-10.8498
▁مائوریتسیو	-10.8498
▁مار	-10.8498
▁مال	-10.8498
▁مانعی	-10.8498
▁مایع	-10.8498
▁متخلف	-10.8498
▁متولی	-10.8498
▁محدودی	-10.8498
▁محصولاتش	-10.8498
▁محفظه	-10.8498
▁مخفیانه	-10.8498
▁مدنظر	-10.8498
▁مزارع	-10.8498
▁مشاوران	-10.8498
▁مصداق	-10.8498
▁مصدوم	-10.8498
▁مطلبی	-10.8498
▁معنا	-10.8498
▁معیارهای	-10.8498
▁مفصل	-10.8498
▁مقدمه	-10.8498
▁ملتهب	-10.8498
▁منابعی	-10.8498
▁منجمد	-10.8498
▁مندنی	-10.8498
▁منصوری	-10.8498
▁منعکس	-10.8498
▁مهندسان	-10.8498
▁مهندسی	-10.8498
▁موافقان	-10.8498
▁موهای	-10.8498
▁مکلف	-10.8498
▁میرزا	-10.8498
▁میلاد	-10.8498
▁میمون	-10.8498
▁ناامن	-10.8498
▁ناصرالدین	-10.8498
▁ناممکن	-10.8498
▁نامید	-10.8498
▁ناوگان	-10.8498
▁نخورده	-10.8498
▁ندانسته	-10.8498
▁نظرهای	-10.8498
▁نفرت	-10.8498
▁نقلیه	-10.8498
▁نمادی	-10.8498
▁نمانده	-10.8498
▁نهادی	-10.8498
▁نهضت	-10.8498
▁نهفته	-10.8498
▁نورد	-10.8498
▁نوی	-10.8498
▁نکردند	-10.8498
▁نیا	-10.8498
▁نیست،	-10.8498
▁نیمار	-10.8498
▁هاله	-10.8498
▁هستم.	-10.8498
▁هستند،	-10.8498
▁همسرم	-10.8498
▁هوندا	-10.8498
▁هیچگاه	-10.8498
▁وافغانستان	-10.8498
▁وثیقه	-10.8498
▁وسیعی	-10.8498
▁وظایف	-10.8498
▁ولد	-10.8498
▁وودز	-10.8498
▁پاریسی	-10.8498
▁پالاس	-10.8498
▁پاکسازی	-10.8498
▁پدید	-10.8498
▁پذیرای	-10.8498
▁پمپ	-10.8498
▁پناهجوی	-10.8498
▁پولیتزر	-10.8498
▁پیشگام	-10.8498
▁چاله	-10.8498
▁چمن	-10.8498
▁چیزبرگر	-10.8498
▁ژاکا	-10.8498
▁کادرفنی	-10.8498
▁کارفرمایان	-10.8498
▁کردیک	-10.8498
▁کرمان	-10.8498
▁کرگدن	-10.8498
▁کشت	-10.8498
▁کشتیرانی	-10.8498
▁کشمی	-10.8498
▁کفتر	-10.8498
▁کلاه	-10.8498
▁کلمات	-10.8498
▁کنیایی	-10.8498
▁کوسه	-10.8498
▁کولبر	-10.8498
▁کولمن	-10.8498
▁کیا	-10.8498
▁گذرگاه	-10.8498
▁گردشگر	-10.8498
▁گریبان	-10.8498
▁گریه	-10.8498
▁گلدن	-10.8498
▁گواهی	-10.8498
▁گودا	-10.8498
▁گوید،	-10.8498
▁گیاهان	-10.8498
▁گیگز	-10.8498
▁یار	-10.8498
▁یهودی	-10.8498
▁یوتیوب	-10.8498
▁۱۴۰	-10.8498
▁۱۹۰	-10.8498
▁۱۹۳۰	-10.8498
▁۱۹۹۱	-10.8498
▁۱۹۹۸	-10.8498
▁۲۰۰۶	-10.8498
▁۲۲۳۱	-10.8498
▁۵:۱۵	-10.8498
▁۵۱	-10.8498
▁۶۲	-10.8498
▁۸۱	-10.8498
▁'از	-10.9552
▁'برای	-10.9552
▁.حسن	-10.9552
▁آبهای	-10.9552
▁آرتتا	-10.9552
▁آرزوهای	-10.9552
▁آرمان	-10.9552
▁آسانی	-10.9552
▁آسیا؛	-10.9552
▁آلزایمر	-10.9552
▁آمبولی	-10.9552
▁آمریکاست	-10.9552
▁آموز	-10.9552
▁آوردند	-10.9552
▁آژیر	-10.9552
▁آیند.	-10.9552
▁ابداع	-10.9552
▁ابرنواختر	-10.9552
▁اتهاماتی	-10.9552
▁اثبات	-10.9552
▁احکام	-10.9552
▁اخیر،	-10.9552
▁اراده	-10.9552
▁ارتقا	-10.9552
▁است.بنابر	-10.9552
▁است.دو	-10.9552
▁است.سعید	-10.9552
▁است.فرین	-10.9552
▁است.قیمت	-10.9552
▁استدلال	-10.9552
▁استعدادهای	-10.9552
▁استقامت	-10.9552
▁استقراض	-10.9552
▁اسپورت	-10.9552
▁اعتنایی	-10.9552
▁اعراب	-10.9552
▁افشا	-10.9552
▁افق	-10.9552
▁المستقبل	-10.9552
▁الکترونیک	-10.9552
▁الگوریتمی	-10.9552
▁امرالله	-10.9552
▁امروزشان	-10.9552
▁امروزی	-10.9552
▁امری	-10.9552
▁امریکا	-10.9552
▁امسال،	-10.9552
▁انباشته	-10.9552
▁انتحاری	-10.9552
▁انصاری	-10.9552
▁انگیزترین	-10.9552
▁انگیزی	-10.9552
▁اونس	-10.9552
▁اکثریت	-10.9552
▁ای،	-10.9552
▁ایسلند	-10.9552
▁ایندیانا	-10.9552
▁اینقدر	-10.9552
▁ایکس	-10.9552
▁بازارهایی	-10.9552
▁باشد.در	-10.9552
▁بالگرد	-10.9552
▁باگت	-10.9552
▁بتهوون	-10.9552
▁بدانند	-10.9552
▁بدهکار	-10.9552
▁برجا	-10.9552
▁برطرف	-10.9552
▁برعکس	-10.9552
▁برفی	-10.9552
▁برگردانده	-10.9552
▁برگرفته	-10.9552
▁بزرگان	-10.9552
▁بس	-10.9552
▁بسیج	-10.9552
▁بفروشد	-10.9552
▁بلندی	-10.9552
▁بنزما	-10.9552
▁بوئنوس	-10.9552
▁بود.با	-10.9552
▁بود.بر	-10.9552
▁بودمنبع	-10.9552
▁بودند.منبع	-10.9552
▁بوروسیا	-10.9552
▁بوفون	-10.9552
▁بگیرید	-10.9552
▁بیانگر	-10.9552
▁بیورن	-10.9552
▁بیگانه	-10.9552
▁تجدیدپذیر	-10.9552
▁تحقیر	-10.9552
▁تخم	-10.9552
▁تراز	-10.9552
▁ترکی	-10.9552
▁تشییع	-10.9552
▁تصاحب	-10.9552
▁تصدی	-10.9552
▁تعاون	-10.9552
▁تلفات	-10.9552
▁تلویحا	-10.9552
▁تماشاچیان	-10.9552
▁تمرینات	-10.9552
▁تنیده	-10.9552
▁تهران؛	-10.9552
▁تونس	-10.9552
▁جاذبه	-10.9552
▁جامی	-10.9552
▁جاوید	-10.9552
▁جاپلقی	-10.9552
▁جزایر	-10.9552
▁جعبه	-10.9552
▁جمعیتی	-10.9552
▁جناح	-10.9552
▁جنازه	-10.9552
▁جنین	-10.9552
▁جهانی،	-10.9552
▁جواز	-10.9552
▁جولی	-10.9552
▁جونیور	-10.9552
▁حباب	-10.9552
▁حدادی	-10.9552
▁حسرت	-10.9552
▁حیاط	-10.9552
▁خانقاه	-10.9552
▁خانمان	-10.9552
▁خشکسالی	-10.9552
▁خواستم	-10.9552
▁خودمان	-10.9552
▁خوشی	-10.9552
▁خویش	-10.9552
▁خیز	-10.9552
▁دارند،	-10.9552
▁داشتیم	-10.9552
▁دانشجوی	-10.9552
▁دایناسور	-10.9552
▁دایکندی	-10.9552
▁درآمدزایی	-10.9552
▁درها	-10.9552
▁درویش	-10.9552
▁دستان	-10.9552
▁دنیاست	-10.9552
▁دنیس	-10.9552
▁دهد.این	-10.9552
▁دهلی	-10.9552
▁دوتابعیتی	-10.9552
▁دورانگو	-10.9552
▁دوستداران	-10.9552
▁دوغارون	-10.9552
▁دومی	-10.9552
▁دیدم	-10.9552
▁دیدنی	-10.9552
▁دیوانه	-10.9552
▁رأی	-10.9552
▁رائونیچ	-10.9552
▁رابین	-10.9552
▁راضی	-10.9552
▁رامی	-10.9552
▁ران	-10.9552
▁رانده	-10.9552
▁راهپیمایی	-10.9552
▁رایزنی	-10.9552
▁ربطی	-10.9552
▁ربیعی	-10.9552
▁رجب	-10.9552
▁رخشانه	-10.9552
▁ردینگ	-10.9552
▁رزمی	-10.9552
▁رسماً	-10.9552
▁رسی	-10.9552
▁رشید	-10.9552
▁رفتند.	-10.9552
▁رهایی	-10.9552
▁رودبار	-10.9552
▁رومانی	-10.9552
▁رویم	-10.9552
▁رکوردهای	-10.9552
▁ریاضی	-10.9552
▁ریختن	-10.9552
▁ریز	-10.9552
▁زادگاهش	-10.9552
▁زاناردی	-10.9552
▁زدایی	-10.9552
▁زند.	-10.9552
▁زور	-10.9552
▁سادگی	-10.9552
▁سازان	-10.9552
▁سازد	-10.9552
▁سازندگی	-10.9552
▁ساسانی	-10.9552
▁ساماندهی	-10.9552
▁سخنانی	-10.9552
▁سرازیر	-10.9552
▁سرای	-10.9552
▁سرتاسر	-10.9552
▁سرشار	-10.9552
▁سرما	-10.9552
▁سعدی	-10.9552
▁سفرها	-10.9552
▁سقط	-10.9552
▁سلبریتی	-10.9552
▁سلفی	-10.9552
▁سنگر	-10.9552
▁سوئز	-10.9552
▁سوابق	-10.9552
▁سولو	-10.9552
▁شاپی	-10.9552
▁شباهت	-10.9552
▁شدند.این	-10.9552
▁شمایل	-10.9552
▁شناگر	-10.9552
▁شهرکرد	-10.9552
▁شهیدیان	-10.9552
▁شود.اما	-10.9552
▁شکننده	-10.9552
▁شکوه	-10.9552
▁صدایش	-10.9552
▁صدرنشینی	-10.9552
▁صریح	-10.9552
▁صید	-10.9552
▁ضایعات	-10.9552
▁ضدعفونی	-10.9552
▁عبدالرضا	-10.9552
▁عددی	-10.9552
▁عرف	-10.9552
▁عرفان	-10.9552
▁عطرساز	-10.9552
▁عطرسازی	-10.9552
▁عفونی	-10.9552
▁علمیه	-10.9552
▁علیدوستی	-10.9552
▁عمرانی	-10.9552
▁غارت	-10.9552
▁غافلگیرکننده	-10.9552
▁غافلگیری	-10.9552
▁غروب	-10.9552
▁فابیو	-10.9552
▁فرانک	-10.9552
▁فرماندار	-10.9552
▁فرهنگ؛	-10.9552
▁فروکش	-10.9552
▁فشرده	-10.9552
▁فضانوردان	-10.9552
▁فضلی	-10.9552
▁فنلاند	-10.9552
▁فوتسال	-10.9552
▁فیات	-10.9552
▁قاتل	-10.9552
▁قبیل	-10.9552
▁قرمزها	-10.9552
▁قره	-10.9552
▁قضاوت	-10.9552
▁قطرک	-10.9552
▁قطعا	-10.9552
▁قوت	-10.9552
▁لاجورد	-10.9552
▁لحن	-10.9552
▁لندروور	-10.9552
▁ماخ	-10.9552
▁مارکوس	-10.9552
▁مانور	-10.9552
▁ماه)	-10.9552
▁ماهشهر	-10.9552
▁مایحتاج	-10.9552
▁مبالغ	-10.9552
▁متخلفان	-10.9552
▁متضرر	-10.9552
▁متنوع	-10.9552
▁مثبتی	-10.9552
▁مجتمع	-10.9552
▁مجروح	-10.9552
▁محافل	-10.9552
▁محجوبی	-10.9552
▁محمدی،	-10.9552
▁مدافعان	-10.9552
▁مذاکراتی	-10.9552
▁مزایده	-10.9552
▁مسترد	-10.9552
▁مسترز	-10.9552
▁مستضعفان	-10.9552
▁مستعار	-10.9552
▁مستندساز	-10.9552
▁مسیح	-10.9552
▁مصالحه	-10.9552
▁مصر	-10.9552
▁مضر	-10.9552
▁مطالبه	-10.9552
▁مطالبی	-10.9552
▁معالجه	-10.9552
▁معمار	-10.9552
▁معمولاً	-10.9552
▁معنوی	-10.9552
▁مقاصد	-10.9552
▁مقدم	-10.9552
▁مقدمات	-10.9552
▁مقر	-10.9552
▁مناظره	-10.9552
▁منسوخ	-10.9552
▁منفرد	-10.9552
▁منک	-10.9552
▁موردش	-10.9552
▁موقتا	-10.9552
▁مونک	-10.9552
▁مکارمی	-10.9552
▁میلادی،	-10.9552
▁مینا	-10.9552
▁مینیاتور	-10.9552
▁میکل	-10.9552
▁نادران	-10.9552
▁ناراضی	-10.9552
▁ناظری	-10.9552
▁نامداری،	-10.9552
▁نتفلیکس	-10.9552
▁نتوانستند	-10.9552
▁نجیب	-10.9552
▁نسترن	-10.9552
▁نشدنی	-10.9552
▁نشستی	-10.9552
▁نمازی	-10.9552
▁نمایان	-10.9552
▁نمود	-10.9552
▁نوشت:	-10.9552
▁نوشتند	-10.9552
▁نوظهور	-10.9552
▁نوین	-10.9552
▁نگرش	-10.9552
▁نیازمندی	-10.9552
▁نیست.به	-10.9552
▁نیشگون	-10.9552
▁نیکل	-10.9552
▁هزاره	-10.9552
▁هستندمنبع	-10.9552
▁همخوانی	-10.9552
▁همدردی	-10.9552
▁همر	-10.9552
▁هویزه	-10.9552
▁هک	-10.9552
▁وابستگی	-10.9552
▁واکسنی	-10.9552
▁وریا	-10.9552
▁ونیز	-10.9552
▁وکلای	-10.9552
▁وگوها	-10.9552
▁ویکتوریا	-10.9552
▁پاکستانی	-10.9552
▁پدافند	-10.9552
▁پراکنی	-10.9552
▁پرتغالی	-10.9552
▁پرسیده	-10.9552
▁پروازهایش	-10.9552
▁پلامر	-10.9552
▁پناهنده	-10.9552
▁پنسیلوانیا	-10.9552
▁پورشه	-10.9552
▁پومپئو	-10.9552
▁پیکولی	-10.9552
▁چاه	-10.9552
▁چهلمین	-10.9552
▁چیزهایی	-10.9552
▁چین،	-10.9552
▁ژن	-10.9552
▁ژنرال	-10.9552
▁ژورنال	-10.9552
▁ژیوادان	-10.9552
▁کادیس	-10.9552
▁کرد.یک	-10.9552
▁کرد؟منبع	-10.9552
▁کردند؛	-10.9552
▁کشنده	-10.9552
▁کلارک	-10.9552
▁کلر	-10.9552
▁کلسیم	-10.9552
▁کلیپ	-10.9552
▁کمونیست	-10.9552
▁کنی	-10.9552
▁کنیممنبع	-10.9552
▁کهنه	-10.9552
▁کوپتر	-10.9552
▁کیومرث	-10.9552
▁کیپچوگه	-10.9552
▁گاردین	-10.9552
▁گذرد.	-10.9552
▁گذشت.	-10.9552
▁گراد	-10.9552
▁گرد	-10.9552
▁گردد؛	-10.9552
▁گرما	-10.9552
▁گشوده	-10.9552
▁گودال	-10.9552
▁گوناگونی	-10.9552
▁گیلان	-10.9552
▁یکه	-10.9552
▁۱۱۰	-10.9552
▁۱۳۵۰	-10.9552
▁۱۳۶۷	-10.9552
▁۱۳۹۰	-10.9552
▁۱۹۲۰	-10.9552
▁۱۹۷۳	-10.9552
▁۲۰۰۲	-10.9552
▁۲۰۰۷	-10.9552
▁۲۰۲۳	-10.9552
▁۳۲۰	-10.9552
▁۴۵۰	-10.9552
▁۶۲۸	-10.9552
▁۶۳	-10.9552
▁۸۶	-10.9552
▁۸۷	-10.9552
▁.وی	-11.0729
▁آبزیان	-11.0729
▁آرزو	-11.0729
▁آرگیل	-11.0729
▁آزادانه	-11.0729
▁آستان	-11.0729
▁آغوش	-11.0729
▁آلمن	-11.0729
▁آلنده	-11.0729
▁آنتیفا	-11.0729
▁آنکارا	-11.0729
▁آورند.	-11.0729
▁ابزارهای	-11.0729
▁ابولا	-11.0729
▁اتوماتیک	-11.0729
▁اتیوپی	-11.0729
▁اثرات	-11.0729
▁اجساد	-11.0729
▁اجلاسی	-11.0729
▁احتیاج	-11.0729
▁ادل	-11.0729
▁ادوارد	-11.0729
▁اذهان	-11.0729
▁اروپا؛	-11.0729
▁ارکستر	-11.0729
▁است.افزایش	-11.0729
▁است.دکتر	-11.0729
▁است.رئیس	-11.0729
▁است.سه	-11.0729
▁است.شیدا	-11.0729
▁است.وزیر	-11.0729
▁است.پیشتر	-11.0729
▁است.گروه	-11.0729
▁است؟	-11.0729
▁استآقای	-11.0729
▁استلانتیس	-11.0729
▁اسرائیل،	-11.0729
▁اسمیت	-11.0729
▁اسپایدرز	-11.0729
▁اسپیس	-11.0729
▁اشعه	-11.0729
▁اصیل	-11.0729
▁اظهاراتی	-11.0729
▁اعصاب	-11.0729
▁اعظم	-11.0729
▁اف،	-11.0729
▁افزود:	-11.0729
▁افغانستان:	-11.0729
▁افغانستانی	-11.0729
▁افکاری	-11.0729
▁الحسنه	-11.0729
▁الزامی	-11.0729
▁الوحده	-11.0729
▁الکل	-11.0729
▁امتیازات	-11.0729
▁انتقالاتی	-11.0729
▁اند.بیشتر	-11.0729
▁انددر	-11.0729
▁اندرکار	-11.0729
▁اندرکاران	-11.0729
▁انعطاف	-11.0729
▁انکار	-11.0729
▁انگل	-11.0729
▁انیمیشن	-11.0729
▁او.	-11.0729
▁اوارق	-11.0729
▁اولیویا	-11.0729
▁ایش	-11.0729
▁اینترپل	-11.0729
▁اینجاست	-11.0729
▁اینصورت	-11.0729
▁اینفینیتی	-11.0729
▁بارش	-11.0729
▁باز؛	-11.0729
▁بازاری	-11.0729
▁بازمانده	-11.0729
▁باشد.منبع	-11.0729
▁باشد،	-11.0729
▁ببیند	-11.0729
▁بتوانم	-11.0729
▁برآورده	-11.0729
▁برترین	-11.0729
▁برجامی	-11.0729
▁بروند	-11.0729
▁برپا	-11.0729
▁برگردد.	-11.0729
▁برگزارکننده	-11.0729
▁بری	-11.0729
▁بطری	-11.0729
▁بغلان	-11.0729
▁بقا	-11.0729
▁بلامنازع	-11.0729
▁بلانشت	-11.0729
▁بلغارستان	-11.0729
▁بلوز	-11.0729
▁بم	-11.0729
▁بنده	-11.0729
▁بوده.	-11.0729
▁بوم	-11.0729
▁بکشند	-11.0729
▁بگویند	-11.0729
▁بیانسه	-11.0729
▁بیرونی	-11.0729
▁بینید	-11.0729
▁تابوت	-11.0729
▁تار	-11.0729
▁تام	-11.0729
▁تاپ	-11.0729
▁تاکتیک	-11.0729
▁تبلت	-11.0729
▁تحریمها	-11.0729
▁تحولی	-11.0729
▁تخته	-11.0729
▁تربیت	-11.0729
▁ترجیحی	-11.0729
▁تریاک	-11.0729
▁تصادفی	-11.0729
▁تعویض	-11.0729
▁تفکیک	-11.0729
▁تقوی،	-11.0729
▁تلسکوپ	-11.0729
▁تلکوم	-11.0729
▁تناسب	-11.0729
▁تهدیدهای	-11.0729
▁توازن	-11.0729
▁توانستم	-11.0729
▁توضیحی	-11.0729
▁تولیت	-11.0729
▁تیموری	-11.0729
▁ثالث	-11.0729
▁جابه	-11.0729
▁جاستین	-11.0729
▁جامائیکا	-11.0729
▁جانوری	-11.0729
▁جرائم	-11.0729
▁جرح	-11.0729
▁جزئی	-11.0729
▁جعل	-11.0729
▁جفت	-11.0729
▁جمجمه	-11.0729
▁جمعه،	-11.0729
▁جمهوری،	-11.0729
▁جندی	-11.0729
▁جوش	-11.0729
▁جون	-11.0729
▁جیغ	-11.0729
▁حتما	-11.0729
▁حریم	-11.0729
▁حسابی	-11.0729
▁حصول	-11.0729
▁خاشقجی	-11.0729
▁خاشقچی	-11.0729
▁خالد	-11.0729
▁خالقی	-11.0729
▁خراب	-11.0729
▁خرند.	-11.0729
▁خروجی	-11.0729
▁خطری	-11.0729
▁خفیف	-11.0729
▁خودسوزی	-11.0729
▁خوراک	-11.0729
▁خوشحالم	-11.0729
▁دات	-11.0729
▁داد.منبع	-11.0729
▁داد،	-11.0729
▁دادخواهانه	-11.0729
▁داشت.منبع	-11.0729
▁دانیم؟منبع	-11.0729
▁دایر	-11.0729
▁دبیرستان	-11.0729
▁درآمدها	-11.0729
▁درختان	-11.0729
▁درسی	-11.0729
▁درشت	-11.0729
▁درصدد	-11.0729
▁درمورد	-11.0729
▁درو	-11.0729
▁دریافتند	-11.0729
▁دریافته	-11.0729
▁دریچه	-11.0729
▁دزدان	-11.0729
▁دستکش	-11.0729
▁دعوا	-11.0729
▁دلالان	-11.0729
▁دهد.در	-11.0729
▁دهدمنبع	-11.0729
▁دوازدهم	-11.0729
▁دوتار	-11.0729
▁دوجانبه	-11.0729
▁دوی	-11.0729
▁دویچلند	-11.0729
▁دپ	-11.0729
▁دگرگون	-11.0729
▁دیاز	-11.0729
▁دیزنی	-11.0729
▁دیونتی	-11.0729
▁راجع	-11.0729
▁رادیوی	-11.0729
▁راستش	-11.0729
▁رز	-11.0729
▁رسن	-11.0729
▁رسوایی	-11.0729
▁رشت	-11.0729
▁رشدی	-11.0729
▁رفتمنبع	-11.0729
▁روحی	-11.0729
▁رودی	-11.0729
▁روزبه	-11.0729
▁روشنایی	-11.0729
▁روشنفکران	-11.0729
▁ریاضیات	-11.0729
▁ریسک	-11.0729
▁زا	-11.0729
▁زابل	-11.0729
▁زادگاه	-11.0729
▁زمزمه	-11.0729
▁زورف	-11.0729
▁ساخت.	-11.0729
▁ساروج	-11.0729
▁سازوکارهای	-11.0729
▁سربسته	-11.0729
▁سرماخوردگی	-11.0729
▁سرمای	-11.0729
▁سرکوبی	-11.0729
▁سرگرفته	-11.0729
▁سرگشاده	-11.0729
▁سعادت	-11.0729
▁سفت	-11.0729
▁سلام	-11.0729
▁سنای	-11.0729
▁سنبله	-11.0729
▁سنگاپور	-11.0729
▁سنگی	-11.0729
▁سنگینی	-11.0729
▁سهامهای	-11.0729
▁سهیم	-11.0729
▁سودان	-11.0729
▁سولار	-11.0729
▁سولسشر	-11.0729
▁سومی	-11.0729
▁سوگواری	-11.0729
▁سویی	-11.0729
▁سیاستمدار	-11.0729
▁سیتسی	-11.0729
▁شاگرد	-11.0729
▁شایعات	-11.0729
▁شجاع	-11.0729
▁شدند.در	-11.0729
▁شدند،	-11.0729
▁شدند؛	-11.0729
▁شناختن	-11.0729
▁شناسد	-11.0729
▁شود'منبع	-11.0729
▁شود.از	-11.0729
▁شود.بر	-11.0729
▁شوم.	-11.0729
▁شوند.این	-11.0729
▁شوند.منبع	-11.0729
▁شوندمنبع	-11.0729
▁شویم.	-11.0729
▁شکستگی	-11.0729
▁شکوفایی	-11.0729
▁صادقانه	-11.0729
▁صدایی	-11.0729
▁ضوابط	-11.0729
▁طباطبایی	-11.0729
▁طزره	-11.0729
▁طلاها	-11.0729
▁ظریف،	-11.0729
▁عام	-11.0729
▁عاملی	-11.0729
▁عدالتی	-11.0729
▁عضلات	-11.0729
▁عظیمی	-11.0729
▁علایم	-11.0729
▁عمدی	-11.0729
▁عمران	-11.0729
▁عکس؛	-11.0729
▁عکسهای	-11.0729
▁عینی	-11.0729
▁غیرعادی	-11.0729
▁فای	-11.0729
▁فرآیندی	-11.0729
▁فراموشی	-11.0729
▁فراورده	-11.0729
▁فراپادمانی	-11.0729
▁فردین	-11.0729
▁فعالیتهای	-11.0729
▁فهم	-11.0729
▁فکاهی	-11.0729
▁فکرش	-11.0729
▁فیلمسازان	-11.0729
▁قائم	-11.0729
▁قاعدتا	-11.0729
▁قانع	-11.0729
▁قبلاً	-11.0729
▁قدیم	-11.0729
▁قلمداد	-11.0729
▁قندهار	-11.0729
▁قوانینی	-11.0729
▁قیاس	-11.0729
▁قیمتهای	-11.0729
▁لامرد	-11.0729
▁لخته	-11.0729
▁لرزه	-11.0729
▁لسلی	-11.0729
▁لشگری	-11.0729
▁لطف	-11.0729
▁لطمه	-11.0729
▁لمپارد	-11.0729
▁لوکا	-11.0729
▁لوکاس	-11.0729
▁لیتر	-11.0729
▁ماری	-11.0729
▁ماست	-11.0729
▁مبین	-11.0729
▁متحدانش	-11.0729
▁متغیر	-11.0729
▁متکی	-11.0729
▁متیوز	-11.0729
▁مجتبی	-11.0729
▁مجرم	-11.0729
▁محرکه	-11.0729
▁محصولاتی	-11.0729
▁مددی	-11.0729
▁مدرس	-11.0729
▁مدفوع	-11.0729
▁مدلسازی	-11.0729
▁مراودات	-11.0729
▁مربیگری	-11.0729
▁مردن	-11.0729
▁مروی	-11.0729
▁مری	-11.0729
▁مزمن	-11.0729
▁مسافری	-11.0729
▁مسبب	-11.0729
▁مستثنی	-11.0729
▁مسن	-11.0729
▁مشاوره	-11.0729
▁مصمم	-11.0729
▁مظنون	-11.0729
▁معاش	-11.0729
▁معتقدیم	-11.0729
▁معتمدی	-11.0729
▁معلول	-11.0729
▁معلومات	-11.0729
▁معمای	-11.0729
▁ملا	-11.0729
▁ممنوعه	-11.0729
▁منحل	-11.0729
▁منظم	-11.0729
▁منفجره	-11.0729
▁منکر	-11.0729
▁مهمانان	-11.0729
▁موافقتنامه	-11.0729
▁مورا	-11.0729
▁مورل	-11.0729
▁موسی	-11.0729
▁موعد	-11.0729
▁مولانا	-11.0729
▁میرسلیم	-11.0729
▁میهمان	-11.0729
▁نارضایتی	-11.0729
▁ناصری	-11.0729
▁نایا	-11.0729
▁نباشند	-11.0729
▁نتایجی	-11.0729
▁نتواند	-11.0729
▁نجوا	-11.0729
▁نخ	-11.0729
▁نداد	-11.0729
▁نداد.	-11.0729
▁نداشتم	-11.0729
▁نر	-11.0729
▁نسلی	-11.0729
▁نشوند.	-11.0729
▁نظرش	-11.0729
▁نعمتی	-11.0729
▁نمایندگانی	-11.0729
▁نهنگ	-11.0729
▁نوازندگان	-11.0729
▁نوزدهم	-11.0729
▁نکنیم	-11.0729
▁نگارش	-11.0729
▁نیازمندان	-11.0729
▁نیست'منبع	-11.0729
▁نیوکسل	-11.0729
▁نیکولاس	-11.0729
▁هاروارد	-11.0729
▁هامبورگ	-11.0729
▁هجری	-11.0729
▁هرمزگان	-11.0729
▁هری	-11.0729
▁هستند؛	-11.0729
▁هشدارهای	-11.0729
▁هلمند	-11.0729
▁همبستگی	-11.0729
▁همتی،	-11.0729
▁هنرمندی	-11.0729
▁هوادارانش	-11.0729
▁هوانوردی	-11.0729
▁هوشی	-11.0729
▁هویتی	-11.0729
▁هیدروکسی	-11.0729
▁وادار	-11.0729
▁وزیری	-11.0729
▁وصول	-11.0729
▁وضوح	-11.0729
▁ولتا	-11.0729
▁وگاس	-11.0729
▁وگرنه	-11.0729
▁وگوهای	-11.0729
▁ویرانی	-11.0729
▁پ	-11.0729
▁پابلو	-11.0729
▁پاراگوئه	-11.0729
▁پارسال،	-11.0729
▁پاره	-11.0729
▁پارچه	-11.0729
▁پالائو	-11.0729
▁پدرم	-11.0729
▁پرایس	-11.0729
▁پرت	-11.0729
▁پردازی	-11.0729
▁پردرآمدترین	-11.0729
▁پرسپولیس،	-11.0729
▁پرسید	-11.0729
▁پسرم	-11.0729
▁پلیموث	-11.0729
▁پهن	-11.0729
▁پوشان	-11.0729
▁پوشیدن	-11.0729
▁پوچتینو	-11.0729
▁پویا	-11.0729
▁پیانو	-11.0729
▁پیدایش	-11.0729
▁پیشگامان	-11.0729
▁پیوست.	-11.0729
▁پیولی	-11.0729
▁چانه	-11.0729
▁چرخش	-11.0729
▁چوب	-11.0729
▁ژیمناستیک	-11.0729
▁کارآفرین	-11.0729
▁کارل	-11.0729
▁کافه	-11.0729
▁کالای	-11.0729
▁کالایی	-11.0729
▁کالبدشکافی	-11.0729
▁کامرون	-11.0729
▁کاملاً	-11.0729
▁کت	-11.0729
▁کتبی	-11.0729
▁کتک	-11.0729
▁کر	-11.0729
▁کردندمنبع	-11.0729
▁کرونا:	-11.0729
▁کرویف	-11.0729
▁کریر	-11.0729
▁کشتن	-11.0729
▁کشورشان	-11.0729
▁کلانتری	-11.0729
▁کلاین	-11.0729
▁کلمه	-11.0729
▁کلیت	-11.0729
▁کمکی	-11.0729
▁کند'منبع	-11.0729
▁کند؟	-11.0729
▁کنزو	-11.0729
▁کنند.به	-11.0729
▁کنیا	-11.0729
▁کنیم،	-11.0729
▁کومله	-11.0729
▁کوچکترین	-11.0729
▁کیلوولت	-11.0729
▁کیمن	-11.0729
▁گدار	-11.0729
▁گذارند	-11.0729
▁گرامی	-11.0729
▁گردانندگان	-11.0729
▁گردون	-11.0729
▁گرفتمنبع	-11.0729
▁گرفته.	-11.0729
▁گروههای	-11.0729
▁گفته،	-11.0729
▁گله	-11.0729
▁گناه	-11.0729
▁گوفن	-11.0729
▁گوید.	-11.0729
▁یاب	-11.0729
▁یادماندنی	-11.0729
▁یادگار	-11.0729
▁یاشار	-11.0729
▁یخچال	-11.0729
▁یوروویژن	-11.0729
▁۱۳۳۹	-11.0729
▁۱۳۸۴	-11.0729
▁۱۳۹۴	-11.0729
▁۲۳۱	-11.0729
▁۳۸۰	-11.0729
▁۴۷	-11.0729
▁۵۸	-11.0729
▁۷۹	-11.0729
▁۹۳	-11.0729
▁'افزایش	-11.2065
▁آبتین	-11.2065
▁آبه	-11.2065
▁آذرماه	-11.2065
▁آرامی	-11.2065
▁آرایشگاه	-11.2065
▁آرسن	-11.2065
▁آشپزی	-11.2065
▁آفرین	-11.2065
▁آفلاتوکسین	-11.2065
▁آلود	-11.2065
▁آموخته	-11.2065
▁آنفلوآنزای	-11.2065
▁آنهم	-11.2065
▁آنچلوتی	-11.2065
▁آوازخوان	-11.2065
▁آوازخوانان	-11.2065
▁آکسفام	-11.2065
▁ابوالفضل	-11.2065
▁اتریشی	-11.2065
▁اتریوم	-11.2065
▁اتفاقاتی	-11.2065
▁اجتماع	-11.2065
▁اجتماعی،	-11.2065
▁اخباری	-11.2065
▁اختیارات	-11.2065
▁اخیراً	-11.2065
▁اذعان	-11.2065
▁ارواح	-11.2065
▁اروپای	-11.2065
▁اسباب	-11.2065
▁است'	-11.2065
▁است.بهرنگ	-11.2065
▁است.شاخص	-11.2065
▁است.طبق	-11.2065
▁است.مسئولان	-11.2065
▁است.کارشناسان	-11.2065
▁است.گفت	-11.2065
▁استانداری	-11.2065
▁استرداد	-11.2065
▁استوزارت	-11.2065
▁استیو	-11.2065
▁اسراییل	-11.2065
▁اسکوبار	-11.2065
▁اشتباهی	-11.2065
▁اشتیاق	-11.2065
▁اشخاص	-11.2065
▁اصغر	-11.2065
▁اظهارنظری	-11.2065
▁اعطا	-11.2065
▁افزاید	-11.2065
▁افزایشی	-11.2065
▁افزودن	-11.2065
▁افزون	-11.2065
▁افغانستان؛	-11.2065
▁اقامه	-11.2065
▁الاجل	-11.2065
▁الزام	-11.2065
▁النصر	-11.2065
▁الهدی	-11.2065
▁امورخارجه	-11.2065
▁امیرحسین	-11.2065
▁امیری	-11.2065
▁انبوهی	-11.2065
▁انتصاب	-11.2065
▁انتقادهایی	-11.2065
▁انتقام	-11.2065
▁انحصار	-11.2065
▁انحلال	-11.2065
▁اند.آقای	-11.2065
▁اند.اما	-11.2065
▁اند.بر	-11.2065
▁اند.یک	-11.2065
▁اند؟امسال	-11.2065
▁اندیشکده	-11.2065
▁انستیتوی	-11.2065
▁انگاری	-11.2065
▁او،	-11.2065
▁اولدترافورد	-11.2065
▁اولی	-11.2065
▁اکتشاف	-11.2065
▁ای:	-11.2065
▁ایراندر	-11.2065
▁باج	-11.2065
▁بارگیری	-11.2065
▁بازاریابی	-11.2065
▁بازتاب	-11.2065
▁بازداشتی	-11.2065
▁بازماندگان	-11.2065
▁بازپرداخت	-11.2065
▁بازگو	-11.2065
▁باسابقه	-11.2065
▁بانان	-11.2065
▁بانو	-11.2065
▁باورند	-11.2065
▁ببیند.	-11.2065
▁ببینیم	-11.2065
▁بخشیدن	-11.2065
▁بخواهد	-11.2065
▁بخواهید	-11.2065
▁بدهد.	-11.2065
▁بدهند.	-11.2065
▁برآمدن	-11.2065
▁برآمده	-11.2065
▁برجام،	-11.2065
▁برجای	-11.2065
▁برساند	-11.2065
▁برشنا	-11.2065
▁برنگشته	-11.2065
▁برگرداندن	-11.2065
▁بریت	-11.2065
▁بریتانیامنبع	-11.2065
▁بریتنی	-11.2065
▁بریستول	-11.2065
▁بزنم.	-11.2065
▁بعدتر	-11.2065
▁بنادر	-11.2065
▁بهنام	-11.2065
▁بو	-11.2065
▁بود.بیشتر	-11.2065
▁بود.پس	-11.2065
▁بود؟منبع	-11.2065
▁بودند.این	-11.2065
▁بور	-11.2065
▁بونوئل	-11.2065
▁بکشد.	-11.2065
▁بگذارید	-11.2065
▁بگیران	-11.2065
▁بگیرید.	-11.2065
▁بیافتد	-11.2065
▁تابحال	-11.2065
▁تاجزاده	-11.2065
▁تبلیغی	-11.2065
▁تحریریه	-11.2065
▁تحصیلی	-11.2065
▁تحقیرآمیز	-11.2065
▁تخصص	-11.2065
▁تدفین	-11.2065
▁ترامپ،	-11.2065
▁تراکم	-11.2065
▁ترتیبات	-11.2065
▁تسهیل	-11.2065
▁تشویش	-11.2065
▁تشکل	-11.2065
▁تصاعد	-11.2065
▁تصرف	-11.2065
▁تفریح	-11.2065
▁تفکر	-11.2065
▁تلاطم	-11.2065
▁تمامیت	-11.2065
▁تندیس	-11.2065
▁تنگنای	-11.2065
▁تهرانی	-11.2065
▁توبیاس	-11.2065
▁توربو	-11.2065
▁تولدش	-11.2065
▁تومان،	-11.2065
▁تونل	-11.2065
▁توییترش	-11.2065
▁تکامل	-11.2065
▁تکنیک	-11.2065
▁تکنیکی	-11.2065
▁تیغ	-11.2065
▁جدیت	-11.2065
▁جراحت	-11.2065
▁جلوه	-11.2065
▁جمهوریت	-11.2065
▁جنر	-11.2065
▁جنوبی؛	-11.2065
▁جنگند	-11.2065
▁جهان:	-11.2065
▁جهان؛	-11.2065
▁جهشی	-11.2065
▁جوامع	-11.2065
▁جوی	-11.2065
▁جیل	-11.2065
▁جیک	-11.2065
▁حتماً	-11.2065
▁حرارت	-11.2065
▁حرام	-11.2065
▁حرکتی	-11.2065
▁حلی	-11.2065
▁خالف	-11.2065
▁خاور	-11.2065
▁خدایاری	-11.2065
▁خسته	-11.2065
▁خلبان	-11.2065
▁خودسرانه	-11.2065
▁خوزستان،	-11.2065
▁خیره	-11.2065
▁داد.این	-11.2065
▁داد.به	-11.2065
▁داد.در	-11.2065
▁دادخواهی	-11.2065
▁دارد.او	-11.2065
▁دارد؟منبع	-11.2065
▁دارداین	-11.2065
▁دارند.در	-11.2065
▁دارند.منبع	-11.2065
▁دارند:	-11.2065
▁دارنده	-11.2065
▁داروین	-11.2065
▁داشبورد	-11.2065
▁داندی	-11.2065
▁دانستن	-11.2065
▁دانشگر	-11.2065
▁داوینچی	-11.2065
▁دایی	-11.2065
▁دبی	-11.2065
▁درمی	-11.2065
▁درونی	-11.2065
▁دستش	-11.2065
▁دستوری	-11.2065
▁دفاتر	-11.2065
▁دلار،	-11.2065
▁دهد:	-11.2065
▁دهندمنبع	-11.2065
▁دوخته	-11.2065
▁دولتش	-11.2065
▁دوندگان	-11.2065
▁دژ	-11.2065
▁دیرتر	-11.2065
▁دیوارهای	-11.2065
▁دیواری	-11.2065
▁دیگر.	-11.2065
▁ذی	-11.2065
▁ذیبخش	-11.2065
▁راستا	-11.2065
▁ربایی	-11.2065
▁رزم	-11.2065
▁رسیدند.	-11.2065
▁رطوبت	-11.2065
▁رغبت	-11.2065
▁رفت،	-11.2065
▁رقبا	-11.2065
▁ره	-11.2065
▁روبرتو	-11.2065
▁روزگاری	-11.2065
▁رولز	-11.2065
▁رولزرویس	-11.2065
▁ریاحی	-11.2065
▁زاکانی	-11.2065
▁زهرای	-11.2065
▁زیمبابوه	-11.2065
▁ساختارهای	-11.2065
▁سازوکار	-11.2065
▁سال.	-11.2065
▁سام	-11.2065
▁سان	-11.2065
▁سانتیمتر	-11.2065
▁ساید	-11.2065
▁سایرین	-11.2065
▁سربازی	-11.2065
▁سردرگمی	-11.2065
▁سرطانی	-11.2065
▁سرگذشت	-11.2065
▁سریعتر	-11.2065
▁سزار	-11.2065
▁سفارشی	-11.2065
▁سفرش	-11.2065
▁سفیددره	-11.2065
▁سفیران	-11.2065
▁سهامدار	-11.2065
▁سوق	-11.2065
▁سومو	-11.2065
▁سوگوار	-11.2065
▁سکان	-11.2065
▁سیا	-11.2065
▁سیاستهای	-11.2065
▁سینما،	-11.2065
▁سینماگر	-11.2065
▁سیگنال	-11.2065
▁شانگهای	-11.2065
▁شایسته	-11.2065
▁شباهتی	-11.2065
▁شجریان:	-11.2065
▁شخصا	-11.2065
▁شخصیتی	-11.2065
▁شد.همزمان	-11.2065
▁شدرئیس	-11.2065
▁شرم	-11.2065
▁شهاب	-11.2065
▁شهرام	-11.2065
▁شهرتی	-11.2065
▁شود.خانم	-11.2065
▁شورش	-11.2065
▁شوهر	-11.2065
▁شوهرش	-11.2065
▁شکارچیان	-11.2065
▁شکافی	-11.2065
▁شکن	-11.2065
▁صاف	-11.2065
▁صبا	-11.2065
▁صحبتی	-11.2065
▁صراحت	-11.2065
▁صفحاتی	-11.2065
▁صمیمی	-11.2065
▁ضریب	-11.2065
▁طرفین	-11.2065
▁طغیان	-11.2065
▁طلبد	-11.2065
▁طلسم	-11.2065
▁ظاهراً	-11.2065
▁عتیقه	-11.2065
▁عثمانی	-11.2065
▁عراق،	-11.2065
▁عربستان،	-11.2065
▁عروس	-11.2065
▁عسل	-11.2065
▁عمودی	-11.2065
▁عنصر	-11.2065
▁عنوانی	-11.2065
▁عکاسان	-11.2065
▁عیب	-11.2065
▁عیسی	-11.2065
▁غیربومی	-11.2065
▁غیرحرفه	-11.2065
▁غیردولتی	-11.2065
▁غیرواقعی	-11.2065
▁فاتح	-11.2065
▁فاضلی	-11.2065
▁فاطمه	-11.2065
▁فحش	-11.2065
▁فراکسیون	-11.2065
▁فرجام	-11.2065
▁فرزندآوری	-11.2065
▁فرستادن	-11.2065
▁فرشته	-11.2065
▁فرقی	-11.2065
▁فرندز	-11.2065
▁فرودین	-11.2065
▁فسیل	-11.2065
▁فشارهای	-11.2065
▁فضل	-11.2065
▁فعالی	-11.2065
▁فلزات	-11.2065
▁فلیکس	-11.2065
▁فهرستی	-11.2065
▁فهیم	-11.2065
▁فی	-11.2065
▁فیروز	-11.2065
▁قائدی	-11.2065
▁قاسمی	-11.2065
▁قاطعانه	-11.2065
▁قایقی	-11.2065
▁قحطی	-11.2065
▁قدردانی	-11.2065
▁قرائت	-11.2065
▁قران	-11.2065
▁قرقیزستان	-11.2065
▁قفسه	-11.2065
▁قوم	-11.2065
▁لباسی	-11.2065
▁لسترسیتی	-11.2065
▁لطفی	-11.2065
▁لمسی	-11.2065
▁لوو	-11.2065
▁لیبی	-11.2065
▁مادرید،	-11.2065
▁مارکز	-11.2065
▁ماه،	-11.2065
▁مبادی	-11.2065
▁مبلغی	-11.2065
▁متان	-11.2065
▁متلاشی	-11.2065
▁متوفی	-11.2065
▁مثل	-11.2065
▁محتوی	-11.2065
▁محمدحسین	-11.2065
▁محوریت	-11.2065
▁مخزن	-11.2065
▁مدیربرنامه	-11.2065
▁مدیریتی	-11.2065
▁مذکور	-11.2065
▁مرادی	-11.2065
▁مراقب	-11.2065
▁مربع	-11.2065
▁مرضیه	-11.2065
▁مروری	-11.2065
▁مزار	-11.2065
▁مزارشریف	-11.2065
▁مستقیمی	-11.2065
▁مسموم	-11.2065
▁مسوولان	-11.2065
▁مشتاق	-11.2065
▁مشخصه	-11.2065
▁مضاعف	-11.2065
▁مطالبات	-11.2065
▁مطیعی	-11.2065
▁معاهدات	-11.2065
▁معاونان	-11.2065
▁معلولان	-11.2065
▁معلولیت	-11.2065
▁معما	-11.2065
▁معین	-11.2065
▁مغزش	-11.2065
▁مغولستان	-11.2065
▁مقامی	-11.2065
▁مقداری	-11.2065
▁مناره	-11.2065
▁مناقشه	-11.2065
▁منتسب	-11.2065
▁منتشرشده	-11.2065
▁منظره	-11.2065
▁منوط	-11.2065
▁مهران	-11.2065
▁موتورز	-11.2065
▁موتورهای	-11.2065
▁موزیک	-11.2065
▁موی	-11.2065
▁مگان	-11.2065
▁میادین	-11.2065
▁میشل	-11.2065
▁میلیاردرهای	-11.2065
▁میوند	-11.2065
▁میکروب	-11.2065
▁ناآرام	-11.2065
▁ناامید	-11.2065
▁ناخوشایند	-11.2065
▁ناراحتی	-11.2065
▁نامبرده	-11.2065
▁نامجو	-11.2065
▁ناپولی	-11.2065
▁ناکافی	-11.2065
▁نرفته	-11.2065
▁نزدیکتر	-11.2065
▁نشانگر	-11.2065
▁نشدند	-11.2065
▁نعلی	-11.2065
▁نفتکشی	-11.2065
▁نمک	-11.2065
▁نهایتا	-11.2065
▁نهی	-11.2065
▁نو،	-11.2065
▁نوئل	-11.2065
▁نواحی	-11.2065
▁نوایی	-11.2065
▁نوزادان	-11.2065
▁نوشیدنی	-11.2065
▁نویر	-11.2065
▁نیافته	-11.2065
▁نیستیم	-11.2065
▁نیل	-11.2065
▁نیمروز	-11.2065
▁نیچر	-11.2065
▁هدست	-11.2065
▁هراس	-11.2065
▁هرجا	-11.2065
▁هرکس	-11.2065
▁هریسون	-11.2065
▁هفتصد	-11.2065
▁همزمان،	-11.2065
▁هپاتیت	-11.2065
▁هیچکدام	-11.2065
▁واتفورد	-11.2065
▁واجد	-11.2065
▁واردکنندگان	-11.2065
▁واردی	-11.2065
▁وحشت	-11.2065
▁ورزشکاری	-11.2065
▁وزنه	-11.2065
▁وقفی	-11.2065
▁ولادیمیر	-11.2065
▁ویتنام	-11.2065
▁ویرایش	-11.2065
▁ویل	-11.2065
▁پادمان	-11.2065
▁پاسخگویی	-11.2065
▁پافشاری	-11.2065
▁پالایشی	-11.2065
▁پاهایش	-11.2065
▁پذیره	-11.2065
▁پربیننده	-11.2065
▁پرجمعیت	-11.2065
▁پرسند	-11.2065
▁پسری	-11.2065
▁پهپاد	-11.2065
▁پوسته	-11.2065
▁پژمان	-11.2065
▁پیامک	-11.2065
▁پیداست	-11.2065
▁پیرامون	-11.2065
▁پیروی	-11.2065
▁پیری	-11.2065
▁پیشانی	-11.2065
▁پیشبرد	-11.2065
▁پینگ	-11.2065
▁پیگیر	-11.2065
▁چای	-11.2065
▁چشمان	-11.2065
▁چشمی	-11.2065
▁چلسی،	-11.2065
▁چنگیز	-11.2065
▁چوبی	-11.2065
▁چپمن	-11.2065
▁چیدمان	-11.2065
▁چیزهای	-11.2065
▁چیست؟	-11.2065
▁چیفتن	-11.2065
▁چینمنبع	-11.2065
▁ژئوپلیتیک	-11.2065
▁کارفرما	-11.2065
▁کارم	-11.2065
▁کارولینای	-11.2065
▁کارگرانی	-11.2065
▁کاریر	-11.2065
▁کاظمی	-11.2065
▁کالابرگ	-11.2065
▁کام	-11.2065
▁کرد.افغانستان	-11.2065
▁کردند.اما	-11.2065
▁کرمانشاه	-11.2065
▁کرمانی	-11.2065
▁کرونایی	-11.2065
▁کریم	-11.2065
▁کشاند	-11.2065
▁کشند	-11.2065
▁کلئوپاترا	-11.2065
▁کلیسای	-11.2065
▁کمابیش	-11.2065
▁کنند.او	-11.2065
▁کنندگانی	-11.2065
▁کودکانی	-11.2065
▁کونته	-11.2065
▁کوهنورد	-11.2065
▁کیست	-11.2065
▁کیسه	-11.2065
▁کیمیایی	-11.2065
▁گارد	-11.2065
▁گال	-11.2065
▁گدوت	-11.2065
▁گردنبند	-11.2065
▁گردند	-11.2065
▁گریزمان	-11.2065
▁گسل	-11.2065
▁گشت؛	-11.2065
▁گفتم	-11.2065
▁گلاسکو	-11.2065
▁گنج	-11.2065
▁گهر	-11.2065
▁گوهرشاد	-11.2065
▁گویند.	-11.2065
▁گیرد،	-11.2065
▁گیرنده	-11.2065
▁گیل	-11.2065
▁گیم	-11.2065
▁یابد؛	-11.2065
▁یافتمنبع	-11.2065
▁یهودیان	-11.2065
▁یوان	-11.2065
▁۱.۵	-11.2065
▁۱۰۸	-11.2065
▁۱۳۰	-11.2065
▁۱۳۷	-11.2065
▁۱۹۰۰	-11.2065
▁۱۹۴۶	-11.2065
▁۱۹۵۰	-11.2065
▁۱۹۶۵	-11.2065
▁۱۹۹۲	-11.2065
▁۲۰۱۹؛	-11.2065
▁۲۰۲۱؛	-11.2065
▁۲۹۰	-11.2065
▁۵۴	-11.2065
▁۸۴	-11.2065
▁۹۲	-11.2065
▁۹۸؛	-11.2065
▁'بی	-11.3606
▁'سنگر	-11.3606
▁(آلمان)،	-11.3606
▁(آمریکا)	-11.3606
▁(استرالیا)،	-11.3606
▁(اسپانیا)،	-11.3606
▁(ایتالیا)	-11.3606
▁(یونان)،	-11.3606
▁)	-11.3606
▁..	-11.3606
▁.موسسه	-11.3606
▁آسا	-11.3606
▁آستون	-11.3606
▁آغازین	-11.3606
▁آلات	-11.3606
▁آلبر	-11.3606
▁آمریکاییان	-11.3606
▁آمیخته	-11.3606
▁آندرسکو	-11.3606
▁آنری	-11.3606
▁آهو	-11.3606
▁آورد.او	-11.3606
▁آورده.	-11.3606
▁آپولو	-11.3606
▁آیس	-11.3606
▁آیفون	-11.3606
▁آینه	-11.3606
▁ابدی	-11.3606
▁ابهامات	-11.3606
▁ابوالملوکی	-11.3606
▁اجزای	-11.3606
▁اجماع	-11.3606
▁احترامی	-11.3606
▁احصائیه	-11.3606
▁احمدرضا	-11.3606
▁احوال	-11.3606
▁اخترشناسان	-11.3606
▁ار	-11.3606
▁ارتفاعات	-11.3606
▁اردوی	-11.3606
▁اردکانیان	-11.3606
▁ارقامی	-11.3606
▁ارومیه	-11.3606
▁است.آمریکا	-11.3606
▁است.طی	-11.3606
▁است.منظور	-11.3606
▁است.پوریا	-11.3606
▁است.کسری	-11.3606
▁استرالیا،	-11.3606
▁استرسانه	-11.3606
▁استعمار	-11.3606
▁استفانونس	-11.3606
▁استونز	-11.3606
▁استکهلم	-11.3606
▁استیلی	-11.3606
▁اسرارآمیز	-11.3606
▁اسعدی	-11.3606
▁اسنادی	-11.3606
▁اسپارتاک	-11.3606
▁اسکار،	-11.3606
▁اشتباهاتی	-11.3606
▁اصلاحی	-11.3606
▁اصلاحیه	-11.3606
▁اصولا	-11.3606
▁اضطرار	-11.3606
▁اعتراضاتی	-11.3606
▁افتاد؛	-11.3606
▁افزودند	-11.3606
▁اقتصاددان	-11.3606
▁اقوام	-11.3606
▁الاکلنگ	-11.3606
▁التحصیل	-11.3606
▁الخط	-11.3606
▁الکلی	-11.3606
▁امضاکننده	-11.3606
▁امپریال	-11.3606
▁امیدوارکننده	-11.3606
▁امیرعلی	-11.3606
▁انحصاری	-11.3606
▁اند.خبرگزاری	-11.3606
▁انضباطی	-11.3606
▁انگاره	-11.3606
▁اهمیتی	-11.3606
▁اوله	-11.3606
▁اون	-11.3606
▁اوگوپوگو	-11.3606
▁اویغور	-11.3606
▁اِی	-11.3606
▁اپراتورهای	-11.3606
▁اکبری	-11.3606
▁اکثرا	-11.3606
▁ایت	-11.3606
▁ایرانی-آمریکایی	-11.3606
▁ایرلندی	-11.3606
▁ایزنر	-11.3606
▁ایستاد	-11.3606
▁ایستادند.	-11.3606
▁این،	-11.3606
▁اینچی	-11.3606
▁باخ	-11.3606
▁باخت.	-11.3606
▁باختری	-11.3606
▁بارانی	-11.3606
▁بارتومئو	-11.3606
▁بازجویی	-11.3606
▁بازرگان	-11.3606
▁بازنده	-11.3606
▁بازنمایی	-11.3606
▁بازگرداند	-11.3606
▁بازگردد.	-11.3606
▁بازگشت.	-11.3606
▁باشکوه	-11.3606
▁باشید.	-11.3606
▁بالیوود	-11.3606
▁باومگارتنر	-11.3606
▁بایر	-11.3606
▁ببازد	-11.3606
▁بتازگی	-11.3606
▁بخرد	-11.3606
▁بخشنامه	-11.3606
▁بخشهایی	-11.3606
▁بدانید	-11.3606
▁بذرپاش	-11.3606
▁برایان	-11.3606
▁برایشان	-11.3606
▁برجام؛	-11.3606
▁برخورداری	-11.3606
▁برنا	-11.3606
▁برنمی	-11.3606
▁برهه	-11.3606
▁بروم	-11.3606
▁برگر	-11.3606
▁برگردد	-11.3606
▁بریتیش	-11.3606
▁بزرگراه	-11.3606
▁بزرگسالان	-11.3606
▁بسر	-11.3606
▁بشریت	-11.3606
▁بعضا	-11.3606
▁بل	-11.3606
▁بنزینی	-11.3606
▁بنیامین	-11.3606
▁بهبهان	-11.3606
▁بهینه	-11.3606
▁بود.بعضی	-11.3606
▁بود.مقام	-11.3606
▁بورات	-11.3606
▁بورگارل	-11.3606
▁بوق	-11.3606
▁بوچانی	-11.3606
▁بوگاتی	-11.3606
▁بپردازد	-11.3606
▁بکتاش	-11.3606
▁بکشند.	-11.3606
▁بگذارم.	-11.3606
▁بگذارند	-11.3606
▁بگیرم	-11.3606
▁بینند	-11.3606
▁بیگ	-11.3606
▁تأخیر	-11.3606
▁تابعیت	-11.3606
▁تاجگردون	-11.3606
▁تاکادا	-11.3606
▁تبرئه	-11.3606
▁تجارتی	-11.3606
▁تجدیدنظر	-11.3606
▁تجمعی	-11.3606
▁تحولاتی	-11.3606
▁تخیل	-11.3606
▁ترافیکی	-11.3606
▁ترحیم	-11.3606
▁ترددهای	-11.3606
▁ترشح	-11.3606
▁ترقی	-11.3606
▁ترکیش	-11.3606
▁تسریع	-11.3606
▁تسلط	-11.3606
▁تسلی	-11.3606
▁تسویه	-11.3606
▁تعلل	-11.3606
▁تفنگ	-11.3606
▁تفکیکی	-11.3606
▁تقریبی	-11.3606
▁تقلا	-11.3606
▁تملک	-11.3606
▁تنسی	-11.3606
▁توبین	-11.3606
▁تورنمنتی	-11.3606
▁توس	-11.3606
▁توسان	-11.3606
▁جابجا	-11.3606
▁جاسوس	-11.3606
▁جامد	-11.3606
▁جانش	-11.3606
▁جانوران	-11.3606
▁جدولی	-11.3606
▁جذابی	-11.3606
▁جذابیت	-11.3606
▁جرارد	-11.3606
▁جرج	-11.3606
▁جسورانه	-11.3606
▁جماهیر	-11.3606
▁جملات	-11.3606
▁جنب	-11.3606
▁جنی	-11.3606
▁جهان'	-11.3606
▁جهانمنبع	-11.3606
▁جوانا	-11.3606
▁جواهرات	-11.3606
▁جِزیرو	-11.3606
▁جیبوتی	-11.3606
▁حاج	-11.3606
▁حالم	-11.3606
▁حاکیست	-11.3606
▁حجت	-11.3606
▁حدودا	-11.3606
▁حدودی	-11.3606
▁حریرچی	-11.3606
▁حفاظتی	-11.3606
▁حمیدرضا	-11.3606
▁حوض	-11.3606
▁حکمرانی	-11.3606
▁حکمیت	-11.3606
▁خالی'	-11.3606
▁خاندان	-11.3606
▁خدماتی	-11.3606
▁خرمشهر	-11.3606
▁خرندگزارش	-11.3606
▁خشمگین	-11.3606
▁خضریان	-11.3606
▁خطا	-11.3606
▁خفیفی	-11.3606
▁خلوتگر	-11.3606
▁خوابیدن	-11.3606
▁خوانند	-11.3606
▁خودروهایی	-11.3606
▁خودمختار	-11.3606
▁خوشبختانه	-11.3606
▁خیال	-11.3606
▁خیالی	-11.3606
▁خیام	-11.3606
▁داخله	-11.3606
▁دادرسی	-11.3606
▁دادیم	-11.3606
▁داران	-11.3606
▁داشتنی	-11.3606
▁داند.	-11.3606
▁دانستیم	-11.3606
▁دانند؛	-11.3606
▁دانیل	-11.3606
▁داوود	-11.3606
▁درام	-11.3606
▁درحالیکه	-11.3606
▁دردسرهای	-11.3606
▁درسال	-11.3606
▁درهم	-11.3606
▁درواقع	-11.3606
▁درگاه	-11.3606
▁دریانوردی	-11.3606
▁دزدی	-11.3606
▁دستمزدی	-11.3606
▁دسمورژه	-11.3606
▁دعا	-11.3606
▁دلو	-11.3606
▁دلیلش	-11.3606
▁دمشق	-11.3606
▁دموکراتیک	-11.3606
▁دنیل	-11.3606
▁دهی	-11.3606
▁دولتمند	-11.3606
▁دویده	-11.3606
▁دکمه	-11.3606
▁دیاباته	-11.3606
▁دیدارش	-11.3606
▁دیدگی	-11.3606
▁دیفندر	-11.3606
▁ذائقه	-11.3606
▁ذاتی	-11.3606
▁ذهنش	-11.3606
▁ر	-11.3606
▁را.	-11.3606
▁رابعه	-11.3606
▁رادیواکتیو	-11.3606
▁راسل	-11.3606
▁راشد	-11.3606
▁راندن	-11.3606
▁راهنمای	-11.3606
▁راهنمایی	-11.3606
▁رایگان	-11.3606
▁رحمتی	-11.3606
▁رختکن	-11.3606
▁رخدادهای	-11.3606
▁رزیدنت	-11.3606
▁رس	-11.3606
▁رساندند.	-11.3606
▁رسولی	-11.3606
▁رصدخانه	-11.3606
▁رضاوند	-11.3606
▁رفراندوم	-11.3606
▁رفینیتیو	-11.3606
▁رو،	-11.3606
▁روانپزشکی	-11.3606
▁روانچی	-11.3606
▁روباز	-11.3606
▁روبرت	-11.3606
▁روده	-11.3606
▁روستاهای	-11.3606
▁رولینگ	-11.3606
▁رومی	-11.3606
▁روند.	-11.3606
▁رویال	-11.3606
▁رویدادها	-11.3606
▁رویز	-11.3606
▁رویس	-11.3606
▁رپ	-11.3606
▁ریختگی	-11.3606
▁ریلی	-11.3606
▁ریو	-11.3606
▁ریویان	-11.3606
▁زایشگاه	-11.3606
▁زلاتان	-11.3606
▁زمانه	-11.3606
▁زن:	-11.3606
▁زندانیانی	-11.3606
▁زهرامنبع	-11.3606
▁زوم	-11.3606
▁زیبای	-11.3606
▁زیرزمینی	-11.3606
▁ساختمانی	-11.3606
▁سالمرگ	-11.3606
▁سامان	-11.3606
▁سانتوس	-11.3606
▁سانجی	-11.3606
▁ساوتهمپتون	-11.3606
▁ساک	-11.3606
▁سبکی	-11.3606
▁سجاد	-11.3606
▁سرانه	-11.3606
▁سردسته	-11.3606
▁سرلشکر	-11.3606
▁سروده	-11.3606
▁سلیمان	-11.3606
▁سندرم	-11.3606
▁سهمی	-11.3606
▁سوئیس)،	-11.3606
▁سوخته	-11.3606
▁سوپرمارکت	-11.3606
▁سوگ	-11.3606
▁سویفت	-11.3606
▁سپاه'	-11.3606
▁سکوها	-11.3606
▁سی.	-11.3606
▁سیاسی،	-11.3606
▁سیاهپوست	-11.3606
▁سیاهی	-11.3606
▁سیتروئن	-11.3606
▁سیدل	-11.3606
▁سیلی	-11.3606
▁سیما،	-11.3606
▁شاد	-11.3606
▁شارلوت	-11.3606
▁شام	-11.3606
▁شاپووالوف	-11.3606
▁شد.از	-11.3606
▁شد.بیشتر	-11.3606
▁شد.خانم	-11.3606
▁شددر	-11.3606
▁شرطی	-11.3606
▁شعری	-11.3606
▁شفر	-11.3606
▁شفیلد	-11.3606
▁شمش	-11.3606
▁شناختی	-11.3606
▁شهره	-11.3606
▁شهریاری	-11.3606
▁شهیدی	-11.3606
▁شود.ایران	-11.3606
▁شود.رئیس	-11.3606
▁شود.وزارت	-11.3606
▁شوراهای	-11.3606
▁شوند؛	-11.3606
▁شکات	-11.3606
▁شکنی	-11.3606
▁شکی	-11.3606
▁شیفته	-11.3606
▁صادرکنندگانی	-11.3606
▁صحرایی	-11.3606
▁صرب	-11.3606
▁صرفنظر	-11.3606
▁صفوف	-11.3606
▁صنعت،	-11.3606
▁صنف	-11.3606
▁صوت	-11.3606
▁صورتش	-11.3606
▁طاعون	-11.3606
▁طاقت	-11.3606
▁طبیعتا	-11.3606
▁طناب	-11.3606
▁عاری	-11.3606
▁عامه	-11.3606
▁عامیانه	-11.3606
▁عبارتند	-11.3606
▁عبارتی	-11.3606
▁عجیبی	-11.3606
▁عروقی	-11.3606
▁عزاداران	-11.3606
▁عزت	-11.3606
▁عزیزانشان	-11.3606
▁عصب	-11.3606
▁عقد	-11.3606
▁علامتی	-11.3606
▁علل	-11.3606
▁علیزاده	-11.3606
▁عنابی	-11.3606
▁غالبا	-11.3606
▁غبار	-11.3606
▁غرور	-11.3606
▁غلام	-11.3606
▁غلیظ	-11.3606
▁غیرعضو	-11.3606
▁فتاح	-11.3606
▁فرخ	-11.3606
▁فرزندانشان	-11.3606
▁فرزین	-11.3606
▁فرسایشی	-11.3606
▁فرسوده	-11.3606
▁فروزش	-11.3606
▁فروزش،	-11.3606
▁فریتز	-11.3606
▁فستیوال	-11.3606
▁فشارها	-11.3606
▁فشاری	-11.3606
▁فضاپیما	-11.3606
▁فضاپیمای	-11.3606
▁فعالیتش	-11.3606
▁فعلاً	-11.3606
▁فقیه	-11.3606
▁فلامینگوها	-11.3606
▁فوتبال:	-11.3606
▁فوتبال؛	-11.3606
▁فورا	-11.3606
▁فورت	-11.3606
▁فولکلور	-11.3606
▁فونینی	-11.3606
▁فک	-11.3606
▁فیش	-11.3606
▁فیلمسازی	-11.3606
▁قاعده	-11.3606
▁قتالی	-11.3606
▁قربان	-11.3606
▁قرنطینه،	-11.3606
▁قزاق	-11.3606
▁قصر	-11.3606
▁قلبم	-11.3606
▁قمقمه	-11.3606
▁قوز	-11.3606
▁قومندان	-11.3606
▁لاتزیو	-11.3606
▁لاپورتا	-11.3606
▁لبخندی	-11.3606
▁لبه	-11.3606
▁لحنی	-11.3606
▁لندن،	-11.3606
▁لهستانی	-11.3606
▁لورکوزن	-11.3606
▁لومامبا	-11.3606
▁لوک	-11.3606
▁لوی	-11.3606
▁لویه	-11.3606
▁لیدی	-11.3606
▁لیریک	-11.3606
▁لینکین	-11.3606
▁لیورپولی	-11.3606
▁ماجرایی	-11.3606
▁مادی	-11.3606
▁مارادونا،	-11.3606
▁مارادونای	-11.3606
▁ماراکانا	-11.3606
▁ماساچوست	-11.3606
▁مافی	-11.3606
▁مالباختگان	-11.3606
▁ماندلا	-11.3606
▁مانش	-11.3606
▁مانند	-11.3606
▁ماهها	-11.3606
▁مباحث	-11.3606
▁مبارزات	-11.3606
▁مبارکه	-11.3606
▁متصل	-11.3606
▁متمایز	-11.3606
▁متیو	-11.3606
▁مجامع	-11.3606
▁مجبورند	-11.3606
▁مجریان	-11.3606
▁مجلات	-11.3606
▁مجلس،	-11.3606
▁مجوزهای	-11.3606
▁محاصره	-11.3606
▁محبوس	-11.3606
▁محتمل	-11.3606
▁محدودیتهایی	-11.3606
▁محدودیتی	-11.3606
▁محفوظ	-11.3606
▁محی	-11.3606
▁مخابره	-11.3606
▁مخاطب	-11.3606
▁مخرب	-11.3606
▁مدلی	-11.3606
▁مراوده	-11.3606
▁مردادماه	-11.3606
▁مردانی	-11.3606
▁مرسی	-11.3606
▁مرموز	-11.3606
▁مسائلی	-11.3606
▁مسابقاتی	-11.3606
▁مساجد	-11.3606
▁مساحت	-11.3606
▁مساعد	-11.3606
▁مسافرانی	-11.3606
▁مسلحانه	-11.3606
▁مشتریانش	-11.3606
▁مشتقات	-11.3606
▁مشخصات	-11.3606
▁مصدومان	-11.3606
▁مصون	-11.3606
▁مضمون	-11.3606
▁معطل	-11.3606
▁معناست	-11.3606
▁مفهومی	-11.3606
▁مقبره	-11.3606
▁مقصود	-11.3606
▁مقطع	-11.3606
▁مقیمی	-11.3606
▁ملاحظات	-11.3606
▁ملاحظه	-11.3606
▁ملخ	-11.3606
▁ملزم	-11.3606
▁مملکت	-11.3606
▁منار	-11.3606
▁منحرف	-11.3606
▁منحصرا	-11.3606
▁منقبض	-11.3606
▁مهدوی	-11.3606
▁مهربان	-11.3606
▁مهره	-11.3606
▁مهناز	-11.3606
▁مهیج	-11.3606
▁موثری	-11.3606
▁مورگان	-11.3606
▁موفقی	-11.3606
▁مونتاژ	-11.3606
▁مونتسا	-11.3606
▁موکلش	-11.3606
▁مژگان	-11.3606
▁مکتوب	-11.3606
▁میدل	-11.3606
▁میل	-11.3606
▁میلیاردی	-11.3606
▁میلیونها	-11.3606
▁مینسک	-11.3606
▁میهن	-11.3606
▁نابرابری	-11.3606
▁نابسامانی	-11.3606
▁ناتوان	-11.3606
▁ناتوانی	-11.3606
▁نامعلوم	-11.3606
▁نامگذاری	-11.3606
▁ناهماهنگی	-11.3606
▁ناچیز	-11.3606
▁ناک	-11.3606
▁ناگزیر	-11.3606
▁ند	-11.3606
▁ندارد.آقای	-11.3606
▁ندیمه	-11.3606
▁نرسید	-11.3606
▁نسکار	-11.3606
▁نشاط	-11.3606
▁نشدمنبع	-11.3606
▁نشست.	-11.3606
▁نشستن	-11.3606
▁نفی	-11.3606
▁نلسون	-11.3606
▁نمادها	-11.3606
▁ننگ	-11.3606
▁نهادها	-11.3606
▁نوآورانه	-11.3606
▁نوردی	-11.3606
▁نورمحمدوف	-11.3606
▁نوزاد	-11.3606
▁نوشتم	-11.3606
▁نوشته:	-11.3606
▁نوشیدن	-11.3606
▁نوه	-11.3606
▁نگذاشته	-11.3606
▁نیستند.	-11.3606
▁نیکپا	-11.3606
▁هادی	-11.3606
▁هاسل	-11.3606
▁هاشیموتو	-11.3606
▁هانا	-11.3606
▁هاپکینز	-11.3606
▁هدفی	-11.3606
▁هروی	-11.3606
▁هرکسی	-11.3606
▁هستند.به	-11.3606
▁هستند.در	-11.3606
▁هستند.شیدا	-11.3606
▁هلسینکی	-11.3606
▁هموار	-11.3606
▁هنرنمایی	-11.3606
▁هواشناسی	-11.3606
▁هوشیاری	-11.3606
▁هیئتی	-11.3606
▁هیولایی	-11.3606
▁واحده	-11.3606
▁وایکینگ	-11.3606
▁ورزند.	-11.3606
▁وروورت	-11.3606
▁وزاری	-11.3606
▁وفادار	-11.3606
▁ونوس	-11.3606
▁ونگر	-11.3606
▁ونیزمنبع	-11.3606
▁ووس	-11.3606
▁وولوز	-11.3606
▁ویدیوهایی	-11.3606
▁پابجی	-11.3606
▁پابند	-11.3606
▁پادشاهان	-11.3606
▁پادکست	-11.3606
▁پارکورکار	-11.3606
▁پاریس،	-11.3606
▁پاسخگو	-11.3606
▁پاسگاه	-11.3606
▁پالادیوم	-11.3606
▁پاهای	-11.3606
▁پاکبان	-11.3606
▁پرحاشیه	-11.3606
▁پرستار	-11.3606
▁پرسیویرنس	-11.3606
▁پرشور	-11.3606
▁پروست	-11.3606
▁پریشی	-11.3606
▁پلکانی	-11.3606
▁پهلو	-11.3606
▁پوستر	-11.3606
▁پژوهشهای	-11.3606
▁پیر	-11.3606
▁پیشه	-11.3606
▁پیمانکاران	-11.3606
▁پیمانکاری	-11.3606
▁پیموده	-11.3606
▁چندمین	-11.3606
▁چهارده	-11.3606
▁ژئوفیزیک	-11.3606
▁ژنشنگ	-11.3606
▁کاتالان	-11.3606
▁کار،	-11.3606
▁کاراکاس	-11.3606
▁کارند	-11.3606
▁کارگزار	-11.3606
▁کارگیری	-11.3606
▁کاسپین	-11.3606
▁کالبد	-11.3606
▁کامرانیه	-11.3606
▁کامیابی	-11.3606
▁کانترل	-11.3606
▁کاوانی	-11.3606
▁کاپیتانی	-11.3606
▁کثیر	-11.3606
▁کد	-11.3606
▁کرددر	-11.3606
▁کردند.او	-11.3606
▁کردند،	-11.3606
▁کردها	-11.3606
▁کردی	-11.3606
▁کرمانپور	-11.3606
▁کروناست	-11.3606
▁کریس	-11.3606
▁کفایت	-11.3606
▁کلا	-11.3606
▁کلوروکوئین	-11.3606
▁کلیوی	-11.3606
▁کمبریج	-11.3606
▁کمربندهای	-11.3606
▁کناری	-11.3606
▁کند.با	-11.3606
▁کنسول	-11.3606
▁کنش	-11.3606
▁کنشگران	-11.3606
▁کنند.آقای	-11.3606
▁کنند.بیشتر	-11.3606
▁کنند.پرهام	-11.3606
▁کنند؟منبع	-11.3606
▁کوشنر	-11.3606
▁کوله	-11.3606
▁کوهستانی	-11.3606
▁کیریوس	-11.3606
▁کیفرخواست	-11.3606
▁گاو	-11.3606
▁گذراند.	-11.3606
▁گرافیکی	-11.3606
▁گراند	-11.3606
▁گرث	-11.3606
▁گرجستان	-11.3606
▁گرفتیم	-11.3606
▁گرینویچ	-11.3606
▁گزیده	-11.3606
▁گزینش	-11.3606
▁گلدار	-11.3606
▁گوها	-11.3606
▁گوهر	-11.3606
▁گویای	-11.3606
▁گویم	-11.3606
▁گوییم	-11.3606
▁گپ	-11.3606
▁گیلبرت	-11.3606
▁یازدهمین	-11.3606
▁یافت؛	-11.3606
▁یخی	-11.3606
▁ید	-11.3606
▁یوسفی	-11.3606
▁یوسین	-11.3606
▁یونسی	-11.3606
▁یی	-11.3606
▁۱۰۹	-11.3606
▁۱۱۵	-11.3606
▁۱۳۴۰	-11.3606
▁۱۳۸۸	-11.3606
▁۱۳۹۲	-11.3606
▁۱۸۵	-11.3606
▁۱۹۲۱	-11.3606
▁۱۹۴۱	-11.3606
▁۱۹۶۷	-11.3606
▁۱۹۷۹	-11.3606
▁۱۹۸۸	-11.3606
▁۱۹۹۳	-11.3606
▁۱۹۹۶	-11.3606
▁۱۹۹۷	-11.3606
▁۲۰۲۰؛	-11.3606
▁۲۰۵	-11.3606
▁۲۱۰	-11.3606
▁۲۸۵	-11.3606
▁۳۶۰	-11.3606
▁۶۶	-11.3606
▁۶۹	-11.3606
▁۷۵۲	-11.3606
▁'آخرین	-11.5429
▁'شب	-11.5429
▁.شورای	-11.5429
▁آتشی	-11.5429
▁آدولف	-11.5429
▁آرزوها	-11.5429
▁آرماندو	-11.5429
▁آرمی	-11.5429
▁آرنت	-11.5429
▁آریگو	-11.5429
▁آزادماهی	-11.5429
▁آزمایشات	-11.5429
▁آشوین	-11.5429
▁آف	-11.5429
▁آفرینش	-11.5429
▁آفرینی	-11.5429
▁آقازاده	-11.5429
▁آقایی	-11.5429
▁آلبرت	-11.5429
▁آلت	-11.5429
▁آلمان.	-11.5429
▁آلمانمنبع	-11.5429
▁آماتور	-11.5429
▁آمبولانس	-11.5429
▁آمریکا.	-11.5429
▁آمپول	-11.5429
▁آنا	-11.5429
▁آنتالیا	-11.5429
▁آنجایی	-11.5429
▁آنرا	-11.5429
▁آنی	-11.5429
▁آهسته	-11.5429
▁آهنگی	-11.5429
▁آهنین	-11.5429
▁آینده،	-11.5429
▁ائتلاف	-11.5429
▁ابرستاره	-11.5429
▁ابرقدرت	-11.5429
▁ابطال	-11.5429
▁ابول	-11.5429
▁ابی	-11.5429
▁اتلان	-11.5429
▁اجرام	-11.5429
▁احتکار	-11.5429
▁احداث	-11.5429
▁اختاپوس	-11.5429
▁ادا	-11.5429
▁ادعاهایی	-11.5429
▁ادوار	-11.5429
▁اربیل	-11.5429
▁ارزشی	-11.5429
▁ارل	-11.5429
▁ارمجانی	-11.5429
▁اروپا،	-11.5429
▁اروپاست	-11.5429
▁ارگان	-11.5429
▁ازدحام	-11.5429
▁ازسرگیری	-11.5429
▁اساسا	-11.5429
▁است.آمار	-11.5429
▁است.احسان	-11.5429
▁است.احمد	-11.5429
▁است.امروز	-11.5429
▁است.انتشار	-11.5429
▁است.بیش	-11.5429
▁است.جسد	-11.5429
▁است.حدود	-11.5429
▁است.روابط	-11.5429
▁است.ریچارد	-11.5429
▁است.سیاوش	-11.5429
▁است.شماری	-11.5429
▁است.فدرر	-11.5429
▁است.کاوه	-11.5429
▁استایران	-11.5429
▁استبر	-11.5429
▁استثنایی	-11.5429
▁استرالیامنبع	-11.5429
▁استرول	-11.5429
▁استمراسم	-11.5429
▁استملاک	-11.5429
▁استیک	-11.5429
▁اسرع	-11.5429
▁اسپانیا.	-11.5429
▁اسکای	-11.5429
▁اسکن	-11.5429
▁اسیا	-11.5429
▁اسید	-11.5429
▁اشاعه	-11.5429
▁اشعار	-11.5429
▁اشیای	-11.5429
▁اصالت	-11.5429
▁اصلانی	-11.5429
▁اصلاً	-11.5429
▁اظهارنظرهای	-11.5429
▁اعتباری	-11.5429
▁اعتمادی	-11.5429
▁اعزامی	-11.5429
▁اغذیه	-11.5429
▁افتادمنبع	-11.5429
▁افرایش	-11.5429
▁افسردگی	-11.5429
▁افول	-11.5429
▁اقتصاددانان	-11.5429
▁اقسام	-11.5429
▁اقیانوسیه	-11.5429
▁الاجرا	-11.5429
▁الاجلی	-11.5429
▁السد	-11.5429
▁العدل	-11.5429
▁العمر	-11.5429
▁المال	-11.5429
▁الهنی	-11.5429
▁الیور	-11.5429
▁اما،	-11.5429
▁امتیازهای	-11.5429
▁امروز،	-11.5429
▁امپراطوری	-11.5429
▁امیدی	-11.5429
▁امینی	-11.5429
▁انتقاداتی	-11.5429
▁انجامیده	-11.5429
▁انحراف	-11.5429
▁اند.آنتونی	-11.5429
▁اند.از	-11.5429
▁اند.او	-11.5429
▁اند.وزارت	-11.5429
▁انداختند.	-11.5429
▁اندرو	-11.5429
▁اندومبله	-11.5429
▁انستیتو	-11.5429
▁انقطاع	-11.5429
▁اهدایی	-11.5429
▁اهرم	-11.5429
▁اوارنیوم	-11.5429
▁اوزون	-11.5429
▁اوشن	-11.5429
▁اول،	-11.5429
▁اپ	-11.5429
▁اپراتور	-11.5429
▁اپراتورها	-11.5429
▁اکبرزاده	-11.5429
▁اکتشافی	-11.5429
▁اکسل	-11.5429
▁ای.	-11.5429
▁ایان	-11.5429
▁ایلام	-11.5429
▁اینجنیوئیتی	-11.5429
▁اینفانتینو	-11.5429
▁ایوان	-11.5429
▁ایگ	-11.5429
▁باثبات	-11.5429
▁باختند	-11.5429
▁بارون	-11.5429
▁باز:	-11.5429
▁بازداشتگاه	-11.5429
▁بازدهی	-11.5429
▁بازدیدکننده	-11.5429
▁بازدیدکنندگان	-11.5429
▁بازل	-11.5429
▁بازنشر	-11.5429
▁بازنگردانده	-11.5429
▁بازیافت	-11.5429
▁باطل	-11.5429
▁بالارفتن	-11.5429
▁بانفوذ	-11.5429
▁بانوان	-11.5429
▁بانکداری	-11.5429
▁بانکهای	-11.5429
▁باکتری	-11.5429
▁باکر	-11.5429
▁بایدن،	-11.5429
▁بایست	-11.5429
▁ببرد.	-11.5429
▁بخشیده	-11.5429
▁بخوانیدمنبع	-11.5429
▁بخواهند	-11.5429
▁بداند	-11.5429
▁بدرقه	-11.5429
▁بدنشان	-11.5429
▁بدنم	-11.5429
▁بدیل	-11.5429
▁بدیهی	-11.5429
▁برآوردهای	-11.5429
▁برانگیخت.	-11.5429
▁برانگیزترین	-11.5429
▁براه	-11.5429
▁برایانت	-11.5429
▁برایتان	-11.5429
▁برد.منبع	-11.5429
▁بردی	-11.5429
▁برسد؛	-11.5429
▁برلوسکونی	-11.5429
▁برماخ	-11.5429
▁برنز	-11.5429
▁برنلی	-11.5429
▁برود.این	-11.5429
▁بروید	-11.5429
▁برگامو	-11.5429
▁برگرداند	-11.5429
▁برگردیم	-11.5429
▁برگه	-11.5429
▁برگوین	-11.5429
▁بریتانیا.	-11.5429
▁بریم	-11.5429
▁بسازد.	-11.5429
▁بستگان	-11.5429
▁بسنده	-11.5429
▁بصره	-11.5429
▁بصری	-11.5429
▁بفرستید.	-11.5429
▁بفهمد	-11.5429
▁بلندپایه	-11.5429
▁بلندپروازانه	-11.5429
▁بلینکن،	-11.5429
▁بنظر	-11.5429
▁بنگاه	-11.5429
▁بهرامی	-11.5429
▁بهزاد	-11.5429
▁بهزادی	-11.5429
▁بهناز	-11.5429
▁بواتنگ	-11.5429
▁بوتاس	-11.5429
▁بوتاکس	-11.5429
▁بود.خبرگزاری	-11.5429
▁بود:	-11.5429
▁بودند.در	-11.5429
▁بوده،	-11.5429
▁بودید	-11.5429
▁بورسیه	-11.5429
▁بوستون	-11.5429
▁بوسه	-11.5429
▁بووی	-11.5429
▁بپردازد.	-11.5429
▁بچگی	-11.5429
▁بک	-11.5429
▁بکر	-11.5429
▁بگوید	-11.5429
▁بگیر	-11.5429
▁بگیرد؛	-11.5429
▁بیانجامد	-11.5429
▁بیبر	-11.5429
▁بیتلز	-11.5429
▁بیرمنگام	-11.5429
▁بیشترشان	-11.5429
▁بیضائی	-11.5429
▁بیماریشان	-11.5429
▁بینندگان	-11.5429
▁بیک	-11.5429
▁تأسیس	-11.5429
▁تئاتری	-11.5429
▁تابعیتی	-11.5429
▁تای	-11.5429
▁تبعه	-11.5429
▁تجدد	-11.5429
▁تجربیات	-11.5429
▁تجمعات	-11.5429
▁تحرکات	-11.5429
▁تحریمی	-11.5429
▁تدابیری	-11.5429
▁تدارک	-11.5429
▁تربت	-11.5429
▁ترکیه،	-11.5429
▁ترکیه؛	-11.5429
▁تزئینی	-11.5429
▁تزاری	-11.5429
▁تشریفات	-11.5429
▁تصفیه	-11.5429
▁تعبیه	-11.5429
▁تعدد	-11.5429
▁تعرض	-11.5429
▁تعلیم	-11.5429
▁تفاضل	-11.5429
▁تفاوتی	-11.5429
▁تقصیر	-11.5429
▁تمایز	-11.5429
▁تمکین	-11.5429
▁تناقض	-11.5429
▁تندروی	-11.5429
▁تندگویان	-11.5429
▁تندی	-11.5429
▁تنزل	-11.5429
▁تهویه	-11.5429
▁توبه	-11.5429
▁تورنتو	-11.5429
▁توریست	-11.5429
▁تورین	-11.5429
▁توضیحاتی	-11.5429
▁تولیدش	-11.5429
▁تولیدشان	-11.5429
▁تولیدکننده	-11.5429
▁تومور	-11.5429
▁تکمیلی	-11.5429
▁تیتر	-11.5429
▁تیز	-11.5429
▁تیموریان	-11.5429
▁جاسک	-11.5429
▁جانباختگان	-11.5429
▁جانز	-11.5429
▁جانشینی	-11.5429
▁جدل	-11.5429
▁جدیدش	-11.5429
▁جزای	-11.5429
▁جسم	-11.5429
▁جشنی	-11.5429
▁جلیلوند	-11.5429
▁جمالی	-11.5429
▁جنرال	-11.5429
▁جنیفر	-11.5429
▁جهادی	-11.5429
▁جهانیان	-11.5429
▁جود	-11.5429
▁جور	-11.5429
▁جوزپ	-11.5429
▁جکی	-11.5429
▁جگوار	-11.5429
▁جیش	-11.5429
▁حاتمی	-11.5429
▁حالش	-11.5429
▁حتا	-11.5429
▁حرفی	-11.5429
▁حروف	-11.5429
▁حلق	-11.5429
▁حوالی	-11.5429
▁حوصله	-11.5429
▁حول	-11.5429
▁حکمت	-11.5429
▁حکیم	-11.5429
▁حیثیت	-11.5429
▁خادمی	-11.5429
▁خال	-11.5429
▁خبرنگاری	-11.5429
▁خدیجه	-11.5429
▁خشت	-11.5429
▁خطاهای	-11.5429
▁خطوطی	-11.5429
▁خلاص	-11.5429
▁خواستیم	-11.5429
▁خودرساز	-11.5429
▁خورد،	-11.5429
▁خورد؛	-11.5429
▁خوشنویسی	-11.5429
▁خیابانی،	-11.5429
▁داد.با	-11.5429
▁دادخواست	-11.5429
▁دادسرا	-11.5429
▁دادند.این	-11.5429
▁دارد.در	-11.5429
▁دارند؛	-11.5429
▁داشت.در	-11.5429
▁داشتند،	-11.5429
▁داشته؛	-11.5429
▁داشتیم.	-11.5429
▁دالر	-11.5429
▁داماد	-11.5429
▁دامغان	-11.5429
▁دانا	-11.5429
▁دانان	-11.5429
▁دانستند.	-11.5429
▁دانشجویانی	-11.5429
▁دانلد	-11.5429
▁دانمارکی	-11.5429
▁دانه	-11.5429
▁داودی	-11.5429
▁داوید	-11.5429
▁دخل	-11.5429
▁درآوردن	-11.5429
▁درآورده	-11.5429
▁دراماتیک	-11.5429
▁درخصوص	-11.5429
▁دردناک	-11.5429
▁درنظر	-11.5429
▁درگذشت؛	-11.5429
▁دریبل	-11.5429
▁دز	-11.5429
▁دستمزدهای	-11.5429
▁دستیاران	-11.5429
▁دلار'	-11.5429
▁دلال	-11.5429
▁دلجویی	-11.5429
▁دلش	-11.5429
▁دلم	-11.5429
▁دمام	-11.5429
▁دن	-11.5429
▁دهد.منبع	-11.5429
▁دهقانی	-11.5429
▁دهند.این	-11.5429
▁دهند.در	-11.5429
▁دهکده	-11.5429
▁دوبلور	-11.5429
▁دورهمی	-11.5429
▁دورکاری	-11.5429
▁دگراندیش	-11.5429
▁دگرگونی	-11.5429
▁دیابت	-11.5429
▁دیالیز	-11.5429
▁دیجیتالی	-11.5429
▁دیده،	-11.5429
▁دیدگان	-11.5429
▁دیواره	-11.5429
▁ذوالنوری	-11.5429
▁ذوق	-11.5429
▁ذیربط	-11.5429
▁راسخ	-11.5429
▁رانگلر	-11.5429
▁راههای	-11.5429
▁رجوع	-11.5429
▁رحمت	-11.5429
▁ردپای	-11.5429
▁رزرو	-11.5429
▁رستورانی	-11.5429
▁رسد،	-11.5429
▁رسمی،	-11.5429
▁رسند	-11.5429
▁رسیده،	-11.5429
▁رفتم	-11.5429
▁رفتم.	-11.5429
▁رفسنجانی	-11.5429
▁رفیق	-11.5429
▁رقبای	-11.5429
▁رقیبان	-11.5429
▁روحانیون	-11.5429
▁رودکی	-11.5429
▁روشنفکری	-11.5429
▁رولان	-11.5429
▁روما	-11.5429
▁رومانیایی	-11.5429
▁رویکردی	-11.5429
▁رکوردشکنی	-11.5429
▁رکوردهایی	-11.5429
▁رگبار	-11.5429
▁ریش	-11.5429
▁ریوی	-11.5429
▁ریکا	-11.5429
▁ریگی	-11.5429
▁زادروز	-11.5429
▁زانویش	-11.5429
▁زاکربرگ	-11.5429
▁زرق	-11.5429
▁زنیت	-11.5429
▁زیدآبادی	-11.5429
▁زیدان	-11.5429
▁زیراتمی	-11.5429
▁زین	-11.5429
▁زینب	-11.5429
▁سادبیز	-11.5429
▁سازهای	-11.5429
▁ساطع	-11.5429
▁سامانی	-11.5429
▁ستار	-11.5429
▁ستون	-11.5429
▁ستیزه	-11.5429
▁سحابی	-11.5429
▁سخنگو	-11.5429
▁سرخک	-11.5429
▁سرشان	-11.5429
▁سرم	-11.5429
▁سرنا	-11.5429
▁سرور	-11.5429
▁سرگردان	-11.5429
▁سل	-11.5429
▁سناریو	-11.5429
▁سناریوهای	-11.5429
▁سنجش	-11.5429
▁سنین	-11.5429
▁سهام،	-11.5429
▁سهیل	-11.5429
▁سواران	-11.5429
▁سوالاتی	-11.5429
▁سوت	-11.5429
▁سودآور	-11.5429
▁سودی	-11.5429
▁سوریه،	-11.5429
▁سوزان	-11.5429
▁سوزاندن	-11.5429
▁سولشر	-11.5429
▁سوگند	-11.5429
▁سپر	-11.5429
▁سپردن	-11.5429
▁سکولار	-11.5429
▁سیب	-11.5429
▁سیتی،	-11.5429
▁سیرجان	-11.5429
▁سیرو	-11.5429
▁سیستماتیک	-11.5429
▁سیمرغ	-11.5429
▁سیمونا	-11.5429
▁سیمین	-11.5429
▁سینماتک	-11.5429
▁شارمین	-11.5429
▁شاعری	-11.5429
▁شاغلین	-11.5429
▁شامگاه	-11.5429
▁شاهدان	-11.5429
▁شاهدخت	-11.5429
▁شاهرود	-11.5429
▁شبت	-11.5429
▁شبرغان	-11.5429
▁شتر	-11.5429
▁شد.البته	-11.5429
▁شد.حالا	-11.5429
▁شد.حدود	-11.5429
▁شدایران،	-11.5429
▁شداین	-11.5429
▁شدبا	-11.5429
▁شدند.به	-11.5429
▁شدنی	-11.5429
▁شده؟منبع	-11.5429
▁شدیم	-11.5429
▁شراب	-11.5429
▁شرت	-11.5429
▁شرمنده	-11.5429
▁شروط	-11.5429
▁شرکتها	-11.5429
▁شعب	-11.5429
▁شفاخانه	-11.5429
▁شفاهی	-11.5429
▁شلوار	-11.5429
▁شناسنامه	-11.5429
▁شنای	-11.5429
▁شهادت	-11.5429
▁شهناز	-11.5429
▁شوالیه	-11.5429
▁شود.امسال	-11.5429
▁شود.دکتر	-11.5429
▁شود.دیروز	-11.5429
▁شود؟	-11.5429
▁شودبا	-11.5429
▁شوق	-11.5429
▁شوی	-11.5429
▁شکایتی	-11.5429
▁شکستمنبع	-11.5429
▁شکم	-11.5429
▁شکوفه	-11.5429
▁شیب	-11.5429
▁شیرینی	-11.5429
▁شیفت	-11.5429
▁شیوا	-11.5429
▁شیوای	-11.5429
▁صالح،	-11.5429
▁صحرا	-11.5429
▁صدام	-11.5429
▁صراف	-11.5429
▁صفرهای	-11.5429
▁صلاحیت،	-11.5429
▁طب	-11.5429
▁طبع	-11.5429
▁ظالمانه	-11.5429
▁ظلم	-11.5429
▁عاجل	-11.5429
▁عامدانه	-11.5429
▁عبدالسلام	-11.5429
▁عرفی	-11.5429
▁عزای	-11.5429
▁عصبانی	-11.5429
▁عصبانیت	-11.5429
▁عضلانی	-11.5429
▁عطسه	-11.5429
▁علائمی	-11.5429
▁علمای	-11.5429
▁عمرش	-11.5429
▁عملاً	-11.5429
▁عموما	-11.5429
▁عمیقا	-11.5429
▁عکسها	-11.5429
▁عیار	-11.5429
▁غذاخوری	-11.5429
▁غلامعلی	-11.5429
▁غلامی	-11.5429
▁غوری	-11.5429
▁غیرانسانی	-11.5429
▁غیرمنتظره	-11.5429
▁فانتری	-11.5429
▁فایلی	-11.5429
▁فحشا	-11.5429
▁فراخوان	-11.5429
▁فرانسه،	-11.5429
▁فرح	-11.5429
▁فرنوش	-11.5429
▁فرنگی	-11.5429
▁فرهنگستان	-11.5429
▁فرهیختگان	-11.5429
▁فروردین،	-11.5429
▁فرکانس	-11.5429
▁فضانوردی	-11.5429
▁فضایل	-11.5429
▁فقدان	-11.5429
▁فقید	-11.5429
▁فلامینگو	-11.5429
▁فلاکت	-11.5429
▁فلز	-11.5429
▁فلسطینیان	-11.5429
▁فلسفی	-11.5429
▁فلم	-11.5429
▁فلک	-11.5429
▁فواد	-11.5429
▁فودن	-11.5429
▁فورمن	-11.5429
▁فوریآمار	-11.5429
▁فولبیگ	-11.5429
▁فیده	-11.5429
▁فیصل	-11.5429
▁فیفا:	-11.5429
▁فینالیست	-11.5429
▁قائمشهر	-11.5429
▁قبای	-11.5429
▁قدرتمندی	-11.5429
▁قراردادشان	-11.5429
▁قرون	-11.5429
▁قفس	-11.5429
▁قورباغه	-11.5429
▁قیصر	-11.5429
▁لابی	-11.5429
▁لاشیدایی	-11.5429
▁لحم	-11.5429
▁لشکری	-11.5429
▁لغت	-11.5429
▁لوئیجی	-11.5429
▁لوگو	-11.5429
▁لیبریا	-11.5429
▁لیسانس	-11.5429
▁لیور	-11.5429
▁لیون	-11.5429
▁مأموریت	-11.5429
▁مئیر	-11.5429
▁مادام	-11.5429
▁مارادونا؛	-11.5429
▁مارس،	-11.5429
▁مارسیال	-11.5429
▁مارلی	-11.5429
▁مارچ	-11.5429
▁ماریکه	-11.5429
▁مازوت	-11.5429
▁ماست.	-11.5429
▁ماسیرو	-11.5429
▁ماند.تشدید	-11.5429
▁ماندنی	-11.5429
▁ماندگاری	-11.5429
▁مایا	-11.5429
▁مایلی	-11.5429
▁مبادلاتی	-11.5429
▁مبارک	-11.5429
▁مبتلای	-11.5429
▁مبتنی	-11.5429
▁متال	-11.5429
▁متغیرهای	-11.5429
▁متفرق	-11.5429
▁متقابل	-11.5429
▁متنی	-11.5429
▁متوفیان	-11.5429
▁متون	-11.5429
▁مجاب	-11.5429
▁مجرد	-11.5429
▁مجلل	-11.5429
▁مجوزی	-11.5429
▁محاسباتی	-11.5429
▁محافظان	-11.5429
▁محتاطانه	-11.5429
▁محسنی	-11.5429
▁محسوس	-11.5429
▁محکومان	-11.5429
▁مختصر	-11.5429
▁مختلف،	-11.5429
▁مخوف	-11.5429
▁مدارکی	-11.5429
▁مداری	-11.5429
▁مدیون	-11.5429
▁مذهب	-11.5429
▁مرثیه	-11.5429
▁مرد.	-11.5429
▁مردمان	-11.5429
▁مرده	-11.5429
▁مردود	-11.5429
▁مرشد	-11.5429
▁مرطوب	-11.5429
▁مرکل	-11.5429
▁مرگ'	-11.5429
▁مزایا	-11.5429
▁مزد	-11.5429
▁مستاجر	-11.5429
▁مسجل	-11.5429
▁مسحور	-11.5429
▁مشمولین	-11.5429
▁مصور	-11.5429
▁مطهر	-11.5429
▁معاشرت	-11.5429
▁معالج	-11.5429
▁معتبری	-11.5429
▁معطوف	-11.5429
▁معکوس	-11.5429
▁معیاری	-11.5429
▁مغول	-11.5429
▁مقاومتی	-11.5429
▁ملازم	-11.5429
▁ملودی	-11.5429
▁ممی	-11.5429
▁ممیزی	-11.5429
▁منازعه	-11.5429
▁منبعی	-11.5429
▁مندس	-11.5429
▁منسجم	-11.5429
▁منسوب	-11.5429
▁منصوریان	-11.5429
▁منقضی	-11.5429
▁منهای	-11.5429
▁منهتن	-11.5429
▁منوچین	-11.5429
▁منگل	-11.5429
▁مهد	-11.5429
▁مهمانی	-11.5429
▁مو	-11.5429
▁موازین	-11.5429
▁موانعی	-11.5429
▁موجوداتی	-11.5429
▁مودم	-11.5429
▁مور	-11.5429
▁موردی	-11.5429
▁مورفوز	-11.5429
▁موریس	-11.5429
▁موسیقیدان	-11.5429
▁موشه	-11.5429
▁موضعی	-11.5429
▁موضوعاتی	-11.5429
▁موفقیتی	-11.5429
▁موقتی	-11.5429
▁مکالمات	-11.5429
▁مکانیزم	-11.5429
▁مگنیتو	-11.5429
▁میرعلی	-11.5429
▁میسر	-11.5429
▁میلان،	-11.5429
▁مینیاتوری	-11.5429
▁میچام	-11.5429
▁ناامیدکننده	-11.5429
▁نابسامان	-11.5429
▁ناخشنودی	-11.5429
▁نارنجی،	-11.5429
▁ناعادلانه	-11.5429
▁نافذ	-11.5429
▁نامت	-11.5429
▁نامشان	-11.5429
▁نامشخص	-11.5429
▁ناهموار	-11.5429
▁ناو	-11.5429
▁نایت	-11.5429
▁نبشته	-11.5429
▁نبی	-11.5429
▁نجفی	-11.5429
▁نحو	-11.5429
▁نخبگان	-11.5429
▁نخواهم	-11.5429
▁نخواهیم	-11.5429
▁ندارید	-11.5429
▁نداشتند.	-11.5429
▁ندرت	-11.5429
▁نزاع	-11.5429
▁نزده	-11.5429
▁نزدیکانش	-11.5429
▁نزدیکترین	-11.5429
▁نشود،	-11.5429
▁نظرانی	-11.5429
▁نظنز	-11.5429
▁نفت؛	-11.5429
▁نما	-11.5429
▁نه.منبع	-11.5429
▁نهصد	-11.5429
▁نوراللهی	-11.5429
▁نورانی	-11.5429
▁نورماگومدوف	-11.5429
▁نوزده	-11.5429
▁نوزدهمین	-11.5429
▁نولان	-11.5429
▁نوله	-11.5429
▁نوک	-11.5429
▁نکند.	-11.5429
▁نکنید.	-11.5429
▁نگاتیو	-11.5429
▁نگفته	-11.5429
▁نیابد	-11.5429
▁نیت	-11.5429
▁نیر	-11.5429
▁نیست.در	-11.5429
▁نیوز	-11.5429
▁نیومکزیکو	-11.5429
▁نیویورکر	-11.5429
▁نیکی	-11.5429
▁هاروی	-11.5429
▁هافمن	-11.5429
▁هالیوودی	-11.5429
▁هاویلند	-11.5429
▁هراتی	-11.5429
▁هرد	-11.5429
▁هرمز	-11.5429
▁هریرود	-11.5429
▁هزاردستان	-11.5429
▁هستند.آقای	-11.5429
▁هستند.این	-11.5429
▁هستند.منبع	-11.5429
▁هستند؟منبع	-11.5429
▁هستیم؛	-11.5429
▁هشدارها	-11.5429
▁هفته،	-11.5429
▁هلیوس	-11.5429
▁هم،	-11.5429
▁همانجا	-11.5429
▁همسایگان	-11.5429
▁همسایگی	-11.5429
▁همسو	-11.5429
▁همکارانم	-11.5429
▁هنجارهای	-11.5429
▁هندرسون	-11.5429
▁هواپیماها	-11.5429
▁هولم	-11.5429
▁هی	-11.5429
▁هیولای	-11.5429
▁هیپی	-11.5429
▁هیچوقت	-11.5429
▁هیچگونه	-11.5429
▁وار	-11.5429
▁والتری	-11.5429
▁والنسیا	-11.5429
▁وانمود	-11.5429
▁واپسین	-11.5429
▁واکنش،	-11.5429
▁واگیر	-11.5429
▁وجوی	-11.5429
▁ورای	-11.5429
▁ورشو	-11.5429
▁وزنی	-11.5429
▁وفاداری	-11.5429
▁ول	-11.5429
▁ولت	-11.5429
▁ولوو	-11.5429
▁وندی	-11.5429
▁ونزوئلایی	-11.5429
▁ویدیوهای	-11.5429
▁ویزا	-11.5429
▁ویلت	-11.5429
▁ویلسون	-11.5429
▁پائولو	-11.5429
▁پارکر	-11.5429
▁پایبندی	-11.5429
▁پایداری	-11.5429
▁پدربزرگ	-11.5429
▁پرتو	-11.5429
▁پرحادثه	-11.5429
▁پردازد.	-11.5429
▁پرستانه	-11.5429
▁پرستون	-11.5429
▁پرسنل	-11.5429
▁پرسینگ	-11.5429
▁پرشمار	-11.5429
▁پرطرفدارترین	-11.5429
▁پرو	-11.5429
▁پریده	-11.5429
▁پستال	-11.5429
▁پستانداران	-11.5429
▁پلاستیک	-11.5429
▁پنجاهمین	-11.5429
▁پهلوی،	-11.5429
▁پهنه	-11.5429
▁پوشاک	-11.5429
▁پولهای	-11.5429
▁پوکی	-11.5429
▁پیرو	-11.5429
▁پیچیدگی	-11.5429
▁پیک	-11.5429
▁پیگرد	-11.5429
▁چادر	-11.5429
▁چارلز	-11.5429
▁چاق	-11.5429
▁چالشی	-11.5429
▁چراکه	-11.5429
▁چرایی	-11.5429
▁چرنوبیل	-11.5429
▁چرنکوف	-11.5429
▁چمپیونشیپ	-11.5429
▁چهارراه	-11.5429
▁چهارشنبه،	-11.5429
▁چوپان	-11.5429
▁چیزها	-11.5429
▁ژسوس	-11.5429
▁ک	-11.5429
▁کارائیب	-11.5429
▁کارتون	-11.5429
▁کارزارهای	-11.5429
▁کارلو	-11.5429
▁کارمندانش	-11.5429
▁کاروان	-11.5429
▁کارون	-11.5429
▁کاستن	-11.5429
▁کاسینگا	-11.5429
▁کاشف	-11.5429
▁کامپیوترها	-11.5429
▁کان	-11.5429
▁کبیری	-11.5429
▁کتابش	-11.5429
▁کتی	-11.5429
▁کرد'منبع	-11.5429
▁کرد.بیشتر	-11.5429
▁کردرسانه	-11.5429
▁کردند'منبع	-11.5429
▁کرزی	-11.5429
▁کریمی،	-11.5429
▁کشانده	-11.5429
▁کشند.	-11.5429
▁کلت	-11.5429
▁کلروکین	-11.5429
▁کلکان	-11.5429
▁کلیسا	-11.5429
▁کلینتون	-11.5429
▁کمالوندی	-11.5429
▁کمدی	-11.5429
▁کمپینی	-11.5429
▁کمین	-11.5429
▁کند.وزیر	-11.5429
▁کند.پیش	-11.5429
▁کنده	-11.5429
▁کنسرسیوم	-11.5429
▁کنعانی	-11.5429
▁کنندگان،	-11.5429
▁کنیمآیت	-11.5429
▁کوری	-11.5429
▁کویت	-11.5429
▁کپسول	-11.5429
▁کیارا	-11.5429
▁کیلوگرمی	-11.5429
▁گاروس	-11.5429
▁گالری	-11.5429
▁گامی	-11.5429
▁گاگا	-11.5429
▁گدامحمد	-11.5429
▁گرجستانی	-11.5429
▁گردانند	-11.5429
▁گردیده	-11.5429
▁گرفت.به	-11.5429
▁گرفت.منبع	-11.5429
▁گروسی،	-11.5429
▁گریم	-11.5429
▁گفتمان	-11.5429
▁گفتند.	-11.5429
▁گلرخ	-11.5429
▁گلنوش	-11.5429
▁گناهی	-11.5429
▁گون	-11.5429
▁گونار	-11.5429
▁گوید:	-11.5429
▁گی	-11.5429
▁گیاه	-11.5429
▁گیتس	-11.5429
▁گیرانه	-11.5429
▁یابی	-11.5429
▁یادش	-11.5429
▁یادم	-11.5429
▁یاسر	-11.5429
▁یانگ	-11.5429
▁یغما	-11.5429
▁یوردی	-11.5429
▁یونهاپ	-11.5429
▁یکسانی	-11.5429
▁۱۰۲	-11.5429
▁۱۲۳	-11.5429
▁۱۲۹۹	-11.5429
▁۱۳۳۰	-11.5429
▁۱۳۴۶	-11.5429
▁۱۳۵۱	-11.5429
▁۱۳۶۰	-11.5429
▁۱۳۶۳	-11.5429
▁۱۳۷۴	-11.5429
▁۱۳۹۳	-11.5429
▁۱۴۰۰؛	-11.5429
▁۱۵۰۰۰	-11.5429
▁۱۷۴	-11.5429
▁۱۸۰۰	-11.5429
▁۱۹۱۴	-11.5429
▁۱۹۳۸	-11.5429
▁۱۹۶۲	-11.5429
▁۱۹۶۸	-11.5429
▁۱۹۶۹	-11.5429
▁۱۹۹۴	-11.5429
▁۲۰۲۴	-11.5429
▁۲۰۲۵	-11.5429
▁۲۳۴	-11.5429
▁۲۴۰	-11.5429
▁۲۵۰۰	-11.5429
▁۲۶۰۰	-11.5429
▁۲۶۲	-11.5429
▁۴۲۰	-11.5429
▁۵۵۰	-11.5429
▁۷۵۰	-11.5429
▁'آزادسازی'	-11.7661
▁'احتمال	-11.7661
▁'اسپوتنیک	-11.7661
▁'بدون	-11.7661
▁'تیراندازی	-11.7661
▁'دست	-11.7661
▁'روز	-11.7661
▁'سولار	-11.7661
▁'میدان	-11.7661
▁'پاسخ	-11.7661
▁(سنا)	-11.7661
▁-به	-11.7661
▁.آنها	-11.7661
▁.اما	-11.7661
▁.اکنون	-11.7661
▁.با	-11.7661
▁.رئیس	-11.7661
▁آ.ث.	-11.7661
▁آبراه	-11.7661
▁آتشفشان	-11.7661
▁آرامکوی	-11.7661
▁آرشیوی	-11.7661
▁آرمسترانگ	-11.7661
▁آرنولد	-11.7661
▁آزاردیدگان	-11.7661
▁آزارهای	-11.7661
▁آشکاری	-11.7661
▁آصف	-11.7661
▁آغازی	-11.7661
▁آقابابایی	-11.7661
▁آلاینده	-11.7661
▁آلایندگی	-11.7661
▁آلبانی	-11.7661
▁آلبومش	-11.7661
▁آلکس	-11.7661
▁آمدند.	-11.7661
▁آمریکا-	-11.7661
▁آمریکامنبع	-11.7661
▁آمریکایی،	-11.7661
▁آموس	-11.7661
▁آمونیت	-11.7661
▁آمیزی	-11.7661
▁آنتوان	-11.7661
▁آنتی	-11.7661
▁آنست	-11.7661
▁آنفولانزای	-11.7661
▁آنها:	-11.7661
▁آنها،	-11.7661
▁آنچنان	-11.7661
▁آنگلا	-11.7661
▁آو	-11.7661
▁آوردمنبع	-11.7661
▁آوریل،	-11.7661
▁آوینی	-11.7661
▁آپ	-11.7661
▁آپارتمانش	-11.7661
▁آپوفِس	-11.7661
▁آژانسکاظم	-11.7661
▁آگاهانه	-11.7661
▁آگوئرو	-11.7661
▁آیشمن	-11.7661
▁آینده؛	-11.7661
▁ا	-11.7661
▁ابراهیموویچ	-11.7661
▁ابراهیمی	-11.7661
▁ابزاری	-11.7661
▁ابلاغی	-11.7661
▁اتاقش	-11.7661
▁اتاقی	-11.7661
▁اتمسفر	-11.7661
▁اتکایی	-11.7661
▁اثربخشی	-11.7661
▁اثرگذار	-11.7661
▁اجدادی	-11.7661
▁اجسام	-11.7661
▁احتمالات	-11.7661
▁احراز	-11.7661
▁احمدزاده	-11.7661
▁اخیرمنبع	-11.7661
▁اخیروزارت	-11.7661
▁ادلب	-11.7661
▁ادینبورگ	-11.7661
▁ارتقای	-11.7661
▁ارج	-11.7661
▁ارز،	-11.7661
▁ارطغرل	-11.7661
▁ازمیر	-11.7661
▁اس'	-11.7661
▁است.آیت	-11.7661
▁است.استقلال	-11.7661
▁است.اشاره	-11.7661
▁است.البته	-11.7661
▁است.اکبر	-11.7661
▁است.براساس	-11.7661
▁است.بعد	-11.7661
▁است.تخمین	-11.7661
▁است.تنها	-11.7661
▁است.تهران	-11.7661
▁است.تیم	-11.7661
▁است.دفتر	-11.7661
▁است.دونالد	-11.7661
▁است.دیروز	-11.7661
▁است.رسانه	-11.7661
▁است.روزنامه	-11.7661
▁است.سخنگوی	-11.7661
▁است.شرکت	-11.7661
▁است.شمار	-11.7661
▁است.مرکز	-11.7661
▁است.منابع	-11.7661
▁است.هفته	-11.7661
▁است.ولی	-11.7661
▁است.چین	-11.7661
▁است.کشورهای	-11.7661
▁استانهای	-11.7661
▁استاو	-11.7661
▁استبه	-11.7661
▁استحکام	-11.7661
▁استرا	-11.7661
▁استرقابت	-11.7661
▁استطی	-11.7661
▁استفانو	-11.7661
▁استفنز	-11.7661
▁استقلال:	-11.7661
▁استقلال،	-11.7661
▁استلیونل	-11.7661
▁استوایی	-11.7661
▁استودیوی	-11.7661
▁استیاسنی	-11.7661
▁اسدبیگی	-11.7661
▁اسرائیل:	-11.7661
▁اسرائیل؛	-11.7661
▁اسفند)	-11.7661
▁اسمارسون	-11.7661
▁اسکات	-11.7661
▁اسکاتلند،	-11.7661
▁اسکرین	-11.7661
▁اسکورسیزی	-11.7661
▁اسکورون	-11.7661
▁اشاراتی	-11.7661
▁اشتهای	-11.7661
▁اشکالات	-11.7661
▁اصفهان،	-11.7661
▁اصلاحاتی	-11.7661
▁اصولگرا	-11.7661
▁اطرافیان	-11.7661
▁اعاده	-11.7661
▁اعترافات	-11.7661
▁اعلامی	-11.7661
▁اعم	-11.7661
▁افتد؟منبع	-11.7661
▁افعانستان	-11.7661
▁افغانی	-11.7661
▁اقای	-11.7661
▁اقتباس	-11.7661
▁اقتباسی	-11.7661
▁اقداماتش	-11.7661
▁الاحواز	-11.7661
▁الارض	-11.7661
▁الاهلی	-11.7661
▁الحاق	-11.7661
▁الدینی	-11.7661
▁الزامات	-11.7661
▁الشعاع	-11.7661
▁الظاهر	-11.7661
▁الف	-11.7661
▁الن	-11.7661
▁الوزرایی	-11.7661
▁الوقوع	-11.7661
▁الکسا	-11.7661
▁الکساندر	-11.7661
▁الکسیس	-11.7661
▁الگو	-11.7661
▁الیس	-11.7661
▁اماراتی	-11.7661
▁امباپه	-11.7661
▁امبر	-11.7661
▁امرار	-11.7661
▁امکانش	-11.7661
▁امیرمکری	-11.7661
▁امیلیا	-11.7661
▁انابی	-11.7661
▁انبارگردانی	-11.7661
▁انتشارات	-11.7661
▁انتظارها	-11.7661
▁انتظاری	-11.7661
▁انتقالی	-11.7661
▁انجامید	-11.7661
▁انجامید.	-11.7661
▁اند'منبع	-11.7661
▁اند.احمد	-11.7661
▁اند.اطلاعاتی	-11.7661
▁اند.افزایش	-11.7661
▁اند.فرین	-11.7661
▁اند.فعالان	-11.7661
▁اند.محمد	-11.7661
▁اند.مقام	-11.7661
▁اند.همزمان	-11.7661
▁اند.هکرها	-11.7661
▁اند:	-11.7661
▁انداختند	-11.7661
▁اندبا	-11.7661
▁انزوا	-11.7661
▁انسانها	-11.7661
▁انصاف	-11.7661
▁انطباق	-11.7661
▁انظار	-11.7661
▁انعکاس	-11.7661
▁اهلی	-11.7661
▁اورشلیم	-11.7661
▁اوروگوئه	-11.7661
▁اوریون	-11.7661
▁اوزبیکی	-11.7661
▁اوسیک	-11.7661
▁اوقاف،	-11.7661
▁اولا	-11.7661
▁اولش	-11.7661
▁اولیانوف	-11.7661
▁اوهایو	-11.7661
▁اپرا	-11.7661
▁اپرای	-11.7661
▁اپس	-11.7661
▁اکرم	-11.7661
▁اکسیدکربن	-11.7661
▁اکلستون	-11.7661
▁ایران'	-11.7661
▁ایرانایران،	-11.7661
▁ایرانسل	-11.7661
▁ایرانیک	-11.7661
▁ایرفرانس	-11.7661
▁ایرلاین	-11.7661
▁ایزدی	-11.7661
▁ایسنا،	-11.7661
▁ایل	-11.7661
▁ایلون	-11.7661
▁اینترمیلان	-11.7661
▁اینجای	-11.7661
▁اینستکس	-11.7661
▁ایکون	-11.7661
▁بابایی	-11.7661
▁بابک	-11.7661
▁باتر	-11.7661
▁باختند.	-11.7661
▁باربی	-11.7661
▁بارور	-11.7661
▁بازدارنده	-11.7661
▁بازهای	-11.7661
▁بازگرداند.	-11.7661
▁بازی.	-11.7661
▁باشد.از	-11.7661
▁باشد.اما	-11.7661
▁باشند.منبع	-11.7661
▁بالاحصار	-11.7661
▁باله	-11.7661
▁بانی	-11.7661
▁باوجود	-11.7661
▁باول	-11.7661
▁باچان	-11.7661
▁باکو	-11.7661
▁بایستی	-11.7661
▁ببرند.	-11.7661
▁ببری	-11.7661
▁ببینند.	-11.7661
▁بجا	-11.7661
▁بحثی	-11.7661
▁بختیار،	-11.7661
▁بخوانند	-11.7661
▁بخواهیم	-11.7661
▁بدانیممنبع	-11.7661
▁بدرالزمان	-11.7661
▁بده	-11.7661
▁بدهد.منبع	-11.7661
▁بدهم	-11.7661
▁بدهید	-11.7661
▁بدوید	-11.7661
▁بران؛	-11.7661
▁برتن	-11.7661
▁برجاممنبع	-11.7661
▁برجی	-11.7661
▁برخاستن	-11.7661
▁برخوردهای	-11.7661
▁برد،	-11.7661
▁بردمنبع	-11.7661
▁بردیک	-11.7661
▁برملا	-11.7661
▁برنامک	-11.7661
▁برنتفورد	-11.7661
▁برندن	-11.7661
▁برونته	-11.7661
▁برونی	-11.7661
▁بروژ	-11.7661
▁بروکسل،	-11.7661
▁بروی	-11.7661
▁برویم	-11.7661
▁برکت	-11.7661
▁برگردند	-11.7661
▁برگزارمی	-11.7661
▁برگشتند	-11.7661
▁بریتانیاست	-11.7661
▁بریتز	-11.7661
▁بریج	-11.7661
▁بریده	-11.7661
▁بزاق	-11.7661
▁بزن	-11.7661
▁بزند.	-11.7661
▁بست.	-11.7661
▁بستند	-11.7661
▁بشرشهره	-11.7661
▁بشکند.	-11.7661
▁بعداً	-11.7661
▁بغل	-11.7661
▁بفرستند	-11.7661
▁بفروشند	-11.7661
▁بفهمیم	-11.7661
▁بلاتکلیفی	-11.7661
▁بلخی	-11.7661
▁بلندترین	-11.7661
▁بلندپروازی	-11.7661
▁بلنیکن	-11.7661
▁بلوغ	-11.7661
▁بلک	-11.7661
▁بلید	-11.7661
▁بلیدرانر	-11.7661
▁بمباران	-11.7661
▁بمبگذاری	-11.7661
▁بمراتب	-11.7661
▁بنام	-11.7661
▁بناها	-11.7661
▁بنشیند	-11.7661
▁بنویسم	-11.7661
▁بنی	-11.7661
▁بنیانگذاران	-11.7661
▁بنین	-11.7661
▁بهائیان	-11.7661
▁بهت	-11.7661
▁بهداشت،	-11.7661
▁بهم	-11.7661
▁بود'منبع	-11.7661
▁بود.از	-11.7661
▁بود.افزایش	-11.7661
▁بود.البته	-11.7661
▁بود.خانم	-11.7661
▁بود.فرج	-11.7661
▁بود.کارگران	-11.7661
▁بود؟انیس	-11.7661
▁بودآقای	-11.7661
▁بوددر	-11.7661
▁بودند.آقای	-11.7661
▁بودند.نمایندگان	-11.7661
▁بودیم.	-11.7661
▁بورس؛	-11.7661
▁بورنموث	-11.7661
▁بوفالو	-11.7661
▁بوفالوها	-11.7661
▁بوقچی	-11.7661
▁بوقی	-11.7661
▁بولونیا	-11.7661
▁بوندسلیگا	-11.7661
▁بوهایی	-11.7661
▁بپردازند	-11.7661
▁بکارگیری	-11.7661
▁بکشم	-11.7661
▁بکند	-11.7661
▁بگو	-11.7661
▁بگیرد.پروتکل	-11.7661
▁بیاورند	-11.7661
▁بیایند	-11.7661
▁بیرانوند	-11.7661
▁بیضایی	-11.7661
▁بیفتد.	-11.7661
▁بینانه	-11.7661
▁بیند	-11.7661
▁بینم	-11.7661
▁بیولوژی	-11.7661
▁بیکارشدگان	-11.7661
▁بیگم	-11.7661
▁تأسیسات	-11.7661
▁تابش	-11.7661
▁تابلوهای	-11.7661
▁تابو	-11.7661
▁تاثیرگذاری	-11.7661
▁تاجدین	-11.7661
▁تاجیکان	-11.7661
▁تاجیکستان؛	-11.7661
▁تادیبی	-11.7661
▁تالیف	-11.7661
▁تاون	-11.7661
▁تاکیدهای	-11.7661
▁تاییید	-11.7661
▁تباری	-11.7661
▁تبریزی	-11.7661
▁تبعیت	-11.7661
▁تترا	-11.7661
▁تجاری-سیاسی	-11.7661
▁تجسمی	-11.7661
▁تحلیلی	-11.7661
▁ترانزیتی	-11.7661
▁تراولتا	-11.7661
▁تراژیک	-11.7661
▁تردیدهایی	-11.7661
▁ترسد.	-11.7661
▁ترنس	-11.7661
▁تز	-11.7661
▁تزئین	-11.7661
▁تستوسترون	-11.7661
▁تسخیر	-11.7661
▁تسلیحات	-11.7661
▁تشکیلات	-11.7661
▁تصریح	-11.7661
▁تصنیف	-11.7661
▁تعلیقی	-11.7661
▁تعهدی	-11.7661
▁تقلب	-11.7661
▁تقلبی	-11.7661
▁تلخی	-11.7661
▁تماشاگری	-11.7661
▁تماشایی	-11.7661
▁تمجید	-11.7661
▁تنگنا	-11.7661
▁تنی	-11.7661
▁تهران.	-11.7661
▁تهران:	-11.7661
▁تهمت	-11.7661
▁توئیتر	-11.7661
▁توئیتی	-11.7661
▁توانیر	-11.7661
▁توتال	-11.7661
▁توجیهی	-11.7661
▁تورج	-11.7661
▁توسل	-11.7661
▁توفندها	-11.7661
▁توییگی	-11.7661
▁تپندگان	-11.7661
▁تکاملی	-11.7661
▁تکاوری	-11.7661
▁تکثیر	-11.7661
▁تیری	-11.7661
▁تیلدا	-11.7661
▁ثروتمندان	-11.7661
▁ثور	-11.7661
▁جادو	-11.7661
▁جادوگر	-11.7661
▁جادویی	-11.7661
▁جاسازی	-11.7661
▁جاغوری	-11.7661
▁جامائیکایی	-11.7661
▁جانسون،	-11.7661
▁جاهایی	-11.7661
▁جبرانی	-11.7661
▁جداسازی	-11.7661
▁جدیدمنبع	-11.7661
▁جر	-11.7661
▁جرد	-11.7661
▁جسارت	-11.7661
▁جعفر	-11.7661
▁جغرافیای	-11.7661
▁جفتش	-11.7661
▁جلساتی	-11.7661
▁جمهورها	-11.7661
▁جنایتی	-11.7661
▁جنوبی،	-11.7661
▁جوابگویی	-11.7661
▁جوخه	-11.7661
▁جوری	-11.7661
▁جوشی	-11.7661
▁جولیا	-11.7661
▁جونگ	-11.7661
▁جوهانسون	-11.7661
▁جیبش	-11.7661
▁جیلانی	-11.7661
▁جیمی	-11.7661
▁حاره	-11.7661
▁حاکمان	-11.7661
▁حبابی	-11.7661
▁حتمی	-11.7661
▁حدیث	-11.7661
▁حریفی	-11.7661
▁حزبی	-11.7661
▁حسابداران	-11.7661
▁حسام	-11.7661
▁حسب	-11.7661
▁حسرتی	-11.7661
▁حسگرهای	-11.7661
▁حسی	-11.7661
▁حسینیه	-11.7661
▁حضورشان	-11.7661
▁حقوقشان	-11.7661
▁حناچی	-11.7661
▁حنیف	-11.7661
▁حوادثی	-11.7661
▁حواسشان	-11.7661
▁حوت	-11.7661
▁حک	-11.7661
▁حیوانی	-11.7661
▁خامس	-11.7661
▁خاندوزی	-11.7661
▁خانوده	-11.7661
▁خاوری	-11.7661
▁خب	-11.7661
▁خبردار	-11.7661
▁خبرهایی	-11.7661
▁خداوند	-11.7661
▁خدشه	-11.7661
▁خر	-11.7661
▁خرابی	-11.7661
▁خرند	-11.7661
▁خرید.	-11.7661
▁خشنود	-11.7661
▁خصوصی،	-11.7661
▁خطاطی	-11.7661
▁خطایی	-11.7661
▁خلاقانه	-11.7661
▁خندان	-11.7661
▁خوابیده	-11.7661
▁خوار	-11.7661
▁خواری	-11.7661
▁خوانش	-11.7661
▁خودرویی	-11.7661
▁خودکار	-11.7661
▁خودکفایی	-11.7661
▁خوردنی	-11.7661
▁خوردهای	-11.7661
▁خوشبخت	-11.7661
▁خوکی	-11.7661
▁خیام،	-11.7661
▁خیری	-11.7661
▁خیل	-11.7661
▁داداین	-11.7661
▁دادند.جاوید	-11.7661
▁دادهمنبع	-11.7661
▁دارد.آقای	-11.7661
▁داردهکرهایی	-11.7661
▁داروهایی	-11.7661
▁دارید.	-11.7661
▁داشت.آقای	-11.7661
▁داشت.او	-11.7661
▁داشت،	-11.7661
▁داشتمنبع	-11.7661
▁داشته،	-11.7661
▁داشتهمنبع	-11.7661
▁داعش	-11.7661
▁دالان	-11.7661
▁دامبو	-11.7661
▁دانستم	-11.7661
▁داگ	-11.7661
▁دایملر	-11.7661
▁دبیران	-11.7661
▁دبیرستانی	-11.7661
▁دختربچه	-11.7661
▁دخیل	-11.7661
▁درآمد.	-11.7661
▁درآمدشان	-11.7661
▁درآید.	-11.7661
▁درازی	-11.7661
▁درسا	-11.7661
▁درصورت	-11.7661
▁دروغگو	-11.7661
▁درپی	-11.7661
▁درگذشت.این	-11.7661
▁دستاوردهایش	-11.7661
▁دشتکی	-11.7661
▁دلتای	-11.7661
▁دلخواه	-11.7661
▁دلنشین	-11.7661
▁دموکراسی	-11.7661
▁دهد.آقای	-11.7661
▁دهد.با	-11.7661
▁دهد،	-11.7661
▁دوآ	-11.7661
▁دوازدهمین	-11.7661
▁دورخیز	-11.7661
▁دوزسنج	-11.7661
▁دوشنبه،	-11.7661
▁دولتها	-11.7661
▁دوور	-11.7661
▁دوک	-11.7661
▁دویدن	-11.7661
▁دکترا	-11.7661
▁دیافراگم	-11.7661
▁دیدبان	-11.7661
▁دیدند.	-11.7661
▁دیرباز	-11.7661
▁دیرهنگام	-11.7661
▁دیری	-11.7661
▁دیزل	-11.7661
▁دیو	-11.7661
▁ذرت	-11.7661
▁ذیل	-11.7661
▁رئیسی،	-11.7661
▁راب	-11.7661
▁رابرتسون	-11.7661
▁راث	-11.7661
▁رادو	-11.7661
▁رازی	-11.7661
▁رانا	-11.7661
▁راهکار	-11.7661
▁راهیابی	-11.7661
▁راوی	-11.7661
▁راکت	-11.7661
▁راکتی	-11.7661
▁راکسی	-11.7661
▁رایانه	-11.7661
▁ربابه	-11.7661
▁ربکا	-11.7661
▁رجبیان	-11.7661
▁رحمانه	-11.7661
▁رحیمی	-11.7661
▁رخنه	-11.7661
▁ردکلیف	-11.7661
▁ردگیری	-11.7661
▁ردیفی	-11.7661
▁رساندمنبع	-11.7661
▁رسیم	-11.7661
▁رفتهمنبع	-11.7661
▁رقابتش	-11.7661
▁رنسانس	-11.7661
▁رهاسازی	-11.7661
▁روبروست.	-11.7661
▁روبین	-11.7661
▁رودریگز	-11.7661
▁روزبهانه	-11.7661
▁روزهایی	-11.7661
▁روسادا	-11.7661
▁روسوم	-11.7661
▁روسیه،	-11.7661
▁رولت	-11.7661
▁رونان	-11.7661
▁روندهای	-11.7661
▁رویترز:	-11.7661
▁رکسانا	-11.7661
▁رکوردها	-11.7661
▁رگی	-11.7661
▁ریاستش	-11.7661
▁ریتوناویر	-11.7661
▁ریزرو	-11.7661
▁رینت	-11.7661
▁رینولدز	-11.7661
▁ز	-11.7661
▁زاد،	-11.7661
▁زالی	-11.7661
▁زامبی	-11.7661
▁زانوی	-11.7661
▁زایمان	-11.7661
▁زبانه	-11.7661
▁زحماتشان	-11.7661
▁زدمنبع	-11.7661
▁زدگان	-11.7661
▁زلا	-11.7661
▁زمین؛	-11.7661
▁زن،	-11.7661
▁زن؛	-11.7661
▁زندگی.	-11.7661
▁زندگیش	-11.7661
▁زنیم	-11.7661
▁زوایای	-11.7661
▁زودرس	-11.7661
▁زی	-11.7661
▁زیارتی	-11.7661
▁زیتون	-11.7661
▁سئوالی	-11.7661
▁ساتراپی	-11.7661
▁ساختاری	-11.7661
▁ساختند	-11.7661
▁سادات،	-11.7661
▁ساسانیان	-11.7661
▁سال؛	-11.7661
▁سالار	-11.7661
▁سالروز	-11.7661
▁ساموئل	-11.7661
▁سانتیگراد	-11.7661
▁ساندرلند	-11.7661
▁ساینس	-11.7661
▁سایوز	-11.7661
▁سخاوتمندانه	-11.7661
▁سختگیری	-11.7661
▁سخنگویان	-11.7661
▁سرآغاز	-11.7661
▁سراج	-11.7661
▁سراوانهجوم	-11.7661
▁سرتاسری	-11.7661
▁سرزنش	-11.7661
▁سرسختانه	-11.7661
▁سرلوحه	-11.7661
▁سرو،	-11.7661
▁سرپوشیده	-11.7661
▁سرگذاشته	-11.7661
▁سزاوار	-11.7661
▁سعد	-11.7661
▁سفرشان	-11.7661
▁سفیدپوست	-11.7661
▁سفیدپوستان	-11.7661
▁سلطانی،	-11.7661
▁سلمان،	-11.7661
▁سلیمی	-11.7661
▁سمنان	-11.7661
▁سمی	-11.7661
▁سمیعی	-11.7661
▁سنجی	-11.7661
▁سندی	-11.7661
▁سنوات	-11.7661
▁سهامش	-11.7661
▁سهامی	-11.7661
▁سهراب	-11.7661
▁سهولت	-11.7661
▁سوانح	-11.7661
▁سوختگی	-11.7661
▁سوفیا	-11.7661
▁سولیوان	-11.7661
▁سوپرکار	-11.7661
▁سوکابومی	-11.7661
▁سویا	-11.7661
▁سپاه:	-11.7661
▁سکنه	-11.7661
▁سی؛	-11.7661
▁سیارات	-11.7661
▁سیاستی	-11.7661
▁سیاهچاله	-11.7661
▁سیرشا	-11.7661
▁سیریاتل	-11.7661
▁سیلان	-11.7661
▁سیلیتو	-11.7661
▁سیناتی	-11.7661
▁سینوفارم	-11.7661
▁شابلون	-11.7661
▁شادمانی	-11.7661
▁شارجه	-11.7661
▁شارپنتیر	-11.7661
▁شاعر،	-11.7661
▁شاعرانه	-11.7661
▁شالیزار	-11.7661
▁شامپانزه	-11.7661
▁شاهان	-11.7661
▁شاهراه	-11.7661
▁شاهکارهای	-11.7661
▁شاکی	-11.7661
▁شایان	-11.7661
▁شبان	-11.7661
▁شجاعیان	-11.7661
▁شجریان؛	-11.7661
▁شد.ایران	-11.7661
▁شد.مقام	-11.7661
▁شد.پس	-11.7661
▁شد:	-11.7661
▁شدخبرگزاری	-11.7661
▁شدند.آقای	-11.7661
▁شده'منبع	-11.7661
▁شدیک	-11.7661
▁شراکت	-11.7661
▁شرع	-11.7661
▁شرعی	-11.7661
▁شریعتمداری	-11.7661
▁شعارهایی	-11.7661
▁شعبات	-11.7661
▁شعرهای	-11.7661
▁شما'	-11.7661
▁شمسر	-11.7661
▁شنوایی	-11.7661
▁شنویم	-11.7661
▁شنیدنش	-11.7661
▁شهریورماه	-11.7661
▁شهزاده	-11.7661
▁شواری	-11.7661
▁شوخ	-11.7661
▁شود.بعضی	-11.7661
▁شود.بیشتر	-11.7661
▁شود.سایت	-11.7661
▁شود.صندوق	-11.7661
▁شود.منابع	-11.7661
▁شود.هکرها	-11.7661
▁شوددر	-11.7661
▁شودرسانه	-11.7661
▁شومینه	-11.7661
▁شوند.پوریا	-11.7661
▁شوهرم	-11.7661
▁شوهری	-11.7661
▁شوکه	-11.7661
▁شکست.	-11.7661
▁شکسپیر	-11.7661
▁شکلک	-11.7661
▁شیادی	-11.7661
▁شیرازی	-11.7661
▁شیرنوایی	-11.7661
▁صبحگاهی	-11.7661
▁صحبتهای	-11.7661
▁صدراعظم	-11.7661
▁صدهزار	-11.7661
▁صفا	-11.7661
▁صفی	-11.7661
▁صلیب	-11.7661
▁صلیبی	-11.7661
▁صناعی	-11.7661
▁صنوف	-11.7661
▁صورت،	-11.7661
▁صیادان	-11.7661
▁ضابطه	-11.7661
▁ضربان	-11.7661
▁ضمانت	-11.7661
▁ضیا	-11.7661
▁طاهباز	-11.7661
▁طرفداری	-11.7661
▁طرق	-11.7661
▁طفره	-11.7661
▁طلبانه	-11.7661
▁طنزآلود	-11.7661
▁عادلایران،	-11.7661
▁عالمی	-11.7661
▁عالیشاه	-11.7661
▁عبادی	-11.7661
▁عباسعلی	-11.7661
▁عبدل	-11.7661
▁عراقچی،	-11.7661
▁عربستان؛	-11.7661
▁عزا	-11.7661
▁علما	-11.7661
▁عماد	-11.7661
▁عمد	-11.7661
▁عمری	-11.7661
▁عمومیت	-11.7661
▁عمیقی	-11.7661
▁عنایت	-11.7661
▁عنوانش	-11.7661
▁عواید	-11.7661
▁عینک	-11.7661
▁غارهای	-11.7661
▁غایب	-11.7661
▁غذاهای	-11.7661
▁غربت	-11.7661
▁غلطی	-11.7661
▁غنی،	-11.7661
▁غور	-11.7661
▁فازهای	-11.7661
▁فالانژهای	-11.7661
▁فایننشال	-11.7661
▁فتنه	-11.7661
▁فجرسپاسی	-11.7661
▁فراخوانده	-11.7661
▁فرارسیدن	-11.7661
▁فرامرز	-11.7661
▁فرانکی	-11.7661
▁فرحی	-11.7661
▁فرزندانش	-11.7661
▁فرسا	-11.7661
▁فرستادمنبع	-11.7661
▁فرستد.	-11.7661
▁فرضی	-11.7661
▁فرمانروای	-11.7661
▁فرمانی	-11.7661
▁فرناندز	-11.7661
▁فرنود	-11.7661
▁فرهمند	-11.7661
▁فرهنگ،	-11.7661
▁فروشد	-11.7661
▁فروند	-11.7661
▁فرگوس	-11.7661
▁فصول	-11.7661
▁فضولاتشان	-11.7661
▁فعالانه	-11.7661
▁فقیرنشین	-11.7661
▁فلورنتینو	-11.7661
▁فن:	-11.7661
▁فهمید	-11.7661
▁فوتبال،	-11.7661
▁فوربز	-11.7661
▁فوربس	-11.7661
▁فون	-11.7661
▁فیروزه	-11.7661
▁فیزیوتراپ	-11.7661
▁فیزیولوژی	-11.7661
▁فیفا؛	-11.7661
▁فیلسوفان	-11.7661
▁فیگو	-11.7661
▁قالیباف:	-11.7661
▁قبض	-11.7661
▁قدرتهای	-11.7661
▁قدعلم	-11.7661
▁قراردادهایی	-11.7661
▁قرضی	-11.7661
▁قرمز،	-11.7661
▁قشر	-11.7661
▁قصیده	-11.7661
▁قضائی	-11.7661
▁قمار	-11.7661
▁قندوز	-11.7661
▁قندچی	-11.7661
▁قویا	-11.7661
▁لابراتوار	-11.7661
▁لاتکس	-11.7661
▁لاری،	-11.7661
▁لاشنی	-11.7661
▁لافرته	-11.7661
▁لاوروف	-11.7661
▁لبخندها	-11.7661
▁لحظاتی	-11.7661
▁لرز	-11.7661
▁لقمان	-11.7661
▁لندرکینگ	-11.7661
▁لندن.	-11.7661
▁لنز	-11.7661
▁لنست	-11.7661
▁لنگر	-11.7661
▁لوس	-11.7661
▁لوورن	-11.7661
▁لوپیناویر	-11.7661
▁لوکسی	-11.7661
▁لوییس	-11.7661
▁لک	-11.7661
▁لیلی	-11.7661
▁لیموزین	-11.7661
▁لین	-11.7661
▁لیندگرن	-11.7661
▁لیپا	-11.7661
▁مابقی	-11.7661
▁مابین	-11.7661
▁ماروتو	-11.7661
▁مارکی	-11.7661
▁ماشینش	-11.7661
▁ماموریتش	-11.7661
▁ماند.این	-11.7661
▁ماندمنبع	-11.7661
▁ماندند	-11.7661
▁مانده؛	-11.7661
▁مانسل	-11.7661
▁مانوئل	-11.7661
▁مانوس	-11.7661
▁ماهیت	-11.7661
▁ماهیچه	-11.7661
▁مایباخ	-11.7661
▁مایعی	-11.7661
▁مبتکرانه	-11.7661
▁مبحث	-11.7661
▁متئو	-11.7661
▁متحرک	-11.7661
▁متصور	-11.7661
▁متعادل	-11.7661
▁متقبل	-11.7661
▁متمادی	-11.7661
▁متمایل	-11.7661
▁متنوعش	-11.7661
▁متواری	-11.7661
▁مثلوثی	-11.7661
▁مثنوی	-11.7661
▁مجادله	-11.7661
▁مجارستان	-11.7661
▁مجازی،	-11.7661
▁مجاور	-11.7661
▁مجذوب	-11.7661
▁مجزا	-11.7661
▁مجلس.	-11.7661
▁مجوزدار	-11.7661
▁محال	-11.7661
▁محبوبترین	-11.7661
▁محبوبش	-11.7661
▁محتویات	-11.7661
▁محرز	-11.7661
▁محسوسی	-11.7661
▁محصص	-11.7661
▁محصولش	-11.7661
▁محمد،	-11.7661
▁محمدتقی	-11.7661
▁محمدهادی	-11.7661
▁محو	-11.7661
▁محکومیتش	-11.7661
▁مخازن	-11.7661
▁مخاطبانش	-11.7661
▁مخالفانی	-11.7661
▁مخالفتی	-11.7661
▁مختاری	-11.7661
▁مختاری،	-11.7661
▁مدارگرد	-11.7661
▁مدرنیسم	-11.7661
▁مدیرمسئول	-11.7661
▁مدیسون	-11.7661
▁مذاکراتش	-11.7661
▁مراد	-11.7661
▁مراکش	-11.7661
▁مرج	-11.7661
▁مردانش	-11.7661
▁مردم،	-11.7661
▁مرسوم	-11.7661
▁مرهم	-11.7661
▁مریض	-11.7661
▁مزیت	-11.7661
▁مزین	-11.7661
▁مستحق	-11.7661
▁مستراح	-11.7661
▁مستندات	-11.7661
▁مستنکفین	-11.7661
▁مسخ	-11.7661
▁مسخره	-11.7661
▁مسی،	-11.7661
▁مشام	-11.7661
▁مشاهدات	-11.7661
▁مشاهیر	-11.7661
▁مشتاقان	-11.7661
▁مشروب	-11.7661
▁مشروبات	-11.7661
▁مشروطیت	-11.7661
▁مشروعیت	-11.7661
▁مشهورش	-11.7661
▁مشهوری	-11.7661
▁مصادف	-11.7661
▁مصری	-11.7661
▁مضاعفی	-11.7661
▁مضامین	-11.7661
▁مضحک	-11.7661
▁مطبوع	-11.7661
▁معایب	-11.7661
▁معدنی	-11.7661
▁معرف	-11.7661
▁معروفترین	-11.7661
▁معلمان	-11.7661
▁معنادار	-11.7661
▁مغایرت	-11.7661
▁مقتدرانه	-11.7661
▁مقداد	-11.7661
▁مقصران	-11.7661
▁مقیاس	-11.7661
▁ملوان	-11.7661
▁ملکشاه	-11.7661
▁ملکی	-11.7661
▁ملیت	-11.7661
▁ممکن،	-11.7661
▁منازل	-11.7661
▁مناسبات	-11.7661
▁منجیل	-11.7661
▁منحنی	-11.7661
▁منشأ	-11.7661
▁منصرف	-11.7661
▁منطبق	-11.7661
▁منظومه	-11.7661
▁منفور	-11.7661
▁منقل	-11.7661
▁منهدم	-11.7661
▁مهاجرانی	-11.7661
▁مهاجرتی	-11.7661
▁مهمتر	-11.7661
▁مواج	-11.7661
▁موازات	-11.7661
▁موازنه	-11.7661
▁موتوری	-11.7661
▁موثرترین	-11.7661
▁مورخان	-11.7661
▁موزیم	-11.7661
▁موسیقی،	-11.7661
▁مولر	-11.7661
▁مولف	-11.7661
▁مولوی،	-11.7661
▁مولکولی	-11.7661
▁مون	-11.7661
▁مونمارتر	-11.7661
▁مونیخ،	-11.7661
▁مویز	-11.7661
▁مچ	-11.7661
▁مکاتب	-11.7661
▁مکس	-11.7661
▁میرضیایف	-11.7661
▁میزانی	-11.7661
▁میزبانش	-11.7661
▁میزی	-11.7661
▁میشیگان	-11.7661
▁میلز	-11.7661
▁میلیچ	-11.7661
▁میکائل	-11.7661
▁میکروبی	-11.7661
▁نابینا	-11.7661
▁ناتینگهام	-11.7661
▁نادال،	-11.7661
▁نادقیق	-11.7661
▁نازلی	-11.7661
▁نازک	-11.7661
▁ناسازگار	-11.7661
▁ناسالم	-11.7661
▁ناسیونالیستی	-11.7661
▁ناشده؛	-11.7661
▁ناشر	-11.7661
▁ناقضین	-11.7661
▁ناقل	-11.7661
▁ناقلان	-11.7661
▁نامحدود	-11.7661
▁نامشروع	-11.7661
▁نامند	-11.7661
▁نانوایی	-11.7661
▁ناهار	-11.7661
▁ناوشکن	-11.7661
▁نبرده	-11.7661
▁نبردهای	-11.7661
▁نبودم	-11.7661
▁نبودن	-11.7661
▁نبوغ	-11.7661
▁نجومی	-11.7661
▁نخوانده	-11.7661
▁ندارد.متوقف	-11.7661
▁ندارد.منبع	-11.7661
▁نداردمنبع	-11.7661
▁ندارند.بنا	-11.7661
▁نداشت.منبع	-11.7661
▁نداشتم.	-11.7661
▁ندهد.	-11.7661
▁ندهند.گزارش	-11.7661
▁نرسید.	-11.7661
▁نرسیدن	-11.7661
▁نسب	-11.7661
▁نسیم	-11.7661
▁نشد.او	-11.7661
▁نشد.در	-11.7661
▁نشده.	-11.7661
▁نصرت	-11.7661
▁نصیریان	-11.7661
▁نطارتی	-11.7661
▁نظران	-11.7661
▁نظرم	-11.7661
▁نقاطی	-11.7661
▁ننگرهار	-11.7661
▁نهال	-11.7661
▁نوا	-11.7661
▁نورث	-11.7661
▁نورنیوز	-11.7661
▁نوریلسک	-11.7661
▁نوزادی	-11.7661
▁نوسازی	-11.7661
▁نوشت.	-11.7661
▁نوشتارها	-11.7661
▁نولتی	-11.7661
▁نویسان	-11.7661
▁نویسم	-11.7661
▁نویسنده،	-11.7661
▁نویسندگانی	-11.7661
▁نپالی	-11.7661
▁نپذیرفته	-11.7661
▁نکرده.	-11.7661
▁نکنند.	-11.7661
▁نکهت	-11.7661
▁نکونام	-11.7661
▁نگذاشت	-11.7661
▁نگرفت	-11.7661
▁نگرفت.	-11.7661
▁نگهبانی	-11.7661
▁نگهداشتن	-11.7661
▁نگیرد	-11.7661
▁نیابتی	-11.7661
▁نیافت	-11.7661
▁نیافتن	-11.7661
▁نیامده	-11.7661
▁نیاورد	-11.7661
▁نیرومند	-11.7661
▁نیروها	-11.7661
▁نیروهایش	-11.7661
▁نیست.باران	-11.7661
▁نیستم	-11.7661
▁نیشابور	-11.7661
▁نیشکر	-11.7661
▁نیمایی	-11.7661
▁نیمکره	-11.7661
▁نیو	-11.7661
▁نیکزاد	-11.7661
▁ها'	-11.7661
▁ها:	-11.7661
▁ها؛	-11.7661
▁هاآرتص	-11.7661
▁هابل	-11.7661
▁هاشمی،	-11.7661
▁هالپ	-11.7661
▁هام	-11.7661
▁هامون	-11.7661
▁هانسی	-11.7661
▁هایما	-11.7661
▁هایپر	-11.7661
▁هدفگذاری	-11.7661
▁هربار	-11.7661
▁هرج	-11.7661
▁هرل	-11.7661
▁هرچقدر	-11.7661
▁هزارمین	-11.7661
▁هزرا	-11.7661
▁هستند.اما	-11.7661
▁هستند.بر	-11.7661
▁هستی	-11.7661
▁هشتادمین	-11.7661
▁هفده	-11.7661
▁هفدهمین	-11.7661
▁همتایان	-11.7661
▁همدانی	-11.7661
▁همسران	-11.7661
▁همسری	-11.7661
▁همشهری	-11.7661
▁همفکری	-11.7661
▁همهمه	-11.7661
▁همپای	-11.7661
▁همپشایر	-11.7661
▁هند،	-11.7661
▁هنکاک	-11.7661
▁هنکس	-11.7661
▁هوافضای	-11.7661
▁هول	-11.7661
▁هولناک	-11.7661
▁هوگو	-11.7661
▁هکرهای	-11.7661
▁هیرمند	-11.7661
▁هیچیک	-11.7661
▁واران	-11.7661
▁وارث	-11.7661
▁واسط	-11.7661
▁وانتقالات	-11.7661
▁واژگون	-11.7661
▁وای	-11.7661
▁وایت	-11.7661
▁وتو	-11.7661
▁وجو	-11.7661
▁وجوش	-11.7661
▁وحشتناکی	-11.7661
▁ورزد	-11.7661
▁ورزشگاهی	-11.7661
▁ورق	-11.7661
▁ورنر	-11.7661
▁وری	-11.7661
▁وزرا	-11.7661
▁وسواس	-11.7661
▁وضعیتش	-11.7661
▁وفا	-11.7661
▁ولایات	-11.7661
▁ولورهمپتون	-11.7661
▁ومبلی	-11.7661
▁ونیز،	-11.7661
▁ووشو	-11.7661
▁وکارها	-11.7661
▁وگویی	-11.7661
▁وی'	-11.7661
▁وینسلت	-11.7661
▁ویولنسل	-11.7661
▁پاتل	-11.7661
▁پاختاکور	-11.7661
▁پارتی	-11.7661
▁پارو	-11.7661
▁پارکینسون	-11.7661
▁پاستور	-11.7661
▁پاسخش	-11.7661
▁پاسدار	-11.7661
▁پاسداری	-11.7661
▁پال	-11.7661
▁پانوراما	-11.7661
▁پاکبانان	-11.7661
▁پایانه	-11.7661
▁پاییزی	-11.7661
▁پرتوافشانی	-11.7661
▁پرخطر	-11.7661
▁پرداختن	-11.7661
▁پرداختی	-11.7661
▁پردازان	-11.7661
▁پردازش	-11.7661
▁پردازند	-11.7661
▁پردازنده	-11.7661
▁پرز	-11.7661
▁پرزرق	-11.7661
▁پرسابقه	-11.7661
▁پرسپولیس:	-11.7661
▁پرسیدم	-11.7661
▁پرشیا	-11.7661
▁پرفشار	-11.7661
▁پرهام	-11.7661
▁پروسه	-11.7661
▁پریشان	-11.7661
▁پسران	-11.7661
▁پسرمان	-11.7661
▁پشتوانه	-11.7661
▁پشتیبان	-11.7661
▁پغمان	-11.7661
▁پلتفرمی	-11.7661
▁پناهی	-11.7661
▁پوده	-11.7661
▁پور،	-11.7661
▁پوراندخت	-11.7661
▁پورتو	-11.7661
▁پورمختار	-11.7661
▁پول:	-11.7661
▁پوماگالسکی	-11.7661
▁پویایی	-11.7661
▁پژوهشگرانی	-11.7661
▁پژوهشگری	-11.7661
▁پیامبری	-11.7661
▁پیت	-11.7661
▁پیری،	-11.7661
▁پیشآنتونی	-11.7661
▁پیشاپیش	-11.7661
▁پیشخوان	-11.7661
▁پیشگیرانه	-11.7661
▁پیله	-11.7661
▁پیمانی	-11.7661
▁پینک	-11.7661
▁پینکر	-11.7661
▁پیوستگی	-11.7661
▁پیکی	-11.7661
▁چارلی	-11.7661
▁چت	-11.7661
▁چرم	-11.7661
▁چسبناک	-11.7661
▁چشایی	-11.7661
▁چشمانش	-11.7661
▁چشمه	-11.7661
▁چفرین،	-11.7661
▁چندرایان	-11.7661
▁چنینی	-11.7661
▁چون	-11.7661
▁چپگرا	-11.7661
▁چکهایی	-11.7661
▁چکیده	-11.7661
▁چین:	-11.7661
▁چین؛	-11.7661
▁ژئوپلیتیکی	-11.7661
▁ژیمناست	-11.7661
▁کابل؛	-11.7661
▁کابلی	-11.7661
▁کابلی،	-11.7661
▁کاترین	-11.7661
▁کاتلین	-11.7661
▁کارآیی	-11.7661
▁کارانه	-11.7661
▁کاردوسو	-11.7661
▁کارفرمای	-11.7661
▁کارهایش	-11.7661
▁کارول	-11.7661
▁کارچاق	-11.7661
▁کاریلو	-11.7661
▁کاسا	-11.7661
▁کاستی	-11.7661
▁کاش	-11.7661
▁کال	-11.7661
▁کالاهایی	-11.7661
▁کامبالا	-11.7661
▁کامبوج	-11.7661
▁کانتاس	-11.7661
▁کانتینر	-11.7661
▁کانری،	-11.7661
▁کانل	-11.7661
▁کانگورو	-11.7661
▁کانیه	-11.7661
▁کاپلی	-11.7661
▁کبد	-11.7661
▁کتابفروشی	-11.7661
▁کجاست	-11.7661
▁کجای	-11.7661
▁کرامت	-11.7661
▁کرانه	-11.7661
▁کرایه	-11.7661
▁کربنی	-11.7661
▁کرد.از	-11.7661
▁کرد.ایران	-11.7661
▁کرد.با	-11.7661
▁کرد.بر	-11.7661
▁کرد.خانم	-11.7661
▁کرد.خانواده	-11.7661
▁کرد.دو	-11.7661
▁کرد.شبنم	-11.7661
▁کرداعتراض	-11.7661
▁کرداین	-11.7661
▁کردباشگاه	-11.7661
▁کردبه	-11.7661
▁کردجو	-11.7661
▁کردسعید	-11.7661
▁کردمهدی	-11.7661
▁کردند.آقای	-11.7661
▁کردند.این	-11.7661
▁کردنشین	-11.7661
▁کردهای	-11.7661
▁کردهیک	-11.7661
▁کروات	-11.7661
▁کروناواک	-11.7661
▁کرونایاب	-11.7661
▁کریستی	-11.7661
▁کریگ	-11.7661
▁کسادی	-11.7661
▁کسالت	-11.7661
▁کستر	-11.7661
▁کشاورز،	-11.7661
▁کشاورزان	-11.7661
▁کشتند	-11.7661
▁کشتگان	-11.7661
▁کشورسه	-11.7661
▁کشورهاست	-11.7661
▁کشیم	-11.7661
▁کلامی	-11.7661
▁کلاول	-11.7661
▁کلباسی	-11.7661
▁کلم	-11.7661
▁کلورت	-11.7661
▁کلوز	-11.7661
▁کلونا	-11.7661
▁کلکسیونر	-11.7661
▁کلیشه	-11.7661
▁کمالی،	-11.7661
▁کمپ	-11.7661
▁کمکهای	-11.7661
▁کمیاب	-11.7661
▁کمیابی	-11.7661
▁کمیل	-11.7661
▁کنارش	-11.7661
▁کند.بیشتر	-11.7661
▁کند.تیم	-11.7661
▁کند.سعید	-11.7661
▁کندبه	-11.7661
▁کنفرانسی	-11.7661
▁کنممنبع	-11.7661
▁کنندگی	-11.7661
▁کنید،	-11.7661
▁کنید؛	-11.7661
▁کنیم؛	-11.7661
▁کوب	-11.7661
▁کوبی	-11.7661
▁کوتاه،	-11.7661
▁کوتاهتر	-11.7661
▁کوثر	-11.7661
▁کودتایی	-11.7661
▁کوزه	-11.7661
▁کوشش	-11.7661
▁کولبران	-11.7661
▁کومان	-11.7661
▁کوهپایه	-11.7661
▁کوچکش	-11.7661
▁کوید	-11.7661
▁کیان	-11.7661
▁کیست؟منبع	-11.7661
▁کیف	-11.7661
▁کیلیان	-11.7661
▁کیلین	-11.7661
▁گاردن	-11.7661
▁گازاشک	-11.7661
▁گازپروم	-11.7661
▁گاف	-11.7661
▁گالاتاسرای	-11.7661
▁گذراند	-11.7661
▁گرافیتی	-11.7661
▁گرامیداشت	-11.7661
▁گرانقیمت	-11.7661
▁گراهام	-11.7661
▁گردهم	-11.7661
▁گردهمایی	-11.7661
▁گردیم.	-11.7661
▁گرفته:	-11.7661
▁گرفتگی	-11.7661
▁گرمازدگی	-11.7661
▁گرونتن	-11.7661
▁گرگور	-11.7661
▁گرگوری	-11.7661
▁گریخته	-11.7661
▁گشایشی	-11.7661
▁گشتی	-11.7661
▁گفت.	-11.7661
▁گلاور	-11.7661
▁گمشده	-11.7661
▁گنبدی	-11.7661
▁گنجی	-11.7661
▁گهگاهی	-11.7661
▁گودالی	-11.7661
▁گوستاو	-11.7661
▁گوشتی	-11.7661
▁گوهای	-11.7661
▁گوگوش	-11.7661
▁گویا	-11.7661
▁گیرد.این	-11.7661
▁گیردمنبع	-11.7661
▁گیلگمش	-11.7661
▁گینس	-11.7661
▁یاختگان	-11.7661
▁یاریس	-11.7661
▁یافت'منبع	-11.7661
▁یافت.این	-11.7661
▁یافت.منبع	-11.7661
▁یافتند.	-11.7661
▁یخچالی	-11.7661
▁یدریچک	-11.7661
▁یزدی	-11.7661
▁یقین	-11.7661
▁یمنی	-11.7661
▁یه	-11.7661
▁یوآخیم	-11.7661
▁یوخن	-11.7661
▁یوسف	-11.7661
▁یولیان	-11.7661
▁یونانی	-11.7661
▁یونایتد،	-11.7661
▁یونیسف	-11.7661
▁یک؛	-11.7661
▁یکباره	-11.7661
▁یکجانبه	-11.7661
▁یکهزار	-11.7661
▁یینیسی	-11.7661
▁۱۰نفر	-11.7661
▁۱۱۱	-11.7661
▁۱۱۷	-11.7661
▁۱۲۶	-11.7661
▁۱۳۱	-11.7661
▁۱۳۲	-11.7661
▁۱۳۵۸	-11.7661
▁۱۳۶۲	-11.7661
▁۱۳۷۱	-11.7661
▁۱۳۷۷	-11.7661
▁۱۳۹۹؛	-11.7661
▁۱۴۱	-11.7661
▁۱۴۲	-11.7661
▁۱۶۰۰	-11.7661
▁۱۸۷۰	-11.7661
▁۱۸۸۷	-11.7661
▁۱۹۱۷	-11.7661
▁۱۹۳	-11.7661
▁۱۹۵	-11.7661
▁۱۹۷۵	-11.7661
▁۱۹۷۸	-11.7661
▁۱۹۸۴	-11.7661
▁۱۹۸۹	-11.7661
▁۱۹۹۵	-11.7661
▁۱۹۹۹	-11.7661
▁۲۰۲۰منبع	-11.7661
▁۲۰۳۵	-11.7661
▁۲۲۰	-11.7661
▁۳.۹	-11.7661
▁۳۲۵	-11.7661
▁۳۳۰	-11.7661
▁۳۴۵	-11.7661
▁۴۲۲	-11.7661
▁۵۰۰۰	-11.7661
▁۵۰۱	-11.7661
▁۶۰درصد	-11.7661
▁۷۱	-11.7661
▁۷۶۰	-11.7661
▁'او	-12.0538
▁'این	-12.0538
▁'با	-12.0538
▁'بازداشت	-12.0538
▁'بسیار	-12.0538
▁'بن	-12.0538
▁'بهترین	-12.0538
▁'تولید	-12.0538
▁'جان	-12.0538
▁'جهان	-12.0538
▁'حاملگی'	-12.0538
▁'دختر	-12.0538
▁'دو	-12.0538
▁'زن	-12.0538
▁'صدای	-12.0538
▁'صدور	-12.0538
▁'فساد'	-12.0538
▁'قوی	-12.0538
▁'مالک	-12.0538
▁'من	-12.0538
▁'منتفی	-12.0538
▁'موج	-12.0538
▁'می	-12.0538
▁'نظرسنجی'جواد	-12.0538
▁'نژادپرستی	-12.0538
▁'نگرانی	-12.0538
▁'وخیم	-12.0538
▁'پس	-12.0538
▁'چند	-12.0538
▁'چهار	-12.0538
▁'۲	-12.0538
▁(اتریش)	-12.0538
▁(اتریش)،	-12.0538
▁(ایسنا)	-12.0538
▁(در	-12.0538
▁(دهم	-12.0538
▁(۱۴۰۰)	-12.0538
▁(۱۸	-12.0538
▁.آِیت	-12.0538
▁.از	-12.0538
▁.البته	-12.0538
▁.ایران	-12.0538
▁.بر	-12.0538
▁.دکتر	-12.0538
▁.ستاد	-12.0538
▁.علی	-12.0538
▁.عکس	-12.0538
▁.محمدباقر	-12.0538
▁.مرکز	-12.0538
▁.وزیر	-12.0538
▁.پیش	-12.0538
▁.کیهان	-12.0538
▁:	-12.0538
▁؛البته	-12.0538
▁؟منبع	-12.0538
▁آئودی	-12.0538
▁آبادان،	-12.0538
▁آبدات	-12.0538
▁آبراموویچ،	-12.0538
▁آبردین	-12.0538
▁آبریزش	-12.0538
▁آبشار	-12.0538
▁آبگیری	-12.0538
▁آبی؛	-12.0538
▁آتلانتا	-12.0538
▁آتن	-12.0538
▁آتنا	-12.0538
▁آتیه	-12.0538
▁آدمی	-12.0538
▁آذربایجان،	-12.0538
▁آرسنال،	-12.0538
▁آرم	-12.0538
▁آرنو	-12.0538
▁آرژانتین،	-12.0538
▁آرژانتیندرگذشت	-12.0538
▁آریا	-12.0538
▁آریو	-12.0538
▁آزاد،	-12.0538
▁آزادگان،	-12.0538
▁آزاردهنده	-12.0538
▁آزاری	-12.0538
▁آزنوم	-12.0538
▁آس	-12.0538
▁آسانسور	-12.0538
▁آسترازنکا	-12.0538
▁آسمانی	-12.0538
▁آسه	-12.0538
▁آسونسیون،	-12.0538
▁آسپرژیلوس	-12.0538
▁آشوریمنبع	-12.0538
▁آشیل	-12.0538
▁آغازکرد.	-12.0538
▁آغداشلو:	-12.0538
▁آفریده	-12.0538
▁آلرژی	-12.0538
▁آلمان،	-12.0538
▁آلودی	-12.0538
▁آمدنش	-12.0538
▁آمده:	-12.0538
▁آمدهای	-12.0538
▁آمر	-12.0538
▁آمریکاست.	-12.0538
▁آمه	-12.0538
▁آموزشکده	-12.0538
▁آن.	-12.0538
▁آنالوگ	-12.0538
▁آنجلینا	-12.0538
▁آندر	-12.0538
▁آندریا	-12.0538
▁آنهاست.	-12.0538
▁آنهاست؛	-12.0538
▁آنگونه	-12.0538
▁آهنگش	-12.0538
▁آوازه	-12.0538
▁آوازی	-12.0538
▁آورد.آقای	-12.0538
▁آورد.بر	-12.0538
▁آوردند.پرونده	-12.0538
▁آوردیم	-12.0538
▁آورم	-12.0538
▁آویز	-12.0538
▁آویزان	-12.0538
▁آپارات	-12.0538
▁آپارتاید	-12.0538
▁آژانس،	-12.0538
▁آژانس؛	-12.0538
▁آگوست	-12.0538
▁آیداما	-12.0538
▁آیرودینامیکی	-12.0538
▁آیلین	-12.0538
▁آیینی	-12.0538
▁ابتذال	-12.0538
▁ابن	-12.0538
▁ابوالقاسم	-12.0538
▁اتراق	-12.0538
▁اتفاقا	-12.0538
▁اتم	-12.0538
▁اتمر	-12.0538
▁اتمی،	-12.0538
▁اتوبوسی	-12.0538
▁اتومبیلش	-12.0538
▁اثرش	-12.0538
▁اثرگذاری	-12.0538
▁اجاق	-12.0538
▁اجداد	-12.0538
▁احتمالاً	-12.0538
▁احتمالهای	-12.0538
▁احتیاطی	-12.0538
▁احساساتش	-12.0538
▁احمدشاملو	-12.0538
▁احمدی،	-12.0538
▁اخبارش	-12.0538
▁اختلالات	-12.0538
▁اخطارهای	-12.0538
▁اخطاری	-12.0538
▁اخلاق	-12.0538
▁ادعاها	-12.0538
▁ادواردو	-12.0538
▁ادینسون	-12.0538
▁ارباب	-12.0538
▁اردوهای	-12.0538
▁ارز؛	-12.0538
▁ارزنده	-12.0538
▁ارغندیوال	-12.0538
▁اروپا.	-12.0538
▁اروپابرگزاری	-12.0538
▁اروپالیونل	-12.0538
▁اروپایی.منبع	-12.0538
▁اروپاییان	-12.0538
▁ارژن	-12.0538
▁ارکان	-12.0538
▁ازبک	-12.0538
▁ازبکی	-12.0538
▁ازدرگاه	-12.0538
▁اسبی	-12.0538
▁است'محمد	-12.0538
▁است'۵۰	-12.0538
▁است...	-12.0538
▁است.آزادی	-12.0538
▁است.ادل	-12.0538
▁است.ارزیابی	-12.0538
▁است.اطلاعات	-12.0538
▁است.اعضای	-12.0538
▁است.الکس	-12.0538
▁است.امسال	-12.0538
▁است.انتظار	-12.0538
▁است.اگر	-12.0538
▁است.باران	-12.0538
▁است.بازار	-12.0538
▁است.بحرین	-12.0538
▁است.برای	-12.0538
▁است.بورس	-12.0538
▁است.بوریس	-12.0538
▁است.بیشترین	-12.0538
▁است.تولیدکنندگان	-12.0538
▁است.جراح	-12.0538
▁است.جراحش	-12.0538
▁است.حسام	-12.0538
▁است.حسن	-12.0538
▁است.خبر	-12.0538
▁است.خروج	-12.0538
▁است.خیرالله	-12.0538
▁است.دنیل	-12.0538
▁است.دیده	-12.0538
▁است.رهبر	-12.0538
▁است.سال	-12.0538
▁است.سود	-12.0538
▁است.سیما	-12.0538
▁است.شبنم	-12.0538
▁است.عباس	-12.0538
▁است.عده	-12.0538
▁است.علی	-12.0538
▁است.غلامحسین	-12.0538
▁است.فرنوش	-12.0538
▁است.فریدون	-12.0538
▁است.فعالان	-12.0538
▁است.قرار	-12.0538
▁است.لیورپول	-12.0538
▁است.ماجرای	-12.0538
▁است.مت	-12.0538
▁است.محسن	-12.0538
▁است.محققان	-12.0538
▁است.محمدجواد	-12.0538
▁است.محمود	-12.0538
▁است.مذاکرات	-12.0538
▁است.مریم	-12.0538
▁است.معاون	-12.0538
▁است.نام	-12.0538
▁است.نرخ	-12.0538
▁است.همچنین	-12.0538
▁است.همیلتون	-12.0538
▁است.هیات	-12.0538
▁است.وکیل	-12.0538
▁است.وی	-12.0538
▁است.پروفسور	-12.0538
▁است.کمتر	-12.0538
▁است.کنفدراسیون	-12.0538
▁است.کنگره	-12.0538
▁است.گفتگو	-12.0538
▁است.یافته	-12.0538
▁استارشیپ	-12.0538
▁استاز	-12.0538
▁استان،	-12.0538
▁استانداردهای	-12.0538
▁استانها	-12.0538
▁استاکس	-12.0538
▁استبسیاری	-12.0538
▁استحسن	-12.0538
▁استخرارج	-12.0538
▁استخرها	-12.0538
▁استخری	-12.0538
▁استدکتر	-12.0538
▁استرئیس	-12.0538
▁استراتیژیک	-12.0538
▁استرالیا؛	-12.0538
▁استرالیابر	-12.0538
▁استرالیایی،	-12.0538
▁استرتژیک	-12.0538
▁استرجن	-12.0538
▁استسازمان	-12.0538
▁استسال	-12.0538
▁استشرکت	-12.0538
▁استعفاهای	-12.0538
▁استقلالو	-12.0538
▁استقیمت	-12.0538
▁استلا	-12.0538
▁استمسابقات	-12.0538
▁استمقام	-12.0538
▁استکمیسیون	-12.0538
▁استگمانه	-12.0538
▁استیکی	-12.0538
▁اسراییلی	-12.0538
▁اسعد	-12.0538
▁اسفره	-12.0538
▁اسلامی.	-12.0538
▁اسلامیدر	-12.0538
▁اسواتینی	-12.0538
▁اسکارلت	-12.0538
▁اسکان	-12.0538
▁اسکلت	-12.0538
▁اسکورت	-12.0538
▁اسکیاپارلی	-12.0538
▁اشتباهات	-12.0538
▁اشرافی	-12.0538
▁اشلی	-12.0538
▁اصطلاحا	-12.0538
▁اصطلاحات	-12.0538
▁اصلیمنبع	-12.0538
▁اصولی	-12.0538
▁اطلاق	-12.0538
▁اطمینانی	-12.0538
▁اظهارت	-12.0538
▁اظهارنظرها	-12.0538
▁اعتراضش	-12.0538
▁اغراق	-12.0538
▁اغماض	-12.0538
▁افتاد.این	-12.0538
▁افتاد،	-12.0538
▁افتادند	-12.0538
▁افتخارآفرینی	-12.0538
▁افتخارآمیز	-12.0538
▁افتخارات	-12.0538
▁افتخارترین	-12.0538
▁افتی	-12.0538
▁افراطی	-12.0538
▁افزارهای	-12.0538
▁افزوده:	-12.0538
▁افشاری	-12.0538
▁افشاگری	-12.0538
▁افشین	-12.0538
▁افغانستاندر	-12.0538
▁افغانستانمنبع	-12.0538
▁افقی	-12.0538
▁افکاری،	-12.0538
▁افکنده	-12.0538
▁افکنی	-12.0538
▁اقامتی	-12.0538
▁اقتصاد،	-12.0538
▁اقتصادی،	-12.0538
▁اقیانوسی	-12.0538
▁الجزایر	-12.0538
▁الریان	-12.0538
▁الزاما	-12.0538
▁السیر	-12.0538
▁الشرطه	-12.0538
▁العاده.	-12.0538
▁العمل	-12.0538
▁القا	-12.0538
▁القاعده	-12.0538
▁اللهی	-12.0538
▁الهذلول	-12.0538
▁الگوهای	-12.0538
▁الیود	-12.0538
▁اماکنی	-12.0538
▁امدادی	-12.0538
▁امیدهای	-12.0538
▁امیدورایم	-12.0538
▁امیرسالار	-12.0538
▁امیلی	-12.0538
▁انباری	-12.0538
▁انتخابات،	-12.0538
▁انتشار؛	-12.0538
▁انجیر	-12.0538
▁اند.اسماعیل	-12.0538
▁اند.اندی	-12.0538
▁اند.بانک	-12.0538
▁اند.برای	-12.0538
▁اند.بسیاری	-12.0538
▁اند.بعضی	-12.0538
▁اند.ریچارد	-12.0538
▁اند.شاپی	-12.0538
▁اند.فدراسیون	-12.0538
▁اند.قیمت	-12.0538
▁اند.نیروی	-12.0538
▁انداختمنبع	-12.0538
▁اندازد.	-12.0538
▁اندبرای	-12.0538
▁اندروز	-12.0538
▁اندروید	-12.0538
▁اندوه	-12.0538
▁انرو	-12.0538
▁انرومنبع	-12.0538
▁انسداد	-12.0538
▁انعقاد	-12.0538
▁انقباض	-12.0538
▁انقلاب،	-12.0538
▁انگشتان	-12.0538
▁انگلیس،	-12.0538
▁انگلیس؛	-12.0538
▁انگیس	-12.0538
▁اهتمام	-12.0538
▁اهواز،	-12.0538
▁اوبر؛	-12.0538
▁اوتارسون	-12.0538
▁اوتیسم	-12.0538
▁اوجی	-12.0538
▁اوراسیا	-12.0538
▁اورانگوتان	-12.0538
▁اورخون	-12.0538
▁اورکنی	-12.0538
▁اوزیل	-12.0538
▁اوساکا	-12.0538
▁اوست.	-12.0538
▁اوستا	-12.0538
▁اوقات	-12.0538
▁اوقاف	-12.0538
▁اولیانف	-12.0538
▁اونو	-12.0538
▁اوپراتور	-12.0538
▁اپلیکیشنی	-12.0538
▁اژدهای	-12.0538
▁اژه	-12.0538
▁اکراه	-12.0538
▁اکسیوس	-12.0538
▁ای'	-12.0538
▁ایاما	-12.0538
▁ایتالیا؛	-12.0538
▁ایتالیاست.	-12.0538
▁ایتالیاییمنبع	-12.0538
▁ایتر	-12.0538
▁اید.	-12.0538
▁ایرادمنبع	-12.0538
▁ایرادهای	-12.0538
▁ایرانبه	-12.0538
▁ایرانم	-12.0538
▁ایرانی؛	-12.0538
▁ایرانیانی	-12.0538
▁ایرایی	-12.0538
▁ایرلندشمالی	-12.0538
▁ایرویز	-12.0538
▁ایزی	-12.0538
▁ایستاد.این	-12.0538
▁ایستادن	-12.0538
▁ایستند	-12.0538
▁ایستگاهی	-12.0538
▁ایفل	-12.0538
▁ایم؛	-12.0538
▁اینجانب	-12.0538
▁ایندین	-12.0538
▁اینستاگرام،	-12.0538
▁اینگونه	-12.0538
▁ایی	-12.0538
▁باثبات'	-12.0538
▁باخبر	-12.0538
▁باخت.لیورپولِ	-12.0538
▁باختر	-12.0538
▁باختن	-12.0538
▁باخرید	-12.0538
▁بار.	-12.0538
▁بار،	-12.0538
▁بارسلونا:	-12.0538
▁بارسلونا،	-12.0538
▁بارهای	-12.0538
▁باروک	-12.0538
▁بارچا	-12.0538
▁بارگذاری	-12.0538
▁بازار.دوج	-12.0538
▁بازار،	-12.0538
▁بازخواهد	-12.0538
▁بازده	-12.0538
▁بازرگانان	-12.0538
▁بازنویسی	-12.0538
▁بازنگشتن	-12.0538
▁بازوان	-12.0538
▁بازوبند	-12.0538
▁بازپرس	-12.0538
▁بازپس	-12.0538
▁بازگردد.آقای	-12.0538
▁بازگردم.	-12.0538
▁بازگشت.بوفون	-12.0538
▁بازی،	-12.0538
▁بازیها	-12.0538
▁بازیچه	-12.0538
▁بازیکنان.منبع	-12.0538
▁بازیکنانش	-12.0538
▁بازیگر،	-12.0538
▁باستیل	-12.0538
▁باشد.با	-12.0538
▁باشد.به	-12.0538
▁باشدمنبع	-12.0538
▁باشم.	-12.0538
▁باشندگان	-12.0538
▁باشی	-12.0538
▁باغبان	-12.0538
▁باغی	-12.0538
▁بالاست	-12.0538
▁بالاگرفتن	-12.0538
▁بالستیک	-12.0538
▁بام	-12.0538
▁بامزه	-12.0538
▁بامیه	-12.0538
▁بانله	-12.0538
▁بانوی	-12.0538
▁بانکوک	-12.0538
▁باک	-12.0538
▁باکاملا	-12.0538
▁باکسل	-12.0538
▁بایت	-12.0538
▁بایرنی	-12.0538
▁بایستند.	-12.0538
▁بایسکل	-12.0538
▁بایکونور	-12.0538
▁ببرند	-12.0538
▁ببریم	-12.0538
▁ببندند.	-12.0538
▁ببینم	-12.0538
▁بت	-12.0538
▁بتدریج	-12.0538
▁بحبوحه	-12.0538
▁بحرین،	-12.0538
▁بحرینفدراسیون	-12.0538
▁بخشهای	-12.0538
▁بخوانید.	-12.0538
▁بخوبی	-12.0538
▁بدان	-12.0538
▁بدحساب	-12.0538
▁بدخیم	-12.0538
▁بدرستی	-12.0538
▁بدشانس	-12.0538
▁بدنام	-12.0538
▁بدنسازی	-12.0538
▁بذرها	-12.0538
▁برآمدگی	-12.0538
▁برآوردها	-12.0538
▁براحتی	-12.0538
▁برایدینجر	-12.0538
▁برجستگی	-12.0538
▁برخاست	-12.0538
▁برخط	-12.0538
▁برخورددهنده	-12.0538
▁برخوردی	-12.0538
▁بردارد.	-12.0538
▁برداشتند.	-12.0538
▁بردرومن	-12.0538
▁بردنشان	-12.0538
▁برسانیم.	-12.0538
▁برسد.در	-12.0538
▁برسد.فدراسیون	-12.0538
▁برسد.پیش	-12.0538
▁برسند	-12.0538
▁برسیم.	-12.0538
▁برش	-12.0538
▁برغم	-12.0538
▁برقی،	-12.0538
▁برود؛	-12.0538
▁برومند	-12.0538
▁برونئی	-12.0538
▁بروند.	-12.0538
▁برونداقبال	-12.0538
▁برونو	-12.0538
▁برویم.	-12.0538
▁برپایی	-12.0538
▁برگردیم؛	-12.0538
▁برگزیت،	-12.0538
▁برگشت.در	-12.0538
▁بریتانیا:	-12.0538
▁بریتانیا؛	-12.0538
▁بریتانیاست،	-12.0538
▁بریز	-12.0538
▁بریک	-12.0538
▁بزرگسال	-12.0538
▁بزنند.	-12.0538
▁بست'	-12.0538
▁بسختی	-12.0538
▁بسط	-12.0538
▁بسفر	-12.0538
▁بشر،	-12.0538
▁بشنوید.	-12.0538
▁بفرستد	-12.0538
▁بفروشد.	-12.0538
▁بلا	-12.0538
▁بلاروسمنبع	-12.0538
▁بلافصل	-12.0538
▁بلاگر	-12.0538
▁بلایندرز	-12.0538
▁بلندقدترین	-12.0538
▁بلندهای	-12.0538
▁بلومر	-12.0538
▁بلیط	-12.0538
▁بمیرد	-12.0538
▁بمیرد.	-12.0538
▁بندد	-12.0538
▁بندرانزلی	-12.0538
▁بندرچاربهار	-12.0538
▁بندهای	-12.0538
▁بندهایی	-12.0538
▁بنرهای	-12.0538
▁بنزمنبع	-12.0538
▁بنشیند.	-12.0538
▁بنویس	-12.0538
▁بهارش	-12.0538
▁بهار۹۹	-12.0538
▁بهبهانی	-12.0538
▁بهبودی	-12.0538
▁بهمراه	-12.0538
▁بهمنیار	-12.0538
▁بوئینگ	-12.0538
▁بواسطه	-12.0538
▁بود.آیت	-12.0538
▁بود.اخیرا	-12.0538
▁بود.اسماعیل	-12.0538
▁بود.دولت	-12.0538
▁بود.دیوید	-12.0538
▁بود.رشد	-12.0538
▁بود.رقابت	-12.0538
▁بود.شاخص	-12.0538
▁بود.شرکت	-12.0538
▁بود.علیرضا	-12.0538
▁بود.وزیر	-12.0538
▁بود.پیشتر	-12.0538
▁بود.یک	-12.0538
▁بود.یکی	-12.0538
▁بودایران	-12.0538
▁بوداین	-12.0538
▁بودبا	-12.0538
▁بودند.به	-12.0538
▁بودند.تنها	-12.0538
▁بودند.پس	-12.0538
▁بودندخانم	-12.0538
▁بوده.جواد	-12.0538
▁بوده؟	-12.0538
▁بودی	-12.0538
▁بودیک	-12.0538
▁بورس:	-12.0538
▁بورگ	-12.0538
▁بورگ،	-12.0538
▁بورگمنبع	-12.0538
▁بوزمن	-12.0538
▁بوزمن،	-12.0538
▁بوستان	-12.0538
▁بولداگ	-12.0538
▁بومیان	-12.0538
▁بونگ	-12.0538
▁بوهای	-12.0538
▁بوکر	-12.0538
▁بوکسینگ	-12.0538
▁بپرسید	-12.0538
▁بپیوندد	-12.0538
▁بکند.	-12.0538
▁بکنید.	-12.0538
▁بگذاریم	-12.0538
▁بگویید	-12.0538
▁بیاید.	-12.0538
▁بیتل	-12.0538
▁بیروتمنبع	-12.0538
▁بیشتر.	-12.0538
▁بیشتر؟اینکه	-12.0538
▁بینسکی	-12.0538
▁بینید.	-12.0538
▁بیو	-12.0538
▁بیواِن	-12.0538
▁بیکاران	-12.0538
▁بیکر	-12.0538
▁تأثیرگذار	-12.0538
▁تئاترها	-12.0538
▁تئو	-12.0538
▁تائوس	-12.0538
▁تاتنهام،	-12.0538
▁تاثیرات	-12.0538
▁تاجیکی	-12.0538
▁تاخیری	-12.0538
▁تاریخ،	-12.0538
▁تازی	-12.0538
▁تامی	-12.0538
▁تانگوی	-12.0538
▁تاوارس	-12.0538
▁تاکیدی	-12.0538
▁تایلندی	-12.0538
▁تایی	-12.0538
▁تاییدیه	-12.0538
▁تباهی	-12.0538
▁تبصره	-12.0538
▁تبیین	-12.0538
▁تجارت،	-12.0538
▁تجسسی	-12.0538
▁تجسم	-12.0538
▁تجمعاتی	-12.0538
▁تحرکی	-12.0538
▁تحریف	-12.0538
▁تحریم.	-12.0538
▁تحقیقاتش	-12.0538
▁تحکیم	-12.0538
▁تحیت	-12.0538
▁تخار	-12.0538
▁تختی	-12.0538
▁تخلفاتی،	-12.0538
▁تخمک	-12.0538
▁تداعی	-12.0538
▁تدافعی	-12.0538
▁تدروس	-12.0538
▁ترائوره	-12.0538
▁ترات	-12.0538
▁ترازنامه	-12.0538
▁تراشیده	-12.0538
▁تراپ	-12.0538
▁تراکتورسازی	-12.0538
▁ترتیبی	-12.0538
▁ترساندن	-12.0538
▁ترسیده	-12.0538
▁ترفندی	-12.0538
▁ترند	-12.0538
▁تره	-12.0538
▁ترکمانچای	-12.0538
▁ترکمن	-12.0538
▁تریک	-12.0538
▁تسکین	-12.0538
▁تشعشعات	-12.0538
▁تصورش	-12.0538
▁تصویرسازی	-12.0538
▁تضمینی	-12.0538
▁تضییع	-12.0538
▁تطابق	-12.0538
▁تظاهر	-12.0538
▁تظاهراتی	-12.0538
▁تظاهرکنندگان	-12.0538
▁تعارف	-12.0538
▁تعریضی	-12.0538
▁تعریفی	-12.0538
▁تعمیرات	-12.0538
▁تعمیراتی	-12.0538
▁تغییرهایی	-12.0538
▁تفاهمنامه	-12.0538
▁تفاهمی	-12.0538
▁تفرشی	-12.0538
▁تفهیم	-12.0538
▁تقاضاهای	-12.0538
▁تقبیح	-12.0538
▁تلاشند	-12.0538
▁تلفیقی	-12.0538
▁تماسی	-12.0538
▁تماشگران	-12.0538
▁تمدنی	-12.0538
▁تملیکی	-12.0538
▁تمهیدات	-12.0538
▁تمیز	-12.0538
▁تنبل	-12.0538
▁تنگاتنگی	-12.0538
▁ته	-12.0538
▁تهدید،	-12.0538
▁تهدیدات	-12.0538
▁تهدیدها	-12.0538
▁تهدیدهایی	-12.0538
▁تهراناز	-12.0538
▁تهی	-12.0538
▁توافق،	-12.0538
▁توافقات	-12.0538
▁توتال؛	-12.0538
▁توخالی	-12.0538
▁تورممنبع	-12.0538
▁توزیعی	-12.0538
▁توفیقی	-12.0538
▁توقع	-12.0538
▁تومانی'	-12.0538
▁تونسی	-12.0538
▁تِک	-12.0538
▁تپنده	-12.0538
▁تیبو	-12.0538
▁تیم.	-12.0538
▁تیم؛	-12.0538
▁تیمو	-12.0538
▁ثابتی	-12.0538
▁ثامن؛	-12.0538
▁ثانی،	-12.0538
▁ثروتمند.فورد	-12.0538
▁جادوگر،	-12.0538
▁جادوی	-12.0538
▁جاری،	-12.0538
▁جاسم	-12.0538
▁جالبند	-12.0538
▁جالبی	-12.0538
▁جاماییکایی	-12.0538
▁جانور	-12.0538
▁جاه	-12.0538
▁جاودانه	-12.0538
▁جایش	-12.0538
▁جاییکه	-12.0538
▁جثه	-12.0538
▁جدانشدنی	-12.0538
▁جده	-12.0538
▁جراح	-12.0538
▁جراحان	-12.0538
▁جرارد؛	-12.0538
▁جروم	-12.0538
▁جسته	-12.0538
▁جلوست.	-12.0538
▁جماران	-12.0538
▁جماعت	-12.0538
▁جمعیتش	-12.0538
▁جمله،	-12.0538
▁جمله؛	-12.0538
▁جناحی	-12.0538
▁جنبشی	-12.0538
▁جنوبیبسیاری	-12.0538
▁جنگیده	-12.0538
▁جوانان.	-12.0538
▁جوانب	-12.0538
▁جواهر	-12.0538
▁جودو:	-12.0538
▁جودوکای	-12.0538
▁جوزا	-12.0538
▁جوشقانی	-12.0538
▁جویانه	-12.0538
▁جیدن	-12.0538
▁جینجی	-12.0538
▁جیوه	-12.0538
▁حائل	-12.0538
▁حاضریم	-12.0538
▁حاملگی	-12.0538
▁حرارتی	-12.0538
▁حراستی	-12.0538
▁حرمت	-12.0538
▁حریری	-12.0538
▁حریفش	-12.0538
▁حسابرسی	-12.0538
▁حسابش	-12.0538
▁حسگرها	-12.0538
▁حسینعلی	-12.0538
▁حسینی،	-12.0538
▁حشد	-12.0538
▁حشره	-12.0538
▁حضار	-12.0538
▁حفر	-12.0538
▁حفیظ	-12.0538
▁حقایق	-12.0538
▁حقوقدان	-12.0538
▁حقوقش	-12.0538
▁حلب	-12.0538
▁حمایتهای	-12.0538
▁حملاتی	-12.0538
▁حمیدزیچ	-12.0538
▁حمیرا	-12.0538
▁حنجره	-12.0538
▁حواس	-12.0538
▁حوزوی	-12.0538
▁حوضچه	-12.0538
▁حوله	-12.0538
▁خاطراتی	-12.0538
▁خاطرنشان	-12.0538
▁خالدی	-12.0538
▁خالقی،	-12.0538
▁خالی'،	-12.0538
▁خاموشی	-12.0538
▁خان،	-12.0538
▁خانموسیقی	-12.0538
▁خانواده،	-12.0538
▁خانودوزی	-12.0538
▁خانی	-12.0538
▁خاوران؛	-12.0538
▁خاویر	-12.0538
▁خاکستر	-12.0538
▁خاکستری	-12.0538
▁خاکی	-12.0538
▁خبرداده	-12.0538
▁خجالت	-12.0538
▁خداحافظ	-12.0538
▁خدایاری،	-12.0538
▁خدایان	-12.0538
▁خرابکارانه	-12.0538
▁خردادماه	-12.0538
▁خردسالش	-12.0538
▁خردسالی	-12.0538
▁خرمشاهی	-12.0538
▁خریدشان	-12.0538
▁خسرجی	-12.0538
▁خشمی	-12.0538
▁خشکبار	-12.0538
▁خصمانه	-12.0538
▁خصوصا	-12.0538
▁خصوصیات	-12.0538
▁خطبه	-12.0538
▁خطور	-12.0538
▁خطیبی	-12.0538
▁خفاجیان	-12.0538
▁خلاق	-12.0538
▁خلاقیت؛	-12.0538
▁خلع	-12.0538
▁خم	-12.0538
▁خموش	-12.0538
▁خمینی،	-12.0538
▁خنک	-12.0538
▁خوابگاه	-12.0538
▁خوانان	-12.0538
▁خواند.باشگاه	-12.0538
▁خوانندگی	-12.0538
▁خوانید	-12.0538
▁خواهتد	-12.0538
▁خواهد.	-12.0538
▁خواهدمنبع	-12.0538
▁خواهران	-12.0538
▁خودخواهانه،	-12.0538
▁خودرو،	-12.0538
▁خورشید.	-12.0538
▁خورند	-12.0538
▁خوشایند	-12.0538
▁خوشبو	-12.0538
▁خوشبین	-12.0538
▁خوشبینی	-12.0538
▁خونه	-12.0538
▁خونی	-12.0538
▁خویشتن	-12.0538
▁خیر.	-12.0538
▁دائما	-12.0538
▁داد.آقای	-12.0538
▁داد.بیشتر	-12.0538
▁داد.جوکوویچ	-12.0538
▁داد.رسیدن	-12.0538
▁داد.مسی	-12.0538
▁داد؟منبع	-12.0538
▁دادخواستی	-12.0538
▁داددوج	-12.0538
▁دادم.	-12.0538
▁دادن،	-12.0538
▁دادند.او	-12.0538
▁دادند؛	-12.0538
▁دادیم.	-12.0538
▁دادیک	-12.0538
▁دارالامان	-12.0538
▁دارد.دولت	-12.0538
▁دارد.محمود	-12.0538
▁دارد.همیلتون	-12.0538
▁دارم.	-12.0538
▁دارن	-12.0538
▁دارند.از	-12.0538
▁دارند.به	-12.0538
▁دارند.گفته	-12.0538
▁دارندمنبع	-12.0538
▁داسگوپتا	-12.0538
▁داشت.به	-12.0538
▁داشت.منتقدان	-12.0538
▁داشت.کلوپ	-12.0538
▁داشتم.	-12.0538
▁داشتن'	-12.0538
▁داشتند.منبع	-12.0538
▁داشتند؛	-12.0538
▁داشته.	-12.0538
▁داشتید	-12.0538
▁داشتیم.او	-12.0538
▁داغدار	-12.0538
▁دانست.منبع	-12.0538
▁دانستمنبع	-12.0538
▁دانشمندانی	-12.0538
▁دانشمندی	-12.0538
▁دانشنامه	-12.0538
▁دانم.دلیلش	-12.0538
▁دانند.منبع	-12.0538
▁دانیال	-12.0538
▁دانیدمنبع	-12.0538
▁دانیم.	-12.0538
▁دایک؟منبع	-12.0538
▁دبروینه	-12.0538
▁دبیلو	-12.0538
▁دخترانی	-12.0538
▁دخترشاولیویا	-12.0538
▁دخترم	-12.0538
▁درآورد	-12.0538
▁درانی	-12.0538
▁درخشندگی	-12.0538
▁درخشید	-12.0538
▁دردی	-12.0538
▁درعرصه	-12.0538
▁درمانگاه	-12.0538
▁درنگ	-12.0538
▁درنیامده	-12.0538
▁دروه	-12.0538
▁درگذشت.آقای	-12.0538
▁درگذشت.در	-12.0538
▁درگذشت،	-12.0538
▁دریاها	-12.0538
▁دریژ	-12.0538
▁دزفول،	-12.0538
▁دستاوردهایی	-12.0538
▁دستشان	-12.0538
▁دستشویی	-12.0538
▁دستمایه	-12.0538
▁دستورالعملی	-12.0538
▁دستورها	-12.0538
▁دستگیره	-12.0538
▁دشمنان،	-12.0538
▁دشمنی	-12.0538
▁دعایی	-12.0538
▁دعوتش	-12.0538
▁دفترش	-12.0538
▁دفترچه	-12.0538
▁دفعات	-12.0538
▁دفو	-12.0538
▁دق	-12.0538
▁دل،	-12.0538
▁دلامینی	-12.0538
▁دلبر	-12.0538
▁دلتا	-12.0538
▁دلتنگی	-12.0538
▁دلخوش	-12.0538
▁دلهره	-12.0538
▁دلگرم	-12.0538
▁دلیخت	-12.0538
▁دماغه	-12.0538
▁دنباله	-12.0538
▁دنس	-12.0538
▁دنور	-12.0538
▁دنیا.	-12.0538
▁دنیا؛	-12.0538
▁دهانی	-12.0538
▁دهد'منبع	-12.0538
▁دهد.اما	-12.0538
▁دهد.او	-12.0538
▁دهداین	-12.0538
▁دهشت	-12.0538
▁دهن	-12.0538
▁دهند.بنابر	-12.0538
▁دهکهای	-12.0538
▁دهی،	-12.0538
▁دوئل	-12.0538
▁دوبار	-12.0538
▁دوبله	-12.0538
▁دورافتاده	-12.0538
▁دورانگوی	-12.0538
▁دوری،	-12.0538
▁دوسال	-12.0538
▁دوستانِ	-12.0538
▁دوستانی	-12.0538
▁دوستت	-12.0538
▁دوقلوها	-12.0538
▁دولتمردان	-12.0538
▁دوهفته	-12.0538
▁دوچندان	-12.0538
▁دویچه	-12.0538
▁دپارتمان	-12.0538
▁دکترها	-12.0538
▁دکترین	-12.0538
▁دیتونا	-12.0538
▁دید؛	-12.0538
▁دیدم.	-12.0538
▁دیدنش	-12.0538
▁دیوارها	-12.0538
▁دیور	-12.0538
▁دیپلم	-12.0538
▁دیک	-12.0538
▁دیگرش	-12.0538
▁دیگرهم	-12.0538
▁دیگه	-12.0538
▁ذهنیت	-12.0538
▁ذوزنقه	-12.0538
▁ذیصلاح	-12.0538
▁رئیسان	-12.0538
▁رائول	-12.0538
▁راتکلیف	-12.0538
▁رازهای	-12.0538
▁راشبورک	-12.0538
▁رافا	-12.0538
▁رامهرمز،	-12.0538
▁راموس؛	-12.0538
▁رامیرز	-12.0538
▁رامین	-12.0538
▁رانندگانش	-12.0538
▁راهبری	-12.0538
▁راهور	-12.0538
▁راهکارهایی	-12.0538
▁راین	-12.0538
▁رایکوف	-12.0538
▁ربوده	-12.0538
▁ربیعی،	-12.0538
▁رجیس	-12.0538
▁رحمان،	-12.0538
▁رحیم	-12.0538
▁ردی	-12.0538
▁رزمنده	-12.0538
▁رزوکی	-12.0538
▁رساند.مجتبی	-12.0538
▁رساند،	-12.0538
▁رستورانها	-12.0538
▁رسد.با	-12.0538
▁رسید.او	-12.0538
▁رسید،	-12.0538
▁رسیدم	-12.0538
▁رسیدند؛	-12.0538
▁رسیده.	-12.0538
▁رضایی،	-12.0538
▁رفسنجان	-12.0538
▁رفیعی	-12.0538
▁رمزارزهامنبع	-12.0538
▁رمق	-12.0538
▁رنگدکتر	-12.0538
▁رهن	-12.0538
▁روانشناس	-12.0538
▁روباه	-12.0538
▁روبلف	-12.0538
▁روتردام	-12.0538
▁روث	-12.0538
▁روحیه	-12.0538
▁رود.این	-12.0538
▁رودمنبع	-12.0538
▁روز،	-12.0538
▁روزافزون	-12.0538
▁روزتی	-12.0538
▁روزرسانی	-12.0538
▁روزمزد	-12.0538
▁روسپی	-12.0538
▁روشهای	-12.0538
▁رون	-12.0538
▁رونده	-12.0538
▁رویاها	-12.0538
▁رویاهای	-12.0538
▁رویکردش	-12.0538
▁رویکردهای	-12.0538
▁رکس	-12.0538
▁رکن	-12.0538
▁رکودی	-12.0538
▁ریباند	-12.0538
▁ریتا	-12.0538
▁ریتراتو	-12.0538
▁ریخت	-12.0538
▁ریخت.	-12.0538
▁ریختند	-12.0538
▁ریزبالگرد	-12.0538
▁ریودوژانیرو	-12.0538
▁ریورا،	-12.0538
▁ریچاردز	-12.0538
▁رییسه	-12.0538
▁زار	-12.0538
▁زارها	-12.0538
▁زالی،	-12.0538
▁زبانان	-12.0538
▁زد،	-12.0538
▁زد؛	-12.0538
▁زدم	-12.0538
▁زدندلیورپول	-12.0538
▁زده.	-12.0538
▁زده؛	-12.0538
▁زدودن	-12.0538
▁زراعتی	-12.0538
▁زشت	-12.0538
▁زمانبندی	-12.0538
▁زمانیکه	-12.0538
▁زمره	-12.0538
▁زنان،	-12.0538
▁زنان؛	-12.0538
▁زند.منبع	-12.0538
▁زندانمنبع	-12.0538
▁زندگینامه	-12.0538
▁زنیهای	-12.0538
▁زهی	-12.0538
▁زکریا	-12.0538
▁زیباترین	-12.0538
▁زیربناهای	-12.0538
▁زیردریایی	-12.0538
▁زیرسازی	-12.0538
▁زیست؟منبع	-12.0538
▁ساختمنبع	-12.0538
▁ساختند.	-12.0538
▁سارقان	-12.0538
▁ساز،	-12.0538
▁سازد.	-12.0538
▁سازد؟منبع	-12.0538
▁سازگار	-12.0538
▁سالمنبع	-12.0538
▁سالمند	-12.0538
▁سالمندان.	-12.0538
▁سالمندی	-12.0538
▁ساله،	-12.0538
▁سالهاست	-12.0538
▁سالیان	-12.0538
▁سانتا	-12.0538
▁سانتیاگو	-12.0538
▁سانچی	-12.0538
▁سانی	-12.0538
▁ساچمه	-12.0538
▁ساکت	-12.0538
▁ساکنین	-12.0538
▁سبزیجات	-12.0538
▁ست.آقای	-12.0538
▁ستین	-12.0538
▁سخاوتمند	-12.0538
▁سخنران	-12.0538
▁سخنرانان	-12.0538
▁سدسازی	-12.0538
▁سرامیک	-12.0538
▁سرب	-12.0538
▁سرخرگ	-12.0538
▁سرخپوشان	-12.0538
▁سردرد	-12.0538
▁سردرگم	-12.0538
▁سردی	-12.0538
▁سرسام	-12.0538
▁سرشناسی	-12.0538
▁سرلک	-12.0538
▁سرمی	-12.0538
▁سرنوشتی	-12.0538
▁سرودن	-12.0538
▁سروصدا	-12.0538
▁سرکش	-12.0538
▁سرکوب،	-12.0538
▁سرگذاشتن	-12.0538
▁سرگردانی	-12.0538
▁سرگرفتن	-12.0538
▁سریعا	-12.0538
▁سعداوی	-12.0538
▁سعیدپور	-12.0538
▁سغد	-12.0538
▁سلامتش	-12.0538
▁سلب	-12.0538
▁سلطانزاده	-12.0538
▁سلطه	-12.0538
▁سلیقه	-12.0538
▁سلیمانی،	-12.0538
▁سماع	-12.0538
▁سمتی	-12.0538
▁سمرقند	-12.0538
▁سمعک	-12.0538
▁سمنزا	-12.0538
▁سموم	-12.0538
▁سن؛	-12.0538
▁سنبل	-12.0538
▁سنج	-12.0538
▁سنندج	-12.0538
▁سواد	-12.0538
▁سوالی	-12.0538
▁سوبرانا	-12.0538
▁سوختهای	-12.0538
▁سوراخ	-12.0538
▁سوزانده	-12.0538
▁سوسیالیستی	-12.0538
▁سومالی	-12.0538
▁سوییسی	-12.0538
▁سکس	-12.0538
▁سکوهای	-12.0538
▁سکویی	-12.0538
▁سیار	-12.0538
▁سیاستمداران.	-12.0538
▁سیاق	-12.0538
▁سیدنی	-12.0538
▁سیدنیمنبع	-12.0538
▁سیدیبه	-12.0538
▁سیروس	-12.0538
▁سیری	-12.0538
▁سیستانی	-12.0538
▁سیستماتیک'	-12.0538
▁سیلاب	-12.0538
▁سیلاوی	-12.0538
▁سیلک	-12.0538
▁سیناپس	-12.0538
▁سیندمیک	-12.0538
▁سینماگران	-12.0538
▁سینوواک	-12.0538
▁سیکو	-12.0538
▁شادگان،	-12.0538
▁شافعی	-12.0538
▁شانزدهمین	-12.0538
▁شاهرخ	-12.0538
▁شاکری	-12.0538
▁شاکیان	-12.0538
▁شبانه؛	-12.0538
▁شتابی	-12.0538
▁شجاعانه	-12.0538
▁شجاعتی	-12.0538
▁شجریاندر	-12.0538
▁شد.استقلال	-12.0538
▁شد.انتظار	-12.0538
▁شد.بر	-12.0538
▁شد.تاتنهام	-12.0538
▁شد.توییتر	-12.0538
▁شد.حمید	-12.0538
▁شد.شرکت	-12.0538
▁شد.مارادونا	-12.0538
▁شد.همیلتون	-12.0538
▁شد.پوریا	-12.0538
▁شد.گفته	-12.0538
▁شدآقای	-12.0538
▁شدبه	-12.0538
▁شدتیم	-12.0538
▁شدروز	-12.0538
▁شدسازمان	-12.0538
▁شدمعاون	-12.0538
▁شدند'منبع	-12.0538
▁شدند.افزایش	-12.0538
▁شدند.ایران	-12.0538
▁شدند.فرامرز	-12.0538
▁شدند.مگان	-12.0538
▁شدند:	-12.0538
▁شدندآقای	-12.0538
▁شدنش	-12.0538
▁شده'به	-12.0538
▁شده.در	-12.0538
▁شده؟	-12.0538
▁شدوقتی	-12.0538
▁شرعیات	-12.0538
▁شعارهایشان	-12.0538
▁شعبی	-12.0538
▁شعرهایی	-12.0538
▁شغال	-12.0538
▁شغلها	-12.0538
▁شفیعی	-12.0538
▁شما،	-12.0538
▁شمایلی	-12.0538
▁شمسیه	-12.0538
▁شمع	-12.0538
▁شن	-12.0538
▁شناختند.	-12.0538
▁شناسیم	-12.0538
▁شناورهای	-12.0538
▁شهربندان	-12.0538
▁شهرستانها	-12.0538
▁شهلا	-12.0538
▁شهمامه	-12.0538
▁شود'محمود	-12.0538
▁شود.با	-12.0538
▁شود.رقابت	-12.0538
▁شود.سازمان	-12.0538
▁شود.عبدالناصر	-12.0538
▁شود.محمد	-12.0538
▁شود.پیشتر	-12.0538
▁شود.گسترش	-12.0538
▁شود:	-12.0538
▁شودبه	-12.0538
▁شودسازمان	-12.0538
▁شودیک	-12.0538
▁شوراها	-12.0538
▁شورت	-12.0538
▁شوشتر،	-12.0538
▁شوند.آقای	-12.0538
▁شوند.در	-12.0538
▁شوند؟منبع	-12.0538
▁شوکت	-12.0538
▁شوکور	-12.0538
▁شکایتش	-12.0538
▁شکستی	-12.0538
▁شکند.	-12.0538
▁شگردهای	-12.0538
▁شیتزکریک	-12.0538
▁شیرجه	-12.0538
▁شیرها	-12.0538
▁شیلات	-12.0538
▁شیلد	-12.0538
▁شیمیایی	-12.0538
▁صادره	-12.0538
▁صادقی،	-12.0538
▁صافی	-12.0538
▁صحبتها	-12.0538
▁صداقت	-12.0538
▁صداپیشه	-12.0538
▁صدمات	-12.0538
▁صدیقی	-12.0538
▁صراحتا	-12.0538
▁صربستان	-12.0538
▁صفاری	-12.0538
▁صلصال	-12.0538
▁صهیونیستی	-12.0538
▁صورتیکه	-12.0538
▁ضرابخانه	-12.0538
▁ضرایب	-12.0538
▁ضررهای	-12.0538
▁ضرری	-12.0538
▁ضرغام	-12.0538
▁ضمیمه	-12.0538
▁ضوابطی	-12.0538
▁طارمی	-12.0538
▁طاق	-12.0538
▁طالب	-12.0538
▁طاهری	-12.0538
▁طبری،	-12.0538
▁طبقات	-12.0538
▁طراز	-12.0538
▁طرزی	-12.0538
▁طعنه	-12.0538
▁طلاق	-12.0538
▁طلبی	-12.0538
▁طنابی	-12.0538
▁طناز	-12.0538
▁طنزپرداز	-12.0538
▁طوریکه	-12.0538
▁طوطی	-12.0538
▁طیفی	-12.0538
▁طیور	-12.0538
▁ظاهرشاه	-12.0538
▁ظریف:	-12.0538
▁عابران	-12.0538
▁عار	-12.0538
▁عاطفی	-12.0538
▁عالمی،	-12.0538
▁عایدی	-12.0538
▁عبارت،	-12.0538
▁عبدالحمید	-12.0538
▁عبدالرحمان	-12.0538
▁عبدالفتاح	-12.0538
▁عتاب	-12.0538
▁عثمان	-12.0538
▁عجیب،	-12.0538
▁عدلی	-12.0538
▁عذاب	-12.0538
▁عراق.	-12.0538
▁عرشه	-12.0538
▁عریان	-12.0538
▁عزادار	-12.0538
▁عزل	-12.0538
▁عزیزالله	-12.0538
▁عسگری	-12.0538
▁عضوی	-12.0538
▁عطرسازان	-12.0538
▁عطرسازها	-12.0538
▁عطرهای	-12.0538
▁عطف	-12.0538
▁عطفی	-12.0538
▁علاج	-12.0538
▁علامه	-12.0538
▁علف	-12.0538
▁علنا	-12.0538
▁علیاحضرت	-12.0538
▁علیشاهی	-12.0538
▁عمدا	-12.0538
▁عمدتاً	-12.0538
▁عمرم	-12.0538
▁عملکردش	-12.0538
▁عمومی،	-12.0538
▁عنابستانی	-12.0538
▁عناوینی	-12.0538
▁عنصری	-12.0538
▁عواطف	-12.0538
▁عوام	-12.0538
▁عید،	-12.0538
▁عیدایران،	-12.0538
▁عینا	-12.0538
▁عینکی	-12.0538
▁غائله	-12.0538
▁غزنویان	-12.0538
▁غلات	-12.0538
▁غمگین	-12.0538
▁غواصی	-12.0538
▁غیاثیان	-12.0538
▁غیرسازنده	-12.0538
▁غیرضروری	-12.0538
▁غیرعلنی	-12.0538
▁غیرعمد	-12.0538
▁غیرمجاز	-12.0538
▁فائزه	-12.0538
▁فارس،	-12.0538
▁فارسی.	-12.0538
▁فاصل	-12.0538
▁فاکس	-12.0538
▁فایر	-12.0538
▁فدائیان	-12.0538
▁فدارسیون	-12.0538
▁فدایی	-12.0538
▁فدرر،	-12.0538
▁فرازمینی	-12.0538
▁فراهانی	-12.0538
▁فراوانش	-12.0538
▁فراپار	-12.0538
▁فراگرفته	-12.0538
▁فرایندهای	-12.0538
▁فرحبخش	-12.0538
▁فردای	-12.0538
▁فرزانه	-12.0538
▁فرزندخواندگی	-12.0538
▁فرستنده	-12.0538
▁فرسنگ	-12.0538
▁فرشاد	-12.0538
▁فرضیه	-12.0538
▁فرق	-12.0538
▁فرما	-12.0538
▁فرمانروایی	-12.0538
▁فرمینو	-12.0538
▁فرناندو	-12.0538
▁فروبست.	-12.0538
▁فروخت	-12.0538
▁فرودگاههای	-12.0538
▁فروگذار	-12.0538
▁فضانوردانی	-12.0538
▁فعلی،	-12.0538
▁فغان	-12.0538
▁فقرا	-12.0538
▁فلاتو	-12.0538
▁فلورانس	-12.0538
▁فلیپس	-12.0538
▁فهرستش	-12.0538
▁فهمیدم	-12.0538
▁فهمیده	-12.0538
▁فواصل	-12.0538
▁فواید	-12.0538
▁فوب	-12.0538
▁فوتبال.اگر	-12.0538
▁فوتسی	-12.0538
▁فولام	-12.0538
▁فیسبوکی	-12.0538
▁فیصله	-12.0538
▁فیض	-12.0538
▁فیلم؛	-12.0538
▁فیلمش	-12.0538
▁فیلمچندی	-12.0538
▁قادری	-12.0538
▁قالیباف،	-12.0538
▁قامت	-12.0538
▁قانونگذاری	-12.0538
▁قاچاقچیان	-12.0538
▁قاچاقی	-12.0538
▁قایدی	-12.0538
▁قبایل	-12.0538
▁قبرستان	-12.0538
▁قبرستانی	-12.0538
▁قبرهای	-12.0538
▁قبضه	-12.0538
▁قبل،	-12.0538
▁قدترین	-12.0538
▁قدرتی	-12.0538
▁قرائن	-12.0538
▁قربانعلی	-12.0538
▁قرضه	-12.0538
▁قرملی	-12.0538
▁قضا	-12.0538
▁قطعی'	-12.0538
▁قعر	-12.0538
▁قلبش	-12.0538
▁قلیان	-12.0538
▁قناعت	-12.0538
▁قهرمانیمنبع	-12.0538
▁قهوه	-12.0538
▁قوطی	-12.0538
▁قومیت	-12.0538
▁قیام	-12.0538
▁قیراطی	-12.0538
▁قیچی	-12.0538
▁لئوپولد	-12.0538
▁لا	-12.0538
▁لاجوردی	-12.0538
▁لارنس	-12.0538
▁لاغر	-12.0538
▁لالیگا.	-12.0538
▁لاورز	-12.0538
▁لاین	-12.0538
▁لایک	-12.0538
▁لبرون	-12.0538
▁لبریز	-12.0538
▁لبز	-12.0538
▁لت	-12.0538
▁لجین	-12.0538
▁لخت	-12.0538
▁لرد	-12.0538
▁لرزش	-12.0538
▁لرستان	-12.0538
▁لزومی	-12.0538
▁لطیف	-12.0538
▁لغزان	-12.0538
▁للان	-12.0538
▁له	-12.0538
▁لواسان	-12.0538
▁لوب	-12.0538
▁لوریس	-12.0538
▁لومامبا،	-12.0538
▁لوکزامبورگ	-12.0538
▁لوکه	-12.0538
▁لوگر	-12.0538
▁لکه	-12.0538
▁لیتری	-12.0538
▁لیر	-12.0538
▁لیوان	-12.0538
▁لیورمنبع	-12.0538
▁لیورپول،	-12.0538
▁لیوپول	-12.0538
▁ماتم	-12.0538
▁ماتیاس	-12.0538
▁ماتیلا	-12.0538
▁ماجراجو	-12.0538
▁ماجراهای	-12.0538
▁ماداگاسکار	-12.0538
▁مادربزرگ	-12.0538
▁مادرش.	-12.0538
▁مادرشان	-12.0538
▁مادهوری	-12.0538
▁مارسل	-12.0538
▁مارسلو	-12.0538
▁مارشال	-12.0538
▁ماریان	-12.0538
▁ماریانا	-12.0538
▁مارین	-12.0538
▁ماریو	-12.0538
▁مازندرانی	-12.0538
▁ماساژ	-12.0538
▁ماسه	-12.0538
▁ماسیورادزه	-12.0538
▁مالت	-12.0538
▁مالزی	-12.0538
▁مالکین	-12.0538
▁مالیاتی،	-12.0538
▁مالیه	-12.0538
▁مانی	-12.0538
▁ماهان	-12.0538
▁ماهر	-12.0538
▁ماهرویان،	-12.0538
▁ماهگی	-12.0538
▁ماهیان	-12.0538
▁ماهیگیران	-12.0538
▁ماورای	-12.0538
▁ماوریک	-12.0538
▁ماژلانی	-12.0538
▁مایایی	-12.0538
▁مایل	-12.0538
▁مبادرت	-12.0538
▁مبارز	-12.0538
▁مبانی	-12.0538
▁مبشر	-12.0538
▁مبنا	-12.0538
▁متاسف	-12.0538
▁متاسفم	-12.0538
▁متخلفانه	-12.0538
▁مترجمان	-12.0538
▁مترجمی	-12.0538
▁مترقی	-12.0538
▁مترمکعب	-12.0538
▁متشنج	-12.0538
▁متضاد	-12.0538
▁متضمن	-12.0538
▁متقلب	-12.0538
▁متقلب،	-12.0538
▁متمایزترین	-12.0538
▁متناقض	-12.0538
▁متنوعی	-12.0538
▁مته	-12.0538
▁متوازن	-12.0538
▁متوازنی	-12.0538
▁مثالی	-12.0538
▁مثلثی	-12.0538
▁مجاری	-12.0538
▁مجالس	-12.0538
▁مجاورت	-12.0538
▁مجرمان	-12.0538
▁مجلس:	-12.0538
▁محب	-12.0538
▁محبت	-12.0538
▁محبوبشان	-12.0538
▁محتوایی	-12.0538
▁محتکر	-12.0538
▁محدویت	-12.0538
▁محرک	-12.0538
▁محصور	-12.0538
▁محفل	-12.0538
▁محققی	-12.0538
▁محمودزاده،	-12.0538
▁محمودی	-12.0538
▁محورهای	-12.0538
▁محوری	-12.0538
▁محک	-12.0538
▁محکومیتها	-12.0538
▁مخدوش	-12.0538
▁مدرنیته	-12.0538
▁مدیرعاملی	-12.0538
▁مذاکرت	-12.0538
▁مراجعات	-12.0538
▁مراجعت	-12.0538
▁مراعات	-12.0538
▁مرتع	-12.0538
▁مرتفع	-12.0538
▁مردانه	-12.0538
▁مردسالار	-12.0538
▁مردم.	-12.0538
▁مردمم	-12.0538
▁مرز،	-12.0538
▁مرغ،	-12.0538
▁مرغی	-12.0538
▁مرمر	-12.0538
▁مرورگر	-12.0538
▁مرکب	-12.0538
▁مرگمنبع	-12.0538
▁مریوان	-12.0538
▁مسئول،	-12.0538
▁مسئولانه	-12.0538
▁مسئولانی	-12.0538
▁مسئولیتی	-12.0538
▁مسافرخانه	-12.0538
▁مسافرکشی	-12.0538
▁مسالمت	-12.0538
▁مستحکم	-12.0538
▁مستضعفان؛	-12.0538
▁مستعفی	-12.0538
▁مسری	-12.0538
▁مسلمیار	-12.0538
▁مسمومیت	-12.0538
▁مسیرش	-12.0538
▁مسیرها	-12.0538
▁مشت	-12.0538
▁مشخصا	-12.0538
▁مشغولی	-12.0538
▁مشهود	-12.0538
▁مشکوکی	-12.0538
▁مصائب	-12.0538
▁مضرات	-12.0538
▁مطابقت	-12.0538
▁مطلق	-12.0538
▁معادلی	-12.0538
▁معاملاتی	-12.0538
▁معتاد	-12.0538
▁معترضین	-12.0538
▁معتقدم	-12.0538
▁معتمد	-12.0538
▁معدنچی	-12.0538
▁معدودی	-12.0538
▁معذرت	-12.0538
▁معزی،	-12.0538
▁معوق	-12.0538
▁مغانلو	-12.0538
▁مفاخر	-12.0538
▁مفاصل	-12.0538
▁مفاهیم	-12.0538
▁مفسر	-12.0538
▁مقادیر	-12.0538
▁مقاوم	-12.0538
▁مقتدر	-12.0538
▁مقرراتی	-12.0538
▁مقرون	-12.0538
▁ملاک	-12.0538
▁ملموسی	-12.0538
▁ملوانان	-12.0538
▁ملکشا	-12.0538
▁ملکوت	-12.0538
▁ملی،	-12.0538
▁ممتاز	-12.0538
▁ممد	-12.0538
▁مملو	-12.0538
▁ممیز	-12.0538
▁من'	-12.0538
▁منازعات	-12.0538
▁منافعی	-12.0538
▁منامه	-12.0538
▁منتظرند	-12.0538
▁منجی	-12.0538
▁مندی	-12.0538
▁منزله	-12.0538
▁منطق	-12.0538
▁منطقه،	-12.0538
▁منه	-12.0538
▁مهرگان	-12.0538
▁مهیب	-12.0538
▁موادی	-12.0538
▁موتورسیکلت	-12.0538
▁موتورمنبع	-12.0538
▁موتورها	-12.0538
▁موثرتر	-12.0538
▁مورد،	-12.0538
▁مورفی	-12.0538
▁موروثی	-12.0538
▁موری	-12.0538
▁موریتانی	-12.0538
▁موریکونه	-12.0538
▁موزیکال	-12.0538
▁موسوی،	-12.0538
▁موضعگیری	-12.0538
▁موعود	-12.0538
▁مولایی	-12.0538
▁مونزا	-12.0538
▁مکالمه	-12.0538
▁مکانیکی	-12.0538
▁مکید	-12.0538
▁مگو	-12.0538
▁میان،	-12.0538
▁میانجیگری	-12.0538
▁میخائیل	-12.0538
▁میدهد	-12.0538
▁میرزایی	-12.0538
▁میرود.	-12.0538
▁میشود	-12.0538
▁میلادی)	-12.0538
▁میلر	-12.0538
▁میلک	-12.0538
▁میلگرام	-12.0538
▁میناری	-12.0538
▁مینک	-12.0538
▁ن	-12.0538
▁نا	-12.0538
▁ناآشنایی	-12.0538
▁ناامیدی	-12.0538
▁نابرابر	-12.0538
▁ناترازی	-12.0538
▁ناتنی	-12.0538
▁ناجا	-12.0538
▁ناخدا	-12.0538
▁ناخن	-12.0538
▁ناخواسته	-12.0538
▁ناخودآگاه	-12.0538
▁نادالمنبع	-12.0538
▁نادرشاه	-12.0538
▁ناروا	-12.0538
▁نازل	-12.0538
▁ناشایست	-12.0538
▁ناشران	-12.0538
▁نافرمانی	-12.0538
▁ناله	-12.0538
▁نامداران	-12.0538
▁نامساعد	-12.0538
▁نامناسبی	-12.0538
▁ناموفق	-12.0538
▁نامید.	-12.0538
▁ناپذیرها	-12.0538
▁ناچیزی	-12.0538
▁ناگلزمان	-12.0538
▁نایاب	-12.0538
▁نباشد.	-12.0538
▁نباشید	-12.0538
▁نبردی	-12.0538
▁نبستند	-12.0538
▁نبود.در	-12.0538
▁نبود.کاهش	-12.0538
▁نبود؛	-12.0538
▁نبودند	-12.0538
▁نتانیاهو،	-12.0538
▁نتوانستم	-12.0538
▁نتوانند	-12.0538
▁نثر	-12.0538
▁نجوم	-12.0538
▁نخبه	-12.0538
▁نخل	-12.0538
▁ندارد.او	-12.0538
▁ندارد.بازی	-12.0538
▁ندارد.در	-12.0538
▁ندارند.براساس	-12.0538
▁ندامت	-12.0538
▁نذری	-12.0538
▁نرفت	-12.0538
▁نرفت.	-12.0538
▁نرفتن	-12.0538
▁نروژی	-12.0538
▁نزول	-12.0538
▁نسرین	-12.0538
▁نشستند	-12.0538
▁نشود.تیم	-12.0538
▁نظاره	-12.0538
▁نظری	-12.0538
▁نظمی	-12.0538
▁نعمت	-12.0538
▁نعوظ	-12.0538
▁نفر،	-12.0538
▁نفرات	-12.0538
▁نفردر	-12.0538
▁نفسم	-12.0538
▁نفوذش	-12.0538
▁نفوذی	-12.0538
▁نفوس	-12.0538
▁نقدشوندگی	-12.0538
▁نقیض	-12.0538
▁نقیضی	-12.0538
▁نمازگزاران	-12.0538
▁نماند	-12.0538
▁نماند.	-12.0538
▁نماید	-12.0538
▁نمایشخانه	-12.0538
▁نمایشگاهی	-12.0538
▁نموده	-12.0538
▁ننگین	-12.0538
▁نهادهایی	-12.0538
▁نوابی	-12.0538
▁نواختر	-12.0538
▁نوازندگانی	-12.0538
▁نوال	-12.0538
▁نوامبر،	-12.0538
▁نوای	-12.0538
▁نوبخت،	-12.0538
▁نوترینو	-12.0538
▁نوردهی	-12.0538
▁نوروز،	-12.0538
▁نوزادش	-12.0538
▁نوپای	-12.0538
▁نویدکیا	-12.0538
▁نویسندگان،	-12.0538
▁نژاد:	-12.0538
▁نکاتی	-12.0538
▁نکرد،	-12.0538
▁نکردو	-12.0538
▁نکنیدمنبع	-12.0538
▁نکوست	-12.0538
▁نکوهش	-12.0538
▁نگارشی	-12.0538
▁نگاره	-12.0538
▁نگذشته.	-12.0538
▁نگرانش	-12.0538
▁نگرانند	-12.0538
▁نگهبان:	-12.0538
▁نگهبانان	-12.0538
▁نیافت.	-12.0538
▁نیاورده	-12.0538
▁نیاکان	-12.0538
▁نیست.این	-12.0538
▁نیست.با	-12.0538
▁نیست.من	-12.0538
▁نیست.منبع	-12.0538
▁نیست.همزمان	-12.0538
▁نیش	-12.0538
▁نیفتاده	-12.0538
▁نیلی	-12.0538
▁نیمروز،	-12.0538
▁نیوتن	-12.0538
▁نیکلا	-12.0538
▁هئیت	-12.0538
▁هادرونی	-12.0538
▁هارد	-12.0538
▁هارون	-12.0538
▁هاس	-12.0538
▁هافبکی	-12.0538
▁هال	-12.0538
▁هالیفیلد	-12.0538
▁هانتر	-12.0538
▁هاوایی	-12.0538
▁هایتان	-12.0538
▁هایمان	-12.0538
▁هت	-12.0538
▁هتلی	-12.0538
▁هجده	-12.0538
▁هجدهم	-12.0538
▁هجدهمین	-12.0538
▁هدر	-12.0538
▁هربرت	-12.0538
▁هرتزیگ	-12.0538
▁هرتیه	-12.0538
▁هرجایی	-12.0538
▁هردو	-12.0538
▁هررا،	-12.0538
▁هرساله	-12.0538
▁هرگاه	-12.0538
▁هزارم	-12.0538
▁هست؟منبع	-12.0538
▁هستند'منبع	-12.0538
▁هستند.الکساندر	-12.0538
▁هشداردهنده	-12.0538
▁هشداری	-12.0538
▁هلال	-12.0538
▁همت	-12.0538
▁همجواری	-12.0538
▁همراهش	-12.0538
[...]
