{
  "src_word2id": {
    "<pad>": 0,
    "<s>": 1,
    "</s>": 2,
    "<unk>": 3,
    "ی": 4,
    ".": 5,
    "ه": 6,
    "▁است": 7,
    "▁می": 8,
    "▁": 9,
    "▁های": 10,
    "▁ایران": 11,
    "▁شده": 12,
    "ان": 13,
    "،": 14,
    "▁سال": 15,
    "▁بود": 16,
    "▁ها": 17,
    "▁یک": 18,
    "▁شد": 19,
    "ش": 20,
    "ت": 21,
    "▁ای": 22,
    "▁تصویر": 23,
    "▁کرده": 24,
    "م": 25,
    "▁کرد": 26,
    "▁بر": 27,
    "ن": 28,
    "منبع": 29,
    "▁شود": 30,
    "▁دو": 31,
    "▁گفته": 32,
    "▁خود": 33,
    "▁کند": 34,
    "؛": 35,
    "ین": 36,
    "▁اند": 37,
    "▁کرونا": 38,
    "▁در": 39,
    "ا": 40,
    "ر": 41,
    "ز": 42,
    "▁ماه": 43,
    "د": 44,
    "ب": 45,
    "▁آمریکا": 46,
    "ل": 47,
    "▁پیش": 48,
    "▁کشور": 49,
    "▁گزارش": 50,
    "▁روز": 51,
    "ند": 52,
    "▁بی": 53,
    "▁ا": 54,
    "های": 55,
    "▁کار": 56,
    "▁و": 57,
    "▁فوتبال": 58,
    "ع": 59,
    "▁تیم": 60,
    "▁بازی": 61,
    "▁گفت": 62,
    "▁به": 63,
    "س": 64,
    "▁دارد": 65,
    "▁دهد": 66,
    "ات": 67,
    "▁اعلام": 68,
    "▁م": 69,
    "▁یا": 70,
    "▁کنند": 71,
    "▁دیگر": 72,
    "▁قرار": 73,
    "▁شرکت": 74,
    "▁هزار": 75,
    "▁داده": 76,
    "▁با": 77,
    "▁دولت": 78,
    "▁دست": 79,
    "▁بین": 80,
    "▁رئیس": 81,
    "▁هر": 82,
    "در": 83,
    "▁بار": 84,
    "▁خواهد": 85,
    "▁سه": 86,
    "▁جهان": 87,
    "▁پس": 88,
    "▁ن": 89,
    "▁گذشته": 90,
    "▁آقای": 91,
    "ک": 92,
    "و": 93,
    "▁گوید": 94,
    "▁درباره": 95,
    "▁لیگ": 96,
    "▁ف": 97,
    "▁تهران": 98,
    "▁درصد": 99,
    "▁داد": 100,
    "این": 101,
    "▁آنها": 102,
    "ف": 103,
    "▁چند": 104,
    "▁نفر": 105,
    "▁جدید": 106,
    "▁دلیل": 107,
    "▁سر": 108,
    "▁افزایش": 109,
    "▁میلیون": 110,
    "ها": 111,
    "ار": 112,
    "▁بعد": 113,
    "'": 114,
    "▁ب": 115,
    "▁قیمت": 116,
    "▁'": 117,
    "▁از": 118,
    "▁بوده": 119,
    "▁افغانستان": 120,
    "▁حال": 121,
    "▁سازمان": 122,
    "▁بازار": 123,
    "▁ملی": 124,
    "ری": 125,
    "▁نام": 126,
    ":": 127,
    "ق": 128,
    "▁هفته": 129,
    "▁بزرگ": 130,
    "▁نظر": 131,
    "▁جهانی": 132,
    "▁خبر": 133,
    "▁ویروس": 134,
    "▁همه": 135,
    "ور": 136,
    "▁را": 137,
    "▁دلار": 138,
    "▁نمی": 139,
    "▁فیلم": 140,
    "▁یکی": 141,
    "▁داشت": 142,
    "▁علی": 143,
    "▁جمهوری": 144,
    "▁برگزار": 145,
    "▁نفت": 146,
    "▁ترین": 147,
    "ترین": 148,
    "▁عنوان": 149,
    "▁مورد": 150,
    "▁باید": 151,
    "▁هستند": 152,
    "▁سی": 153,
    "▁روی": 154,
    "▁شب": 155,
    "▁تر": 156,
    "▁بیش": 157,
    "▁وزارت": 158,
    "▁نیست": 159,
    "▁تولید": 160,
    "▁گرفته": 161,
    "▁مجلس": 162,
    "▁امروز": 163,
    "ست": 164,
    "▁اروپا": 165,
    "▁کردند": 166,
    "▁شدن": 167,
    "▁ت": 168,
    "▁بیشتر": 169,
    "▁ر": 170,
    "▁آغاز": 171,
    "▁آن": 172,
    "▁بانک": 173,
    "▁کاهش": 174,
    "▁چین": 175,
    "▁بودند": 176,
    "▁مقابل": 177,
    "▁وزیر": 178,
    "▁بریتانیا": 179,
    "▁باز": 180,
    "▁اخیر": 181,
    "▁نیز": 182,
    "▁نشان": 183,
    "به": 184,
    "▁راه": 185,
    "خ": 186,
    "▁همچنین": 187,
    "▁پایان": 188,
    "▁حدود": 189,
    "که": 190,
    "▁تحریم": 191,
    "▁زمان": 192,
    "▁حضور": 193,
    "▁باشگاه": 194,
    "▁اش": 195,
    "▁داشته": 196,
    "▁برنامه": 197,
    "▁شیو": 198,
    "زه": 199,
    "▁اول": 200,
    "او": 201,
    "ح": 202,
    "▁انجام": 203,
    "▁گل": 204,
    "▁صورت": 205,
    "له": 206,
    "با": 207,
    "▁اساس": 208,
    "▁باشد": 209,
    "▁اقتصادی": 210,
    "انه": 211,
    "▁اولین": 212,
    "▁بخش": 213,
    "▁منتشر": 214,
    "▁توافق": 215,
    "یت": 216,
    "▁شهر": 217,
    "ج": 218,
    "ال": 219,
    "▁واکسن": 220,
    "▁کم": 221,
    "▁شورا": 222,
    "دامه": 223,
    "▁استفاده": 224,
    "▁جمله": 225,
    "▁فصل": 226,
    "یک": 227,
    "▁مردم": 228,
    "بر": 229,
    "▁پی": 230,
    "گی": 231,
    "▁رسید": 232,
    "▁میان": 233,
    "▁گروه": 234,
    "▁حقوق": 235,
    "▁دی": 236,
    "▁شوند": 237,
    "▁وجود": 238,
    "؟": 239,
    "▁زندگی": 240,
    "▁میلیارد": 241,
    "آقای": 242,
    "▁چهار": 243,
    "▁مسابقه": 244,
    "▁مسابقات": 245,
    "▁دارند": 246,
    "گ": 247,
    "▁همین": 248,
    "▁س": 249,
    "▁المللی": 250,
    "▁جام": 251,
    "▁خواست": 252,
    "▁مقام": 253,
    "ون": 254,
    "▁تومان": 255,
    "▁غیر": 256,
    "▁پر": 257,
    "▁ارز": 258,
    "▁تنها": 259,
    "▁جای": 260,
    "▁گیری": 261,
    "تر": 262,
    "▁کل": 263,
    "▁گرفت": 264,
    "▁زنان": 265,
    "▁ایرانی": 266,
    "▁تمام": 267,
    "شان": 268,
    "پ": 269,
    "▁۲۰": 270,
    "گان": 271,
    "▁شرایط": 272,
    "▁شدند": 273,
    "▁وقت": 274,
    "▁ماشین": 275,
    "▁زیاد": 276,
    "▁فروش": 277,
    "▁نزدیک": 278,
    "ید": 279,
    "▁برتر": 280,
    "از": 281,
    "▁خانه": 282,
    "▁تواند": 283,
    "▁رسان": 284,
    "▁حالی": 285,
    "یم": 286,
    "▁بدو": 287,
    "▁فعالیت": 288,
    "▁آینده": 289,
    "▁اقتصاد": 290,
    "▁محمد": 291,
    "▁اسلامی": 292,
    "▁قبل": 293,
    "▁تلاش": 294,
    "▁هیچ": 295,
    "عث": 296,
    "▁بیماری": 297,
    "▁انتخابات": 298,
    "▁کردن": 299,
    "▁توان": 300,
    "رسی": 301,
    "▁وارد": 302,
    "▁بسیاری": 303,
    "▁دوران": 304,
    "▁افراد": 305,
    "▁اجتماعی": 306,
    "▁پول": 307,
    "▁کشورهای": 308,
    "▁وضعیت": 309,
    "▁امسال": 310,
    "▁طور": 311,
    "▁بورس": 312,
    "▁خارجه": 313,
    "▁تغییر": 314,
    "▁مهم": 315,
    "ام": 316,
    "▁نرخ": 317,
    "▁روحانی": 318,
    "▁قهرمان": 319,
    "▁کر": 320,
    "▁آ": 321,
    "▁سوی": 322,
    "▁مختلف": 323,
    "▁بسیار": 324,
    "▁مدت": 325,
    "دی": 326,
    "گر": 327,
    "▁ولی": 328,
    "▁تصمیم": 329,
    "قط": 330,
    "▁کمک": 331,
    "▁گویند": 332,
    "▁هنو": 333,
    "▁مرکزی": 334,
    "▁زمین": 335,
    "▁او": 336,
    "نه": 337,
    "▁طرح": 338,
    "▁خانواده": 339,
    "▁جان": 340,
    "▁منبع": 341,
    "▁هم": 342,
    "▁حالا": 343,
    "▁ریاست": 344,
    "▁تازه": 345,
    "▁سرمایه": 346,
    "▁برای": 347,
    "▁شکست": 348,
    "▁مجموع": 349,
    "▁قهرمانی": 350,
    "▁نخست": 351,
    "▁برابر": 352,
    "▁حت": 353,
    "▁تاریخ": 354,
    "▁پنج": 355,
    "رو": 356,
    "▁نه": 357,
    "▁اثر": 358,
    "▁زن": 359,
    "▁دوره": 360,
    "نگ": 361,
    "▁۵": 362,
    "▁دهه": 363,
    "▁برجام": 364,
    "▁توجه": 365,
    "▁پیدا": 366,
    "▁همراه": 367,
    "▁ساله": 368,
    "▁خودرو": 369,
    "▁هایی": 370,
    "▁موسیقی": 371,
    "▁عکس": 372,
    "▁دوم": 373,
    "▁تب": 374,
    "▁شروع": 375,
    "▁برخ": 376,
    "▁درگذشت": 377,
    "▁بالا": 378,
    "▁اطلاعات": 379,
    "▁بعضی": 380,
    "نی": 381,
    "▁مرکز": 382,
    "▁سفر": 383,
    "نامه": 384,
    "▁پرسپولیس": 385,
    "▁دنیا": 386,
    "▁اصلی": 387,
    "ای": 388,
    "▁صد": 389,
    "▁استان": 390,
    "▁۱۰": 391,
    "▁رسمی": 392,
    "▁منطقه": 393,
    "▁اشار": 394,
    "▁نا": 395,
    "▁آخر": 396,
    "▁که": 397,
    "▁دور": 398,
    "▁سو": 399,
    "▁این": 400,
    "▁سهام": 401,
    "▁رقابت": 402,
    "▁زیر": 403,
    "بی": 404,
    "اب": 405,
    "▁کنار": 406,
    "ایی": 407,
    "▁رفت": 408,
    "▁هسته": 409,
    "▁نقش": 410,
    "▁آمار": 411,
    "▁ال": 412,
    "▁آب": 413,
    "روز": 414,
    "لی": 415,
    "▁استقلال": 416,
    "▁اینک": 417,
    "▁کمتر": 418,
    "▁رسیده": 419,
    "▁۴": 420,
    "اد": 421,
    "ده": 422,
    "▁آژانس": 423,
    "▁ک": 424,
    "سی": 425,
    "▁ام": 426,
    "▁آمریکایی": 427,
    "▁جمهور": 428,
    "▁نوشته": 429,
    "▁نیمه": 430,
    "ثبت": 431,
    "▁واکنش": 432,
    "▁حاضر": 433,
    "تیج": 434,
    "▁مراسم": 435,
    "▁میلادی": 436,
    "▁حمله": 437,
    "▁ح": 438,
    "▁کتاب": 439,
    "▁رو": 440,
    "▁اعتراض": 441,
    "▁حمایت": 442,
    "▁آلمان": 443,
    "▁چ": 444,
    "▁خرید": 445,
    "▁انتشار": 446,
    "▁۱۹": 447,
    "▁عرض": 448,
    "▁یافته": 449,
    "▁بازیکن": 450,
    "▁دنبال": 451,
    "▁فرانسه": 452,
    "اس": 453,
    "▁فدراسیون": 454,
    "شنبه": 455,
    "▁ممکن": 456,
    "▁همکاری": 457,
    "▁تعداد": 458,
    "▁شش": 459,
    "▁نشده": 460,
    "▁مالی": 461,
    "▁۲": 462,
    "▁سیاسی": 463,
    "▁شمار": 464,
    "▁پرداخت": 465,
    "▁رد": 466,
    "▁کنیم": 467,
    "توسط": 468,
    "▁دریافت": 469,
    "▁دانشگاه": 470,
    "▁عربستان": 471,
    "▁بودجه": 472,
    "۲": 473,
    "▁جو": 474,
    "▁طی": 475,
    "▁ده": 476,
    "▁سازی": 477,
    "▁ترامپ": 478,
    "▁آزاد": 479,
    "▁گذاری": 480,
    "▁موج": 481,
    "▁کس": 482,
    "اکنون": 483,
    "▁دهند": 484,
    "▁موضوع": 485,
    "مان": 486,
    "▁۲۰۲۰": 487,
    "▁اتحاد": 488,
    "▁خبرگزا": 489,
    "▁پیروز": 490,
    "▁نو": 491,
    "▁کشتی": 492,
    "▁گو": 493,
    "▁قهرمانان": 494,
    "▁تو": 495,
    "▁الله": 496,
    "▁نهایی": 497,
    "▁درآمد": 498,
    "▁پرونده": 499,
    "▁خام": 500,
    "کس": 501,
    "▁بشر": 502,
    "▁اجرای": 503,
    "▁انرژی": 504,
    "▁ندارد": 505,
    "▁دیدار": 506,
    "▁بد": 507,
    "▁رسد": 508,
    "▁مبارز": 509,
    "▁ساعت": 510,
    "▁سابق": 511,
    "▁ویژه": 512,
    "▁ترکیه": 513,
    "▁کمی": 514,
    "ول": 515,
    "▁بازیکنان": 516,
    "▁روند": 517,
    "▁اقدام": 518,
    "▁ش": 519,
    "▁تح": 520,
    "۸": 521,
    "▁ج": 522,
    "دیل": 523,
    "▁بازداشت": 524,
    "▁اجا": 525,
    "▁مرگ": 526,
    "▁همان": 527,
    "لا": 528,
    "▁چنین": 529,
    "▁سیاست": 530,
    "▁عراق": 531,
    "▁هشدار": 532,
    "▁سوم": 533,
    "▁مدیر": 534,
    "▁مربوط": 535,
    "▁مرد": 536,
    "▁قابل": 537,
    "▁رشد": 538,
    "▁هدف": 539,
    "▁آمده": 540,
    "ِ": 541,
    "▁طریق": 542,
    "▁ابتلا": 543,
    "▁زبان": 544,
    "چه": 545,
    "▁ورزش": 546,
    "گیری": 547,
    "۴": 548,
    "▁خط": 549,
    "▁مذاکرات": 550,
    "▁تایید": 551,
    "▁ساخت": 552,
    "▁نیم": 553,
    "▁قطع": 554,
    "▁بهداشت": 555,
    "▁متهم": 556,
    "▁آی": 557,
    "▁یافت": 558,
    "▁۶": 559,
    "▁اتمی": 560,
    "▁خواهند": 561,
    "▁مشخص": 562,
    "▁آزمایش": 563,
    "▁محدودیت": 564,
    "▁قو": 565,
    "▁میزان": 566,
    "▁خارج": 567,
    "▁جا": 568,
    "▁فاصله": 569,
    "▁خارجی": 570,
    "کو": 571,
    "▁نیاز": 572,
    "▁ایجاد": 573,
    "▁عضو": 574,
    "▁کننده": 575,
    "▁تلویزیون": 576,
    "▁آثار": 577,
    "▁۳": 578,
    "▁نمایش": 579,
    "ص": 580,
    "▁بیمارستان": 581,
    "گاه": 582,
    "▁صادرات": 583,
    "▁رود": 584,
    "▁معاون": 585,
    "۹": 586,
    "▁زمینه": 587,
    "۱": 588,
    "▁آسیا": 589,
    "دار": 590,
    "▁ع": 591,
    "▁کشته": 592,
    "▁حسن": 593,
    "▁بازگشت": 594,
    "▁انسان": 595,
    "▁دولتی": 596,
    "▁لیورپول": 597,
    "▁زده": 598,
    "▁قانون": 599,
    "▁جریان": 600,
    "▁نسبت": 601,
    "ط": 602,
    "▁امنیت": 603,
    "▁سرمربی": 604,
    "▁زمانی": 605,
    "▁نامه": 606,
    "وز": 607,
    ")": 608,
    "▁لغو": 609,
    "▁دوبار": 610,
    "▁زندان": 611,
    "▁انگلیس": 612,
    "ما": 613,
    "گو": 614,
    "▁داستان": 615,
    "▁خیل": 616,
    "کسب": 617,
    "▁انتخاب": 618,
    "ث": 619,
    "▁محل": 620,
    "▁جلو": 621,
    "▁هفت": 622,
    "▁جنگ": 623,
    "▁تاثیر": 624,
    "▁طرف": 625,
    "▁نبود": 626,
    "▁بست": 627,
    "وس": 628,
    "▁اعضای": 629,
    "▁رهبر": 630,
    "▁سن": 631,
    "▁پلیس": 632,
    "▁نمایندگان": 633,
    "▁جنوبی": 634,
    "ستان": 635,
    "چ": 636,
    "▁خطر": 637,
    "▁قرارداد": 638,
    "▁دادگاه": 639,
    "▁روسیه": 640,
    "▁دیده": 641,
    "▁شناخت": 642,
    "▁چرا": 643,
    "▁برد": 644,
    "▁کامل": 645,
    "▁بیانیه": 646,
    "▁گ": 647,
    "▁(": 648,
    "▁نگاه": 649,
    "▁نمایند": 650,
    "▁د": 651,
    "▁اسرائیل": 652,
    "۵": 653,
    "می": 654,
    "مین": 655,
    "▁رکورد": 656,
    "▁صندوق": 657,
    "▁سخنگوی": 658,
    "سیون": 659,
    "نا": 660,
    "▁حکم": 661,
    "▁پا": 662,
    "▁حکومت": 663,
    "لو": 664,
    "۶": 665,
    "الات": 666,
    "▁لندن": 667,
    "▁۲۰۰": 668,
    "اما": 669,
    "▁تن": 670,
    "▁متحده": 671,
    "ینه": 672,
    "▁۸": 673,
    "▁امتیاز": 674,
    "یر": 675,
    "▁خاطر": 676,
    "▁ارزش": 677,
    "▁سخت": 678,
    "▁سطح": 679,
    "▁خوب": 680,
    "▁کابل": 681,
    "▁سابقه": 682,
    "▁مدل": 683,
    "▁تعطیل": 684,
    "▁المپیک": 685,
    "را": 686,
    "▁نشست": 687,
    "▁نامزد": 688,
    "▁همزمان": 689,
    "▁طول": 690,
    "▁افت": 691,
    "▁ساخته": 692,
    "یا": 693,
    "▁سپاه": 694,
    "▁لو": 695,
    "ض": 696,
    "▁مرح": 697,
    "▁عمومی": 698,
    "▁چهارم": 699,
    "▁بالای": 700,
    "▁امنیتی": 701,
    "▁جاری": 702,
    "▁نوشت": 703,
    "ود": 704,
    "▁رای": 705,
    "▁توانست": 706,
    "▁گسترده": 707,
    "▁قرنطینه": 708,
    "▁مرغ": 709,
    "▁انداز": 710,
    "۰": 711,
    "▁اف": 712,
    "▁نقل": 713,
    "سا": 714,
    "▁هز": 715,
    "دو": 716,
    "▁شکل": 717,
    "▁انقلاب": 718,
    "▁کشید": 719,
    "غ": 720,
    "▁فشار": 721,
    "▁ترک": 722,
    "▁سالگی": 723,
    "▁خ": 724,
    "▁پزشکی": 725,
    "▁تورم": 726,
    "▁تع": 727,
    "▁شدید": 728,
    "▁پخ": 729,
    "▁نهاد": 730,
    "▁مطرح": 731,
    "▁چشم": 732,
    "ستاره": 733,
    "▁۳۰": 734,
    "▁جلسه": 735,
    "▁چهر": 736,
    "▁دانست": 737,
    "▁کودکان": 738,
    "پس": 739,
    "▁ظریف": 740,
    "▁جدی": 741,
    "▁برنده": 742,
    "▁هنر": 743,
    "▁ق": 744,
    "▁۲۵": 745,
    "▁انتقال": 746,
    "▁اجرا": 747,
    "▁۱۲": 748,
    "▁امور": 749,
    "▁۷": 750,
    "▁اتفاق": 751,
    "▁کسان": 752,
    "▁هوای": 753,
    "▁۹": 754,
    "▁صنعت": 755,
    "▁ان": 756,
    "▁اتهام": 757,
    "▁ارائه": 758,
    "▁تنیس": 759,
    "▁منابع": 760,
    "▁فکر": 761,
    "▁کا": 762,
    "▁۲۰۱۹": 763,
    "▁ورزشگاه": 764,
    "▁هند": 765,
    "▁روزهای": 766,
    "▁معرف": 767,
    "▁عالی": 768,
    "▁بخشی": 769,
    "▁حرکت": 770,
    "▁انتظار": 771,
    "▁برق": 772,
    "▁گرفتن": 773,
    "▁۱۵": 774,
    "▁دستگاه": 775,
    "▁متوقف": 776,
    "کا": 777,
    "▁نکرده": 778,
    "▁بهتر": 779,
    "▁نظامی": 780,
    "▁۱۴۰۰": 781,
    "وی": 782,
    "▁بایدن": 783,
    "▁باخت": 784,
    "▁آنچ": 785,
    "▁ارتباط": 786,
    "۳": 787,
    "▁خانم": 788,
    "▁اروپایی": 789,
    "تا": 790,
    "▁مت": 791,
    "▁انتقاد": 792,
    "▁اسفند": 793,
    "▁فینال": 794,
    "▁رقم": 795,
    "▁رفته": 796,
    "▁تحقیق": 797,
    "▁چگون": 798,
    "▁۱۱": 799,
    "▁آیا": 800,
    "▁نوع": 801,
    "▁اس": 802,
    "▁فعال": 803,
    "▁پیشین": 804,
    "▁یو": 805,
    "▁شان": 806,
    "▁موسس": 807,
    "▁مسی": 808,
    "▁گاز": 809,
    "▁عمل": 810,
    "▁کلی": 811,
    "▁نیروهای": 812,
    "فر": 813,
    "▁فن": 814,
    "▁پاسخ": 815,
    "▁ورود": 816,
    "▁آبان": 817,
    "▁ورزشی": 818,
    "-": 819,
    "▁حساب": 820,
    "▁سینما": 821,
    "▁محکوم": 822,
    "▁الکتریکی": 823,
    "▁فروردین": 824,
    "▁بشک": 825,
    "▁دونالد": 826,
    "▁معاملات": 827,
    "▁نگرانی": 828,
    "۷": 829,
    "▁داشتند": 830,
    "▁تک": 831,
    "▁امضا": 832,
    "کر": 833,
    "▁دار": 834,
    "▁مصاحبه": 835,
    "▁مربی": 836,
    "▁شدت": 837,
    "وق": 838,
    "▁خودش": 839,
    "▁همچن": 840,
    "▁عد": 841,
    "اق": 842,
    "▁طراح": 843,
    "▁۱۷": 844,
    "▁گیرد": 845,
    "▁قرن": 846,
    "▁مشکلات": 847,
    "▁طولانی": 848,
    "▁کوچک": 849,
    "▁پ": 850,
    "▁مانده": 851,
    "▁جمعیت": 852,
    "▁بتوان": 853,
    "▁مسئولان": 854,
    "ذ": 855,
    "▁سیستم": 856,
    "▁تشکیل": 857,
    "▁پشت": 858,
    "نو": 859,
    "▁قدرت": 860,
    "ستاد": 861,
    "▁تصوی": 862,
    "▁دیگری": 863,
    "▁تاریخی": 864,
    "وم": 865,
    "▁داخلی": 866,
    "▁آمد": 867,
    "▁مصوب": 868,
    "۰۰": 869,
    "▁یاد": 870,
    "▁ما": 871,
    "▁وی": 872,
    "▁روزنامه": 873,
    "▁دوشنبه": 874,
    "▁بحران": 875,
    "▁کووید": 876,
    "ره": 877,
    "▁لی": 878,
    "▁من": 879,
    "سال": 880,
    "▁نژاد": 881,
    "▁خروج": 882,
    "▁باشند": 883,
    "▁هنگام": 884,
    "▁بارسلونا": 885,
    "▁آزادی": 886,
    "▁بلند": 887,
    "▁گذاشته": 888,
    "▁۱": 889,
    "▁احتمال": 890,
    "▁کو": 891,
    "آ": 892,
    "▁سریال": 893,
    "▁جامعه": 894,
    "من": 895,
    "▁کنترل": 896,
    "▁دستور": 897,
    "▁غنی": 898,
    "▁نخواه": 899,
    "▁سایر": 900,
    "▁ممنوع": 901,
    "▁تا": 902,
    "▁مشکل": 903,
    "▁تجاری": 904,
    "▁باقی": 905,
    "▁فرهنگ": 906,
    "▁بدن": 907,
    "▁ایتالیا": 908,
    "▁امکان": 909,
    "▁نفتی": 910,
    "▁تجرب": 911,
    "▁ملل": 912,
    "▁تحقیقات": 913,
    "▁درمان": 914,
    "▁یع": 915,
    "وابط": 916,
    "▁حذف": 917,
    "▁بنزین": 918,
    "▁شاخص": 919,
    "▁اختیار": 920,
    "▁دادند": 921,
    "▁داخل": 922,
    "کار": 923,
    "▁دادن": 924,
    "▁مبتلا": 925,
    "▁سراسر": 926,
    "▁ابتدای": 927,
    "▁سیاه": 928,
    "داد": 929,
    "▁زد": 930,
    "▁نیروی": 931,
    "گرد": 932,
    "تو": 933,
    "خانه": 934,
    "▁ضرب": 935,
    "▁سیتی": 936,
    "▁شامل": 937,
    "نده": 938,
    "▁صحبت": 939,
    "▁میزبان": 940,
    "▁ماسک": 941,
    "▁ترکیب": 942,
    "▁۱۳": 943,
    "▁افتاد": 944,
    "▁پل": 945,
    "▁بودن": 946,
    "▁پروژه": 947,
    "▁علت": 948,
    "رفع": 949,
    "▁زیست": 950,
    "▁ناشی": 951,
    "▁خون": 952,
    "▁طبق": 953,
    "فت": 954,
    "▁جوان": 955,
    "▁واحد": 956,
    "▁متفاوت": 957,
    "▁فارسی": 958,
    "▁رنگ": 959,
    "▁آوریل": 960,
    "▁جز": 961,
    "▁عامل": 962,
    "▁متر": 963,
    "▁محلی": 964,
    "دا": 965,
    "حه": 966,
    "▁نظام": 967,
    "▁کارگران": 968,
    "▁جنوب": 969,
    "▁ترتیب": 970,
    "▁خبرنگار": 971,
    "▁آل": 972,
    "جو": 973,
    "▁مسیر": 974,
    "▁واردات": 975,
    "ظ": 976,
    "▁۲۲": 977,
    "▁محدود": 978,
    "▁اعدام": 979,
    "▁پایین": 980,
    "▁شهروندان": 981,
    "▁بندی": 982,
    "کل": 983,
    "▁قبلی": 984,
    "▁فرهنگی": 985,
    "▁چپ": 986,
    "▁گفتگو": 987,
    "▁بالاتر": 988,
    "▁مشترک": 989,
    "▁بگیرد": 990,
    "▁حد": 991,
    "▁چهارشنبه": 992,
    "▁۵۰": 993,
    "▁تی": 994,
    "▁کالا": 995,
    "ویه": 996,
    "▁قرمز": 997,
    "▁سوخت": 998,
    "▁شاهد": 999,
    "▁بازیگر": 1000,
    "▁خوانده": 1001,
    "▁بینی": 1002,
    "▁مسئول": 1003,
    "▁روبرو": 1004,
    "▁محیط": 1005,
    "▁احیا": 1006,
    "▁کنید": 1007,
    "▁فضایی": 1008,
    "▁وین": 1009,
    "▁گون": 1010,
    "▁محمود": 1011,
    "▁فضای": 1012,
    "▁شماری": 1013,
    "▁جمعه": 1014,
    "▁خصوصی": 1015,
    "▁آسیب": 1016,
    "▁کارگردان": 1017,
    "▁دقیقه": 1018,
    "▁بو": 1019,
    "▁کی": 1020,
    "▁فرد": 1021,
    "دن": 1022,
    "رد": 1023,
    "▁احتمالا": 1024,
    "جا": 1025,
    "▁دفاع": 1026,
    "▁شجریان": 1027,
    "▁تاکید": 1028,
    "▁پارسال": 1029,
    "▁سقوط": 1030,
    "سازی": 1031,
    "▁هنری": 1032,
    "▁مهر": 1033,
    "▁شهرهای": 1034,
    "▁لای": 1035,
    "▁کوتاه": 1036,
    "▁موارد": 1037,
    "▁دلایل": 1038,
    "▁نویسنده": 1039,
    "▁بارها": 1040,
    "▁درخواست": 1041,
    "▁درگیر": 1042,
    "▁آورد": 1043,
    "▁دسترس": 1044,
    "▁احمد": 1045,
    "▁تقریبا": 1046,
    "▁سنت": 1047,
    "▁نتایج": 1048,
    "کش": 1049,
    "▁شما": 1050,
    "▁مارادونا": 1051,
    "▁هواداران": 1052,
    "یست": 1053,
    "▁نگهبان": 1054,
    "▁لازم": 1055,
    "▁ساز": 1056,
    "▁شاید": 1057,
    "▁اقدامات": 1058,
    "▁ماند": 1059,
    "▁صفر": 1060,
    "▁۲۰۱": 1061,
    "▁آتش": 1062,
    "▁قطر": 1063,
    "▁یونایتد": 1064,
    "▁تاکنون": 1065,
    "▁انفجار": 1066,
    "▁تهدید": 1067,
    "▁تامین": 1068,
    "▁اسکار": 1069,
    "▁هشت": 1070,
    "▁برده": 1071,
    "▁چیز": 1072,
    "▁رشت": 1073,
    "▁حل": 1074,
    "▁معروف": 1075,
    "▁شکایت": 1076,
    "▁فر": 1077,
    "▁لا": 1078,
    "▁۴۰": 1079,
    "▁نقاشی": 1080,
    "کن": 1081,
    "▁گذشت": 1082,
    "▁مو": 1083,
    "▁ژان": 1084,
    "▁جدول": 1085,
    "▁قوانین": 1086,
    "▁۱۶": 1087,
    "▁دل": 1088,
    "▁منج": 1089,
    "▁حرفه": 1090,
    "براز": 1091,
    "وا": 1092,
    "▁مل": 1093,
    "حفظ": 1094,
    "▁جشنواره": 1095,
    "▁مواد": 1096,
    "▁کنم": 1097,
    "▁کن": 1098,
    "ایران": 1099,
    "لان": 1100,
    "▁موفق": 1101,
    "▁هواپیمایی": 1102,
    "▁رییس": 1103,
    "▁انگیز": 1104,
    "▁بیرون": 1105,
    "▁گر": 1106,
    "▁یکشنبه": 1107,
    "▁فوت": 1108,
    "وازه": 1109,
    "▁۱۴": 1110,
    "▁اختلاف": 1111,
    "▁دید": 1112,
    "▁مرتبط": 1113,
    "▁دانش": 1114,
    "▁اولی": 1115,
    "▁مد": 1116,
    "▁۶۰": 1117,
    "▁مارس": 1118,
    "▁واقع": 1119,
    "▁عق": 1120,
    "▁شمال": 1121,
    "▁نظیر": 1122,
    "▁بخوانید": 1123,
    "▁فهرست": 1124,
    "▁همیشه": 1125,
    "▁چاپ": 1126,
    "▁مه": 1127,
    "علی": 1128,
    "اک": 1129,
    "▁اعتراضات": 1130,
    "▁زاده": 1131,
    "سون": 1132,
    "▁۱۸": 1133,
    "▁کمیت": 1134,
    "▁پیشنهاد": 1135,
    "▁مشهور": 1136,
    "▁تجارت": 1137,
    "▁نقطه": 1138,
    "▁سرعت": 1139,
    "سر": 1140,
    "▁نسل": 1141,
    "▁پذیر": 1142,
    "محمد": 1143,
    "▁غرب": 1144,
    "پی": 1145,
    "▁راست": 1146,
    "▁اخیرا": 1147,
    "▁سوار": 1148,
    "اخر": 1149,
    "▁قانونی": 1150,
    "▁ونزوئلا": 1151,
    "▁مقایس": 1152,
    "▁پیام": 1153,
    "▁سلامت": 1154,
    "▁توییتر": 1155,
    "▁سمت": 1156,
    "▁بن": 1157,
    "▁هوا": 1158,
    "▁بایرن": 1159,
    "▁۹۸": 1160,
    "▁دختر": 1161,
    "▁قصد": 1162,
    "▁سود": 1163,
    "▁ل": 1164,
    "▁گرد": 1165,
    "▁ولایت": 1166,
    "▁اتاق": 1167,
    "▁برسد": 1168,
    "▁بیست": 1169,
    "▁حق": 1170,
    "▁کشورها": 1171,
    "▁مجدد": 1172,
    "▁تابستان": 1173,
    "▁اوپک": 1174,
    "▁آستان": 1175,
    "▁رسیدن": 1176,
    "▁اطلاع": 1177,
    "▁بال": 1178,
    "▁تهی": 1179,
    "▁جمع": 1180,
    "▁دارایی": 1181,
    "▁نظارت": 1182,
    "▁عملکرد": 1183,
    "▁علاو": 1184,
    "▁خوانند": 1185,
    "داری": 1186,
    "▁صفح": 1187,
    "عودی": 1188,
    "▁حریف": 1189,
    "▁اعمال": 1190,
    "▁مشابه": 1191,
    "▁مغز": 1192,
    "▁صعود": 1193,
    "▁فعالان": 1194,
    "▁صدا": 1195,
    "▁روشن": 1196,
    "▁نگران": 1197,
    "▁مذاکر": 1198,
    "▁پروازهای": 1199,
    "▁آرژانتین": 1200,
    "▁مواجه": 1201,
    "▁عدالت": 1202,
    "▁عملیات": 1203,
    "▁سفید": 1204,
    "▁کشف": 1205,
    "▁دهم": 1206,
    "▁پاریس": 1207,
    "▁مادر": 1208,
    "▁آماده": 1209,
    "▁جهش": 1210,
    "▁زنده": 1211,
    "▁مع": 1212,
    "▁کاملا": 1213,
    "▁مر": 1214,
    "نمایی": 1215,
    "▁پرواز": 1216,
    "▁چیزی": 1217,
    "▁فرصت": 1218,
    "▁تصاویر": 1219,
    "▁عباس": 1220,
    "▁نهادهای": 1221,
    "▁صادر": 1222,
    "▁پور": 1223,
    "▁رساند": 1224,
    "▁علمی": 1225,
    "▁ابتدا": 1226,
    "▁پایتخت": 1227,
    "▁فساد": 1228,
    "▁شناسا": 1229,
    "▁عمده": 1230,
    "▁مصرف": 1231,
    "▁خواند": 1232,
    "▁اداره": 1233,
    "▁هرات": 1234,
    "▁مناطق": 1235,
    "▁رابطه": 1236,
    "▁اینترنت": 1237,
    "▁موزه": 1238,
    "▁چلسی": 1239,
    "▁منچستر": 1240,
    "▁پدر": 1241,
    "▁رمان": 1242,
    "▁ملت": 1243,
    "▁گاه": 1244,
    "▁اضاف": 1245,
    "▁بحرین": 1246,
    "▁ندارند": 1247,
    "▁قلب": 1248,
    "▁شعر": 1249,
    "▁امید": 1250,
    "▁هی": 1251,
    "▁مهدی": 1252,
    "زا": 1253,
    "▁سنگ": 1254,
    "▁قضایی": 1255,
    "▁میدان": 1256,
    "▁برخورد": 1257,
    "▁منف": 1258,
    "▁منتقل": 1259,
    "بو": 1260,
    "▁حادثه": 1261,
    "▁تاج": 1262,
    "▁توپ": 1263,
    "▁یورو": 1264,
    "▁دریا": 1265,
    "▁افغان": 1266,
    "▁ارشد": 1267,
    "▁توصیف": 1268,
    "▁موفقیت": 1269,
    "نیوم": 1270,
    "ئو": 1271,
    "▁تغییرات": 1272,
    "▁مردان": 1273,
    "▁گذار": 1274,
    "▁استرالیا": 1275,
    "▁رخ": 1276,
    "▁بیشتری": 1277,
    "▁توسعه": 1278,
    "▁خصوص": 1279,
    "▁۲۴": 1280,
    "▁سایت": 1281,
    "▁۲۳": 1282,
    "▁پن": 1283,
    "▁رعایت": 1284,
    "▁۲۰۲۱": 1285,
    "▁دچار": 1286,
    "▁مسکن": 1287,
    "عده": 1288,
    "▁دین": 1289,
    "▁بریتانیایی": 1290,
    "اساس": 1291,
    "▁برزیل": 1292,
    "▁انگلستان": 1293,
    "▁نشد": 1294,
    "▁آید": 1295,
    "▁مک": 1296,
    "▁عبور": 1297,
    "▁۵۰۰": 1298,
    "▁مالیات": 1299,
    "▁دوست": 1300,
    "▁کنون": 1301,
    "دان": 1302,
    "صد": 1303,
    "طور": 1304,
    "▁آر": 1305,
    "▁ص": 1306,
    "▁کارگر": 1307,
    "▁رانند": 1308,
    "▁احمدی": 1309,
    "▁خوزستان": 1310,
    "▁ژوئن": 1311,
    "▁واقعی": 1312,
    "▁کارخان": 1313,
    "▁کودک": 1314,
    "▁رفتار": 1315,
    "▁گروهی": 1316,
    "جی": 1317,
    "▁اورا": 1318,
    "▁مکان": 1319,
    "▁توضیح": 1320,
    "▁رفتن": 1321,
    "▁پژوهش": 1322,
    "▁زود": 1323,
    "▁واکسین": 1324,
    "▁مجبور": 1325,
    "▁تجمع": 1326,
    "بین": 1327,
    "▁نمو": 1328,
    "▁مانع": 1329,
    "▁طلا": 1330,
    "▁مجازی": 1331,
    "تن": 1332,
    "▁۲۱": 1333,
    "▁زا": 1334,
    "بیشتر": 1335,
    "▁مشغول": 1336,
    "▁حوزه": 1337,
    "▁سفیر": 1338,
    "▁ریز": 1339,
    "▁بهمن": 1340,
    "▁کدام": 1341,
    "▁کنندگان": 1342,
    "▁معتقد": 1343,
    "▁مستند": 1344,
    "▁اوراق": 1345,
    "▁غ": 1346,
    "▁فدرر": 1347,
    "رس": 1348,
    "نس": 1349,
    "▁خالی": 1350,
    "▁جنسی": 1351,
    "رز": 1352,
    "▁دومین": 1353,
    "▁موجود": 1354,
    "▁هایش": 1355,
    "▁بهبود": 1356,
    "خت": 1357,
    "▁سریع": 1358,
    "▁خواهان": 1359,
    "▁پنجم": 1360,
    "▁صدای": 1361,
    "▁۱۰۰": 1362,
    "▁برگشت": 1363,
    "▁تاجیکستان": 1364,
    "▁مج": 1365,
    "پا": 1366,
    "▁مجوز": 1367,
    "▁سخنران": 1368,
    "▁اظهارات": 1369,
    "▁مرداد": 1370,
    "▁دانند": 1371,
    "سو": 1372,
    "بار": 1373,
    "▁سنگین": 1374,
    "▁صف": 1375,
    "▁مرز": 1376,
    "▁دکتر": 1377,
    "▁افتاده": 1378,
    "▁ایالت": 1379,
    "▁مالک": 1380,
    "▁جی": 1381,
    "▁گذاشت": 1382,
    "هم": 1383,
    "▁پوست": 1384,
    "▁امیدوار": 1385,
    "▁حسین": 1386,
    "▁بیکار": 1387,
    "▁اشتباه": 1388,
    "▁حداقل": 1389,
    "▁بحث": 1390,
    "▁پیشرفت": 1391,
    "▁کانال": 1392,
    "▁سوریه": 1393,
    "▁خاک": 1394,
    "▁گمرک": 1395,
    "▁موشک": 1396,
    "▁چه": 1397,
    "▁سا": 1398,
    "▁امام": 1399,
    "اف": 1400,
    "است": 1401,
    "▁پرس": 1402,
    "▁وگو": 1403,
    "ممنوعیت": 1404,
    "▁معامل": 1405,
    "▁سعید": 1406,
    "▁روش": 1407,
    "▁شر": 1408,
    "▁دبیر": 1409,
    "▁فرمانده": 1410,
    "▁مقررات": 1411,
    "▁مادرید": 1412,
    "زر": 1413,
    "▁تاتنهام": 1414,
    "▁پیشتر": 1415,
    "▁زدن": 1416,
    "▁۹۰": 1417,
    "▁مثبت": 1418,
    "▁بنا": 1419,
    "▁محمو": 1420,
    "وایل": 1421,
    "وار": 1422,
    "▁طبیعی": 1423,
    "▁رکود": 1424,
    "▁نقدینگی": 1425,
    "▁پاسداران": 1426,
    "فورد": 1427,
    "▁موافقت": 1428,
    "▁جدا": 1429,
    "شب": 1430,
    "▁فرا": 1431,
    "▁دارو": 1432,
    "▁تشخیص": 1433,
    "▁مار": 1434,
    "▁دنیای": 1435,
    "▁ض": 1436,
    "▁گردد": 1437,
    "ران": 1438,
    "▁ژاپن": 1439,
    "▁اسپانیا": 1440,
    "▁حرف": 1441,
    "▁مدیریت": 1442,
    "▁نداشت": 1443,
    "▁کاری": 1444,
    "▁بازارهای": 1445,
    "▁برداشت": 1446,
    "▁فوری": 1447,
    "▁استاد": 1448,
    "▁عهد": 1449,
    "▁اوت": 1450,
    "▁رضا": 1451,
    "▁قدیمی": 1452,
    "▁فیفا": 1453,
    "▁وزن": 1454,
    "▁ناز": 1455,
    "▁روزانه": 1456,
    "▁ست": 1457,
    "▁تیر": 1458,
    "▁چک": 1459,
    "مل": 1460,
    "▁تقوی": 1461,
    "▁ارزی": 1462,
    "▁وضع": 1463,
    "▁کیلومتر": 1464,
    "▁فارس": 1465,
    "▁خوش": 1466,
    "▁هوشمند": 1467,
    "▁گرم": 1468,
    "▁اجرایی": 1469,
    "▁نویس": 1470,
    "▁آوری": 1471,
    "ازگی": 1472,
    "▁کنونی": 1473,
    "▁۲۸": 1474,
    "▁دقیق": 1475,
    "▁نور": 1476,
    "▁احساس": 1477,
    "▁اصلاح": 1478,
    "▁اردیبهشت": 1479,
    "▁اقیانوس": 1480,
    "▁خیابان": 1481,
    "▁علاقه": 1482,
    "▁مهاجم": 1483,
    "▁۱۳۹۹": 1484,
    "وید": 1485,
    "▁قطعی": 1486,
    "▁دفتر": 1487,
    "▁بستر": 1488,
    "▁دانشمندان": 1489,
    "▁مان": 1490,
    "▁صحنه": 1491,
    "مون": 1492,
    "▁انگلیسی": 1493,
    "پر": 1494,
    "▁جزئیات": 1495,
    "▁اسطوره": 1496,
    "▁وابست": 1497,
    "▁قتل": 1498,
    "▁یابد": 1499,
    "▁ضد": 1500,
    "▁نفتکش": 1501,
    "▁پوند": 1502,
    "غلب": 1503,
    "اوری": 1504,
    "▁وال": 1505,
    "▁کارشناسان": 1506,
    "یده": 1507,
    "▁بنابر": 1508,
    "تبه": 1509,
    "▁فرار": 1510,
    "کم": 1511,
    "▁گوش": 1512,
    "▁مستقیم": 1513,
    "▁صدر": 1514,
    "▁قدم": 1515,
    "انس": 1516,
    "▁آورده": 1517,
    "▁پای": 1518,
    "▁ظرف": 1519,
    "▁سرشناس": 1520,
    "▁روایت": 1521,
    "▁نشود": 1522,
    "▁مونیخ": 1523,
    "▁سوئیس": 1524,
    "▁گران": 1525,
    "▁چا": 1526,
    "▁بهار": 1527,
    "▁همسر": 1528,
    "▁ایمن": 1529,
    "▁مایک": 1530,
    "▁درست": 1531,
    "تون": 1532,
    "▁معنای": 1533,
    "▁خورد": 1534,
    "▁العاده": 1535,
    "▁دوچرخه": 1536,
    "▁قالیباف": 1537,
    "▁رویترز": 1538,
    "▁جشن": 1539,
    "▁خرداد": 1540,
    "▁موقعیت": 1541,
    "▁معادل": 1542,
    "▁شاه": 1543,
    "▁آموزش": 1544,
    "یین": 1545,
    "▁هنرمند": 1546,
    "▁افزوده": 1547,
    "▁جنگل": 1548,
    "▁مقامات": 1549,
    "▁مدافع": 1550,
    "▁نقاط": 1551,
    "▁هدایت": 1552,
    "▁واشنگتن": 1553,
    "▁کشاورز": 1554,
    "▁صبح": 1555,
    "▁نوبل": 1556,
    "▁جنجال": 1557,
    "سل": 1558,
    "▁نداشته": 1559,
    "یو": 1560,
    "▁گیرند": 1561,
    "اسیون": 1562,
    "▁غذا": 1563,
    "▁هست": 1564,
    "رضا": 1565,
    "چی": 1566,
    "وب": 1567,
    "چند": 1568,
    "▁تورنمنت": 1569,
    "▁رئال": 1570,
    "▁قاچاق": 1571,
    "▁پاکستان": 1572,
    "▁فراهم": 1573,
    "▁حیات": 1574,
    "▁خواهیم": 1575,
    "▁موسو": 1576,
    "▁مبتلایان": 1577,
    "▁دوربین": 1578,
    "▁زنی": 1579,
    "▁مهار": 1580,
    "▁بیت": 1581,
    "▁آبی": 1582,
    "▁عرب": 1583,
    "▁نهایت": 1584,
    "▁تخم": 1585,
    "▁محمدرضا": 1586,
    "▁ظاهر": 1587,
    "▁مجله": 1588,
    "▁ساختمان": 1589,
    "▁فنی": 1590,
    "▁شخصی": 1591,
    "▁نشری": 1592,
    "▁۲۶": 1593,
    "▁شخصیت": 1594,
    "▁خودروهای": 1595,
    "اپی": 1596,
    "▁پسر": 1597,
    "▁صلح": 1598,
    "▁معتبر": 1599,
    "▁استقبال": 1600,
    "▁تحویل": 1601,
    "▁-": 1602,
    "▁اوپ": 1603,
    "هرگز": 1604,
    "▁مح": 1605,
    "وف": 1606,
    "▁ماد": 1607,
    "▁زندانی": 1608,
    "▁درآمدها": 1609,
    "ینگ": 1610,
    "▁سرخ": 1611,
    "▁نوری": 1612,
    "▁خورده": 1613,
    "رت": 1614,
    "کی": 1615,
    "▁ابلاغ": 1616,
    "▁قسمت": 1617,
    "▁حزب": 1618,
    "▁هیا": 1619,
    "▁مدعی": 1620,
    "▁خانگی": 1621,
    "▁چیست": 1622,
    "▁ماهه": 1623,
    "مند": 1624,
    "▁دستگیر": 1625,
    "یچ": 1626,
    "اج": 1627,
    "▁حب": 1628,
    "کنندگان": 1629,
    "▁دا": 1630,
    "▁عین": 1631,
    "▁جر": 1632,
    "▁قبلا": 1633,
    "▁آلمانی": 1634,
    "▁آمازون": 1635,
    "▁تزریق": 1636,
    "▁چرخ": 1637,
    "▁بهادار": 1638,
    "مقام": 1639,
    "▁جراح": 1640,
    "پور": 1641,
    "اخ": 1642,
    "▁مارک": 1643,
    "▁وا": 1644,
    "▁کاربران": 1645,
    "▁شرق": 1646,
    "▁کارهای": 1647,
    "▁ایم": 1648,
    "بول": 1649,
    "▁آلبوم": 1650,
    "▁ارتش": 1651,
    "▁ارسال": 1652,
    "▁آزار": 1653,
    "▁خدمات": 1654,
    "▁فوریه": 1655,
    "▁فعلی": 1656,
    "▁داریم": 1657,
    "▁هستیم": 1658,
    "▁خودروساز": 1659,
    "▁سینمای": 1660,
    "▁سند": 1661,
    "▁نماد": 1662,
    "▁پروتکل": 1663,
    "▁بازگشا": 1664,
    "▁متعل": 1665,
    "نقض": 1666,
    "فدراسیون": 1667,
    "▁محصولات": 1668,
    "▁ادبیات": 1669,
    "▁نگه": 1670,
    "▁خورشیدی": 1671,
    "▁کالاهای": 1672,
    "▁هاست": 1673,
    "▁دریایی": 1674,
    "▁بهداشتی": 1675,
    "▁پاس": 1676,
    "نین": 1677,
    "▁مشا": 1678,
    "▁جایی": 1679,
    "▁تومانی": 1680,
    "▁لحظ": 1681,
    "▁ژوئیه": 1682,
    "▁شغل": 1683,
    "▁عجیب": 1684,
    "▁مجید": 1685,
    "▁تعهدات": 1686,
    "▁باور": 1687,
    "▁بیمار": 1688,
    "▁مدیران": 1689,
    "▁متوسط": 1690,
    "▁ماجرا": 1691,
    "▁میلان": 1692,
    "▁هو": 1693,
    "▁تمرین": 1694,
    "▁قضائیه": 1695,
    "▁کمبود": 1696,
    "▁عادی": 1697,
    "قیف": 1698,
    "▁یکدیگر": 1699,
    "▁سفارت": 1700,
    "▁معترضان": 1701,
    "رکت": 1702,
    "وت": 1703,
    "▁پست": 1704,
    "گری": 1705,
    "هر": 1706,
    "ریمه": 1707,
    "▁گرا": 1708,
    "▁دختران": 1709,
    "▁مطالع": 1710,
    "جه": 1711,
    "▁نیویورک": 1712,
    "▁مسلح": 1713,
    "▁قاسم": 1714,
    "▁کارکنان": 1715,
    "▁بنیاد": 1716,
    "▁نوامبر": 1717,
    "▁آهنگ": 1718,
    "▁شاعر": 1719,
    "▁شل": 1720,
    "▁اوج": 1721,
    "▁پارک": 1722,
    "▁بدهی": 1723,
    "▁بازرگانی": 1724,
    "▁فرزند": 1725,
    "▁چندان": 1726,
    "▁ملک": 1727,
    "▁بلوچستان": 1728,
    "▁اهمیت": 1729,
    "▁سرطان": 1730,
    "▁محرم": 1731,
    "▁خلق": 1732,
    "▁نگار": 1733,
    "فرانسوی": 1734,
    "▁دیوان": 1735,
    "▁تعوی": 1736,
    "▁معمولا": 1737,
    "▁گستر": 1738,
    "▁گرفتند": 1739,
    "▁کوین": 1740,
    "▁غربی": 1741,
    "▁سهم": 1742,
    "▁واقعیت": 1743,
    "یابی": 1744,
    "▁زخمی": 1745,
    "نک": 1746,
    "▁سهمی": 1747,
    "دل": 1748,
    "علوم": 1749,
    "▁اصل": 1750,
    "▁سینمایی": 1751,
    "▁اختصاص": 1752,
    "▁اینستاگرام": 1753,
    "▁استعفا": 1754,
    "▁۳۱": 1755,
    "سازمان": 1756,
    "توجه": 1757,
    "▁برقرار": 1758,
    "▁زاد": 1759,
    "▁امیر": 1760,
    "رون": 1761,
    "شو": 1762,
    "▁دما": 1763,
    "▁ترس": 1764,
    "▁نشر": 1765,
    "▁بند": 1766,
    "▁دام": 1767,
    "▁اکبر": 1768,
    "▁پدید": 1769,
    "▁۲۰۱۷": 1770,
    "قدر": 1771,
    "▁حس": 1772,
    "▁بنز": 1773,
    "دولت": 1774,
    "▁گام": 1775,
    "سه": 1776,
    "▁سان": 1777,
    "▁متحد": 1778,
    "▁شک": 1779,
    "▁فردا": 1780,
    "▁۴۲": 1781,
    "▁۷۰": 1782,
    "▁هواپیما": 1783,
    "▁اساسی": 1784,
    "▁مس": 1785,
    "▁سعی": 1786,
    "▁توییت": 1787,
    "▁فرمو": 1788,
    "بط": 1789,
    "▁رادیو": 1790,
    "امی": 1791,
    "▁عوامل": 1792,
    "▁توقف": 1793,
    "▁نحو": 1794,
    "▁محسو": 1795,
    "▁لباس": 1796,
    "▁تیراندازی": 1797,
    "▁حاشیه": 1798,
    "زن": 1799,
    "▁کلوپ": 1800,
    "▁ماموران": 1801,
    "▁شی": 1802,
    "▁گری": 1803,
    "فا": 1804,
    "▁مخالفان": 1805,
    "سیم": 1806,
    "▁عبدال": 1807,
    "▁شهروند": 1808,
    "▁قر": 1809,
    "▁تقاضا": 1810,
    "وش": 1811,
    "▁مدیرعامل": 1812,
    "▁ارقام": 1813,
    "▁کنسرت": 1814,
    "▁صوتی": 1815,
    "▁هموار": 1816,
    "▁خلی": 1817,
    "▁اقلیم": 1818,
    "قانونی": 1819,
    "▁تصور": 1820,
    "▁افزود": 1821,
    "▁زندانیان": 1822,
    "▁دریای": 1823,
    "▁اع": 1824,
    "▁۳۵": 1825,
    "▁مناسب": 1826,
    "اری": 1827,
    "▁جمعی": 1828,
    "▁شا": 1829,
    "▁مبلغ": 1830,
    "▁دشوار": 1831,
    "▁آذر": 1832,
    "▁امارات": 1833,
    "▁تماس": 1834,
    "تنظیم": 1835,
    "وند": 1836,
    "▁واگذار": 1837,
    "▁موتور": 1838,
    "▁نویسندگان": 1839,
    "▁پنجشنبه": 1840,
    "اوی": 1841,
    "▁سپاهان": 1842,
    "▁تلفن": 1843,
    "▁روان": 1844,
    "▁مخالفت": 1845,
    "▁انداخت": 1846,
    "▁۳۰۰": 1847,
    "▁داشتن": 1848,
    "▁شناس": 1849,
    "▁برود": 1850,
    "▁حذفی": 1851,
    "امبر": 1852,
    "▁حفاظت": 1853,
    "▁چالش": 1854,
    "▁ایسنا": 1855,
    "▁متعدد": 1856,
    "▁برادر": 1857,
    "▁دستمزد": 1858,
    "▁شهریور": 1859,
    "▁۹۹": 1860,
    "▁پالایشگاه": 1861,
    "▁حداکثر": 1862,
    "▁مص": 1863,
    "▁جایگاه": 1864,
    "تان": 1865,
    "▁رافائل": 1866,
    "وزارت": 1867,
    "▁مسافران": 1868,
    "▁پژوهشگران": 1869,
    "▁بیماران": 1870,
    "باید": 1871,
    "لاک": 1872,
    "ارد": 1873,
    "نت": 1874,
    "▁رونالدو": 1875,
    "▁صنایع": 1876,
    "▁راهی": 1877,
    "▁مشمول": 1878,
    "▁توکیو": 1879,
    "▁ذهن": 1880,
    "▁اخبار": 1881,
    "▁کافی": 1882,
    "▁تسلا": 1883,
    "▁احتمالی": 1884,
    "▁جودو": 1885,
    "▁۲۹": 1886,
    "▁ساکن": 1887,
    "▁مجری": 1888,
    "▁فایل": 1889,
    "▁گیر": 1890,
    "وع": 1891,
    "▁بل": 1892,
    "▁۸۰": 1893,
    "انجام": 1894,
    "▁داور": 1895,
    "▁برمی": 1896,
    "▁علیرضا": 1897,
    "▁بیان": 1898,
    "▁فوتبالیست": 1899,
    "طی": 1900,
    "▁داند": 1901,
    "حسین": 1902,
    "▁مش": 1903,
    "▁پو": 1904,
    "▁توصی": 1905,
    "▁مربیان": 1906,
    "▁محبوب": 1907,
    "▁خشونت": 1908,
    "▁زاغری": 1909,
    "▁نتوانست": 1910,
    "▁موثر": 1911,
    "▁عمیق": 1912,
    "▁وحش": 1913,
    "▁حاصل": 1914,
    "▁ایستگاه": 1915,
    "▁مور": 1916,
    "▁رویکرد": 1917,
    "▁۱۹۹": 1918,
    "▁اخراج": 1919,
    "▁اجاره": 1920,
    "▁بازنشستگان": 1921,
    "▁الملل": 1922,
    "▁انجمن": 1923,
    "▁آم": 1924,
    "▁راجر": 1925,
    "مت": 1926,
    "▁یخ": 1927,
    "▁سکه": 1928,
    "▁پرو": 1929,
    "ندگان": 1930,
    "▁مرزی": 1931,
    "▁فردی": 1932,
    "گین": 1933,
    "زاده": 1934,
    "شیدا": 1935,
    "۱۶": 1936,
    "▁کشورش": 1937,
    "▁هرچ": 1938,
    "هفته": 1939,
    "▁اصفهان": 1940,
    "▁تحصیل": 1941,
    "▁ناگهان": 1942,
    "▁سلیمانی": 1943,
    "▁مسدود": 1944,
    "▁عصر": 1945,
    "▁سراوان": 1946,
    "▁آسمان": 1947,
    "▁نگهداری": 1948,
    "رای": 1949,
    "▁صلاحیت": 1950,
    "▁روستا": 1951,
    "▁مشاور": 1952,
    "▁برآورد": 1953,
    "▁۳۲": 1954,
    "▁نیک": 1955,
    "▁فضا": 1956,
    "ابی": 1957,
    "▁چهل": 1958,
    "▁ورزشکاران": 1959,
    "▁مخالف": 1960,
    "▁ورزشکار": 1961,
    "▁بعدا": 1962,
    "▁جذاب": 1963,
    "▁طالبان": 1964,
    "▁طبیعت": 1965,
    "▁اجلاس": 1966,
    "▁نوجوان": 1967,
    "▁بقیه": 1968,
    "▁نادال": 1969,
    "▁۱۳۹۸": 1970,
    "▁تست": 1971,
    "▁فرودگاه": 1972,
    "▁پلاس": 1973,
    "▁تاسیسات": 1974,
    "▁ناظر": 1975,
    "▁گلستان": 1976,
    "▁خواب": 1977,
    "▁حج": 1978,
    "رنگ": 1979,
    "▁سخنان": 1980,
    "▁جن": 1981,
    "تیم": 1982,
    "▁داروی": 1983,
    "▁دوستان": 1984,
    "گون": 1985,
    "ابت": 1986,
    "وال": 1987,
    "▁شرقی": 1988,
    "ماه": 1989,
    "آن": 1990,
    "▁کارها": 1991,
    "▁عمر": 1992,
    "پیش": 1993,
    "ازم": 1994,
    "▁ارزها": 1995,
    "▁روزها": 1996,
    "▁بلا": 1997,
    "▁توزیع": 1998,
    "▁صراف": 1999,
    "▁رقیب": 2000,
    "▁ثابت": 2001,
    "▁جوایز": 2002,
    "▁حکام": 2003,
    "▁برجسته": 2004,
    "▁آنلاین": 2005,
    "▁نجات": 2006,
    "▁سوپر": 2007,
    "▁صرف": 2008,
    "▁سیما": 2009,
    "▁خیریه": 2010,
    "▁موقت": 2011,
    "▁جوکوویچ": 2012,
    "▁لیون": 2013,
    "▁آور": 2014,
    "▁سوال": 2015,
    "بند": 2016,
    "▁دیدن": 2017,
    "▁جه": 2018,
    "▁هواپیمای": 2019,
    "▁حسینی": 2020,
    "▁شیر": 2021,
    "▁کنگ": 2022,
    "▁نشدن": 2023,
    "▁ادبی": 2024,
    "یوان": 2025,
    "▁خدم": 2026,
    "▁محروم": 2027,
    "▁اکتبر": 2028,
    "▁تاخیر": 2029,
    "▁متن": 2030,
    "▁بوکس": 2031,
    "▁کردیم": 2032,
    "▁مطابق": 2033,
    "▁قربانیان": 2034,
    "یکی": 2035,
    "گزارش": 2036,
    "خانم": 2037,
    "▁نادر": 2038,
    "▁کوه": 2039,
    "خبرگزا": 2040,
    "▁سم": 2041,
    "▁سای": 2042,
    "▁دان": 2043,
    "▁خورشید": 2044,
    "▁طلای": 2045,
    "ریک": 2046,
    "▁تئاتر": 2047,
    "▁تخریب": 2048,
    "▁سلطنت": 2049,
    "▁کاپیتان": 2050,
    "▁فراموش": 2051,
    "▁افتخار": 2052,
    "▁حاکی": 2053,
    "▁مراجع": 2054,
    "اش": 2055,
    "▁معرض": 2056,
    "▁ضمن": 2057,
    "▁دیوار": 2058,
    "▁تقاضای": 2059,
    "▁سرای": 2060,
    "▁گذارد": 2061,
    "▁دادستان": 2062,
    "▁آمیز": 2063,
    "جمع": 2064,
    "▁دارای": 2065,
    "▁شمالی": 2066,
    "▁عدد": 2067,
    "▁صاحب": 2068,
    "▁فرستاده": 2069,
    "▁بهتری": 2070,
    "▁تمامی": 2071,
    "▁حمل": 2072,
    "▁اطراف": 2073,
    "▁بازگرداند": 2074,
    "▁موضع": 2075,
    "▁هنرپیشه": 2076,
    "▁اتریش": 2077,
    "▁وکیل": 2078,
    "▁فرهاد": 2079,
    "▁حقیق": 2080,
    "▁تق": 2081,
    "افسانه": 2082,
    "▁خاص": 2083,
    "▁رسما": 2084,
    "ضاع": 2085,
    "▁منتظر": 2086,
    "▁باره": 2087,
    "گا": 2088,
    "▁درجه": 2089,
    "شویی": 2090,
    "▁منتقدان": 2091,
    "▁بان": 2092,
    "▁الدین": 2093,
    "▁اتفاقات": 2094,
    "سن": 2095,
    "▁ادار": 2096,
    "▁سرود": 2097,
    "ساوی": 2098,
    "▁شبانه": 2099,
    "جسم": 2100,
    "▁خان": 2101,
    "▁هوش": 2102,
    "▁کردم": 2103,
    "▁روس": 2104,
    "ورت": 2105,
    "دست": 2106,
    "▁مسئ": 2107,
    "▁وام": 2108,
    "▁هماهنگ": 2109,
    "▁ویمبلدون": 2110,
    "▁همچو": 2111,
    "▁قبول": 2112,
    "▁آشنا": 2113,
    "▁فل": 2114,
    "▁مواردی": 2115,
    "▁ریال": 2116,
    "▁همتی": 2117,
    "فق": 2118,
    "▁مق": 2119,
    "▁لس": 2120,
    "▁نیستند": 2121,
    "▁نکرد": 2122,
    "حسن": 2123,
    "▁اسرائیلی": 2124,
    "▁نهم": 2125,
    "▁قضاییه": 2126,
    "▁غذای": 2127,
    "▁گفتند": 2128,
    "▁کارشناس": 2129,
    "رسدس": 2130,
    "▁تس": 2131,
    "▁رویا": 2132,
    "▁ازدواج": 2133,
    "▁دعوت": 2134,
    "▁لبنان": 2135,
    "▁نداریم": 2136,
    "▁سپت": 2137,
    "▁مسائل": 2138,
    "▁مشهد": 2139,
    "▁مقصد": 2140,
    "▁مشاهد": 2141,
    "▁هل": 2142,
    "ترانه": 2143,
    "▁گذرد": 2144,
    "▁صالح": 2145,
    "▁تاب": 2146,
    "▁تخت": 2147,
    "۱۸": 2148,
    "دگی": 2149,
    "▁اندازی": 2150,
    "بری": 2151,
    "▁مالکی": 2152,
    "▁رحمان": 2153,
    "▁آرام": 2154,
    "▁ط": 2155,
    "▁تمدید": 2156,
    "▁بلینکن": 2157,
    "▁آلودگی": 2158,
    "▁مراقب": 2159,
    "شاه": 2160,
    "▁ساحل": 2161,
    "▁کلاس": 2162,
    "▁جواد": 2163,
    "باقر": 2164,
    "▁طرفداران": 2165,
    "▁پیوست": 2166,
    "▁کارمندان": 2167,
    "حص": 2168,
    "▁شهرت": 2169,
    "▁پایه": 2170,
    "رئیس": 2171,
    "▁شبی": 2172,
    "▁نقاش": 2173,
    "▁اسب": 2174,
    "▁شناسی": 2175,
    "عهد": 2176,
    "اسی": 2177,
    "یون": 2178,
    "▁سد": 2179,
    "مدال": 2180,
    "▁ابر": 2181,
    "وئل": 2182,
    "▁آنجلس": 2183,
    "▁نارنجی": 2184,
    "▁کالیفرنیا": 2185,
    "▁سرپرست": 2186,
    "▁چنان": 2187,
    "▁باب": 2188,
    "▁نص": 2189,
    "بل": 2190,
    "▁روانی": 2191,
    "▁درخشان": 2192,
    "غول": 2193,
    "▁اطلاعی": 2194,
    "▁باغ": 2195,
    "تمام": 2196,
    "رانی": 2197,
    "▁پاک": 2198,
    "▁سامانه": 2199,
    "اگر": 2200,
    "▁مسافر": 2201,
    "▁هنرمندان": 2202,
    "داران": 2203,
    "▁سیل": 2204,
    "▁توانسته": 2205,
    "▁قول": 2206,
    "▁هشتم": 2207,
    "برای": 2208,
    "▁خاطره": 2209,
    "▁محافظ": 2210,
    "▁نس": 2211,
    "▁نداده": 2212,
    "▁مرا": 2213,
    "▁متخصص": 2214,
    "▁آرسنال": 2215,
    "▁اضطرار": 2216,
    "▁اطمینان": 2217,
    "▁زمستان": 2218,
    "▁متولد": 2219,
    "▁تکرار": 2220,
    "▁سبک": 2221,
    "▁فیوری": 2222,
    "فسور": 2223,
    "▁گزین": 2224,
    "▁الهام": 2225,
    "▁ناپذیر": 2226,
    "وثی": 2227,
    "▁۲۰۱۵": 2228,
    "▁مدیرکل": 2229,
    "▁لوکس": 2230,
    "▁آکادمی": 2231,
    "▁ابراهیم": 2232,
    "▁کف": 2233,
    "▁نسخ": 2234,
    "▁اهل": 2235,
    "▁آرایش": 2236,
    "▁هلند": 2237,
    "▁نزدیکی": 2238,
    "شهر": 2239,
    "▁نشین": 2240,
    "▁ناسا": 2241,
    "▁زند": 2242,
    "▁توانای": 2243,
    "▁تپ": 2244,
    "▁بندر": 2245,
    "▁درک": 2246,
    "▁ترجم": 2247,
    "▁جم": 2248,
    "▁عکاس": 2249,
    "▁آماد": 2250,
    "▁اسکاتلند": 2251,
    "▁مصنوعی": 2252,
    "▁ژافره": 2253,
    "▁عرص": 2254,
    "▁سرنگون": 2255,
    "▁جبران": 2256,
    "▁وقف": 2257,
    "▁نژادپرست": 2258,
    "▁دسته": 2259,
    "▁رانندگان": 2260,
    "▁تبلیغات": 2261,
    "▁برخوردار": 2262,
    "▁مطلب": 2263,
    "▁قار": 2264,
    "لت": 2265,
    "وه": 2266,
    "ستون": 2267,
    "▁مست": 2268,
    "▁گرانی": 2269,
    "▁فرود": 2270,
    "جان": 2271,
    "▁جوانان": 2272,
    "▁دامن": 2273,
    "▁تشویق": 2274,
    "▁خسارت": 2275,
    "▁فیسبوک": 2276,
    "▁کلمبیا": 2277,
    "▁اعتبار": 2278,
    "▁اوکراین": 2279,
    "▁شاغل": 2280,
    "▁مدرسه": 2281,
    "▁برکنار": 2282,
    "▁نفس": 2283,
    "غم": 2284,
    "▁پرتاب": 2285,
    "▁تأ": 2286,
    "▁درون": 2287,
    "▁اسکی": 2288,
    "▁بخت": 2289,
    "▁امر": 2290,
    "▁سوزی": 2291,
    "▁کادر": 2292,
    "قابل": 2293,
    "▁۳۳": 2294,
    "...": 2295,
    "خوان": 2296,
    "▁جامع": 2297,
    "▁تنگ": 2298,
    "▁دیپلما": 2299,
    "کین": 2300,
    "مو": 2301,
    "▁نامداری": 2302,
    "▁جیمز": 2303,
    "▁آکسفورد": 2304,
    "▁هیئت": 2305,
    "▁ژرمن": 2306,
    "▁یوونتوس": 2307,
    "▁مراکز": 2308,
    "▁کانادا": 2309,
    "▁متوالی": 2310,
    "▁تبریز": 2311,
    "▁تولد": 2312,
    "▁صدرنشین": 2313,
    "▁مسجد": 2314,
    "تکلیف": 2315,
    "▁خطرناک": 2316,
    "▁شفاف": 2317,
    "▁هفتم": 2318,
    "▁پدرش": 2319,
    "▁نیازمند": 2320,
    "▁دانیم": 2321,
    "▁یمن": 2322,
    "▁مشتریان": 2323,
    "خواه": 2324,
    "▁حالت": 2325,
    "▁تف": 2326,
    "▁تور": 2327,
    "واع": 2328,
    "▁قال": 2329,
    "▁مجاز": 2330,
    "▁آندر": 2331,
    "▁نطنز": 2332,
    "▁گشایش": 2333,
    "▁الحاق": 2334,
    "▁اهواز": 2335,
    "▁پارلمان": 2336,
    "▁جذب": 2337,
    "▁فعلا": 2338,
    "▁جلب": 2339,
    "▁پیچید": 2340,
    "▁جورج": 2341,
    "▁گشت": 2342,
    "ذیب": 2343,
    "الب": 2344,
    "▁ماموریت": 2345,
    "▁پنجاه": 2346,
    "▁قطب": 2347,
    "کته": 2348,
    "▁پایگاه": 2349,
    "▁هویت": 2350,
    "▁حملات": 2351,
    "▁آگاه": 2352,
    "▁فراز": 2353,
    "▁۴۵": 2354,
    "نر": 2355,
    "▁تماشاگران": 2356,
    "▁بازرس": 2357,
    "▁داوطلبان": 2358,
    "▁حامل": 2359,
    "▁محققان": 2360,
    "همزمان": 2361,
    "▁گوشت": 2362,
    "▁جانب": 2363,
    "مار": 2364,
    "۲۰": 2365,
    "▁سخن": 2366,
    "▁نمای": 2367,
    "▁پزشک": 2368,
    "▁تماشاگر": 2369,
    "▁روب": 2370,
    "▁اید": 2371,
    "▁آفریقا": 2372,
    "▁ارا": 2373,
    "▁اظهار": 2374,
    "▁ذخ": 2375,
    "▁میانه": 2376,
    "اجی": 2377,
    "▁اقامت": 2378,
    "▁گواردیولا": 2379,
    "▁عظیم": 2380,
    "▁شصت": 2381,
    "▁مسعود": 2382,
    "▁نرم": 2383,
    "▁کجا": 2384,
    "▁قدر": 2385,
    "▁سیست": 2386,
    "ایر": 2387,
    "▁آسان": 2388,
    "▁منع": 2389,
    "▁واقعا": 2390,
    "خواهی": 2391,
    "کننده": 2392,
    "▁ریش": 2393,
    "▁شانس": 2394,
    "ناصر": 2395,
    "▁کال": 2396,
    "▁زودتر": 2397,
    "▁کارت": 2398,
    "▁فرو": 2399,
    "▁پاری": 2400,
    "▁برداری": 2401,
    "۱۴": 2402,
    "▁اج": 2403,
    "داشت": 2404,
    "▁بس": 2405,
    "▁بعدی": 2406,
    "▁کیلوگرم": 2407,
    "▁ثانی": 2408,
    "▁جسد": 2409,
    "▁محمدی": 2410,
    "▁۱۳۹۷": 2411,
    "▁مریخ": 2412,
    "▁فرم": 2413,
    "▁شگفت": 2414,
    "▁زانو": 2415,
    "▁۹۷": 2416,
    "▁سپر": 2417,
    "▁ساده": 2418,
    "▁۲۷": 2419,
    "▁تایسون": 2420,
    "▁معلوم": 2421,
    "▁جلوی": 2422,
    "▁خیر": 2423,
    "▁پیگیری": 2424,
    "▁آفریقای": 2425,
    "نج": 2426,
    "رگن": 2427,
    "▁آنتونی": 2428,
    "▁عکاسی": 2429,
    "▁رها": 2430,
    "▁رویداد": 2431,
    "شار": 2432,
    "▁امیدواری": 2433,
    "▁انداخته": 2434,
    "▁آمدن": 2435,
    "▁بازدید": 2436,
    "▁چشمگیر": 2437,
    "▁مبن": 2438,
    "▁درحالی": 2439,
    "▁برج": 2440,
    "▁فای": 2441,
    "▁زو": 2442,
    "شرکت": 2443,
    "▁کلید": 2444,
    "▁محصول": 2445,
    "▁انتظامی": 2446,
    "▁بسکتبال": 2447,
    "▁دیجیتال": 2448,
    "▁پادشاه": 2449,
    "▁کیفیت": 2450,
    "▁ایرنا": 2451,
    "▁اسناد": 2452,
    "▁گذراند": 2453,
    "▁نیروگاه": 2454,
    "▁ردیف": 2455,
    "▁پنهان": 2456,
    "▁حراج": 2457,
    "▁لستر": 2458,
    "▁فولک": 2459,
    "▁مقدار": 2460,
    "▁شهرستان": 2461,
    "▁عید": 2462,
    "▁آواز": 2463,
    "▁قد": 2464,
    "سبب": 2465,
    "▁دهیم": 2466,
    "فن": 2467,
    "▁دقیقا": 2468,
    "▁شاهین": 2469,
    "▁راز": 2470,
    "▁نامش": 2471,
    "▁پزشکان": 2472,
    "▁ایتالیایی": 2473,
    "▁جنسیت": 2474,
    "▁استاندار": 2475,
    "گیر": 2476,
    "▁معن": 2477,
    "▁باد": 2478,
    "کاری": 2479,
    "شا": 2480,
    "▁خر": 2481,
    "گروه": 2482,
    "▁۱۹۸": 2483,
    "▁ایستاده": 2484,
    "▁اسم": 2485,
    "صاف": 2486,
    "▁عفو": 2487,
    "▁خوان": 2488,
    "▁معمول": 2489,
    "▁بلژیک": 2490,
    "▁تبعیض": 2491,
    "▁ثبات": 2492,
    "▁سفارش": 2493,
    "▁برگزید": 2494,
    "▁دسامبر": 2495,
    "▁عشق": 2496,
    "▁بماند": 2497,
    "▁سلطان": 2498,
    "▁تردید": 2499,
    "▁تعلیق": 2500,
    "▁راحت": 2501,
    "▁خشک": 2502,
    "▁نماز": 2503,
    "▁نوسان": 2504,
    "▁آلوده": 2505,
    "▁بدهد": 2506,
    "▁ذر": 2507,
    "▁گنج": 2508,
    "▁کارزار": 2509,
    "▁کریست": 2510,
    "▁۳۴": 2511,
    "▁اندک": 2512,
    "▁مسئولیت": 2513,
    "▁اص": 2514,
    "پای": 2515,
    "▁اور": 2516,
    "▁شرکتهای": 2517,
    "ورا": 2518,
    "▁همسرش": 2519,
    "▁ماجرای": 2520,
    "▁شاملو": 2521,
    "بانک": 2522,
    "شنا": 2523,
    "▁حو": 2524,
    "▁سفرهای": 2525,
    "▁نامید": 2526,
    "▁تجا": 2527,
    "▁یافتن": 2528,
    "▁وایلد": 2529,
    "▁شهرداری": 2530,
    "▁۴۰۰": 2531,
    "▁بردن": 2532,
    "▁تحلیل": 2533,
    "▁اعتماد": 2534,
    "▁دستورالعمل": 2535,
    "▁سوئد": 2536,
    "▁ریاض": 2537,
    "▁تعریف": 2538,
    "▁روغن": 2539,
    "▁ساعات": 2540,
    "▁علنی": 2541,
    "▁قایق": 2542,
    "▁میراث": 2543,
    "▁جلال": 2544,
    "▁امشب": 2545,
    "▁خبرساز": 2546,
    "▁کیلومتری": 2547,
    "▁تحولات": 2548,
    "▁علم": 2549,
    "▁ششم": 2550,
    "▁فرمان": 2551,
    "▁اسپانیایی": 2552,
    "▁بهای": 2553,
    "▁اسکن": 2554,
    "وات": 2555,
    "لک": 2556,
    "ویز": 2557,
    "▁۱۵۰": 2558,
    "▁خواه": 2559,
    "▁کالاها": 2560,
    "▁مناسبت": 2561,
    "▁حقوقی": 2562,
    "▁کلیه": 2563,
    "▁اکثر": 2564,
    "بعضی": 2565,
    "▁خرد": 2566,
    "▁پهلوی": 2567,
    "▁اسدی": 2568,
    "نام": 2569,
    "رنو": 2570,
    "▁انتخاباتی": 2571,
    "▁لیس": 2572,
    "اقات": 2573,
    "▁رویدادها": 2574,
    "خته": 2575,
    "یسم": 2576,
    "▁مشاغل": 2577,
    "▁پرتغال": 2578,
    "▁عبارت": 2579,
    "▁تکمیل": 2580,
    "▁مثال": 2581,
    "▁تعرف": 2582,
    "▁آرزو": 2583,
    "▁شویم": 2584,
    "▁تنفس": 2585,
    "▁گروسی": 2586,
    "▁رونق": 2587,
    "▁هتل": 2588,
    "▁زهرا": 2589,
    "▁بگوی": 2590,
    "▁نیرو": 2591,
    "▁خودکشی": 2592,
    "▁تابلو": 2593,
    "▁بگیرند": 2594,
    "▁مدرن": 2595,
    "▁ملایی": 2596,
    "▁نفوذ": 2597,
    "▁عم": 2598,
    "▁ژاپنی": 2599,
    "▁روح": 2600,
    "▁ارد": 2601,
    "▁درخت": 2602,
    "نیم": 2603,
    "▁گفتگوها": 2604,
    "▁دوز": 2605,
    "▁جزیر": 2606,
    "احض": 2607,
    "بخش": 2608,
    "پو": 2609,
    "بنابر": 2610,
    "حال": 2611,
    "▁کشت": 2612,
    "▁گذر": 2613,
    "لف": 2614,
    "▁تعل": 2615,
    "▁نوروزی": 2616,
    "▁کسر": 2617,
    "۵۰": 2618,
    "▁راک": 2619,
    "▁کام": 2620,
    "▁مون": 2621,
    "▁تاسیس": 2622,
    "▁محاسب": 2623,
    "▁تری": 2624,
    "تاب": 2625,
    "▁دائم": 2626,
    "▁سرنوشت": 2627,
    "▁علائم": 2628,
    "▁غافلگیر": 2629,
    "▁غیرمستقیم": 2630,
    "▁گرنداسلم": 2631,
    "▁اتومبیل": 2632,
    "▁عمدتا": 2633,
    "▁مطالب": 2634,
    "▁مطمئن": 2635,
    "▁حکایت": 2636,
    "▁اندونزی": 2637,
    "▁پرچم": 2638,
    "▁شعار": 2639,
    "▁اولویت": 2640,
    "▁کانون": 2641,
    "▁خمینی": 2642,
    "▁تردد": 2643,
    "تصاب": 2644,
    "▁دیپلماتیک": 2645,
    "▁پکن": 2646,
    "▁سازنده": 2647,
    "▁محرومیت": 2648,
    "▁عبدالله": 2649,
    "▁وسیع": 2650,
    "▁گلزن": 2651,
    "▁فرستاد": 2652,
    "▁خاتم": 2653,
    "▁جواب": 2654,
    "▁ذو": 2655,
    "▁پوشش": 2656,
    "▁پوشید": 2657,
    "▁اینتر": 2658,
    "خالت": 2659,
    "▁مسافرت": 2660,
    "▁برنت": 2661,
    "▁شنا": 2662,
    "سعید": 2663,
    "▁زدند": 2664,
    "▁بابا": 2665,
    "▁قوی": 2666,
    "▁دیر": 2667,
    "▁اسک": 2668,
    "▁ویدیوی": 2669,
    "▁ضرور": 2670,
    "شمار": 2671,
    "▁بیستم": 2672,
    "▁زیبا": 2673,
    "شته": 2674,
    "▁موقع": 2675,
    "أ": 2676,
    "▁آهن": 2677,
    "▁خاصی": 2678,
    "▁پاپ": 2679,
    "▁فیزیک": 2680,
    "▁شواهد": 2681,
    "▁هافبک": 2682,
    "▁چارچوب": 2683,
    "▁تفاوت": 2684,
    "▁جاسوس": 2685,
    "▁سرکوب": 2686,
    "▁نیمکت": 2687,
    "▁فروخته": 2688,
    "▁پاییز": 2689,
    "▁آدم": 2690,
    "▁خطیب": 2691,
    "▁۲۰۱۱": 2692,
    "▁اختلال": 2693,
    "▁فولا": 2694,
    "غان": 2695,
    "▁فراتر": 2696,
    "▁هفتاد": 2697,
    "▁یادآور": 2698,
    "▁منظور": 2699,
    "▁افکار": 2700,
    "▁صادق": 2701,
    "▁ویدیو": 2702,
    "▁تحول": 2703,
    "▁ویژ": 2704,
    "قرار": 2705,
    "رسان": 2706,
    "▁عملا": 2707,
    "حدود": 2708,
    "▁اقدامی": 2709,
    "▁اکس": 2710,
    "▁طلب": 2711,
    "شدید": 2712,
    "▁رهبری": 2713,
    "▁تماشای": 2714,
    "▁مدار": 2715,
    "▁موافق": 2716,
    "▁مطل": 2717,
    "▁عطر": 2718,
    "▁بهر": 2719,
    "▁اپرا": 2720,
    "▁حوادث": 2721,
    "▁خلاف": 2722,
    "▁لذت": 2723,
    "▁واگن": 2724,
    "▁تالاب": 2725,
    "▁لحا": 2726,
    "▁فراوان": 2727,
    "▁سبز": 2728,
    "▁باشیم": 2729,
    "▁فتح": 2730,
    "▁فیلیپ": 2731,
    "▁خفاش": 2732,
    "▁فقر": 2733,
    "▁مقدمات": 2734,
    "▁نبرد": 2735,
    "سقف": 2736,
    "آزادسازی": 2737,
    "▁ایست": 2738,
    "▁مجازات": 2739,
    "▁کول": 2740,
    "▁شهرسازی": 2741,
    "▁۴۴": 2742,
    "▁رمز": 2743,
    "▁غلام": 2744,
    "▁مرور": 2745,
    "التی": 2746,
    "▁کرمان": 2747,
    "▁رم": 2748,
    "▁تماشا": 2749,
    "▁پرده": 2750,
    "▁اتفاقی": 2751,
    "▁ناو": 2752,
    "اع": 2753,
    "نوبت": 2754,
    "خالص": 2755,
    "▁نامزدهای": 2756,
    "اجع": 2757,
    "▁مسال": 2758,
    "▁نوروز": 2759,
    "▁کور": 2760,
    "آباد": 2761,
    "▁ویل": 2762,
    "نظر": 2763,
    "گانه": 2764,
    "آمریکا": 2765,
    "▁سل": 2766,
    "▁نت": 2767,
    "▁ماندن": 2768,
    "رود": 2769,
    "▁معدن": 2770,
    "▁مادرش": 2771,
    "▁جک": 2772,
    "ناز": 2773,
    "لم": 2774,
    "لند": 2775,
    "▁پژوهشگر": 2776,
    "▁تاپ": 2777,
    "عداد": 2778,
    "▁مند": 2779,
    "بنا": 2780,
    "▁فان": 2781,
    "▁انتقادها": 2782,
    "افت": 2783,
    "گذاری": 2784,
    "▁۷۵": 2785,
    "▁کامپیوتر": 2786,
    "▁تجهیزات": 2787,
    "▁تراکتور": 2788,
    "▁خاورمیانه": 2789,
    "▁پانزده": 2790,
    "▁فرگوسن": 2791,
    "▁آشکار": 2792,
    "▁ناکام": 2793,
    "▁خوشحال": 2794,
    "▁افزار": 2795,
    "▁سلول": 2796,
    "▁تاکسی": 2797,
    "▁سپرده": 2798,
    "▁سهامداران": 2799,
    "▁حیوانات": 2800,
    "آی": 2801,
    "احل": 2802,
    "▁بلخ": 2803,
    "▁برون": 2804,
    "▁۳۹": 2805,
    "▁مدنی": 2806,
    "مپ": 2807,
    "▁مستقل": 2808,
    "▁کشم": 2809,
    "نفع": 2810,
    "▁ماهوار": 2811,
    "▁مقال": 2812,
    "▁دهنده": 2813,
    "نز": 2814,
    "آزمایی": 2815,
    "عبدال": 2816,
    "دکتر": 2817,
    "▁مرزها": 2818,
    "▁۶۰۰": 2819,
    "▁برند": 2820,
    "▁شهرها": 2821,
    "▁ور": 2822,
    "آمد": 2823,
    "▁اصطلاح": 2824,
    "▁تسلیحات": 2825,
    "▁مورینیو": 2826,
    "▁بگذارد": 2827,
    "▁مخفی": 2828,
    "▁منافع": 2829,
    "▁میناوند": 2830,
    "▁مهندس": 2831,
    "▁جستجو": 2832,
    "▁کنفرانس": 2833,
    "▁اورتون": 2834,
    "▁خشم": 2835,
    "▁هیجان": 2836,
    "▁جانشین": 2837,
    "▁شعب": 2838,
    "رویی": 2839,
    "▁وانت": 2840,
    "▁شرط": 2841,
    "▁ریخت": 2842,
    "▁قبا": 2843,
    "▁اپل": 2844,
    "▁نمایشگاه": 2845,
    "▁کلاسیک": 2846,
    "▁مالیاتی": 2847,
    "گل": 2848,
    "▁هنگ": 2849,
    "▁سرد": 2850,
    "▁قص": 2851,
    "▁فروشگاه": 2852,
    "▁شورو": 2853,
    "شورای": 2854,
    "▁آرامش": 2855,
    "▁یاران": 2856,
    "▁اصلا": 2857,
    "▁مذهبی": 2858,
    "▁پیوسته": 2859,
    "▁ایفا": 2860,
    "▁تل": 2861,
    "▁نداد": 2862,
    "▁نود": 2863,
    "▁خریدار": 2864,
    "خواست": 2865,
    "ضی": 2866,
    "فاصله": 2867,
    "واقع": 2868,
    "یره": 2869,
    "گفته": 2870,
    "▁اجباری": 2871,
    "▁فرش": 2872,
    "▁ری": 2873,
    "▁بردند": 2874,
    "۱۹": 2875,
    "▁حامی": 2876,
    "ریم": 2877,
    "▁تج": 2878,
    "▁ویدئو": 2879,
    "مال": 2880,
    "▁عاشق": 2881,
    "▁اقلام": 2882,
    "▁برگزیت": 2883,
    "▁مازندران": 2884,
    "▁نباشد": 2885,
    "▁گردشگری": 2886,
    "▁تدریج": 2887,
    "▁عذر": 2888,
    "▁مخاطبان": 2889,
    "▁پیامدهای": 2890,
    "▁فضانورد": 2891,
    "▁مرجان": 2892,
    "▁قلم": 2893,
    "▁شمس": 2894,
    "▁سلمان": 2895,
    "▁طبری": 2896,
    "اکان": 2897,
    "▁اسماعیل": 2898,
    "▁عام": 2899,
    "▁خطاب": 2900,
    "▁همکاران": 2901,
    "▁فرماندار": 2902,
    "▁مهاجرت": 2903,
    "اوش": 2904,
    "▁نمایندگی": 2905,
    "▁حمید": 2906,
    "هزار": 2907,
    "▁امکانات": 2908,
    "▁اتهامات": 2909,
    "▁بازرسان": 2910,
    "▁باستان": 2911,
    "▁زیرا": 2912,
    "ولی": 2913,
    "▁۱۳۵": 2914,
    "▁تعطیلات": 2915,
    "▁هجوم": 2916,
    "▁۱۳۸": 2917,
    "▁خدا": 2918,
    "▁۳۷": 2919,
    "لور": 2920,
    "▁طلبان": 2921,
    "▁آس": 2922,
    "پنج": 2923,
    "بون": 2924,
    "▁نابودی": 2925,
    "وزیر": 2926,
    "▁۷۰۰": 2927,
    "▁بازیگران": 2928,
    "▁بودم": 2929,
    "▁گزارشگر": 2930,
    "▁بودیم": 2931,
    "▁شور": 2932,
    "▁آموز": 2933,
    "▁خاتمی": 2934,
    "▁سیر": 2935,
    "▁حافظ": 2936,
    "▁مشروط": 2937,
    "▁معاصر": 2938,
    "▁هالیوود": 2939,
    "▁بغداد": 2940,
    "▁خراسان": 2941,
    "▁پیراهن": 2942,
    "▁ابزار": 2943,
    "▁ماراتن": 2944,
    "▁انگار": 2945,
    "▁بخار": 2946,
    "▁ربات": 2947,
    "▁اولسان": 2948,
    "▁هاشمی": 2949,
    "▁بوشهر": 2950,
    "▁ارشاد": 2951,
    "▁صادرکنندگان": 2952,
    "▁عمق": 2953,
    "▁تاریک": 2954,
    "▁۳۸": 2955,
    "▁متشک": 2956,
    "▁خاوران": 2957,
    "▁فلز": 2958,
    "▁قله": 2959,
    "▁محکومیت": 2960,
    "▁بیمه": 2961,
    "▁پیمان": 2962,
    "▁حلق": 2963,
    "▁محمدجواد": 2964,
    "▁شکار": 2965,
    "▁رهبران": 2966,
    "فرین": 2967,
    "▁اسلام": 2968,
    "▁زنند": 2969,
    "▁خوردن": 2970,
    "▁بچ": 2971,
    "▁رحمانی": 2972,
    "▁خودروسازی": 2973,
    "▁۹۵": 2974,
    "▁فور": 2975,
    "▁ناصر": 2976,
    "▁سین": 2977,
    "▁پیک": 2978,
    "مدیر": 2979,
    "قب": 2980,
    "امروز": 2981,
    "▁ترور": 2982,
    "▁دم": 2983,
    "جد": 2984,
    "▁گمان": 2985,
    "▁درخش": 2986,
    "▁هیو": 2987,
    "▁ایستاد": 2988,
    "▁۶۵": 2989,
    "وقت": 2990,
    "▁لب": 2991,
    "▁تجدید": 2992,
    "طئ": 2993,
    "▁جایگزین": 2994,
    "▁عوارض": 2995,
    "▁احترام": 2996,
    "▁معارف": 2997,
    "▁سانسور": 2998,
    "▁قلع": 2999,
    "▁اماکن": 3000,
    "▁لمس": 3001,
    "▁سرقت": 3002,
    "▁عاص": 3003,
    "▁یوفا": 3004,
    "▁تاثیرگذار": 3005,
    "▁شناور": 3006,
    "▁بزند": 3007,
    "▁یازده": 3008,
    "▁وار": 3009,
    "▁۴۹": 3010,
    "▁کشد": 3011,
    "▁تحلیلگر": 3012,
    "▁عادل": 3013,
    "▁دفاعی": 3014,
    "▁قض": 3015,
    "▁منصور": 3016,
    "ایل": 3017,
    "▁ارتباطات": 3018,
    "اعت": 3019,
    "▁کمال": 3020,
    "وریا": 3021,
    "▁شخص": 3022,
    "▁درحال": 3023,
    "▁عزاداری": 3024,
    "راه": 3025,
    "▁شه": 3026,
    "▁پوش": 3027,
    "▁قائ": 3028,
    "تری": 3029,
    "▁افشار": 3030,
    "افزایش": 3031,
    "پرو": 3032,
    "واک": 3033,
    "سخ": 3034,
    "▁جسم": 3035,
    "▁میر": 3036,
    "▁۵۵": 3037,
    "▁داری": 3038,
    "▁کیم": 3039,
    "▁پرداز": 3040,
    "▁اسد": 3041,
    "▁جف": 3042,
    "▁کارمند": 3043,
    "▁رستوران": 3044,
    "▁خلاص": 3045,
    "▁طوفان": 3046,
    "▁قاجار": 3047,
    "▁هیوندای": 3048,
    "▁آفتاب": 3049,
    "▁افتتاح": 3050,
    "▁شریفی": 3051,
    "▁فریاد": 3052,
    "▁مستمر": 3053,
    "▁وستهم": 3054,
    "▁معیار": 3055,
    "راحل": 3056,
    "▁شوک": 3057,
    "▁پرفروش": 3058,
    "▁شتاب": 3059,
    "مرد": 3060,
    "▁۵۷": 3061,
    "▁بهشت": 3062,
    "▁نان": 3063,
    "▁افسر": 3064,
    "▁شهید": 3065,
    "▁جانسون": 3066,
    "▁آتی": 3067,
    "▁دن": 3068,
    "▁ویران": 3069,
    "▁اردو": 3070,
    "▁نمایشگر": 3071,
    "فاش": 3072,
    "▁نای": 3073,
    "▁دف": 3074,
    "کرد": 3075,
    "▁شیرین": 3076,
    "▁سوالات": 3077,
    "▁معمار": 3078,
    "قرض": 3079,
    "▁طیف": 3080,
    "میم": 3081,
    "▁جیب": 3082,
    "آوری": 3083,
    "▁دانستند": 3084,
    "▁مسئولین": 3085,
    "▁باند": 3086,
    "▁فرزندان": 3087,
    "گیل": 3088,
    "▁مول": 3089,
    "▁ادعا": 3090,
    "ناد": 3091,
    "مجموع": 3092,
    "دم": 3093,
    "قیمت": 3094,
    "ریس": 3095,
    "رسمی": 3096,
    "پل": 3097,
    "▁راند": 3098,
    "▁ریه": 3099,
    "▁دانشمند": 3100,
    "۲۰۱۲": 3101,
    "▁تصادف": 3102,
    "▁دبلیو": 3103,
    "▁لوئی": 3104,
    "▁مطبوعات": 3105,
    "▁مقاومت": 3106,
    "▁فرآیند": 3107,
    "▁گوناگون": 3108,
    "▁خطوط": 3109,
    "▁وسایل": 3110,
    "▁جنبش": 3111,
    "▁پلاستیک": 3112,
    "▁سلاح": 3113,
    "التهاب": 3114,
    "▁وسط": 3115,
    "▁سایپا": 3116,
    "▁گوشی": 3117,
    "▁صمت": 3118,
    "▁معاف": 3119,
    "▁حیدر": 3120,
    "▁عراقچی": 3121,
    "▁انبار": 3122,
    "▁بنیان": 3123,
    "▁۱۹۷": 3124,
    "▁پیوند": 3125,
    "▁افکن": 3126,
    "▁دایک": 3127,
    "وخیم": 3128,
    "▁بلیت": 3129,
    "▁آزمایشگاه": 3130,
    "▁زیبایی": 3131,
    "▁۴۸": 3132,
    "▁بطور": 3133,
    "▁همیلتون": 3134,
    "▁نزد": 3135,
    "▁عادت": 3136,
    "▁خواهم": 3137,
    "▁خال": 3138,
    "خوانی": 3139,
    "▁اوبر": 3140,
    "▁برندگان": 3141,
    "▁ضعیف": 3142,
    "▁نرسید": 3143,
    "▁نگرفته": 3144,
    "▁زی": 3145,
    "▁افشا": 3146,
    "▁فلیک": 3147,
    "▁۰": 3148,
    "حمل": 3149,
    "لر": 3150,
    "▁بازنشست": 3151,
    "▁قیمتها": 3152,
    "▁۲۵۰": 3153,
    "▁بهایی": 3154,
    "اسل": 3155,
    "▁دارم": 3156,
    "▁گم": 3157,
    "▁وسی": 3158,
    "نیک": 3159,
    "▁سرباز": 3160,
    "▁آموزشی": 3161,
    "▁کیو": 3162,
    "▁خلو": 3163,
    "▁درد": 3164,
    "▁تبلیغ": 3165,
    "▁داروها": 3166,
    "▁آنفلوآنزا": 3167,
    "▁انفرادی": 3168,
    "▁تائید": 3169,
    "▁دانشجویان": 3170,
    "▁تخیل": 3171,
    "▁سحر": 3172,
    "▁استادیوم": 3173,
    "▁بورل": 3174,
    "موند": 3175,
    "▁باشید": 3176,
    "▁شوماخر": 3177,
    "ظیف": 3178,
    "▁حساس": 3179,
    "▁۱۹۸۶": 3180,
    "▁بدهند": 3181,
    "▁کریستیان": 3182,
    "▁مصدومیت": 3183,
    "پراتور": 3184,
    "▁سانتی": 3185,
    "▁متاسف": 3186,
    "▁جنبه": 3187,
    "▁نیافت": 3188,
    "▁مدارس": 3189,
    "خراج": 3190,
    "شده": 3191,
    "▁۹۶": 3192,
    "▁الکس": 3193,
    "▁تش": 3194,
    "▁دیگو": 3195,
    "▁نسب": 3196,
    "▁ضرورت": 3197,
    "▁آسیای": 3198,
    "▁راستا": 3199,
    "▁نداشتند": 3200,
    "▁بدتر": 3201,
    "▁شنیده": 3202,
    "وکی": 3203,
    "▁مغ": 3204,
    "▁خاطرات": 3205,
    "▁اگر": 3206,
    "راض": 3207,
    "▁آزمایی": 3208,
    "▁ادعای": 3209,
    "الیز": 3210,
    "▁اهدا": 3211,
    "▁جرم": 3212,
    "▁رغ": 3213,
    "▁نقد": 3214,
    "سخنگوی": 3215,
    "▁مهاجر": 3216,
    "اول": 3217,
    "▁گذاشتن": 3218,
    "▁رحم": 3219,
    "۶۰": 3220,
    "▁منتقد": 3221,
    "▁بلو": 3222,
    "▁تلف": 3223,
    "▁سوئیسی": 3224,
    "▁شایع": 3225,
    "اتور": 3226,
    "▁ارتفاع": 3227,
    "▁استراماچونی": 3228,
    "▁تدابیر": 3229,
    "▁زلزله": 3230,
    "▁مطهری": 3231,
    "▁ناراحت": 3232,
    "▁ولسوال": 3233,
    "▁قاطع": 3234,
    "▁لاریجانی": 3235,
    "▁ترجیح": 3236,
    "▁همسایه": 3237,
    "▁تمایل": 3238,
    "▁بکشد": 3239,
    "▁تروریستی": 3240,
    "▁غریب": 3241,
    "▁کهکشان": 3242,
    "▁دروغ": 3243,
    "▁قادر": 3244,
    "▁مترجم": 3245,
    "▁دهقان": 3246,
    "▁اظهارنظر": 3247,
    "▁روزگار": 3248,
    "▁احت": 3249,
    "▁پیاده": 3250,
    "▁مسکو": 3251,
    "خیص": 3252,
    "صوفی": 3253,
    "▁مخصوص": 3254,
    "▁گوگل": 3255,
    "▁کیلو": 3256,
    "هکرها": 3257,
    "▁کتی": 3258,
    "▁ذخا": 3259,
    "▁اسپ": 3260,
    "▁شهری": 3261,
    "▁کهن": 3262,
    "▁ویدئویی": 3263,
    "▁ببرد": 3264,
    "▁نیوک": 3265,
    "ماهی": 3266,
    "▁حداد": 3267,
    "▁غار": 3268,
    "▁کش": 3269,
    "▁منشا": 3270,
    "▁برقی": 3271,
    "▁کادی": 3272,
    "▁اختلافات": 3273,
    "▁ضرر": 3274,
    "▁محافظت": 3275,
    "▁رسیدند": 3276,
    "▁صادرکنند": 3277,
    "▁امان": 3278,
    "سکی": 3279,
    "▁سگ": 3280,
    "▁۱۳۶": 3281,
    "▁گرب": 3282,
    "▁پار": 3283,
    "▁مگا": 3284,
    "▁ارزان": 3285,
    "▁استخوان": 3286,
    "▁موش": 3287,
    "پیشتر": 3288,
    "▁مرم": 3289,
    "امسال": 3290,
    "اولین": 3291,
    "وریس": 3292,
    "▁نرسیده": 3293,
    "▁گردن": 3294,
    "▁درهای": 3295,
    "▁راس": 3296,
    "▁پارسی": 3297,
    "طل": 3298,
    "▁عروس": 3299,
    "▁ایرباس": 3300,
    "▁تگزاس": 3301,
    "▁جلسات": 3302,
    "▁دقایق": 3303,
    "▁نروژ": 3304,
    "▁وبسایت": 3305,
    "▁ویلموتس": 3306,
    "▁همیشگی": 3307,
    "▁نکنید": 3308,
    "▁کمربند": 3309,
    "▁بازگردد": 3310,
    "▁دوپینگ": 3311,
    "▁بوندس": 3312,
    "▁منچستریونایتد": 3313,
    "▁زرد": 3314,
    "▁ولز": 3315,
    "▁سرویس": 3316,
    "▁تعهد": 3317,
    "▁راهبرد": 3318,
    "▁۲۰۱۰": 3319,
    "▁تلخ": 3320,
    "▁بهرام": 3321,
    "▁هشتاد": 3322,
    "▁سید": 3323,
    "لحق": 3324,
    "▁دراز": 3325,
    "▁ژنتیکی": 3326,
    "▁پپ": 3327,
    "▁شکاف": 3328,
    "▁آورند": 3329,
    "نیا": 3330,
    "جونز": 3331,
    "خرج": 3332,
    "▁جدایی": 3333,
    "فرانس": 3334,
    "▁تند": 3335,
    "▁مهمان": 3336,
    "▁خوا": 3337,
    "▁هستم": 3338,
    "کانا": 3339,
    "▁همگ": 3340,
    "▁مال": 3341,
    "▁پرسش": 3342,
    "▁شیش": 3343,
    "▁موضوعات": 3344,
    "زار": 3345,
    "▁افتد": 3346,
    "▁بدر": 3347,
    "یرت": 3348,
    "▁خبرهای": 3349,
    "▁استعداد": 3350,
    "▁بینند": 3351,
    "▁رساندن": 3352,
    "▁هجومی": 3353,
    "▁تبار": 3354,
    "آمیز": 3355,
    "افغانستان": 3356,
    "ناک": 3357,
    "▁۱۹۶": 3358,
    "صورت": 3359,
    "عب": 3360,
    "خره": 3361,
    "▁۱۹۴": 3362,
    "▁سرو": 3363,
    "▁فیلمساز": 3364,
    "▁عبوری": 3365,
    "مانده": 3366,
    "▁کشی": 3367,
    "▁صادقی": 3368,
    "▁سیام": 3369,
    "▁خواستند": 3370,
    "▁یازدهم": 3371,
    "▁بروکسل": 3372,
    "▁خداحافظ": 3373,
    "▁مأمور": 3374,
    "▁واژه": 3375,
    "▁پرافتخار": 3376,
    "▁برانگیخت": 3377,
    "▁اخطار": 3378,
    "▁اشتغال": 3379,
    "▁محاکمه": 3380,
    "▁معیشت": 3381,
    "▁برانگیز": 3382,
    "▁پانصد": 3383,
    "▁ایرلند": 3384,
    "▁بامداد": 3385,
    "▁بعید": 3386,
    "▁تلفیق": 3387,
    "▁پرورش": 3388,
    "▁منچسترسیتی": 3389,
    "برگ": 3390,
    "▁کاربر": 3391,
    "یلیون": 3392,
    "▁خوک": 3393,
    "▁شیراز": 3394,
    "بورن": 3395,
    "▁۱۳۴": 3396,
    "▁پرندگان": 3397,
    "▁انصاریان": 3398,
    "▁مدارک": 3399,
    "وطن": 3400,
    "▁محاسبات": 3401,
    "▁پردازد": 3402,
    "▁محور": 3403,
    "▁محسن": 3404,
    "▁خند": 3405,
    "هالی": 3406,
    "▁مساو": 3407,
    "▁منار": 3408,
    "▁تدو": 3409,
    "▁زیان": 3410,
    "▁ظاهرا": 3411,
    "▁کرام": 3412,
    "▁سنا": 3413,
    "ناف": 3414,
    "▁قدس": 3415,
    "▁اوست": 3416,
    "▁نقدی": 3417,
    "▁قدمت": 3418,
    "▁آگ": 3419,
    "▁گمانه": 3420,
    "▁فاز": 3421,
    "▁مبنا": 3422,
    "▁یکصد": 3423,
    "▁قف": 3424,
    "▁جعل": 3425,
    "▁باران": 3426,
    "یژن": 3427,
    "شنگ": 3428,
    "رق": 3429,
    "▁طوری": 3430,
    "▁سیار": 3431,
    "▁بدل": 3432,
    "▁مشتری": 3433,
    "▁ویلیام": 3434,
    "▁سالن": 3435,
    "۳۱": 3436,
    "▁ابعاد": 3437,
    "▁الکترونیک": 3438,
    "▁امتحان": 3439,
    "▁تأثیر": 3440,
    "▁عزیزی": 3441,
    "▁فلوریدا": 3442,
    "▁مفهوم": 3443,
    "▁قاضی": 3444,
    "▁محتوای": 3445,
    "▁کاوشگر": 3446,
    "▁لبخند": 3447,
    "▁ودیعه": 3448,
    "▁۲۰۲۲": 3449,
    "▁برگرداند": 3450,
    "▁تفاهم": 3451,
    "▁اطلس": 3452,
    "▁اعزام": 3453,
    "▁برخلاف": 3454,
    "▁سراغ": 3455,
    "▁فقیر": 3456,
    "▁مفید": 3457,
    "▁دقت": 3458,
    "▁مارتین": 3459,
    "▁فردوسی": 3460,
    "▁منزل": 3461,
    "▁دادسرا": 3462,
    "▁توانم": 3463,
    "▁گورستان": 3464,
    "▁استرازنکا": 3465,
    "▁یادداشت": 3466,
    "▁مسکونی": 3467,
    "▁قدرتمند": 3468,
    "▁کریمی": 3469,
    "▁سرزمین": 3470,
    "برخ": 3471,
    "▁مصاد": 3472,
    "▁معمولی": 3473,
    "▁کمرنگ": 3474,
    "▁زوج": 3475,
    "▁جمال": 3476,
    "▁آنقدر": 3477,
    "▁فرید": 3478,
    "▁لحظات": 3479,
    "ایب": 3480,
    "▁بوم": 3481,
    "▁هول": 3482,
    "۳۰": 3483,
    "باران": 3484,
    "▁قوا": 3485,
    "▁برایش": 3486,
    "▁مبادل": 3487,
    "▁خواندن": 3488,
    "▁اهدای": 3489,
    "▁قم": 3490,
    "تیو": 3491,
    "▁کاوا": 3492,
    "▁اسپی": 3493,
    "▁پیشگیری": 3494,
    "▁شاد": 3495,
    "▁گور": 3496,
    "▁کاست": 3497,
    "▁داوطلب": 3498,
    "▁یور": 3499,
    "▁نیا": 3500,
    "دانشمندان": 3501,
    "محمود": 3502,
    "استقلال": 3503,
    "▁ببر": 3504,
    "▁بوش": 3505,
    "▁امین": 3506,
    "▁۷۷": 3507,
    "▁نیما": 3508,
    "▁پیست": 3509,
    "طفی": 3510,
    "▁۵۶": 3511,
    "▁ثروت": 3512,
    "▁آذربایجان": 3513,
    "▁انقراض": 3514,
    "▁نیوزیلند": 3515,
    "▁والیبال": 3516,
    "▁پتروشیمی": 3517,
    "▁دموکرات": 3518,
    "▁موبایل": 3519,
    "▁ناآرام": 3520,
    "▁ثمر": 3521,
    "▁رضوی": 3522,
    "▁تحمیل": 3523,
    "▁منحصر": 3524,
    "▁صنف": 3525,
    "ریچارد": 3526,
    "▁توماس": 3527,
    "▁مسلمان": 3528,
    "▁اسرار": 3529,
    "▁منتف": 3530,
    "▁راموس": 3531,
    "▁بنیانگذار": 3532,
    "▁مقطع": 3533,
    "▁موانع": 3534,
    "▁کریکت": 3535,
    "▁برساند": 3536,
    "▁سرگرم": 3537,
    "▁منوچ": 3538,
    "▁همسان": 3539,
    "▁کربن": 3540,
    "▁بیاید": 3541,
    "▁بخصوص": 3542,
    "▁فلوید": 3543,
    "▁قریب": 3544,
    "▁یونان": 3545,
    "▁داغ": 3546,
    "▁جالب": 3547,
    "▁قرص": 3548,
    "▁آبادی": 3549,
    "▁اهداف": 3550,
    "▁مزای": 3551,
    "▁کابین": 3552,
    "▁زاهد": 3553,
    "▁اضطراب": 3554,
    "▁منظر": 3555,
    "خان": 3556,
    "▁تحرک": 3557,
    "▁جنایت": 3558,
    "▁فرض": 3559,
    "▁ویکتور": 3560,
    "▁اشک": 3561,
    "▁صورتی": 3562,
    "ویچ": 3563,
    "▁رویای": 3564,
    "▁جدال": 3565,
    "▁پوری": 3566,
    "▁وست": 3567,
    "▁عموم": 3568,
    "▁توس": 3569,
    "▁سران": 3570,
    "▁آمارها": 3571,
    "▁جهانگیری": 3572,
    "▁دوام": 3573,
    "چین": 3574,
    "▁ساختار": 3575,
    "▁تص": 3576,
    "▁بروند": 3577,
    "خواهید": 3578,
    "▁محدودیتهای": 3579,
    "▁ارگ": 3580,
    "▁کلان": 3581,
    "شیر": 3582,
    "▁کاسته": 3583,
    "احمد": 3584,
    "لیورپول": 3585,
    "خارجه": 3586,
    "بزرگ": 3587,
    "نزا": 3588,
    "عباس": 3589,
    "▁۱۳۷": 3590,
    "▁آقا": 3591,
    "حالا": 3592,
    "▁انت": 3593,
    "▁تاک": 3594,
    "▁احس": 3595,
    "▁بوک": 3596,
    "▁گروگان": 3597,
    "▁معترض": 3598,
    "▁بریت": 3599,
    "▁محقق": 3600,
    "▁حیوان": 3601,
    "▁دایناسور": 3602,
    "▁لالیگا": 3603,
    "▁تظاهرات": 3604,
    "▁کارگزار": 3605,
    "▁کنسول": 3606,
    "▁مقصر": 3607,
    "▁تایلند": 3608,
    "▁دادگستری": 3609,
    "▁ابهام": 3610,
    "▁اکسیژن": 3611,
    "▁نجف": 3612,
    "▁دانمارک": 3613,
    "▁تروریسم": 3614,
    "▁لهستان": 3615,
    "▁کامیون": 3616,
    "▁نکند": 3617,
    "▁برانکو": 3618,
    "▁عفونت": 3619,
    "▁آرای": 3620,
    "▁مکرون": 3621,
    "▁مخابرات": 3622,
    "▁ثروتمند": 3623,
    "▁آیین": 3624,
    "▁تسهیلات": 3625,
    "▁نشت": 3626,
    "نادیده": 3627,
    "▁برلین": 3628,
    "▁جهاد": 3629,
    "▁آهنگساز": 3630,
    "▁رزم": 3631,
    "▁خانوارهای": 3632,
    "▁۶۷": 3633,
    "▁عطرساز": 3634,
    "گذار": 3635,
    "نما": 3636,
    "▁شوم": 3637,
    "▁صلاح": 3638,
    "▁شریک": 3639,
    "▁کاظم": 3640,
    "وحد": 3641,
    "لینی": 3642,
    "▁صرفا": 3643,
    "▁گریز": 3644,
    "▁فراگیر": 3645,
    "ارغ": 3646,
    "ممکن": 3647,
    "▁پرسید": 3648,
    "▁گار": 3649,
    "▁نیو": 3650,
    "▁صاحبان": 3651,
    "▁بازماند": 3652,
    "▁شاهزاد": 3653,
    "▁فرج": 3654,
    "اقد": 3655,
    "دلال": 3656,
    "پول": 3657,
    "کاب": 3658,
    "▁نوار": 3659,
    "وفر": 3660,
    "▁میلیاردها": 3661,
    "▁شار": 3662,
    "▁گرفتار": 3663,
    "▁دارا": 3664,
    "▁سیف": 3665,
    "▁پیوستن": 3666,
    "▁خودران": 3667,
    "▁امن": 3668,
    "▁ویلا": 3669,
    "▁گرگ": 3670,
    "اسکو": 3671,
    "گذشت": 3672,
    "▁مرس": 3673,
    "۸۵": 3674,
    "▁۹۱": 3675,
    "▁باتر": 3676,
    "پذیر": 3677,
    "معاون": 3678,
    "طبق": 3679,
    "کدام": 3680,
    "بعد": 3681,
    "آنها": 3682,
    "۴۳": 3683,
    "▁رنج": 3684,
    "▁مامور": 3685,
    "▁رفتند": 3686,
    "▁بمب": 3687,
    "▁قربانی": 3688,
    "▁مستق": 3689,
    "▁۸۰۰": 3690,
    "ساسی": 3691,
    "▁ژنتیک": 3692,
    "واد": 3693,
    "▁تخلف": 3694,
    "جن": 3695,
    "زده": 3696,
    "داوم": 3697,
    "خصیص": 3698,
    "▁اپلیکیشن": 3699,
    "▁گردشگران": 3700,
    "▁مرخص": 3701,
    "▁موظف": 3702,
    "▁تفریح": 3703,
    "▁خوراک": 3704,
    "▁لزوم": 3705,
    "▁ببینید": 3706,
    "▁اصرار": 3707,
    "▁شکنجه": 3708,
    "▁پذیرفته": 3709,
    "▁شجاع": 3710,
    "▁ناحیه": 3711,
    "▁انبوه": 3712,
    "▁فدرال": 3713,
    "▁لیدز": 3714,
    "▁بدانیم": 3715,
    "▁اشرف": 3716,
    "▁رابرت": 3717,
    "▁فسیل": 3718,
    "▁طنز": 3719,
    "▁بیروت": 3720,
    "▁بامیان": 3721,
    "عوض": 3722,
    "▁دردسر": 3723,
    "▁اسلم": 3724,
    "▁خرابکار": 3725,
    "▁وق": 3726,
    "دور": 3727,
    "▁خاموش": 3728,
    "▁شاهکار": 3729,
    "▁لرز": 3730,
    "▁هامر": 3731,
    "▁عروسک": 3732,
    "▁رولز": 3733,
    "زیگ": 3734,
    "▁مبادلات": 3735,
    "▁مزار": 3736,
    "▁صبر": 3737,
    "▁پرند": 3738,
    "▁دهان": 3739,
    "▁کلود": 3740,
    "▁ریو": 3741,
    "▁هاوس": 3742,
    "▁بستن": 3743,
    "▁جین": 3744,
    "▁اریک": 3745,
    "▁زک": 3746,
    "چهار": 3747,
    "▁موجودات": 3748,
    "▁دپ": 3749,
    "▁دانم": 3750,
    "▁نیش": 3751,
    "▁گرند": 3752,
    "▁اموا": 3753,
    "▁خودروها": 3754,
    "▁رسو": 3755,
    "▁گارد": 3756,
    "▁قراردادش": 3757,
    "▁تقویم": 3758,
    "▁۵۲": 3759,
    "▁آوردن": 3760,
    "▁کرو": 3761,
    "▁لاش": 3762,
    "▁ایام": 3763,
    "▁لن": 3764,
    "▁صحن": 3765,
    "▁۳۶": 3766,
    "▁مهل": 3767,
    "▁آرم": 3768,
    "الدین": 3769,
    "▁تروی": 3770,
    "▁قبر": 3771,
    "شاخص": 3772,
    "ویژه": 3773,
    "بسیاری": 3774,
    "عنوان": 3775,
    "وجود": 3776,
    "شدت": 3777,
    "تخا": 3778,
    "▁ساختن": 3779,
    "▁تکان": 3780,
    "▁آیند": 3781,
    "▁علامت": 3782,
    "ولوژی": 3783,
    "▁تلگرام": 3784,
    "▁دژپسند": 3785,
    "▁متقاضی": 3786,
    "▁منتخب": 3787,
    "▁شاگردان": 3788,
    "▁تحقیر": 3789,
    "▁زنگنه": 3790,
    "▁اصولگرا": 3791,
    "▁نوزدهم": 3792,
    "▁تسلیت": 3793,
    "▁تعجب": 3794,
    "▁ذکر": 3795,
    "▁تبعات": 3796,
    "▁سئوال": 3797,
    "▁بندرعباس": 3798,
    "▁ونیز": 3799,
    "▁کشاند": 3800,
    "▁۱۳۹": 3801,
    "▁دزد": 3802,
    "▁یمانی": 3803,
    "▁متعهد": 3804,
    "▁رمزارزها": 3805,
    "▁بزوس": 3806,
    "▁رقص": 3807,
    "▁کیهان": 3808,
    "قص": 3809,
    "سیتی": 3810,
    "▁سیزدهم": 3811,
    "▁مداوم": 3812,
    "▁۷۳": 3813,
    "▁ترکمن": 3814,
    "▁فیلتر": 3815,
    "▁تقدی": 3816,
    "امین": 3817,
    "▁موکو": 3818,
    "▁دستیار": 3819,
    "▁رضایت": 3820,
    "رالله": 3821,
    "▁سرنشینان": 3822,
    "ادورو": 3823,
    "▁ترسیم": 3824,
    "▁ناجی": 3825,
    "▁نوآور": 3826,
    "۲۵": 3827,
    "▁پراکند": 3828,
    "▁لول": 3829,
    "جایی": 3830,
    "▁استرالیایی": 3831,
    "▁طب": 3832,
    "▁انتقادات": 3833,
    "▁پیکر": 3834,
    "▁کانت": 3835,
    "انکن": 3836,
    "▁۱۹۳": 3837,
    "▁اندیش": 3838,
    "▁۱۹۵": 3839,
    "فروش": 3840,
    "▁پرهی": 3841,
    "جیره": 3842,
    "▁۷۲": 3843,
    "▁پرستار": 3844,
    "▁شناسان": 3845,
    "ماتیک": 3846,
    "▁اکرا": 3847,
    "عطا": 3848,
    "▁۶۱": 3849,
    "▁عقید": 3850,
    "مسئولان": 3851,
    "ظهر": 3852,
    "شاید": 3853,
    "اصل": 3854,
    "▁درس": 3855,
    "دادگاه": 3856,
    "▁۱۲۰": 3857,
    "▁سینماها": 3858,
    "▁محا": 3859,
    "▁صح": 3860,
    "▁شدیدتر": 3861,
    "▁شاعران": 3862,
    "▁هوادار": 3863,
    "فیلد": 3864,
    "▁پالایش": 3865,
    "هنورد": 3866,
    "▁عا": 3867,
    "▁ناپدید": 3868,
    "▁پناهجویان": 3869,
    "▁ژنو": 3870,
    "▁استراحت": 3871,
    "▁اشتراک": 3872,
    "▁پادتن": 3873,
    "▁دعوا": 3874,
    "▁کارفرما": 3875,
    "▁کودتا": 3876,
    "▁جاشوا": 3877,
    "▁فرونشست": 3878,
    "▁ناامن": 3879,
    "▁کارلوس": 3880,
    "▁استثنا": 3881,
    "▁سالمندان": 3882,
    "▁کانری": 3883,
    "▁غرق": 3884,
    "▁سایبری": 3885,
    "نواک": 3886,
    "▁داغستان": 3887,
    "▁طرز": 3888,
    "▁لنون": 3889,
    "▁تندرو": 3890,
    "▁بگیریم": 3891,
    "▁یوگا": 3892,
    "▁همرسان": 3893,
    "▁استراتژیک": 3894,
    "▁اصول": 3895,
    "▁مرگبار": 3896,
    "▁مصون": 3897,
    "▁بزنند": 3898,
    "▁کاشی": 3899,
    "▁طرفدار": 3900,
    "▁فیل": 3901,
    "اطم": 3902,
    "▁۷۴": 3903,
    "▁نورد": 3904,
    "▁ویلیامز": 3905,
    "▁تاجیک": 3906,
    "▁خشکسالی": 3907,
    "▁شاخ": 3908,
    "▁آرامکو": 3909,
    "▁خرند": 3910,
    "▁خاور": 3911,
    "مارک": 3912,
    "▁لق": 3913,
    "▁وحید": 3914,
    "مجانی": 3915,
    "▁بجا": 3916,
    "▁جنس": 3917,
    "▁کشند": 3918,
    "▁توضیحات": 3919,
    "▁پروان": 3920,
    "تلاف": 3921,
    "▁خریداران": 3922,
    "▁جبه": 3923,
    "▁ضربات": 3924,
    "▁واسط": 3925,
    "▁نوید": 3926,
    "▁اشیا": 3927,
    "▁ازای": 3928,
    "▁آوردند": 3929,
    "لپ": 3930,
    "ایح": 3931,
    "▁بوق": 3932,
    "حریم": 3933,
    "ساب": 3934,
    "آلود": 3935,
    "ضعیف": 3936,
    "استفاده": 3937,
    "اتحاد": 3938,
    "فیلم": 3939,
    "پلیس": 3940,
    "واسط": 3941,
    "بازار": 3942,
    "▁گانه": 3943,
    "لقی": 3944,
    "لوت": 3945,
    "▁حاکم": 3946,
    "▁ظه": 3947,
    "▁اخلال": 3948,
    "▁اعتقاد": 3949,
    "▁بنگلادش": 3950,
    "▁خانوادگی": 3951,
    "▁شارژ": 3952,
    "▁شمخانی": 3953,
    "▁محوطه": 3954,
    "▁پارالمپیک": 3955,
    "▁کاغذ": 3956,
    "▁اعتیاد": 3957,
    "▁تعقیب": 3958,
    "▁تکنولوژی": 3959,
    "▁درآورد": 3960,
    "▁تجلیل": 3961,
    "▁مالاریا": 3962,
    "▁ضایع": 3963,
    "▁نوبخت": 3964,
    "▁وقایع": 3965,
    "▁ناچار": 3966,
    "▁بیاورد": 3967,
    "▁تاکتیک": 3968,
    "▁ستایش": 3969,
    "▁بکشند": 3970,
    "▁تعامل": 3971,
    "▁عضلا": 3972,
    "▁معلول": 3973,
    "▁عبدی": 3974,
    "▁نشیب": 3975,
    "▁عرف": 3976,
    "▁مخدر": 3977,
    "▁فجر": 3978,
    "▁آرشیو": 3979,
    "▁خشن": 3980,
    "▁تماشاچی": 3981,
    "▁پیشتاز": 3982,
    "▁خوشنام": 3983,
    "▁بختیار": 3984,
    "▁اتکا": 3985,
    "▁دماوند": 3986,
    "▁الزام": 3987,
    "▁متناسب": 3988,
    "▁مهرماه": 3989,
    "صریح": 3990,
    "▁وزرا": 3991,
    "▁۱۹۹۰": 3992,
    "▁آرامگاه": 3993,
    "▁فیروز": 3994,
    "مختار": 3995,
    "▁موازی": 3996,
    "▁رخداد": 3997,
    "▁الحسن": 3998,
    "▁پورتو": 3999,
    "▁کیفر": 4000,
    "▁تخلفات": 4001,
    "▁ویزا": 4002,
    "▁کشتار": 4003,
    "▁تقابل": 4004,
    "▁چراغ": 4005,
    "▁بشار": 4006,
    "▁محبوبیت": 4007,
    "▁ربط": 4008,
    "▁تعدیل": 4009,
    "▁پهن": 4010,
    "▁۶۸": 4011,
    "▁پایدار": 4012,
    "▁مطالعات": 4013,
    "▁قبال": 4014,
    "▁هواپیماهای": 4015,
    "▁بگیر": 4016,
    "▁خلوت": 4017,
    "▁احساسات": 4018,
    "▁نمادهای": 4019,
    "فتن": 4020,
    "▁روزمر": 4021,
    "▁وجه": 4022,
    "▁نکردن": 4023,
    "نشین": 4024,
    "▁خارا": 4025,
    "ویل": 4026,
    "▁اذ": 4027,
    "▁نامزدها": 4028,
    "▁تار": 4029,
    "▁جانور": 4030,
    "▁همای": 4031,
    "فاد": 4032,
    "▁همانند": 4033,
    "خاطر": 4034,
    "▁تصمیمات": 4035,
    "▁گلف": 4036,
    "خط": 4037,
    "۲۳": 4038,
    "سابقه": 4039,
    "آنتونی": 4040,
    "محققان": 4041,
    "ظاهر": 4042,
    "مراسم": 4043,
    "آمار": 4044,
    "▁سوز": 4045,
    "▁اقلی": 4046,
    "▁گیاه": 4047,
    "▁زبا": 4048,
    "▁اختلا": 4049,
    "▁مکزیک": 4050,
    "▁ملا": 4051,
    "▁کوچکتر": 4052,
    "▁خانوار": 4053,
    "ائیل": 4054,
    "▁تخصص": 4055,
    "▁سامسونگ": 4056,
    "▁عنکبوت": 4057,
    "▁پرطرفدار": 4058,
    "▁ژوز": 4059,
    "▁استخدام": 4060,
    "▁خفیف": 4061,
    "▁سکونت": 4062,
    "▁زریاب": 4063,
    "▁اخلاق": 4064,
    "▁مشکوک": 4065,
    "▁همجنس": 4066,
    "▁کیانوش": 4067,
    "▁مرجع": 4068,
    "▁معدود": 4069,
    "▁وفادار": 4070,
    "▁ناامید": 4071,
    "▁نکنند": 4072,
    "▁بمانند": 4073,
    "▁غزنی": 4074,
    "▁بیفتد": 4075,
    "▁سادات": 4076,
    "▁نیجر": 4077,
    "▁اندرکار": 4078,
    "▁رقبا": 4079,
    "▁توجیه": 4080,
    "▁رفاه": 4081,
    "▁غیاب": 4082,
    "▁ایلنا": 4083,
    "▁ترسناک": 4084,
    "▁دانشکد": 4085,
    "▁نرفت": 4086,
    "▁اسپوت": 4087,
    "▁اسپرت": 4088,
    "▁داریوش": 4089,
    "▁پیشگام": 4090,
    "▁مجرم": 4091,
    "▁پوشاند": 4092,
    "سپاری": 4093,
    "▁قطار": 4094,
    "▁بهبهان": 4095,
    "▁مکرر": 4096,
    "▁تعادل": 4097,
    "▁سناتور": 4098,
    "پادمان": 4099,
    "سیویر": 4100,
    "▁تسلیم": 4101,
    "▁دستاوردهای": 4102,
    "▁غم": 4103,
    "▁شوید": 4104,
    "▁تونس": 4105,
    "▁غالب": 4106,
    "▁سیاستمداران": 4107,
    "▁نادرست": 4108,
    "ختم": 4109,
    "▁سلف": 4110,
    "▁بوکسور": 4111,
    "▁۲۰۰۴": 4112,
    "برد": 4113,
    "▁علاقمندان": 4114,
    "▁هشتگ": 4115,
    "▁ادا": 4116,
    "▁فرح": 4117,
    "غال": 4118,
    "▁۵۹": 4119,
    "▁گیاهان": 4120,
    "▁روبروست": 4121,
    "▁فرانک": 4122,
    "▁اعضا": 4123,
    "▁کاربرد": 4124,
    "▁رادیویی": 4125,
    "▁لاری": 4126,
    "ظن": 4127,
    "▁برنز": 4128,
    "▁دارید": 4129,
    "▁کیست": 4130,
    "▁۴۶": 4131,
    "▁پال": 4132,
    "▁صند": 4133,
    "▁گزارشگران": 4134,
    "▁عج": 4135,
    "▁جولی": 4136,
    "▁وجو": 4137,
    "▁آفرین": 4138,
    "▁تمرکز": 4139,
    "▁زور": 4140,
    "▁بقا": 4141,
    "▁منته": 4142,
    "▁معنا": 4143,
    "▁ظهر": 4144,
    "▁نامدار": 4145,
    "▁دهک": 4146,
    "▁آمدند": 4147,
    "وتو": 4148,
    "شیبا": 4149,
    "تکب": 4150,
    "▁داشتیم": 4151,
    "۱۵": 4152,
    "▁برداشتن": 4153,
    "▁یافتند": 4154,
    "▁خوانندگ": 4155,
    "▁هروی": 4156,
    "کمیت": 4157,
    "▁جوز": 4158,
    "تمرکز": 4159,
    "حرف": 4160,
    "اخیرا": 4161,
    "▁۱۹۰": 4162,
    "جمعیت": 4163,
    "▁ساک": 4164,
    "▁آرا": 4165,
    "مهدی": 4166,
    "▁تعهداتش": 4167,
    "فرج": 4168,
    "▁عمو": 4169,
    "▁استراتژی": 4170,
    "وداع": 4171,
    "کوئین": 4172,
    "▁اتوبوس": 4173,
    "▁الانبیا": 4174,
    "▁صداوسیما": 4175,
    "▁نتانیاهو": 4176,
    "▁پائی": 4177,
    "▁پهپاد": 4178,
    "▁چرنکوف": 4179,
    "▁المستقبل": 4180,
    "▁توفیق": 4181,
    "▁دریابندری": 4182,
    "▁غربالگری": 4183,
    "▁تضمین": 4184,
    "▁شلوغ": 4185,
    "▁آسمایی": 4186,
    "▁آشوری": 4187,
    "گراندپری": 4188,
    "▁انگشت": 4189,
    "▁پشتیبان": 4190,
    "▁ببینند": 4191,
    "▁خیانت": 4192,
    "▁امیرشاهی": 4193,
    "▁خویش": 4194,
    "▁نیاورد": 4195,
    "▁تبادل": 4196,
    "▁مدیترانه": 4197,
    "▁تعبیر": 4198,
    "▁نظم": 4199,
    "▁توفان": 4200,
    "▁مسایل": 4201,
    "▁مقرر": 4202,
    "تاسف": 4203,
    "▁سعد": 4204,
    "▁ساویز": 4205,
    "▁۲۰۳۰": 4206,
    "▁فخر": 4207,
    "▁کوهستان": 4208,
    "▁مغاز": 4209,
    "▁استخر": 4210,
    "▁حساسیت": 4211,
    "▁حجاب": 4212,
    "▁روبرت": 4213,
    "▁چوب": 4214,
    "▁مرتب": 4215,
    "▁بزن": 4216,
    "▁شیلی": 4217,
    "▁لطف": 4218,
    "▁مقیم": 4219,
    "▁واحدها": 4220,
    "▁همینطور": 4221,
    "▁لوکا": 4222,
    "▁سیزده": 4223,
    "وارد": 4224,
    "▁رصد": 4225,
    "سلیم": 4226,
    "▁شهریار": 4227,
    "گرفته": 4228,
    "▁تایم": 4229,
    "▁قومی": 4230,
    "سلط": 4231,
    "▁اصلاحات": 4232,
    "اندا": 4233,
    "لندر": 4234,
    "زاک": 4235,
    "سیلوا": 4236,
    "▁خواهر": 4237,
    "▁صفحات": 4238,
    "▁روسا": 4239,
    "ادیو": 4240,
    "▁دیپلمات": 4241,
    "نصف": 4242,
    "▁نتوا": 4243,
    "▁۹۳": 4244,
    "▁بافت": 4245,
    "▁کاردن": 4246,
    "▁نداشتن": 4247,
    "▁مسیرهای": 4248,
    "▁انتقالات": 4249,
    "▁۱۳۳": 4250,
    "لاتین": 4251,
    "بیش": 4252,
    "▁کلام": 4253,
    "▁جنای": 4254,
    "▁سازد": 4255,
    "مایک": 4256,
    "▁شنیدن": 4257,
    "نقل": 4258,
    "▁سنج": 4259,
    "▁خطای": 4260,
    "▁۸۲": 4261,
    "▁اشکال": 4262,
    "گفت": 4263,
    "▁دوازده": 4264,
    "پوری": 4265,
    "▁ضر": 4266,
    "▁سامان": 4267,
    "▁تثب": 4268,
    "▁معما": 4269,
    "علیرضا": 4270,
    "مشخص": 4271,
    "▁۱۵۰۰": 4272,
    "جوبی": 4273,
    "▁دربار": 4274,
    "هرانا": 4275,
    "دیگر": 4276,
    "قدس": 4277,
    "درصد": 4278,
    "هدف": 4279,
    "۶۳": 4280,
    "▁مختل": 4281,
    "▁مصدوم": 4282,
    "▁ثروتمندتر": 4283,
    "▁آسوشیتدپرس": 4284,
    "▁ازبکستان": 4285,
    "▁بلومبرگ": 4286,
    "▁بپردازد": 4287,
    "▁حرکات": 4288,
    "▁غفوری": 4289,
    "▁فروپاشی": 4290,
    "▁فضاپیما": 4291,
    "▁مصلحت": 4292,
    "▁زیرساخت": 4293,
    "▁نوشیدن": 4294,
    "▁ناشناخت": 4295,
    "▁خستگی": 4296,
    "▁سردبیر": 4297,
    "▁مشکات": 4298,
    "▁گرمایش": 4299,
    "▁خرسند": 4300,
    "▁میکروب": 4301,
    "▁آشفت": 4302,
    "▁اوباما": 4303,
    "▁ناتوان": 4304,
    "▁توخل": 4305,
    "▁مداخل": 4306,
    "▁سکوت": 4307,
    "▁استودیو": 4308,
    "نظرسنجی": 4309,
    "▁بیلسا": 4310,
    "▁ابوال": 4311,
    "▁تالار": 4312,
    "▁تأیید": 4313,
    "▁بقایای": 4314,
    "▁چهاردهم": 4315,
    "ناشناس": 4316,
    "▁برگردد": 4317,
    "▁عزم": 4318,
    "▁مسافت": 4319,
    "▁همتای": 4320,
    "▁۱۳۹۵": 4321,
    "▁پایبند": 4322,
    "▁خلاقیت": 4323,
    "▁بگیرید": 4324,
    "▁سنبل": 4325,
    "▁متنوع": 4326,
    "▁سارا": 4327,
    "▁کمدی": 4328,
    "▁دیدگاه": 4329,
    "▁تشری": 4330,
    "آر": 4331,
    "▁یکسان": 4332,
    "▁شایعات": 4333,
    "▁جرد": 4334,
    "▁رسم": 4335,
    "▁ادعاهای": 4336,
    "▁حباب": 4337,
    "▁رانندگی": 4338,
    "▁فیس": 4339,
    "▁انجامید": 4340,
    "▁مایل": 4341,
    "▁استاندارد": 4342,
    "▁دستیابی": 4343,
    "ابلو": 4344,
    "روسا": 4345,
    "▁انیس": 4346,
    "قای": 4347,
    "▁کنو": 4348,
    "▁دهندگان": 4349,
    "▁مهاجران": 4350,
    "▁شانزدهم": 4351,
    "▁سربازان": 4352,
    "▁پیرو": 4353,
    "▁همکار": 4354,
    "▁نکردند": 4355,
    "▁رایج": 4356,
    "تلتی": 4357,
    "حقق": 4358,
    "▁مض": 4359,
    "صخره": 4360,
    "جمه": 4361,
    "▁سختگیر": 4362,
    "▁حام": 4363,
    "▁پروازها": 4364,
    "▁۳۵۰": 4365,
    "▁پارس": 4366,
    "قبل": 4367,
    "▁سام": 4368,
    "مزد": 4369,
    "مرگ": 4370,
    "▁۹۰۰": 4371,
    "▁بلوک": 4372,
    "نوردی": 4373,
    "آخری": 4374,
    "پژوهشگران": 4375,
    "باشگاه": 4376,
    "آفرین": 4377,
    "رقابت": 4378,
    "علاو": 4379,
    "▁نماند": 4380,
    "مرکز": 4381,
    "تحول": 4382,
    "فصل": 4383,
    "سوزی": 4384,
    "▁۵۳": 4385,
    "کاوه": 4386,
    "دهنده": 4387,
    "▁سرنشین": 4388,
    "▁بخشید": 4389,
    "رگس": 4390,
    "▁شاپو": 4391,
    "بفرستید": 4392,
    "▁آتالانتا": 4393,
    "▁اعتراف": 4394,
    "▁ثامن": 4395,
    "▁شطرنج": 4396,
    "▁غیرنظامی": 4397,
    "▁لامبورگینی": 4398,
    "▁متاثر": 4399,
    "▁مغناطیس": 4400,
    "▁وظایف": 4401,
    "▁کلاهبردار": 4402,
    "▁گابریل": 4403,
    "▁بوفالو": 4404,
    "▁سوپرلیگ": 4405,
    "▁پناهندگ": 4406,
    "▁مجاهد": 4407,
    "▁طارمی": 4408,
    "▁کریسمس": 4409,
    "▁بلاروس": 4410,
    "▁ابتکار": 4411,
    "▁یادبود": 4412,
    "▁شباهت": 4413,
    "▁ویرجی": 4414,
    "▁عارف": 4415,
    "▁طعم": 4416,
    "▁منفجر": 4417,
    "▁مخلو": 4418,
    "▁خوست": 4419,
    "▁زغال": 4420,
    "▁گشود": 4421,
    "▁ماندگار": 4422,
    "▁پراید": 4423,
    "▁کمپین": 4424,
    "▁بنکسی": 4425,
    "▁عالم": 4426,
    "▁ندیده": 4427,
    "▁نزول": 4428,
    "▁آبادان": 4429,
    "▁مطلوب": 4430,
    "▁فضلی": 4431,
    "▁دشت": 4432,
    "▁خیال": 4433,
    "▁جابجا": 4434,
    "▁تیرماه": 4435,
    "▁ببیند": 4436,
    "منازع": 4437,
    "▁اردوگاه": 4438,
    "▁انگل": 4439,
    "ارتاک": 4440,
    "ضعف": 4441,
    "▁مشوق": 4442,
    "درفتار": 4443,
    "▁بولت": 4444,
    "▁بگوییم": 4445,
    "▁قاب": 4446,
    "یکون": 4447,
    "▁شوش": 4448,
    "▁سیارک": 4449,
    "▁پلاک": 4450,
    "▁حکمتی": 4451,
    "▁اعطا": 4452,
    "▁دشمنان": 4453,
    "رویس": 4454,
    "▁گرایان": 4455,
    "بویایی": 4456,
    "مجتب": 4457,
    "▁فرق": 4458,
    "▁اعما": 4459,
    "▁ماریا": 4460,
    "ونته": 4461,
    "دترا": 4462,
    "شیو": 4463,
    "▁مستقیما": 4464,
    "▁مخاط": 4465,
    "▁جست": 4466,
    "▁جاست": 4467,
    "▁شناسد": 4468,
    "▁رول": 4469,
    "▁احمدشا": 4470,
    "▁ادب": 4471,
    "▁دوازدهم": 4472,
    "▁محب": 4473,
    "▁ماهیگیر": 4474,
    "▁صفرها": 4475,
    "ائل": 4476,
    "▁۷۶": 4477,
    "کارآمد": 4478,
    "کردن": 4479,
    "لینگ": 4480,
    "دوست": 4481,
    "▁۱۹۶۰": 4482,
    "▁کوب": 4483,
    "▁سطو": 4484,
    "قرب": 4485,
    "▁بانو": 4486,
    "مرث": 4487,
    "▁شهردار": 4488,
    "پرها": 4489,
    "یونایتد": 4490,
    "اقتصاد": 4491,
    "ماجرا": 4492,
    "انتظار": 4493,
    "منابع": 4494,
    "حمید": 4495,
    "تولید": 4496,
    "صرف": 4497,
    "برایتون": 4498,
    "لمپ": 4499,
    "یقه": 4500,
    "▁سانتریفیوژ": 4501,
    "▁عصب": 4502,
    "▁پژو": 4503,
    "دغدغه": 4504,
    "▁آپارتمان": 4505,
    "▁اثبات": 4506,
    "▁ارکستر": 4507,
    "▁اکتشاف": 4508,
    "▁تغذیه": 4509,
    "▁خسارات": 4510,
    "▁مواضع": 4511,
    "▁ورشکست": 4512,
    "▁متغیر": 4513,
    "▁واضح": 4514,
    "▁وحشتناک": 4515,
    "▁ثانوی": 4516,
    "▁گرجستان": 4517,
    "▁انحصار": 4518,
    "▁مرتضی": 4519,
    "▁بفروشد": 4520,
    "▁ستارگان": 4521,
    "▁اقبال": 4522,
    "▁پیشکسوت": 4523,
    "▁تفسیر": 4524,
    "▁مکتوب": 4525,
    "▁ببینیم": 4526,
    "▁ترافیک": 4527,
    "وخامت": 4528,
    "▁خادم": 4529,
    "▁گرسنگ": 4530,
    "فاضل": 4531,
    "▁تمدن": 4532,
    "▁مبدا": 4533,
    "▁نیسان": 4534,
    "▁نمکی": 4535,
    "▁لحن": 4536,
    "▁بازنگری": 4537,
    "▁وصل": 4538,
    "▁اسنپ": 4539,
    "▁مکتب": 4540,
    "▁آشام": 4541,
    "▁جلد": 4542,
    "▁زهره": 4543,
    "▁فروزش": 4544,
    "انصراف": 4545,
    "▁ایراد": 4546,
    "▁ایرج": 4547,
    "▁۱۹۴۰": 4548,
    "▁رومانی": 4549,
    "▁گلایه": 4550,
    "▁کووید۱۹": 4551,
    "▁پالاس": 4552,
    "▁معلم": 4553,
    "▁فرایند": 4554,
    "▁چسب": 4555,
    "▁سارس": 4556,
    "▁مدرک": 4557,
    "۷۰": 4558,
    "▁امواج": 4559,
    "خوشایند": 4560,
    "▁حاکمیت": 4561,
    "غیب": 4562,
    "▁۱۹۹۸": 4563,
    "▁بردارد": 4564,
    "▁ارزشمند": 4565,
    "▁خار": 4566,
    "▁سانتریفیوژهای": 4567,
    "▁عاشقانه": 4568,
    "▁پررنگ": 4569,
    "بپرس": 4570,
    "▁والدین": 4571,
    "▁۹۴": 4572,
    "▁الکل": 4573,
    "▁۴۷": 4574,
    "بورس": 4575,
    "▁نمایشنامه": 4576,
    "۲۴": 4577,
    "▁حتما": 4578,
    "▁دهلی": 4579,
    "یویا": 4580,
    "▁آنتی": 4581,
    "ساعد": 4582,
    "تنها": 4583,
    "دوف": 4584,
    "▁زنجان": 4585,
    "▁هفدهم": 4586,
    "▁رنجر": 4587,
    "▁سفی": 4588,
    "▁کوبا": 4589,
    "▁شام": 4590,
    "▁دال": 4591,
    "▁اینجا": 4592,
    "▁قبرس": 4593,
    "پاتی": 4594,
    "▁۸۶": 4595,
    "▁دادخواه": 4596,
    "حضرت": 4597,
    "پانی": 4598,
    "▁۷۸": 4599,
    "لاق": 4600,
    "▁۶۴": 4601,
    "خورده": 4602,
    "▁گدا": 4603,
    "▁انتها": 4604,
    "پزشک": 4605,
    "کارشناسان": 4606,
    "صندوق": 4607,
    "خانواده": 4608,
    "مجلس": 4609,
    "گفتگو": 4610,
    "رشد": 4611,
    "چرا": 4612,
    "▁نویسندگ": 4613,
    "نشست": 4614,
    "▁مقر": 4615,
    "▁مقدم": 4616,
    "سئول": 4617,
    "▁احتیاط": 4618,
    "▁احکام": 4619,
    "▁ارجاع": 4620,
    "▁تصاحب": 4621,
    "▁جامائیکا": 4622,
    "▁رژیم": 4623,
    "▁زحمت": 4624,
    "▁فلسفه": 4625,
    "▁ملاحظ": 4626,
    "▁هجدهم": 4627,
    "▁پنگوئن": 4628,
    "▁اتیوپی": 4629,
    "▁مزرعه": 4630,
    "▁هیأت": 4631,
    "▁راپینو": 4632,
    "▁سازوکار": 4633,
    "▁وروورت": 4634,
    "▁بدخشان": 4635,
    "▁ناقض": 4636,
    "▁آموخت": 4637,
    "▁پلامر": 4638,
    "▁سوگوار": 4639,
    "▁معالج": 4640,
    "▁ادوارد": 4641,
    "▁کالبد": 4642,
    "▁تعمیر": 4643,
    "▁موزیک": 4644,
    "▁برشمرد": 4645,
    "صالح": 4646,
    "▁پوتین": 4647,
    "▁گریبان": 4648,
    "▁ندارم": 4649,
    "فرگوس": 4650,
    "▁تایتان": 4651,
    "▁فیلمبردار": 4652,
    "▁مثل": 4653,
    "▁مثلث": 4654,
    "▁نکات": 4655,
    "▁آمبول": 4656,
    "▁مسترز": 4657,
    "▁دندان": 4658,
    "▁حسرت": 4659,
    "عظم": 4660,
    "▁تکنیک": 4661,
    "▁هرمز": 4662,
    "▁جزایر": 4663,
    "▁برسند": 4664,
    "▁۱۹۸۰": 4665,
    "▁مولوی": 4666,
    "▁توریست": 4667,
    "قبض": 4668,
    "عارض": 4669,
    "▁۱۹۷۰": 4670,
    "▁یزد": 4671,
    "▁خزان": 4672,
    "▁آنفیلد": 4673,
    "▁ماشه": 4674,
    "▁مرکل": 4675,
    "▁مبت": 4676,
    "▁انوش": 4677,
    "▁رایزن": 4678,
    "▁نارس": 4679,
    "▁ببرند": 4680,
    "▁شرح": 4681,
    "▁حفا": 4682,
    "▁سیبری": 4683,
    "احی": 4684,
    "▁سولو": 4685,
    "▁پرآ": 4686,
    "▁۴۱": 4687,
    "▁میهمان": 4688,
    "▁شون": 4689,
    "▁ساری": 4690,
    "▁سکت": 4691,
    "طرف": 4692,
    "▁نیل": 4693,
    "رینگ": 4694,
    "▁نابود": 4695,
    "▁بازنشستگ": 4696,
    "▁اجبار": 4697,
    "ندرسون": 4698,
    "سلسل": 4699,
    "لبان": 4700,
    "نگیز": 4701,
    "▁منطق": 4702,
    "▁کنیا": 4703,
    "▁متیو": 4704,
    "صره": 4705,
    "محمدجواد": 4706,
    "قهرمان": 4707,
    "پرسپولیس": 4708,
    "▁منصو": 4709,
    "همچنین": 4710,
    "انتشار": 4711,
    "سرعت": 4712,
    "فدرر": 4713,
    "کرونا": 4714,
    "نمایندگان": 4715,
    "نفتی": 4716,
    "فلیک": 4717,
    "▁دشمن": 4718,
    "زمینی": 4719,
    "▁دستاورد": 4720,
    "▁سلام": 4721,
    "▁تخفیف": 4722,
    "▁تزئین": 4723,
    "▁خرچنگ": 4724,
    "▁رستگار": 4725,
    "▁رونالدینیو": 4726,
    "▁زودهنگام": 4727,
    "▁شیکاگو": 4728,
    "▁هواشناسی": 4729,
    "▁ژاک": 4730,
    "▁کانسپت": 4731,
    "▁عزیزان": 4732,
    "▁مستضعفان": 4733,
    "▁پیرامون": 4734,
    "▁یخچال": 4735,
    "▁پردرآمد": 4736,
    "▁ارتقا": 4737,
    "▁نوازنده": 4738,
    "▁کمبریج": 4739,
    "▁علایم": 4740,
    "▁مسموم": 4741,
    "▁بوزمن": 4742,
    "▁سناریو": 4743,
    "▁غلط": 4744,
    "▁الاجل": 4745,
    "▁نعمت": 4746,
    "▁ندانست": 4747,
    "▁خدایاری": 4748,
    "▁پیرلو": 4749,
    "▁مکالم": 4750,
    "▁هیدرو": 4751,
    "▁فهمید": 4752,
    "▁معوقه": 4753,
    "▁الماس": 4754,
    "▁صحیح": 4755,
    "▁گواهی": 4756,
    "▁شستا": 4757,
    "▁ووهان": 4758,
    "▁پاکبان": 4759,
    "▁تعاون": 4760,
    "▁نوزاد": 4761,
    "▁اشعار": 4762,
    "▁دردناک": 4763,
    "فینیتی": 4764,
    "▁رجب": 4765,
    "▁بسیج": 4766,
    "▁ارمن": 4767,
    "▁پستاندار": 4768,
    "▁ضدحمل": 4769,
    "▁واریز": 4770,
    "▁زیدان": 4771,
    "▁طاه": 4772,
    "▁نصیب": 4773,
    "▁جناح": 4774,
    "▁فیزیکدان": 4775,
    "▁اپراتورها": 4776,
    "▁رولینگ": 4777,
    "▁کولمن": 4778,
    "▁محکم": 4779,
    "▁ریورا": 4780,
    "▁متولی": 4781,
    "▁کوبید": 4782,
    "▁مبالغ": 4783,
    "▁مراود": 4784,
    "▁پیمانکار": 4785,
    "▁اذیت": 4786,
    "▁محض": 4787,
    "▁زادگاه": 4788,
    "▁شرکا": 4789,
    "▁خراب": 4790,
    "▁شمایل": 4791,
    "▁پریش": 4792,
    "▁۱۴۰": 4793,
    "▁اعظم": 4794,
    "▁نقص": 4795,
    "▁شوت": 4796,
    "▁نامگذاری": 4797,
    "▁۱۳۰": 4798,
    "یوآ": 4799,
    "▁پاسخگو": 4800,
    "▁مضر": 4801,
    "▁آپو": 4802,
    "▁نیازها": 4803,
    "▁دایر": 4804,
    "رحیم": 4805,
    "▁۶۵۰": 4806,
    "▁حرا": 4807,
    "سپاس": 4808,
    "دربند": 4809,
    "▁۱۸۰": 4810,
    "▁بناها": 4811,
    "▁پهلو": 4812,
    "▁زخم": 4813,
    "▁میلاد": 4814,
    "تنوع": 4815,
    "شتم": 4816,
    "▁ردیاب": 4817,
    "جیغ": 4818,
    "▁مباد": 4819,
    "▁نگرفت": 4820,
    "▁شانزده": 4821,
    "رافائل": 4822,
    "منچستر": 4823,
    "تصاویر": 4824,
    "دونالد": 4825,
    "آژانس": 4826,
    "عادت": 4827,
    "خودرو": 4828,
    "مدت": 4829,
    "▁علاقمند": 4830,
    "عرض": 4831,
    "▁رمزارز": 4832,
    "▁خاشق": 4833,
    "▁فلامینگو": 4834,
    "▁ژنرا": 4835,
    "▁آلومینیوم": 4836,
    "▁ابداع": 4837,
    "▁اسراییل": 4838,
    "▁اقتدار": 4839,
    "▁انستیتو": 4840,
    "▁اپیدمی": 4841,
    "▁ایوانکوویچ": 4842,
    "▁تهاجمی": 4843,
    "▁عواقب": 4844,
    "▁غرامت": 4845,
    "▁فزاینده": 4846,
    "▁نامناسب": 4847,
    "▁پروتئین": 4848,
    "▁پومپئو": 4849,
    "▁ژیمناست": 4850,
    "▁دگرگون": 4851,
    "▁گیگز": 4852,
    "▁تعزیری": 4853,
    "▁ربیعی": 4854,
    "▁روانشناس": 4855,
    "▁سرتاسر": 4856,
    "▁سرماخورد": 4857,
    "▁مستاجر": 4858,
    "▁بگذارند": 4859,
    "▁بسازد": 4860,
    "▁مشتاق": 4861,
    "▁تفکیک": 4862,
    "▁رئوف": 4863,
    "▁قضاوت": 4864,
    "▁ویتنام": 4865,
    "▁جونیور": 4866,
    "▁محترم": 4867,
    "▁لگن": 4868,
    "▁هوندا": 4869,
    "▁وگاس": 4870,
    "▁جزییات": 4871,
    "▁البرز": 4872,
    "▁وودز": 4873,
    "▁خاشقچی": 4874,
    "▁استعمار": 4875,
    "رطوب": 4876,
    "▁عثمان": 4877,
    "▁استفانو": 4878,
    "▁بیافتد": 4879,
    "▁امریکا": 4880,
    "▁مارسیال": 4881,
    "▁سکسک": 4882,
    "▁۱۳۹۶": 4883,
    "▁ندهد": 4884,
    "▁مکلف": 4885,
    "▁دوستداران": 4886,
    "▁خیام": 4887,
    "▁عصبانی": 4888,
    "▁تصویربردار": 4889,
    "▁شکوه": 4890,
    "▁سپید": 4891,
    "▁معاش": 4892,
    "▁فروغ": 4893,
    "▁شایست": 4894,
    "▁ولد": 4895,
    "▁رامش": 4896,
    "▁شفا": 4897,
    "▁معاد": 4898,
    "▁مارچ": 4899,
    "▁شناگر": 4900,
    "تینو": 4901,
    "▁شیمی": 4902,
    "▁میرزا": 4903,
    "▁گردانند": 4904,
    "عفون": 4905,
    "امضاکنندگان": 4906,
    "آقازاده": 4907,
    "▁گروگانگیر": 4908,
    "▁پویا": 4909,
    "صحرا": 4910,
    "روسیا": 4911,
    "▁لخت": 4912,
    "▁شنید": 4913,
    "حلال": 4914,
    "▁نگفت": 4915,
    "برگزار": 4916,
    "▁گازها": 4917,
    "لائو": 4918,
    "راجر": 4919,
    "واشی": 4920,
    "اهید": 4921,
    "موث": 4922,
    "ویکتور": 4923,
    "همیلتون": 4924,
    "فعالان": 4925,
    "انتخابات": 4926,
    "اطلاعات": 4927,
    "آغاز": 4928,
    "گستر": 4929,
    "واکنش": 4930,
    "ویروس": 4931,
    "چشم": 4932,
    "وحید": 4933,
    "تالیا": 4934,
    "▁خلاق": 4935,
    "▁بتهوون": 4936,
    "▁بشردوستانه": 4937,
    "▁قزاقستان": 4938,
    "▁آبراموویچ": 4939,
    "▁آشپز": 4940,
    "▁بوئن": 4941,
    "▁توئیت": 4942,
    "▁جاپلقی": 4943,
    "▁قورباغه": 4944,
    "▁لاجورد": 4945,
    "▁متخلفان": 4946,
    "▁مونتاژ": 4947,
    "▁کارداشیان": 4948,
    "▁کامبوج": 4949,
    "▁بلندپرواز": 4950,
    "▁بوچانی": 4951,
    "▁ترانزیت": 4952,
    "▁فرسایش": 4953,
    "▁پاراگوئه": 4954,
    "▁یونسکو": 4955,
    "▁خوشبخت": 4956,
    "▁مظنون": 4957,
    "▁روشنفکر": 4958,
    "▁سنگاپور": 4959,
    "▁فرانسیس": 4960,
    "▁کرگدن": 4961,
    "▁بفروشند": 4962,
    "▁تضاد": 4963,
    "▁مصیبت": 4964,
    "▁جعفر": 4965,
    "▁گاگا": 4966,
    "▁زیارت": 4967,
    "▁آویو": 4968,
    "▁حاتمی": 4969,
    "▁جواهر": 4970,
    "▁انباشت": 4971,
    "▁بذر": 4972,
    "▁تبعید": 4973,
    "▁یوسف": 4974,
    "▁تکامل": 4975,
    "▁اشنویه": 4976,
    "▁بفتا": 4977,
    "▁قسط": 4978,
    "▁فطر": 4979,
    "▁اصالت": 4980,
    "▁متوفی": 4981,
    "▁کاشف": 4982,
    "▁نپال": 4983,
    "▁فتاح": 4984,
    "▁ممیز": 4985,
    "▁گناه": 4986,
    "▁موعد": 4987,
    "▁حرارت": 4988,
    "ئرنیک": 4989,
    "▁پرشور": 4990,
    "▁صیاد": 4991,
    "▁گردنبند": 4992,
    "▁بنجام": 4993,
    "▁ذات": 4994,
    "▁محرک": 4995,
    "▁حریر": 4996,
    "▁۱۹۶۷": 4997,
    "(": 4998,
    "ژ": 4999,
    "ئ": 5000
  }
}