{
  "src_word2id": {
    "<pad>": 0,
    "<s>": 1,
    "</s>": 2,
    "<unk>": 3,
    "ی": 4,
    "ه": 5,
    ".": 6,
    "ان": 7,
    "ت": 8,
    "د": 9,
    "م": 10,
    "▁": 11,
    "ر": 12,
    "ش": 13,
    "ا": 14,
    "▁است": 15,
    "ن": 16,
    "ل": 17,
    "▁می": 18,
    "ب": 19,
    "س": 20,
    "و": 21,
    "ز": 22,
    "ک": 23,
    "▁های": 24,
    "▁م": 25,
    "▁ایران": 26,
    "ق": 27,
    "ع": 28,
    "ند": 29,
    "▁ت": 30,
    "ف": 31,
    "ات": 32,
    "▁ا": 33,
    "ور": 34,
    "▁بر": 35,
    "▁ن": 36,
    "▁سال": 37,
    "ال": 38,
    "ح": 39,
    "ج": 40,
    "ار": 41,
    "▁شده": 42,
    "ست": 43,
    "ین": 44,
    "▁آ": 45,
    "خ": 46,
    "،": 47,
    "▁یک": 48,
    "▁بود": 49,
    "▁ها": 50,
    "▁شد": 51,
    "▁ع": 52,
    "▁ای": 53,
    "▁و": 54,
    "▁ش": 55,
    "ص": 56,
    "ام": 57,
    "▁ب": 58,
    "▁دو": 59,
    "▁ر": 60,
    "پ": 61,
    "▁ف": 62,
    "▁تصویر": 63,
    "ون": 64,
    "▁ج": 65,
    "▁کرد": 66,
    "▁س": 67,
    "های": 68,
    "اد": 69,
    "▁کرده": 70,
    "ده": 71,
    "▁در": 72,
    "▁ح": 73,
    "▁خ": 74,
    "منبع": 75,
    "ای": 76,
    "▁کار": 77,
    "گ": 78,
    "ری": 79,
    "▁خود": 80,
    "ط": 81,
    "▁شود": 82,
    "▁گفته": 83,
    "از": 84,
    "▁سر": 85,
    "▁کند": 86,
    "یت": 87,
    "▁با": 88,
    "ید": 89,
    "▁اند": 90,
    "▁روز": 91,
    "گر": 92,
    "؛": 93,
    "بر": 94,
    "▁پیش": 95,
    "▁کرونا": 96,
    "اس": 97,
    "▁د": 98,
    "در": 99,
    "تر": 100,
    "▁ق": 101,
    "▁بی": 102,
    "را": 103,
    "ود": 104,
    "اب": 105,
    "▁دست": 106,
    "▁ماه": 107,
    "▁کشور": 108,
    "چ": 109,
    "▁پ": 110,
    "▁فر": 111,
    "غ": 112,
    "نگ": 113,
    "گاه": 114,
    "▁به": 115,
    "▁آمریکا": 116,
    "ض": 117,
    "▁یا": 118,
    "▁گزارش": 119,
    "▁سو": 120,
    "نا": 121,
    "مان": 122,
    "▁رو": 123,
    "▁ص": 124,
    "وی": 125,
    "▁ز": 126,
    "ول": 127,
    "ها": 128,
    "ما": 129,
    "▁داد": 130,
    "▁گفت": 131,
    "▁کنند": 132,
    "۰": 133,
    "▁بازی": 134,
    "لا": 135,
    "▁چ": 136,
    "▁را": 137,
    "▁فوتبال": 138,
    "دی": 139,
    "▁دیگر": 140,
    "دا": 141,
    "▁دولت": 142,
    "▁گ": 143,
    "▁تر": 144,
    "خت": 145,
    "▁دارد": 146,
    "با": 147,
    "▁هم": 148,
    "ایی": 149,
    "▁هر": 150,
    "▁نا": 151,
    "وا": 152,
    "▁دهد": 153,
    "لی": 154,
    "▁تیم": 155,
    "یر": 156,
    "▁پر": 157,
    "▁مع": 158,
    "رو": 159,
    "▁بار": 160,
    "▁بین": 161,
    "گی": 162,
    "▁اعلام": 163,
    "▁مر": 164,
    "▁شرکت": 165,
    "ظ": 166,
    "▁مو": 167,
    "▁مت": 168,
    "▁قرار": 169,
    "▁باز": 170,
    "▁هزار": 171,
    "▁پس": 172,
    "ث": 173,
    "یم": 174,
    "▁کا": 175,
    "▁نام": 176,
    "▁جهان": 177,
    "▁نو": 178,
    "▁مس": 179,
    "▁سی": 180,
    "یک": 181,
    "▁شهر": 182,
    "ذ": 183,
    "▁ل": 184,
    "▁سه": 185,
    "▁داده": 186,
    "▁رئیس": 187,
    "▁سا": 188,
    "▁دی": 189,
    "▁نفت": 190,
    "▁آن": 191,
    "اف": 192,
    "▁گذشته": 193,
    "ستان": 194,
    "او": 195,
    "▁کل": 196,
    "نی": 197,
    "▁پی": 198,
    "می": 199,
    "▁۲": 200,
    "▁خواهد": 201,
    "▁من": 202,
    "▁آقای": 203,
    "▁او": 204,
    "آ": 205,
    "▁قهرمان": 206,
    "▁اس": 207,
    "▁رسید": 208,
    "▁ام": 209,
    "▁مج": 210,
    "▁ط": 211,
    "▁گوید": 212,
    "این": 213,
    "▁داشت": 214,
    "دار": 215,
    "▁بعد": 216,
    "کن": 217,
    "انه": 218,
    "▁میلیون": 219,
    "لو": 220,
    "▁درباره": 221,
    "وم": 222,
    "▁چند": 223,
    "مین": 224,
    "▁لیگ": 225,
    "▁روی": 226,
    "▁پا": 227,
    "اک": 228,
    "ئ": 229,
    "▁درصد": 230,
    "▁تو": 231,
    "به": 232,
    "۸": 233,
    "▁باید": 234,
    "▁آنها": 235,
    "▁نفر": 236,
    "▁جدید": 237,
    "▁از": 238,
    "▁مح": 239,
    "کار": 240,
    "سی": 241,
    "▁افزایش": 242,
    "▁کن": 243,
    "▁شا": 244,
    "▁تهران": 245,
    "▁کو": 246,
    "▁بازار": 247,
    "۲": 248,
    "▁دلیل": 249,
    "▁افغانستان": 250,
    "▁حال": 251,
    "▁گر": 252,
    "▁دان": 253,
    "۱": 254,
    "▁'": 255,
    "▁خبر": 256,
    "۹": 257,
    "'": 258,
    "▁دلار": 259,
    "▁اروپا": 260,
    "گو": 261,
    "فت": 262,
    "▁هفته": 263,
    "▁بد": 264,
    "▁ارز": 265,
    "رسی": 266,
    "▁قیمت": 267,
    "بی": 268,
    "▁۴": 269,
    "فا": 270,
    "▁بیشتر": 271,
    "▁نظر": 272,
    "▁ویروس": 273,
    "▁فیلم": 274,
    "▁زمان": 275,
    "ساز": 276,
    "▁همچن": 277,
    "ران": 278,
    "▁بزرگ": 279,
    "۵": 280,
    "▁اش": 281,
    "▁تا": 282,
    "▁کم": 283,
    ":": 284,
    "کر": 285,
    "▁سازمان": 286,
    "وش": 287,
    "▁گرفت": 288,
    "▁شب": 289,
    "▁بوده": 290,
    "▁اخیر": 291,
    "▁بخش": 292,
    "▁کر": 293,
    "▁۱۹": 294,
    "▁مورد": 295,
    "▁اول": 296,
    "▁علی": 297,
    "▁ترین": 298,
    "▁ملی": 299,
    "▁جمهوری": 300,
    "▁دار": 301,
    "▁ورزش": 302,
    "▁برگزار": 303,
    "▁۳": 304,
    "کس": 305,
    "▁بریتانیا": 306,
    "▁هستند": 307,
    "▁تولید": 308,
    "▁جهانی": 309,
    "▁نمی": 310,
    "گان": 311,
    "مند": 312,
    "۶": 313,
    "▁عنوان": 314,
    "▁همه": 315,
    "▁نیست": 316,
    "▁رفت": 317,
    "▁تع": 318,
    "▁جو": 319,
    "▁راه": 320,
    "▁گرفته": 321,
    "وز": 322,
    "▁گل": 323,
    "▁امروز": 324,
    "▁کس": 325,
    "▁چین": 326,
    "▁کاهش": 327,
    "فر": 328,
    "▁بالا": 329,
    "له": 330,
    "یل": 331,
    "▁۹": 332,
    "ژ": 333,
    "▁ال": 334,
    "کش": 335,
    "▁بیش": 336,
    "▁مجلس": 337,
    "▁کردند": 338,
    "▁وزیر": 339,
    "▁یکی": 340,
    "۴": 341,
    "۷": 342,
    "▁آغاز": 343,
    "ترین": 344,
    "▁چهار": 345,
    "من": 346,
    "سیون": 347,
    "▁گو": 348,
    "وس": 349,
    "▁وزارت": 350,
    "▁هو": 351,
    "▁بودند": 352,
    "▁بن": 353,
    "اری": 354,
    "▁غ": 355,
    "قط": 356,
    "▁مقابل": 357,
    "▁قبل": 358,
    "▁زن": 359,
    "▁اساس": 360,
    "بار": 361,
    "▁حدود": 362,
    "▁شدن": 363,
    "▁یافت": 364,
    "▁اج": 365,
    "▁مد": 366,
    "کو": 367,
    "▁نشان": 368,
    "سا": 369,
    "▁حضور": 370,
    "۳": 371,
    "▁واکسن": 372,
    "▁برنامه": 373,
    "▁نیز": 374,
    "▁بل": 375,
    "▁صد": 376,
    "▁آب": 377,
    "▁اقتصادی": 378,
    "▁پایان": 379,
    "▁ساخت": 380,
    "▁خودرو": 381,
    "▁باشگاه": 382,
    "▁پنج": 383,
    "▁زمین": 384,
    "▁بانک": 385,
    "▁داشته": 386,
    "▁۶": 387,
    "▁رسان": 388,
    "کل": 389,
    "▁صورت": 390,
    "▁نیم": 391,
    "▁گروه": 392,
    "داد": 393,
    "که": 394,
    "▁باشد": 395,
    "دن": 396,
    "▁انجام": 397,
    "▁وارد": 398,
    "نامه": 399,
    "▁میلیارد": 400,
    "اق": 401,
    "▁توافق": 402,
    "▁محمد": 403,
    "▁منتشر": 404,
    "نه": 405,
    "▁اولین": 406,
    "▁اف": 407,
    "▁تومان": 408,
    "پر": 409,
    "▁هنر": 410,
    "▁شیوع": 411,
    "▁تحریم": 412,
    "▁۵": 413,
    "▁بازیکن": 414,
    "▁مقام": 415,
    "▁فصل": 416,
    "دامه": 417,
    "زار": 418,
    "▁آزاد": 419,
    "گیری": 420,
    "▁۱۳": 421,
    "▁نوشت": 422,
    "▁استفاده": 423,
    "▁تمام": 424,
    "▁خواست": 425,
    "▁جمله": 426,
    "▁مل": 427,
    "▁جمع": 428,
    "▁سن": 429,
    "▁شورا": 430,
    "▁حقوق": 431,
    "▁وجود": 432,
    "▁تاریخ": 433,
    "▁مردم": 434,
    "▁مدیر": 435,
    "روز": 436,
    "▁توان": 437,
    "کی": 438,
    "▁ژ": 439,
    "داری": 440,
    "▁۷": 441,
    "▁دارند": 442,
    "▁تغییر": 443,
    "▁شوند": 444,
    "؟": 445,
    "گیر": 446,
    "▁غیر": 447,
    "▁پو": 448,
    "▁همین": 449,
    "▁خارج": 450,
    "▁مسابقات": 451,
    "▁اع": 452,
    "▁۲۰۱": 453,
    "آقای": 454,
    "▁بو": 455,
    "▁نزدیک": 456,
    "شان": 457,
    "▁گیری": 458,
    "▁زندگی": 459,
    "مر": 460,
    "▁جام": 461,
    "۰۰": 462,
    "▁کی": 463,
    "▁مسابقه": 464,
    "▁المللی": 465,
    "▁سابق": 466,
    "▁مالی": 467,
    "▁دنیا": 468,
    "▁ده": 469,
    "جو": 470,
    "▁پای": 471,
    "▁فروش": 472,
    "▁اعتراض": 473,
    "▁شمار": 474,
    "وار": 475,
    "▁ماشین": 476,
    "▁اقتصاد": 477,
    "▁جان": 478,
    "گذار": 479,
    "▁میان": 480,
    "رضا": 481,
    "▁یو": 482,
    "▁زد": 483,
    "▁وقت": 484,
    "▁جنوب": 485,
    "▁آینده": 486,
    "▁۱۰": 487,
    "▁مهم": 488,
    "▁وضعیت": 489,
    "▁اسلامی": 490,
    "▁نرخ": 491,
    "▁برتر": 492,
    "▁بسیاری": 493,
    "▁تواند": 494,
    "▁جا": 495,
    "▁تنها": 496,
    "▁طور": 497,
    "▁ض": 498,
    "ثبت": 499,
    "▁شرایط": 500,
    "▁امسال": 501,
    "ائ": 502,
    "▁بیماری": 503,
    "▁تصمیم": 504,
    "▁مرد": 505,
    "▁لا": 506,
    "▁اقدام": 507,
    "▁امنیت": 508,
    "▁شدند": 509,
    "▁انتخابات": 510,
    "▁ان": 511,
    "▁هیچ": 512,
    "▁حالی": 513,
    "▁کشورهای": 514,
    "اکنون": 515,
    "▁فعالیت": 516,
    "▁برای": 517,
    "▁زنان": 518,
    "▁زیاد": 519,
    "▁مختلف": 520,
    "▁زیر": 521,
    "▁طرح": 522,
    "▁دوران": 523,
    "▁که": 524,
    "▁خانه": 525,
    "▁اجتماعی": 526,
    "عث": 527,
    "▁سفر": 528,
    "▁منبع": 529,
    "▁روحانی": 530,
    "▁فضا": 531,
    "▁سینما": 532,
    "▁تلاش": 533,
    "▁مسئول": 534,
    "▁نخست": 535,
    "▁ولی": 536,
    "▁موج": 537,
    "▁خط": 538,
    "▁برخ": 539,
    "▁مار": 540,
    "▁بسیار": 541,
    "▁گویند": 542,
    "▁خارجه": 543,
    "▁پول": 544,
    "▁هنو": 545,
    "▁خانواده": 546,
    "▁افراد": 547,
    "▁آلمان": 548,
    "▁گرد": 549,
    "▁کردن": 550,
    "▁آخر": 551,
    "▁تازه": 552,
    "▁بهداشت": 553,
    "▁کمک": 554,
    "▁درآمد": 555,
    "▁بورس": 556,
    "توسط": 557,
    "▁قانون": 558,
    "▁مدت": 559,
    "▁دور": 560,
    "▁ماند": 561,
    "▁احتمال": 562,
    "▁ریاست": 563,
    "▁آمار": 564,
    "▁محل": 565,
    "▁دانشگاه": 566,
    "▁درگذشت": 567,
    "▁دهه": 568,
    "▁خرید": 569,
    "▁قطع": 570,
    "▁فرا": 571,
    "▁اثر": 572,
    "▁۸": 573,
    "▁حالا": 574,
    "▁تحقیق": 575,
    "▁اصلی": 576,
    "زن": 577,
    "▁جمهور": 578,
    "▁توجه": 579,
    "▁دوره": 580,
    "▁مرکزی": 581,
    "▁سهام": 582,
    "▁کامل": 583,
    "▁عکس": 584,
    "▁منطقه": 585,
    "▁مشکل": 586,
    "▁خر": 587,
    "▁زندان": 588,
    "ستاد": 589,
    "▁نظام": 590,
    "▁رسمی": 591,
    "▁جنگ": 592,
    "▁هی": 593,
    "▁سرمایه": 594,
    "▁هفت": 595,
    "▁کنار": 596,
    "▁اجرای": 597,
    "▁برابر": 598,
    "▁پیدا": 599,
    "▁موسیقی": 600,
    "▁خواه": 601,
    "▁اینک": 602,
    "▁همراه": 603,
    "▁حت": 604,
    "▁لو": 605,
    "▁رقابت": 606,
    "▁هسته": 607,
    "▁۲۰": 608,
    "▁کمی": 609,
    "▁فرهنگ": 610,
    "▁عمل": 611,
    "شروع": 612,
    "▁مجموع": 613,
    "▁بعضی": 614,
    "▁مرکز": 615,
    "▁جای": 616,
    "▁اطلاعات": 617,
    "▁داخل": 618,
    "▁بست": 619,
    "▁سل": 620,
    "▁این": 621,
    "▁رهبر": 622,
    "▁پرسپولیس": 623,
    "▁واقع": 624,
    "▁میلادی": 625,
    "▁سیاست": 626,
    "▁دهند": 627,
    "▁آمریکایی": 628,
    "▁نتیج": 629,
    "▁عراق": 630,
    "▁شکست": 631,
    "▁نقش": 632,
    "▁گذاشت": 633,
    "▁برجام": 634,
    "▁اشار": 635,
    "▁کشتی": 636,
    "▁طرف": 637,
    "▁نگران": 638,
    "▁نهاد": 639,
    "ندگان": 640,
    "▁فدرا": 641,
    "▁نمایش": 642,
    "▁رشد": 643,
    "▁بودجه": 644,
    "▁دنبال": 645,
    "▁حاضر": 646,
    "▁سپاه": 647,
    "▁حمله": 648,
    "▁جایزه": 649,
    "▁ممکن": 650,
    "▁انگلیس": 651,
    "▁کمتر": 652,
    "▁نشده": 653,
    "▁فعال": 654,
    "▁سیاسی": 655,
    "▁حمایت": 656,
    "▁همکاری": 657,
    "▁نیاز": 658,
    "▁خام": 659,
    "▁قو": 660,
    "▁افت": 661,
    "▁دریافت": 662,
    "▁پرداخت": 663,
    "▁تعداد": 664,
    "▁اسرائیل": 665,
    "▁خاطر": 666,
    "▁مراسم": 667,
    "▁آورد": 668,
    "▁واکنش": 669,
    "▁کتاب": 670,
    "▁الله": 671,
    "▁موضوع": 672,
    "▁ساعت": 673,
    "▁بهترین": 674,
    "▁مادر": 675,
    "▁استقلال": 676,
    "▁هدف": 677,
    "▁ندارد": 678,
    "-": 679,
    "▁شناس": 680,
    "▁خواند": 681,
    "▁دیدار": 682,
    "▁۲۰۲۰": 683,
    "▁جلو": 684,
    "▁آزمایش": 685,
    "▁دقیق": 686,
    "▁پل": 687,
    "▁تاثیر": 688,
    "▁آژانس": 689,
    "▁اتفاق": 690,
    "▁فرانسه": 691,
    "▁شنبه": 692,
    "▁عرض": 693,
    "▁تعطیل": 694,
    "▁ترکیه": 695,
    "▁آسیا": 696,
    "▁مرگ": 697,
    "ئو": 698,
    "▁دریا": 699,
    "▁نکرد": 700,
    "▁هواپیما": 701,
    "▁خبرگزا": 702,
    "▁ویژه": 703,
    "ِ": 704,
    "▁عربستان": 705,
    "▁رسد": 706,
    "▁انداز": 707,
    "▁خطر": 708,
    "▁انتشار": 709,
    "▁پیروز": 710,
    "▁۲۰۰": 711,
    "▁گذاری": 712,
    "▁انرژی": 713,
    "▁چنین": 714,
    "▁نامزد": 715,
    "▁ابتدا": 716,
    "▁هشدار": 717,
    ")": 718,
    "▁پرواز": 719,
    "▁۳۰": 720,
    "▁ترامپ": 721,
    "▁محدودیت": 722,
    "▁کنیم": 723,
    "▁ابتلا": 724,
    "▁مبارز": 725,
    "▁نهایی": 726,
    "▁زبان": 727,
    "▁اتحاد": 728,
    "▁کالا": 729,
    "▁چیز": 730,
    "▁افتاد": 731,
    "▁ایجاد": 732,
    "▁میزان": 733,
    "▁قرارداد": 734,
    "▁قابل": 735,
    "▁چشم": 736,
    "▁خصوص": 737,
    "▁مشخص": 738,
    "▁تبدیل": 739,
    "▁حرف": 740,
    "▁خواهند": 741,
    "▁نمایند": 742,
    "▁مذاکرات": 743,
    "▁چرا": 744,
    "▁صادرات": 745,
    "▁کشته": 746,
    "▁نسبت": 747,
    "▁احمد": 748,
    "▁۱۵": 749,
    "▁جریان": 750,
    "▁(": 751,
    "▁۲۵": 752,
    "▁توانست": 753,
    "▁عضو": 754,
    "▁حسن": 755,
    "▁متهم": 756,
    "بدون": 757,
    "▁پرونده": 758,
    "▁ایتالیا": 759,
    "▁بشر": 760,
    "▁موفق": 761,
    "▁مخالف": 762,
    "▁خیل": 763,
    "▁تلویزیون": 764,
    "▁هشت": 765,
    "▁تایید": 766,
    "▁مبتلا": 767,
    "▁انتقاد": 768,
    "▁بیمارستان": 769,
    "▁مربی": 770,
    "▁غرب": 771,
    "▁فاصله": 772,
    "▁مربوط": 773,
    "▁نداشت": 774,
    "▁روسیه": 775,
    "▁انسان": 776,
    "▁بازگشت": 777,
    "▁طریق": 778,
    "▁بازداشت": 779,
    "▁حکم": 780,
    "▁انتخاب": 781,
    "▁ارتباط": 782,
    "▁۱۲": 783,
    "▁سرمربی": 784,
    "▁لیورپول": 785,
    "▁رکورد": 786,
    "▁تنیس": 787,
    "▁معاون": 788,
    "▁نمایندگان": 789,
    "▁نبود": 790,
    "▁سخن": 791,
    "▁نشست": 792,
    "▁تماشا": 793,
    "▁بیانی": 794,
    "خوان": 795,
    "▁شامل": 796,
    "▁حکومت": 797,
    "کنندگان": 798,
    "▁اعضای": 799,
    "▁محمو": 800,
    "▁پلیس": 801,
    "▁اتمی": 802,
    "▁۵۰": 803,
    "▁قرنطینه": 804,
    "▁آثار": 805,
    "▁سطح": 806,
    "▁شناخت": 807,
    "▁داستان": 808,
    "▁صنعت": 809,
    "▁قدرت": 810,
    "▁طول": 811,
    "▁سخنگوی": 812,
    "▁عمومی": 813,
    "▁کابل": 814,
    "▁خوب": 815,
    "▁تحت": 816,
    "▁منابع": 817,
    "▁امتیاز": 818,
    "▁لندن": 819,
    "▁لغو": 820,
    "▁اتهام": 821,
    "▁خورد": 822,
    "▁انقلاب": 823,
    "▁کشید": 824,
    "▁همزمان": 825,
    "▁کووید": 826,
    "▁مسافر": 827,
    "▁موارد": 828,
    "▁نقل": 829,
    "▁پزشکی": 830,
    "▁توصی": 831,
    "نشین": 832,
    "▁هند": 833,
    "▁ظریف": 834,
    "▁نژاد": 835,
    "▁دختر": 836,
    "▁گسترده": 837,
    "▁حذف": 838,
    "▁بشک": 839,
    "ستاره": 840,
    "▁امضا": 841,
    "▁فشار": 842,
    "أ": 843,
    "▁جلسه": 844,
    "▁مطرح": 845,
    "▁طراح": 846,
    "▁انتظار": 847,
    "▁صندوق": 848,
    "▁المپیک": 849,
    "▁انتقال": 850,
    "▁حرکت": 851,
    "▁محکوم": 852,
    "▁امکان": 853,
    "▁تصوی": 854,
    "▁برنده": 855,
    "▁پشت": 856,
    "▁چهر": 857,
    "▁تورم": 858,
    "▁ممنوع": 859,
    "▁فوری": 860,
    "▁ورود": 861,
    "▁۲۰۱۹": 862,
    "▁صادر": 863,
    "▁شخص": 864,
    "▁اطلاع": 865,
    "▁باشند": 866,
    "▁نویس": 867,
    "▁رقم": 868,
    "▁متوقف": 869,
    "▁پاسخ": 870,
    "▁بیمار": 871,
    "▁دفاع": 872,
    "▁نشد": 873,
    "▁کوچک": 874,
    "▁۱۴۰۰": 875,
    "▁ارائه": 876,
    "▁بحران": 877,
    "▁معرف": 878,
    "▁سعی": 879,
    "▁۱۱": 880,
    "▁اظهار": 881,
    "▁گیرد": 882,
    "▁موسس": 883,
    "▁مصاحبه": 884,
    "▁نقاش": 885,
    "▁۱۷": 886,
    "▁فینال": 887,
    "▁سراسر": 888,
    "▁تشکیل": 889,
    "▁الکتریکی": 890,
    "▁بارسلونا": 891,
    "▁قرمز": 892,
    "▁حساب": 893,
    "▁خانم": 894,
    "اخر": 895,
    "▁هنگام": 896,
    "▁مصوب": 897,
    "▁نیروهای": 898,
    "▁جامعه": 899,
    "▁سیستم": 900,
    "▁قرن": 901,
    "▁منچستر": 902,
    "▁کارشناس": 903,
    "▁چگون": 904,
    "▁غذا": 905,
    "▁برخورد": 906,
    "▁محیط": 907,
    "▁استرالیا": 908,
    "▁گذر": 909,
    "▁طولانی": 910,
    "▁فروردین": 911,
    "▁ماسک": 912,
    "نجر": 913,
    "▁تجرب": 914,
    "▁بتوان": 915,
    "▁اسفند": 916,
    "▁مالک": 917,
    "فورد": 918,
    "▁رانند": 919,
    "▁پذیر": 920,
    "▁واحد": 921,
    "▁آسیب": 922,
    "▁ضرب": 923,
    "▁خروج": 924,
    "▁روبرو": 925,
    "▁مغز": 926,
    "▁اختلاف": 927,
    "▁دونالد": 928,
    "▁میزبان": 929,
    "▁۱۴": 930,
    "▁اسپانیا": 931,
    "▁اختیار": 932,
    "▁ترکیب": 933,
    "▁نگهبان": 934,
    "▁امیدوار": 935,
    "▁طبق": 936,
    "▁عامل": 937,
    "▁محدود": 938,
    "▁درخواست": 939,
    "▁مارادونا": 940,
    "▁صحبت": 941,
    "▁معمول": 942,
    "▁کیلومتر": 943,
    "▁خبرنگار": 944,
    "▁تجاری": 945,
    "▁دوشنبه": 946,
    "▁قضایی": 947,
    "▁گذشت": 948,
    "▁۱۶": 949,
    "▁تهدید": 950,
    "▁تاکید": 951,
    "▁تقاضا": 952,
    "▁چهارشنبه": 953,
    "▁سقوط": 954,
    "▁دلایل": 955,
    "▁افزود": 956,
    "▁شاخص": 957,
    "▁اعدام": 958,
    "▁بنزین": 959,
    "▁مشترک": 960,
    "▁ژاپن": 961,
    "▁پارسال": 962,
    "▁ترتیب": 963,
    "▁آوریل": 964,
    "▁همیشه": 965,
    "▁کارگردان": 966,
    "▁کوتاه": 967,
    "▁ادبی": 968,
    "▁کنترل": 969,
    "▁صفح": 970,
    "▁بیرون": 971,
    "▁مصرف": 972,
    "▁توسعه": 973,
    "▁روابط": 974,
    "▁۱۸": 975,
    "▁نویسنده": 976,
    "▁تقریبا": 977,
    "▁هواداران": 978,
    "▁قوانین": 979,
    "محمد": 980,
    "▁پژوهش": 981,
    "▁متفاوت": 982,
    "▁شجریان": 983,
    "▁نظیر": 984,
    "▁سلامت": 985,
    "▁یونایتد": 986,
    "▁انفجار": 987,
    "▁نتایج": 988,
    "▁شهروندان": 989,
    "▁خوزستان": 990,
    "▁مناطق": 991,
    "▁خورشید": 992,
    "▁پیشنهاد": 993,
    "حفظ": 994,
    "▁ونزوئلا": 995,
    "▁پروژه": 996,
    "▁انگیز": 997,
    "▁معروف": 998,
    "▁اوپک": 999,
    "(": 1000
  }
}