<unk>	0
<s>	0
</s>	0
ی	-2.69632
ه	-3.4702
.	-3.85684
ان	-4.13209
ت	-4.21103
م	-4.27858
ل	-4.3351
د	-4.34751
ر	-4.36043
▁	-4.3608
ا	-4.43163
▁است	-4.44656
ش	-4.45147
ن	-4.46746
▁می	-4.62507
ب	-4.69964
س	-4.74453
و	-4.86019
ق	-4.94829
ز	-4.97862
▁های	-4.98879
ک	-4.9957
▁ایران	-5.0255
▁م	-5.05113
ع	-5.13659
▁ت	-5.19767
ات	-5.24073
▁ن	-5.27894
ف	-5.28314
ند	-5.30169
ور	-5.30803
▁ا	-5.35211
ج	-5.41072
ال	-5.42441
▁سال	-5.42499
ح	-5.42944
خ	-5.4437
▁بر	-5.46745
▁شده	-5.47157
▁ش	-5.50911
،	-5.51199
▁ها	-5.5513
▁بود	-5.56285
▁ع	-5.56462
▁شد	-5.58422
▁یک	-5.58725
ار	-5.62503
▁س	-5.62642
ام	-5.6429
ست	-5.65247
▁و	-5.67234
▁ای	-5.67334
ص	-5.68138
▁ب	-5.68517
▁آ	-5.72439
ین	-5.72658
ون	-5.78433
▁ف	-5.79041
اد	-5.79827
▁ج	-5.80988
▁دو	-5.84239
▁تصویر	-5.84339
▁کرد	-5.85286
▁کرده	-5.86373
های	-5.86967
▁خ	-5.8735
ده	-5.89041
▁در	-5.89919
ای	-5.90176
پ	-5.97426
▁ر	-6.01991
منبع	-6.03128
▁ح	-6.04085
▁کار	-6.05991
ط	-6.07444
گ	-6.08431
▁خود	-6.08583
▁د	-6.08639
▁شود	-6.08778
ری	-6.09361
▁اند	-6.11867
▁گفته	-6.13179
▁ق	-6.17574
ید	-6.18746
▁کند	-6.19513
▁بی	-6.2075
▁با	-6.22014
؛	-6.22462
▁روز	-6.22574
یت	-6.23082
▁سر	-6.23126
▁پیش	-6.24278
اب	-6.26971
از	-6.2723
ول	-6.27736
▁ز	-6.27823
▁کرونا	-6.28035
بر	-6.28463
تر	-6.28801
غ	-6.28991
اس	-6.29356
▁پ	-6.30423
ود	-6.30534
در	-6.32234
▁دست	-6.34069
▁ماه	-6.35119
▁کشور	-6.36955
چ	-6.37239
را	-6.37998
ض	-6.42267
گر	-6.43697
▁به	-6.47063
مان	-6.48124
▁آمریکا	-6.48272
نگ	-6.48409
ها	-6.49744
لا	-6.49849
▁گزارش	-6.49966
▁رو	-6.5086
ما	-6.51317
▁یا	-6.51886
وی	-6.52283
▁سو	-6.5254
▁ص	-6.53036
نا	-6.53294
▁گفت	-6.55432
▁فر	-6.57375
۰	-6.58167
گاه	-6.5996
لی	-6.60784
▁کنند	-6.60915
▁را	-6.61083
▁فوتبال	-6.62427
▁بازی	-6.63513
▁دیگر	-6.65446
▁دولت	-6.67124
▁هر	-6.68551
▁نا	-6.68871
اف	-6.69201
▁هم	-6.69374
▁تر	-6.69876
▁ط	-6.70717
▁دارد	-6.7102
▁داد	-6.71365
با	-6.72237
دی	-6.73014
▁تیم	-6.73111
▁دهد	-6.73707
▁چ	-6.7379
▁پر	-6.74552
▁مع	-6.75141
▁پا	-6.75487
▁اعلام	-6.75652
▁بار	-6.76595
گی	-6.77156
یم	-6.78056
▁گ	-6.78353
▁شرکت	-6.78518
▁بین	-6.78795
▁مر	-6.79134
▁مت	-6.79353
▁مو	-6.79442
خت	-6.79616
دار	-6.80729
▁قرار	-6.80998
ایی	-6.81048
▁نام	-6.82697
▁مس	-6.82924
ث	-6.83722
ژ	-6.83997
▁هزار	-6.84457
▁پس	-6.84499
یر	-6.85113
ذ	-6.85933
▁شهر	-6.87281
▁داده	-6.87761
ظ	-6.87774
▁سه	-6.88578
▁جهان	-6.88993
رو	-6.89118
▁رئیس	-6.89335
▁من	-6.89387
▁باز	-6.8943
▁تو	-6.89897
می	-6.90944
یک	-6.91427
▁دی	-6.93642
ستان	-6.94071
کر	-6.94184
▁آن	-6.94332
▁نو	-6.94475
▁گذشته	-6.94891
▁خواهد	-6.9539
نی	-6.95608
او	-6.95885
▁ل	-6.96171
▁۲	-6.98167
▁نفت	-6.98757
▁سا	-6.9915
۹	-6.99226
▁آقای	-6.99334
ئ	-6.99394
انه	-6.99849
▁ام	-6.99921
▁کل	-7.00442
▁مج	-7.01784
بی	-7.02084
آ	-7.02196
▁داشت	-7.02446
▁کا	-7.02521
▁سی	-7.02634
▁گوید	-7.02643
▁اس	-7.02881
▁او	-7.0311
اک	-7.03526
▁رسید	-7.0361
این	-7.0441
▁قهرمان	-7.04654
▁بعد	-7.05152
دا	-7.05858
به	-7.0644
▁درصد	-7.06609
لو	-7.07623
▁چند	-7.07948
▁روی	-7.08015
▁درباره	-7.08323
مین	-7.08414
▁مح	-7.10049
▁ک	-7.10133
کن	-7.10222
▁پی	-7.10439
▁میلیون	-7.10593
▁باید	-7.10682
▁آنها	-7.10914
▁از	-7.11688
رس	-7.1201
▁لیگ	-7.12056
وم	-7.12075
▁نفر	-7.12089
کار	-7.12149
▁افزایش	-7.12317
۸	-7.1259
▁دلیل	-7.12716
▁بازار	-7.13038
▁کن	-7.13075
▁تهران	-7.13119
▁جدید	-7.13512
سی	-7.14011
▁افغانستان	-7.1418
وا	-7.15499
▁قیمت	-7.16795
▁ارز	-7.17098
۲	-7.17132
▁حال	-7.17261
▁خبر	-7.17766
▁گر	-7.18048
▁اروپا	-7.18426
▁'	-7.1846
'	-7.1922
▁جو	-7.19787
▁هفته	-7.19902
گو	-7.20264
فت	-7.20661
۱	-7.20899
▁فیلم	-7.21791
▁بیشتر	-7.22658
▁زمان	-7.23026
▁۴	-7.2316
▁بد	-7.23411
▁ال	-7.23467
▁دلار	-7.23644
ران	-7.23879
▁علی	-7.24628
▁تا	-7.24651
▁بوده	-7.2539
۵	-7.25546
:	-7.25594
▁نظر	-7.25718
▁کم	-7.25833
▁بزرگ	-7.26486
▁کو	-7.2655
▁بریتانیا	-7.27047
▁اول	-7.27258
▁ملی	-7.27365
وش	-7.27586
▁سازمان	-7.27841
▁اخیر	-7.28076
▁بخش	-7.29234
▁۵	-7.29505
▁شب	-7.29528
▁ویروس	-7.29555
▁جمهوری	-7.29782
▁۳	-7.30263
▁نمی	-7.3046
▁گرفت	-7.3065
نده	-7.30802
▁تولید	-7.30845
▁رفت	-7.31029
له	-7.31267
▁جهانی	-7.3135
وز	-7.31512
▁برگزار	-7.31536
کس	-7.31949
▁نیست	-7.32087
فا	-7.32095
▁دار	-7.32511
گان	-7.32569
▁۱۹	-7.32602
▁هستند	-7.32749
▁مورد	-7.32811
▁ورزش	-7.32959
▁ترین	-7.33034
▁عنوان	-7.33678
گذار	-7.3436
▁همه	-7.34763
۶	-7.35052
▁اش	-7.35148
▁کس	-7.35419
▁کر	-7.355
▁راه	-7.35559
مند	-7.35621
▁امروز	-7.35819
▁گل	-7.36727
▁گرفته	-7.37029
▁بالا	-7.37098
▁تع	-7.37535
▁کاهش	-7.3778
فر	-7.38347
▁چین	-7.39179
کو	-7.39443
▁وزارت	-7.39755
▁بیش	-7.40563
▁چهار	-7.40806
وب	-7.4091
▁وزیر	-7.41048
▁مد	-7.41097
▁۹	-7.41294
▁کردند	-7.42003
▁گو	-7.42066
۴	-7.42367
▁یکی	-7.42742
▁بن	-7.43054
▁مجلس	-7.4328
من	-7.43452
▁قبل	-7.43643
▁شدن	-7.43684
سا	-7.43853
وس	-7.44102
▁مقابل	-7.44193
▁آغاز	-7.44731
۷	-7.44788
قط	-7.44916
ترین	-7.45194
▁۲۰۱	-7.45308
اری	-7.45352
▁نیز	-7.45967
▁بودند	-7.46649
▁اساس	-7.46825
▁ار	-7.46967
دن	-7.47139
▁بانک	-7.4798
▁حدود	-7.48019
▁غ	-7.48196
▁باشگاه	-7.48289
▁حضور	-7.48985
▁اج	-7.49061
▁صد	-7.49276
▁نشان	-7.49795
▁یافت	-7.49911
▁همچنین	-7.5151
۳	-7.51693
▁زمین	-7.51723
▁ساخت	-7.52335
▁پنج	-7.52565
▁آب	-7.5315
▁برنامه	-7.53256
▁نیم	-7.53328
▁پایان	-7.53831
▁تحریم	-7.54012
خواه	-7.54476
▁گروه	-7.54497
▁انجام	-7.54902
که	-7.55026
▁داشته	-7.55354
▁صورت	-7.55368
داد	-7.55463
▁اقتصادی	-7.55531
پر	-7.56079
نامه	-7.56925
▁محمد	-7.57192
▁۶	-7.5771
▁زن	-7.57887
▁واکسن	-7.5838
▁مدیر	-7.58455
▁باشد	-7.58595
▁رسان	-7.59579
نه	-7.60295
▁وارد	-7.60458
▁توافق	-7.60561
▁اف	-7.60802
▁اولین	-7.61159
▁هنر	-7.62005
▁منتشر	-7.62145
▁مقام	-7.63305
کا	-7.63562
▁میلیارد	-7.63757
▁بازیکن	-7.63866
▁شیوع	-7.64248
▁۱۳	-7.64901
▁آزاد	-7.65576
▁تومان	-7.6565
▁تاریخ	-7.6623
گیری	-7.66325
▁استفاده	-7.66899
▁جمله	-7.6707
۰۰	-7.67141
▁حقوق	-7.67565
دامه	-7.68434
▁فصل	-7.68446
▁پو	-7.68498
▁تمام	-7.68678
شان	-7.68863
▁غیر	-7.69023
کی	-7.70328
▁شورا	-7.70711
▁آمد	-7.70944
داری	-7.71005
▁شوند	-7.71077
زار	-7.71115
روز	-7.71133
▁وجود	-7.7136
▁جمع	-7.71756
▁سن	-7.71763
▁خواست	-7.71878
▁مردم	-7.72229
▁همین	-7.72573
▁۷	-7.72682
وار	-7.73368
آقای	-7.73449
▁خارج	-7.7345
▁تغییر	-7.73475
؟	-7.73833
▁سابق	-7.744
▁مل	-7.74542
▁توان	-7.74589
▁بو	-7.75076
▁نزدیک	-7.75099
▁اع	-7.75627
▁زندگی	-7.75652
▁دارند	-7.75666
گیر	-7.75744
سازی	-7.75887
ائ	-7.77085
▁جام	-7.77338
▁مسابقه	-7.7768
▁المللی	-7.78054
▁فروش	-7.78328
▁مسابقات	-7.7843
▁ده	-7.78474
▁خودرو	-7.78882
پی	-7.80494
▁ان	-7.80905
▁هوا	-7.81182
▁مالی	-7.81437
▁ری	-7.82354
▁گیری	-7.82394
▁اقتصاد	-7.82613
▁جان	-7.82911
▁تنها	-7.82952
▁یو	-7.83422
جو	-7.83686
▁اعتراض	-7.84439
رضا	-7.84505
▁ض	-7.85087
▁جا	-7.85573
▁ماشین	-7.85849
▁نرخ	-7.8592
▁۱۰	-7.86244
▁انتخابات	-7.86341
▁آینده	-7.86517
▁وقت	-7.86759
بار	-7.86813
▁امنیت	-7.87087
▁مرد	-7.87469
▁اقدام	-7.87483
▁دنیا	-7.87512
دو	-7.87512
▁برای	-7.87663
▁اسلامی	-7.8769
▁شمار	-7.87961
▁شدند	-7.88258
▁میان	-7.88284
▁مهم	-7.88505
▁وضعیت	-7.88517
ثبت	-7.88555
▁زنان	-7.88739
▁فعالیت	-7.88938
▁طور	-7.89322
▁زیاد	-7.89474
اکنون	-7.89779
▁تواند	-7.89861
▁فضا	-7.89921
▁شرایط	-7.90197
▁جنوب	-7.90203
▁امسال	-7.9021
صد	-7.90667
▁خانه	-7.90685
▁بیماری	-7.90856
▁بسیاری	-7.90953
▁هیچ	-7.91209
▁حالی	-7.91263
▁برتر	-7.91334
▁تصمیم	-7.91689
عث	-7.91796
▁آر	-7.92456
▁دوران	-7.93172
▁کشورهای	-7.94058
▁خط	-7.94568
ازه	-7.94667
▁خارجه	-7.94787
▁افراد	-7.952
▁تلاش	-7.95439
▁کی	-7.96411
▁گویند	-7.96614
▁مسئول	-7.96758
▁سینما	-7.96777
▁موج	-7.96838
▁اجتماعی	-7.96982
▁پول	-7.97115
▁زیر	-7.97305
▁بسیار	-7.97315
▁مختلف	-7.97436
▁نخست	-7.9746
▁مار	-7.97462
▁زندان	-7.97744
▁طرح	-7.97912
▁منبع	-7.97996
▁کردن	-7.98176
▁فرا	-7.9861
▁سفر	-7.99086
▁ولی	-7.99123
▁مدت	-7.99559
▁ریاست	-7.99751
▁تازه	-7.99806
▁احتمال	-7.99971
▁کمک	-8.00237
▁دور	-8.00396
▁روحانی	-8.00441
▁هنو	-8.00817
▁که	-8.01421
▁برخ	-8.01468
توسط	-8.01948
▁قانون	-8.02366
▁حالا	-8.02498
▁اثر	-8.03074
▁آمار	-8.03198
▁مجموع	-8.03535
▁بورس	-8.03962
▁خانواده	-8.04506
▁درگذشت	-8.04506
▁اجرای	-8.04546
▁محل	-8.04607
▁مرکزی	-8.04656
▁همراه	-8.04774
▁هی	-8.05037
▁دوره	-8.05317
▁ماند	-8.05716
▁درآمد	-8.05735
▁آلمان	-8.05759
▁خرید	-8.05965
▁مشا	-8.06092
▁توجه	-8.06526
▁۲۰	-8.06787
▁گرد	-8.07214
▁۸	-8.07276
▁بهداشت	-8.07335
▁سرمایه	-8.07484
▁حت	-8.07531
▁بعضی	-8.07733
▁برابر	-8.07808
▁مرکز	-8.07848
▁بست	-8.07933
▁منطقه	-8.07985
▁قطع	-8.08009
▁هفت	-8.08042
▁رسمی	-8.08514
▁مشکل	-8.08749
▁آخر	-8.08827
▁پیدا	-8.09098
▁اطلاعات	-8.09302
▁کش	-8.09491
▁پرسپولیس	-8.09771
▁کمی	-8.10225
▁نظام	-8.10294
▁شاه	-8.10507
▁هو	-8.10669
▁داخل	-8.10807
▁اصلی	-8.10818
▁فرهنگ	-8.1083
▁شکست	-8.11113
▁کامل	-8.11126
▁عکس	-8.11242
▁عمل	-8.11503
▁دهه	-8.11838
▁جمهور	-8.11861
ستاد	-8.11971
▁سهام	-8.11996
مار	-8.12143
▁رقابت	-8.12379
▁واقع	-8.12644
▁تحقیق	-8.13174
▁شروع	-8.13451
▁کنار	-8.13729
▁اینک	-8.14148
▁برجام	-8.1427
▁جای	-8.14283
▁اشار	-8.1463
▁نقش	-8.14662
▁بررسی	-8.14894
▁موسیقی	-8.15056
▁این	-8.15436
▁عراق	-8.15619
▁لو	-8.16109
▁نویس	-8.16138
▁میلادی	-8.16719
▁هسته	-8.16828
▁انگلیس	-8.16974
▁دانشگاه	-8.17106
▁حمله	-8.17264
▁جنگ	-8.1728
گرد	-8.17305
▁فدراسیون	-8.1756
▁افت	-8.17577
▁رهبر	-8.17866
▁دهند	-8.18066
▁قو	-8.18107
▁خر	-8.1852
▁نوشته	-8.18876
▁نهاد	-8.18911
▁موضوع	-8.19495
▁پزشک	-8.19496
▁نتیج	-8.19503
▁مراسم	-8.19792
▁همکاری	-8.19807
▁آمریکایی	-8.2001
سیون	-8.20067
▁نیاز	-8.20602
▁گذاشت	-8.20636
▁کمتر	-8.20677
▁طرف	-8.20953
▁دانش	-8.20954
▁سیاست	-8.21242
▁رشد	-8.21358
▁برد	-8.21477
▁نگران	-8.21562
▁حاضر	-8.21791
▁واکنش	-8.22082
▁دنبال	-8.22374
▁نمایش	-8.22376
▁نشده	-8.22516
▁خاطر	-8.22666
▁حمایت	-8.2267
▁فعال	-8.23574
▁ممکن	-8.23578
▁لا	-8.23689
▁تعداد	-8.23696
▁پرداخت	-8.23844
▁ساعت	-8.24471
زن	-8.24662
▁شناس	-8.248
▁کتاب	-8.25046
▁خواند	-8.25115
▁جایزه	-8.25665
▁مادر	-8.25888
▁استقلال	-8.25942
▁الله	-8.26004
▁خام	-8.26255
▁بهترین	-8.26318
▁آورد	-8.26537
▁اسرائیل	-8.26546
▁کشتی	-8.26669
▁سیاسی	-8.26918
واز	-8.27072
▁آژانس	-8.27157
ندگان	-8.2733
▁سپاه	-8.27465
▁دقیق	-8.27775
▁هواپیما	-8.28081
▁فرانسه	-8.28393
▁خطر	-8.28494
▁اتفاق	-8.28701
▁دریافت	-8.28779
▁ندارد	-8.29355
▁انتشار	-8.29638
▁هدف	-8.29648
▁عرض	-8.2967
▁کنیم	-8.30005
▁خبرگزا	-8.30258
▁شنبه	-8.3029
-	-8.30584
▁آزمایش	-8.30902
▁محدودیت	-8.31071
▁ترکیه	-8.31236
▁مرگ	-8.31707
▁ویژه	-8.31864
▁رد	-8.32656
▁ترامپ	-8.32833
▁نامزد	-8.32899
▁دیدار	-8.32925
▁فرد	-8.33656
▁جلو	-8.33815
ئو	-8.3387
▁۲۰۲۰	-8.34133
▁اتحاد	-8.34463
▁پرونده	-8.34471
▁کالا	-8.34855
▁رسد	-8.34967
▁انرژی	-8.35123
▁بودجه	-8.35348
▁آسیا	-8.35544
▁۲۰۰	-8.35686
▁تاثیر	-8.35789
▁تعطیل	-8.3579
▁ابتلا	-8.36124
▁چنین	-8.36489
▁ابتدا	-8.36796
▁پیروز	-8.36991
▁نمایند	-8.37413
▁بشر	-8.37432
▁فارس	-8.3759
▁هشدار	-8.38499
▁دریا	-8.38531
▁زبان	-8.38639
▁۱۵	-8.38843
علی	-8.39254
▁احمد	-8.39533
▁چشم	-8.3966
▁نهایی	-8.39735
▁خصوص	-8.39878
▁خواهند	-8.39894
▁عربستان	-8.40576
▁صادرات	-8.40665
▁متهم	-8.40708
▁پرواز	-8.40736
▁تبدیل	-8.40927
▁مبارز	-8.40935
▁ایجاد	-8.40952
▁افتاد	-8.41063
▁چیز	-8.41179
▁مربوط	-8.41279
▁قابل	-8.41306
ِ	-8.41632
▁طریق	-8.41644
▁توانست	-8.42023
▁بازداشت	-8.42079
▁هشت	-8.42374
▁میزان	-8.42501
▁۳۰	-8.42622
▁قرارداد	-8.42639
▁تلویزیون	-8.427
▁مشخص	-8.427
▁حکم	-8.43164
▁مذاکرات	-8.43318
▁تایید	-8.43909
▁۲۵	-8.44087
)	-8.44505
▁بیمارستان	-8.44505
▁کشته	-8.44572
▁جریان	-8.44575
▁سرمربی	-8.45236
▁موفق	-8.45257
▁مبتلا	-8.45605
▁نسبت	-8.45976
▁انتقاد	-8.46343
بدون	-8.46552
▁عضو	-8.46743
▁چرا	-8.47127
▁بازگشت	-8.47463
▁خیل	-8.47538
▁نداشت	-8.47576
▁حسن	-8.47577
▁معاون	-8.47866
▁رکورد	-8.48217
▁روسیه	-8.48626
کنندگان	-8.48855
▁غرب	-8.49026
▁فاصله	-8.49357
▁آثار	-8.49364
▁(	-8.49797
▁حرف	-8.49816
▁مربی	-8.50237
▁هند	-8.50362
▁لیورپول	-8.50511
▁دادگاه	-8.50566
▁دانست	-8.50585
▁ستار	-8.51082
▁انتخاب	-8.51121
▁محمو	-8.51538
▁۱۲	-8.51681
▁ایتالیا	-8.52071
▁اتمی	-8.52205
▁دوبار	-8.52325
▁انسان	-8.52516
▁کابل	-8.52534
▁نوشت	-8.52655
▁مخالف	-8.52861
▁نبود	-8.52908
داشت	-8.53319
▁منابع	-8.54463
▁بیانیه	-8.54898
▁نقل	-8.55125
▁لغو	-8.55273
خوان	-8.5554
▁ارتباط	-8.5567
▁قرنطینه	-8.5567
▁صنعت	-8.55671
▁شناخت	-8.55675
▁داستان	-8.55692
▁تورم	-8.56016
▁سخنگوی	-8.56079
▁اعضای	-8.5608
▁اتهام	-8.56089
▁انتقال	-8.56489
▁سطح	-8.56919
▁عمومی	-8.57315
▁هست	-8.57782
▁حکومت	-8.58145
▁صندوق	-8.58145
▁امتیاز	-8.58146
▁پلیس	-8.58166
▁لندن	-8.58187
▁تماشا	-8.58565
▁محکوم	-8.58571
▁نشست	-8.58681
▁کشید	-8.59196
▁همزمان	-8.59414
▁قدرت	-8.5944
▁تحت	-8.59605
▁شامل	-8.60153
▁جلسه	-8.6026
▁حذف	-8.60262
▁دختر	-8.60746
نشین	-8.60763
▁نمایندگان	-8.60771
▁خورد	-8.62397
▁مسافر	-8.62445
▁انقلاب	-8.62847
▁موارد	-8.62924
▁مطرح	-8.63726
▁صادر	-8.64108
▁نژاد	-8.64178
أ	-8.64612
▁کووید	-8.64629
▁پاسخ	-8.64647
▁بلند	-8.64748
▁گسترده	-8.65059
▁امضا	-8.65081
▁تنیس	-8.65557
▁فشار	-8.65595
▁انتظار	-8.65958
▁ظریف	-8.6641
▁حرکت	-8.68243
▁امکان	-8.68309
▁دفاع	-8.6871
▁پشت	-8.68886
▁المپیک	-8.69169
▁اطلاع	-8.70495
▁چهر	-8.70861
▁بشک	-8.71195
▁رقم	-8.71709
▁کوچک	-8.72012
▁ارائه	-8.72493
▁خانم	-8.72515
▁متوقف	-8.7297
▁ممنوع	-8.73534
▁بحران	-8.74443
▁نشد	-8.74851
▁طراح	-8.74933
▁معرف	-8.7498
▁ورود	-8.75093
▁مصاحبه	-8.75421
▁نیروهای	-8.75422
▁اظهار	-8.76419
▁باشند	-8.76576
▁همچن	-8.77538
▁منچستر	-8.78444
▁فروردین	-8.78444
▁۱۱	-8.78449
▁۱۴۰۰	-8.78485
▁سیستم	-8.78486
▁مالک	-8.78603
▁اسفند	-8.78973
▁فینال	-8.78998
▁سراسر	-8.79009
▁تصوی	-8.79212
▁الکتریکی	-8.7999
▁جامعه	-8.80044
▁موسس	-8.80596
▁حسین	-8.80596
▁ضرب	-8.80607
▁گیرد	-8.81105
▁رانند	-8.81551
▁خبرنگار	-8.81565
▁چگون	-8.81595
▁۱۷	-8.82094
▁تشکیل	-8.82623
▁واحد	-8.82625
▁حساب	-8.82662
▁سیاه	-8.82903
▁دونالد	-8.83159
▁بتوان	-8.83166
▁روبرو	-8.83187
▁هنگام	-8.83696
▁قضایی	-8.83698
▁تجاری	-8.84249
▁اختلاف	-8.84779
▁دوشنبه	-8.84779
▁بارسلونا	-8.85325
▁گذر	-8.85358
▁برخورد	-8.8547
▁مصوب	-8.85887
▁غذا	-8.8592
▁پذیر	-8.86986
▁کارشناس	-8.87542
▁کیلومتر	-8.88103
▁اختیار	-8.88104
▁خروج	-8.8812
▁محیط	-8.88199
▁محدود	-8.88389
▁مارادونا	-8.88668
▁امیدوار	-8.88669
▁افزود	-8.88674
▁تجرب	-8.89816
▁آسیب	-8.90414
▁قرمز	-8.90962
▁۱۸	-8.90966
▁آوریل	-8.91553
▁معمول	-8.91573
▁نیروی	-8.91576
▁پژوهش	-8.91957
▁متفاوت	-8.92127
▁صحبت	-8.92127
▁تهدید	-8.92134
▁۱۴	-8.92672
▁تقاضا	-8.92715
▁درخواست	-8.93306
▁کارگردان	-8.93315
▁اسپانیا	-8.94501
▁کنترل	-8.94517
حفظ	-8.94633
▁تاکید	-8.95131
▁طبق	-8.95164
▁ماسک	-8.95171
▁۱۶	-8.95714
▁ترکیب	-8.9572
▁ژاپن	-8.96319
▁پروژه	-8.96319
▁شاخص	-8.96319
▁میزبان	-8.96328
▁صفح	-8.96345
▁گذشت	-8.96925
▁چهارشنبه	-8.96932
▁اعدام	-8.97572
▁سقوط	-8.98171
▁مشترک	-8.98171
▁قوانین	-8.98187
▁خورشید	-8.98796
▁شهروندان	-8.98797
▁استرالیا	-8.988
▁پارسال	-8.988
▁شکایت	-8.98803
▁ترتیب	-8.99435
▁بنزین	-8.99439
▁لازم	-9.00104
▁مصرف	-9.00696
▁کوتاه	-9.01338
▁دلایل	-9.0134
▁بگیرد	-9.01353
محمد	-9.01355
▁مرتبط	-9.01981
▁روابط	-9.01987
▁خودروساز	-9.02019
▁توسعه	-9.02632
▁فهرست	-9.02635
▁همیشه	-9.02655
▁تقریبا	-9.03284
▁شجریان	-9.03284
▁نگهبان	-9.03941
▁انفجار	-9.03942
▁نتایج	-9.03942
▁نظیر	-9.04612
▁علاو	-9.04688
▁یکشنبه	-9.05271
▁تجارت	-9.05272
▁جشنواره	-9.05941
▁فرزند	-9.05989
(	-11.6044
