{
  "src_word2id": {
    "<pad>": 0,
    "<s>": 1,
    "</s>": 2,
    "<unk>": 3,
    "ی": 4,
    "ه": 5,
    ".": 6,
    "ان": 7,
    "ت": 8,
    "م": 9,
    "ل": 10,
    "د": 11,
    "ر": 12,
    "▁": 13,
    "ا": 14,
    "▁است": 15,
    "ش": 16,
    "ن": 17,
    "▁می": 18,
    "ب": 19,
    "س": 20,
    "و": 21,
    "ق": 22,
    "ز": 23,
    "▁های": 24,
    "ک": 25,
    "▁ایران": 26,
    "▁م": 27,
    "ع": 28,
    "▁ت": 29,
    "ات": 30,
    "▁ن": 31,
    "ف": 32,
    "ند": 33,
    "ور": 34,
    "▁ا": 35,
    "ج": 36,
    "ال": 37,
    "▁سال": 38,
    "ح": 39,
    "خ": 40,
    "▁بر": 41,
    "▁شده": 42,
    "▁ش": 43,
    "،": 44,
    "▁ها": 45,
    "▁بود": 46,
    "▁ع": 47,
    "▁شد": 48,
    "▁یک": 49,
    "ار": 50,
    "▁س": 51,
    "ام": 52,
    "ست": 53,
    "▁و": 54,
    "▁ای": 55,
    "ص": 56,
    "▁ب": 57,
    "▁آ": 58,
    "ین": 59,
    "ون": 60,
    "▁ف": 61,
    "اد": 62,
    "▁ج": 63,
    "▁دو": 64,
    "▁تصویر": 65,
    "▁کرد": 66,
    "▁کرده": 67,
    "های": 68,
    "▁خ": 69,
    "ده": 70,
    "▁در": 71,
    "ای": 72,
    "پ": 73,
    "▁ر": 74,
    "منبع": 75,
    "▁ح": 76,
    "▁کار": 77,
    "ط": 78,
    "گ": 79,
    "▁خود": 80,
    "▁د": 81,
    "▁شود": 82,
    "ری": 83,
    "▁اند": 84,
    "▁گفته": 85,
    "▁ق": 86,
    "ید": 87,
    "▁کند": 88,
    "▁بی": 89,
    "▁با": 90,
    "؛": 91,
    "▁روز": 92,
    "یت": 93,
    "▁سر": 94,
    "▁پیش": 95,
    "اب": 96,
    "از": 97,
    "ول": 98,
    "▁ز": 99,
    "▁کرونا": 100,
    "بر": 101,
    "تر": 102,
    "غ": 103,
    "اس": 104,
    "▁پ": 105,
    "ود": 106,
    "در": 107,
    "▁دست": 108,
    "▁ماه": 109,
    "▁کشور": 110,
    "چ": 111,
    "را": 112,
    "ض": 113,
    "گر": 114,
    "▁به": 115,
    "مان": 116,
    "▁آمریکا": 117,
    "نگ": 118,
    "ها": 119,
    "لا": 120,
    "▁گزارش": 121,
    "▁رو": 122,
    "ما": 123,
    "▁یا": 124,
    "وی": 125,
    "▁سو": 126,
    "▁ص": 127,
    "نا": 128,
    "▁گفت": 129,
    "▁فر": 130,
    "۰": 131,
    "گاه": 132,
    "لی": 133,
    "▁کنند": 134,
    "▁را": 135,
    "▁فوتبال": 136,
    "▁بازی": 137,
    "▁دیگر": 138,
    "▁دولت": 139,
    "▁هر": 140,
    "▁نا": 141,
    "اف": 142,
    "▁هم": 143,
    "▁تر": 144,
    "▁ط": 145,
    "▁دارد": 146,
    "▁داد": 147,
    "با": 148,
    "دی": 149,
    "▁تیم": 150,
    "▁دهد": 151,
    "▁چ": 152,
    "▁پر": 153,
    "▁مع": 154,
    "▁پا": 155,
    "▁اعلام": 156,
    "▁بار": 157,
    "گی": 158,
    "یم": 159,
    "▁گ": 160,
    "▁شرکت": 161,
    "▁بین": 162,
    "▁مر": 163,
    "▁مت": 164,
    "▁مو": 165,
    "خت": 166,
    "دار": 167,
    "▁قرار": 168,
    "ایی": 169,
    "▁نام": 170,
    "▁مس": 171,
    "ث": 172,
    "ژ": 173,
    "▁هزار": 174,
    "▁پس": 175,
    "یر": 176,
    "ذ": 177,
    "▁شهر": 178,
    "▁داده": 179,
    "ظ": 180,
    "▁سه": 181,
    "▁جهان": 182,
    "رو": 183,
    "▁رئیس": 184,
    "▁من": 185,
    "▁باز": 186,
    "▁تو": 187,
    "می": 188,
    "یک": 189,
    "▁دی": 190,
    "ستان": 191,
    "کر": 192,
    "▁آن": 193,
    "▁نو": 194,
    "▁گذشته": 195,
    "▁خواهد": 196,
    "نی": 197,
    "او": 198,
    "▁ل": 199,
    "▁۲": 200,
    "▁نفت": 201,
    "▁سا": 202,
    "۹": 203,
    "▁آقای": 204,
    "ئ": 205,
    "انه": 206,
    "▁ام": 207,
    "▁کل": 208,
    "▁مج": 209,
    "بی": 210,
    "آ": 211,
    "▁داشت": 212,
    "▁کا": 213,
    "▁سی": 214,
    "▁گوید": 215,
    "▁اس": 216,
    "▁او": 217,
    "اک": 218,
    "▁رسید": 219,
    "این": 220,
    "▁قهرمان": 221,
    "▁بعد": 222,
    "دا": 223,
    "به": 224,
    "▁درصد": 225,
    "لو": 226,
    "▁چند": 227,
    "▁روی": 228,
    "▁درباره": 229,
    "مین": 230,
    "▁مح": 231,
    "▁ک": 232,
    "کن": 233,
    "▁پی": 234,
    "▁میلیون": 235,
    "▁باید": 236,
    "▁آنها": 237,
    "▁از": 238,
    "رس": 239,
    "▁لیگ": 240,
    "وم": 241,
    "▁نفر": 242,
    "کار": 243,
    "▁افزایش": 244,
    "۸": 245,
    "▁دلیل": 246,
    "▁بازار": 247,
    "▁کن": 248,
    "▁تهران": 249,
    "▁جدید": 250,
    "سی": 251,
    "▁افغانستان": 252,
    "وا": 253,
    "▁قیمت": 254,
    "▁ارز": 255,
    "۲": 256,
    "▁حال": 257,
    "▁خبر": 258,
    "▁گر": 259,
    "▁اروپا": 260,
    "▁'": 261,
    "'": 262,
    "▁جو": 263,
    "▁هفته": 264,
    "گو": 265,
    "فت": 266,
    "۱": 267,
    "▁فیلم": 268,
    "▁بیشتر": 269,
    "▁زمان": 270,
    "▁۴": 271,
    "▁بد": 272,
    "▁ال": 273,
    "▁دلار": 274,
    "ران": 275,
    "▁علی": 276,
    "▁تا": 277,
    "▁بوده": 278,
    "۵": 279,
    ":": 280,
    "▁نظر": 281,
    "▁کم": 282,
    "▁بزرگ": 283,
    "▁کو": 284,
    "▁بریتانیا": 285,
    "▁اول": 286,
    "▁ملی": 287,
    "وش": 288,
    "▁سازمان": 289,
    "▁اخیر": 290,
    "▁بخش": 291,
    "▁۵": 292,
    "▁شب": 293,
    "▁ویروس": 294,
    "▁جمهوری": 295,
    "▁۳": 296,
    "▁نمی": 297,
    "▁گرفت": 298,
    "نده": 299,
    "▁تولید": 300,
    "▁رفت": 301,
    "له": 302,
    "▁جهانی": 303,
    "وز": 304,
    "▁برگزار": 305,
    "کس": 306,
    "▁نیست": 307,
    "فا": 308,
    "▁دار": 309,
    "گان": 310,
    "▁۱۹": 311,
    "▁هستند": 312,
    "▁مورد": 313,
    "▁ورزش": 314,
    "▁ترین": 315,
    "▁عنوان": 316,
    "گذار": 317,
    "▁همه": 318,
    "۶": 319,
    "▁اش": 320,
    "▁کس": 321,
    "▁کر": 322,
    "▁راه": 323,
    "مند": 324,
    "▁امروز": 325,
    "▁گل": 326,
    "▁گرفته": 327,
    "▁بالا": 328,
    "▁تع": 329,
    "▁کاهش": 330,
    "فر": 331,
    "▁چین": 332,
    "کو": 333,
    "▁وزارت": 334,
    "▁بیش": 335,
    "▁چهار": 336,
    "وب": 337,
    "▁وزیر": 338,
    "▁مد": 339,
    "▁۹": 340,
    "▁کردند": 341,
    "▁گو": 342,
    "۴": 343,
    "▁یکی": 344,
    "▁بن": 345,
    "▁مجلس": 346,
    "من": 347,
    "▁قبل": 348,
    "▁شدن": 349,
    "سا": 350,
    "وس": 351,
    "▁مقابل": 352,
    "▁آغاز": 353,
    "۷": 354,
    "قط": 355,
    "ترین": 356,
    "▁۲۰۱": 357,
    "اری": 358,
    "▁نیز": 359,
    "▁بودند": 360,
    "▁اساس": 361,
    "▁ار": 362,
    "دن": 363,
    "▁بانک": 364,
    "▁حدود": 365,
    "▁غ": 366,
    "▁باشگاه": 367,
    "▁حضور": 368,
    "▁اج": 369,
    "▁صد": 370,
    "▁نشان": 371,
    "▁یافت": 372,
    "▁همچنین": 373,
    "۳": 374,
    "▁زمین": 375,
    "▁ساخت": 376,
    "▁پنج": 377,
    "▁آب": 378,
    "▁برنامه": 379,
    "▁نیم": 380,
    "▁پایان": 381,
    "▁تحریم": 382,
    "خواه": 383,
    "▁گروه": 384,
    "▁انجام": 385,
    "که": 386,
    "▁داشته": 387,
    "▁صورت": 388,
    "داد": 389,
    "▁اقتصادی": 390,
    "پر": 391,
    "نامه": 392,
    "▁محمد": 393,
    "▁۶": 394,
    "▁زن": 395,
    "▁واکسن": 396,
    "▁مدیر": 397,
    "▁باشد": 398,
    "▁رسان": 399,
    "نه": 400,
    "▁وارد": 401,
    "▁توافق": 402,
    "▁اف": 403,
    "▁اولین": 404,
    "▁هنر": 405,
    "▁منتشر": 406,
    "▁مقام": 407,
    "کا": 408,
    "▁میلیارد": 409,
    "▁بازیکن": 410,
    "▁شیوع": 411,
    "▁۱۳": 412,
    "▁آزاد": 413,
    "▁تومان": 414,
    "▁تاریخ": 415,
    "گیری": 416,
    "▁استفاده": 417,
    "▁جمله": 418,
    "۰۰": 419,
    "▁حقوق": 420,
    "دامه": 421,
    "▁فصل": 422,
    "▁پو": 423,
    "▁تمام": 424,
    "شان": 425,
    "▁غیر": 426,
    "کی": 427,
    "▁شورا": 428,
    "▁آمد": 429,
    "داری": 430,
    "▁شوند": 431,
    "زار": 432,
    "روز": 433,
    "▁وجود": 434,
    "▁جمع": 435,
    "▁سن": 436,
    "▁خواست": 437,
    "▁مردم": 438,
    "▁همین": 439,
    "▁۷": 440,
    "وار": 441,
    "آقای": 442,
    "▁خارج": 443,
    "▁تغییر": 444,
    "؟": 445,
    "▁سابق": 446,
    "▁مل": 447,
    "▁توان": 448,
    "▁بو": 449,
    "▁نزدیک": 450,
    "▁اع": 451,
    "▁زندگی": 452,
    "▁دارند": 453,
    "گیر": 454,
    "سازی": 455,
    "ائ": 456,
    "▁جام": 457,
    "▁مسابقه": 458,
    "▁المللی": 459,
    "▁فروش": 460,
    "▁مسابقات": 461,
    "▁ده": 462,
    "▁خودرو": 463,
    "پی": 464,
    "▁ان": 465,
    "▁هوا": 466,
    "▁مالی": 467,
    "▁ری": 468,
    "▁گیری": 469,
    "▁اقتصاد": 470,
    "▁جان": 471,
    "▁تنها": 472,
    "▁یو": 473,
    "جو": 474,
    "▁اعتراض": 475,
    "رضا": 476,
    "▁ض": 477,
    "▁جا": 478,
    "▁ماشین": 479,
    "▁نرخ": 480,
    "▁۱۰": 481,
    "▁انتخابات": 482,
    "▁آینده": 483,
    "▁وقت": 484,
    "بار": 485,
    "▁امنیت": 486,
    "▁مرد": 487,
    "▁اقدام": 488,
    "▁دنیا": 489,
    "دو": 490,
    "▁برای": 491,
    "▁اسلامی": 492,
    "▁شمار": 493,
    "▁شدند": 494,
    "▁میان": 495,
    "▁مهم": 496,
    "▁وضعیت": 497,
    "ثبت": 498,
    "▁زنان": 499,
    "▁فعالیت": 500,
    "▁طور": 501,
    "▁زیاد": 502,
    "اکنون": 503,
    "▁تواند": 504,
    "▁فضا": 505,
    "▁شرایط": 506,
    "▁جنوب": 507,
    "▁امسال": 508,
    "صد": 509,
    "▁خانه": 510,
    "▁بیماری": 511,
    "▁بسیاری": 512,
    "▁هیچ": 513,
    "▁حالی": 514,
    "▁برتر": 515,
    "▁تصمیم": 516,
    "عث": 517,
    "▁آر": 518,
    "▁دوران": 519,
    "▁کشورهای": 520,
    "▁خط": 521,
    "ازه": 522,
    "▁خارجه": 523,
    "▁افراد": 524,
    "▁تلاش": 525,
    "▁کی": 526,
    "▁گویند": 527,
    "▁مسئول": 528,
    "▁سینما": 529,
    "▁موج": 530,
    "▁اجتماعی": 531,
    "▁پول": 532,
    "▁زیر": 533,
    "▁بسیار": 534,
    "▁مختلف": 535,
    "▁نخست": 536,
    "▁مار": 537,
    "▁زندان": 538,
    "▁طرح": 539,
    "▁منبع": 540,
    "▁کردن": 541,
    "▁فرا": 542,
    "▁سفر": 543,
    "▁ولی": 544,
    "▁مدت": 545,
    "▁ریاست": 546,
    "▁تازه": 547,
    "▁احتمال": 548,
    "▁کمک": 549,
    "▁دور": 550,
    "▁روحانی": 551,
    "▁هنو": 552,
    "▁که": 553,
    "▁برخ": 554,
    "توسط": 555,
    "▁قانون": 556,
    "▁حالا": 557,
    "▁اثر": 558,
    "▁آمار": 559,
    "▁مجموع": 560,
    "▁بورس": 561,
    "▁خانواده": 562,
    "▁درگذشت": 563,
    "▁اجرای": 564,
    "▁محل": 565,
    "▁مرکزی": 566,
    "▁همراه": 567,
    "▁هی": 568,
    "▁دوره": 569,
    "▁ماند": 570,
    "▁درآمد": 571,
    "▁آلمان": 572,
    "▁خرید": 573,
    "▁مشا": 574,
    "▁توجه": 575,
    "▁۲۰": 576,
    "▁گرد": 577,
    "▁۸": 578,
    "▁بهداشت": 579,
    "▁سرمایه": 580,
    "▁حت": 581,
    "▁بعضی": 582,
    "▁برابر": 583,
    "▁مرکز": 584,
    "▁بست": 585,
    "▁منطقه": 586,
    "▁قطع": 587,
    "▁هفت": 588,
    "▁رسمی": 589,
    "▁مشکل": 590,
    "▁آخر": 591,
    "▁پیدا": 592,
    "▁اطلاعات": 593,
    "▁کش": 594,
    "▁پرسپولیس": 595,
    "▁کمی": 596,
    "▁نظام": 597,
    "▁شاه": 598,
    "▁هو": 599,
    "▁داخل": 600,
    "▁اصلی": 601,
    "▁فرهنگ": 602,
    "▁شکست": 603,
    "▁کامل": 604,
    "▁عکس": 605,
    "▁عمل": 606,
    "▁دهه": 607,
    "▁جمهور": 608,
    "ستاد": 609,
    "▁سهام": 610,
    "مار": 611,
    "▁رقابت": 612,
    "▁واقع": 613,
    "▁تحقیق": 614,
    "▁شروع": 615,
    "▁کنار": 616,
    "▁اینک": 617,
    "▁برجام": 618,
    "▁جای": 619,
    "▁اشار": 620,
    "▁نقش": 621,
    "▁بررسی": 622,
    "▁موسیقی": 623,
    "▁این": 624,
    "▁عراق": 625,
    "▁لو": 626,
    "▁نویس": 627,
    "▁میلادی": 628,
    "▁هسته": 629,
    "▁انگلیس": 630,
    "▁دانشگاه": 631,
    "▁حمله": 632,
    "▁جنگ": 633,
    "گرد": 634,
    "▁فدراسیون": 635,
    "▁افت": 636,
    "▁رهبر": 637,
    "▁دهند": 638,
    "▁قو": 639,
    "▁خر": 640,
    "▁نوشته": 641,
    "▁نهاد": 642,
    "▁موضوع": 643,
    "▁پزشک": 644,
    "▁نتیج": 645,
    "▁مراسم": 646,
    "▁همکاری": 647,
    "▁آمریکایی": 648,
    "سیون": 649,
    "▁نیاز": 650,
    "▁گذاشت": 651,
    "▁کمتر": 652,
    "▁طرف": 653,
    "▁دانش": 654,
    "▁سیاست": 655,
    "▁رشد": 656,
    "▁برد": 657,
    "▁نگران": 658,
    "▁حاضر": 659,
    "▁واکنش": 660,
    "▁دنبال": 661,
    "▁نمایش": 662,
    "▁نشده": 663,
    "▁خاطر": 664,
    "▁حمایت": 665,
    "▁فعال": 666,
    "▁ممکن": 667,
    "▁لا": 668,
    "▁تعداد": 669,
    "▁پرداخت": 670,
    "▁ساعت": 671,
    "زن": 672,
    "▁شناس": 673,
    "▁کتاب": 674,
    "▁خواند": 675,
    "▁جایزه": 676,
    "▁مادر": 677,
    "▁استقلال": 678,
    "▁الله": 679,
    "▁خام": 680,
    "▁بهترین": 681,
    "▁آورد": 682,
    "▁اسرائیل": 683,
    "▁کشتی": 684,
    "▁سیاسی": 685,
    "واز": 686,
    "▁آژانس": 687,
    "ندگان": 688,
    "▁سپاه": 689,
    "▁دقیق": 690,
    "▁هواپیما": 691,
    "▁فرانسه": 692,
    "▁خطر": 693,
    "▁اتفاق": 694,
    "▁دریافت": 695,
    "▁ندارد": 696,
    "▁انتشار": 697,
    "▁هدف": 698,
    "▁عرض": 699,
    "▁کنیم": 700,
    "▁خبرگزا": 701,
    "▁شنبه": 702,
    "-": 703,
    "▁آزمایش": 704,
    "▁محدودیت": 705,
    "▁ترکیه": 706,
    "▁مرگ": 707,
    "▁ویژه": 708,
    "▁رد": 709,
    "▁ترامپ": 710,
    "▁نامزد": 711,
    "▁دیدار": 712,
    "▁فرد": 713,
    "▁جلو": 714,
    "ئو": 715,
    "▁۲۰۲۰": 716,
    "▁اتحاد": 717,
    "▁پرونده": 718,
    "▁کالا": 719,
    "▁رسد": 720,
    "▁انرژی": 721,
    "▁بودجه": 722,
    "▁آسیا": 723,
    "▁۲۰۰": 724,
    "▁تاثیر": 725,
    "▁تعطیل": 726,
    "▁ابتلا": 727,
    "▁چنین": 728,
    "▁ابتدا": 729,
    "▁پیروز": 730,
    "▁نمایند": 731,
    "▁بشر": 732,
    "▁فارس": 733,
    "▁هشدار": 734,
    "▁دریا": 735,
    "▁زبان": 736,
    "▁۱۵": 737,
    "علی": 738,
    "▁احمد": 739,
    "▁چشم": 740,
    "▁نهایی": 741,
    "▁خصوص": 742,
    "▁خواهند": 743,
    "▁عربستان": 744,
    "▁صادرات": 745,
    "▁متهم": 746,
    "▁پرواز": 747,
    "▁تبدیل": 748,
    "▁مبارز": 749,
    "▁ایجاد": 750,
    "▁افتاد": 751,
    "▁چیز": 752,
    "▁مربوط": 753,
    "▁قابل": 754,
    "ِ": 755,
    "▁طریق": 756,
    "▁توانست": 757,
    "▁بازداشت": 758,
    "▁هشت": 759,
    "▁میزان": 760,
    "▁۳۰": 761,
    "▁قرارداد": 762,
    "▁تلویزیون": 763,
    "▁مشخص": 764,
    "▁حکم": 765,
    "▁مذاکرات": 766,
    "▁تایید": 767,
    "▁۲۵": 768,
    ")": 769,
    "▁بیمارستان": 770,
    "▁کشته": 771,
    "▁جریان": 772,
    "▁سرمربی": 773,
    "▁موفق": 774,
    "▁مبتلا": 775,
    "▁نسبت": 776,
    "▁انتقاد": 777,
    "بدون": 778,
    "▁عضو": 779,
    "▁چرا": 780,
    "▁بازگشت": 781,
    "▁خیل": 782,
    "▁نداشت": 783,
    "▁حسن": 784,
    "▁معاون": 785,
    "▁رکورد": 786,
    "▁روسیه": 787,
    "کنندگان": 788,
    "▁غرب": 789,
    "▁فاصله": 790,
    "▁آثار": 791,
    "▁(": 792,
    "▁حرف": 793,
    "▁مربی": 794,
    "▁هند": 795,
    "▁لیورپول": 796,
    "▁دادگاه": 797,
    "▁دانست": 798,
    "▁ستار": 799,
    "▁انتخاب": 800,
    "▁محمو": 801,
    "▁۱۲": 802,
    "▁ایتالیا": 803,
    "▁اتمی": 804,
    "▁دوبار": 805,
    "▁انسان": 806,
    "▁کابل": 807,
    "▁نوشت": 808,
    "▁مخالف": 809,
    "▁نبود": 810,
    "داشت": 811,
    "▁منابع": 812,
    "▁بیانیه": 813,
    "▁نقل": 814,
    "▁لغو": 815,
    "خوان": 816,
    "▁ارتباط": 817,
    "▁قرنطینه": 818,
    "▁صنعت": 819,
    "▁شناخت": 820,
    "▁داستان": 821,
    "▁تورم": 822,
    "▁سخنگوی": 823,
    "▁اعضای": 824,
    "▁اتهام": 825,
    "▁انتقال": 826,
    "▁سطح": 827,
    "▁عمومی": 828,
    "▁هست": 829,
    "▁حکومت": 830,
    "▁صندوق": 831,
    "▁امتیاز": 832,
    "▁پلیس": 833,
    "▁لندن": 834,
    "▁تماشا": 835,
    "▁محکوم": 836,
    "▁نشست": 837,
    "▁کشید": 838,
    "▁همزمان": 839,
    "▁قدرت": 840,
    "▁تحت": 841,
    "▁شامل": 842,
    "▁جلسه": 843,
    "▁حذف": 844,
    "▁دختر": 845,
    "نشین": 846,
    "▁نمایندگان": 847,
    "▁خورد": 848,
    "▁مسافر": 849,
    "▁انقلاب": 850,
    "▁موارد": 851,
    "▁مطرح": 852,
    "▁صادر": 853,
    "▁نژاد": 854,
    "أ": 855,
    "▁کووید": 856,
    "▁پاسخ": 857,
    "▁بلند": 858,
    "▁گسترده": 859,
    "▁امضا": 860,
    "▁تنیس": 861,
    "▁فشار": 862,
    "▁انتظار": 863,
    "▁ظریف": 864,
    "▁حرکت": 865,
    "▁امکان": 866,
    "▁دفاع": 867,
    "▁پشت": 868,
    "▁المپیک": 869,
    "▁اطلاع": 870,
    "▁چهر": 871,
    "▁بشک": 872,
    "▁رقم": 873,
    "▁کوچک": 874,
    "▁ارائه": 875,
    "▁خانم": 876,
    "▁متوقف": 877,
    "▁ممنوع": 878,
    "▁بحران": 879,
    "▁نشد": 880,
    "▁طراح": 881,
    "▁معرف": 882,
    "▁ورود": 883,
    "▁مصاحبه": 884,
    "▁نیروهای": 885,
    "▁اظهار": 886,
    "▁باشند": 887,
    "▁همچن": 888,
    "▁منچستر": 889,
    "▁فروردین": 890,
    "▁۱۱": 891,
    "▁۱۴۰۰": 892,
    "▁سیستم": 893,
    "▁مالک": 894,
    "▁اسفند": 895,
    "▁فینال": 896,
    "▁سراسر": 897,
    "▁تصوی": 898,
    "▁الکتریکی": 899,
    "▁جامعه": 900,
    "▁موسس": 901,
    "▁حسین": 902,
    "▁ضرب": 903,
    "▁گیرد": 904,
    "▁رانند": 905,
    "▁خبرنگار": 906,
    "▁چگون": 907,
    "▁۱۷": 908,
    "▁تشکیل": 909,
    "▁واحد": 910,
    "▁حساب": 911,
    "▁سیاه": 912,
    "▁دونالد": 913,
    "▁بتوان": 914,
    "▁روبرو": 915,
    "▁هنگام": 916,
    "▁قضایی": 917,
    "▁تجاری": 918,
    "▁اختلاف": 919,
    "▁دوشنبه": 920,
    "▁بارسلونا": 921,
    "▁گذر": 922,
    "▁برخورد": 923,
    "▁مصوب": 924,
    "▁غذا": 925,
    "▁پذیر": 926,
    "▁کارشناس": 927,
    "▁کیلومتر": 928,
    "▁اختیار": 929,
    "▁خروج": 930,
    "▁محیط": 931,
    "▁محدود": 932,
    "▁مارادونا": 933,
    "▁امیدوار": 934,
    "▁افزود": 935,
    "▁تجرب": 936,
    "▁آسیب": 937,
    "▁قرمز": 938,
    "▁۱۸": 939,
    "▁آوریل": 940,
    "▁معمول": 941,
    "▁نیروی": 942,
    "▁پژوهش": 943,
    "▁متفاوت": 944,
    "▁صحبت": 945,
    "▁تهدید": 946,
    "▁۱۴": 947,
    "▁تقاضا": 948,
    "▁درخواست": 949,
    "▁کارگردان": 950,
    "▁اسپانیا": 951,
    "▁کنترل": 952,
    "حفظ": 953,
    "▁تاکید": 954,
    "▁طبق": 955,
    "▁ماسک": 956,
    "▁۱۶": 957,
    "▁ترکیب": 958,
    "▁ژاپن": 959,
    "▁پروژه": 960,
    "▁شاخص": 961,
    "▁میزبان": 962,
    "▁صفح": 963,
    "▁گذشت": 964,
    "▁چهارشنبه": 965,
    "▁اعدام": 966,
    "▁سقوط": 967,
    "▁مشترک": 968,
    "▁قوانین": 969,
    "▁خورشید": 970,
    "▁شهروندان": 971,
    "▁استرالیا": 972,
    "▁پارسال": 973,
    "▁شکایت": 974,
    "▁ترتیب": 975,
    "▁بنزین": 976,
    "▁لازم": 977,
    "▁مصرف": 978,
    "▁کوتاه": 979,
    "▁دلایل": 980,
    "▁بگیرد": 981,
    "محمد": 982,
    "▁مرتبط": 983,
    "▁روابط": 984,
    "▁خودروساز": 985,
    "▁توسعه": 986,
    "▁فهرست": 987,
    "▁همیشه": 988,
    "▁تقریبا": 989,
    "▁شجریان": 990,
    "▁نگهبان": 991,
    "▁انفجار": 992,
    "▁نتایج": 993,
    "▁نظیر": 994,
    "▁علاو": 995,
    "▁یکشنبه": 996,
    "▁تجارت": 997,
    "▁جشنواره": 998,
    "▁فرزند": 999,
    "▁ولایت": 1000,
    "(": 1001
  }
}