ی	-3.41005
.	-3.43963
</s>	0
<unk>	0
ه	-3.89072
▁است	-4.09632
▁	-4.17515
▁می	-4.21251
▁های	-4.62566
▁ایران	-4.67883
▁شده	-5.00386
،	-5.05809
▁سال	-5.15722
▁بود	-5.19893
▁یک	-5.23146
▁ها	-5.2545
▁شد	-5.29605
▁کرده	-5.40644
▁تصویر	-5.41271
▁ای	-5.43478
▁کرد	-5.50528
منبع	-5.57605
ان	-5.63994
▁شود	-5.64785
▁گفته	-5.66622
▁بر	-5.70971
▁دو	-5.76113
▁خود	-5.77451
▁کند	-5.7759
؛	-5.78655
▁اند	-5.84849
▁کرونا	-5.89434
ن	-5.99623
▁کشور	-6.02408
▁در	-6.02977
▁پیش	-6.05873
▁ماه	-6.06865
▁آمریکا	-6.08018
ش	-6.08078
▁گزارش	-6.1015
▁روز	-6.12975
ت	-6.14722
▁ا	-6.24504
▁دارد	-6.26221
▁فوتبال	-6.26296
▁بی	-6.26586
▁دهد	-6.31153
▁کار	-6.31157
▁گفت	-6.31596
▁تیم	-6.34041
▁اعلام	-6.34824
▁کنند	-6.35285
▁بازی	-6.35736
▁م	-6.364
▁قرار	-6.36654
▁شرکت	-6.39504
▁داده	-6.39765
▁دیگر	-6.40029
▁هزار	-6.42266
▁و	-6.4253
ین	-6.42927
▁دولت	-6.43303
▁به	-6.43782
▁رئیس	-6.46159
▁با	-6.46937
م	-6.47409
▁یا	-6.48371
▁خواهد	-6.49032
▁دست	-6.49094
▁گذشته	-6.50937
▁سه	-6.52602
▁بین	-6.53887
▁جهان	-6.5407
▁آقای	-6.54412
▁پس	-6.55528
▁گوید	-6.58168
▁هر	-6.5977
▁درصد	-6.64235
▁درباره	-6.66741
▁بار	-6.66747
▁میلیون	-6.67569
▁آنها	-6.67733
در	-6.67993
▁تهران	-6.68966
▁دلیل	-6.69729
▁افزایش	-6.71775
▁نفر	-6.71972
'	-6.73118
▁لیگ	-6.7323
▁افغانستان	-6.7374
ا	-6.74037
▁'	-6.74093
▁داد	-6.74544
▁چند	-6.75276
▁هفته	-6.7549
این	-6.7706
▁بوده	-6.77164
▁بعد	-6.77185
▁یکی	-6.77305
▁ب	-6.77865
▁از	-6.78091
های	-6.78521
▁ملی	-6.792
▁بازار	-6.79854
:	-6.80208
ر	-6.80308
▁جدید	-6.80695
▁قیمت	-6.82314
▁حال	-6.8262
▁خبر	-6.8411
▁سازمان	-6.84158
▁جمهوری	-6.84198
▁فیلم	-6.85014
▁جهانی	-6.85392
▁همه	-6.85419
▁نمی	-6.8552
▁نام	-6.85626
▁ویروس	-6.85791
▁دلار	-6.86354
▁باید	-6.86651
و	-6.86712
▁برگزار	-6.88097
ند	-6.88212
▁نظر	-6.89368
▁گرفته	-6.89466
▁ترین	-6.89777
▁نفت	-6.90066
د	-6.9089
▁هستند	-6.91029
▁مورد	-6.91065
▁تولید	-6.91167
▁بیش	-6.91441
▁مجلس	-6.91978
▁عنوان	-6.93084
▁امروز	-6.93188
▁ت	-6.93572
▁کاهش	-6.94129
▁شدن	-6.94875
▁علی	-6.9529
▁چین	-6.95376
▁نیست	-6.95751
▁روی	-6.96381
▁شب	-6.97558
▁وزیر	-6.97823
▁اخیر	-6.98275
به	-6.98471
▁سر	-6.98984
▁بریتانیا	-6.99225
▁کردند	-6.99908
▁داشت	-6.99965
▁آغاز	-7.00153
▁وزارت	-7.00687
▁بودند	-7.01505
ب	-7.021
ات	-7.02222
▁سی	-7.02869
▁اروپا	-7.03119
▁بیشتر	-7.03583
▁حدود	-7.0373
▁نیز	-7.03948
▁ایرانی	-7.04984
▁مقابل	-7.06399
ل	-7.06452
▁اقتصادی	-7.07015
▁بانک	-7.0759
▁را	-7.07671
▁راه	-7.07958
▁بزرگ	-7.09583
▁نشان	-7.09621
▁تحریم	-7.1013
▁داشته	-7.10239
▁برنامه	-7.11008
▁باشگاه	-7.11252
▁باشد	-7.11486
▁همچنین	-7.11546
س	-7.12212
▁پایان	-7.12529
▁حضور	-7.12654
▁ف	-7.14084
▁انجام	-7.14191
▁اش	-7.14762
▁اساس	-7.1483
▁اولین	-7.15311
▁زمان	-7.16602
▁تر	-7.16768
▁آن	-7.17257
که	-7.17485
▁منتشر	-7.17743
▁هایی	-7.17971
▁توافق	-7.18219
▁شیوع	-7.19676
▁باز	-7.2013
▁صورت	-7.20345
▁واکسن	-7.21706
▁شهر	-7.2239
▁اول	-7.22561
▁شوند	-7.22918
▁بخش	-7.23701
▁س	-7.23841
▁جمله	-7.24749
له	-7.24816
ری	-7.25136
▁استفاده	-7.25258
آقای	-7.27045
دامه	-7.27219
▁مردم	-7.27249
▁میلیارد	-7.28275
▁وجود	-7.28723
▁میان	-7.29067
▁رسید	-7.31269
▁تومان	-7.31934
▁دارند	-7.32547
▁ارز	-7.32556
▁گل	-7.32657
▁مسابقه	-7.33178
او	-7.33251
▁همین	-7.33512
▁کم	-7.337
؟	-7.33796
▁المللی	-7.33889
▁فصل	-7.34144
▁زندگی	-7.36038
▁خواست	-7.36536
گی	-7.36662
▁مسابقات	-7.36698
▁گروه	-7.37809
▁حقوق	-7.38006
▁چهار	-7.38057
▁آینده	-7.38696
▁شدند	-7.38903
▁مقام	-7.39009
▁ن	-7.39336
▁تنها	-7.39996
▁اسلامی	-7.4026
▁نرخ	-7.40357
▁پ	-7.40846
▁تمام	-7.4094
▁وضعیت	-7.4134
انه	-7.42276
ز	-7.42766
▁گیری	-7.43083
▁خانه	-7.43512
▁ماشین	-7.43586
▁حالی	-7.44455
▁افراد	-7.44719
▁محمد	-7.44818
▁ک	-7.44965
▁انتخابات	-7.44982
▁اقتصاد	-7.45264
▁امسال	-7.45308
▁وقت	-7.45718
▁گرفت	-7.46151
▁ساله	-7.46296
▁ه	-7.46672
▁خارجه	-7.46705
▁دوران	-7.46706
▁بیماری	-7.46799
▁زنان	-7.46833
عث	-7.47158
▁شرایط	-7.47769
▁کردن	-7.48045
▁۲۰	-7.48536
▁بسیاری	-7.49453
▁قبل	-7.49655
▁برتر	-7.49968
▁فعالیت	-7.50661
▁روحانی	-7.50679
▁زیاد	-7.50712
▁غیر	-7.50831
▁اجتماعی	-7.51081
نه	-7.51134
▁توان	-7.51219
بدون	-7.51617
▁تلاش	-7.51643
▁هیچ	-7.51729
▁جام	-7.52408
▁تواند	-7.52636
▁وارد	-7.52642
▁گویند	-7.53272
▁نزدیک	-7.53836
▁طرح	-7.53921
▁تازه	-7.54405
▁نخست	-7.54756
▁کمک	-7.55739
▁کشورهای	-7.55747
▁طور	-7.55849
▁حالا	-7.55885
یت	-7.55935
▁مرکزی	-7.56052
▁فروش	-7.56079
▁مختلف	-7.56383
▁خانواده	-7.56525
▁بسیار	-7.56846
▁ولی	-7.56881
▁مدت	-7.56952
▁جان	-7.57222
▁سوی	-7.57647
▁اطلاعات	-7.57679
ترین	-7.58571
▁۱۹	-7.58597
▁تصمیم	-7.58755
▁بورس	-7.59115
▁همراه	-7.59366
▁نه	-7.59991
▁منطقه	-7.60025
▁تغییر	-7.60453
▁پنج	-7.60561
▁زمین	-7.60581
▁تاریخ	-7.60859
▁دوره	-7.61555
▁دهه	-7.6194
▁سرمایه	-7.62432
▁زن	-7.62811
▁رسمی	-7.63277
▁اثر	-7.63297
▁خودرو	-7.63515
▁موسیقی	-7.63654
▁قهرمان	-7.63906
▁بعضی	-7.64057
▁د	-7.64112
▁رسان	-7.64148
▁پرسپولیس	-7.64376
▁پی	-7.64621
ق	-7.64932
▁منبع	-7.65037
▁برای	-7.65265
▁درگذشت	-7.6528
▁ریاست	-7.65551
▁مرکز	-7.65862
▁مهم	-7.65896
شان	-7.66143
▁ر	-7.66887
▁آمار	-7.67082
یه	-7.67247
▁قهرمانی	-7.67564
▁شکست	-7.68027
▁پر	-7.6811
ار	-7.68623
▁نوشته	-7.68632
قط	-7.6898
▁اصلی	-7.69006
▁دی	-7.69089
▁حمله	-7.69513
▁نقش	-7.69535
▁پیدا	-7.69723
▁برجام	-7.69814
نامه	-7.70002
▁مراسم	-7.70298
▁برابر	-7.70455
▁بررسی	-7.70924
▁شروع	-7.71149
▁میلادی	-7.71224
▁بالا	-7.71411
▁رقابت	-7.71592
▁آمریکایی	-7.71622
▁ش	-7.71784
▁کنار	-7.72072
▁فدراسیون	-7.72099
▁دوم	-7.72191
▁رسیده	-7.72522
شورای	-7.728
▁عکس	-7.72876
▁جمهور	-7.73146
▁یافته	-7.73161
▁زیر	-7.73557
▁۱۰	-7.73831
▁۴	-7.73945
▁هسته	-7.74354
▁پول	-7.74582
▁ویژ	-7.74608
ثبت	-7.7493
ک	-7.75021
ست	-7.75156
▁رفت	-7.75363
▁اعتراض	-7.75439
نوز	-7.75647
▁کشتی	-7.75732
ده	-7.75965
▁حاضر	-7.76284
▁۵	-7.76595
ایی	-7.76756
▁دانشگاه	-7.77232
▁ساعت	-7.77273
▁نتیج	-7.77444
▁سفر	-7.7746
▁استان	-7.77589
▁هم	-7.78243
▁آزاد	-7.78308
یک	-7.78341
▁دنیا	-7.78465
▁سیاسی	-7.78467
▁که	-7.78617
▁اینک	-7.79225
▁مالی	-7.79789
▁موضوع	-7.79842
▁کل	-7.80183
▁الله	-7.80201
▁پرداخت	-7.80316
▁ممکن	-7.80479
▁برخ	-7.80524
ها	-7.80715
▁نشده	-7.80941
▁ندارد	-7.81042
▁کنیم	-7.81166
▁کتاب	-7.81245
گان	-7.81421
▁سهام	-7.81426
▁واکنش	-7.81519
با	-7.81641
▁همکاری	-7.81715
توسط	-7.82125
▁سابق	-7.8216
▁گذاری	-7.82214
▁شش	-7.82302
▁کمتر	-7.82655
نی	-7.82704
▁توجه	-7.8278
▁دنبال	-7.82945
▁شنبه	-7.83056
▁سیاست	-7.83392
▁آ	-7.83527
▁بازیکن	-7.83596
▁دریافت	-7.8413
▁۲	-7.84165
▁طی	-7.84287
▁عراق	-7.84812
▁آژانس	-7.84894
▁عرض	-7.85641
▁جایزه	-7.85663
▁حمایت	-7.857
▁هدف	-7.85885
▁کمی	-7.85938
ون	-7.86395
▁دور	-7.86703
▁ترکیه	-7.87056
▁ترامپ	-7.87177
▁اشار	-7.8728
▁بودجه	-7.87304
▁استقلال	-7.87372
▁۲۰۲۰	-7.87614
▁انتشار	-7.88081
▁فرانسه	-7.88442
▁رشد	-7.8887
▁آمده	-7.8925
▁خرید	-7.8995
▁تعطیل	-7.89977
اکنون	-7.90169
▁دهند	-7.90265
▁متهم	-7.90517
▁نیمه	-7.9055
▁نامه	-7.90774
▁سازی	-7.90856
▁رسد	-7.90968
▁او	-7.91139
بر	-7.91141
▁انرژی	-7.91258
▁رو	-7.91328
▁آلمان	-7.91394
▁خبرگزا	-7.91681
▁زبان	-7.91874
ای	-7.92034
▁آب	-7.92359
▁پیروز	-7.92535
حتی	-7.92782
▁عربستان	-7.93334
▁کر	-7.93778
▁بازداشت	-7.938
▁چنین	-7.93918
▁یافت	-7.93995
▁همان	-7.941
)	-7.94497
▁نیاز	-7.94654
▁خام	-7.94939
▁خارجی	-7.95306
▁مذاکرات	-7.954
▁مدیر	-7.9586
▁هشدار	-7.96064
▁اتحاد	-7.96079
▁تبدیل	-7.96271
▁تایید	-7.96323
▁اجرای	-7.96426
▁بهداشت	-7.96471
▁ده	-7.9674
▁تلویزیون	-7.96747
▁روند	-7.96751
▁صد	-7.96925
▁نیم	-7.97013
▁هفت	-7.97265
▁میزان	-7.973
▁لیورپول	-7.97381
▁حسن	-7.97397
▁این	-7.98054
▁شمار	-7.98063
▁قهرمانان	-7.98082
▁دولتی	-7.98172
▁صادرات	-7.98919
▁محل	-7.99033
▁آزمایش	-7.99134
▁۳	-7.99209
▁دیدار	-7.99215
▁(	-7.9945
▁قابل	-7.9945
▁دیده	-7.99578
از	-7.99742
▁کشته	-7.99783
▁ورزش	-7.99915
▁ایجاد	-8.00023
ِ	-8.00436
▁مجموعه	-8.00452
▁خواهند	-8.00547
▁جنوبی	-8.00598
▁دادگاه	-8.00784
▁خارج	-8.01062
▁مربوط	-8.01172
▁بازیکنان	-8.0124
▁نهایی	-8.01589
▁جریان	-8.01812
▁زمانی	-8.01982
▁بازگشت	-8.02186
▁اقدام	-8.02352
کسب	-8.02705
▁مشخص	-8.02705
▁نا	-8.02717
▁مبارز	-8.03083
گیری	-8.03184
▁خط	-8.03203
▁.	-8.03501
▁اسرائیل	-8.03893
▁سرمربی	-8.03975
▁مرگ	-8.04048
▁زندان	-8.04484
▁قانون	-8.04736
▁ح	-8.04739
▁لغ	-8.06044
▁ام	-8.06081
▁مدل	-8.06091
▁روسیه	-8.06094
▁زده	-8.06096
▁فاصله	-8.06211
▁حکومت	-8.06809
▁کننده	-8.07407
▁صنعت	-8.07832
▁بشر	-8.08022
▁چرا	-8.08169
▁سخت	-8.08209
▁امنیت	-8.08213
▁ارتباط	-8.08253
▁ارزش	-8.08395
▁آی	-8.08456
▁ج	-8.08519
▁مرد	-8.08534
▁ابتلا	-8.08615
▁خطر	-8.08716
▁زمینه	-8.08789
▁بیمارستان	-8.09234
▁داستان	-8.09303
▁۶	-8.09346
▁سوم	-8.09397
▁اتمی	-8.09423
▁نقل	-8.09491
▁رد	-8.09553
▁دقیق	-8.09575
▁نمایش	-8.09696
▁حکم	-8.10043
▁انگلیس	-8.10258
▁خاطر	-8.10345
▁نمایند	-8.10484
▁محدودیت	-8.10507
▁رود	-8.10593
▁رهبر	-8.10632
▁برد	-8.10731
▁انتخاب	-8.11042
▁پلیس	-8.11065
▁نگاه	-8.11427
▁عمومی	-8.11639
▁جلو	-8.11656
▁درآمد	-8.11792
▁ساخته	-8.11851
▁اعضای	-8.1197
▁نمایندگان	-8.12481
▁تعداد	-8.1252
▁سخنگوی	-8.12783
▁امنیتی	-8.12824
▁نسبت	-8.12968
▁دیگری	-8.1312
▁تاثیر	-8.13624
▁عضو	-8.13847
▁کابل	-8.13931
▁آثار	-8.14058
▁۳۰	-8.14082
▁لندن	-8.14304
▁۱۳	-8.14327
▁منابع	-8.14552
▁سن	-8.14658
۸	-8.14666
▁ساخت	-8.14759
▁بیانیه	-8.14893
ینه	-8.14923
▁بالای	-8.14945
▁شکل	-8.15195
▁معاون	-8.1617
▁رکورد	-8.16345
▁کووید	-8.16401
▁سو	-8.16428
▁شناخت	-8.16519
▁همزمان	-8.16555
مین	-8.16588
▁کامل	-8.16887
▁طول	-8.16921
▁قرارداد	-8.17186
▁سپاه	-8.17198
▁امتیاز	-8.17345
▁انسان	-8.17731
▁جاری	-8.17776
چه	-8.18063
▁جا	-8.1828
▁آسیا	-8.18284
ور	-8.18422
▁پزشکی	-8.18447
▁سطح	-8.18543
▁نظامی	-8.18755
▁شورا	-8.19035
▁روزهای	-8.19043
▁کودکان	-8.1935
▁جلس	-8.1945
▁بخشی	-8.19557
▁طرف	-8.19573
▁قرنطینه	-8.19733
یم	-8.1982
▁رای	-8.19898
▁دوبار	-8.20326
ال	-8.20862
▁نیروهای	-8.20877
▁جنگ	-8.20898
▁سالگی	-8.21049
▁۲۵	-8.21215
▁گاز	-8.21315
▁المپیک	-8.21334
▁عالی	-8.21494
▁هوای	-8.2185
▁تحت	-8.21885
▁بهتری	-8.21971
▁چ	-8.22039
▁تع	-8.22173
▁اج	-8.22222
خیلی	-8.22276
▁تنیس	-8.22515
▁تو	-8.22625
▁جو	-8.22812
▁توانست	-8.22886
▁افت	-8.23116
▁صندوق	-8.23203
▁سابقه	-8.23455
▁نشست	-8.235
▁مطرح	-8.2356
ره	-8.23634
▁معرف	-8.24163
ازه	-8.24275
▁انقلاب	-8.24323
▁انتظار	-8.24398
▁متحده	-8.24607
وز	-8.24649
-	-8.24655
▁گسترده	-8.24779
▁دانست	-8.24821
▁ترک	-8.24874
▁نامزد	-8.25125
▁مصاحبه	-8.25901
روز	-8.26342
▁داخل	-8.26347
▁شدت	-8.26447
▁بحران	-8.26526
▁وی	-8.26537
▁برق	-8.26561
▁مرح	-8.26741
▁جدی	-8.26834
▁آخری	-8.26864
▁نکرده	-8.2694
▁نگرانی	-8.26978
▁برنده	-8.27182
▁رفته	-8.27545
▁۲۰۰	-8.27626
▁ظریف	-8.27649
▁هز	-8.27844
▁نفتی	-8.28075
▁بایدن	-8.28403
▁چهر	-8.28486
▁انتقال	-8.28525
▁قو	-8.28531
▁ع	-8.28721
▁فشار	-8.28726
▁آیا	-8.29001
▁خوب	-8.29515
▁۲۰۱۹	-8.30055
▁متوقف	-8.30085
▁انتقاد	-8.30102
ف	-8.30155
▁خودش	-8.30325
نده	-8.30505
▁گرفتن	-8.30624
▁بینی	-8.30769
▁امور	-8.30809
▁تصوی	-8.30811
▁گذاشته	-8.3092
▁۱	-8.30968
▁۷	-8.31069
می	-8.31263
▁اتهام	-8.31791
▁اسفند	-8.31865
▁پاسخ	-8.31988
▁گیرد	-8.32043
▁پیشین	-8.32062
▁دستگاه	-8.32239
▁جامعه	-8.32316
اما	-8.32432
▁ارائه	-8.32462
▁فارسی	-8.32466
▁حرکت	-8.32524
▁ایتالیا	-8.32607
▁حساب	-8.32665
▁فرهنگ	-8.33103
▁قدرت	-8.33273
▁بست	-8.33335
▁دونالد	-8.3334
▁شدید	-8.33511
▁مشکلات	-8.33625
▁فعال	-8.33636
▁۱۲	-8.33998
▁موج	-8.34
▁نوشت	-8.34075
▁آزادی	-8.34181
ستاد	-8.34289
رونده	-8.3429
▁کشید	-8.34343
▁آمد	-8.34374
▁طراح	-8.34449
▁بشک	-8.34545
▁سینما	-8.34552
▁اتفاق	-8.34774
▁فروردین	-8.34988
▁قطع	-8.3507
▁کسان	-8.35151
▁فینال	-8.3541
▁ورزشی	-8.35428
▁محکوم	-8.35561
▁باشند	-8.35722
▁۱۴۰۰	-8.35771
▁مرغ	-8.35831
▁سایر	-8.35895
ستاره	-8.36137
▁جای	-8.36217
▁روزنامه	-8.36237
▁داشتند	-8.3626
▁فضای	-8.36354
▁مانده	-8.36598
▁فکر	-8.36653
▁دستور	-8.36746
▁الکتریکی	-8.36974
▁دسترس	-8.3699
▁چشم	-8.37065
▁خانم	-8.37177
▁ملل	-8.37195
▁بلند	-8.37386
▁مشکل	-8.37564
▁کس	-8.37585
الات	-8.37687
▁موسس	-8.37703
▁رقم	-8.37712
▁هند	-8.37719
▁همچن	-8.37744
▁تورم	-8.37988
▁جمعیت	-8.38013
▁دوشنبه	-8.38286
▁قرن	-8.3831
▁۹	-8.386
▁چهارم	-8.38788
▁گو	-8.38886
▁غنی	-8.38969
▁نوع	-8.39073
▁ورود	-8.39669
▁هنگام	-8.39698
▁پرو	-8.39701
▁جنوب	-8.3982
▁اجرا	-8.39952
▁آنچ	-8.40037
▁نو	-8.40108
▁مصوب	-8.40142
▁معاملات	-8.40316
▁۱۵	-8.40354
▁آسیب	-8.40928
▁محیط	-8.4093
▁امضا	-8.41057
بی	-8.41138
▁محدود	-8.41431
▁آبان	-8.4148
▁چگون	-8.41626
▁خروج	-8.41695
▁دادن	-8.41999
▁احتمال	-8.42108
▁فن	-8.4215
▁اف	-8.42325
▁قبلی	-8.42364
▁مسئولان	-8.4237
▁ورزشگاه	-8.42408
▁محلی	-8.42591
▁فرهنگی	-8.42602
ً	-8.42915
▁پشت	-8.42949
▁تشکیل	-8.43493
▁جمعه	-8.43559
▁تاریخی	-8.43705
▁طر	-8.43755
▁ناشی	-8.43821
▁باقی	-8.43828
سی	-8.44064
سیون	-8.44073
▁شهرهای	-8.44259
▁شجریان	-8.44367
▁انفجار	-8.44379
▁آوریل	-8.44457
▁اسکار	-8.44504
▁تجاری	-8.44521
▁شامل	-8.44919
▁سیاه	-8.45117
▁شما	-8.45205
ول	-8.45266
▁دفاع	-8.45478
▁۵۰	-8.45592
▁تاکید	-8.45777
▁بارسلونا	-8.45856
▁کنید	-8.45892
▁واحد	-8.45981
▁تجرب	-8.46085
▁کارگران	-8.46328
▁اروپایی	-8.46368
▁اختیار	-8.46445
▁طولانی	-8.46549
▁علت	-8.46808
▁شاخص	-8.46984
▁تن	-8.47
ج	-8.47029
گاه	-8.47164
وی	-8.47307
▁شکایت	-8.47343
▁سیستم	-8.47708
▁امکان	-8.47862
▁مربی	-8.47983
▁ترکیب	-8.48148
▁متفاوت	-8.48672
▁نویسنده	-8.48738
▁نبود	-8.48845
▁پای	-8.49079
▁یاد	-8.49138
▁نهاد	-8.49167
▁ممنوع	-8.4936
▁آخر	-8.49384
▁آتش	-8.49476
▁نیروی	-8.49587
یین	-8.49706
▁صحبت	-8.49713
▁احتمالا	-8.4983
▁کنم	-8.49837
▁ترتیب	-8.50134
دی	-8.50433
▁تک	-8.50476
▁شان	-8.50492
▁دار	-8.50779
▁مرتبط	-8.50882
▁چپ	-8.5093
حفظ	-8.50967
▁داخلی	-8.51065
▁شهروندان	-8.51136
▁دادند	-8.51138
▁کوچک	-8.51172
▁اس	-8.51198
حه	-8.51328
▁هنر	-8.51358
▁یع	-8.51432
▁تحقیق	-8.51517
▁ضرب	-8.51531
▁درمان	-8.51543
▁شماری	-8.51557
▁روبرو	-8.51575
▁قوانین	-8.51681
▁لازم	-8.51745
لی	-8.51861
▁واردات	-8.52039
▁ال	-8.52232
یق	-8.5233
▁اولیه	-8.52336
▁ماسک	-8.52489
▁لای	-8.52632
▁بودن	-8.52652
▁نظام	-8.52881
▁ابتدای	-8.52893
▁مبتلا	-8.53147
▁مشترک	-8.53153
▁مسیر	-8.53154
▁کنترل	-8.53203
▁پروژه	-8.5321
▁مواد	-8.53255
▁تامین	-8.53266
▁درخواست	-8.53282
▁بیرون	-8.53283
▁۲۲	-8.53294
▁پایین	-8.53359
▁تحقیقات	-8.53538
▁قرمز	-8.53568
▁عباس	-8.53848
▁سقوط	-8.54013
▁آستان	-8.54048
▁مسی	-8.54055
▁بهتر	-8.54397
▁خوانده	-8.54492
▁حذف	-8.54629
▁گذشت	-8.54657
▁ونزوئلا	-8.54821
▁نقاشی	-8.55013
▁۲۰۱	-8.55107
پس	-8.55161
▁توسعه	-8.5554
▁۱۱	-8.55758
▁۸	-8.55772
▁شاهد	-8.5579
▁فرد	-8.55803
▁حل	-8.56023
تر	-8.56129
▁یکشنبه	-8.56383
۲	-8.568
▁هایش	-8.56891
▁فهرست	-8.57082
▁بگیرد	-8.57118
▁موارد	-8.57167
▁نتایج	-8.57227
مه	-8.57342
▁افتاد	-8.57435
▁میزبان	-8.57485
▁عمل	-8.57705
رفع	-8.57938
▁رییس	-8.57959
▁سمت	-8.58053
▁سرعت	-8.58245
▁مسئول	-8.58372
▁سوخت	-8.58419
یون	-8.58502
▁۴۰	-8.58581
▁چهارشنبه	-8.58701
▁آورد	-8.58889
انی	-8.58908
▁مارادونا	-8.58915
▁همیشه	-8.58985
▁سنت	-8.59049
▁شاید	-8.59161
▁کلی	-8.59244
▁بندی	-8.59264
▁نژاد	-8.59336
سازی	-8.59351
▁هشت	-8.59462
▁نگهبان	-8.59482
▁نظیر	-8.59483
▁وین	-8.59489
▁اخیرا	-8.59634
▁روابط	-8.59748
▁هرات	-8.59774
۴	-8.59898
▁طبق	-8.59931
▁اختلاف	-8.60282
▁بد	-8.60396
▁سریال	-8.60434
▁طلا	-8.60535
▁زاده	-8.60679
▁هوا	-8.60832
▁خون	-8.6109
▁بتوان	-8.61143
▁آماده	-8.61409
▁تا	-8.61545
▁علاو	-8.61615
▁صفر	-8.61673
▁قانونی	-8.61681
▁تجارت	-8.62006
▁اتاق	-8.62035
▁برده	-8.62091
▁شناس	-8.62316
▁ط	-8.62351
ید	-8.62387
▁تقریبا	-8.62865
▁هنری	-8.62881
▁کوتاه	-8.62921
▁گروهی	-8.6293
▁سراسر	-8.62932
▁فعالان	-8.62988
▁دلایل	-8.63017
▁شمال	-8.63085
▁یورو	-8.63184
▁زود	-8.63188
▁بیشتری	-8.63394
▁مارس	-8.63414
▁ولایت	-8.63685
▁۲۰۲۱	-8.63699
▁پارسال	-8.63715
▁معروف	-8.63773
▁جشنواره	-8.6382
▁سلامت	-8.63931
▁۱۴	-8.64121
▁محمود	-8.64146
▁بارها	-8.64169
▁صادر	-8.64209
▁فر	-8.64374
▁زد	-8.64433
▁عامل	-8.64584
▁جز	-8.64641
▁حادثه	-8.64707
▁اقدامات	-8.64737
▁قصد	-8.64853
▁قطر	-8.64946
▁کارگردان	-8.65091
▁۶۰	-8.65252
▁بخوانید	-8.65373
▁ندارند	-8.65384
▁اوپک	-8.65574
▁کالا	-8.65589
▁رفتن	-8.65781
▁اداره	-8.65784
▁تاکنون	-8.6586
▁فوت	-8.66094
▁متر	-8.66348
اخر	-8.66354
▁مصرف	-8.66417
▁هواپیمایی	-8.66599
▁رسیدن	-8.66664
▁کارخان	-8.67036
▁۹۸	-8.67161
▁تاج	-8.67203
▁اعدام	-8.67433
▁مشابه	-8.68044
▁بدن	-8.68345
▁مجازی	-8.68375
▁دارایی	-8.68381
▁صفح	-8.68418
▁رشت	-8.68637
▁هواداران	-8.68911
▁نقطه	-8.68916
▁واقع	-8.68916
▁پیشنهاد	-8.68975
▁بنزین	-8.6899
▁غرب	-8.69117
▁سوار	-8.69205
▁پور	-8.69236
▁عد	-8.6926
▁جمع	-8.6929
نگ	-8.69487
▁اطلاع	-8.6963
▁مناطق	-8.69785
▁کاری	-8.69813
▁پرواز	-8.69878
یی	-8.69879
▁خصوصی	-8.70029
▁کنندگان	-8.70146
▁بیست	-8.70356
▁۱۶	-8.70415
▁سیتی	-8.70567
▁رمان	-8.70645
▁خوزستان	-8.70703
▁رعایت	-8.70722
▁عملیات	-8.70831
▁حق	-8.70877
▁رنگ	-8.70903
▁اندازه	-8.70968
▁کیلومتر	-8.70979
علی	-8.71001
▁پیام	-8.71271
▁تابستان	-8.71273
▁کاملا	-8.71302
گر	-8.71302
▁سا	-8.71526
▁چاپ	-8.71712
▁قلب	-8.71815
▁سوریه	-8.71867
▁تهدید	-8.72017
اساس	-8.72047
▁ق	-8.72062
▁حد	-8.72246
▁احمد	-8.72418
ایران	-8.72474
▁حرفه	-8.72494
▁تهی	-8.72505
▁عدالت	-8.72569
▁نظارت	-8.72584
▁مشهور	-8.72598
▁فساد	-8.7262
▁احیا	-8.72621
۰	-8.72727
▁نهادهای	-8.73023
▁مهر	-8.73162
ته	-8.73262
▁زنده	-8.7332
▁برسد	-8.73558
▁فرصت	-8.73584
▁پاریس	-8.73612
▁کاخ	-8.73615
▁جهش	-8.73681
▁عمده	-8.73724
۵	-8.73753
▁گون	-8.73805
▁ماند	-8.73818
▁زیست	-8.73989
▁توییتر	-8.74055
▁جنسی	-8.74127
▁بریتانیایی	-8.74209
▁کشورها	-8.74212
▁سایت	-8.74252
▁توصیف	-8.74444
▁حوزه	-8.74469
▁رکود	-8.74534
▁کشف	-8.74565
عده	-8.74569
▁اینترنت	-8.7459
▁یونایتد	-8.74604
▁اعتراضات	-8.74703
▁مالیات	-8.74788
▁کودک	-8.74951
▁پدر	-8.75303
تی	-8.75368
▁بایرن	-8.75427
▁جدول	-8.75473
▁مجوز	-8.7549
▁علمی	-8.7552
▁نسل	-8.75563
▁موفق	-8.75596
▁۱۸	-8.75609
▁گ	-8.75624
▁ما	-8.75727
▁خواهان	-8.75781
▁مرز	-8.7593
▁چیزی	-8.75957
خانه	-8.76227
▁حزب	-8.76325
▁سفید	-8.76378
▁محمو	-8.76565
▁انگیز	-8.76746
▁نگران	-8.76771
▁بالاتر	-8.7693
▁پخ	-8.77068
▁خالی	-8.77081
▁فضایی	-8.77179
▁آید	-8.77204
▁مذاکر	-8.77231
▁مه	-8.77274
▁من	-8.7729
▁عملکرد	-8.77402
▁رابطه	-8.77404
براز	-8.77547
▁بو	-8.7783
▁پژوهش	-8.78068
▁توپ	-8.78377
▁۵۰۰	-8.78526
▁تصاویر	-8.78569
▁استرالیا	-8.78673
▁سود	-8.78682
▁بازیگر	-8.78717
▁کنون	-8.78782
▁کارگر	-8.78815
▁مواجه	-8.79253
▁موافقت	-8.79395
▁سنگین	-8.79523
مان	-8.79524
▁دومین	-8.79664
▁بزرگترین	-8.79699
▁فدرر	-8.79714
▁تغییرات	-8.79724
▁۹۰	-8.79804
▁گفتگو	-8.79833
▁افغان	-8.79987
▁سعید	-8.80187
▁پایتخت	-8.80272
▁ان	-8.80431
نمایی	-8.80594
▁عبور	-8.80907
▁۱۷	-8.80916
▁مجموع	-8.80918
▁سریع	-8.81005
▁خودروساز	-8.8101
▁مت	-8.81059
▁روش	-8.81085
▁مجدد	-8.813
▁صدا	-8.81465
▁ایالت	-8.81843
▁روشن	-8.82029
طور	-8.8203
▁ایمن	-8.82107
▁باخت	-8.82126
▁مهدی	-8.82159
▁سکه	-8.82221
▁ژوئن	-8.823
▁نفتکش	-8.82431
▁سرطان	-8.82487
▁گر	-8.82668
یر	-8.82695
▁میدان	-8.82859
▁چیز	-8.8297
▁نشد	-8.83076
▁تاجیکستان	-8.83338
▁مقررات	-8.83349
▁مقایس	-8.83401
▁درست	-8.83442
▁موفقیت	-8.83458
▁قطعی	-8.83606
▁خواننده	-8.83635
▁امام	-8.83786
ام	-8.83813
▁کدام	-8.83906
▁جوان	-8.83911
▁مردان	-8.8393
ممنوعیت	-8.83944
▁مشغول	-8.84207
▁توضیح	-8.84223
▁گذار	-8.84274
▁پنجم	-8.84357
▁مجبور	-8.84375
▁دهم	-8.8438
▁آرژانتین	-8.8444
▁افتاده	-8.84508
▁تی	-8.846
▁سخنران	-8.84602
▁مانع	-8.84604
▁ماهه	-8.84635
▁فرمانده	-8.84704
▁چلسی	-8.84722
▁مدیریت	-8.84732
▁پروازهای	-8.84835
▁صدای	-8.84869
▁بیکار	-8.84887
▁کن	-8.8505
▁بال	-8.85258
۶	-8.85284
▁جشن	-8.85522
▁تجمع	-8.85532
▁۲۴	-8.85553
▁۱۰۰	-8.85631
▁مد	-8.85653
▁ارزی	-8.85748
▁چه	-8.85764
▁مر	-8.86066
▁احمدی	-8.86134
فورد	-8.86413
▁خواند	-8.86445
▁ملت	-8.86479
▁منتقل	-8.8649
▁اظهارات	-8.86668
▁سنگ	-8.86816
▁جدا	-8.86817
▁حسین	-8.8698
▁رانند	-8.87202
▁اضاف	-8.87392
▁دریا	-8.87429
▁-	-8.87465
▁روزانه	-8.8748
▁برخورد	-8.8749
▁دختر	-8.87511
▁ارتش	-8.87683
▁ساختمان	-8.87715
▁حرف	-8.87783
▁دفتر	-8.87862
▁سفیر	-8.87887
▁تاتنهام	-8.87929
▁پیشتر	-8.87955
▁بهار	-8.88027
▁تقوی	-8.88327
▁دنیای	-8.8847
▁ارشد	-8.8874
▁ل	-8.88741
▁واکسین	-8.8879
▁بهمن	-8.88924
▁دبیر	-8.88964
▁مجله	-8.89036
ع	-8.89109
▁زندانی	-8.89321
▁واقعی	-8.89426
▁قضایی	-8.89434
▁اجرایی	-8.89591
▁ز	-8.89688
▁۲۸	-8.8969
▁نقاط	-8.89749
▁خ	-8.8982
▁حت	-8.89879
▁بهبود	-8.89955
▁اسپانیا	-8.89964
▁تشخیص	-8.89987
یات	-8.89996
▁پا	-8.90065
▁خصوص	-8.90118
▁آورده	-8.90216
▁دکتر	-8.904
▁خبرنگار	-8.90664
▁یابد	-8.90838
▁انگلستان	-8.90871
▁دوچرخه	-8.90943
▁گردد	-8.91006
ریق	-8.91107
▁خاک	-8.9153
▁مل	-8.9156
▁بنا	-8.91883
▁بازارهای	-8.91945
▁حداقل	-8.91984
▁دچار	-8.91986
محمد	-8.92002
▁امیر	-8.92043
▁مرداد	-8.9218
اس	-8.92192
▁قدیمی	-8.92274
▁نوری	-8.92303
▁بحث	-8.92335
▁رساند	-8.92479
▁هنرمند	-8.92705
▁رخ	-8.92796
▁انگلیسی	-8.93056
▁سرشناس	-8.93141
▁ظرف	-8.93149
▁نشری	-8.9326
▁اوت	-8.93342
▁امیدوار	-8.9338
▁ژان	-8.93441
▁جدیدی	-8.93522
▁شاه	-8.93538
ویه	-8.93743
▁گذاشت	-8.93795
▁بهداشتی	-8.93825
▁وزن	-8.94164
▁تورنمنت	-8.94272
▁دوربین	-8.94302
▁بیت	-8.94402
▁گمرک	-8.94449
▁محمدرضا	-8.94571
▁زنی	-8.95096
▁مسکن	-8.95444
▁فراهم	-8.95449
▁پاسداران	-8.95465
▁سوئیس	-8.95471
▁علاقه	-8.95524
▁مک	-8.95632
▁زدن	-8.95641
▁دوست	-8.95795
▁ابتدا	-8.96104
▁خورد	-8.96433
▁صبح	-8.96674
▁۱۳۹۹	-8.9669
بیشتر	-8.96702
وایل	-8.96869
▁دانند	-8.96924
▁برداشت	-8.97023
▁عرب	-8.97222
داری	-8.9729
▁نویس	-8.97368
۱	-8.97438
▁ظاهر	-8.97454
▁وابست	-8.97805
▁قتل	-8.9784
▁کانال	-8.97887
▁سینمایی	-8.98034
▁جنجال	-8.98054
▁اوراق	-8.98071
▁موجب	-8.98076
▁فنی	-8.98172
یا	-8.98266
▁لو	-8.9832
عودی	-8.98454
▁حریف	-8.98763
▁رضا	-8.98833
▁فرانسوی	-8.9908
دو	-8.99101
▁آموزش	-8.99108
▁تزریق	-8.99112
خش	-8.99288
▁منف	-8.99306
▁آوری	-8.99464
▁مالک	-8.99607
▁کنونی	-8.99633
▁عهد	-8.99691
▁راست	-8.99755
▁فرم	-8.99756
▁کارشناسان	-8.99805
▁۲۳	-8.99883
▁وضع	-8.99899
▁دانشمندان	-8.99955
▁فو	-9.00048
▁آلمانی	-9.00074
▁ژاپن	-9.00101
▁شرق	-9.00169
▁معتقد	-9.00236
۰۰	-9.00248
▁منچستر	-9.00297
▁واشنگتن	-9.00299
▁هدایت	-9.00336
▁بحرین	-9.00351
▁موجود	-9.00355
▁کوین	-9.00424
▁فعلی	-9.00459
▁پوند	-9.00473
▁امید	-9.00555
▁مغز	-9.00698
▁شخصی	-9.00727
▁مادر	-9.00871
▁طبیع	-9.00892
▁نهایت	-9.01169
▁مثبت	-9.01186
▁تعدادی	-9.01305
▁مادرید	-9.01567
▁معادل	-9.01598
▁فیفا	-9.01646
▁خرداد	-9.01665
▁۷۰	-9.01909
▁شخصیت	-9.01916
▁خودروهای	-9.01977
▁مستقیم	-9.02443
▁روایت	-9.02656
▁آلبوم	-9.02745
▁مبتلایان	-9.02775
▁نشود	-9.02817
▁رفتار	-9.02837
▁صدر	-9.03182
▁بیمار	-9.03237
▁مقامات	-9.03312
▁دختران	-9.03328
اوری	-9.03436
کنندگان	-9.03917
▁خانگی	-9.04066
▁فوریه	-9.04079
▁ارسال	-9.04179
▁قبلا	-9.04224
▁معمولا	-9.04246
▁مخالفت	-9.04285
▁دل	-9.04468
▁پل	-9.04674
▁معتبر	-9.04679
▁صاحب	-9.05115
▁معامل	-9.05323
▁هستیم	-9.05385
▁طالبان	-9.05465
▁قدم	-9.05475
▁فارس	-9.05568
کی	-9.05574
▁بن	-9.05603
▁نداشته	-9.05604
▁تومانی	-9.05648
▁صعود	-9.05767
عمال	-9.05801
▁راهی	-9.05836
▁جمعی	-9.0597
▁دریای	-9.05982
▁دید	-9.06002
▁۹۹	-9.06366
▁شعر	-9.06456
▁خدمات	-9.06608
▁گرفتند	-9.06702
▁کاربران	-9.06732
▁برزیل	-9.06879
▁صحنه	-9.07104
▁کارهای	-9.07313
▁اصلاح	-9.07454
▁پذیر	-9.07465
▁درواز	-9.0765
▁سینمای	-9.078
▁افزوده	-9.07806
▁العاده	-9.07871
▁موقعیت	-9.07918
▁قضائیه	-9.07953
▁پالایشگاه	-9.08132
▁متعل	-9.0831
▁سرخ	-9.08735
▁آبی	-9.08764
▁خوش	-9.08953
▁زاغری	-9.09202
▁مدیرعامل	-9.09291
▁محصولات	-9.09355
▁مطالع	-9.09361
▁ضد	-9.09375
▁دانش	-9.09402
▁داریم	-9.09446
▁درگیری	-9.09512
ح	-9.09549
▁جایی	-9.09635
▁حمل	-9.09716
▁اقیانوس	-9.10031
▁پوست	-9.10289
▁ساز	-9.1044
▁نخواه	-9.10459
▁مونیخ	-9.10553
▁هوشمند	-9.10556
▁قاچاق	-9.10593
▁کمبود	-9.10743
۹	-9.10882
▁گیرند	-9.10991
▁مهار	-9.11004
▁مستند	-9.11022
۷	-9.11156
▁زندانیان	-9.11296
▁چندان	-9.11319
▁معنای	-9.11319
▁بنابر	-9.11323
▁مرزی	-9.11418
▁هاست	-9.1157
▁کمیس	-9.1162
کسی	-9.11722
▁۳۰۰	-9.11795
▁نقدینگی	-9.11926
▁احساس	-9.11948
▁بدهی	-9.11962
▁اردیبهشت	-9.11966
▁لباس	-9.11968
▁چالش	-9.11985
▁قسمت	-9.12105
▁تقاضا	-9.1215
▁مو	-9.12161
توجه	-9.12251
▁مخالفان	-9.12307
▁۲۱	-9.12319
▁بیماران	-9.124
▁زخمی	-9.12609
نقض	-9.12663
اسیون	-9.12741
▁موتور	-9.12789
▁کشورش	-9.12893
▁۳۵	-9.12974
حسین	-9.12985
▁شهروند	-9.13076
۳	-9.13177
▁گستر	-9.13189
ران	-9.13249
رد	-9.13262
▁ژوئیه	-9.13312
▁استقبال	-9.13358
▁جزئیات	-9.13409
▁زاد	-9.13477
▁جوایز	-9.13528
▁ایم	-9.13543
▁خورشیدی	-9.13566
▁رویترز	-9.13568
▁عادی	-9.13674
▁بازرگانی	-9.13739
▁مکان	-9.13741
گاهی	-9.13787
▁رونالدو	-9.14043
▁تصور	-9.14051
▁لی	-9.14112
وزارت	-9.14116
▁علیرضا	-9.14147
گ	-9.14304
▁دین	-9.14358
▁غربی	-9.14405
▁عجیب	-9.14726
▁چیست	-9.14825
▁سفارت	-9.14852
▁مدیران	-9.14857
▁معترضان	-9.14887
▁نویسندگان	-9.14927
▁دیوان	-9.14955
▁اسرائیلی	-9.15018
▁مسافران	-9.15138
▁نداشت	-9.15226
خلق	-9.15483
▁حسینی	-9.15586
▁تمامی	-9.15878
مقام	-9.16113
▁صلح	-9.16154
▁سوپر	-9.16184
▁سامان	-9.16229
▁موزه	-9.16313
▁تخریب	-9.16365
▁نشر	-9.16402
▁گوش	-9.1641
ازگی	-9.16468
▁تلفن	-9.16499
چند	-9.1651
▁مجری	-9.16559
▁توصی	-9.1659
▁کارکنان	-9.16597
▁بعدی	-9.16742
▁کافی	-9.16879
▁سند	-9.16943
▁اینستاگرام	-9.17418
▁پاکستان	-9.17611
▁صنایع	-9.1764
▁آمازون	-9.17642
▁حفاظت	-9.17648
▁فرهاد	-9.17866
خواهد	-9.18118
▁۲۶	-9.18313
▁ناظر	-9.18326
▁واقعیت	-9.18363
▁آهنگ	-9.18628
▁ارزها	-9.18686
▁خورده	-9.1881
▁تقاضای	-9.18868
▁حاصل	-9.19072
▁نگهداری	-9.19082
▁مبلغ	-9.19109
▁لحظ	-9.1915
▁بنز	-9.19152
▁مدافع	-9.19168
▁عوامل	-9.19182
▁نیویورک	-9.19294
▁دریایی	-9.19328
▁استاد	-9.19567
▁درگیر	-9.19654
▁جودو	-9.19685
▁کالاهای	-9.1969
▁میلان	-9.19733
▁یو	-9.2021
▁احتمالی	-9.20245
فدراسیون	-9.20331
▁اساسی	-9.20386
▁سیستان	-9.20512
▁تحویل	-9.2056
▁پیشرفت	-9.20568
▁باره	-9.20577
▁بهادار	-9.206
▁ارقام	-9.20603
▁ماموران	-9.20686
▁صوتی	-9.20789
▁پروتکل	-9.2079
▁برقرار	-9.20862
▁اشتباه	-9.20941
▁کشاورز	-9.21352
▁برمی	-9.21393
▁ملک	-9.21611
▁هست	-9.21783
یان	-9.2182
▁۸۰	-9.21837
وم	-9.21993
▁اهمیت	-9.2212
▁آهن	-9.22124
▁تأ	-9.22155
▁منج	-9.2235
▁حاشیه	-9.22352
▁صراف	-9.22373
▁انجمن	-9.22442
▁خواهیم	-9.22442
▁سیما	-9.2246
▁رئال	-9.22481
▁ورزشکاران	-9.22482
▁مجید	-9.22504
▁گران	-9.22697
▁نگه	-9.22754
▁بازنشستگ	-9.22762
قب	-9.22888
▁متوسط	-9.23176
تان	-9.2324
▁همسر	-9.23336
▁نتوانست	-9.23593
▁وکیل	-9.23605
▁تعویق	-9.23612
▁بلوچستان	-9.23618
▁متعدد	-9.23621
▁مسدود	-9.2366
▁مشا	-9.23666
▁برجسته	-9.2371
▁هرچ	-9.23739
▁صرف	-9.2378
▁توقف	-9.23883
▁مراجع	-9.23907
▁تیراندازی	-9.2397
▁تیر	-9.24121
رکت	-9.24135
▁داشتن	-9.24185
▁ریال	-9.24296
هرگز	-9.24299
▁آرام	-9.24324
▁نمو	-9.24448
▁مالکی	-9.24519
را	-9.24575
▁برود	-9.2474
▁کارشناس	-9.25101
رضا	-9.25154
▁فرزند	-9.25162
▁قالیباف	-9.25177
▁سراوان	-9.25181
▁مراقب	-9.25182
▁نجات	-9.25183
▁پلاس	-9.25208
▁تمدید	-9.25222
▁مدعی	-9.25285
▁پنجشنبه	-9.25286
▁ادبیات	-9.25299
▁نادال	-9.25328
▁تماس	-9.25346
▁حذفی	-9.2544
▁فردا	-9.25552
▁دشوار	-9.25632
▁روزها	-9.25639
▁فوری	-9.25811
▁ماهی	-9.25969
▁عین	-9.25976
دولت	-9.26014
▁مهاجم	-9.26056
▁الدین	-9.26121
▁بالاتری	-9.26464
▁مناسب	-9.2649
▁اوج	-9.26523
▁نور	-9.26533
▁صف	-9.26614
قانونی	-9.26696
▁جذب	-9.2676
▁توکیو	-9.26764
▁سلطنت	-9.26767
▁نزدیکی	-9.26802
▁افتخار	-9.26832
▁آنلاین	-9.26861
▁مج	-9.26888
▁اخراج	-9.26904
▁ایسنا	-9.26936
▁محرم	-9.26937
▁امارات	-9.26962
اسی	-9.27017
تنظیم	-9.2716
▁رافائل	-9.27167
قیف	-9.27396
برای	-9.27456
▁کارها	-9.2768
▁آسمان	-9.27756
▁کردم	-9.27844
▁پست	-9.27911
▁پژوهشگران	-9.27961
زه	-9.28278
▁سهم	-9.28303
▁گلستان	-9.28306
▁اختصاص	-9.28375
▁اخبار	-9.28427
▁نحو	-9.28448
▁لوکس	-9.28466
▁غذا	-9.28548
▁فایل	-9.28558
▁دارو	-9.28609
▁کردیم	-9.2861
▁فضا	-9.2864
ط	-9.28651
خبرگزا	-9.28746
▁گرم	-9.28874
▁کلوپ	-9.28879
▁سوال	-9.2889
▁اتفاقات	-9.28902
▁چک	-9.28958
من	-9.29061
▁مربیان	-9.29144
▁شبانه	-9.29148
▁هن	-9.29252
▁توییت	-9.29461
▁اصل	-9.29557
سال	-9.29807
▁ورزشکار	-9.29841
یروز	-9.30015
▁ناگهان	-9.30016
▁مشمول	-9.3002
▁نوبل	-9.30059
▁نوامبر	-9.30087
▁اسطوره	-9.30163
▁سبک	-9.30237
بس	-9.30258
▁موقت	-9.30297
▁جایگاه	-9.30309
امبر	-9.30373
تبه	-9.30408
غلب	-9.30458
▁خیل	-9.30475
▁مطابق	-9.3048
▁بندر	-9.30586
▁طبیعت	-9.30848
▁جنگل	-9.3085
▁همچ	-9.30949
▁آزار	-9.30964
▁موشک	-9.31148
▁غذای	-9.31278
▁ساکن	-9.31334
سازمان	-9.31402
▁محروم	-9.31623
▁کنسرت	-9.31704
▁مسلح	-9.31712
▁۲۰۱۷	-9.31714
▁اکتبر	-9.3173
▁نارنجی	-9.31771
▁مواردی	-9.31792
▁ترس	-9.31795
▁خیریه	-9.3184
▁شمالی	-9.31852
کس	-9.31856
▁چهل	-9.31933
▁مدرسه	-9.31985
▁همتی	-9.32161
▁هواپیما	-9.3227
▁ادبی	-9.32478
▁بازگرداند	-9.32531
▁اع	-9.32773
قدر	-9.32817
▁سپاهان	-9.32852
▁۳۱	-9.32875
▁محبوب	-9.32891
▁داند	-9.32897
یکی	-9.33014
▁ثابت	-9.33374
▁کاپیتان	-9.33377
▁ویمبلدون	-9.33377
▁دعوت	-9.3341
▁گیر	-9.33432
▁مسئ	-9.33438
▁معرض	-9.33466
▁اجاره	-9.33481
▁عصر	-9.33543
▁ماجرا	-9.33569
ونه	-9.33683
▁یکدیگر	-9.33703
سته	-9.33754
وق	-9.33893
پ	-9.34031
▁راجر	-9.34054
دار	-9.34251
▁مارک	-9.34381
است	-9.34603
رئیس	-9.34662
▁ماده	-9.34837
▁خورشید	-9.34944
▁هموار	-9.35051
▁۲۹	-9.35086
▁توزیع	-9.35098
▁دیجیتال	-9.351
▁مسائل	-9.35106
▁بقیه	-9.35109
▁هنرپیشه	-9.3513
▁ساحل	-9.35244
رنگ	-9.35278
وع	-9.35329
▁تئاتر	-9.35351
تیم	-9.35573
▁سپت	-9.35576
▁باور	-9.35596
▁سعی	-9.35649
شب	-9.35664
▁عید	-9.35679
▁هنرمندان	-9.3581
▁۱۳۹	-9.35959
▁دا	-9.36034
یابی	-9.3604
هایی	-9.36098
▁افزود	-9.36099
▁اندازی	-9.36145
▁پارک	-9.36164
▁تعهدات	-9.36235
▁گام	-9.36263
سه	-9.36293
▁ریز	-9.36294
▁حیات	-9.36334
▁تخت	-9.36388
▁شناسا	-9.36432
▁مراکز	-9.36852
▁اصفهان	-9.36853
▁۱۳۹۷	-9.36881
▁خسارت	-9.36909
▁برگشت	-9.36939
▁فراموش	-9.37015
لاک	-9.37035
▁منتظر	-9.37067
▁طرفداران	-9.37158
▁فوتبالیست	-9.37311
▁پزشک	-9.37321
▁مشاور	-9.37323
▁ثانی	-9.37336
خانم	-9.37341
▁شاعر	-9.37431
▁درجه	-9.37461
▁مخالف	-9.37629
▁خدم	-9.37823
▁رحمان	-9.38089
▁خان	-9.38089
▁رویکرد	-9.38356
▁مسافر	-9.38373
▁زند	-9.38389
▁داروی	-9.38414
▁تحصیل	-9.38569
▁نداریم	-9.38658
▁مایک	-9.38686
▁بوکس	-9.38741
▁پرتاب	-9.38765
▁رسما	-9.38799
▁گذرد	-9.38819
نا	-9.38973
▁قوی	-9.39217
▁پرس	-9.39253
▁آل	-9.39278
▁فرار	-9.39318
▁مجاز	-9.39789
▁آفریقا	-9.39791
▁تست	-9.39898
▁خیابان	-9.39939
۱۹	-9.40324
▁اتومبیل	-9.40457
▁آذر	-9.40458
▁ایستگاه	-9.40491
▁تاخیر	-9.40505
▁کلاس	-9.40534
▁سرپرست	-9.40623
▁تاسیسات	-9.40628
▁ضمن	-9.40657
▁اهل	-9.40715
هر	-9.40769
▁پاس	-9.40795
▁نیازمند	-9.40807
لیک	-9.40836
سون	-9.40852
▁لیون	-9.40897
▁وگو	-9.40949
کل	-9.41225
▁مشاهد	-9.41298
▁فرستاده	-9.4143
▁کی	-9.41452
▁عبدال	-9.41475
افسانه	-9.41562
▁سهمی	-9.41614
ود	-9.41678
▁دستگیر	-9.41752
▁شیو	-9.418
▁عق	-9.41818
اد	-9.41933
▁فردی	-9.41955
علوم	-9.41992
▁عمیق	-9.42073
گری	-9.42096
▁تری	-9.42126
▁دسته	-9.42141
پیش	-9.42179
▁متحد	-9.42205
▁تمرین	-9.42226
▁اعتبار	-9.42313
هم	-9.42377
▁قبول	-9.42391
▁اطلاعی	-9.4245
▁جیمز	-9.42475
▁هویت	-9.42524
▁بعدا	-9.42566
▁آکادمی	-9.42651
▁عکاسی	-9.42723
▁جلوی	-9.42733
▁سخنان	-9.43111
▁قضاییه	-9.43124
▁لس	-9.43145
▁ژا	-9.43178
▁نگار	-9.43358
▁گفتند	-9.43491
▁رقیب	-9.4364
▁حس	-9.4391
▁مشهد	-9.44203
▁رادیو	-9.4421
باید	-9.44219
ضاع	-9.44251
▁توانسته	-9.44268
▁شهریور	-9.44307
▁محسو	-9.4431
اره	-9.44429
▁قربانیان	-9.4443
▁حکام	-9.44446
▁آور	-9.44467
▁سری	-9.44477
▁محمدی	-9.44485
▁هواپیمای	-9.44532
▁گذارد	-9.44695
جواد	-9.44905
▁داور	-9.44929
گزارش	-9.45091
▁مس	-9.4517
▁عدد	-9.4518
▁فرود	-9.45193
▁استعفا	-9.45349
▁فرا	-9.45483
تا	-9.45734
▁پسر	-9.45829
▁جه	-9.46002
▁میانه	-9.46007
ذیب	-9.46101
▁حوادث	-9.46115
▁خشونت	-9.46115
▁اجلاس	-9.46121
▁متولد	-9.46141
▁دستمزد	-9.46153
▁برادر	-9.462
▁مریخ	-9.4624
▁عرص	-9.46295
▁یوونتوس	-9.46352
...	-9.46355
▁همسرش	-9.46373
▁ملایی	-9.46387
▁حاکی	-9.4642
▁ض	-9.46469
▁بند	-9.46479
▁هماهنگ	-9.46507
▁منتقدان	-9.46671
▁دارای	-9.46762
▁فروخت	-9.46835
▁گرانی	-9.46914
▁خاص	-9.46963
▁خبرنگاران	-9.46966
ناصر	-9.4721
اب	-9.47225
▁بیان	-9.47504
▁وام	-9.47638
▁رهبری	-9.47768
▁معدن	-9.47999
یست	-9.48003
▁برآورد	-9.4801
▁قاسم	-9.48041
▁اسکاتلند	-9.48079
▁فرودگاه	-9.48115
کار	-9.48147
▁صلاحیت	-9.48162
▁موضع	-9.4818
▁آلودگی	-9.48207
▁دیدن	-9.48309
▁پنجاه	-9.48326
▁دامن	-9.4845
▁اجا	-9.48472
▁اتریش	-9.487
کره	-9.48717
▁چنان	-9.48762
▁نرم	-9.49041
▁نادر	-9.49116
ساوی	-9.49135
نیوم	-9.49208
▁پدرش	-9.49359
▁کرونای	-9.49607
ابت	-9.4967
▁محافظ	-9.49768
▁اوپ	-9.49861
▁جراح	-9.49884
▁تکرار	-9.49884
▁عا	-9.49915
▁۴۰۰	-9.4994
▁شغل	-9.50074
▁الهام	-9.50096
▁اورا	-9.50114
▁حراج	-9.50137
گرد	-9.50193
وس	-9.50197
▁حملات	-9.5022
▁اطراف	-9.50248
▁پایگاه	-9.50251
▁اسب	-9.5026
▁کوه	-9.5029
▁واگذار	-9.50367
▁حقوقی	-9.50435
▁سلیمانی	-9.50448
خمین	-9.50713
▁موسو	-9.50817
▁جوانان	-9.50944
▁قول	-9.50976
بنابر	-9.51038
▁شناسی	-9.51171
▁۳۲	-9.51183
▁الملل	-9.51428
▁انداخته	-9.51511
بط	-9.51558
▁شک	-9.51576
سیم	-9.51659
شیدا	-9.52035
▁پیوست	-9.52078
▁بلینکن	-9.52117
▁مصنوعی	-9.5212
▁خطرناک	-9.52123
▁متوالی	-9.52125
▁زمستان	-9.52131
▁قالب	-9.52134
▁تعلیق	-9.52138
▁شصت	-9.5217
▁ماموریت	-9.52213
▁۲۰۱۵	-9.52242
▁تبلیغات	-9.52254
▁تسلا	-9.52268
▁ایرنا	-9.52303
▁فیسبوک	-9.52304
▁آرسنال	-9.5231
▁متخصص	-9.5231
اری	-9.52311
▁آمیز	-9.524
ما	-9.5243
▁نفس	-9.52447
▁ایتالیایی	-9.52514
▁موثر	-9.52556
▁نامش	-9.52637
▁درک	-9.52717
▁پزشکان	-9.52747
▁بنیاد	-9.52841
داد	-9.53121
شته	-9.53226
▁بستر	-9.53335
▁حامل	-9.53359
شاره	-9.53396
▁اظهار	-9.54101
▁تشویق	-9.54214
▁بلا	-9.54224
▁تنفس	-9.54254
▁متن	-9.54256
▁بگیرند	-9.54256
▁شاغل	-9.54261
▁میراث	-9.54285
▁ناسا	-9.54291
▁تولد	-9.54446
▁نبوده	-9.54467
▁ساعات	-9.5449
▁مشتریان	-9.54516
▁نهم	-9.54556
▁کارمندان	-9.54637
▁ترجم	-9.54658
▁قطب	-9.54746
▁شوم	-9.54855
▁بهای	-9.55015
رسدس	-9.55061
▁سوزی	-9.55192
▁ناز	-9.55368
▁دادستان	-9.55387
▁اسکی	-9.55389
▁ابراهیم	-9.55682
ترانه	-9.55851
▁اعما	-9.55886
▁نیستند	-9.559
تمام	-9.55924
▁امیدواری	-9.55928
▁جذاب	-9.56118
درآمدهای	-9.56272
▁نطنز	-9.56326
▁سرنگون	-9.56329
▁ژافره	-9.5633
▁جبران	-9.56348
▁آنجلس	-9.56362
▁روانی	-9.56398
▁شهرستان	-9.56439
حسن	-9.56441
▁شهرسازی	-9.56487
▁ماراتن	-9.5651
▁شفاف	-9.56511
▁اطمینان	-9.5652
▁آشنا	-9.56528
▁رمز	-9.56533
▁رانندگان	-9.56538
یل	-9.56568
▁تل	-9.56646
▁شهری	-9.56672
عهد	-9.56728
یو	-9.56809
▁کانادا	-9.57009
بانک	-9.57124
▁اضطرار	-9.57274
کش	-9.57412
میته	-9.57421
فسور	-9.57479
▁شیر	-9.57497
▁نکرد	-9.57589
▁مادرش	-9.57743
▁کیلومتری	-9.57829
▁نامداری	-9.57898
▁گاه	-9.58045
▁کالاها	-9.58328
▁صدرنشین	-9.5854
▁ازدواج	-9.58631
▁حداکثر	-9.58655
▁ناپذیر	-9.58669
رده	-9.58692
▁تحولات	-9.58698
▁اسپانیایی	-9.58709
▁انداز	-9.58738
▁نفوذ	-9.58877
▁جسد	-9.58902
▁خلی	-9.59005
▁نقاش	-9.59006
▁دوز	-9.59025
▁دام	-9.59083
▁کلیه	-9.5918
▁بازرس	-9.59369
▁درمانی	-9.59379
نجر	-9.59445
وید	-9.59479
▁قطعه	-9.59523
حمل	-9.5964
▁هوش	-9.59928
دست	-9.59975
▁حالت	-9.59976
▁۲۷	-9.60005
همزمان	-9.60133
▁شرکتهای	-9.60153
▁بان	-9.60242
▁وق	-9.60367
هفته	-9.60387
▁اکبر	-9.6039
▁شهرت	-9.60511
▁کسر	-9.60601
▁آکسفورد	-9.60724
▁۴۲	-9.60741
▁فعلا	-9.60749
▁تردد	-9.60759
▁حب	-9.60787
▁مقصد	-9.60821
▁عشق	-9.60855
▁پادشاه	-9.60864
▁ثبات	-9.60931
▁فولاد	-9.60935
▁شرقی	-9.60939
بیشترین	-9.60958
▁بدهد	-9.60965
ئی	-9.61102
▁سرکوب	-9.61118
▁۱۵۰	-9.61165
▁اسناد	-9.61211
▁تماشاگران	-9.61234
▁باغ	-9.61267
▁کادر	-9.6127
▁صدو	-9.61294
▁جنسیت	-9.61297
▁هشتم	-9.61339
نویه	-9.61362
▁گردشگری	-9.61364
▁توجهی	-9.61388
▁پیگیری	-9.61452
▁محصول	-9.61517
▁نداده	-9.61553
وه	-9.61711
زاده	-9.61719
▁ساده	-9.61758
▁خاصی	-9.62106
▁چشمگیر	-9.62141
▁عکاس	-9.62195
▁ست	-9.62365
صد	-9.62559
▁اتفاقی	-9.6271
▁خاتم	-9.62717
۱۸	-9.62739
▁تماشاگر	-9.62771
▁امر	-9.62793
▁لبنان	-9.62822
▁تاسیس	-9.6299
▁ژرمن	-9.62992
▁کیلوگرم	-9.62997
▁رویداد	-9.63002
▁انتظامی	-9.63011
▁نوروز	-9.63017
▁اهواز	-9.63054
▁زهرا	-9.63084
▁دسامبر	-9.63134
▁آواز	-9.632
▁پکن	-9.63225
▁مهاجرت	-9.63247
▁برخوردار	-9.63298
▁هفتم	-9.63348
▁جوکوویچ	-9.63354
▁دهنده	-9.63367
▁علنی	-9.6337
▁درون	-9.63416
▁مسعود	-9.63422
▁نمایندگی	-9.63579
▁جی	-9.63591
جا	-9.63675
▁ریش	-9.63827
لان	-9.63832
▁معن	-9.63874
۹۷	-9.64054
▁سخن	-9.64125
▁ضرور	-9.64154
▁خودروسازی	-9.64186
▁جامع	-9.6436
▁طلای	-9.64457
▁ابلاغ	-9.64501
▁۷۰۰	-9.64555
جمع	-9.64585
▁کالیفرنیا	-9.64775
ریمه	-9.6478
مول	-9.64842
▁معمول	-9.64844
▁جانب	-9.64986
▁تق	-9.65034
▁شبی	-9.65118
▁گری	-9.65272
▁گزین	-9.65297
▁هیئت	-9.65316
▁چارچوب	-9.6532
▁روغن	-9.65323
▁خفاش	-9.65351
▁ویدیوی	-9.65357
▁اوکراین	-9.6539
▁تراکتور	-9.65396
▁گشایش	-9.65489
▁مجازات	-9.65498
▁زاهد	-9.65507
▁جلب	-9.65521
▁شگفت	-9.65523
تصاب	-9.6556
▁نوروزی	-9.65562
▁خودکشی	-9.65586
▁پیچیده	-9.65648
▁سوئد	-9.65692
۱۶	-9.65722
▁تفاوت	-9.6577
لو	-9.66166
▁وقف	-9.66361
▁شهرداری	-9.66448
▁دیوار	-9.66462
▁دقیقا	-9.66581
▁یمن	-9.66612
▁اص	-9.66695
یده	-9.66838
▁بودم	-9.66965
▁مار	-9.66983
سعید	-9.66994
▁ار	-9.67019
▁جری	-9.67023
رانی	-9.67065
▁آمدن	-9.67206
▁کا	-9.67252
▁آنتونی	-9.67262
▁یافتن	-9.67287
▁نوجوان	-9.67288
▁۳۳	-9.67357
▁ذهن	-9.67367
▁بازگش	-9.67368
▁دما	-9.67472
▁برداری	-9.67494
نس	-9.67668
▁آر	-9.67677
▁خراسان	-9.677
▁مورینیو	-9.67702
▁واگن	-9.67705
▁تعریف	-9.67707
▁پارلمان	-9.67772
▁مطلب	-9.67798
▁پاری	-9.67814
▁تبعیض	-9.67837
▁هفتاد	-9.67893
▁شویم	-9.67917
▁مقدار	-9.67933
▁معلوم	-9.67983
▁انداخت	-9.68018
▁خاتمی	-9.68026
▁مدنی	-9.68152
▁کارزار	-9.68298
▁اسماعیل	-9.68379
▁پهلوی	-9.68388
▁واقعا	-9.6851
▁شاملو	-9.68516
گفته	-9.68527
▁مناسبت	-9.68536
▁اتهامات	-9.68555
▁عملا	-9.68653
▁کارت	-9.68957
▁ابر	-9.69113
▁کجا	-9.6912
ستان	-9.69151
بعضی	-9.69197
▁محققان	-9.69197
▁گشت	-9.69466
غم	-9.69578
▁مسافرت	-9.69967
▁فراوان	-9.701
▁اعتماد	-9.70139
▁عمدتا	-9.7014
▁مسجد	-9.70142
▁تبریز	-9.70168
▁خواب	-9.70202
▁علائم	-9.70211
▁دستورالعمل	-9.70216
▁حقیقت	-9.70236
▁نسخ	-9.70255
▁میناوند	-9.70255
قرار	-9.70256
انجام	-9.70258
▁خطیب	-9.70279
▁کانون	-9.7028
▁ردیف	-9.70296
▁فیوری	-9.70323
▁تجهیزات	-9.70364
▁ژاپنی	-9.70379
▁دهیم	-9.70403
▁پاک	-9.70431
▁تابلو	-9.70449
▁محکومیت	-9.70472
آزادسازی	-9.70674
▁توانای	-9.70724
شرکت	-9.70761
▁ایستاده	-9.70811
▁منظور	-9.7084
▁آسان	-9.71124
▁بخت	-9.71186
▁گوشت	-9.71534
خ	-9.7158
▁ویدئوی	-9.71676
وزیر	-9.71725
دکتر	-9.72122
▁هتل	-9.7218
▁عمر	-9.72211
▁مالیاتی	-9.72271
اگر	-9.72355
▁تحلیل	-9.72382
▁فرمان	-9.72388
آمریکا	-9.72409
▁هی	-9.72503
▁حکایت	-9.72639
▁الحاق	-9.72646
▁دائم	-9.72655
▁استاندار	-9.72688
حدود	-9.72713
▁پوشش	-9.72791
▁خلاف	-9.72839
▁جواب	-9.72845
▁خمینی	-9.72863
▁کنفرانس	-9.73023
▁مذهبی	-9.73062
بار	-9.73079
▁کلید	-9.73215
وئل	-9.73246
▁فولک	-9.73252
خراج	-9.733
▁اختلال	-9.73338
▁باری	-9.73356
▁زنند	-9.73357
▁نامید	-9.73444
▁دیپلما	-9.73566
▁مدرن	-9.7365
▁روان	-9.73668
▁پو	-9.7367
▁بازیگران	-9.73747
▁نشدن	-9.73764
شدید	-9.73805
نازنی	-9.74011
▁داوطلبان	-9.74107
خواهی	-9.74193
▁برج	-9.74201
▁تبار	-9.74738
▁بیستم	-9.74759
▁کش	-9.74885
▁مبن	-9.74886
ماه	-9.74966
بری	-9.74982
▁آم	-9.75006
▁ششم	-9.75014
▁پنهان	-9.75204
▁استانبول	-9.75206
▁نصب	-9.75217
▁عبارت	-9.7522
▁مثال	-9.7525
▁رونق	-9.75252
▁دیپلماتیک	-9.75257
▁خطوط	-9.75284
▁غافلگیر	-9.7529
▁گواردیولا	-9.7536
▁خبرساز	-9.75478
▁بازدید	-9.75482
▁سانسور	-9.75494
۱۴	-9.75608
▁بخار	-9.75676
▁بهشت	-9.75733
▁کریمی	-9.75744
▁فرماندار	-9.75859
▁اقدامی	-9.75897
▁دوستان	-9.75955
▁مور	-9.75975
▁نیمک	-9.76031
▁هیا	-9.76047
▁شانس	-9.76118
▁اجباری	-9.76149
یش	-9.76188
رو	-9.76245
رت	-9.76336
▁غلام	-9.76401
▁مرور	-9.76449
▁عذر	-9.76616
وش	-9.76652
یشه	-9.7666
▁دلاری	-9.76761
▁صادقی	-9.76891
▁۴۵	-9.7691
▁چرخ	-9.76923
▁سفرهای	-9.77007
▁نود	-9.77038
وقت	-9.77207
▁جزیر	-9.77255
▁فرو	-9.77374
▁محاسب	-9.77715
▁معاصر	-9.77832
▁کهکشان	-9.77833
▁احترام	-9.77835
▁مشاغل	-9.77843
▁تب	-9.77869
▁فراتر	-9.77874
▁نباشد	-9.77876
▁صادرکنندگان	-9.77882
▁طلب	-9.77882
▁باشیم	-9.77891
▁کلمبیا	-9.77911
▁اندونزی	-9.77912
▁خطاب	-9.77961
▁خاورمیانه	-9.77988
▁مدیرکل	-9.78059
▁سرنوشت	-9.78087
▁نوسان	-9.78096
▁مرجان	-9.78121
▁باند	-9.78297
▁باستان	-9.7837
▁فراز	-9.78424
▁بردن	-9.78458
رز	-9.78557
وخیم	-9.78705
▁روس	-9.78721
▁معاف	-9.78735
نیک	-9.78743
▁زدند	-9.78784
▁دفاعی	-9.78827
▁جک	-9.78874
▁مدار	-9.79114
▁تپ	-9.79376
▁بردند	-9.79386
▁ی	-9.79408
بستری	-9.79559
▁شی	-9.7962
خالت	-9.79725
▁نامزدهای	-9.79774
▁ذخ	-9.79959
▁عطر	-9.80004
▁منع	-9.80069
▁حاکم	-9.80185
رون	-9.80301
▁مان	-9.80367
▁اور	-9.8037
▁عوارض	-9.80533
▁بسکتبال	-9.80536
▁جستجو	-9.80536
▁پیامدهای	-9.80542
▁پرچم	-9.80542
▁اولویت	-9.80547
▁حیوانات	-9.80574
▁وسیع	-9.80577
▁جانسون	-9.80587
▁۲۰۱۱	-9.80597
▁بماند	-9.80603
▁شواهد	-9.80636
▁برکنار	-9.80682
▁پرتغال	-9.80699
▁کیفیت	-9.80747
قیمت	-9.80768
▁فایزر	-9.8078
▁مسئولیت	-9.80793
▁تکمیل	-9.80796
▁خاوران	-9.80799
▁وانت	-9.80801
▁شنیده	-9.80803
▁دانیم	-9.8082
▁ماجرای	-9.8105
▁فروشگاه	-9.81131
▁رویدادهای	-9.81146
▁برگزید	-9.81169
▁فاش	-9.81215
▁ناکام	-9.81288
پی	-9.81369
▁رویا	-9.81533
▁فقر	-9.81675
▁علم	-9.81685
آ	-9.81804
▁درآمدها	-9.81839
▁اسکن	-9.8214
▁گوشی	-9.82249
▁صورتی	-9.82303
▁پتروش	-9.82456
▁دان	-9.8252
▁برون	-9.82531
▁پاپ	-9.82664
اپی	-9.82697
▁مطمئن	-9.83036
▁موافق	-9.83061
▁۳۴	-9.83092
▁بیمه	-9.83106
▁تصادف	-9.83127
▁درحال	-9.83182
زی	-9.83196
واع	-9.83282
▁جایگزین	-9.83314
▁آرایش	-9.83339
▁بگذارد	-9.83371
فت	-9.83378
▁تجدید	-9.83389
▁ویلموتس	-9.83396
▁مستقل	-9.83404
▁محرومیت	-9.83417
▁پرورش	-9.83446
▁هیجان	-9.83489
▁برگزیت	-9.83496
▁جانشین	-9.83506
▁بنیان	-9.83507
▁مخفی	-9.83535
▁تدریج	-9.83605
▁امشب	-9.83606
▁امکانات	-9.83642
▁سپرده	-9.8367
▁برند	-9.8369
اک	-9.83711
▁آلوده	-9.83771
▁نماد	-9.83771
▁خشک	-9.83773
▁هلند	-9.83865
▁همکاران	-9.83918
▁اکثر	-9.84147
▁دایک	-9.8416
▁درحالی	-9.84314
▁ایفا	-9.84398
▁ایست	-9.84531
▁گزارشگر	-9.84594
▁آماد	-9.84708
▁رحمانی	-9.84774
▁اسدی	-9.84775
گانه	-9.84883
▁تخم	-9.84888
▁رها	-9.84968
غول	-9.85052
ساله	-9.85192
▁خرد	-9.85269
▁طوری	-9.85614
▁عظیم	-9.85668
▁راحت	-9.85684
ظ	-9.85776
▁پژوهشگر	-9.85917
▁یازده	-9.8595
▁وایلد	-9.8599
▁یخ	-9.86034
آزمایی	-9.86039
▁هالیوود	-9.8617
▁استراماچونی	-9.86171
▁اقلام	-9.86172
▁گورستان	-9.86174
▁یادداشت	-9.86199
▁سهامداران	-9.86283
▁بدهند	-9.86286
▁منافع	-9.86298
▁مقدمات	-9.86312
▁نیرو	-9.86341
▁هاشمی	-9.86345
▁اورتون	-9.86353
▁دانشجویان	-9.86364
▁کف	-9.86435
▁مهمتری	-9.86503
▁تاثیرگذار	-9.86522
▁یادآور	-9.86537
▁بازرسان	-9.86579
▁آرامش	-9.8659
وند	-9.86609
پور	-9.86653
▁۷۵	-9.86704
▁مخاطبان	-9.86769
▁بطور	-9.86929
▁سلطان	-9.87027
▁کیو	-9.87082
نین	-9.87094
ینگ	-9.87169
▁صالح	-9.87171
▁حساس	-9.87305
دن	-9.87317
▁عادل	-9.87378
▁ذو	-9.87389
▁جرم	-9.87467
مت	-9.87485
ازم	-9.87489
▁۱۹۹	-9.87603
▁حج	-9.87907
جسم	-9.88198
جی	-9.88212
لت	-9.88215
▁اینتر	-9.88309
کا	-9.88312
▁تردید	-9.88398
▁پیوسته	-9.88464
اند	-9.88614
▁آگاه	-9.88796
▁اصلا	-9.88905
▁تبلیغ	-9.88911
▁وحش	-9.88931
صمی	-9.88937
▁ماندن	-9.88954
▁قر	-9.89102
▁مشروط	-9.89111
▁اماکن	-9.89118
▁شیری	-9.89165
▁عمق	-9.89169
۲۰۱۲	-9.8925
▁رم	-9.89286
▁شرط	-9.89378
▁قایق	-9.89411
▁سوالات	-9.89416
▁کاوشگر	-9.89467
▁نمایشگاه	-9.89498
▁برندگان	-9.89597
▁آذربایجان	-9.89652
یوم	-9.89684
▁سانتی	-9.89703
▁اقلیم	-9.89715
▁دیگران	-9.89886
▁ابتلای	-9.89893
▁کال	-9.89984
▁شوک	-9.90101
▁مرا	-9.90122
▁نابودی	-9.90258
▁کنگ	-9.90299
اجع	-9.9032
▁۴۸	-9.9043
▁لستر	-9.90457
سا	-9.9056
لا	-9.90563
بچه	-9.90596
▁آسیای	-9.90637
▁شعب	-9.90697
▁برنت	-9.90707
طی	-9.9071
مند	-9.90812
▁بدتر	-9.90828
پدیده	-9.90828
افزایش	-9.90857
عه	-9.91035
▁سازند	-9.91212
سبب	-9.91256
▁۵۷	-9.91283
▁ادعای	-9.9143
▁هو	-9.9144
▁تبع	-9.91538
▁تماشای	-9.9157
▁کلاسیک	-9.91588
▁انت	-9.91617
باقر	-9.91633
▁سراسری	-9.91747
وال	-9.91792
▁کارمند	-9.91824
ص	-9.91858
▁نی	-9.91951
▁زیرا	-9.91962
▁دونده	-9.91988
▁قیمتها	-9.92092
▁وال	-9.92119
پیشتر	-9.92126
▁فیزیک	-9.92129
▁بغداد	-9.92138
▁رستوران	-9.92139
▁گوناگون	-9.9214
▁سلاح	-9.9214
▁سایپا	-9.92142
▁آموزشی	-9.92151
▁آشکار	-9.92158
▁شکنجه	-9.92174
▁ارشاد	-9.92197
▁سرقت	-9.92215
▁هافبک	-9.92225
باره	-9.92225
▁شتاب	-9.92281
▁بودیم	-9.9229
▁نفع	-9.92356
▁۹۶	-9.92364
▁رسیدند	-9.924
حال	-9.92406
▁منچسترسیتی	-9.92423
▁جدایی	-9.92443
▁مستمر	-9.92484
▁قلع	-9.92487
▁ستار	-9.92518
▁عبدالله	-9.9262
▁برانگیز	-9.92637
▁کریستیان	-9.92667
▁سفارش	-9.92735
▁تجا	-9.92771
▁دانستند	-9.92776
▁خواهم	-9.92808
▁درخشان	-9.92905
جم	-9.92953
▁انگار	-9.93065
▁طلبان	-9.93069
▁فرستاد	-9.9309
▁شهرها	-9.93366
▁عبوری	-9.9345
▁اردو	-9.93691
▁سد	-9.93851
▁حامی	-9.93887
▁ضرر	-9.94021
▁۹۵	-9.94026
آن	-9.94027
ئو	-9.9418
▁فیل	-9.94206
▁موقع	-9.94224
▁فق	-9.94261
وری	-9.94266
▁عاشق	-9.94276
وثی	-9.94434
▁ادا	-9.94465
شویی	-9.94541
▁قار	-9.94601
▁اسم	-9.94806
▁چا	-9.9486
▁فیلیپ	-9.95093
ریم	-9.95132
۹۸	-9.95222
▁قاجار	-9.95261
▁آفتاب	-9.95262
▁موانع	-9.95263
▁خداحافظ	-9.95263
▁غیرمستقیم	-9.95267
▁اقامت	-9.95269
▁غزنی	-9.95272
بین	-9.95352
▁بلژیک	-9.95353
▁اولسان	-9.95396
▁کربن	-9.95407
▁۲۵۰	-9.95466
▁پارسی	-9.95469
▁هشتاد	-9.95493
▁پاییز	-9.95573
▁بیاید	-9.95606
▁استادیوم	-9.95617
▁ضرورت	-9.95701
▁خاطره	-9.95756
▁محافظت	-9.95815
▁عروس	-9.95824
▁نگرفته	-9.9585
ریزی	-9.95877
▁قدس	-9.96005
▁تعرف	-9.96122
▁طلایی	-9.96128
▁حا	-9.96299
▁تحول	-9.96314
▁هجوم	-9.9639
▁کشد	-9.96506
کو	-9.96556
▁جر	-9.9656
▁آفریقای	-9.9672
▁قله	-9.96826
▁۴۹	-9.96901
▁شناور	-9.97144
▁سالها	-9.97164
▁مع	-9.97179
اع	-9.97213
▁آزمایشگاه	-9.97275
▁سالم	-9.97328
▁سرای	-9.97521
داشت	-9.97569
لند	-9.97621
▁خیر	-9.97823
▁سرود	-9.98008
▁آندر	-9.98163
▁فان	-9.98231
▁۶۰۰	-9.98235
سخنگوی	-9.98425
▁رضوی	-9.98487
▁پانصد	-9.98487
▁فردوسی	-9.98499
▁مطبوعات	-9.98511
▁نیک	-9.98514
▁مسکونی	-9.98536
▁سلول	-9.98548
رسمی	-9.98583
▁دانمارک	-9.98585
فر	-9.98586
▁وسایل	-9.98592
▁کانری	-9.98607
▁تلخ	-9.98613
نوبت	-9.98689
مدال	-9.98698
▁سرد	-9.98707
▁اشرف	-9.98768
کن	-9.98802
▁سوئیسی	-9.98824
▁یازدهم	-9.98827
هزار	-9.98832
▁مساوی	-9.98914
▁کو	-9.98927
▁نداشتند	-9.98941
▁عادت	-9.99277
▁اوبر	-9.99295
▁مسئولین	-9.99313
▁ری	-9.99324
▁نشین	-9.99439
▁موضوعات	-9.99496
▁شکاف	-9.99578
▁نماز	-9.99586
▁برقی	-9.99621
راضی	-9.99707
▁نیروگاه	-9.99726
گین	-9.99764
▁قد	-9.99826
▁حمید	-9.99845
▁چندی	-9.99939
▁تحلیلگر	-9.99961
▁سپ	-10.0016
▁خریدار	-10.0027
▁پیشگیری	-10.0035
▁ریه	-10.0052
▁فکری	-10.0055
دل	-10.0055
امروز	-10.0057
▁نمای	-10.0065
▁پرفروش	-10.0066
▁برایش	-10.0071
▁گذراند	-10.0087
▁آتی	-10.0102
فرین	-10.0109
فاصله	-10.0124
افغانستان	-10.0128
بیش	-10.013
▁شا	-10.0139
▁دانشمند	-10.0145
▁مشتری	-10.0149
▁افزار	-10.015
▁۳۹	-10.0155
قابل	-10.0157
▁لحا	-10.0158
▁جورج	-10.0166
▁دبلیو	-10.0182
▁گرنداسلم	-10.0182
▁تظاهرات	-10.0183
▁واژه	-10.0186
▁عفو	-10.0187
▁جنبش	-10.0187
▁۴۴	-10.0188
▁پادتن	-10.0192
▁باشید	-10.0194
▁ویران	-10.0194
▁یور	-10.0198
بو	-10.0201
▁مدارک	-10.0203
▁حیدر	-10.0212
▁هیوندای	-10.0212
▁مطالب	-10.0221
▁آمارها	-10.0222
▁بلیت	-10.0223
▁کیم	-10.0228
▁راهبرد	-10.0229
ض	-10.025
قف	-10.0266
▁مکانی	-10.0278
▁سلمان	-10.0283
▁ماهوار	-10.0285
▁جن	-10.0285
▁۰	-10.0295
▁نرسیده	-10.0303
ادورو	-10.0311
▁ذر	-10.0323
چی	-10.0332
▁داوطلب	-10.0337
▁پن	-10.0347
▁کمال	-10.0347
▁محمدجواد	-10.0353
▁زا	-10.0354
کاری	-10.0359
▁فرزندان	-10.036
خره	-10.0372
▁ضعیف	-10.0377
▁حضورش	-10.0382
▁راز	-10.0391
سم	-10.0409
رداد	-10.0425
▁وست	-10.0429
▁غار	-10.043
ناف	-10.0431
▁رفتند	-10.0441
▁۶۵	-10.0442
▁رهبران	-10.0447
▁قدر	-10.0456
عبدال	-10.0462
غ	-10.0463
شده	-10.0471
▁خوان	-10.0474
▁محدودیتهای	-10.0479
▁گرا	-10.0489
امی	-10.0498
دگی	-10.0504
وریس	-10.0514
▁سامسونگ	-10.0527
▁تروریسم	-10.0527
▁دهقان	-10.0527
▁خلاص	-10.0528
▁انفرادی	-10.0528
▁عملی	-10.053
▁رمزارزها	-10.0531
▁مخابرات	-10.0531
▁عراقچی	-10.0531
▁مقاومت	-10.0533
▁بوندس	-10.0537
▁قادر	-10.0541
▁صمت	-10.0543
▁فریاد	-10.0546
▁مسلمان	-10.0549
▁بزند	-10.0552
▁تعهد	-10.0562
▁تمایل	-10.057
▁راستا	-10.0572
▁خانوارهای	-10.0574
▁تور	-10.0577
▁یاری	-10.0577
بسیاری	-10.0582
مجموعه	-10.0585
▁خشم	-10.0585
▁ادعا	-10.0587
▁صادراتی	-10.0593
▁نبرد	-10.0601
کته	-10.0603
▁سبز	-10.0622
▁ظاهرا	-10.0622
▁کیلو	-10.0656
▁خیابانی	-10.0658
ادی	-10.067
بخش	-10.0679
▁فراری	-10.0684
ماهی	-10.0684
▁بابا	-10.0688
▁کاربر	-10.0692
دان	-10.0693
▁ژنتیکی	-10.0699
لوله	-10.0711
▁باد	-10.0715
▁جسم	-10.0716
▁انبار	-10.0717
▁بازیگری	-10.0739
▁جم	-10.0739
▁رسانی	-10.0755
▁باخته	-10.0762
▁فقیر	-10.0764
▁حلق	-10.0775
▁شاهزاد	-10.0776
اکان	-10.0787
باران	-10.0788
▁شور	-10.0799
▁دارم	-10.0799
▁قوا	-10.0819
▁اندک	-10.0821
شی	-10.0833
▁داری	-10.0836
▁کارش	-10.0848
▁منتقد	-10.0848
▁تاجیک	-10.0849
▁محقق	-10.0855
▁خوشحال	-10.0868
آی	-10.0876
تری	-10.0881
▁موبایل	-10.0884
▁تدابیر	-10.0884
▁فرآیند	-10.0884
▁پیراهن	-10.0884
▁ثامن	-10.0884
▁الکترونیک	-10.0884
▁مترجم	-10.0887
▁فاز	-10.0887
▁تاکسی	-10.0888
خیص	-10.0888
▁گروسی	-10.0888
▁پلاستیک	-10.0896
▁نمایشگر	-10.0899
▁خاطرات	-10.0899
▁روسی	-10.0904
▁همسایه	-10.0905
▁تج	-10.0906
▁روزگار	-10.0913
▁نژادپرست	-10.0921
تو	-10.0921
▁زرد	-10.0924
▁ربط	-10.0931
▁اسلام	-10.0934
▁پرسش	-10.0934
نکه	-10.0938
▁زیبایی	-10.0952
وض	-10.0954
▁یاران	-10.0955
▁عمان	-10.0955
دم	-10.0957
▁کاسته	-10.0962
▁موش	-10.0963
▁جلسات	-10.0968
ذ	-10.0968
احل	-10.097
▁پذیرفته	-10.0973
▁فرش	-10.0974
▁مبادل	-10.0985
▁قص	-10.0995
▁تف	-10.0996
▁عموم	-10.1
▁پیست	-10.1004
▁روح	-10.1027
▁نم	-10.1038
▁صند	-10.104
نادیده	-10.1047
▁۵۵	-10.1052
▁سل	-10.1054
▁جوانی	-10.1078
▁سالن	-10.1084
▁ربات	-10.1091
▁تکان	-10.1104
▁نقدی	-10.1104
▁گذر	-10.112
▁سران	-10.1126
▁پرده	-10.1142
▁خوانندگ	-10.1144
▁گروگان	-10.115
▁امین	-10.1152
▁دراز	-10.1189
ولی	-10.1207
▁غر	-10.1224
▁اوران	-10.1242
▁مغزی	-10.1247
▁لذت	-10.1252
ویز	-10.1253
▁گمان	-10.1254
▁تگزاس	-10.1254
▁سئوال	-10.1254
▁منحصر	-10.1254
▁امتحان	-10.1254
▁شمخانی	-10.1254
▁تسلیحات	-10.1254
▁ناحیه	-10.1254
▁نتانیاهو	-10.1254
▁دادگستری	-10.1254
▁انبوه	-10.1255
▁ترجیح	-10.1255
▁خوراک	-10.1255
▁کریکت	-10.1257
▁مطل	-10.1257
▁مصدومیت	-10.1258
▁اپلیکیشن	-10.1262
▁طوفان	-10.1264
▁عفونت	-10.1264
▁مدارس	-10.1264
▁ارتفاع	-10.1265
▁آدم	-10.1266
▁زنگنه	-10.1267
▁نکنید	-10.1268
▁ایرانیان	-10.1268
بنا	-10.1273
غان	-10.1273
▁زوج	-10.1273
▁بامیان	-10.1276
▁سرزمین	-10.1285
▁محتوای	-10.1286
▁ولز	-10.1286
▁وبسایت	-10.1288
▁مطالعات	-10.1289
▁بدر	-10.1292
▁قلم	-10.1298
▁گردن	-10.1304
▁کاردن	-10.1306
▁ایلنا	-10.1311
▁کیهان	-10.1317
▁صرفا	-10.1318
▁۱۹۸	-10.1328
▁پپ	-10.1329
زن	-10.1332
▁قربانی	-10.1334
پنج	-10.1344
یس	-10.1344
▁جدال	-10.1356
▁باب	-10.1369
▁وظ	-10.1375
▁سرباز	-10.1377
▁فراگیر	-10.139
▁لوئی	-10.1395
▁ریاض	-10.1395
▁عزیزی	-10.1396
▁صادق	-10.14
▁کرام	-10.14
▁خواندن	-10.1406
▁قدرتمند	-10.1407
▁۳۸	-10.1408
پوری	-10.1416
▁افتد	-10.1418
▁محسن	-10.1425
▁خودروها	-10.1435
وت	-10.1436
▁خواستند	-10.1439
▁رویای	-10.1452
▁استخوان	-10.1456
▁شیرین	-10.1457
▁روستا	-10.1486
▁راستی	-10.1489
ایر	-10.1492
▁باران	-10.1495
جان	-10.1501
وایی	-10.1515
اش	-10.1519
▁درهای	-10.1523
▁دوام	-10.1536
▁پانزده	-10.1545
رسی	-10.1549
▁افکن	-10.1549
رویی	-10.1552
▁نامدار	-10.1574
▁تائ	-10.1576
▁ویدیو	-10.1582
نظر	-10.1614
الب	-10.1623
▁هیأت	-10.1637
▁یوفا	-10.1638
▁پرافتخار	-10.1639
▁ازبکستان	-10.1639
▁بکشد	-10.1639
خرج	-10.164
▁برساند	-10.1642
▁سیا	-10.1643
▁علامت	-10.1643
▁احت	-10.1644
▁وا	-10.1647
▁ولسوال	-10.1649
▁متقاضی	-10.165
▁پردازد	-10.165
▁نادرست	-10.1651
▁پیاده	-10.1658
▁گردشگران	-10.1659
▁اقلی	-10.166
▁اشتغال	-10.1661
▁احساسات	-10.1663
▁همسان	-10.1665
▁ببرد	-10.1666
▁اختلافات	-10.1674
امسال	-10.1674
▁غریب	-10.1676
▁طنز	-10.1684
عباس	-10.1691
▁صلاح	-10.1695
▁اضطراب	-10.1707
▁جیب	-10.1712
▁۳۷	-10.1712
▁هستم	-10.1716
▁آوردند	-10.1718
▁تماشا	-10.1719
▁پیمان	-10.1726
خالص	-10.1738
▁تاب	-10.1741
یفه	-10.1744
▁طیف	-10.1756
▁روزه	-10.176
▁مقال	-10.1764
▁منشا	-10.1767
▁بدو	-10.1776
▁خودم	-10.1783
جه	-10.179
▁عزاداری	-10.179
▁والی	-10.1791
▁بقای	-10.1794
▁بران	-10.1798
▁بلخ	-10.181
▁گمانه	-10.1812
▁رقص	-10.1824
چ	-10.1826
التهاب	-10.183
▁خودروی	-10.1836
ندگان	-10.1854
شه	-10.1855
▁تمرکز	-10.1865
ستگی	-10.1868
▁ذخا	-10.1881
تنش	-10.1896
▁اگر	-10.191
تیپ	-10.1912
رس	-10.1913
محمود	-10.1934
▁۶۷	-10.1937
▁۳۶	-10.1938
وان	-10.1951
تون	-10.1958
آنها	-10.1974
▁بعید	-10.198
▁اقلیمی	-10.198
▁زیان	-10.1991
▁بوش	-10.2015
مون	-10.2016
▁نقد	-10.2019
▁متاسف	-10.2027
▁گم	-10.2029
▁شعار	-10.2029
ژه	-10.2032
▁تخلف	-10.2033
▁اعزام	-10.2037
▁والیبال	-10.2037
▁بلاروس	-10.2037
▁راموس	-10.2038
▁برانگیخت	-10.2039
▁دقایق	-10.2039
▁غربالگری	-10.2039
▁خانوادگی	-10.2039
▁۱۹۸۶	-10.204
▁۲۰۲۲	-10.2041
▁فیلمساز	-10.2041
▁خاموش	-10.2045
▁نقص	-10.2048
▁اهداف	-10.2048
▁کمرنگ	-10.2048
▁زلزله	-10.205
▁قاطع	-10.2051
▁رادیوی	-10.2052
▁خو	-10.2052
▁تلگرام	-10.2053
▁آنقدر	-10.2054
▁آیند	-10.2055
▁مقصر	-10.2055
▁محاسبات	-10.2056
▁قاضی	-10.2056
▁شیراز	-10.2056
▁طبری	-10.2058
▁بیلسا	-10.2063
▁صبر	-10.2064
▁سرنشینان	-10.2065
▁پوری	-10.2071
▁اصلاحات	-10.2071
▁تفاهم	-10.2072
▁ترسیم	-10.2076
تن	-10.2078
▁ناامن	-10.2078
▁سای	-10.2081
▁استرالیایی	-10.209
▁زانو	-10.2096
نگره	-10.2102
▁رسول	-10.2103
وستهم	-10.2105
▁دادسرا	-10.2105
▁آزمایی	-10.2109
▁سیل	-10.211
▁پوشید	-10.2111
▁شاهین	-10.2111
▁جمال	-10.2111
▁درخت	-10.2121
▁توماس	-10.213
حض	-10.2132
▁نکردن	-10.2142
رق	-10.2146
▁اهدا	-10.2146
▁میلیاردها	-10.2147
طبق	-10.2166
▁سنا	-10.2168
▁۱۳۷	-10.2169
احض	-10.2172
▁همیلتون	-10.2177
یب	-10.219
▁ساختار	-10.2197
▁اصطلاح	-10.2209
▁گریز	-10.2211
▁شورو	-10.2217
▁گفتگوها	-10.2224
▁نزد	-10.2226
▁بهرام	-10.223
▁مهندس	-10.2234
▁موشکی	-10.2238
▁جلالی	-10.2241
▁رنو	-10.2241
ازی	-10.2243
▁معمار	-10.2248
▁بوک	-10.2263
▁تس	-10.2271
▁کوچکی	-10.2272
▁تنگ	-10.2273
▁۵۲	-10.2274
رگن	-10.2291
▁راند	-10.2291
▁خوردن	-10.2307
▁زیستی	-10.2309
▁صحن	-10.2315
▁۷۷	-10.2322
▁اهدای	-10.2342
▁مهاجر	-10.2345
عکس	-10.2348
▁پولی	-10.2368
تواند	-10.238
حص	-10.2388
▁ابزار	-10.2392
▁شدم	-10.2393
▁مادری	-10.2399
▁خشکی	-10.2403
▁مصون	-10.2416
▁برگ	-10.2419
▁ص	-10.242
بورن	-10.2422
وف	-10.2426
فیلم	-10.2427
ستون	-10.2444
▁ذ	-10.2445
▁شایع	-10.2446
▁الانبیا	-10.2454
▁بنگلادش	-10.2454
▁پروتئین	-10.2454
▁موظف	-10.2454
▁ارمنستان	-10.2454
▁بامداد	-10.2454
▁تدوین	-10.2454
▁اخلال	-10.2454
▁تحمیل	-10.2455
ژانس	-10.2455
▁بنیانگذار	-10.2455
▁تلفیق	-10.2455
▁مفید	-10.2455
▁تعدیل	-10.2456
▁لهستان	-10.2456
▁بازگردد	-10.2457
▁مفهوم	-10.2463
▁۱۲۰	-10.2466
▁ابعاد	-10.2466
▁مبادلات	-10.2469
▁کارگزار	-10.2469
▁استرازنکا	-10.247
▁پیوند	-10.2472
▁دموکرات	-10.2478
▁عروسک	-10.2482
وب	-10.2482
▁بخصوص	-10.2483
▁نوی	-10.2489
▁لمس	-10.2495
▁امن	-10.2498
▁آبادی	-10.2499
▁قریب	-10.25
نش	-10.2501
▁آشفت	-10.2503
▁دیگو	-10.2506
▁نکند	-10.2509
▁خریداران	-10.2511
▁شریک	-10.2513
▁تأثیر	-10.2514
▁لیدز	-10.2516
▁تایسون	-10.2521
▁مبنای	-10.2524
▁پایدار	-10.2527
▁عطرساز	-10.2529
اق	-10.2529
قه	-10.2545
ث	-10.2546
▁پیکر	-10.2552
شاخص	-10.2556
▁ارزان	-10.2559
▁۵۶	-10.2566
اول	-10.2567
▁دیر	-10.2573
▁تاک	-10.2573
▁یکصد	-10.2575
▁آگ	-10.2576
ظهر	-10.2607
▁پدید	-10.2608
▁اعضا	-10.2613
▁امان	-10.2616
▁باشگاهی	-10.2617
یف	-10.2627
▁جهاد	-10.263
مرکز	-10.2633
▁افتتاح	-10.2634
داوم	-10.2639
▁غ	-10.2641
▁جعل	-10.2645
▁لب	-10.2645
ارد	-10.2647
لیگ	-10.2662
▁سیف	-10.2663
▁روستایی	-10.2671
اقات	-10.2673
▁اوست	-10.2686
▁هنگ	-10.269
▁منته	-10.2699
▁بستن	-10.2702
▁بوی	-10.271
▁استعداد	-10.2719
▁بها	-10.2722
▁مزار	-10.2727
▁کریست	-10.2727
▁دستگیری	-10.2744
▁نظریه	-10.2779
▁خواه	-10.2788
▁معترض	-10.2789
ابی	-10.281
▁توانم	-10.281
▁تصویری	-10.2812
▁منتف	-10.2826
۲۵	-10.2827
طئ	-10.283
▁صادرکنند	-10.284
▁موسوی	-10.2846
۳۱	-10.2848
▁خبرهای	-10.2848
▁پرسید	-10.2849
▁کلا	-10.2852
▁اظهارنظر	-10.2856
ونده	-10.2857
نیم	-10.2869
▁سحر	-10.2878
▁تفریح	-10.2879
▁سلف	-10.288
▁دروغ	-10.2885
▁سپر	-10.2888
▁نساجی	-10.2888
▁اکسیژن	-10.2888
▁لالیگا	-10.2888
خصیص	-10.2889
▁نوبخت	-10.2889
▁ببینید	-10.289
▁اسپرت	-10.289
▁بدانیم	-10.2891
▁مهرماه	-10.2892
▁تسلیت	-10.2898
یمی	-10.2899
▁نیوزیلند	-10.2902
▁رابرت	-10.2903
▁دستیابی	-10.2914
▁مارتین	-10.2916
دا	-10.292
▁کام	-10.2923
▁آورند	-10.2926
▁آموزان	-10.2926
شیوع	-10.2927
▁شنا	-10.2932
▁تکلیف	-10.2934
سل	-10.294
اولین	-10.2952
▁مکرون	-10.2954
روی	-10.2957
▁مهاجران	-10.2962
▁صنف	-10.2965
▁حداکثری	-10.2966
▁جنبه	-10.2968
▁قوس	-10.297
▁دانم	-10.2972
▁بشار	-10.2975
عادل	-10.2977
لیورپول	-10.2979
▁ایرلند	-10.2981
احمد	-10.2987
▁خوا	-10.2995
پلیس	-10.3001
▁خلو	-10.3006
▁یونان	-10.3017
شد	-10.302
▁نسب	-10.3028
▁عرف	-10.3035
▁سراغ	-10.3039
۵۰	-10.3042
▁نژادی	-10.3046
▁انتقالات	-10.3053
▁هاوس	-10.3063
▁محور	-10.3068
▁حیاتی	-10.3071
▁شکار	-10.3076
دانشمندان	-10.3079
▁خا	-10.3081
پرو	-10.3082
▁نشت	-10.3096
▁سگ	-10.3097
▁دعوا	-10.3106
▁استخر	-10.3115
▁خل	-10.3116
▁کتی	-10.3119
▁خال	-10.3119
هالی	-10.3126
▁قراردادش	-10.3127
▁داشتم	-10.3136
گه	-10.3141
▁عام	-10.3145
▁ترور	-10.3152
گروه	-10.3153
▁رنج	-10.3154
▁اوین	-10.3164
▁تای	-10.3178
▁بدی	-10.3184
ولت	-10.3185
▁داروهای	-10.3186
کدام	-10.3199
راحل	-10.3204
▁ثروتمند	-10.322
▁گفتگوی	-10.3242
▁هجومی	-10.3247
▁افشا	-10.3258
▁رس	-10.3263
▁مرزهای	-10.3265
▁کهن	-10.3267
▁کشی	-10.3287
▁آیین	-10.3291
▁۹۱	-10.3292
▁۴۶	-10.3294
▁همیش	-10.3294
▁ظهر	-10.3308
▁کما	-10.3311
▁لیگا	-10.3312
▁۴۳	-10.3322
غال	-10.3328
تمرکز	-10.3328
▁وسط	-10.3331
سیا	-10.3338
▁منتخب	-10.3343
▁ناچار	-10.3343
▁ثمر	-10.3344
▁متاثر	-10.3344
▁دوپینگ	-10.3344
کننده	-10.3346
▁لنون	-10.3346
▁سیزده	-10.3347
▁تماشاچی	-10.3348
رنج	-10.335
▁ویلیامز	-10.335
▁بروکسل	-10.3351
▁۲۰۰۳	-10.3352
▁استراتژیک	-10.3354
▁ونیز	-10.3354
جونز	-10.336
دون	-10.3362
▁چراغ	-10.3366
▁شاگردان	-10.3367
▁نکنند	-10.3367
▁عضوی	-10.3369
کان	-10.3369
▁خرند	-10.3371
▁مرخص	-10.3371
▁منچستریونایتد	-10.3372
▁معارف	-10.3373
▁عکسی	-10.3374
▁آبادان	-10.3375
▁بریت	-10.3375
راه	-10.3376
▁محبوبیت	-10.3376
▁بیروت	-10.3376
عنوان	-10.338
▁ناجی	-10.3381
▁یمانی	-10.3384
▁برخلاف	-10.339
▁سربازان	-10.3394
▁کابین	-10.3394
▁تروریستی	-10.34
▁دف	-10.3402
▁میر	-10.3414
ختم	-10.3416
▁نمکی	-10.3421
▁کاشی	-10.3422
رسان	-10.3432
▁ایام	-10.3436
مراسم	-10.3442
سر	-10.3453
▁تروی	-10.3458
▁زیبا	-10.3464
▁ویکتور	-10.3474
▁۱۵۰۰	-10.3478
حالا	-10.3479
▁گذاشتن	-10.3488
▁رساندن	-10.349
▁پلی	-10.3494
▁دوحه	-10.3502
▁پوش	-10.3509
▁درد	-10.3532
▁تعامل	-10.3532
▁فیلتر	-10.3536
▁شمسی	-10.3538
▁گلزنی	-10.3538
▁اسپی	-10.3538
▁کشت	-10.3547
نو	-10.3548
کت	-10.3552
ویژ	-10.3559
▁مرزها	-10.356
▁ایوان	-10.3565
▁استعفای	-10.3565
گون	-10.3571
▁فلیک	-10.3575
▁نرسید	-10.3584
▁مح	-10.3586
▁تاز	-10.3597
▁راک	-10.3625
▁شوهر	-10.3628
▁کشند	-10.3639
▁سین	-10.3648
▁رش	-10.3657
▁نفری	-10.3661
▁ور	-10.3663
▁ناصر	-10.3695
▁بازماند	-10.3711
یره	-10.3715
شهر	-10.3734
یلی	-10.3745
کم	-10.3745
ناتور	-10.3774
جاسوسی	-10.3783
▁مون	-10.3818
بعد	-10.3818
▁شلوغ	-10.3819
▁مایکروسافت	-10.3819
▁تعقیب	-10.3819
▁دژپسند	-10.3819
▁فلوریدا	-10.3819
▁انقراض	-10.3819
▁ناپدید	-10.3819
▁محاکم	-10.382
▁بندرعباس	-10.382
▁بزوس	-10.3821
▁سردبیر	-10.3821
▁یوگا	-10.3821
▁خوشنام	-10.3821
▁کارلوس	-10.3823
▁بگیریم	-10.3823
▁ساویز	-10.3824
▁بزنند	-10.3827
▁پرندگان	-10.3829
▁رفاه	-10.383
▁متناسب	-10.3835
▁ثروت	-10.3837
▁قطار	-10.3839
صورت	-10.3845
▁تخلفات	-10.3846
▁طرفدار	-10.3846
▁سادات	-10.3846
▁شاخ	-10.3847
▁جاشوا	-10.385
▁بومی	-10.3858
▁لحظات	-10.3859
▁هنرها	-10.3863
▁وزارتخانه	-10.3872
▁پیوستن	-10.388
▁بهایی	-10.3881
▁مقدم	-10.3883
▁سومی	-10.3889
فی	-10.3894
▁خدا	-10.3899
▁معمولی	-10.39
▁تقابل	-10.3901
موند	-10.3906
▁سیزدهم	-10.391
▁مقطع	-10.3918
▁برادرش	-10.3955
▁گردند	-10.3957
زیگ	-10.3957
نام	-10.396
▁اریک	-10.3971
▁کردستان	-10.3976
▁پستان	-10.398
گو	-10.3982
▁سازد	-10.3984
اتحاد	-10.3988
وا	-10.3993
▁ایمان	-10.3994
▁سکونت	-10.3997
اف	-10.3997
▁دهک	-10.3999
لک	-10.4016
۳۰	-10.4018
رای	-10.4027
▁اطل	-10.4032
▁روزی	-10.4041
▁روزمر	-10.4041
▁پراکند	-10.4046
▁کنسول	-10.4047
لق	-10.4048
▁آوردن	-10.4053
▁تاپ	-10.406
▁رحم	-10.4065
▁مادران	-10.4066
▁فتح	-10.4072
تاسف	-10.4074
شار	-10.4076
▁گرد	-10.4082
▁نجف	-10.4086
▁افکار	-10.4099
▁تورمی	-10.4109
▁آباد	-10.4112
▁مرس	-10.4121
▁تایم	-10.4124
پل	-10.4141
▁نشانی	-10.4145
▁سینماها	-10.4151
▁نداد	-10.4162
▁ات	-10.4172
اج	-10.4173
▁تایلند	-10.4174
آوری	-10.4177
▁شبه	-10.4185
▁بس	-10.4193
▁فا	-10.4195
▁ازای	-10.4201
شاهی	-10.4203
ممکن	-10.421
▁کشیدن	-10.4229
نز	-10.4231
▁گوی	-10.4231
برخ	-10.4247
ساب	-10.4249
گن	-10.425
▁اختلا	-10.4255
▁لا	-10.4258
جو	-10.4263
▁سرا	-10.4271
▁تقدی	-10.428
▁مهمان	-10.4289
▁پرسی	-10.4292
لف	-10.4318
▁آنفلوآنزا	-10.4319
▁مشکوک	-10.4319
▁مشورت	-10.4319
▁تجلیل	-10.432
▁بکشند	-10.4321
▁خیانت	-10.4321
▁دانشکد	-10.4321
▁حرکات	-10.4322
▁متعهد	-10.4324
▁کامیون	-10.4324
▁۱۳۹۵	-10.4324
فق	-10.4325
▁ذکر	-10.4325
▁لزوم	-10.4325
▁۲۰۳۰	-10.4325
▁بمانند	-10.4325
▁گیاه	-10.4327
▁بوشهر	-10.4327
▁استراحت	-10.433
▁صالحی	-10.4331
▁مقرر	-10.4332
▁حجاب	-10.4333
▁زنجان	-10.4333
▁تعجب	-10.4334
▁فرونشست	-10.4335
▁مرگبار	-10.4338
▁ویلیام	-10.4345
▁رانندگی	-10.4346
▁الحسن	-10.4346
▁بلومبرگ	-10.435
▁ون	-10.435
▁پناهجویان	-10.435
▁کمپین	-10.4352
▁ستارگان	-10.4355
▁سیاستمداران	-10.4355
▁رئیسی	-10.4359
خی	-10.4359
رهای	-10.436
▁مقیم	-10.4362
▁بورل	-10.4365
▁سالمندان	-10.4365
▁روبروست	-10.4371
بون	-10.4382
▁کارگروه	-10.4389
ناد	-10.4391
▁شوید	-10.4392
استفاده	-10.4405
▁وحید	-10.4407
لر	-10.4415
زم	-10.4417
▁لیور	-10.4423
▁عبدی	-10.4424
▁انتقادهای	-10.4427
▁داغ	-10.4428
▁کشاند	-10.4431
▁حاجی	-10.4431
▁لیس	-10.4441
گذاری	-10.4442
▁سم	-10.4443
▁اسپوت	-10.4453
التی	-10.4453
▁اوا	-10.4454
یحی	-10.4464
▁گزارشگران	-10.4465
▁بدل	-10.4469
▁توفیق	-10.4469
▁ژوز	-10.4476
▁ریچارد	-10.4495
▁بهر	-10.4498
▁حریفان	-10.45
▁شریفی	-10.4501
مسئولان	-10.4511
کر	-10.4519
پژوهشگران	-10.4522
▁آهنگساز	-10.4533
ضعیف	-10.4538
شاید	-10.4539
دادگاه	-10.4544
▁تقویم	-10.4548
▁بشری	-10.4559
▁انتقادها	-10.4568
▁فروشی	-10.457
صاف	-10.4574
▁وسی	-10.4577
کوبی	-10.4584
▁ژنتیک	-10.4586
ردن	-10.4586
▁ملا	-10.4595
▁هرگ	-10.4602
آبادی	-10.4606
▁بل	-10.4608
▁طرز	-10.4613
▁دقت	-10.4615
لحق	-10.4624
▁نسبتا	-10.4634
▁افسر	-10.4634
▁نوشتن	-10.4639
▁راس	-10.464
▁ویزا	-10.4669
▁سرو	-10.4672
▁بازنشست	-10.4674
▁بروند	-10.4694
▁گنج	-10.4699
▁بمب	-10.47
▁ایراد	-10.4701
▁شاعران	-10.4701
داع	-10.4731
▁حو	-10.4746
الله	-10.4751
▁فضانورد	-10.4759
▁شون	-10.4765
▁درس	-10.4774
▁خارا	-10.4777
تیکو	-10.4779
شدت	-10.4781
▁تثب	-10.4789
امیر	-10.48
▁مکرر	-10.4804
▁دردسر	-10.4806
▁اندازد	-10.4808
▁آفریقایی	-10.4812
▁رغ	-10.483
▁گوگ	-10.4831
▁دوازده	-10.4841
▁فلسفه	-10.4845
▁اعتقاد	-10.4845
▁پرطرفدار	-10.4845
▁تضمین	-10.4846
▁ابتکار	-10.4846
▁دماوند	-10.4846
▁یهودی	-10.4846
▁مواضع	-10.4847
▁۸۰۰	-10.4847
▁منفجر	-10.4848
▁سید	-10.4848
▁مکتب	-10.4848
▁استراتژی	-10.4848
▁بگوییم	-10.4849
▁مسایل	-10.4851
▁ببینند	-10.4851
▁برگردد	-10.4853
▁منزل	-10.4854
▁مخصوص	-10.4857
▁عنکبوت	-10.4861
▁دایناسور	-10.4861
▁جالب	-10.4863
▁بختیار	-10.4863
▁ستایش	-10.4865
▁زور	-10.4867
▁فجر	-10.4868
▁فرگوسن	-10.4869
▁خوک	-10.487
▁خرسند	-10.4871
▁شایعات	-10.4872
▁اق	-10.4876
واسط	-10.4876
▁۱۳۵	-10.4878
▁انصاریان	-10.4879
ایت	-10.4881
▁دشمنان	-10.4883
▁تالار	-10.4884
▁اسلم	-10.4885
▁ضایع	-10.4886
▁زو	-10.4886
▁تند	-10.4892
▁صعودی	-10.4894
▁فلز	-10.4896
▁آرا	-10.4897
بهار	-10.4907
▁رایج	-10.4908
▁ماهیگیر	-10.4915
▁اعتیاد	-10.4918
▁الکس	-10.4923
▁مسکو	-10.4924
▁گلف	-10.4925
▁روستای	-10.4928
تب	-10.4929
▁همرسان	-10.4933
▁منوچ	-10.4936
▁کلود	-10.4941
▁ادعاهای	-10.4945
▁کاربرد	-10.4948
▁کشتار	-10.4949
▁گرند	-10.4959
برنامه	-10.4959
▁برانک	-10.4961
▁حکمتی	-10.4968
▁اسد	-10.4971
▁اما	-10.4972
ایع	-10.4976
▁وزرای	-10.4977
▁حرم	-10.498
▁ناو	-10.4992
▁الیز	-10.5004
▁گرمای	-10.5007
▁حافظ	-10.5008
▁اعتراضی	-10.501
▁جنس	-10.5017
استقلال	-10.5022
▁نظم	-10.5022
ایح	-10.5024
تلاف	-10.5027
قص	-10.5034
▁روسا	-10.5035
خارجه	-10.5035
وار	-10.5037
▁مصاد	-10.5043
▁قدمت	-10.5048
▁گانه	-10.505
▁پسرش	-10.5051
یعن	-10.5058
جایی	-10.506
▁۷۳	-10.5069
▁مستق	-10.5075
آنتونی	-10.5075
علیرضا	-10.5082
▁اشک	-10.5085
▁شخص	-10.5085
▁کت	-10.5091
▁کادی	-10.5092
▁۹۰۰	-10.5095
▁شه	-10.5099
▁رنجر	-10.5102
▁عقید	-10.5102
▁گرگ	-10.5117
▁داروها	-10.5121
▁زخم	-10.5137
▁رصد	-10.5144
▁آقا	-10.5145
▁جلال	-10.5151
▁اموا	-10.5163
ایش	-10.5172
▁اصول	-10.5177
تل	-10.5179
▁بینند	-10.518
▁کمتری	-10.5183
خر	-10.5189
▁نامزدها	-10.5198
▁حداد	-10.5201
▁یکسال	-10.5211
▁دوج	-10.5216
یایی	-10.5229
▁منطق	-10.5235
▁شع	-10.5236
سیویر	-10.5249
▁کلام	-10.5275
دیگر	-10.5289
رین	-10.5295
مهدی	-10.5301
رات	-10.5309
بت	-10.5335
▁کاست	-10.5354
▁کمربند	-10.5366
▁۱۳۸	-10.5367
▁۶۴	-10.5372
▁شاهکار	-10.5391
▁روب	-10.5396
▁ساک	-10.5397
▁ادب	-10.5397
کینگ	-10.5398
▁دریابندری	-10.5401
▁کارداشیان	-10.5401
▁مازندران	-10.5401
▁وحدت	-10.5401
▁محوطه	-10.5401
▁اشتراک	-10.5401
▁ورشکست	-10.5401
▁بلوچ	-10.5402
▁فلوید	-10.5402
▁تعزیری	-10.5402
▁شو	-10.5402
▁معدود	-10.5402
▁روشنفکر	-10.5403
▁بیفتد	-10.5403
▁پشتیبان	-10.5403
▁مرجع	-10.5403
▁سایبری	-10.5403
▁ماندگار	-10.5404
▁زغال	-10.5405
▁مجاهد	-10.5405
فاد	-10.5405
▁آشوری	-10.5405
▁ارزشمند	-10.5406
▁۱۳۹۶	-10.5407
▁مبدا	-10.5408
▁پیشتاز	-10.5409
▁سیگار	-10.5411
▁وصل	-10.5411
▁علیر	-10.5411
▁ببیند	-10.5412
▁کوهستان	-10.5412
▁تعبیر	-10.5414
مال	-10.5415
▁خادم	-10.5415
▁تسلیم	-10.5417
▁رتکلیف	-10.5419
نظرسنجی	-10.5419
▁ویل	-10.5419
▁یکسان	-10.5427
▁ترافیک	-10.5432
▁دیدگاه	-10.5435
▁کرمان	-10.5438
▁شانه	-10.5439
▁جین	-10.544
▁پناهندگ	-10.5445
▁زبا	-10.5448
▁دیپلمات	-10.5451
▁همینطور	-10.5452
▁ساختن	-10.5452
▁کیانوش	-10.5453
▁تیرماه	-10.5455
▁ابوال	-10.5456
بازار	-10.5457
▁جنایت	-10.5463
کمیت	-10.5466
▁موجودات	-10.5467
درصد	-10.5468
▁پیرلو	-10.5471
▁مطهری	-10.5471
▁رضایی	-10.5472
▁آرامکو	-10.5474
▁تنوع	-10.5478
▁شاپو	-10.5479
▁دارید	-10.5489
۱۵	-10.549
مالاریا	-10.5503
▁صفحات	-10.5512
▁دخترش	-10.5524
۲۳	-10.5525
▁نداشتن	-10.5534
▁لاری	-10.5538
▁شیلی	-10.5547
▁ردیاب	-10.5549
▁غم	-10.5553
برگ	-10.5561
▁آمدند	-10.5577
▁تصمیمات	-10.5582
▁حدی	-10.5585
▁انجامید	-10.5588
▁نوید	-10.559
شماری	-10.5591
▁شانزدهم	-10.5596
رقابت	-10.5598
مدت	-10.5601
▁مسیرهای	-10.5601
▁کپی	-10.5607
▁مصطف	-10.5613
فن	-10.5616
اسل	-10.5617
▁میل	-10.562
▁پیک	-10.5621
منابع	-10.5626
معاون	-10.563
اینها	-10.5631
▁اح	-10.5631
▁لیست	-10.564
▁بارداری	-10.5644
▁پوشاند	-10.5658
لاتین	-10.5662
▁واسط	-10.5667
یچ	-10.5668
نشینی	-10.5669
محققان	-10.5678
▁گرایان	-10.57
▁نظرات	-10.5708
▁جبه	-10.5712
▁شناسان	-10.5724
▁دورت	-10.5724
سانه	-10.5724
▁خودران	-10.5726
نت	-10.5729
▁اذ	-10.5732
گفت	-10.5745
▁نیوک	-10.5747
▁۵۹	-10.5747
▁کاغذ	-10.5749
▁اسک	-10.575
▁قراردادهای	-10.5751
▁کارگردانان	-10.5754
آمار	-10.5767
تکب	-10.5771
بل	-10.5773
▁ویلا	-10.5777
▁نیو	-10.5783
بازی	-10.5785
مرث	-10.5789
▁هندی	-10.5793
▁اکس	-10.5813
▁افشار	-10.5815
▁نیش	-10.5828
▁۷۲	-10.5846
وله	-10.5857
▁سون	-10.5857
یخ	-10.5858
▁تاریک	-10.5863
نواک	-10.5864
▁برداشتن	-10.5879
▁شر	-10.589
▁برزیلی	-10.5896
لاق	-10.5899
▁دربار	-10.5901
برداری	-10.5914
▁شرمن	-10.5917
فصل	-10.5925
▁وحشی	-10.593
▁مرغدار	-10.5932
▁قض	-10.5941
▁پیمانکار	-10.5942
▁دشمن	-10.595
دربند	-10.5974
▁نت	-10.5982
▁معیار	-10.5985
▁گرفتم	-10.5988
▁صداوسیما	-10.5989
▁پارالمپیک	-10.5989
کول	-10.5989
▁آسوشیتدپرس	-10.5989
▁بدخشان	-10.599
▁قزاقستان	-10.599
▁مدیترانه	-10.599
▁ترسناک	-10.599
▁تتلو	-10.599
▁آپارتمان	-10.5991
▁بگویم	-10.5991
▁حیوان	-10.5993
گراندپری	-10.5994
▁بگیرید	-10.5994
▁مختل	-10.5994
▁ثانوی	-10.5994
▁غیاب	-10.5995
▁ودیعه	-10.5996
▁اکسید	-10.5996
▁خزر	-10.5997
▁نشیب	-10.5997
▁نمادی	-10.5997
▁آرشیو	-10.6
▁رمزارز	-10.6
▁فروپاشی	-10.6
▁زیستگاه	-10.6001
▁خرابکار	-10.6002
▁اردوگاه	-10.6002
▁مزرعه	-10.6004
ضعف	-10.6004
▁حباب	-10.6005
▁لامبورگینی	-10.6006
▁۲۰۰۴	-10.6006
▁توفان	-10.6007
▁قرص	-10.6008
▁سرویس	-10.6011
▁تندرو	-10.6011
▁هشتگ	-10.6011
▁مولوی	-10.6012
▁فسیل	-10.6012
▁قم	-10.6013
▁پلاک	-10.6014
▁پراید	-10.6015
▁تحصیلات	-10.6016
▁لبخند	-10.6017
▁غالب	-10.6017
▁اتل	-10.6021
▁دارا	-10.6021
▁گوگل	-10.6022
سو	-10.6022
▁مداوم	-10.6024
▁ظه	-10.6025
شمار	-10.6027
▁دستاوردهای	-10.6028
▁عل	-10.603
▁تسهیلات	-10.603
▁زادگاه	-10.6033
▁علاقمندان	-10.6037
▁عزم	-10.6038
▁جاسوس	-10.604
▁نکات	-10.6041
▁عصب	-10.6047
▁اندیش	-10.6047
▁وجه	-10.6051
▁۱۳۶	-10.6051
▁فتاح	-10.6054
چین	-10.6058
▁کوچکتر	-10.6059
▁۴۱	-10.6068
▁خواهی	-10.607
▁ضربات	-10.6071
▁مرتب	-10.6071
نوش	-10.6072
▁آفرین	-10.6073
▁توضیحات	-10.6076
▁فیس	-10.608
حل	-10.6082
خاطر	-10.6083
▁اعطا	-10.6087
▁پیشرفته	-10.609
▁جانور	-10.6095
▁شناسند	-10.6098
▁نکردند	-10.61
دام	-10.6103
▁ناآرامی	-10.6113
▁الگوی	-10.6115
▁چوب	-10.6117
▁شغلی	-10.6121
▁هواپیماهای	-10.6124
الدین	-10.6127
▁پارس	-10.6128
۱۳	-10.6129
▁ناراحت	-10.6131
آخری	-10.6132
▁ماز	-10.6144
▁داشتیم	-10.615
عی	-10.6151
▁زی	-10.6151
وجود	-10.6156
▁هوادار	-10.6162
▁نک	-10.6162
▁استاین	-10.6163
▁الزام	-10.6167
▁دانشجویی	-10.6172
چرخه	-10.6184
▁تبادل	-10.6185
▁۷۴	-10.619
کرد	-10.6194
▁شیمی	-10.6199
▁لح	-10.6204
▁هل	-10.6206
▁انتقادات	-10.6216
▁تعهداتش	-10.6217
▁قرض	-10.6218
▁کامپیوتری	-10.6222
▁وع	-10.6225
اطم	-10.6228
▁تعل	-10.6229
فعالان	-10.628
▁منصوری	-10.6284
▁سختگیر	-10.6293
گبا	-10.63
سرعت	-10.6301
▁مهاجمان	-10.6305
اتی	-10.6305
محمدجواد	-10.6306
▁ارا	-10.6307
وریا	-10.6309
▁مرگش	-10.6311
▁۵۳	-10.6315
▁مقا	-10.6328
الی	-10.6332
▁بانکها	-10.6342
▁سان	-10.6343
هز	-10.6345
واک	-10.6365
▁عمران	-10.6374
▁پالا	-10.6388
وپن	-10.6415
▁ویرجی	-10.6431
▁گلزن	-10.6441
▁تخیل	-10.6445
▁تلف	-10.6453
منه	-10.6472
باز	-10.6481
▁مغ	-10.6491
▁۷۸	-10.6493
ندی	-10.6495
▁کاظم	-10.651
▁نهاده	-10.6524
▁بزرگتر	-10.6527
▁پناه	-10.6532
▁وب	-10.6542
▁شدیدتر	-10.6543
▁سلطانی	-10.6544
▁بینیم	-10.6547
▁خزان	-10.6554
لاشه	-10.6561
▁شنیدن	-10.6567
▁فرانک	-10.6573
▁اخطار	-10.658
▁ارد	-10.6585
▁سرنشین	-10.6596
▁ژنو	-10.6597
▁گشود	-10.6598
▁یکم	-10.6599
▁ابهام	-10.6604
▁مامور	-10.6607
▁ذهنی	-10.6607
▁یکبار	-10.6609
▁مصدوم	-10.661
اقد	-10.6614
▁آتالانتا	-10.6614
▁زحمت	-10.6614
▁اتوبوس	-10.6614
▁وحشتناک	-10.6614
▁غرامت	-10.6614
▁شباهت	-10.6615
▁مصلحت	-10.6616
▁داغستان	-10.6616
▁نوازنده	-10.6616
▁معالج	-10.6616
▁سوگوار	-10.6616
▁پیشکسوت	-10.6616
▁کمدی	-10.6617
▁خلاقیت	-10.6617
▁آوازخوان	-10.6617
▁بپردازد	-10.6618
▁احتیاط	-10.6618
▁برتری	-10.6618
▁اعتراف	-10.6618
▁تغذیه	-10.6619
▁ناشناخت	-10.6621
▁۱۹۴۰	-10.6622
۲۰	-10.6622
▁توجیه	-10.6626
▁ناقض	-10.6627
▁پایبند	-10.6628
▁صحیح	-10.6629
▁ندارم	-10.6629
▁پروان	-10.663
مد	-10.6631
▁خسارات	-10.6632
▁تمدن	-10.6638
▁جابجا	-10.6638
▁متنوع	-10.6644
▁هستید	-10.6644
▁عاشقانه	-10.6644
▁گرمایش	-10.6648
▁ضدحمل	-10.6648
▁نزول	-10.6649
▁کریسمس	-10.6651
▁والدین	-10.6653
▁سکوت	-10.6654
اداری	-10.6665
▁قاب	-10.667
▁ایستاد	-10.667
صخره	-10.6671
▁جزییات	-10.6672
▁ناب	-10.6672
یشب	-10.6674
▁مغاز	-10.6681
▁بنکسی	-10.6688
وازه	-10.6693
▁پیشرو	-10.6696
قی	-10.6697
▁بردارد	-10.6703
▁خریده	-10.6703
▁چهاردهم	-10.6706
▁شهید	-10.6709
▁ریزش	-10.6715
▁دیوی	-10.6722
▁فی	-10.6727
سانی	-10.6733
▁کوهن	-10.6734
تنها	-10.6734
▁هفدهم	-10.6737
▁رسم	-10.6743
▁قطعات	-10.6751
▁توریست	-10.6759
نک	-10.676
زا	-10.676
▁نوجوانان	-10.6764
▁جف	-10.6764
▁کاس	-10.6769
▁ترکمن	-10.6783
روج	-10.6788
اده	-10.6794
▁بدین	-10.6796
گل	-10.6803
انکن	-10.6808
▁ویدئو	-10.6814
خت	-10.6816
▁هکرها	-10.6818
▁گازی	-10.6818
▁لرز	-10.6831
▁جهانگیری	-10.6832
▁استثنا	-10.6834
▁میز	-10.6839
▁سارا	-10.6841
شاه	-10.6842
خانواده	-10.6844
اقتصاد	-10.685
▁تیل	-10.6852
▁کودتای	-10.6853
▁رویه	-10.6854
▁تار	-10.6855
مانده	-10.6856
شا	-10.6856
هام	-10.6859
▁دلال	-10.686
▁ایر	-10.6867
▁۱۹۴	-10.6871
▁موازی	-10.6872
▁مارچ	-10.6879
وطن	-10.6881
▁سیم	-10.6882
ولان	-10.6883
▁بورگ	-10.6888
▁آگاهی	-10.6897
▁نق	-10.6905
▁یافتند	-10.6917
هدیه	-10.6925
▁مند	-10.6932
▁فرج	-10.6942
▁۷۶	-10.6942
▁درخش	-10.6943
▁دیو	-10.6953
▁لحن	-10.6955
▁تخصص	-10.697
عداد	-10.6974
مار	-10.6977
▁۳۵۰	-10.6999
▁خطای	-10.7
▁صفرها	-10.7012
▁بیل	-10.7015
▁۱۹۶۰	-10.702
تراشه	-10.7022
مل	-10.7023
▁عمد	-10.7024
یوان	-10.7024
▁نروژ	-10.7032
▁ذی	-10.7037
▁پروازها	-10.7041
حمید	-10.7064
▁دهان	-10.7065
▁کیفر	-10.7066
▁بازارها	-10.7067
انس	-10.7068
▁متشک	-10.7075
▁ارگ	-10.7077
▁کوبا	-10.7084
علاو	-10.7091
نصف	-10.7094
▁شهریار	-10.7094
▁بنیادی	-10.7095
حافظه	-10.7102
▁آرای	-10.7107
▁خالص	-10.711
▁قومی	-10.7111
لم	-10.7117
وات	-10.712
▁چیزهای	-10.7125
درفتار	-10.7128
تولید	-10.7143
▁آرش	-10.7143
▁میرزا	-10.7144
▁نوآور	-10.7161
▁۱۷۰	-10.717
▁شط	-10.7187
ودی	-10.7199
▁همتای	-10.7203
عشی	-10.7205
▁درآورد	-10.7208
راتی	-10.7214
▁لوکا	-10.7218
گشایی	-10.7221
▁صدد	-10.7229
زار	-10.7236
▁پیچ	-10.7239
▁رت	-10.7245
▁پرت	-10.7245
▁گفتگوهای	-10.7248
▁معنا	-10.7252
واد	-10.7254
▁تعمیر	-10.7261
▁ادار	-10.7264
▁خشن	-10.727
هین	-10.7276
▁همجنس	-10.7279
▁آغداشلو	-10.7281
▁مغناطیس	-10.7281
▁واضح	-10.7281
▁کانسپت	-10.7281
▁یونسکو	-10.7281
▁استخدام	-10.7281
▁اوباما	-10.7281
▁گلمکانی	-10.7281
▁اصرار	-10.7281
▁اقتدار	-10.7282
▁مشکات	-10.7282
▁بفروشد	-10.7282
▁نامناسب	-10.7283
▁بیاورد	-10.7283
▁پوتین	-10.7285
▁محترم	-10.7286
▁لگن	-10.7288
▁زیارت	-10.7288
چهار	-10.7291
▁یادبود	-10.7293
▁اسرار	-10.7293
▁مخدر	-10.7294
▁ادارات	-10.7296
▁شرح	-10.7297
▁مداخل	-10.7297
بینی	-10.7297
▁ایرباس	-10.7299
▁مرتضی	-10.7299
▁حساسیت	-10.73
▁۹۴	-10.7301
▁نیسان	-10.7303
▁هشتصد	-10.731
▁غلط	-10.7311
کور	-10.7315
▁تیک	-10.7316
▁سارس	-10.7316
▁رضایت	-10.7319
▁اسنپ	-10.7319
▁تکنولوژی	-10.732
▁انحصار	-10.7321
فیه	-10.7322
▁حقیق	-10.7324
▁مدرک	-10.7324
▁ندهد	-10.7327
▁ماشه	-10.7327
▁۶۸	-10.7328
▁نان	-10.7332
▁۸۵	-10.7332
▁آرمان	-10.7335
▁دهندگان	-10.7338
قات	-10.7342
دور	-10.7342
▁شوخی	-10.7346
▁یوو	-10.7348
▁پرهی	-10.7348
▁خواهر	-10.7352
▁تام	-10.7355
▁قبال	-10.7361
▁محکم	-10.7366
▁زهره	-10.7367
▁فرید	-10.7367
▁سانتریفیوژ	-10.7371
مر	-10.7374
▁گذارند	-10.7377
▁دهید	-10.7382
▁تحقیر	-10.7384
▁سعد	-10.7385
▁خران	-10.7387
▁ببر	-10.7392
وفر	-10.7401
▁گذاشتند	-10.7405
▁ماهها	-10.7408
سب	-10.7409
▁امو	-10.741
▁رفتارهای	-10.7415
مکعب	-10.7416
▁سیام	-10.7417
▁جلد	-10.7424
▁درج	-10.7425
▁حتما	-10.7437
▁دنیاست	-10.7438
▁مستقیما	-10.7447
▁لوا	-10.7454
خیره	-10.7454
▁پار	-10.7462
▁ایرج	-10.7473
پتون	-10.7474
▁معیشتی	-10.7475
▁خوست	-10.7478
همچنین	-10.748
رگس	-10.7481
ایدو	-10.7487
۰۰۰	-10.7495
▁ثروتمندتر	-10.7502
▁شادی	-10.7505
زده	-10.7505
▁گردانند	-10.7511
▁صح	-10.7522
▁برجا	-10.7527
▁همانند	-10.7529
▁۱۹۰	-10.753
۴۰	-10.753
▁پانزدهم	-10.7531
▁همکار	-10.7536
▁فوریت	-10.754
▁برایم	-10.7541
انصراف	-10.7541
▁زک	-10.7552
لندر	-10.7553
ونگ	-10.7556
▁احسا	-10.756
▁استاندارد	-10.757
وکی	-10.7572
▁دیدارهای	-10.7576
▁تبعید	-10.758
مدیر	-10.7586
لور	-10.7587
▁ابرا	-10.7596
▁نیا	-10.76
▁۱۷۶	-10.7602
▁اکبری	-10.761
نمایندگان	-10.7611
▁نوار	-10.7612
انتظار	-10.7618
صندوق	-10.7623
▁کیست	-10.7628
▁عزیز	-10.7631
چرا	-10.7632
▁سوری	-10.7633
▁آثارش	-10.7637
لس	-10.7647
کوویچ	-10.7655
فدرر	-10.7656
▁نمود	-10.7658
▁پاهای	-10.7658
▁فای	-10.7659
کارشناسان	-10.7662
▁پرتر	-10.7671
رهبر	-10.7675
غلام	-10.7676
خل	-10.7679
اخیرا	-10.7682
▁انیس	-10.7685
▁دانشگاهی	-10.7689
▁استدر	-10.77
▁کرو	-10.7704
▁کامپیوتر	-10.7705
▁گذراندن	-10.7706
▁فین	-10.7712
ناک	-10.7712
▁هلی	-10.7715
▁۶۲	-10.7719
▁فیلمبردار	-10.7719
▁روال	-10.7724
خبر	-10.7729
▁برگشته	-10.7737
▁دوش	-10.7739
▁ناامید	-10.7743
▁اجبار	-10.7745
▁چی	-10.7747
▁مالکان	-10.775
▁شهردار	-10.7771
مرگ	-10.7785
▁سوا	-10.7787
رشد	-10.7813
▁کلان	-10.7813
مصطف	-10.7822
▁نخ	-10.7831
▁شریف	-10.7835
هدف	-10.7855
▁تغییری	-10.7858
▁درخشانی	-10.7863
▁بلوک	-10.7867
▁تشری	-10.7899
▁شهیدی	-10.7904
▁آلن	-10.7912
▁موجودی	-10.7926
▁پرآ	-10.7935
▁دستاورد	-10.7948
▁منظر	-10.795
لیون	-10.7952
▁مکزیک	-10.7968
▁استون	-10.7974
▁نامی	-10.7979
▁مردمی	-10.7981
▁خانوار	-10.7982
▁اخلاق	-10.7984
▁مال	-10.7987
▁مأمور	-10.7987
▁آبراموویچ	-10.7995
▁فزاینده	-10.7995
▁زریاب	-10.7995
▁معلم	-10.7995
▁تفکیک	-10.7996
▁راپینو	-10.7996
▁آسمایی	-10.7996
▁زیرساخت	-10.7997
لاب	-10.7997
▁مثلث	-10.7997
▁کالبد	-10.7997
▁یخچال	-10.7997
▁مطلوب	-10.7999
▁خفیف	-10.8
▁امواج	-10.8
▁لاریجان	-10.8
▁آشام	-10.8
▁طعم	-10.8
▁پنگوئن	-10.8
▁تکنیک	-10.8001
جیمزباند	-10.8001
▁بازنگری	-10.8004
▁آمبول	-10.8006
▁ترانزیت	-10.8007
فینیتی	-10.8007
▁فطر	-10.8008
▁هرمز	-10.8009
▁میلیاردر	-10.8009
▁مسافت	-10.8012
▁۲۰۰۱	-10.8014
▁اکتشاف	-10.8014
▁غیرنظامی	-10.8016
▁مظاهری	-10.8016
▁خراب	-10.8016
▁حسرت	-10.8017
▁گرایش	-10.802
▁بازخوان	-10.802
گرفته	-10.8021
▁بوکسور	-10.8027
▁جغرافیای	-10.8028
▁نیجر	-10.8032
▁گابریل	-10.8037
▁جیپ	-10.8045
▁سیبری	-10.805
▁برلین	-10.8051
۶۰	-10.8051
▁شمس	-10.8054
▁نمایشنامه	-10.8054
▁غل	-10.8056
▁اسکو	-10.8056
▁ندیده	-10.8057
▁مایع	-10.8071
▁رزم	-10.8072
▁سالیوان	-10.8073
▁گلوب	-10.8077
▁دشت	-10.8082
▁گال	-10.8093
▁باشم	-10.8093
▁فیروز	-10.8097
▁آزمو	-10.81
تیک	-10.8117
▁بافت	-10.8122
وارد	-10.8123
▁مخلو	-10.8144
▁مراود	-10.8151
هار	-10.816
▁نویسد	-10.8161
▁مزایای	-10.8161
▁معاد	-10.817
▁بدنی	-10.817
▁اک	-10.8171
مسی	-10.8173
۴۶	-10.8178
▁کرج	-10.8189
▁نمادهای	-10.819
رونمای	-10.8191
شنگ	-10.8197
▁۸۲	-10.8201
▁سام	-10.8201
آمیز	-10.8203
▁ریخت	-10.821
▁وجو	-10.822
باشگاه	-10.8222
مجلس	-10.8225
▁آرزوی	-10.8227
▁ضر	-10.8228
▁مسیحی	-10.8232
خامن	-10.8244
▁اتکا	-10.8245
▁آمریکاست	-10.825
▁شناسد	-10.8252
فون	-10.8255
دین	-10.8282
▁گنجی	-10.8284
▁کاوه	-10.8289
▁کلر	-10.8304
نم	-10.8306
پا	-10.831
▁اید	-10.8311
پرسپولیس	-10.8315
▁ژو	-10.8316
▁گیل	-10.8317
▁افتادن	-10.8327
▁فرض	-10.8328
سکی	-10.8336
▁جوز	-10.8339
ژان	-10.8343
باب	-10.8343
▁امی	-10.8353
▁کارفرمای	-10.8366
▁کول	-10.8373
مندان	-10.8376
▁دم	-10.8377
▁نورد	-10.8381
▁ماریا	-10.8385
▁پال	-10.8385
دونالد	-10.8394
۷۰	-10.8395
سایه	-10.8408
یع	-10.8412
خته	-10.8416
▁مواقع	-10.8429
▁جوش	-10.8435
موسس	-10.8442
روزنامه	-10.8449
یرت	-10.8463
▁آنک	-10.8464
▁استودیو	-10.8469
سپاری	-10.8473
▁سرب	-10.8477
▁برآمد	-10.8479
لتیک	-10.8484
▁شهرک	-10.8502
۹۰	-10.8521
▁نابود	-10.8534
مپ	-10.8536
▁عالم	-10.8541
▁مصر	-10.8544
▁گزارشها	-10.8546
▁فروشند	-10.8549
امضاکنندگان	-10.8552
فرج	-10.8555
▁مدتها	-10.8555
▁بناها	-10.856
یز	-10.8566
▁فرزندش	-10.8583
▁کرایس	-10.8586
▁کین	-10.8592
یقه	-10.8595
۲۰۰	-10.8603
▁جیل	-10.8605
▁اد	-10.8623
غه	-10.8631
▁گرفتار	-10.8633
نکور	-10.8644
▁کیت	-10.8645
▁تیره	-10.8647
▁الکل	-10.8649
▁مقر	-10.8655
▁۶۱	-10.8658
▁وگوی	-10.8671
▁جاهای	-10.8677
ناز	-10.8683
▁۸۹	-10.8685
▁تش	-10.8687
قرض	-10.8695
▁رکوردهای	-10.8695
▁کج	-10.8697
دوست	-10.8698
▁آشنای	-10.8699
▁انگشت	-10.8702
▁گویی	-10.871
سپری	-10.8711
یژن	-10.8711
▁تابو	-10.8714
ریک	-10.8719
▁نوزاد	-10.8726
ترا	-10.8726
▁مندان	-10.8731
نفتی	-10.8732
▁ظ	-10.8749
▁جست	-10.876
▁مستضعفان	-10.8764
▁باورنکردنی	-10.8764
▁دگرگون	-10.8764
▁اپیدمی	-10.8764
▁خرچنگ	-10.8764
▁سرتاسر	-10.8764
▁شارژ	-10.8765
▁بنتلی	-10.8765
▁تضاد	-10.8765
▁تخفیف	-10.8765
▁زودهنگام	-10.8765
▁برشمرد	-10.8765
▁آموزگار	-10.8765
▁کولمن	-10.8766
▁جرایم	-10.8766
▁نصیب	-10.8766
▁واریز	-10.8767
▁ارتقا	-10.8767
▁متوفی	-10.8767
▁آنفیلد	-10.8768
▁ریورا	-10.8768
▁بفتا	-10.8768
▁فرایند	-10.877
▁کلینیک	-10.8771
▁۱۹۷۰	-10.8771
▁بارز	-10.8771
▁بگذارند	-10.8772
▁شام	-10.8773
▁سیارک	-10.8773
▁مکمل	-10.8773
▁تبریک	-10.8774
▁نرفت	-10.8775
▁قسط	-10.8778
▁قائم	-10.8779
▁انباشت	-10.8781
▁پررنگ	-10.8783
▁انستیتو	-10.8784
▁ببرند	-10.8784
▁نوشیدن	-10.8785
▁غیبت	-10.8786
خاذ	-10.8787
▁۱۹۸۰	-10.8791
▁متروکه	-10.8798
▁نژادپرستانه	-10.88
▁هیچکس	-10.8802
▁گواهی	-10.8803
▁گناه	-10.8803
▁گلایه	-10.8804
▁کانادایی	-10.8804
▁گوهر	-10.8804
▁خلوت	-10.8807
▁مخصوصا	-10.8808
▁تحری	-10.8809
▁ناتوان	-10.8812
▁شکوف	-10.8813
دهنده	-10.8814
▁قبرس	-10.8815
▁ته	-10.8815
▁مردگان	-10.8816
▁تحرک	-10.8819
▁غفوری	-10.882
▁معوقه	-10.8824
▁گودال	-10.8831
▁رونالدینیو	-10.8835
▁دندان	-10.8839
▁۱۴۰	-10.884
▁شستا	-10.8841
▁مغول	-10.8842
▁ساسانی	-10.8843
یلیون	-10.8844
ناظر	-10.8852
▁نویسندگ	-10.8857
▁حبیب	-10.8859
▁گرسنگ	-10.886
▁باختند	-10.8865
تحول	-10.8865
▁مثل	-10.8866
لژی	-10.8868
▁انداختن	-10.8869
خواهید	-10.8871
▁پیتر	-10.8884
▁پردرآمد	-10.8886
رگ	-10.8889
▁رساندند	-10.8893
▁نمانده	-10.8896
ربی	-10.8896
▁فضانوردان	-10.8898
▁معاش	-10.8912
▁ماس	-10.8913
▁خواندند	-10.8916
گیر	-10.892
میم	-10.8931
▁میهمان	-10.8942
عارف	-10.8944
▁خیال	-10.8947
▁تاکتیکی	-10.8949
▁کنیا	-10.8951
ایب	-10.8954
▁زم	-10.8962
▁وار	-10.8968
▁خطرات	-10.8978
▁گروگانگیر	-10.8992
▁معاین	-10.8995
▁تیموری	-10.9009
رخ	-10.9009
کاهش	-10.9011
▁بگیر	-10.9011
سخ	-10.9018
▁سطو	-10.9021
▁مگا	-10.9029
غیب	-10.9032
▁رانت	-10.9044
لینی	-10.9052
اظ	-10.9057
▁کنی	-10.907
▁۶۵۰	-10.9071
▁۸۳	-10.9091
▁پیرو	-10.91
▁تاریکی	-10.9101
ناشناس	-10.9101
▁روبرت	-10.9102
کرونا	-10.9103
▁سالان	-10.9106
▁رنگین	-10.9106
▁بازوی	-10.9107
▁نوزدهم	-10.912
▁کینگ	-10.9122
▁حراست	-10.9123
زین	-10.9134
احی	-10.914
▁یگان	-10.9155
▁قبر	-10.9164
واکنش	-10.9175
سوم	-10.9176
▁سفی	-10.9179
آمریکایی	-10.919
دالله	-10.9195
خواهند	-10.921
▁پراکن	-10.9233
شکل	-10.924
▁رومانی	-10.9243
لات	-10.9262
همه	-10.9268
▁خر	-10.9268
▁آندری	-10.9272
کانادا	-10.9275
▁کودتا	-10.9285
ستانگ	-10.9288
هرانا	-10.9295
طرف	-10.9297
▁کروناست	-10.9302
جیب	-10.9306
▁نیافت	-10.9318
جمه	-10.933
▁قربان	-10.934
مانع	-10.9342
زنی	-10.9352
▁ساترا	-10.936
▁کارتو	-10.9362
▁خالق	-10.9422
▁چشمان	-10.9432
راجر	-10.9444
شش	-10.9453
پر	-10.9463
▁طب	-10.9468
حق	-10.9484
▁استرس	-10.95
▁پژو	-10.9508
▁گرمی	-10.9515
▁دادم	-10.9526
وح	-10.9527
ویر	-10.9532
▁آنتی	-10.9541
▁۵۱	-10.9541
▁علاقمند	-10.9554
▁پستی	-10.9557
▁مشوق	-10.9557
لین	-10.9559
▁متحدان	-10.9568
برید	-10.9577
▁پذیری	-10.9582
موث	-10.9594
▁آلومینیوم	-10.9598
▁اتیوپی	-10.9598
▁اوربیتر	-10.9598
▁شیکاگو	-10.9598
▁جامائیکا	-10.9598
▁رمضان	-10.9598
▁ملاحظ	-10.9598
▁مصیبت	-10.9598
▁دانچیچ	-10.9598
▁رئوف	-10.9598
▁امتداد	-10.9598
▁لاجورد	-10.9598
▁خاشقچی	-10.9598
▁کدخدای	-10.9598
زادگان	-10.9598
▁ربیعی	-10.9598
▁فحش	-10.9599
▁جهرمی	-10.9599
▁گریبان	-10.9599
▁ووهان	-10.9599
▁گیگز	-10.9599
▁فروزش	-10.9599
▁وودز	-10.9599
▁الماس	-10.96
▁اشکال	-10.96
▁بشردوستانه	-10.9602
▁الاجل	-10.9603
▁وفادار	-10.9603
▁اذیت	-10.9604
▁عقاب	-10.9605
▁کلمات	-10.9608
▁آث	-10.9608
بپرس	-10.9612
▁شجاع	-10.9615
▁تلفات	-10.9619
▁اتصال	-10.9619
▁۲۰۰۶	-10.9619
▁ژیمناست	-10.962
▁هوندا	-10.962
رطوب	-10.9621
▁جناح	-10.9621
▁۱۹۹۸	-10.9622
▁پرستاران	-10.9624
خواست	-10.9624
▁فروغ	-10.9625
▁نزدیکان	-10.9626
انا	-10.9627
پول	-10.9627
▁آموز	-10.9627
▁دبیرستان	-10.9629
▁ترابی	-10.9632
▁قفس	-10.9632
سن	-10.9633
رخی	-10.9638
▁ایندی	-10.964
▁پناهجوی	-10.964
▁گرامی	-10.9642
▁استفانو	-10.9644
▁ریل	-10.9649
▁فیلیپین	-10.9651
▁صریح	-10.9654
▁خبرها	-10.9659
▁مستندساز	-10.9659
▁اسپورت	-10.966
وخامت	-10.9661
سئول	-10.9662
▁ندانست	-10.9669
▁انداختند	-10.9671
▁خیام	-10.9672
▁دورانگو	-10.9672
▁ماهشهر	-10.9676
▁سرش	-10.9687
▁اقبال	-10.9696
▁نهفته	-10.9698
▁مضر	-10.97
▁آذری	-10.9707
▁حی	-10.9709
شدیدترین	-10.9718
▁شمارش	-10.9718
▁سکسک	-10.9724
▁حضرت	-10.9724
▁مب	-10.973
▁اینستاگرامش	-10.9733
▁زنگ	-10.9734
▁نیما	-10.9735
▁خلیل	-10.9736
▁سالیانه	-10.9736
▁نگر	-10.9737
▁ویدیوهای	-10.9741
▁گرانتر	-10.9742
▁متخلفان	-10.9744
▁نداشتم	-10.9746
ازما	-10.9746
▁نگارش	-10.9746
▁ادوارد	-10.9749
▁جفت	-10.9754
▁بدنش	-10.9757
▁رژه	-10.9758
جانب	-10.9759
▁آوی	-10.9762
▁متیو	-10.9767
▁جعفری	-10.9767
▁مض	-10.9775
اران	-10.9784
بته	-10.9793
▁سیار	-10.9797
▁رنگی	-10.98
سابقه	-10.9807
▁دینی	-10.9809
▁بزن	-10.9817
▁تحریمها	-10.9818
▁۱۸۰	-10.982
▁نشدند	-10.9821
▁سرگرمی	-10.9823
▁سبد	-10.9825
روح	-10.9829
▁نوشتند	-10.983
▁باقر	-10.984
مای	-10.9848
▁شمایل	-10.9849
ارغ	-10.9849
فا	-10.9856
▁دیدم	-10.9858
▁بانو	-10.9867
▁خالقی	-10.987
▁اله	-10.9883
▁گردون	-10.9884
▁سردار	-10.9898
▁اصولگرای	-10.9901
▁شیفت	-10.9916
▁هامر	-10.9919
▁رجب	-10.992
▁جولیان	-10.9925
▁ابلاغی	-10.9929
▁ساری	-10.9931
▁پذیرای	-10.9935
اله	-10.9938
رانه	-10.9939
▁تدری	-10.9948
▁انوش	-10.9961
بهم	-10.9964
▁ماری	-10.9967
یید	-10.9971
▁نیکل	-10.9971
رج	-10.9979
دترین	-10.9979
وندی	-11
زاد	-11.0001
▁هرکس	-11.0002
▁قرمزها	-11.0004
▁۱۹۳	-11.0007
▁۵۸	-11.0009
خودرو	-11.0022
▁افکاری	-11.0035
فته	-11.0042
▁۱۶۰	-11.0043
▁سلام	-11.0055
▁تابستانی	-11.006
▁پائی	-11.0064
تلاش	-11.0068
▁ژن	-11.0079
▁پرند	-11.0082
ونیست	-11.0082
انتشار	-11.0085
شت	-11.0088
۹۹	-11.009
قو	-11.0094
▁کالای	-11.0095
▁درآمدزا	-11.0098
▁فرهنگیان	-11.0099
▁منصور	-11.011
بورس	-11.0111
▁۸۶	-11.0112
▁بور	-11.0115
▁افتتاحی	-11.0117
▁موهای	-11.0123
▁رایان	-11.0124
▁تراز	-11.0126
بالغ	-11.0128
▁ولد	-11.0134
▁کمپ	-11.0135
▁لاش	-11.014
هنورد	-11.0145
روابط	-11.0146
▁مهندسی	-11.0147
▁رائو	-11.0151
تاتنهام	-11.0155
▁ژ	-11.016
چلسی	-11.016
▁عزادار	-11.0163
▁فور	-11.0169
▁درو	-11.0175
▁حفر	-11.0178
▁فخر	-11.0182
▁تفسیر	-11.0188
همیلتون	-11.0189
۱۷	-11.0189
ریچارد	-11.0192
▁۸۸	-11.0193
▁شانزده	-11.0193
الیاس	-11.0204
▁سپید	-11.0205
وانند	-11.0216
مارک	-11.0217
▁ریوی	-11.0218
▁دانشجو	-11.0218
۱۰	-11.0222
▁آما	-11.0226
▁طیب	-11.0229
▁فریب	-11.0229
▁فهمید	-11.0232
صول	-11.0235
اوی	-11.0235
▁منصو	-11.0237
▁معیشت	-11.0245
لینگ	-11.0247
نر	-11.0249
مجانی	-11.0251
▁دود	-11.0256
▁اندام	-11.0258
مایک	-11.0258
اصو	-11.0259
▁جواهر	-11.0265
▁تونس	-11.0268
▁شعبان	-11.0277
▁رخداد	-11.0289
▁مسیح	-11.0293
▁فرق	-11.0303
▁محدودیتها	-11.031
▁باردار	-11.0326
▁ترکی	-11.0332
▁لق	-11.0345
▁درآمده	-11.0345
ساسی	-11.0353
▁واحدها	-11.0365
▁متخلف	-11.0374
▁نظرهای	-11.0378
تصاویر	-11.0382
▁هلندی	-11.039
▁پوشان	-11.0392
▁بلو	-11.0394
▁فول	-11.0398
▁۱۹۶	-11.0407
دگان	-11.0416
▁مصرفی	-11.0419
▁بینید	-11.0426
گیل	-11.0427
دوستانه	-11.0432
▁جد	-11.0434
▁محصولاتش	-11.0441
▁دایر	-11.0443
▁گرما	-11.0443
▁دول	-11.0449
▁فرانسیس	-11.0463
▁جنر	-11.0466
کارآمد	-11.0467
▁جنگی	-11.0488
▁مقد	-11.0488
نقل	-11.0498
کید	-11.0498
داران	-11.05
▁المستقبل	-11.0507
▁جاپلقی	-11.0507
▁زاناردی	-11.0507
▁ضوابط	-11.0507
▁پولیتزر	-11.0507
▁ژئوپلیتیک	-11.0507
▁الگوریتم	-11.0507
▁خنثی	-11.0507
▁کرگدن	-11.0507
▁اختراع	-11.0507
▁البرز	-11.0507
▁تهاجم	-11.0507
▁آرتتا	-11.0507
▁مضاعف	-11.0507
▁بسازد	-11.0507
▁اسراییل	-11.0507
▁سنگاپور	-11.0507
▁۱۹۷۳	-11.0508
▁پاراگوئه	-11.0509
▁کرمانشاه	-11.0509
▁کفتر	-11.0512
▁محفظه	-11.0513
▁فلج	-11.0514
عارض	-11.0514
▁دوستداران	-11.0514
▁تصاحب	-11.0515
▁تکامل	-11.0516
▁دوازدهم	-11.0517
▁تنگنا	-11.0517
▁۱۳۵۰	-11.0517
▁بخرد	-11.0518
▁عصبانی	-11.0518
▁نوازندگان	-11.0519
▁قبیل	-11.0519
▁۱۹۲۰	-11.052
▁نعمت	-11.052
▁سازندگی	-11.0523
▁مبالغ	-11.0525
▁لامرد	-11.0525
▁اقامتگاه	-11.0527
▁جنای	-11.0527
▁تویوتا	-11.053
▁نابسامان	-11.053
▁سردرگم	-11.053
▁ایسلند	-11.053
▁بتهوون	-11.053
▁صراحت	-11.0535
دغدغه	-11.0538
▁سوگ	-11.0539
▁برسند	-11.0539
▁سولو	-11.054
▁سازندگان	-11.054
▁مسیری	-11.0541
▁قائل	-11.0541
▁بنجام	-11.0543
وازم	-11.0543
▁اشنویه	-11.0543
▁مطلبی	-11.0544
▁دیدیم	-11.0545
بیه	-11.0545
یسون	-11.0547
▁مسترز	-11.0548
▁ول	-11.0549
▁تمرینات	-11.0549
▁متکی	-11.0553
اید	-11.0553
جر	-11.0554
▁ندادن	-11.0558
۲۸	-11.0558
▁بذر	-11.0558
▁آلزایمر	-11.056
▁جمشید	-11.056
▁اعتنا	-11.0562
▁کیا	-11.0563
▁شکوه	-11.0564
▁گیلان	-11.0565
▁فیزیکدان	-11.0565
▁گردش	-11.0567
▁عقل	-11.0567
واز	-11.0573
زاری	-11.0575
▁اخ	-11.0577
▁معیارهای	-11.0581
▁درختان	-11.0582
▁گیاهان	-11.0586
▁داریوش	-11.0592
▁پردازند	-11.0592
▁هیولای	-11.0595
▁بیم	-11.0595
▁راب	-11.0597
▁بالگرد	-11.0598
▁افسران	-11.0598
▁اپل	-11.0602
▁بازیار	-11.0603
شر	-11.0605
اعلام	-11.0606
▁جانش	-11.0611
▁ناوگان	-11.0613
زائ	-11.0614
▁ژنرا	-11.0623
خورده	-11.0626
▁محتوی	-11.0626
▁برنگشت	-11.0627
▁مصا	-11.0641
▁وکلا	-11.0641
▁اقتصاددان	-11.0648
جیره	-11.0651
▁بیورن	-11.0653
جهان	-11.0665
▁انگل	-11.0667
▁اپراتورها	-11.0667
ستا	-11.0668
ندان	-11.0677
▁فضلی	-11.068
▁بیدار	-11.0681
▁سنبل	-11.0687
▁مائوریتس	-11.0689
▁مونت	-11.0692
▁راهنمای	-11.0693
▁بوق	-11.0694
▁لیتر	-11.0699
▁حاد	-11.0713
▁علوی	-11.0717
▁کاف	-11.0723
▁خیز	-11.0726
▁ریخته	-11.0732
▁کوب	-11.074
رالله	-11.074
▁خوانند	-11.0741
▁نوا	-11.0741
▁خالد	-11.0749
زاب	-11.0749
▁۱۳۴	-11.0753
▁مظ	-11.0755
▁اچ	-11.0756
لفظ	-11.0759
خوان	-11.0766
پچو	-11.0771
▁باریک	-11.0773
▁کشم	-11.0776
▁وادار	-11.078
▁تابعیت	-11.0781
▁مبارک	-11.0786
▁ماخ	-11.0786
لال	-11.0787
▁صمیم	-11.0791
▁دوستانش	-11.0802
▁عج	-11.0815
▁روزبه	-11.0822
شو	-11.083
طرح	-11.083
▁لخت	-11.0838
گفتگو	-11.084
▁آموخت	-11.085
ویچ	-11.0855
▁همخوان	-11.0856
وظ	-11.0859
▁راکت	-11.086
▁دادیم	-11.0863
▁سوئ	-11.0868
▁رحمت	-11.087
تعداد	-11.087
آغاز	-11.0877
ارت	-11.0878
پایه	-11.0886
وفس	-11.0891
ائل	-11.0903
شما	-11.0913
▁کشمی	-11.0915
▁سیر	-11.092
▁گارد	-11.0921
▁زایی	-11.0923
زمان	-11.0924
درون	-11.0932
▁تهدیدهای	-11.0938
ریت	-11.094
سایت	-11.0943
▁ایکس	-11.0944
▁قاتل	-11.0949
▁کاران	-11.0958
▁استادان	-11.0961
▁بدوی	-11.0964
▁مشت	-11.0978
منی	-11.0985
▁فتحی	-11.0989
▁کلاه	-11.0991
▁مست	-11.0998
▁محرک	-11.1
اطلاعات	-11.1011
ائیل	-11.1012
تصمیم	-11.1017
▁جنگند	-11.1017
▁افق	-11.1034
▁اسل	-11.1035
▁صده	-11.1035
▁برهم	-11.1037
▁دویچ	-11.104
یاپی	-11.1046
▁بارور	-11.1053
بررسی	-11.1055
▁چار	-11.1063
آلمان	-11.1065
برد	-11.1076
▁ثا	-11.108
▁پویا	-11.1082
نخست	-11.1094
فع	-11.1107
▁امپرا	-11.111
قرب	-11.1114
▁گلی	-11.1121
صالح	-11.1122
▁وظایف	-11.1124
راب	-11.1125
▁تالا	-11.1126
کارگران	-11.1127
تحقیقات	-11.113
مارادونا	-11.113
▁منار	-11.1135
هی	-11.1135
لوب	-11.1137
▁گودا	-11.1144
شتم	-11.1156
▁گردشگر	-11.1162
گوف	-11.1163
▁لاس	-11.1168
▁نوین	-11.1169
کلوپ	-11.1173
اسپانیا	-11.1178
بفرستید	-11.1183
هشدار	-11.119
اتریش	-11.1194
▁بازرگان	-11.1197
▁بچ	-11.1197
▁میلاد	-11.1206
بحث	-11.1207
▁۸۷	-11.1216
▁عواقب	-11.122
▁هول	-11.1231
▁ران	-11.1235
▁پهلو	-11.1244
▁۸۱	-11.1245
▁سرگرم	-11.1249
▁قوت	-11.1257
▁ژی	-11.1261
اهید	-11.1281
▁کولبر	-11.1282
ابق	-11.1286
اکثریت	-11.1294
▁گور	-11.1298
نیا	-11.1309
▁اسحاق	-11.1314
▁ارج	-11.1317
تازه	-11.1321
شم	-11.1321
رکاب	-11.133
▁دستک	-11.1332
▁غرو	-11.1338
▁پسرم	-11.1339
▁قند	-11.1344
ایه	-11.1344
اوش	-11.1348
برگر	-11.1348
نتیج	-11.1355
زیه	-11.136
▁گریه	-11.1367
حقق	-11.1367
رتب	-11.1369
▁سانتریفیوژها	-11.137
بانی	-11.1374
ضرر	-11.1374
قدس	-11.1378
▁نیکلا	-11.1394
تصور	-11.1396
ژیم	-11.1398
▁مدرس	-11.1401
▁تیتر	-11.1401
▁پیشگام	-11.1403
▁سالی	-11.1409
سلیم	-11.1422
▁چاب	-11.1437
▁دانشجوی	-11.1452
▁پهپاد	-11.1453
خان	-11.1454
▁فدرا	-11.1459
متر	-11.1461
▁سیاستمدار	-11.1464
صدایی	-11.1467
دخت	-11.1478
▁ابداع	-11.1481
بادی	-11.1487
▁دادخواه	-11.1495
▁پالایش	-11.1503
▁انیمیشن	-11.1507
▁پدافند	-11.1507
▁پومپئو	-11.1507
▁راهپیمایی	-11.1507
▁پیرامون	-11.1507
▁بلانشت	-11.1507
▁ابرنواختر	-11.1507
▁کادرفنی	-11.1507
▁فکاهی	-11.1507
▁جونیور	-11.1507
▁قضاوت	-11.1507
▁پلامر	-11.1507
ژورنال	-11.1508
▁مسموم	-11.1508
▁آژیر	-11.1508
▁عنصر	-11.1508
▁ببینیم	-11.1508
▁حرارت	-11.1508
▁وگاس	-11.1508
▁آشپز	-11.1508
▁انصاری	-11.1508
▁برگردیم	-11.1509
▁پیکولی	-11.151
▁خدایاری	-11.151
▁تعاون	-11.151
▁کلارک	-11.151
▁بدهکار	-11.1511
▁بیافتد	-11.1511
▁بنشیند	-11.1511
▁پاکبان	-11.1512
▁نارضای	-11.1512
▁بسیج	-11.1512
▁مستعار	-11.1514
▁۶۳	-11.1516
▁بهبهان	-11.1516
▁استقراض	-11.1518
هرابی	-11.1518
▁پری	-11.152
▁گردنبند	-11.152
▁ابولا	-11.1521
▁همر	-11.1521
▁۴۷	-11.1522
▁مانور	-11.1523
▁شناگر	-11.1523
▁اجساد	-11.1524
▁احکام	-11.1524
▁بدانند	-11.1524
▁عسل	-11.1525
جویی	-11.1525
▁علایم	-11.1526
▁نجوا	-11.1526
▁خوانی	-11.1527
▁تلویح	-11.1529
▁شوت	-11.153
▁منظم	-11.1531
▁خوشبخت	-11.1532
▁حوض	-11.1533
▁رخشانه	-11.1533
▁ندهند	-11.1534
▁تنیده	-11.1534
▁کیلوولت	-11.1535
▁روحی	-11.1536
▁نشوند	-11.1536
▁منفرد	-11.1536
▁موعد	-11.1537
▁سرشار	-11.154
سیتی	-11.1541
▁اثبات	-11.1542
▁جنی	-11.1544
▁رز	-11.1544
نفر	-11.1544
▁خوابی	-11.1545
▁کادیس	-11.1546
▁شکننده	-11.1549
نها	-11.1554
▁خرس	-11.1558
▁استقامت	-11.1561
▁صید	-11.1561
▁آغوش	-11.1563
▁سادگی	-11.1564
▁تعویض	-11.1565
▁خرمشهر	-11.1565
▁اسمیت	-11.1566
▁کوپتر	-11.1568
▁تصدی	-11.1568
بریتی	-11.1569
صداق	-11.1572
▁خوشحالم	-11.1572
▁کنزو	-11.1576
جام	-11.1576
▁نیمروز	-11.1577
▁لبنانی	-11.1589
لتی	-11.159
▁جزایر	-11.1592
▁مسترد	-11.1597
تور	-11.1598
▁آلود	-11.1599
▁کلیپ	-11.1601
▁ادل	-11.1605
▁بهزاد	-11.1607
▁لندرو	-11.1607
▁پیشگامان	-11.1623
▁آنا	-11.1629
▁تخل	-11.163
▁گدار	-11.1638
▁مای	-11.1638
▁یاب	-11.1639
▁انگیزترین	-11.1643
▁مهمانان	-11.1646
▁ذات	-11.1651
▁شکستن	-11.1651
نشان	-11.1651
▁برگردانده	-11.1657
▁پناهند	-11.1673
▁وحشت	-11.1673
▁اضافی	-11.1674
▁پروازهایش	-11.1677
▁فشرد	-11.1678
تصویر	-11.1679
۴۲	-11.1688
▁جولی	-11.1696
▁شایست	-11.17
▁طل	-11.1707
۲۴	-11.1707
▁بوئنو	-11.1713
▁رایزن	-11.1715
▁اعم	-11.1716
▁امتیازات	-11.1718
نویس	-11.1732
▁پردازی	-11.1732
خیم	-11.1737
▁صدایش	-11.1738
▁۱۹۵	-11.175
لمپ	-11.175
▁فهم	-11.1753
▁مق	-11.1756
بخشی	-11.1762
فلاتو	-11.1762
▁آرزوهای	-11.1766
▁متحدانش	-11.1768
▁۹۳	-11.1773
لقی	-11.1773
▁الع	-11.1776
رینگ	-11.1777
کند	-11.1804
▁گوف	-11.1812
▁صاف	-11.1816
قبل	-11.1835
نجیره	-11.1835
۴۹	-11.1837
▁بالی	-11.1837
▁فابی	-11.1838
تهران	-11.1842
خانقا	-11.1844
داشته	-11.1853
▁مولان	-11.1857
▁گویم	-11.1857
▁کریر	-11.1858
لاله	-11.1858
▁سرما	-11.1858
▁کلاین	-11.1861
هکرها	-11.1865
▁۱۳۹۰	-11.1867
▁رشید	-11.188
▁دهلی	-11.1881
▁مانند	-11.1891
تانیک	-11.1897
▁تندی	-11.1899
پذیر	-11.1901
▁پیامک	-11.1902
▁داو	-11.1905
▁طرفی	-11.1906
▁ماست	-11.1909
▁عمو	-11.1911
▁پیری	-11.1913
نیچ	-11.1942
▁صدم	-11.1947
▁آو	-11.195
▁امریکا	-11.1956
همین	-11.1958
▁رامی	-11.1964
▁قطعا	-11.1966
واقع	-11.1967
▁زلا	-11.1978
▁توانی	-11.1979
▁تص	-11.1981
▁حدادی	-11.1983
باع	-11.1985
▁گاو	-11.1991
▁اسپ	-11.1994
▁یار	-11.1996
▁ریو	-11.2001
▁نگرفت	-11.2002
ورا	-11.2004
▁شرم	-11.2007
یخته	-11.2008
نان	-11.2009
جل	-11.2014
▁اغل	-11.2014
جاد	-11.2021
▁دزد	-11.2023
▁نهادی	-11.2024
▁انتها	-11.203
الکس	-11.2031
▁۴۵۰	-11.2034
سنگ	-11.2037
مسابقات	-11.204
▁باتر	-11.2042
▁آلبر	-11.2044
▁برف	-11.2046
▁آبهای	-11.2053
▁معا	-11.2057
زو	-11.206
▁دراین	-11.2064
▁قا	-11.2071
▁توس	-11.2072
▁۱۹۷	-11.2081
موج	-11.2092
▁نیاورد	-11.2099
انت	-11.2103
▁دستی	-11.2109
▁پرید	-11.2123
ناب	-11.2126
کلاهبرداری	-11.213
نج	-11.2143
▁برفی	-11.2148
▁مینیاتور	-11.2153
۲۹	-11.216
مذاکرات	-11.2162
برگزار	-11.2162
▁سکت	-11.218
دلال	-11.219
▁جرد	-11.2192
▁مهد	-11.2195
اعضای	-11.2199
▁۱۳۰	-11.2209
ارث	-11.2214
▁بجا	-11.2227
▁فردین	-11.2228
(	-11.2236
جمعیت	-11.2236
استرالیا	-11.2249
▁آرزو	-11.2256
▁اینجا	-11.2262
▁پنجش	-11.2263
▁سنگر	-11.2264
دفتر	-11.2264
قصد	-11.2264
▁اجتماع	-11.2265
الاب	-11.2266
خیر	-11.227
▁رفتم	-11.2271
مطابق	-11.2283
اسماعیل	-11.2284
۶۳	-11.2286
منظور	-11.2287
مجتب	-11.2288
▁طاق	-11.2292
منازع	-11.2293
اداره	-11.2302
مکش	-11.2306
الت	-11.2307
ویکتور	-11.2309
خط	-11.2314
تحلیلگر	-11.232
▁رسن	-11.2322
تابعیت	-11.2324
▁هشدارهای	-11.2335
▁پیر	-11.2346
کنون	-11.2354
▁قطرک	-11.2354
▁تاکتیک	-11.2354
نیروی	-11.2354
کاوه	-11.2359
صره	-11.2362
ورت	-11.2367
▁وگوها	-11.2367
ملک	-11.2367
▁پریش	-11.2379
▁گردید	-11.2383
اط	-11.239
▁دبی	-11.2395
سوزی	-11.2399
▁۱۱۰	-11.2403
شیپ	-11.2404
گرا	-11.2406
▁نمازی	-11.2408
▁سهیم	-11.2408
▁موس	-11.2433
▁سازان	-11.2445
▁برپا	-11.2447
وفون	-11.2448
▁معل	-11.2449
▁گا	-11.2462
نشین	-11.2463
▁فار	-11.2471
جک	-11.2479
▁مجرم	-11.2487
▁۳۲۰	-11.2488
بیل	-11.2501
ویل	-11.2501
انش	-11.2521
▁راد	-11.2522
▁خواستم	-11.2527
▁سفرها	-11.2548
▁وای	-11.2549
عفون	-11.2562
دند	-11.2573
▁دعا	-11.2574
▁خریدن	-11.2577
رمان	-11.2577
دیمیر	-11.2592
مایه	-11.2597
یج	-11.2601
▁خانمان	-11.2611
▁تسهیل	-11.2611
▁آکسفام	-11.2618
▁تلسکوپ	-11.2618
▁رفسنجان	-11.2618
▁لومامبا	-11.2618
▁پوچتینو	-11.2618
▁بوچانی	-11.2618
▁تزئین	-11.2618
▁طغیان	-11.2618
▁مستثن	-11.2618
▁بلغارستان	-11.2618
▁تدفین	-11.2618
▁هامبورگ	-11.2618
▁یادماندنی	-11.2618
▁دفاتر	-11.2618
▁تأسیس	-11.2618
▁دردناک	-11.2618
▁زاکانی	-11.2618
▁کانتینر	-11.2618
▁اسپایدر	-11.2618
▁متمایز	-11.2618
▁قاعدتا	-11.2619
▁هلمند	-11.2619
▁مقصود	-11.2619
▁کومله	-11.2619
▁ذیبخش	-11.2619
▁سرماخورد	-11.2619
▁نیچر	-11.2619
▁مرضیه	-11.2619
▁پرایس	-11.262
▁اعصاب	-11.2621
▁آنکارا	-11.2621
▁مطیع	-11.2621
▁نابرابر	-11.2621
▁فرنود	-11.2621
▁جرارد	-11.2621
تاج	-11.2622
▁تبلت	-11.2622
فه	-11.2626
▁مخرب	-11.2626
▁جاستین	-11.2627
▁برگردند	-11.2629
قندهار	-11.2629
▁تربیت	-11.263
▁طناب	-11.2631
▁بغلان	-11.2633
▁توازن	-11.2633
▁ریاضیات	-11.2633
▁انتصاب	-11.2633
▁شکارچی	-11.2633
▁سازوکارهای	-11.2634
▁لشگر	-11.2635
▁اتومات	-11.2637
▁مخاطب	-11.2637
جوبی	-11.2641
▁کلانتری	-11.2641
ظه	-11.2641
▁پیانو	-11.2643
▁ریسک	-11.2644
▁ارکستر	-11.2645
▁سیگنال	-11.2646
▁سیدنی	-11.2648
▁نامجو	-11.2649
▁دژ	-11.2649
▁مطالبات	-11.265
▁معلولان	-11.265
▁بازتاب	-11.265
▁آرایشگاه	-11.2652
▁تقلب	-11.2652
▁ناچیز	-11.2653
▁دوتار	-11.2655
جوزپ	-11.2663
▁اندرکاران	-11.2665
▁موکل	-11.2666
▁پرتو	-11.2666
▁کوبید	-11.2667
▁تفکر	-11.2667
▁بقا	-11.2667
▁اخترشناس	-11.2668
▁خویش	-11.2668
▁نامعلوم	-11.2668
▁معلومات	-11.2668
روسیا	-11.2671
▁منکر	-11.2672
▁ریختن	-11.2673
پای	-11.2673
▁پارکور	-11.2674
▁ابزارهای	-11.2676
▁گوییم	-11.2681
رن	-11.2682
▁مسبب	-11.2684
ولا	-11.2684
▁چارل	-11.2688
سالار	-11.269
▁هانز	-11.269
▁پهن	-11.2693
▁شفا	-11.27
▁پستاندار	-11.2705
▁کشتند	-11.2707
▁کثیر	-11.2707
▁محاف	-11.271
▁لوی	-11.271
▁یابند	-11.2717
فره	-11.2719
▁انکار	-11.2719
▁معتمدی	-11.2722
▁جس	-11.2722
▁چرخش	-11.2724
▁گفتن	-11.2726
فروش	-11.2729
نوعی	-11.2729
▁کلم	-11.2732
▁تحق	-11.2736
▁دیوانه	-11.2737
▁ترا	-11.274
▁هولم	-11.2745
▁راستش	-11.2746
▁نشدنی	-11.2749
تورهای	-11.2751
▁شعارهای	-11.2751
▁گزینش	-11.2752
▁جع	-11.2752
▁شکن	-11.2754
▁سولار	-11.2764
▁گهر	-11.2765
▁دوندگان	-11.2767
▁کیمن	-11.2767
▁درز	-11.2769
▁موسیقیدان	-11.277
▁گرای	-11.2781
▁سکوها	-11.2782
▁اعظم	-11.2792
▁پادمان	-11.2792
بود	-11.2793
▁فاضل	-11.2794
صوف	-11.2802
ورهای	-11.2808
▁بیانسه	-11.281
▁کتک	-11.281
▁دلتا	-11.2813
▁عزیزان	-11.2814
▁پینگ	-11.2815
▁سرمای	-11.2815
▁خطی	-11.2818
▁پنا	-11.2821
▁اشتباهات	-11.2821
▁عظیمی	-11.2823
▁گرفتیم	-11.2829
▁درشت	-11.2834
▁افش	-11.2838
▁بفهم	-11.2849
▁لطفی	-11.2863
ائم	-11.2869
▁فنل	-11.2871
▁اسعد	-11.2874
▁مباد	-11.2878
فرانس	-11.2884
رف	-11.2885
▁جاد	-11.2888
▁وث	-11.2899
▁کاندیدا	-11.2903
جله	-11.2905
▁پیداست	-11.291
سیلوا	-11.291
▁شل	-11.2911
▁انتخابی	-11.2914
گشاد	-11.2914
سفر	-11.2916
▁هوادارانش	-11.2923
▁سهامدار	-11.293
▁ناقل	-11.2931
أی	-11.2937
بجای	-11.2937
▁مصم	-11.2946
راق	-11.2952
▁نیکولا	-11.2954
▁منجم	-11.2957
▁بکند	-11.2957
▁گرب	-11.2959
▁آری	-11.2962
▁لیو	-11.2969
تناسب	-11.2974
▁اینج	-11.2978
▁دانشگر	-11.2982
ادا	-11.2982
نگیز	-11.2988
▁اصلاحی	-11.2994
سری	-11.2996
▁منک	-11.2998
▁ساختند	-11.3001
▁میلی	-11.3006
پرها	-11.3027
▁معما	-11.3031
▁عکاسان	-11.3038
▁سوزاند	-11.3041
ائ	-11.3041
ابلو	-11.3051
▁وگوهای	-11.3052
▁معمای	-11.3054
فتن	-11.3055
▁بله	-11.3057
۲۲	-11.3066
جیغ	-11.3071
دلیل	-11.3073
▁بخواهد	-11.3073
▁نف	-11.3079
دال	-11.3094
▁چر	-11.31
▁صبا	-11.3107
دترا	-11.311
▁بازگو	-11.3112
▁سیلی	-11.3112
▁بصر	-11.3116
▁کشتن	-11.3117
▁برا	-11.3119
▁مول	-11.3121
ستر	-11.3129
▁پاد	-11.3147
▁۷۹	-11.3149
▁دوید	-11.3151
▁مجتب	-11.3153
▁ساید	-11.3153
باط	-11.3166
ریس	-11.3167
▁کلاهبردار	-11.317
▁کاوا	-11.3174
▁بازجوی	-11.3187
▁جون	-11.3197
اکی	-11.3201
نوردی	-11.3206
واره	-11.3209
انتخابات	-11.3212
▁فرزندانش	-11.3216
▁محسوس	-11.3227
طبی	-11.323
نیف	-11.3237
▁هما	-11.3244
▁محف	-11.325
رافائل	-11.3251
۶۲	-11.3254
خون	-11.3258
اکبر	-11.3268
▁۸۴	-11.3279
مورد	-11.3282
اراک	-11.3282
▁ملته	-11.3287
▁مزای	-11.329
▁سنج	-11.3294
▁اکا	-11.3294
عان	-11.3301
▁محا	-11.3305
▁ایال	-11.3311
نیوز	-11.3318
▁تح	-11.3321
کاظم	-11.3324
مجموع	-11.3338
گا	-11.3341
صیل	-11.3344
▁عزا	-11.3344
هادی	-11.3348
لای	-11.3366
ذل	-11.3368
علت	-11.3368
▁پوشیدن	-11.3377
گذار	-11.3381
نگاران	-11.3382
▁جوی	-11.3392
کمتر	-11.3394
▁ریاضی	-11.3404
▁انقلابی	-11.3405
زیر	-11.341
▁نای	-11.3415
ترکیه	-11.3415
▁خلا	-11.3417
▁حریم	-11.3422
▁رسی	-11.3454
دوران	-11.3458
تم	-11.3473
لانتی	-11.3477
حادثه	-11.3483
▁ناصری	-11.3484
▁ممیز	-11.3493
▁مص	-11.3494
نقاشی	-11.3503
نشست	-11.3504
▁سومو	-11.3507
▁مارکو	-11.3508
▁۲۰۲	-11.3515
زره	-11.3517
دلایل	-11.3518
▁بروم	-11.3523
انجمن	-11.3523
کنیم	-11.3527
▁خاور	-11.353
پیروز	-11.3537
جراح	-11.3545
▁فضاپیما	-11.3546
فضل	-11.3548
▁۳۸۰	-11.355
نقش	-11.3555
دانی	-11.356
▁هراس	-11.3565
دوستان	-11.3567
▁مخ	-11.3569
▁شیع	-11.357
▁فوتبالی	-11.3581
▁یادگار	-11.3582
▁آنهاست	-11.3584
▁آرم	-11.3593
▁کلیسا	-11.3596
یضا	-11.3599
اه	-11.3601
▁ایرلندی	-11.3607
▁ابو	-11.3608
▁فرستد	-11.3609
حرفه	-11.3612
عادت	-11.3628
بان	-11.3633
▁بیگ	-11.3645
رشاد	-11.3649
زیان	-11.3651
▁لطف	-11.3659
▁اعدا	-11.3661
▁حف	-11.3675
سوس	-11.368
▁ولا	-11.3682
آیا	-11.3687
سنگر	-11.3688
▁فرح	-11.3703
▁زانوی	-11.3708
نون	-11.3726
خواه	-11.3738
اژ	-11.3738
نمایند	-11.3753
لث	-11.3764
نتی	-11.3764
▁کوهنورد	-11.3765
▁حفا	-11.3769
محسن	-11.3778
افت	-11.3781
▁خار	-11.3787
جاع	-11.3787
▁نماند	-11.3788
ومبل	-11.3789
وویچ	-11.379
▁سازه	-11.3804
▁شاگرد	-11.3805
خوانی	-11.3809
نجی	-11.3812
اور	-11.3813
▁شرک	-11.3817
▁اندرکار	-11.3818
▁امپر	-11.3819
▁قی	-11.382
▁مسافری	-11.3825
یشگی	-11.3826
▁مینا	-11.3828
▁معلول	-11.383
▁متغیر	-11.3843
▁بوفالو	-11.3846
▁درها	-11.3846
▁قدیم	-11.385
▁تشی	-11.3856
نزا	-11.3859
حصار	-11.386
▁پژ	-11.3862
▁خوشی	-11.3866
▁جزئی	-11.3866
▁کانگورو	-11.3868
▁اوگوپوگو	-11.3868
▁فیلسوف	-11.3868
▁رولزرویس	-11.3868
▁سرلشکر	-11.3868
▁ذوالنور	-11.3868
▁مناقش	-11.3868
▁ویتنام	-11.3868
▁ارواح	-11.3868
▁مونتاژ	-11.3868
▁مقتدر	-11.3868
▁اقتباس	-11.3868
▁ژنشنگ	-11.3868
▁گدوت	-11.3868
▁النصر	-11.3868
▁تجدد	-11.3868
▁اصغر	-11.3868
▁سیستماتیک	-11.3868
▁ماراکانا	-11.3869
▁خاشق	-11.3869
▁ترشح	-11.3869
▁هیدرو	-11.3869
▁برسانند	-11.387
▁جوامع	-11.387
▁رغبت	-11.387
▁۱۹۷۹	-11.387
▁ناپولی	-11.387
▁فرسایش	-11.387
▁بدانید	-11.387
▁واجد	-11.387
▁طلسم	-11.3871
▁بیاورند	-11.3871
▁کفایت	-11.3871
▁آبتین	-11.3872
▁مکالم	-11.3873
تصاعد	-11.3873
▁واگیر	-11.3874
▁باثبات	-11.3874
▁معلولیت	-11.3874
▁فرنگی	-11.3875
▁نباشند	-11.3875
▁کاشف	-11.3875
▁پرجمعیت	-11.3876
نوان	-11.3877
▁۷۵۲	-11.3877
▁پابند	-11.3878
▁خردسال	-11.3879
▁درآید	-11.3879
▁مختاری	-11.388
میشل	-11.388
▁پاسگاه	-11.3881
▁قرائت	-11.3882
▁مردادماه	-11.3883
فیلد	-11.3884
▁مولف	-11.3886
▁فیصل	-11.3887
▁عروق	-11.3887
▁جملات	-11.3887
▁لوک	-11.3888
▁دیرتر	-11.3888
▁فلزات	-11.3888
سله	-11.3889
▁بخواهید	-11.3889
▁تصرف	-11.3895
▁تم	-11.3897
▁دادخواست	-11.3898
▁الاکلنگ	-11.3898
▁گسل	-11.3899
▁کاریر	-11.3899
▁اشعار	-11.39
▁بگویند	-11.3902
▁سفیددره	-11.3903
▁گرافیک	-11.3904
▁گز	-11.3905
▁ایستادند	-11.3905
▁فرسود	-11.3906
▁نورمحمد	-11.3909
▁مشروب	-11.391
۵۷	-11.3912
▁دیابت	-11.3915
▁افزاید	-11.3918
جد	-11.3919
▁نر	-11.3922
▁قدردان	-11.3924
داستان	-11.3926
▁هوشیاری	-11.393
▁ملکشا	-11.3931
عضو	-11.3932
▁سینماگر	-11.3935
▁گرگور	-11.3939
▁فرندز	-11.3941
▁گیلبرت	-11.3941
▁کارولین	-11.3942
▁پرشور	-11.3943
▁جورجی	-11.3944
▁اشخاص	-11.3944
موسیقی	-11.3947
گرایی	-11.3947
▁ونگر	-11.3949
روند	-11.3954
▁موریس	-11.3954
▁نوزادان	-11.3959
▁عضلا	-11.3964
▁سیاهپوست	-11.3967
▁شخصا	-11.397
▁نگذاشته	-11.397
▁دسمو	-11.3972
▁حکیم	-11.3972
▁تعلیم	-11.3974
▁کاتال	-11.3975
▁فهیم	-11.3977
▁دردسرهای	-11.3979
▁سفت	-11.398
▁انتقام	-11.3981
▁شانگ	-11.3986
▁مهمتر	-11.3987
▁عثمانی	-11.399
▁نامم	-11.3994
▁کریم	-11.3995
پائولو	-11.3998
▁کامران	-11.4004
تاکنون	-11.4009
▁توق	-11.401
▁القا	-11.401
پرس	-11.4011
▁نامشخص	-11.4013
انکو	-11.4015
▁سرگردان	-11.4015
▁۱۸۵	-11.4018
▁اختیارات	-11.4023
▁پسران	-11.4025
▁ورزند	-11.4027
۱۹۶۵	-11.4028
▁بلید	-11.4029
ینی	-11.4034
▁نایا	-11.405
▁بلک	-11.4052
زمینی	-11.4052
مانه	-11.4059
▁ولت	-11.406
▁ساوت	-11.4062
▁لط	-11.4074
گرنه	-11.4076
▁پاسدار	-11.4078
▁اشیا	-11.4079
▁اوار	-11.408
▁طاهر	-11.4081
حصول	-11.4087
▁تجمعات	-11.4088
۲۷	-11.4091
کیو	-11.4095
گروهی	-11.4101
رم	-11.411
▁لوو	-11.411
▁مهل	-11.4114
▁بشریت	-11.4115
▁دیوارهای	-11.4116
▁مرادی	-11.4117
لسون	-11.4121
▁معین	-11.413
ندرسون	-11.413
برآورد	-11.4131
ادل	-11.4134
کام	-11.4134
▁پروست	-11.4135
▁کیف	-11.4135
▁آپ	-11.4136
▁مسال	-11.4143
▁منظره	-11.4149
▁درخشید	-11.4154
▁احتیا	-11.4164
▁آس	-11.4164
▁بروید	-11.4168
▁تشک	-11.4169
▁کلیت	-11.4171
ژ	-11.4173
▁ماندند	-11.4177
▁صحرای	-11.4179
بند	-11.4186
▁نس	-11.4188
▁نیافته	-11.4191
نمود	-11.4194
▁فضاپیمای	-11.42
غا	-11.4201
اسکو	-11.4216
▁جراحت	-11.4219
نسوخ	-11.4222
▁نهایتا	-11.4229
▁قوم	-11.424
رسیدن	-11.4243
▁نیستیم	-11.4245
▁کریس	-11.4249
▁پذیرفت	-11.4251
▁دیدند	-11.4251
وستا	-11.4256
لستون	-11.4259
▁مبا	-11.4264
▁آلایند	-11.4265
▁نیوز	-11.4265
▁سیمون	-11.4267
لیسب	-11.4268
علم	-11.4269
په	-11.4275
▁تئو	-11.4279
فو	-11.428
گز	-11.4282
▁منازع	-11.4282
▁کلیسای	-11.4285
▁عط	-11.4294
▁عفون	-11.4294
▁نش	-11.4309
▁داروین	-11.431
▁دوگان	-11.431
▁بازنده	-11.4313
▁پاسخگوی	-11.4315
دلان	-11.4322
ویک	-11.4325
داده	-11.4338
ابل	-11.4338
▁زید	-11.4347
ناس	-11.4351
شیر	-11.4354
آور	-11.4363
▁ساعته	-11.4363
▁هرجا	-11.4376
▁بگذاری	-11.4381
▁ژاک	-11.4383
▁یزد	-11.4385
▁پارچ	-11.4389
یانت	-11.4391
▁۴۲۰	-11.4394
جیل	-11.4401
▁حکمی	-11.4404
▁برگرداندن	-11.4405
وزن	-11.4413
▁دوری	-11.4419
▁آمریکای	-11.442
سیما	-11.4423
افشاری	-11.4424
ویروس	-11.4425
مانیا	-11.4433
شک	-11.4435
وام	-11.4439
▁قف	-11.4445
▁افزودن	-11.4447
بریتانیا	-11.4448
▁نیل	-11.4449
کمی	-11.445
▁دنی	-11.4451
▁مری	-11.4451
▁کویت	-11.4455
ارل	-11.4461
▁بتوانی	-11.4461
یگر	-11.4466
▁محدودی	-11.447
▁لوف	-11.4474
▁برآورده	-11.4479
اچو	-11.448
رایت	-11.4481
وجه	-11.4502
▁اولی	-11.4504
پاش	-11.4507
▁پینک	-11.4521
ایتون	-11.4527
۳۹	-11.4535
اشی	-11.4539
▁ربای	-11.455
تخصصی	-11.455
▁اکرا	-11.4552
▁برگرداند	-11.4558
جای	-11.4559
تحریم	-11.4559
رحیم	-11.4568
▁کارفرما	-11.4571
▁لوپ	-11.4573
▁اروپاست	-11.4574
چل	-11.4574
▁۵۴	-11.4577
▁سفرش	-11.4579
▁محب	-11.4582
▁اینچ	-11.4585
▁نما	-11.4591
▁ویروسی	-11.4597
دنظر	-11.4598
▁بادی	-11.4601
▁میکروب	-11.4608
▁حام	-11.4609
▁نکو	-11.461
▁قل	-11.4612
زندگی	-11.4617
▁سریعتر	-11.4619
حضور	-11.4619
▁فشارهای	-11.4624
اوران	-11.4627
▁مسا	-11.4629
۱۱	-11.4638
▁بون	-11.464
تاب	-11.4643
کانا	-11.4644
▁معاهد	-11.4647
▁دوئ	-11.4656
▁بزرگان	-11.4662
حقوق	-11.4664
رفتن	-11.4684
عادی	-11.4687
▁انو	-11.4693
▁رول	-11.4697
پرداخت	-11.4703
▁عکسها	-11.4706
فلیک	-11.4713
حداکثر	-11.4715
▁دپ	-11.4721
▁موک	-11.4733
درگذشت	-11.4739
شوند	-11.4747
دانشگاه	-11.4751
▁پرز	-11.4752
▁خد	-11.4756
▁همگ	-11.4763
▁موسسا	-11.4763
▁جوا	-11.4766
▁تخ	-11.4768
▁سکان	-11.4775
▁رون	-11.478
آژانس	-11.4782
رومن	-11.4792
ظاهر	-11.4798
کشتی	-11.4805
▁رقبا	-11.4806
▁نزدیکتر	-11.4809
پادمان	-11.4811
▁شناختن	-11.4818
رکورد	-11.4822
انتخاب	-11.4824
▁مغزش	-11.4833
▁جودوکا	-11.4842
▁حسابدار	-11.4847
مور	-11.4855
ئید	-11.4856
▁پوستر	-11.4874
▁مساعد	-11.4874
▁ناراحتی	-11.4876
۱۴۰۰	-11.4876
أ	-11.4878
لئوپا	-11.4882
▁گدا	-11.4889
نتایج	-11.4891
بور	-11.4892
هواداران	-11.4896
▁مستع	-11.4898
ارزش	-11.4901
یزه	-11.4906
اوپک	-11.4912
رتر	-11.4917
جنجال	-11.4925
▁برن	-11.4929
گرفتن	-11.4934
سریع	-11.4936
۲۱	-11.4939
فل	-11.4942
فرگوس	-11.4945
▁موتورها	-11.4947
▁وات	-11.4952
▁ریلی	-11.4953
▁بانان	-11.4954
▁گیم	-11.4956
قاسم	-11.496
▁آلت	-11.4961
▁اپرا	-11.4964
▁۶۹	-11.4964
محمدرضا	-11.4964
کجاست	-11.4969
▁سپرد	-11.497
اسناد	-11.4971
توماس	-11.4971
قهرمانی	-11.498
▁شیوا	-11.4985
کوم	-11.4986
هماهنگ	-11.4988
▁مرت	-11.4996
باد	-11.4996
▁چال	-11.4997
▁پیگیر	-11.5
▁نب	-11.5002
۹۱	-11.501
▁گلو	-11.5016
راجع	-11.5018
▁کمیاب	-11.5018
▁تبر	-11.5019
▁کارل	-11.5019
حساب	-11.5021
▁گردهم	-11.5022
▁بلندپرواز	-11.5022
یار	-11.5025
▁انح	-11.5029
▁ناآرام	-11.5031
ورانه	-11.5034
قدرت	-11.504
▁امری	-11.5045
▁برآوردها	-11.5051
نوس	-11.5053
▁شورش	-11.5056
آر	-11.5058
مع	-11.5059
دختر	-11.506
▁۲۹۰	-11.5061
▁کور	-11.5063
▁کوچ	-11.5064
اتیو	-11.5065
ندر	-11.5066
رژی	-11.5068
▁استیو	-11.5074
▁سلیمان	-11.5076
▁کری	-11.5077
▁مصل	-11.5082
رش	-11.5089
مایش	-11.5093
جامع	-11.5107
پزشکی	-11.5108
▁سانتا	-11.5119
وحید	-11.5122
▁مشتاق	-11.5122
واقعی	-11.5132
▁تولیدکنند	-11.5136
آلود	-11.5155
ماجرای	-11.516
میدان	-11.5161
▁نخب	-11.5166
ماری	-11.5167
▁آسا	-11.5178
▁جور	-11.5191
راک	-11.5195
▁فشارها	-11.5197
مرغ	-11.5198
▁هک	-11.52
یتا	-11.521
خوشایند	-11.5219
▁۹۲	-11.5222
دینگ	-11.5223
▁نوب	-11.5225
▁ماتی	-11.5226
▁قائ	-11.5232
▁نمک	-11.5234
هفتصد	-11.5236
▁معاونان	-11.524
حام	-11.5245
▁بیتل	-11.5247
▁مشهورتر	-11.5249
نور	-11.5251
▁قاطعان	-11.5253
▁موسی	-11.5253
مری	-11.5261
ریوس	-11.5269
کسل	-11.5272
نگرانی	-11.5273
▁سازوکار	-11.5275
هره	-11.5275
▁داش	-11.5279
منستان	-11.5281
▁موزیک	-11.5286
وادا	-11.529
▁برگزارکنند	-11.529
فیروز	-11.5291
▁آرسن	-11.5296
▁دموکراسی	-11.5296
▁سخاوتمند	-11.5296
▁اویغور	-11.5296
▁انقطاع	-11.5296
▁محتاط	-11.5296
▁رادیواکتیو	-11.5296
▁قزاق	-11.5296
▁محتمل	-11.5296
▁مکتوب	-11.5296
▁بالیوود	-11.5297
▁سانتیگراد	-11.5297
▁غلیظ	-11.5297
▁تورنتو	-11.5297
▁وروورت	-11.5297
▁کوشنر	-11.5297
▁ناگزیر	-11.5297
▁اسرارآمیز	-11.5297
▁التحصیل	-11.5297
▁فرمانروای	-11.5297
▁اوقاف	-11.5297
▁باشکوه	-11.5297
▁مستاجر	-11.5297
▁رزیدن	-11.5297
▁انزوا	-11.5297
▁مالباخت	-11.5297
▁قتالی	-11.5297
▁کرمانپور	-11.5297
▁فونینی	-11.5297
▁خشمگین	-11.5297
▁گاگا	-11.5297
▁جادوگر	-11.5298
▁نقیض	-11.5298
▁لشکر	-11.5298
▁کمبریج	-11.5298
▁استعمار	-11.5298
▁اصالت	-11.5298
▁بکاهند	-11.5298
▁بفروشند	-11.5298
▁فرناند	-11.5298
▁مرموز	-11.5298
▁هواشناسی	-11.5299
▁بوزمن	-11.5299
▁ظالمانه	-11.5299
▁هالپ	-11.5299
▁اردکان	-11.53
شریف	-11.53
▁تجدیدنظر	-11.53
▁روانچی	-11.53
▁احوال	-11.53
▁بپردازند	-11.53
▁کارائیب	-11.53
▁مارسیال	-11.53
▁خلوتگر	-11.5301
▁بم	-11.5301
▁صفوف	-11.5301
▁بیندازند	-11.5301
▁ویلسون	-11.5301
کاراکاس	-11.5304
▁۱۹۶۷	-11.5304
گارت	-11.5305
▁۱۹۶۸	-11.5306
▁شاهرود	-11.5307
▁سازگار	-11.5307
▁رولز	-11.5308
▁جاسک	-11.5311
▁رفیق	-11.5311
▁خودمختار	-11.5311
▁ندارید	-11.5311
▁بایستند	-11.5313
▁گنبد	-11.5313
ریان	-11.5314
▁ببریم	-11.5314
▁درسی	-11.5315
▁کاسپی	-11.5319
▁برویم	-11.532
▁بگذارم	-11.532
روازه	-11.532
▁ابهامات	-11.5324
▁دستیاران	-11.5324
▁نیفتاد	-11.5324
▁مجلات	-11.5329
▁برونته	-11.5331
▁هاپک	-11.5331
▁سولشر	-11.5331
▁نورماگومدوف	-11.5332
▁لوگو	-11.5334
▁میلیاردرها	-11.5334
▁برایانت	-11.5335
▁خلاق	-11.5336
▁احصا	-11.5337
▁امیدوارکننده	-11.5337
▁یونسی	-11.5337
▁ملوان	-11.5338
▁داوود	-11.5339
▁خاندان	-11.5342
▁مختصر	-11.5343
▁دریانورد	-11.5344
▁نامگذاری	-11.5345
▁محوری	-11.5346
▁مأموریت	-11.5348
▁آگوست	-11.5349
▁بگیرم	-11.5349
مادر	-11.535
رک	-11.5353
▁عزت	-11.5354
▁گردیم	-11.5354
▁فلامینگوها	-11.5356
▁متقابل	-11.5356
▁توبین	-11.5358
▁اجداد	-11.5359
▁جرج	-11.5359
▁علیزاده	-11.5361
▁خاکستر	-11.5366
▁بزرگسالان	-11.5367
بیست	-11.5368
▁مساحت	-11.5369
▁مجاور	-11.5374
▁بورات	-11.5375
▁تشوی	-11.5375
▁سف	-11.5375
ملی	-11.5375
▁استانداری	-11.5376
▁جلیل	-11.5377
▁ایلام	-11.5378
▁کارند	-11.538
▁فستیوال	-11.5381
▁ابدی	-11.5385
رغ	-11.539
▁ناشده	-11.5391
▁تولی	-11.5394
▁تجسم	-11.5396
▁حسگرها	-11.5396
▁سرخک	-11.5396
▁لاپورتا	-11.5397
▁سفره	-11.54
▁هروی	-11.54
▁جذابیت	-11.5403
نعیم	-11.5408
▁زالی	-11.5409
▁فضل	-11.5413
▁تناقض	-11.5415
ارومیه	-11.5416
▁شاکی	-11.5417
▁کمربندهای	-11.5417
شکاف	-11.5417
▁رخدادهای	-11.5418
▁عینی	-11.5418
۶۷	-11.5419
▁بدنشان	-11.542
چون	-11.5422
▁هوشی	-11.5425
▁ترقی	-11.5425
▁پیچید	-11.5427
▁توتال	-11.5433
▁بگوید	-11.5437
گردانده	-11.5437
▁بدهم	-11.5439
▁توسان	-11.5449
سعود	-11.5452
▁پیمانکاران	-11.5455
ورد	-11.546
▁ثور	-11.5466
▁اکثرا	-11.5466
لیات	-11.5468
۸۸	-11.5471
▁کامیاب	-11.5474
▁فرستادن	-11.5475
نولد	-11.548
▁مادام	-11.5483
▁یوسفی	-11.5484
رود	-11.5485
ومین	-11.5486
▁سانچ	-11.5486
▁یخی	-11.5493
▁پیمود	-11.5494
▁راشد	-11.5496
اتور	-11.5499
▁کشورهاست	-11.5501
▁مذک	-11.5504
یاس	-11.5509
▁ماهرویان	-11.5509
شدن	-11.5521
▁بایر	-11.5522
▁علما	-11.5524
سپی	-11.5527
گویان	-11.5529
▁ناک	-11.5531
▁فورا	-11.5534
▁حجت	-11.5541
▁آف	-11.5544
مک	-11.5556
▁تپند	-11.5556
یسم	-11.5571
▁والتر	-11.5573
▁جادوی	-11.5575
▁قاعد	-11.5577
▁کورت	-11.5578
وده	-11.5579
▁قبض	-11.5581
▁دارداین	-11.5582
▁ترسد	-11.5587
راحتی	-11.5588
▁خوابیدن	-11.559
▁الی	-11.5591
صف	-11.5593
▁مافی	-11.5597
بع	-11.5605
▁کان	-11.5605
▁شمش	-11.5611
▁بوم	-11.5613
کافی	-11.5617
▁گرجستانی	-11.5622
▁گوها	-11.5626
▁گریخت	-11.5628
تشکر	-11.5629
گت	-11.5634
▁نوک	-11.5637
▁فرخ	-11.5641
ارو	-11.5642
▁سناریوها	-11.565
▁قاسمی	-11.5656
▁سنی	-11.5668
▁تشکیلات	-11.5669
▁لینک	-11.5676
▁توبی	-11.5676
▁چاق	-11.5679
▁پژوهشهای	-11.568
▁گره	-11.5685
▁اثرگذار	-11.5689
▁کجاست	-11.5689
▁مشخصات	-11.5693
▁سرور	-11.5694
▁ماهنام	-11.5696
▁اجت	-11.5696
▁باختری	-11.5699
▁رسند	-11.5702
▁همای	-11.5705
بیگ	-11.5712
ینز	-11.5717
▁برنز	-11.5727
▁مسن	-11.5728
کسیون	-11.5739
ایشگاه	-11.5744
آفرینی	-11.576
▁نماید	-11.5771
▁پترو	-11.5777
زیو	-11.5782
▁اقسا	-11.5782
▁قوز	-11.5784
اصل	-11.5785
▁آوا	-11.5786
▁بفرستید	-11.579
▁۱۳۳	-11.5791
ئه	-11.5793
▁عالمی	-11.5796
▁عینک	-11.5803
▁کوس	-11.5805
▁قصر	-11.5809
▁شعرهای	-11.5812
▁نیستم	-11.5812
ومی	-11.5813
▁رقبای	-11.5826
طری	-11.5838
▁دنیل	-11.5842
برده	-11.5849
▁تقلا	-11.5853
▁قب	-11.5854
شاپی	-11.5857
یافته	-11.5863
ژیک	-11.5866
▁شرعی	-11.5866
▁پیامبر	-11.5902
میلیون	-11.5908
صاب	-11.5913
▁زوم	-11.5914
▁لیدی	-11.5919
فین	-11.592
▁شارل	-11.5938
▁گی	-11.5942
▁رانگل	-11.5948
وسی	-11.5949
طل	-11.5951
▁شهریاری	-11.5952
۳۳	-11.5953
▁سرگذاشت	-11.5956
▁فک	-11.5957
▁راوی	-11.5968
▁آش	-11.6005
سلط	-11.6007
▁رویاهای	-11.6008
▁شاپ	-11.6017
▁سرگرفت	-11.6018
توری	-11.6031
▁مبت	-11.6035
▁زیبای	-11.6042
دوغا	-11.6045
▁میدهد	-11.605
آنچ	-11.6051
▁رفراند	-11.6056
▁سینو	-11.6057
▁ذهنش	-11.6057
▁دانستن	-11.6061
گاوا	-11.6062
یونان	-11.6066
کسین	-11.6068
پو	-11.6076
▁بازدیدکنند	-11.6076
▁نوآوران	-11.6078
▁وض	-11.6079
قهرمان	-11.6081
پیر	-11.6083
▁فیش	-11.6086
▁بکت	-11.6092
▁عاج	-11.6095
عت	-11.6095
خالف	-11.6096
▁اسا	-11.611
ردی	-11.6114
سید	-11.6114
▁نجفی	-11.6121
بزرگ	-11.6123
▁فراخواند	-11.6125
عمل	-11.6137
▁فراخوان	-11.6147
شون	-11.6154
تک	-11.6155
سالی	-11.6159
بورد	-11.6161
درهای	-11.6165
الیز	-11.6176
▁ننگ	-11.6178
▁بریتانیاست	-11.6182
▁کارتون	-11.6188
▁صدایی	-11.619
▁هیل	-11.6194
▁برنا	-11.6197
لبان	-11.62
▁حول	-11.6208
▁پرستار	-11.6209
▁تران	-11.621
▁ستا	-11.621
▁اشتباهی	-11.6224
▁اصطلاحا	-11.6231
▁ناشر	-11.6233
▁آشو	-11.6234
▁مردن	-11.6245
▁پیت	-11.6247
▁سازهای	-11.6248
بینند	-11.6254
گستر	-11.6259
▁کنو	-11.6262
فری	-11.6262
دیده	-11.6264
بالا	-11.6274
▁کلینت	-11.6274
▁گپ	-11.6275
▁کاپل	-11.628
ینچی	-11.628
وضعیت	-11.6281
شروع	-11.6286
ازاد	-11.6286
▁پرش	-11.6295
▁بهرامی	-11.6298
فشار	-11.6299
ونته	-11.6307
مپیون	-11.6317
▁چای	-11.6334
▁پرداز	-11.6337
▁بخشید	-11.6339
رفه	-11.634
مزمن	-11.6345
یامده	-11.635
▁گویا	-11.635
▁ارت	-11.6353
▁درسال	-11.6376
▁فلور	-11.638
وط	-11.6382
▁ماریان	-11.6383
▁گلد	-11.6391
▁فرضی	-11.6404
نرخ	-11.6406
▁گاردی	-11.6415
▁شاد	-11.6417
▁پوک	-11.6418
بازداشت	-11.6419
▁شکنی	-11.6423
▁سنگی	-11.6439
ادت	-11.644
ابتدا	-11.644
انگ	-11.6441
کشورهای	-11.6441
▁شن	-11.6443
ستند	-11.6448
▁سوزان	-11.645
نفی	-11.6452
▁نازل	-11.6463
قرنطینه	-11.6473
خضر	-11.6473
▁۲۱۰	-11.6474
پاتی	-11.6479
مبا	-11.6485
ایل	-11.6494
ویی	-11.6494
▁یوسی	-11.6498
▁پاسخگو	-11.6505
ایتالیا	-11.6506
پاسخ	-11.651
ائی	-11.651
▁نیافتن	-11.6512
▁برخاست	-11.6514
اکس	-11.6516
سام	-11.6516
▁شم	-11.6522
ترکیب	-11.6524
خطر	-11.6526
یتونا	-11.6527
یونایتد	-11.6527
اندن	-11.6531
▁۶۶	-11.6532
شکایت	-11.6533
شناسی	-11.6537
▁استبا	-11.654
جشنواره	-11.654
نژاد	-11.6544
هنگام	-11.6546
دقیق	-11.6547
سیستم	-11.6547
▁چرم	-11.6547
تنیس	-11.6547
اتح	-11.6549
▁سروده	-11.6553
تجرب	-11.6557
بزرگترین	-11.6564
▁اقام	-11.6564
جن	-11.6565
سرطان	-11.6566
فرانسه	-11.6571
ینا	-11.6573
پالایشگاه	-11.6579
▁رویز	-11.658
مدیریت	-11.6586
رویترز	-11.659
▁گرجستان	-11.6592
▁سرم	-11.6597
حاشیه	-11.6598
نوی	-11.6598
▁دزدی	-11.6603
فرهاد	-11.6603
محل	-11.6603
▁آلم	-11.6603
▁گرین	-11.6604
آکادمی	-11.6605
▁۱۰۹	-11.6605
ریکا	-11.6606
منتقدان	-11.6607
وص	-11.6612
▁ویر	-11.6616
▁آرزوها	-11.662
▁سفارشی	-11.662
شن	-11.6626
نفوذ	-11.6627
کوئین	-11.663
صرف	-11.6642
دولتی	-11.6644
وکیل	-11.6651
دارا	-11.6653
قبض	-11.6654
مردان	-11.6659
وتو	-11.666
▁بخشهای	-11.6666
▁صحرا	-11.6668
▁حاج	-11.667
▁۲۰۵	-11.6672
▁مزد	-11.6681
گردون	-11.6681
هور	-11.6682
▁عبد	-11.6686
لستر	-11.6687
ادگی	-11.6688
▁نوردی	-11.6693
▁نمادها	-11.6699
دنیل	-11.6703
یکون	-11.6707
مقامات	-11.6709
آزادی	-11.671
۷۵	-11.6716
▁تون	-11.6716
▁الگو	-11.6719
زاک	-11.6719
میلان	-11.672
▁صوت	-11.672
▁رویدادها	-11.673
دایی	-11.6732
راد	-11.6735
ذره	-11.6739
▁تیز	-11.6741
تجمع	-11.6742
کین	-11.6746
ادین	-11.6751
دادستان	-11.6756
▁بنده	-11.6761
▁کنشگر	-11.6773
▁سانتو	-11.6773
مرد	-11.6775
▁پرکار	-11.6777
▁باخ	-11.6783
جیک	-11.6788
شوه	-11.6798
▁تراک	-11.6804
حضا	-11.681
▁بازده	-11.6812
ماخ	-11.6814
نیس	-11.6825
گاتی	-11.683
▁اعت	-11.6851
۸۵	-11.6856
▁نهادها	-11.6856
▁نصر	-11.686
بورگ	-11.6868
▁شدیم	-11.6871
حث	-11.6876
▁بت	-11.6893
گذشت	-11.6898
ئیه	-11.6902
▁جنب	-11.6903
آبی	-11.6908
دوج	-11.691
یکه	-11.6912
نزل	-11.6914
وپ	-11.6935
▁تفنگ	-11.6936
▁تقریب	-11.6937
▁یوآ	-11.6944
▁مخابر	-11.6947
امه	-11.6956
▁احداث	-11.6963
▁اختاپوس	-11.6963
▁اورشلیم	-11.6963
▁زاکربرگ	-11.6963
▁سزاوار	-11.6963
▁لابراتوار	-11.6963
▁چرنکوف	-11.6963
▁ژئوفیزیک	-11.6963
▁اکسیدکربن	-11.6963
▁دگراندیش	-11.6963
▁لاوروف	-11.6963
▁بیضائی	-11.6963
▁بولونیا	-11.6963
▁جگوار	-11.6963
▁فلسفی	-11.6963
▁بیرمنگ	-11.6963
▁تشریفات	-11.6963
▁ناپایدار	-11.6963
▁نافذ	-11.6963
یونیسف	-11.6963
▁کامبوج	-11.6963
▁الارض	-11.6963
▁فلاکت	-11.6964
▁اوزیل	-11.6964
▁باچان	-11.6964
▁تدارک	-11.6964
▁متقلب	-11.6964
▁دوبلور	-11.6964
▁تسخیر	-11.6964
▁شلوار	-11.6964
▁لاتکس	-11.6964
▁هریرود	-11.6964
▁میچام	-11.6964
ئوری	-11.6964
▁نیکزاد	-11.6965
▁اوزون	-11.6965
▁ناخشنود	-11.6965
▁مبتکر	-11.6965
▁فرهیخت	-11.6965
▁دامغان	-11.6965
▁حیثیت	-11.6965
▁ضابط	-11.6965
▁انحراف	-11.6966
▁اینفانتی	-11.6966
▁نزاع	-11.6966
▁صربستان	-11.6966
▁ظلم	-11.6966
▁موازات	-11.6966
▁تمایز	-11.6966
▁حروف	-11.6966
▁جاودان	-11.6966
▁شنویم	-11.6966
▁ارمجانی	-11.6967
▁دشتکی	-11.6967
▁متوازن	-11.6967
▁بمیرد	-11.6967
▁منفعت	-11.6968
▁هنجار	-11.6968
▁بلندپایه	-11.6968
▁پابرجاست	-11.6969
▁پرسنل	-11.697
▁مخوف	-11.697
▁مغایر	-11.697
▁سرسخت	-11.697
▁زیراتمی	-11.697
▁فورمن	-11.6971
ژگان	-11.6971
▁الاجراست	-11.6971
▁حیا	-11.6972
بازد	-11.6972
▁عضلانی	-11.6972
▁نورالله	-11.6974
▁نکشید	-11.6976
▁چوپ	-11.6977
▁آهسته	-11.6978
▁رکوردشکن	-11.6979
▁خویشتن	-11.6979
▁۱۹۹۴	-11.6979
▁فلسطینیان	-11.698
▁کیل	-11.698
▁۱۳۶۰	-11.6981
▁پرشمار	-11.6981
▁قبرستان	-11.6982
▁نیابد	-11.6982
▁ناسیونالیس	-11.6983
▁پرستون	-11.6983
▁مراکش	-11.6984
▁ژرف	-11.6984
▁تحرکات	-11.6986
▁هیپی	-11.6986
▁تومور	-11.6987
▁جانباخت	-11.6988
▁عبادی	-11.6991
▁هندرسون	-11.6991
زای	-11.6992
پوستان	-11.6992
▁آبراه	-11.6994
▁یقین	-11.6995
۳۰۰	-11.6997
دلی	-11.6998
▁متغیرهای	-11.6999
▁هنگفت	-11.7
▁خطاهای	-11.7
تال	-11.7
▁طبع	-11.7002
▁رینت	-11.7003
▁قیصر	-11.7003
▁سحابی	-11.7004
▁زادروز	-11.7004
▁زینب	-11.7004
▁قورباغه	-11.7004
▁ازبک	-11.7004
▁سرپوش	-11.7004
▁برلوسکونی	-11.7004
▁عبدالسلام	-11.7004
زد	-11.7008
شنا	-11.7008
▁مارلی	-11.7009
▁همسایگان	-11.7009
رام	-11.701
ونز	-11.7012
راندن	-11.7012
▁کانت	-11.7013
زیرو	-11.7015
▁همفکر	-11.7015
▁۲۵۰۰	-11.7015
▁پاب	-11.7016
▁شیب	-11.7019
▁تعمیرات	-11.702
▁دکترا	-11.702
▁اتلان	-11.7021
▁صرب	-11.7024
▁اهرم	-11.7025
لسک	-11.7025
▁کبیری	-11.7026
▁معنادار	-11.7026
▁غذاخور	-11.7027
▁۲۴۸	-11.7027
▁ژائو	-11.7028
▁نپال	-11.7031
▁دلنشین	-11.7034
▁مرکل	-11.7035
▁رودکی	-11.7035
▁تربت	-11.7036
▁چسباند	-11.7037
ذائ	-11.7038
▁بایست	-11.7039
▁ماهیچه	-11.7041
▁پردازش	-11.7042
▁برگر	-11.7043
▁آزاردید	-11.7053
▁بپذیر	-11.7054
موتو	-11.7058
▁کوشید	-11.7063
عطوف	-11.7065
▁شروط	-11.7067
▁بشنوید	-11.7068
▁ندادند	-11.7069
▁تعرض	-11.7069
▁کامپیوترها	-11.7072
▁کوپر	-11.7076
▁باج	-11.708
▁آویز	-11.7082
▁نانو	-11.7084
میزان	-11.7085
گوگوش	-11.7086
▁یاسر	-11.7087
ستی	-11.7087
سیزدهم	-11.709
▁درام	-11.7092
▁نجومی	-11.7093
▁مجلل	-11.7096
▁بخواهند	-11.71
بله	-11.7102
▁سک	-11.7102
▁چادر	-11.7104
▁۱۷۴	-11.7109
▁مجادل	-11.7112
سود	-11.7115
▁واپس	-11.7116
▁اندازند	-11.7118
▁چهارمی	-11.7122
▁ارگان	-11.7123
رژه	-11.7126
▁خوشبین	-11.7132
▁تسلی	-11.7134
▁تورین	-11.7135
▁توئیتر	-11.7136
▁غذاهای	-11.7137
▁عناب	-11.7141
▁موازن	-11.7141
▁نثر	-11.7143
▁افزودند	-11.7143
۵۸	-11.7144
یسی	-11.7149
وژه	-11.7149
▁سوفی	-11.7154
ریا	-11.717
▁کنسر	-11.7171
▁مشتاقان	-11.7174
▁باختر	-11.7175
▁چشید	-11.7185
امین	-11.7189
▁اقیانوسیه	-11.7193
▁انرو	-11.7195
▁همتایان	-11.7197
▁فقی	-11.7198
انزا	-11.7199
▁ازسر	-11.72
▁نبی	-11.7203
▁نوشتارها	-11.7204
▁روم	-11.7207
▁شرکا	-11.7208
خن	-11.721
▁۷۵۰	-11.7216
▁استر	-11.7223
▁اظهارنظرهای	-11.7223
▁عطف	-11.7228
▁اجزا	-11.7238
▁کاتل	-11.7238
بنی	-11.7239
ونی	-11.7242
▁پهنه	-11.7244
▁کلوز	-11.7246
بن	-11.7255
پاری	-11.7257
▁متال	-11.7268
لیت	-11.7281
گراد	-11.7283
▁عمیقا	-11.7286
امو	-11.7293
▁ستیز	-11.7293
ریحان	-11.7293
کیت	-11.7294
▁بلندپروازی	-11.7298
میلیارد	-11.7298
▁نیت	-11.73
▁پارکر	-11.7306
مهربان	-11.7315
وران	-11.7316
رفت	-11.733
▁کوید	-11.7331
▁شجاعت	-11.7333
▁بدهید	-11.7334
▁رخت	-11.7335
▁آرین	-11.7341
▁رف	-11.7345
ارتاک	-11.7348
▁خطا	-11.7348
▁بازیافت	-11.7353
▁کشیدند	-11.7357
ائو	-11.7358
باتری	-11.736
یوئیت	-11.7363
▁منفور	-11.7364
دیه	-11.7364
سارت	-11.7366
▁گراند	-11.7367
▁متو	-11.7373
▁رباب	-11.7378
پولو	-11.7386
▁فورب	-11.7388
▁بعض	-11.739
▁نظ	-11.7396
▁عاملی	-11.7397
▁جوانا	-11.74
▁لندر	-11.7403
پراتور	-11.741
▁مراد	-11.741
▁سالمند	-11.7414
ساز	-11.7418
▁سیمین	-11.7419
▁اپرای	-11.7427
▁حریر	-11.7427
▁ورق	-11.7432
▁آمونی	-11.7442
▁دن	-11.7443
▁قبای	-11.7452
▁برایت	-11.7453
ورای	-11.7457
▁میهن	-11.746
وزی	-11.7464
▁غوری	-11.7467
▁نزدیکانش	-11.7477
نجره	-11.7492
بک	-11.7493
کوس	-11.7494
ارا	-11.7499
▁ایرانسل	-11.7499
▁آرمی	-11.7502
پرسینگ	-11.7505
سوی	-11.7506
▁بودا	-11.7515
▁فروند	-11.7517
۹۶	-11.7518
▁آنگل	-11.7519
فان	-11.7527
هایش	-11.7534
یلو	-11.7539
وبیل	-11.7545
وست	-11.7545
ایان	-11.7547
▁توقع	-11.755
قبره	-11.7553
لاس	-11.7561
▁رقیبان	-11.7563
▁توسل	-11.7565
▁خاوری	-11.7571
▁حوال	-11.7571
▁چهارده	-11.7579
وزرای	-11.7586
وستون	-11.7587
مرز	-11.7593
▁امضاکنند	-11.7596
پزشک	-11.7597
حرف	-11.761
▁کبد	-11.7611
▁منقل	-11.7612
۳۶۰	-11.7626
مانی	-11.7642
▁رایانه	-11.7648
▁بستند	-11.765
▁درهم	-11.7658
تاکس	-11.7664
▁بخشیده	-11.7677
قانون	-11.7677
▁ورز	-11.7681
۴۴	-11.7681
▁بسر	-11.7683
رزمی	-11.7686
لد	-11.7694
▁درصدد	-11.7694
▁بدنم	-11.7706
چنین	-11.7713
کسر	-11.7722
دستان	-11.7724
گوئر	-11.7725
▁مینیاتوری	-11.7727
▁فل	-11.7732
▁بزو	-11.7733
▁هاروی	-11.7756
▁زنیم	-11.7763
▁بدتری	-11.7764
▁نتوان	-11.7769
حاملگی	-11.7772
▁دیف	-11.7776
ائب	-11.7784
مو	-11.7791
▁عطار	-11.7792
انک	-11.7805
▁استودیوی	-11.7811
▁سردست	-11.7811
▁ریگ	-11.7815
▁اتری	-11.7815
ولکس	-11.782
خوانده	-11.7821
▁آز	-11.7823
▁فعالیتش	-11.7823
▁عمرش	-11.7832
رگاه	-11.7833
زمه	-11.7835
کست	-11.7842
۹۳	-11.7852
بایی	-11.7857
وانی	-11.7861
▁سنجی	-11.7868
▁جزای	-11.7878
واشی	-11.7883
▁تایی	-11.7885
▁یانگ	-11.7887
▁شاهدان	-11.7889
حکم	-11.7891
▁جوج	-11.7891
▁نشستن	-11.7902
تاد	-11.7904
▁غیربو	-11.7915
نمای	-11.7919
▁وول	-11.7938
▁سوخته	-11.7941
دوزی	-11.7943
▁چنگ	-11.7949
بومی	-11.795
▁پلک	-11.7958
کری	-11.7966
▁بنیا	-11.7968
▁دیپلم	-11.7975
ملو	-11.7989
▁مجت	-11.7989
بیح	-11.799
▁دایی	-11.7998
▁فری	-11.8001
▁میکروبی	-11.8007
گردانی	-11.8011
▁بگ	-11.8012
▁شوق	-11.8013
ادیو	-11.802
▁شراب	-11.8021
صال	-11.8029
▁مث	-11.8033
اثر	-11.8049
▁چتر	-11.8055
▁همسو	-11.8059
تالیا	-11.806
▁بخشد	-11.8061
▁جود	-11.8062
▁الس	-11.8064
پایان	-11.8068
▁اورگ	-11.8083
▁باربی	-11.8083
▁سکو	-11.8084
ارسل	-11.8094
جماع	-11.8098
▁محبوبش	-11.8099
▁ازد	-11.8103
▁روبین	-11.8106
▁همسران	-11.8118
▁مورف	-11.8122
▁دیرو	-11.8129
۸۹	-11.8129
رچه	-11.8131
▁بندهای	-11.8131
لوت	-11.8138
▁محبو	-11.814
گران	-11.8141
قای	-11.8149
۴۵	-11.8151
▁مایل	-11.8156
زنان	-11.8157
اشا	-11.8159
خوش	-11.8162
چشم	-11.8169
بد	-11.8176
▁شدایران	-11.8182
▁بلخی	-11.8187
▁کوپا	-11.819
▁بگو	-11.8195
▁قش	-11.8197
▁درخشند	-11.8204
اهی	-11.8225
▁مادی	-11.8233
▁کورو	-11.8239
▁ایا	-11.8242
▁استثنای	-11.8244
▁نیرومند	-11.8254
▁عم	-11.8254
▁همب	-11.8258
▁اغ	-11.826
خصوص	-11.8268
▁حواس	-11.8278
▁ضم	-11.8281
▁بارش	-11.83
▁ترمی	-11.83
▁شیرینی	-11.8302
تعلل	-11.8304
سکار	-11.8305
اعتراض	-11.8308
ماجرا	-11.8312
الیود	-11.8314
کانس	-11.832
▁سیرو	-11.8325
▁اتکای	-11.8325
کسان	-11.8326
▁رپ	-11.833
▁دانل	-11.8334
▁دلو	-11.8335
▁حاتم	-11.8335
▁توفیقی	-11.834
موضوع	-11.834
▁رجبی	-11.8346
تخیلی	-11.8356
جایزه	-11.836
مانس	-11.8367
▁پولهای	-11.8367
۲۰۲۰	-11.8374
بق	-11.8381
▁ثب	-11.8387
مشخص	-11.8391
مسابقه	-11.8398
همکاری	-11.8401
قیاس	-11.8403
درآمد	-11.8409
▁شرت	-11.8413
عکاس	-11.8416
سترسیتی	-11.8418
▁کلور	-11.8418
۸۴	-11.842
▁دستش	-11.8421
▁علا	-11.8431
صنعت	-11.8436
▁گذاریم	-11.8447
▁کابلی	-11.8459
▁جیمی	-11.8465
▁الزاما	-11.8466
▁مسخ	-11.8475
▁سناریو	-11.8475
▁بازه	-11.8477
▁فلم	-11.8486
خروج	-11.8486
▁انسانها	-11.8491
جنوب	-11.8494
احتمال	-11.8495
▁اب	-11.8496
▁پشتو	-11.8498
▁شجاعی	-11.8498
▁نات	-11.8505
▁الکسا	-11.8513
ورس	-11.8514
▁بستگان	-11.8514
ترک	-11.852
شکی	-11.8522
▁گرینو	-11.8524
کوه	-11.8535
گزا	-11.8536
▁نزده	-11.8537
تابستان	-11.854
▁۳۳۰	-11.854
▁نوزده	-11.8544
آقازاده	-11.8545
فرمانده	-11.8551
گمرک	-11.8561
مطالع	-11.8564
▁اسلو	-11.8566
سان	-11.8567
نیویورک	-11.8576
جوایز	-11.8577
پروتکل	-11.8577
تخریب	-11.8579
طالبان	-11.8582
فیفا	-11.8584
اتفاقات	-11.8587
تیراندازی	-11.8587
▁سخنگو	-11.8589
فش	-11.8594
▁کوئین	-11.8594
مالک	-11.8595
▁ادوار	-11.8599
یوس	-11.8604
مشق	-11.8604
جوکوویچ	-11.8604
ابراهیم	-11.8606
بست	-11.8615
مناسبت	-11.8615
جری	-11.8616
مکزیکو	-11.8618
فرجام	-11.8624
اضطراب	-11.8625
شایر	-11.8626
صل	-11.8629
دنبال	-11.8631
تایسون	-11.8631
▁اپراتور	-11.8636
اتهامات	-11.8636
بیانسه	-11.8638
جسد	-11.864
فاضل	-11.864
ایلنا	-11.8641
فرانسی	-11.8642
فاصل	-11.8643
هجوم	-11.8644
▁مجال	-11.8645
▁مذهب	-11.8653
لیدز	-11.8658
مزد	-11.8675
▁چیزها	-11.8677
راث	-11.8681
▁کوری	-11.8683
منتظر	-11.8685
اعظم	-11.8688
خزن	-11.8691
▁مگ	-11.8693
▁یادش	-11.8694
▁دلش	-11.8698
▁مطهر	-11.8699
ملا	-11.8702
رها	-11.8707
▁مزایا	-11.8709
نگین	-11.871
▁یوسف	-11.8714
▁جعفر	-11.8717
خواهیم	-11.8718
الوح	-11.872
▁دلیلش	-11.8721
سرجی	-11.8723
▁رکسا	-11.8724
مسعود	-11.8726
نتینو	-11.8727
▁کمالی	-11.873
سانس	-11.8734
▁هواپیماها	-11.8737
تیو	-11.8763
درحالی	-11.8766
▁یابی	-11.877
سورها	-11.8772
▁اندرو	-11.8773
▁توئیت	-11.8779
لیگا	-11.8783
رالزمان	-11.8793
سنج	-11.8794
گذشته	-11.88
▁معوق	-11.8821
▁واحده	-11.8823
▁بهت	-11.8825
زدی	-11.8826
کنند	-11.8833
فارم	-11.8833
▁قان	-11.8838
▁غور	-11.884
▁اشت	-11.8842
▁منت	-11.8849
▁۱۲۸	-11.885
بندی	-11.8852
▁بکر	-11.8852
▁رکوردها	-11.8867
نسک	-11.8874
▁فلامینگو	-11.8878
▁ایل	-11.8883
▁۲۴۰	-11.8885
پولیس	-11.8886
وکین	-11.8892
▁گار	-11.8898
▁آتن	-11.8913
دیدار	-11.8917
▁همسایگ	-11.8925
▁ترفند	-11.8925
تروئ	-11.8929
▁سوز	-11.893
کنفرانس	-11.8932
ونا	-11.8936
▁پدربزرگ	-11.894
مز	-11.8946
گزار	-11.8949
رگبار	-11.895
غو	-11.8958
تمع	-11.8962
حضرت	-11.8963
▁ابتذال	-11.8963
▁اسکورسیزی	-11.8963
▁بفرستد	-11.8963
▁تشعشع	-11.8963
▁زحمات	-11.8963
▁فیزیولوژی	-11.8963
▁بفرستند	-11.8963
▁بپیوندد	-11.8963
▁حناچی	-11.8963
▁پلتفرم	-11.8963
▁کوکائین	-11.8963
▁مارگاریتا	-11.8963
▁اوزبیک	-11.8963
▁پرتوافشانی	-11.8963
▁ناسازگار	-11.8963
▁اولیانوف	-11.8963
▁عناوین	-11.8963
▁هیدروژن	-11.8963
▁بنکدارپور	-11.8963
▁تنگاتنگ	-11.8963
▁ننگرهار	-11.8963
▁عنابستانی	-11.8963
▁غزنوی	-11.8963
▁شریعت	-11.8963
▁مجارستان	-11.8963
▁پغمان	-11.8963
▁اتمسفر	-11.8963
▁ناخودآگاه	-11.8963
▁مفاهیم	-11.8963
▁همجوار	-11.8963
▁بیانجامد	-11.8964
▁ایرلاین	-11.8964
▁سولیوان	-11.8964
▁نکونام	-11.8964
▁مشروعیت	-11.8964
▁معضل	-11.8964
لازم	-11.8964
▁تذکر	-11.8964
▁طارمی	-11.8964
▁غمگین	-11.8964
▁رج	-11.8964
▁دوقلو	-11.8965
▁نباشید	-11.8965
▁وسواس	-11.8965
کشی	-11.8965
▁تمهید	-11.8965
▁سغد	-11.8965
▁بلوغ	-11.8965
▁لطیف	-11.8966
▁چندرایان	-11.8966
▁مقادیر	-11.8967
▁خودکفا	-11.8967
▁فراهانی	-11.8967
▁عنایت	-11.8968
▁الاجرا	-11.8969
▁کلکسیون	-11.8969
▁سمنان	-11.8969
▁ببینم	-11.8969
▁دیزل	-11.8969
▁گوریل	-11.897
▁بیضایی	-11.897
رزرو	-11.8971
▁ارژن	-11.8971
▁آلبانی	-11.8971
▁بسپارد	-11.8971
▁صیادان	-11.8971
▁۱۹۶۶	-11.8971
▁منحنی	-11.8972
▁گوترش	-11.8972
▁۲۰۳۵	-11.8973
▁بکشم	-11.8973
▁کذب	-11.8973
▁پوینت	-11.8973
▁فواید	-11.8974
▁تمجید	-11.8974
▁مقیاس	-11.8975
▁شادگان	-11.8975
▁زوایا	-11.8975
▁متضاد	-11.8976
آنگولا	-11.8976
شاد	-11.8979
▁صفاری	-11.8979
▁بزاق	-11.898
▁توفندها	-11.898
▁فعالی	-11.8981
▁آوینی	-11.8981
▁برنگرداند	-11.8981
▁شادمان	-11.8981
▁بانکوک	-11.8981
▁بنویسم	-11.8981
▁هشدارها	-11.8981
▁۱۹۹۵	-11.8982
▁ابول	-11.8983
▁وارث	-11.8984
▁تجسس	-11.8984
▁وجدان	-11.8986
▁اسکلت	-11.8986
▁بخوانند	-11.8986
▁زراعت	-11.8986
زامبی	-11.8987
▁رویس	-11.8988
▁لبخندها	-11.8988
شود	-11.8989
▁بارچا	-11.8989
▁بکنید	-11.899
▁لرزید	-11.899
▁کاردوس	-11.8991
▁آصف	-11.8991
▁انعکاس	-11.8992
▁آپوف	-11.8992
وتی	-11.8992
▁جوابگوی	-11.8993
ناگلزم	-11.8993
▁سفیدپوستان	-11.8994
▁آنچنان	-11.8998
▁نوابی	-11.8999
▁برنامک	-11.9
▁بازدارند	-11.9001
▁بخورد	-11.9001
▁اشکالات	-11.9002
▁بارکلی	-11.9003
▁دماغ	-11.9003
▁قمار	-11.9004
▁دستمزدها	-11.9004
▁بهائی	-11.9004
▁کابوس	-11.9007
▁یولیا	-11.9007
غذیه	-11.9007
▁اعترافات	-11.9008
▁آموس	-11.9009
▁جویانه	-11.901
▁ملموس	-11.9011
▁تایوان	-11.9012
▁لافرته	-11.9012
▁ماوریک	-11.9013
▁مدد	-11.9014
▁رجیس	-11.9015
▁بیگم	-11.9015
جویان	-11.9016
صنوف	-11.9016
▁هنکس	-11.9018
رسید	-11.9019
▁جذابی	-11.9022
▁مجزا	-11.9023
▁چفرین	-11.9031
▁نگذاشت	-11.9032
▁ادینبور	-11.9033
▁حض	-11.9033
ماگال	-11.9035
نتسب	-11.9041
▁گاردن	-11.9042
▁کولبران	-11.9044
لیه	-11.9046
تمامی	-11.9046
▁مشاهدات	-11.9046
▁کریگ	-11.9049
▁افشاگر	-11.9051
▁کارم	-11.9052
▁لنز	-11.9053
▁فرز	-11.9057
▁اسکات	-11.9058
▁افراط	-11.9058
▁کوثر	-11.9058
▁کروات	-11.9065
زیستی	-11.9066
زمانی	-11.9066
▁اسید	-11.9066
▁دانید	-11.9071
▁مشاه	-11.9072
▁ویرانگر	-11.9073
▁هادرون	-11.9073
▁فاکس	-11.9076
▁زدای	-11.9077
▁معلمان	-11.9078
▁آنتوان	-11.9081
نندگان	-11.9084
▁بیانداز	-11.9086
▁لیمو	-11.9087
معدنچی	-11.9088
▁بنفش	-11.9089
▁شاهکارهای	-11.9091
باخ	-11.9091
▁راهکارهای	-11.9095
▁منظوم	-11.9096
▁خطاط	-11.9098
حور	-11.9098
▁ترکمان	-11.9101
▁فرستند	-11.9102
▁یوهان	-11.9107
گوئه	-11.9107
▁امداد	-11.9109
▁کانتر	-11.9111
▁بلاتکلیفی	-11.9111
▁شگرد	-11.9113
رعلی	-11.9116
▁بدیع	-11.9116
هموار	-11.9119
▁چابک	-11.9126
▁زشت	-11.913
▁رحیمی	-11.9131
هوش	-11.9137
▁برگشتند	-11.9148
▁چرخید	-11.9149
▁زودرس	-11.9149
▁روما	-11.9152
▁آزادگان	-11.9153
▁دالان	-11.9154
▁کانل	-11.9155
ارش	-11.9157
▁چانگ	-11.9158
جانی	-11.9161
▁فراوانش	-11.9164
تفلی	-11.9171
▁عبدالرحم	-11.9173
مکن	-11.9176
▁کیمی	-11.918
مداری	-11.9185
▁ربکا	-11.9185
▁نازک	-11.9187
ساتبی	-11.9188
▁درصورت	-11.9191
▁کاترین	-11.9193
▁نامند	-11.9198
▁حریری	-11.92
تورم	-11.9201
گرانی	-11.9203
▁حشر	-11.9206
▁پربار	-11.9207
▁وکارها	-11.9211
▁برایان	-11.9221
ورلد	-11.9222
▁لات	-11.923
▁هامون	-11.9236
آلبرت	-11.9244
▁رازهای	-11.9254
▁فتو	-11.926
▁آمر	-11.9262
▁کارلو	-11.9264
▁خبرگ	-11.9267
▁افزارهای	-11.9271
وکسل	-11.9279
▁قبا	-11.9281
شیتز	-11.9284
▁شایان	-11.9287
یامک	-11.9289
نیمه	-11.9293
یمه	-11.9293
▁مایا	-11.9294
رونا	-11.9303
سبد	-11.9304
ولوژی	-11.9308
▁یدک	-11.9315
صله	-11.9316
▁وزرا	-11.9318
▁نصیر	-11.9323
کردن	-11.933
ویش	-11.9332
▁فلی	-11.9346
▁سینماگران	-11.9346
▁ویولن	-11.9349
یدی	-11.9357
▁یوآن	-11.9366
▁منسو	-11.9376
▁جراحان	-11.9376
▁نگهداشت	-11.938
▁فرحی	-11.938
غما	-11.9382
راماتیک	-11.9384
مسترد	-11.939
شنبه	-11.9395
رب	-11.9396
▁والن	-11.9402
▁سهراب	-11.9403
▁پیا	-11.9404
کشته	-11.9408
▁دوهزار	-11.9408
رث	-11.9424
▁چرن	-11.9426
▁اشا	-11.9429
▁بیگان	-11.9437
▁موت	-11.9437
فمن	-11.9441
▁فراگرفت	-11.9449
▁کشیم	-11.945
▁افتادند	-11.9455
زبان	-11.9456
▁دهی	-11.9457
▁لاب	-11.946
همگی	-11.9465
▁اژدها	-11.9469
▁سمی	-11.9472
نسون	-11.9477
▁سیت	-11.9486
▁سونا	-11.9489
ولوو	-11.9492
▁بیکارشد	-11.9499
فروشی	-11.9501
▁کریستی	-11.9502
اسب	-11.9503
▁بش	-11.9506
▁تاجیکان	-11.9519
▁داگ	-11.9521
متن	-11.9521
▁گاف	-11.9525
▁باکر	-11.9527
آباد	-11.9527
▁رویکردهای	-11.9527
ظن	-11.9533
▁نبودند	-11.954
دید	-11.9542
اسکورت	-11.9542
موش	-11.9544
رمانی	-11.9545
▁تردیدهای	-11.9559
▁گرو	-11.9561
دانه	-11.9562
▁قانونگذار	-11.9566
▁دانا	-11.9573
▁شناختند	-11.9576
یح	-11.9582
▁صداها	-11.9585
▁میرود	-11.9588
▁تقی	-11.9589
چال	-11.9593
▁میلیچ	-11.9595
لوگ	-11.9595
▁محر	-11.9598
▁کلک	-11.9602
دمای	-11.9604
▁تونسی	-11.9609
نفت	-11.962
▁تاثیرات	-11.9633
▁بریج	-11.9635
▁کیپ	-11.9636
▁راهکار	-11.9645
▁میزبانش	-11.9651
۸۲	-11.9655
▁بازگشتند	-11.9659
میر	-11.966
▁لوور	-11.9665
▁مصو	-11.9673
▁وزار	-11.9673
▁همهمه	-11.9674
▁۱۳۲	-11.9675
▁افکند	-11.9677
▁چش	-11.9677
کران	-11.9679
▁بخ	-11.9698
▁ویز	-11.9704
طم	-11.9713
▁سیب	-11.9715
رگز	-11.9722
▁خودکار	-11.9723
▁شوراها	-11.9726
۸۶	-11.9729
▁نبردها	-11.973
▁قهر	-11.9731
ژی	-11.9731
کتری	-11.9731
▁ساندر	-11.9736
▁همپ	-11.9739
تار	-11.9741
▁نایاب	-11.9746
باسی	-11.9746
لایه	-11.975
▁هایپر	-11.9753
▁زدم	-11.9753
▁حواسش	-11.9754
▁مهیا	-11.9761
▁طو	-11.9764
▁درمی	-11.9772
▁دویدن	-11.9773
▁یادم	-11.9778
▁چید	-11.9781
▁تعبی	-11.9789
▁همد	-11.9791
▁دانستم	-11.9795
▁پود	-11.9799
▁بایستی	-11.9801
قا	-11.9805
▁گوستا	-11.9814
▁وظایفش	-11.9819
▁کنش	-11.9821
رویا	-11.9826
▁هستی	-11.9831
اتنگ	-11.9841
▁وایت	-11.9841
▁بشود	-11.9847
هکرهای	-11.9853
▁عر	-11.9853
رقیز	-11.9858
افتاده	-11.9862
▁زای	-11.9864
▁لنگ	-11.9865
رفته	-11.988
▁نخواست	-11.9887
یوید	-11.9887
▁نوپا	-11.9889
▁رشدی	-11.989
▁صلیبی	-11.9896
▁سور	-11.9905
▁سوییس	-11.9908
▁دلم	-11.9909
درنا	-11.9911
▁مین	-11.9913
▁همگان	-11.9915
اندر	-11.9919
▁خانود	-11.9922
▁گذران	-11.9924
یشان	-11.9925
▁ژیل	-11.9925
▁دومی	-11.9925
▁محص	-11.9935
▁گوا	-11.9936
▁تویی	-11.9939
یرو	-11.994
▁هراتی	-11.9944
درباره	-11.9948
▁سودجو	-11.9953
گنجی	-11.9965
▁استرا	-11.9966
جات	-11.9968
▁برخاستن	-11.9971
نشأ	-11.9972
▁حکمت	-11.9972
مهم	-11.9974
▁۱۳۱	-11.9975
لیس	-11.9979
▁پورتو	-12.0001
▁رزو	-12.0001
ارجه	-12.001
سپاس	-12.0019
▁بیک	-12.0021
ستیک	-12.0023
▁شکستند	-12.0023
نگوی	-12.0034
▁عطا	-12.0036
▁متول	-12.0039
▁فراور	-12.0039
▁پاتر	-12.0041
▁کوک	-12.0047
سای	-12.0051
▁لوکه	-12.0054
بیت	-12.0061
▁کشاورزان	-12.0075
▁تولیدش	-12.0077
چندی	-12.0081
▁شرکتها	-12.0083
اندرو	-12.0084
▁سق	-12.0092
▁افرا	-12.0093
▁اراد	-12.0097
صلی	-12.01
گوین	-12.0102
اشار	-12.011
آفرین	-12.012
ارآفرین	-12.0121
▁سرف	-12.013
▁سلیم	-12.0151
▁ره	-12.0154
پژوه	-12.0164
جمهوری	-12.0166
▁عی	-12.0178
رگیری	-12.0188
▁اشتها	-12.0189
سلطان	-12.0191
ارز	-12.0194
ولد	-12.0201
▁متف	-12.0205
یلند	-12.0208
دیو	-12.021
▁عار	-12.0212
۳۷	-12.0223
مگان	-12.0224
▁اپ	-12.0225
▁ضیا	-12.0225
هو	-12.0239
پزی	-12.0242
▁محی	-12.0257
▁امیدهای	-12.027
محمدی	-12.0275
▁نیاورده	-12.0277
▁بازنش	-12.0285
ناوب	-12.029
▁سیریا	-12.0293
▁فرسا	-12.0294
گرم	-12.0296
۳۲	-12.0297
▁مرم	-12.0314
▁دیواره	-12.0315
فرید	-12.0321
▁خاکس	-12.0321
لیور	-12.0331
▁آندرس	-12.0331
فرنو	-12.0331
اپ	-12.0336
نمی	-12.0341
▁نیر	-12.0344
▁نبودن	-12.0345
▁کساد	-12.0347
اتل	-12.0348
▁افع	-12.0362
▁پارکین	-12.0365
▁چسب	-12.0366
۵۳	-12.0375
▁صلیب	-12.0384
روژ	-12.0385
انسون	-12.0397
توافق	-12.0411
▁استوایی	-12.0412
▁آغ	-12.0423
▁۱۸۸	-12.0432
روس	-12.0435
اشک	-12.0441
پرستانه	-12.0448
▁محصولش	-12.0461
تامی	-12.0462
آمارها	-12.0462
رگوت	-12.0463
ادام	-12.0465
▁فیزیوتراپ	-12.0471
گویی	-12.0474
ستانه	-12.0482
▁افشاری	-12.0484
▁آریا	-12.0495
▁خب	-12.0496
زنده	-12.0498
نزدیک	-12.0502
▁نبو	-12.0504
▁هیو	-12.0515
مردم	-12.0523
▁صحبتها	-12.0526
▁مخاط	-12.0532
ارس	-12.0533
▁توا	-12.0539
▁لن	-12.0542
▁اصولگرا	-12.055
▁شرع	-12.0554
▁وزیری	-12.0559
خو	-12.0567
ضا	-12.0568
▁بولد	-12.0575
رساز	-12.0577
افراد	-12.0578
ماشین	-12.0581
▁بوهای	-12.0582
اجرای	-12.0582
پالا	-12.0582
زر	-12.0583
▁حوا	-12.059
یال	-12.0593
رگذشت	-12.0594
شرایط	-12.0597
فعالیت	-12.0603
▁؛	-12.0607
▁لوس	-12.062
ودن	-12.062
کلی	-12.0626
▁کاپ	-12.0631
بنیا	-12.064
بیماری	-12.0642
▁بکار	-12.0642
خارج	-12.0649
▁بازن	-12.0651
▁نزن	-12.0652
▁محو	-12.0652
رمند	-12.0653
ینک	-12.0676
▁آرت	-12.0685
▁۱۲۶	-12.0685
۸۱	-12.0689
پانی	-12.069
مختار	-12.0691
▁پرد	-12.0694
▁ند	-12.0701
ویو	-12.0704
مق	-12.0714
انند	-12.0724
خیز	-12.0727
▁سوت	-12.0733
▁بده	-12.0735
▁پیکا	-12.075
▁سب	-12.0753
▁موفقی	-12.0754
▁نابینا	-12.0761
قدیم	-12.0763
▁باش	-12.0769
ازهای	-12.0777
عربستان	-12.078
کتاب	-12.0786
صراف	-12.0789
▁قضا	-12.0792
روزهای	-12.0795
سیاسی	-12.0798
قد	-12.0807
ندگی	-12.0809
صادرات	-12.0811
آزمایش	-12.0812
اسرائیل	-12.0821
۶۱	-12.0824
▁نوزدهمی	-12.0826
قوی	-12.0826
بازیکنان	-12.0836
نقدر	-12.0836
طوری	-12.0843
محدودیت	-12.0845
▁نشا	-12.0858
▁مدرنی	-12.0862
زستان	-12.0862
حمدرضا	-12.0866
قطع	-12.0884
سپاه	-12.0887
▁لغز	-12.0892
▁امیرم	-12.0894
بحران	-12.0904
▁خودرا	-12.0918
مسئول	-12.0923
متوقف	-12.0928
ورزشگاه	-12.093
▁اسکا	-12.093
▁خطری	-12.0932
صلاح	-12.0932
متاز	-12.0935
▁العم	-12.0937
صیر	-12.0944
برت	-12.0944
▁هفده	-12.0946
چاق	-12.0946
احسا	-12.0946
نهادهای	-12.0955
ناتالی	-12.096
خبرنگار	-12.0968
تانک	-12.0969
▁چپگرا	-12.0969
اتهام	-12.0971
سقوط	-12.0972
جنگ	-12.0972
فضای	-12.0973
سوری	-12.0975
دالر	-12.0988
▁مدا	-12.0988
نگاه	-12.0992
درخواست	-12.0997
▁موثرتر	-12.1
فرصت	-12.1004
▁دروغگو	-12.1005
▁رادو	-12.1007
انیس	-12.1008
اظهارات	-12.1012
▁اشع	-12.102
▁کارهایش	-12.1024
▁نیاب	-12.1028
ربط	-12.103
▁فاین	-12.103
هان	-12.1032
لار	-12.1037
سوئیس	-12.1041
حکام	-12.1042
▁پاتری	-12.1045
رکود	-12.1049
کاملا	-12.105
▁شیاد	-12.1052
فای	-12.1053
قسمت	-12.1056
▁جولیا	-12.1058
توییت	-12.1059
عل	-12.106
▁نیروها	-12.106
▁گیران	-12.1061
▁یوت	-12.1066
وبی	-12.1067
اشته	-12.1068
موارد	-12.1068
ریتز	-12.107
کشف	-12.1074
یوونتوس	-12.1078
▁اسکان	-12.1079
ورو	-12.1082
مشاور	-12.1083
لحظ	-12.1083
امارات	-12.1086
خودروهای	-12.1087
اختلال	-12.1088
جاز	-12.1092
▁سواد	-12.1095
▁الن	-12.1096
۳۸	-12.1096
▁تحر	-12.1096
اسپوت	-12.1098
ساعات	-12.1103
نژادپرست	-12.1104
▁کوو	-12.1109
کاوشگر	-12.111
خانی	-12.1115
پذیرفته	-12.1116
واقعیت	-12.1118
خبرنگاران	-12.1119
▁آرنو	-12.1124
آرامکو	-12.1125
پیرلو	-12.1129
انتقادات	-12.1131
سولار	-12.1139
اسحاق	-12.114
رعه	-12.1147
مستند	-12.1149
ایف	-12.115
وشن	-12.1151
عبدالله	-12.1154
حبیب	-12.1157
ایکون	-12.1157
نگل	-12.1157
سنا	-12.1157
▁پناهجو	-12.1163
▁اکرم	-12.1165
فراگ	-12.1174
رسون	-12.1176
عزیز	-12.1177
رییس	-12.118
قبلا	-12.118
▁جادو	-12.1181
کریس	-12.1187
ربکا	-12.1192
▁جل	-12.1195
باستان	-12.1196
▁بک	-12.12
جنسی	-12.1211
سارا	-12.1211
▁شنید	-12.1212
رانگ	-12.1215
▁خسرو	-12.1217
▁سوکا	-12.1218
▁کوتاهتر	-12.122
پانز	-12.1222
مرح	-12.1231
▁طاه	-12.1239
غوری	-12.1252
نوشت	-12.1253
کیهان	-12.1257
نیاز	-12.1261
کلیف	-12.1263
ناوگان	-12.1265
مکرون	-12.1269
▁استانهای	-12.1277
▁بازنگشت	-12.1279
۸۷	-12.128
▁جمل	-12.1286
▁قضائی	-12.1287
نار	-12.1288
ناتان	-12.1291
▁تروریست	-12.1294
▁کوش	-12.1295
پروم	-12.1297
ارتی	-12.1306
وشکن	-12.1312
▁شوخ	-12.1314
یاب	-12.1316
شاهزاد	-12.1319
تابلو	-12.132
شهرت	-12.132
▁گوسفند	-12.132
▁مواج	-12.1322
▁۷۱	-12.1323
▁شیرها	-12.134
زهای	-12.1343
▁خدای	-12.1344
گمش	-12.1346
امک	-12.1348
▁حالش	-12.1349
▁تلا	-12.1351
۳۴	-12.1352
▁کد	-12.1352
▁کتا	-12.1352
کرده	-12.1353
▁هموطن	-12.1356
▁هجدهمی	-12.1362
الیزا	-12.1363
غلو	-12.1368
انتقالات	-12.1368
▁هیچگ	-12.1375
▁باگ	-12.1376
ویا	-12.1386
اندی	-12.1389
تص	-12.1391
بیورن	-12.1394
لز	-12.1398
لخ	-12.1401
سیاست	-12.1402
▁الاح	-12.1405
▁..	-12.1409
اسکار	-12.1417
اسیرو	-12.1418
▁غواص	-12.1419
▁واژگ	-12.1421
تعدد	-12.1426
▁جوری	-12.1428
▁میشود	-12.143
▁ردیفی	-12.1434
▁مکاتب	-12.1436
▁فض	-12.1438
▁بخوان	-12.1444
▁مطبوع	-12.1444
ندگرن	-12.1448
▁پرور	-12.1451
▁گروهها	-12.1456
▁کاو	-12.1457
▁بیولوژی	-12.1458
▁کوئ	-12.146
▁الشع	-12.1462
▁بلایندرز	-12.1463
▁بورکینافاسو	-12.1463
▁رامهرمز	-12.1463
▁سوسیالیست	-12.1463
▁طنزپرداز	-12.1463
▁مرتضوی	-12.1463
▁هژمون	-12.1463
▁انقباض	-12.1463
▁سریلانکا	-12.1463
▁ولاسکز	-12.1463
▁ترائوره	-12.1463
▁دزفول	-12.1463
▁سوبرانا	-12.1463
▁پورنوگرافی	-12.1463
▁بشنوند	-12.1463
▁دگرباش	-12.1463
▁سانفرانسیسکو	-12.1463
▁مغانلو	-12.1463
▁پرینسخرا	-12.1463
▁یوردانس	-12.1463
▁سرخپوشان	-12.1463
▁پرسورینس	-12.1463
▁قیراط	-12.1463
▁غیاث	-12.1463
▁رستگار	-12.1463
▁سارقان	-12.1463
▁سانتیاگو	-12.1463
▁ویسکانس	-12.1463
▁سمنزا	-12.1463
▁محتکر	-12.1463
▁مصائب	-12.1463
▁فرخزاد	-12.1463
▁بپرسید	-12.1464
▁جانبازان	-12.1464
▁عواطف	-12.1464
▁سوینتن	-12.1464
▁ناآشنا	-12.1464
▁نذری	-12.1464
معجزه	-12.1464
▁هولدینگ	-12.1464
▁گلاسگو	-12.1464
▁نوترینو	-12.1464
▁بازوبند	-12.1464
▁وسعت	-12.1464
▁بیاموز	-12.1464
▁سوراخ	-12.1464
▁غیرمجاز	-12.1464
▁هکتار	-12.1464
▁آسایشگاه	-12.1464
▁تظاهرکنندگان	-12.1464
▁لوکزامبورگ	-12.1465
▁نافرجام	-12.1465
▁هیوستون	-12.1465
▁اساتید	-12.1465
▁اوتیسم	-12.1465
▁سرامیک	-12.1465
▁روزافزون	-12.1465
▁برلیناله	-12.1466
▁برسانیم	-12.1466
▁انهدام	-12.1466
▁جماعت	-12.1466
▁انسداد	-12.1466
▁هیلتون	-12.1466
▁بغل	-12.1467
▁مکوندی	-12.1467
▁شوشتر	-12.1467
▁الفبا	-12.1467
▁ناخدا	-12.1467
▁خمیس	-12.1467
▁ستمگر	-12.1467
▁مترمکعب	-12.1467
ارزپاشی	-12.1468
▁غیرعمد	-12.1468
▁فرازمینی	-12.1468
▁الخروج	-12.1468
▁غیرمعمول	-12.1468
▁سهمگین	-12.1469
▁مقاطع	-12.1469
▁مادربزرگ	-12.1469
▁ستیزانه	-12.147
▁ارنست	-12.147
▁دفعات	-12.1471
دریچ	-12.1471
▁شیرجه	-12.1473
▁بیاییم	-12.1473
▁مصادیق	-12.1473
▁مشکاتیان	-12.1474
▁سیندمی	-12.1474
▁شیطان	-12.1475
▁خیری	-12.1476
▁آتلانتا	-12.1477
▁۱۳۸۶	-12.1478
▁کیس	-12.1478
▁بازگردم	-12.1479
▁مالزی	-12.1479
▁مرورگر	-12.148
▁معابد	-12.1481
▁شئون	-12.1481
▁بنویسد	-12.1482
▁قراداد	-12.1483
▁مقبول	-12.1483
▁دیلن	-12.1483
▁۱۹۴۴	-12.1484
▁دلهره	-12.1484
▁مولایی	-12.1485
▁همینگوی	-12.1485
▁سفیدپوست	-12.1486
▁کانتونا	-12.1486
▁خودخواهانه	-12.1487
▁زهیر	-12.1488
▁باغبان	-12.1489
▁کالینگ	-12.1489
دوش	-12.149
▁موزیکال	-12.149
▁عبرت	-12.149
▁آسپر	-12.1494
▁نگیرد	-12.1494
▁ایرویز	-12.1495
▁پرالتهاب	-12.1495
▁قعر	-12.1495
▁روانشناس	-12.1496
پدر	-12.1497
▁خرابکارانه	-12.1498
▁تمیز	-12.1498
▁عابران	-12.1498
▁۲۶۶	-12.15
▁ونچ	-12.15
تقی	-12.1501
▁ترفتال	-12.1502
▁ماریو	-12.1502
▁زیربنا	-12.1502
▁باروک	-12.1502
▁بنرهای	-12.1504
▁منکین	-12.1504
▁خورند	-12.1506
▁۲۳۹	-12.1508
▁اغما	-12.1509
▁احتمالات	-12.1509
▁گزاف	-12.151
عات	-12.1511
▁بلی	-12.1512
▁روباه	-12.1512
وین	-12.1512
▁تنبل	-12.1512
▁علیشاهی	-12.1512
▁بوفالوران	-12.1513
▁۱۷۵	-12.1516
▁بوئین	-12.1516
▁معصوم	-12.1517
کمیس	-12.1519
▁بیولوژیک	-12.1522
ئر	-12.1522
ستراح	-12.1523
▁آندریاس	-12.1524
▁سکس	-12.1525
▁بازپرس	-12.1526
▁خجالت	-12.1526
▁آزاری	-12.1528
روث	-12.1528
▁۱۹۱۸	-12.1533
▁دیسک	-12.1534
▁۱۵۵	-12.1537
▁صداقت	-12.1538
▁درمانگاه	-12.154
▁عذاب	-12.154
بازدید	-12.1547
بنوی	-12.1548
هشت	-12.1551
▁کلو	-12.1558
▁نداشتیم	-12.1558
▁خرنامه	-12.1559
▁قلمرو	-12.1561
▁امیدورا	-12.1561
▁سحرگاه	-12.1562
▁۱۲۲	-12.1565
نظار	-12.1565
▁قبایل	-12.1566
▁شوکور	-12.1566
▁شهباز	-12.1567
▁پاش	-12.1568
هالیفیلد	-12.1569
▁چهارصد	-12.157
ستردا	-12.1571
وگو	-12.1571
▁پیشگیر	-12.1571
▁سموم	-12.1572
▁گیج	-12.1573
▁شنیدنش	-12.1573
▁بامیه	-12.1574
▁میناری	-12.1574
▁ریختند	-12.1578
▁هولو	-12.1579
▁۲۶۰	-12.1579
▁پیوندند	-12.1581
▁محصور	-12.1582
مانند	-12.1582
حک	-12.1582
▁لرزاند	-12.1585
▁الگوهای	-12.1587
▁هموطنان	-12.1589
▁تحریر	-12.1592
یگ	-12.1596
لیو	-12.1596
▁گوارش	-12.1598
▁اتمر	-12.1598
نوا	-12.1598
▁ربع	-12.1605
▁ژنوم	-12.1607
▁مشهود	-12.1608
▁بگذار	-12.1608
زند	-12.1609
▁الاصل	-12.1614
▁اخطارهای	-12.1615
▁گرافی	-12.1616
▁اوساکا	-12.162
▁هالووین	-12.162
▁کورین	-12.1621
▁وفا	-12.1623
▁مجا	-12.1623
ارنوک	-12.1624
▁خوابگاه	-12.1625
▁مش	-12.1626
یعی	-12.1628
هند	-12.1631
▁مهیب	-12.1632
▁متاسفم	-12.1636
▁پرتلا	-12.1636
▁سندگرن	-12.1636
▁دارالا	-12.1637
▁رودر	-12.1639
▁تماشگر	-12.1642
نگا	-12.1642
▁گذراندم	-12.1643
پهن	-12.1643
▁عزل	-12.1645
چشمه	-12.1652
▁هورن	-12.1652
▁بسط	-12.1655
▁مفسد	-12.1655
▁مرزبان	-12.1662
▁توانمند	-12.1664
▁گمارد	-12.1671
▁مرج	-12.1674
ماد	-12.1678
▁بنام	-12.1683
▁فوتسی	-12.1683
▁اون	-12.1687
صریح	-12.1688
▁نمودار	-12.1689
تولی	-12.169
▁نط	-12.1692
راست	-12.1697
▁نگذشته	-12.1697
اسرای	-12.1698
▁هرج	-12.1698
▁ویدئوهای	-12.1701
▁پائیز	-12.1702
کمپ	-12.1702
▁هزارتومان	-12.1704
▁کبود	-12.1714
میلیا	-12.1719
ایند	-12.172
▁مخالفند	-12.172
▁ترسند	-12.1721
▁وفن	-12.1722
واگذار	-12.1723
▁کارآمد	-12.1724
یتز	-12.1727
▁یزدان	-12.173
▁دستفروش	-12.1732
▁قبرهای	-12.1734
▁انگشتان	-12.1735
▁چریک	-12.1737
▁آنجل	-12.1737
▁ماسی	-12.1737
▁شمع	-12.1737
▁نرسیدن	-12.1746
▁گردآ	-12.1746
▁فرشید	-12.1749
▁نگا	-12.1753
▁بدود	-12.1753
▁کیان	-12.1754
▁گرون	-12.176
سوار	-12.1762
۱۹۶۴	-12.1763
▁ساچ	-12.1765
▁الاه	-12.1766
▁رستم	-12.177
▁آفرید	-12.1777
▁روبات	-12.1785
▁مته	-12.1789
▁لوح	-12.1793
دس	-12.1796
هنگ	-12.1799
▁مطلق	-12.1799
▁مبه	-12.1808
▁سیری	-12.1812
▁شنای	-12.1813
حی	-12.1814
▁ایفل	-12.1822
▁مجرمان	-12.1826
▁اوتار	-12.1828
وقف	-12.1829
▁صفا	-12.183
▁فیض	-12.1833
ولاتش	-12.1834
رح	-12.1837
▁پترولی	-12.1839
فشان	-12.184
▁کلت	-12.1843
ارک	-12.1845
سالم	-12.1852
▁معذ	-12.1853
سانسور	-12.1855
▁طلاق	-12.1857
▁صدیق	-12.1859
▁راهیاب	-12.186
▁کتابخوان	-12.1864
▁حوت	-12.1867
▁کاش	-12.1871
▁خوانید	-12.1875
▁ویسل	-12.1879
لون	-12.1884
▁آبه	-12.1888
ختی	-12.1894
▁حک	-12.1895
▁پناهندگان	-12.1899
▁بزرگسال	-12.1902
▁منح	-12.1904
پن	-12.1904
خشنود	-12.1911
▁چهلم	-12.1911
العمل	-12.1915
▁روده	-12.192
نیایی	-12.1923
▁شهنا	-12.193
▁هجدهم	-12.1931
▁کورس	-12.1933
هیه	-12.1935
▁گفتم	-12.1938
یانگ	-12.1945
▁کوواکس	-12.1946
▁تهدیدات	-12.1948
▁مسیریاب	-12.196
ژن	-12.197
▁پرمخاط	-12.1971
▁جلوست	-12.1972
▁قضای	-12.1975
▁قامت	-12.1978
▁مطمئنا	-12.1981
۴۳	-12.1989
▁تخار	-12.1992
▁طبقات	-12.1992
▁سیاستگذار	-12.1993
▁همدان	-12.1995
وردی	-12.2
کولبر	-12.2004
▁خوشایند	-12.2008
▁خصوصیات	-12.2018
▁آمری	-12.2024
▁هجر	-12.2024
▁فرگوس	-12.2025
عد	-12.2035
▁کوچه	-12.2035
▁ماجراهای	-12.2038
▁فروشد	-12.2041
الج	-12.2045
▁وانگ	-12.2048
▁نبرده	-12.2048
ضی	-12.2049
▁وو	-12.2051
▁دلا	-12.2052
▁بدهیم	-12.2058
▁سالروز	-12.2061
▁تلک	-12.2063
▁جدیدش	-12.2069
▁السلط	-12.2069
▁بری	-12.2075
▁سرزن	-12.2076
مونت	-12.2076
▁منه	-12.2077
▁خندد	-12.2077
آخر	-12.2081
▁کلاسیکو	-12.2084
اویر	-12.2085
▁ترسم	-12.2089
شایست	-12.2094
▁مورخ	-12.2098
یکپا	-12.2105
ادیوم	-12.2108
▁رازی	-12.2115
▁پرتوی	-12.2128
نشری	-12.2132
روش	-12.2137
▁اینست	-12.214
▁پذیرد	-12.2141
طاع	-12.2148
سالگی	-12.2148
▁تختی	-12.2161
دری	-12.2167
سین	-12.2169
▁تاس	-12.2175
انزلی	-12.218
▁ندید	-12.2186
▁سپه	-12.2191
ارگ	-12.221
انو	-12.2213
▁پاور	-12.2215
▁الف	-12.222
میانه	-12.2235
راژ	-12.2237
دهم	-12.2237
▁نشدم	-12.2237
▁نوای	-12.2239
▁تان	-12.2246
دوم	-12.2249
▁۱۹۲	-12.2251
▁حقوقش	-12.2253
کثیر	-12.2263
▁رامین	-12.2271
▁لایک	-12.2272
غر	-12.2276
▁لیز	-12.2278
▁انگ	-12.2284
ریه	-12.2293
▁دخ	-12.2294
گور	-12.2295
دانف	-12.23
▁چاو	-12.2301
▁ارغ	-12.2302
▁رسا	-12.2325
تقبل	-12.2329
▁سندر	-12.233
▁راهور	-12.2332
▁نیلی	-12.2336
▁آسو	-12.234
کاران	-12.2342
راکت	-12.2344
تمایل	-12.2344
▁لارن	-12.2347
▁استف	-12.2357
۳۵	-12.2359
▁گزی	-12.2362
اطبا	-12.2369
زیا	-12.2372
▁لئوپ	-12.238
▁بیکاران	-12.2382
▁اندیشید	-12.2401
▁فراپا	-12.2408
نچ	-12.2412
اردو	-12.2415
▁دز	-12.2418
▁کارول	-12.2422
▁اسپا	-12.2426
لانی	-12.2429
▁وصدا	-12.2432
▁پدرو	-12.2442
▁کلن	-12.2449
جدی	-12.2453
باف	-12.2456
▁۱۸۹	-12.2458
▁ناخ	-12.2458
وئر	-12.246
▁پولدار	-12.2467
▁تراشید	-12.2468
▁شودبا	-12.2469
رضی	-12.2476
حالی	-12.2487
▁وتو	-12.2491
کات	-12.2492
گذرانند	-12.2493
اتوری	-12.2494
▁خفا	-12.2494
الیف	-12.2502
▁فدر	-12.2506
قضی	-12.2516
▁موری	-12.2519
▁وارن	-12.2526
ائوس	-12.2527
یزی	-12.2534
▁یونه	-12.2541
▁نگ	-12.2543
زود	-12.2561
▁فیزیوتراپی	-12.2564
تینگ	-12.2579
▁اولیو	-12.2579
وک	-12.2582
▁ناامیدی	-12.2583
▁مذاکراتش	-12.2585
ناوند	-12.2587
نگو	-12.2593
▁آهنگی	-12.2603
▁جووان	-12.2607
▁تز	-12.2608
اتب	-12.2621
▁گله	-12.2626
یکل	-12.2626
هرزاد	-12.263
والی	-12.2633
▁نرفتن	-12.265
▁خند	-12.2658
▁درسا	-12.2661
رل	-12.2662
▁هریس	-12.2681
▁امیلی	-12.2685
دهی	-12.2707
▁نروژی	-12.272
▁فال	-12.2722
گوید	-12.2737
ورهم	-12.2738
ولو	-12.2743
▁رکس	-12.2752
ندنی	-12.2765
فلورای	-12.2771
خاطره	-12.2772
▁نبوی	-12.2783
رنوش	-12.2783
ورود	-12.2786
▁بریز	-12.2786
▁پنس	-12.2787
نزو	-12.2798
▁زین	-12.28
▁چون	-12.2807
▁بالاست	-12.2808
▁دری	-12.2825
▁دیاب	-12.2826
▁صن	-12.2829
▁ابراهیمی	-12.2832
لزم	-12.2835
شواری	-12.2838
▁برچید	-12.2844
عطا	-12.2851
▁ایرایی	-12.2851
▁میانج	-12.2852
انستان	-12.2856
▁لین	-12.286
▁ندا	-12.2861
▁پوشا	-12.287
قطعی	-12.287
▁اصولی	-12.2876
رمد	-12.288
هیج	-12.288
گرمی	-12.2883
▁بلن	-12.2888
▁مورفی	-12.2891
▁بلندهای	-12.2894
▁معتبری	-12.2895
▁خوار	-12.29
▁استوار	-12.29
▁واکسنی	-12.2906
تحرک	-12.2906
▁گرانش	-12.2908
▁رومانیا	-12.2915
▁دوسال	-12.2917
▁بدنساز	-12.2934
▁پرستاره	-12.2937
▁رسیم	-12.2943
یکا	-12.2947
▁تسا	-12.2951
▁دوور	-12.2953
▁بنی	-12.2963
میمون	-12.297
سرع	-12.2978
اختا	-12.2988
▁لویی	-12.3007
نگر	-12.3008
ورال	-12.3008
ذخا	-12.3018
عریض	-12.3021
▁نورال	-12.3024
▁فونت	-12.3038
بسیار	-12.3044
▁افزا	-12.3045
▁مستن	-12.3047
هنه	-12.3049
▁دک	-12.3054
▁رایکو	-12.306
▁دقتی	-12.3062
ساکن	-12.3065
▁اتم	-12.3071
▁مگو	-12.3073
▁مشق	-12.3074
▁الم	-12.3078
▁آلک	-12.308
شهره	-12.3084
▁مارین	-12.3091
▁آرن	-12.3107
▁دیرین	-12.3122
▁کنسولی	-12.3123
لوف	-12.3123
▁کانا	-12.3127
میان	-12.3134
طغ	-12.3136
▁خصوصا	-12.3143
یانی	-12.3144
منت	-12.3147
▁لال	-12.317
ظاهری	-12.3173
باری	-12.3178
شهری	-12.3179
دینامیک	-12.3186
۴۰۰	-12.3188
ارپن	-12.3193
ورش	-12.3193
بوه	-12.3194
▁وود	-12.3196
یگری	-12.3205
▁رگی	-12.3206
▁بگویی	-12.3213
جدید	-12.3224
▁ایرانایران	-12.3233
▁افزو	-12.3235
▁امیدی	-12.3236
▁کوئی	-12.324
▁غزل	-12.3241
استان	-12.3244
▁بینداز	-12.3245
ضیا	-12.3245
طع	-12.3247
▁چکی	-12.3251
خه	-12.3262
ونتی	-12.3266
▁سوپ	-12.3269
ساعت	-12.3276
▁کنارش	-12.3283
▁دیا	-12.3288
▁بدان	-12.3301
▁انع	-12.3304
▁خم	-12.3307
▁دیدگ	-12.332
▁مارسل	-12.3323
▁ویلر	-12.3323
▁ائ	-12.3329
عکسی	-12.3337
متری	-12.3339
▁بستگ	-12.334
▁ببری	-12.3345
▁گول	-12.3348
▁همسری	-12.3358
▁محم	-12.3361
سکو	-12.3361
لیبی	-12.3363
▁فوب	-12.3366
ایده	-12.3378
▁سویی	-12.338
▁وز	-12.3382
▁بغ	-12.3388
▁کامر	-12.3394
▁صل	-12.3395
فعال	-12.3404
ریسون	-12.3406
▁سکوی	-12.3407
▁وزر	-12.3411
▁شوی	-12.3412
▁عمرم	-12.3415
واری	-12.3416
▁الجز	-12.3418
▁لک	-12.342
▁آنف	-12.3421
▁روا	-12.3437
غی	-12.3439
▁اط	-12.3441
▁ابط	-12.3443
بدیل	-12.346
یض	-12.3463
▁توخ	-12.3477
▁بخو	-12.3483
امگاه	-12.3488
▁فرمین	-12.3489
ورز	-12.3493
واکسن	-12.3498
گاس	-12.3504
زاق	-12.3507
کولی	-12.351
▁آنه	-12.3512
۷۸	-12.3525
اپور	-12.3527
▁داران	-12.3528
▁شار	-12.3529
رونالدو	-12.3549
▁گلشی	-12.3556
اقدام	-12.3571
▁۱۲۵	-12.3575
روسازی	-12.3581
تاریخ	-12.3588
▁بفهمی	-12.3594
جمله	-12.3595
ئوس	-12.3599
وود	-12.3601
دمان	-12.3602
قاد	-12.3605
پک	-12.361
لومین	-12.362
آقا	-12.3638
خرید	-12.3641
▁آبیار	-12.365
▁آت	-12.3654
وحه	-12.3658
ترینگ	-12.3663
ازنده	-12.3665
▁دولتها	-12.3668
▁کیش	-12.3675
خواند	-12.3678
▁هوادارن	-12.3689
صدای	-12.3689
▁۴۸۰	-12.3691
خور	-12.3693
▁پاپو	-12.3702
▁جویا	-12.3702
رسا	-12.3707
▁انبارها	-12.3718
۱۰۰	-12.3719
ئل	-12.372
▁توافقات	-12.3755
یچک	-12.3759
چیزی	-12.3768
اگ	-12.3771
جران	-12.3772
▁رویاها	-12.3779
فرد	-12.3782
▁وج	-12.3784
▁سلامتش	-12.3787
شور	-12.3788
▁متح	-12.379
قچی	-12.3793
▁کوبی	-12.3795
▁اوس	-12.3798
▁بیو	-12.3801
▁باشی	-12.3818
▁استانداردها	-12.3826
۰۹	-12.3833
▁پاها	-12.3843
پیدا	-12.385
▁گود	-12.385
یلیچ	-12.3856
بول	-12.3859
وشه	-12.3879
▁خش	-12.3883
▁نیکول	-12.3883
دونا	-12.3884
ارق	-12.3884
بازیکن	-12.3885
کمک	-12.39
▁براه	-12.3904
▁آزم	-12.3909
▁شدگ	-12.3913
▁پنداشت	-12.3913
داخل	-12.3916
ینکی	-12.3918
کارت	-12.3919
▁فرما	-12.3937
ستین	-12.3951
فور	-12.3951
تفاوت	-12.3954
حمایت	-12.3955
▁زبانه	-12.3961
▁سودی	-12.3962
ودتر	-12.3965
عیار	-12.3968
زانه	-12.3975
بودجه	-12.3975
▁دریاها	-12.3977
لاند	-12.3978
تلویزیون	-12.3978
▁خص	-12.3981
سپورت	-12.3985
▁سول	-12.399
برمی	-12.3992
یلد	-12.3993
وکس	-12.3994
ناسا	-12.4
یاد	-12.401
سترون	-12.4019
▁غز	-12.4027
سرمربی	-12.4031
تایید	-12.4036
▁حر	-12.4039
▁بز	-12.4042
▁اجسا	-12.4042
شکست	-12.4043
۸۰۰	-12.4044
قامت	-12.4051
کلاس	-12.4053
وانگ	-12.4066
شاهد	-12.4066
المپیک	-12.407
۷۷	-12.4074
سلی	-12.4076
▁حقوقدان	-12.4077
ستانی	-12.4077
میخ	-12.4088
بیانیه	-12.4092
قرارداد	-12.4094
▁جاست	-12.4096
▁جیم	-12.4097
▁پارسا	-12.41
استار	-12.41
فولک	-12.4106
راز	-12.4108
انتقال	-12.4109
وازا	-12.4121
مصاحبه	-12.4121
▁مالت	-12.4128
کوب	-12.413
▁بایس	-12.4132
▁هال	-12.4139
لیز	-12.4146
درس	-12.4152
ظریف	-12.4154
رایش	-12.4156
▁غیران	-12.4157
▁منو	-12.4173
بارسلونا	-12.4173
▁داود	-12.4183
▁سبزی	-12.4192
جین	-12.4195
▁ماجراجو	-12.4198
▁چیپ	-12.4209
برداشت	-12.4209
امید	-12.4214
هیچ	-12.4217
صحبت	-12.4219
اتکلیف	-12.4223
▁هاستل	-12.4231
واحد	-12.4231
لکس	-12.4232
اربی	-12.4233
▁ارو	-12.4233
▁تئاترها	-12.4237
نای	-12.4237
ریز	-12.4238
آتش	-12.4239
▁نظران	-12.4239
حذف	-12.4248
▁مبد	-12.4258
عملیات	-12.4263
عملکرد	-12.427
▁گنجان	-12.4274
▁زندگیش	-12.4277
سریال	-12.4277
▁کامی	-12.4278
فساد	-12.4279
آلبر	-12.428
ساخته	-12.4283
توییتر	-12.4283
چاپ	-12.4288
سپ	-12.429
خودروساز	-12.429
جدول	-12.4293
بریتانیایی	-12.4294
رابطه	-12.4295
دبیر	-12.4296
برخورد	-12.4299
عظم	-12.4302
▁ونزوئلای	-12.4307
مصرف	-12.4308
سفیر	-12.4311
بحرین	-12.4319
▁کردید	-12.4325
برزیل	-12.4326
اتاق	-12.4327
تزریق	-12.433
خواننده	-12.4331
نند	-12.4332
صعود	-12.4332
▁گلوی	-12.4333
▁نویسند	-12.4333
دیوان	-12.4336
نهایی	-12.4337
هدایت	-12.4338
سفارت	-12.4342
چار	-12.4347
معمولا	-12.4347
کمبود	-12.4348
نویسندگان	-12.4348
▁هجده	-12.4357
▁بارتو	-12.4358
دروس	-12.4365
فراموش	-12.4368
شعر	-12.4369
سرپرست	-12.4373
رئال	-12.4374
آرسنال	-12.4385
فیسبوک	-12.4385
نگران	-12.4387
نادال	-12.4387
ایسنا	-12.4388
خیابان	-12.4388
آذر	-12.4388
یاط	-12.4389
مجله	-12.4391
کاخ	-12.4392
عصر	-12.4392
متخصص	-12.4393
اطمینان	-12.4394
▁بینم	-12.4397
بازارهای	-12.4398
فولاد	-12.4399
خودکشی	-12.4399
تجهیزات	-12.4401
یدن	-12.4404
جنگل	-12.4407
▁تجار	-12.4407
الا	-12.4408
سرنوشت	-12.4411
فایزر	-12.4414
منچسترسیتی	-12.4414
▁ماورا	-12.4415
تکمیل	-12.4417
تدریج	-12.4417
▁دلی	-12.4418
▁بریم	-12.442
قت	-12.4421
عرص	-12.4423
هیوندای	-12.4425
وبسایت	-12.4435
عطرساز	-12.4436
جیمز	-12.4438
مجری	-12.4443
غریب	-12.4443
▁ناخوش	-12.4447
برخلاف	-12.4447
▁حریفش	-12.4448
کیانوش	-12.4449
حریف	-12.445
سوال	-12.445
تیرماه	-12.4453
▁عثمان	-12.4455
رونالدینیو	-12.4456
▁معتمد	-12.4457
فتاح	-12.4457
مهندس	-12.4458
جزییات	-12.4458
معمول	-12.4459
هفتم	-12.4462
بنکسی	-12.4462
یویا	-12.4463
ذب	-12.4463
ساترا	-12.4464
توتال	-12.4464
کلیسای	-12.4466
شاملو	-12.4468
تفاهم	-12.4468
▁سمرقند	-12.4469
▁هورمون	-12.447
خود	-12.4473
خالق	-12.4473
▁گرسن	-12.4476
بدهی	-12.4476
آلن	-12.4478
کوبا	-12.4479
▁تیرانداز	-12.4483
جدال	-12.4483
▁ولای	-12.4485
▁مزارش	-12.4488
جعفر	-12.449
▁تیفو	-12.449
▁۱۸۴	-12.4491
▁مضا	-12.4491
▁جهنم	-12.4493
داریوش	-12.4494
▁بازیها	-12.4496
▁واعظ	-12.4496
ارتش	-12.4498
▁وسائ	-12.4499
دیوم	-12.4501
▁محتوا	-12.4505
امشب	-12.4505
ماراتن	-12.4509
▁ادعاها	-12.4512
تماس	-12.4513
▁محدو	-12.4513
الف	-12.4514
پیکر	-12.4524
تس	-12.4525
رپر	-12.4526
آشفت	-12.4527
▁نجوم	-12.4529
▁مرب	-12.4533
مدیران	-12.4534
▁۲۱۶	-12.4536
پوش	-12.4537
▁اظهارنظرها	-12.4538
گمانه	-12.454
طالب	-12.4541
▁شغلها	-12.4548
علنی	-12.4551
▁مارکی	-12.4554
شهرهای	-12.4556
اوبر	-12.4559
نوسان	-12.4563
مثل	-12.4565
▁برازند	-12.4566
▁پابل	-12.4569
▁۶۲۰	-12.4575
نیت	-12.458
▁گرداند	-12.458
دوره	-12.4586
▁دلسوز	-12.4587
▁۲۰۷	-12.4588
▁وینفر	-12.459
وقی	-12.4593
▁غفور	-12.4595
امبو	-12.4596
امضا	-12.4602
زبور	-12.4604
وگند	-12.4605
شرط	-12.4608
▁عدل	-12.4612
▁لوب	-12.4614
اقت	-12.4626
سبک	-12.4627
گارد	-12.4638
کلت	-12.4641
پوشانی	-12.4645
▁رهن	-12.4645
▁سلب	-12.4645
▁دیپ	-12.4647
سمانی	-12.4647
دومین	-12.4651
▁فرودست	-12.4653
▁دیوارها	-12.4654
تناقض	-12.4657
ارمی	-12.4658
▁دهشت	-12.4661
مرور	-12.4664
نشدنی	-12.4669
▁اوستر	-12.467
کریست	-12.4673
▁محک	-12.4678
سبز	-12.4682
گذراند	-12.4688
دات	-12.4688
طفی	-12.4689
بالگرد	-12.4702
▁کشو	-12.4705
▁دیگ	-12.4705
▁اپلیکیش	-12.4711
▁۱۷۳	-12.4712
شمالی	-12.4716
یگز	-12.4721
رمت	-12.4729
▁تهدیدها	-12.473
سترازنکا	-12.474
▁مقاوم	-12.4741
منتف	-12.4743
▁آدمی	-12.4743
ریزش	-12.4744
ضرور	-12.4745
▁عوا	-12.475
تقابل	-12.4751
طابق	-12.4754
▁مبتلای	-12.4757
▁مقدا	-12.477
گیرش	-12.4777
▁کانتون	-12.4777
بال	-12.4778
۹۵	-12.4778
اراگوئه	-12.4788
پارتمان	-12.4789
▁ظالم	-12.479
ستراز	-12.4791
دلیلش	-12.4793
▁ابرکامپیوترها	-12.4796
▁الکترومغناطیس	-12.4796
▁سولوویوف	-12.4796
▁ناپلئون	-12.4796
▁ژئوپلتیک	-12.4796
▁همقطاران	-12.4796
▁تمسخر	-12.4796
▁غوغای	-12.4796
▁اسپانسر	-12.4796
▁اکونومی	-12.4797
▁شرمسار	-12.4797
▁پولانسکی	-12.4797
▁وبلاگ	-12.4797
▁وبیتکو	-12.4797
▁خویشاوند	-12.4797
▁متعاقب	-12.4797
▁متذکر	-12.4797
▁انسولین	-12.4797
▁تکواندو	-12.4797
▁فینچر	-12.4797
▁سمنگان	-12.4797
▁فاحش	-12.4797
▁هورایزن	-12.4797
▁نردبان	-12.4797
▁سیدابراهیم	-12.4797
▁خاستگاه	-12.4797
▁العالم	-12.4797
▁اگنس	-12.4797
▁سمفونی	-12.4797
لجستیک	-12.4797
ناملموس	-12.4797
▁مانیتور	-12.4797
▁اوکلاه	-12.4797
▁صحافی	-12.4797
▁گمپرت	-12.4797
▁تظاهر	-12.4798
▁مقننه	-12.4798
▁چهارچوب	-12.4798
▁مخترع	-12.4798
▁جوانبخت	-12.4798
▁استنشاق	-12.4798
▁بااستعداد	-12.4798
▁اسنوبرد	-12.4798
▁مهدیخانی	-12.4798
▁سربگیرند	-12.4799
▁اتوبان	-12.4799
▁خرگوش	-12.48
▁کالینز	-12.48
▁بکشاند	-12.48
▁عقوبت	-12.48
▁کربلا	-12.48
▁وصیت	-12.4801
▁مزاح	-12.4801
▁نباشیم	-12.4801
▁بمانید	-12.4801
▁فورهند	-12.4801
▁نیفتند	-12.4801
▁مقتض	-12.4801
▁مرزبندی	-12.4802
▁۵۳ساله	-12.4802
▁کلمبو	-12.4802
▁گنجایش	-12.4802
▁موتورسوار	-12.4802
▁بیندازید	-12.4802
حرمسرا	-12.4802
▁آلمادو	-12.4802
▁اوباش	-12.4802
تیاگو	-12.4802
رافی	-12.4803
▁فرازمند	-12.4804
▁پردیس	-12.4804
▁گلیزر	-12.4804
▁تشابه	-12.4804
▁آلفرد	-12.4805
▁بنشینند	-12.4805
▁حشرات	-12.4805
▁بشناسد	-12.4805
▁اوصاف	-12.4806
▁الکسی	-12.4806
▁ببخشد	-12.4806
▁قرائ	-12.4806
▁بکاهد	-12.4806
▁امثال	-12.4806
▁ضدویروس	-12.4806
▁فروزان	-12.4807
▁حیفا	-12.4807
▁درنوردید	-12.4807
▁هتلداران	-12.4807
رجب	-12.4808
▁گاندو	-12.4809
▁دستورها	-12.4809
▁پنهانکاری	-12.4809
▁پرنفوذ	-12.481
مویرگی	-12.481
▁الاغ	-12.4811
▁بصیر	-12.4811
▁آنالیز	-12.4811
▁بگریزد	-12.4811
▁قرآن	-12.4811
▁متأسف	-12.4812
▁تلاقی	-12.4812
▁قاپید	-12.4812
▁تبهکار	-12.4812
▁۱۹۱۲	-12.4813
▁دستگیرزاده	-12.4813
▁سالوادور	-12.4814
▁بیایید	-12.4814
▁اپوز	-12.4815
▁سنجاب	-12.4815
▁ومعرف	-12.4817
▁بزنید	-12.4817
▁۱۳۸۰	-12.4817
▁ابلهان	-12.4818
▁روایات	-12.4819
▁وولف	-12.482
▁۶۱۲	-12.482
▁متهیا	-12.482
▁گیگاب	-12.4821
▁عوام	-12.4821
▁بزنیم	-12.4822
▁نوازد	-12.4822
▁بیابند	-12.4822
▁بوسد	-12.4822
▁بروکلی	-12.4823
▁توکلی	-12.4824
▁گریختند	-12.4824
▁بندپی	-12.4825
▁مسیرها	-12.4825
▁بردارم	-12.4826
▁۱۹۳۹	-12.4829
▁فاسد	-12.4829
▁فد	-12.483
▁واداشته	-12.483
▁سمع	-12.483
▁فلسطینی	-12.4833
▁ریاکاری	-12.4835
▁مکاتبات	-12.4836
▁احرا	-12.4836
▁کوانت	-12.4838
▁آپارت	-12.4839
▁ولیحی	-12.4839
▁آلترن	-12.4841
▁حماسی	-12.4842
▁رهنوش	-12.4843
▁متما	-12.4845
▁شنیدم	-12.4846
▁غفار	-12.4846
▁ندانستند	-12.4847
▁بنویس	-12.4847
▁پراوی	-12.4849
▁هدفمند	-12.4851
ضلع	-12.4851
▁کولون	-12.4852
▁آق	-12.4853
ندرت	-12.4855
▁عنف	-12.4856
▁سرمست	-12.4857
لگرام	-12.4857
▁خطرهای	-12.4857
▁اولترا	-12.4858
▁هرسال	-12.4859
▁فرمایش	-12.486
▁استیشن	-12.4863
▁رافا	-12.4865
▁گذرا	-12.4868
▁طومار	-12.4868
▁ملایم	-12.4869
▁شرافت	-12.4869
▁جنایات	-12.487
▁ترفندهای	-12.4872
▁معط	-12.4881
▁نامطلوب	-12.4886
▁مگاصیص	-12.4886
▁الک	-12.4886
▁بازوهای	-12.4887
▁گاسکوئین	-12.4887
▁ولگردها	-12.4887
روژن	-12.4888
▁دوب	-12.4889
▁ناباور	-12.4889
▁گسست	-12.4889
▁هوی	-12.489
پابلیک	-12.489
▁ناظمی	-12.4891
▁نومید	-12.4891
▁گزارشش	-12.4891
▁ناراحتند	-12.4892
▁منشور	-12.4893
▁حکاک	-12.4896
▁فالک	-12.4897
▁نوگرا	-12.4897
▁متروک	-12.4899
▁آغازکرد	-12.4899
▁جالبند	-12.49
▁خیاط	-12.4901
ویتز	-12.4903
▁پردازیم	-12.4905
▁ضمیر	-12.4906
بندهای	-12.4912
▁برچی	-12.4915
▁الکترودهای	-12.4917
▁کشمیر	-12.4918
کریک	-12.4919
حکیم	-12.492
▁پوسترهای	-12.4922
▁گرانبهای	-12.4928
▁کاوش	-12.493
▁زرتشتی	-12.4931
▁کاونت	-12.4932
▁گذا	-12.4935
▁هنرش	-12.4935
▁لئون	-12.4936
▁آندریا	-12.4939
▁الاسلام	-12.4941
▁نگشته	-12.4943
▁جهانبخ	-12.4947
▁ایت	-12.4949
▁خونبار	-12.4949
ناپس	-12.4955
▁رقصیدن	-12.4957
▁پسندید	-12.4963
▁پالیس	-12.4965
▁چرخاند	-12.4965
سرگ	-12.4966
▁هملت	-12.4967
تراتو	-12.497
▁اکولوژی	-12.4971
▁۱۶۶	-12.4972
▁مسلم	-12.4972
اوج	-12.4976
▁دال	-12.4976
▁قمر	-12.4976
مالی	-12.4977
▁رادارها	-12.4978
سایر	-12.4979
▁پرفسور	-12.498
▁کوکو	-12.498
▁درانتخابات	-12.4983
▁غص	-12.4983
زیچ	-12.4984
▁تاکسیران	-12.4988
▁ربود	-12.4988
▁نرود	-12.4989
▁فقرا	-12.499
▁مشوقهای	-12.499
▁گیت	-12.4992
کشور	-12.4992
▁نزدند	-12.4993
▁ترمز	-12.4998
▁خوانیم	-12.5005
▁پاکیز	-12.5008
▁فدریک	-12.5009
یغ	-12.5011
▁خوابید	-12.5012
▁شکس	-12.5013
▁درگذشتمحمد	-12.5014
ذا	-12.5016
▁تحص	-12.5018
▁واژگان	-12.5019
▁لودو	-12.502
▁باربارا	-12.5022
▁پنتاگون	-12.5028
▁ندادم	-12.503
▁معبد	-12.5031
▁بساط	-12.5032
▁پرماجرا	-12.5032
تیس	-12.5034
توم	-12.5037
▁بپیچ	-12.504
▁آوردیم	-12.5041
▁مانورهای	-12.5041
انیا	-12.5043
▁انریک	-12.5044
▁دیوارنگار	-12.5045
▁زدیم	-12.5045
▁درخشد	-12.5048
نسل	-12.5049
▁آرمانگرا	-12.5049
▁گرکان	-12.5051
▁گردآمد	-12.5051
▁برخوردارند	-12.5052
۷۲	-12.5053
▁مبنا	-12.5053
▁فاصل	-12.5054
▁دفاعیات	-12.506
▁پهپادهای	-12.506
▁ایستادن	-12.5062
▁بازنگشته	-12.5062
یژ	-12.5063
▁جزیرو	-12.5063
ننده	-12.5071
زیاد	-12.5072
▁منصف	-12.5073
▁چشمه	-12.5073
▁حادتر	-12.5075
▁اکستر	-12.5077
بشر	-12.508
▁نیکو	-12.5082
بلنک	-12.5085
▁طالب	-12.5086
▁خیرخواه	-12.5086
چک	-12.5091
ضراب	-12.5101
▁واعظی	-12.5106
▁غیرم	-12.5108
▁مکید	-12.5116
اگرا	-12.5121
▁کاکس	-12.5129
▁بخواب	-12.5133
رسانی	-12.5135
▁یونیو	-12.515
نادر	-12.5153
▁الو	-12.5172
▁دیسکی	-12.5175
▁نوشتاری	-12.5175
پات	-12.5175
▁قدیس	-12.5182
▁نونو	-12.5186
سند	-12.519
▁روایتگر	-12.5196
▁مسج	-12.5198
▁کولا	-12.5199
▁بوتا	-12.5199
▁فرمانیه	-12.5203
▁غنای	-12.5208
چندان	-12.5209
درمانی	-12.521
نورلند	-12.521
▁ابزارک	-12.5212
رفتار	-12.5215
▁کینگز	-12.5218
▁فیروزجا	-12.5229
▁داکا	-12.523
بنز	-12.523
▁مارکان	-12.5232
▁نگارم	-12.5233
▁کوهنوردان	-12.5233
زارها	-12.5233
تعدادی	-12.5235
نسان	-12.5241
▁چغا	-12.5243
فهیم	-12.5243
▁پولها	-12.5247
گزین	-12.5254
▁خسروی	-12.5255
▁رحیم	-12.5255
▁فتوا	-12.5256
کیا	-12.5263
چیان	-12.5263
▁درمیان	-12.5266
▁سیستانی	-12.5269
فراز	-12.5271
هاوس	-12.5276
▁عرق	-12.5276
▁نقدهای	-12.5277
▁آغازکرده	-12.5278
هشتم	-12.5281
تورباز	-12.5282
▁اندبا	-12.5283
▁ترها	-12.5286
▁آمیزش	-12.5287
▁حسی	-12.5289
پذیری	-12.5294
▁سودده	-12.5294
انجیر	-12.5302
اقبال	-12.5305
▁بلندق	-12.5306
نگی	-12.5308
لینک	-12.5313
▁ث	-12.5315
تناب	-12.5317
اح	-12.5321
انح	-12.5321
▁پرداختن	-12.5322
▁نوده	-12.5327
▁لیورپولی	-12.5328
قایق	-12.5332
ونیک	-12.5334
▁لاین	-12.5335
▁وک	-12.5342
▁کورن	-12.5344
▁سلط	-12.5349
▁پیوستند	-12.5353
▁کراش	-12.5354
شناخت	-12.5356
▁همنوا	-12.5361
کای	-12.5368
وانا	-12.5375
جرد	-12.5376
▁زیردریا	-12.5381
▁هرچیز	-12.5384
سیلو	-12.5385
صالحی	-12.5389
▁جرئ	-12.5395
آمده	-12.5398
چس	-12.5401
کلاسی	-12.5402
▁بردیم	-12.5403
▁وینس	-12.5405
کشید	-12.5405
▁مواجهند	-12.5408
▁کولاک	-12.5414
حانی	-12.5419
▁هنرپیشگ	-12.5422
خنده	-12.5425
▁تحم	-12.5425
▁تکراری	-12.5431
▁متش	-12.5432
سارو	-12.5435
اشتن	-12.544
▁میلو	-12.5442
سک	-12.5445
لابی	-12.5448
▁جوانب	-12.545
▁حوز	-12.5451
ادزه	-12.5457
▁بروی	-12.5459
هیز	-12.5459
▁شنوند	-12.5462
وث	-12.5467
پشتکاری	-12.5468
▁دفع	-12.5474
شیده	-12.5476
ثه	-12.5488
مس	-12.5492
تژیک	-12.5493
دافع	-12.5494
اکبری	-12.55
▁شیعی	-12.55
▁شهرنشین	-12.5501
▁بیدگ	-12.5507
▁دروغگوی	-12.5507
ستحکم	-12.5508
▁خاطراتی	-12.551
فاخر	-12.551
امرویل	-12.5514
▁منس	-12.5515
▁کیلی	-12.5521
▁نپرداخت	-12.5522
▁اینترف	-12.5526
جمعی	-12.5527
عود	-12.5529
▁استانها	-12.553
▁نشرات	-12.5533
رند	-12.5534
پسون	-12.5544
قطب	-12.5547
▁خونی	-12.5549
▁سرکو	-12.5566
▁استکه	-12.5569
فرمانی	-12.5577
▁انف	-12.5582
خدم	-12.5583
▁موزی	-12.5584
خوف	-12.5585
▁فرشت	-12.559
ثمی	-12.5593
▁مکزیکو	-12.56
امور	-12.56
▁تازیان	-12.5601
▁حسابش	-12.5602
نتین	-12.5603
وصدا	-12.5603
▁اجراست	-12.5604
▁لارو	-12.5609
کلا	-12.5609
نواختر	-12.5612
ئیت	-12.5622
گفتگوی	-12.5622
۷۱۰	-12.5623
▁چپگرای	-12.5627
▁برو	-12.5634
▁پلاکاردها	-12.5639
▁دایم	-12.5644
▁کنج	-12.5644
▁مولد	-12.5647
▁دمید	-12.5649
▁مم	-12.5651
▁چول	-12.5655
▁لورن	-12.5657
▁فاخر	-12.5658
▁آنتو	-12.5659
▁لگو	-12.5663
▁شهره	-12.5667
▁بشویی	-12.567
سکین	-12.5676
▁۲۰۶	-12.5677
پیک	-12.5681
▁ماجراجوی	-12.5687
▁فرمانی	-12.569
رسیده	-12.5692
▁بادام	-12.5692
همراه	-12.5694
فوتبال	-12.5695
خدایی	-12.5696
پار	-12.5706
▁پوسید	-12.5717
▁یادگاری	-12.5719
ریف	-12.5721
لغ	-12.5725
ذه	-12.5726
تیر	-12.5727
پال	-12.5733
ضمن	-12.5734
▁همدم	-12.5739
▁پسند	-12.5743
▁خوردند	-12.5747
وزش	-12.5751
▁سندی	-12.5753
▁ماهان	-12.5755
▁منش	-12.576
خالی	-12.5761
۶۸	-12.5766
▁آسیاب	-12.5776
ندا	-12.578
▁میمن	-12.5782
▁دارن	-12.5787
▁روست	-12.5799
▁گذرانی	-12.58
▁ژر	-12.58
▁آئ	-12.5801
وتنبرگ	-12.5801
▁دلخو	-12.5807
قطر	-12.5812
الیس	-12.5818
نسی	-12.582
یتی	-12.582
▁سالخورد	-12.5821
طب	-12.5835
▁هادی	-12.5835
▁کارتونی	-12.5843
▁میکردند	-12.585
نوری	-12.5853
عرض	-12.5856
▁لیر	-12.5857
▁برنج	-12.5858
▁نابینای	-12.5868
چهل	-12.587
وخته	-12.5871
▁پریان	-12.5871
نازل	-12.5875
▁بالدار	-12.5889
ارتوم	-12.5891
▁انگیزش	-12.5894
▁اروپای	-12.5896
▁بیند	-12.5898
▁برسید	-12.5898
ریال	-12.5908
▁بازد	-12.5908
▁آرکا	-12.5918
▁خف	-12.592
لنگر	-12.5921
ماگو	-12.5925
توت	-12.5925
رباب	-12.5927
یافت	-12.5929
قل	-12.5929
جیح	-12.5932
بشار	-12.5941
▁نع	-12.5949
واضع	-12.5951
▁دخترم	-12.5952
▁عواقبی	-12.5954
انتری	-12.5962
اخ	-12.5964
▁خودس	-12.5968
▁رزمند	-12.5973
▁اورک	-12.5975
▁زهی	-12.5978
▁تصو	-12.5984
▁بخوانی	-12.5994
دنی	-12.5996
▁تورب	-12.5997
▁پتر	-12.5997
یته	-12.5999
▁تایلندی	-12.6001
▁دات	-12.6003
▁کولبری	-12.6004
▁استکمی	-12.6006
▁پودر	-12.6013
یادی	-12.6014
حسا	-12.6016
▁سوک	-12.6016
۰۵	-12.6018
▁رک	-12.6023
▁نبردی	-12.6025
▁هرل	-12.6026
▁دوک	-12.6028
۳۶	-12.6037
▁کیفی	-12.6042
▁اض	-12.6045
▁زب	-12.6046
▁نیستید	-12.6046
رسانده	-12.6056
▁شغلهای	-12.6059
کاب	-12.6064
رصدخان	-12.6067
لیدی	-12.6069
▁برآن	-12.6072
سرین	-12.6075
نیتو	-12.6086
▁ایروان	-12.6091
▁فریبی	-12.6095
اینس	-12.6099
▁ابرها	-12.6106
لاشی	-12.6107
▁شدبا	-12.6111
▁لیپ	-12.6112
▁کمپا	-12.6117
اذب	-12.6123
▁افغانی	-12.6126
دورا	-12.6131
▁بکنند	-12.6135
جلس	-12.6135
▁هچ	-12.6137
تگان	-12.6145
رستان	-12.6148
▁گنجه	-12.6151
دبی	-12.6163
خونی	-12.6169
اتمی	-12.6169
تح	-12.6177
نالد	-12.6177
وانیم	-12.6178
وکلا	-12.6185
▁شبان	-12.6189
▁سفال	-12.6192
شکر	-12.6201
▁کنگو	-12.6205
▁جهانگرد	-12.6207
گانی	-12.6208
▁کریستین	-12.6208
استیتس	-12.6208
▁نیرومندتر	-12.6211
دگار	-12.6215
▁میزبانان	-12.6218
پیشه	-12.6226
▁هیپستره	-12.6227
مایند	-12.623
اسا	-12.6231
▁زیرپا	-12.6232
▁بنزم	-12.6235
کاک	-12.6238
۳۹۰	-12.624
▁افسرد	-12.6251
جروم	-12.6253
▁سالفورد	-12.6259
▁اتفاقا	-12.626
شانس	-12.626
▁تسل	-12.6262
▁نامت	-12.6265
▁دستورات	-12.6268
لسل	-12.6279
▁آوریم	-12.6282
▁منجی	-12.6284
فتند	-12.6284
چای	-12.6292
▁برجست	-12.6307
▁غیرقا	-12.6324
▁یوس	-12.633
▁دق	-12.634
لوی	-12.6344
▁اکسپو	-12.6353
رسد	-12.6357
وشش	-12.6358
▁روپر	-12.636
رار	-12.638
▁درگذشتم	-12.6399
افزون	-12.6399
▁هندو	-12.6399
چهارم	-12.6407
▁کریک	-12.6418
▁باختن	-12.6421
▁کرای	-12.6422
کرون	-12.6431
بریز	-12.6437
۰۱	-12.6438
رنجر	-12.6441
▁فهمیدن	-12.6446
گشایش	-12.6449
▁اوجی	-12.645
▁عزیزانم	-12.6463
▁مفتو	-12.6463
▁بازیکنانش	-12.6465
▁اوکا	-12.6469
▁دستیار	-12.6474
انده	-12.6475
▁سط	-12.6478
ترونیک	-12.6492
تعی	-12.6501
▁آسمانی	-12.6503
ژیل	-12.6506
▁دیری	-12.6515
وژان	-12.6517
لنگ	-12.6519
▁آورید	-12.6522
زمین	-12.6523
▁ویرجین	-12.6525
سماع	-12.653
تراپی	-12.6535
وتیو	-12.6539
▁ویلی	-12.654
ورگ	-12.6546
یدا	-12.6547
▁موید	-12.6554
رید	-12.6561
▁فراو	-12.6563
▁ماد	-12.6565
▁ماهیان	-12.6569
مش	-12.6569
زمن	-12.6587
اروس	-12.6591
▁لینگ	-12.6592
لمن	-12.6599
▁الط	-12.6604
ریتا	-12.6606
اچ	-12.6607
▁کتابدار	-12.6615
رول	-12.6615
▁گوتر	-12.6618
▁رادیکا	-12.6621
دآور	-12.6622
حا	-12.663
▁خریدند	-12.6632
▁خی	-12.6633
الان	-12.6636
سیدن	-12.6639
▁رابی	-12.6641
چنان	-12.665
▁پولاد	-12.6655
عابد	-12.6655
ایرانی	-12.6658
▁کوارت	-12.666
فاج	-12.6661
▁اکت	-12.6664
سترش	-12.6666
▁ترساند	-12.6687
▁تامی	-12.6702
▁وایل	-12.6708
▁علام	-12.671
اولیو	-12.6715
▁نظار	-12.6715
▁جنگیدن	-12.6718
یری	-12.6724
▁گیرم	-12.6734
نال	-12.6744
دول	-12.6746
▁ریچ	-12.6758
حریم	-12.6758
▁بوات	-12.676
۶۶	-12.6766
▁بارس	-12.6766
▁جنگید	-12.6766
۶۰۰	-12.6767
▁فرجی	-12.677
قویا	-12.6782
▁شورشی	-12.6792
▁نفربر	-12.6792
▁اسکور	-12.6794
شمن	-12.6798
▁غی	-12.6804
▁بلوم	-12.6813
داگ	-12.6815
۱۱۲	-12.6815
یمز	-12.6819
▁شناورها	-12.682
وما	-12.6832
کونی	-12.6837
ولین	-12.6838
▁نواخت	-12.6839
▁سیلا	-12.6839
▁عص	-12.6842
زیت	-12.6849
▁پاشید	-12.6852
فکر	-12.6874
▁افتند	-12.6875
▁فره	-12.689
▁اندی	-12.6899
▁بای	-12.6913
▁فلین	-12.6925
اصله	-12.6926
وسط	-12.6927
▁۶۳۰	-12.6929
اوا	-12.6935
▁مثا	-12.6939
موم	-12.6941
نفوس	-12.6946
▁کون	-12.6949
▁ستود	-12.6955
▁تراش	-12.6956
▁سینا	-12.6961
▁دزدید	-12.697
ردین	-12.697
شیروان	-12.6972
۱۴۶	-12.6973
ناور	-12.698
▁پیشا	-12.6984
▁هنک	-12.699
▁کرونایش	-12.699
▁مرک	-12.6992
یکن	-12.6993
خواهانه	-12.7003
وشیرو	-12.7004
▁اعلا	-12.7004
بوده	-12.7008
۸۰۰۰	-12.7009
مام	-12.7012
نگاره	-12.7019
ایم	-12.7025
صادف	-12.7028
▁آخ	-12.7036
۰۲	-12.7039
▁فلا	-12.704
وجیه	-12.7047
ارسا	-12.7048
نترل	-12.7049
۱۲	-12.7049
شخصی	-12.7055
برند	-12.7055
▁چسبی	-12.706
▁غای	-12.7072
کسوت	-12.7077
▁نفی	-12.7084
یرجان	-12.7103
▁رق	-12.7111
نزی	-12.7122
افق	-12.7123
▁جبار	-12.7125
▁لول	-12.7129
▁تریک	-12.7138
ونس	-12.714
عمر	-12.7146
کنی	-12.7151
ولتی	-12.7164
یای	-12.7179
دوگا	-12.718
رال	-12.7182
▁ناگ	-12.7188
▁رکن	-12.7189
▁ماهر	-12.7193
۵۱	-12.7197
▁بازدیدها	-12.7199
۵۵	-12.7203
طلس	-12.7208
▁السی	-12.722
اپار	-12.7224
▁غیربورسی	-12.7246
نوار	-12.7247
رض	-12.7248
▁فون	-12.7253
▁نیمرخ	-12.7256
▁حم	-12.7257
وناک	-12.727
▁چت	-12.7279
▁تدا	-12.7287
لائو	-12.729
خواهر	-12.7335
رایان	-12.7338
دیتر	-12.7347
▁بطر	-12.7349
صدا	-12.7352
▁کوما	-12.7355
تعارف	-12.7361
گرفت	-12.7364
کرات	-12.7372
گردند	-12.7379
گار	-12.7384
▁داس	-12.7385
▁دوروت	-12.7388
▁ایگ	-12.7391
▁شکا	-12.7401
افی	-12.7401
یزلی	-12.7406
دلار	-12.7415
درومن	-12.7425
▁صو	-12.7432
▁مخا	-12.7432
▁دلت	-12.7443
▁روبل	-12.7444
▁متص	-12.7451
کاظمی	-12.7454
▁لج	-12.7462
▁جوانتر	-12.7463
▁همت	-12.7467
یوآ	-12.7474
أت	-12.7475
صفر	-12.7479
ثر	-12.748
▁دهن	-12.7485
گلدار	-12.7507
لوگر	-12.7509
زندگان	-12.7517
رآمیز	-12.752
زلی	-12.7528
دفو	-12.7537
یدند	-12.7539
▁برگردان	-12.7542
▁نقاشان	-12.7543
▁صعودش	-12.7559
چر	-12.7562
نکو	-12.7565
رآواز	-12.7567
▁لور	-12.7572
▁چشمک	-12.7587
▁رفتارش	-12.76
▁تبعیدی	-12.7612
هستند	-12.7615
۵۰۰	-12.7616
▁کندی	-12.7619
نوم	-12.7623
زوئ	-12.7628
سگ	-12.7633
▁یوور	-12.7639
▁خاو	-12.765
برا	-12.7655
چهر	-12.766
▁نمودن	-12.766
الش	-12.7674
چمن	-12.7678
دوی	-12.7687
پرت	-12.7693
فرام	-12.7705
اطی	-12.7708
ئیل	-12.7711
▁منامه	-12.7718
▁آپار	-12.773
▁۱۵سال	-12.7749
جهانی	-12.7751
▁مدی	-12.7761
توپ	-12.7766
رصد	-12.7783
ریش	-12.7784
▁افراز	-12.7786
▁صفی	-12.7794
▁دایان	-12.7798
یران	-12.7805
خری	-12.7808
▁بهم	-12.7813
کورا	-12.7815
▁هیپستر	-12.7821
▁مشخصا	-12.7822
توان	-12.783
▁عس	-12.7867
ستقر	-12.7873
▁نتوا	-12.7877
فرشی	-12.7879
تف	-12.7887
سور	-12.7892
یابان	-12.79
▁کلانی	-12.7904
▁ارس	-12.7906
▁فلای	-12.7914
▁۱۲۷	-12.7921
▁زیرین	-12.7921
▁گردی	-12.7922
▁حائ	-12.7937
اگان	-12.7945
قیاف	-12.7956
▁مالدار	-12.7969
▁غیرمت	-12.7975
وزه	-12.798
اص	-12.7982
▁سیو	-12.7982
وستان	-12.7988
روهای	-12.7989
▁آلبا	-12.8011
لوم	-12.8017
نورد	-12.8022
تز	-12.8025
▁گردان	-12.8042
ورده	-12.8045
▁دره	-12.8046
▁ناکا	-12.8049
دز	-12.8056
▁چیزور	-12.8056
▁لوین	-12.8067
یما	-12.8069
▁شکو	-12.8076
هده	-12.8078
اطل	-12.8084
لکت	-12.8088
انجی	-12.8093
پنجاه	-12.8095
▁ایمیل	-12.8096
▁آموختن	-12.81
نعط	-12.81
انگر	-12.8103
▁ناهم	-12.8107
▁دوجا	-12.8118
سمی	-12.813
یکصد	-12.8131
▁تجر	-12.8138
مج	-12.8145
بدین	-12.8148
آینده	-12.8156
گوش	-12.8161
▁آلیس	-12.8164
▁بلد	-12.8172
▁بهمین	-12.8178
▁هزاره	-12.8179
آزاد	-12.8183
هرام	-12.8184
رویش	-12.8185
▁باک	-12.8189
روا	-12.819
رع	-12.8208
▁ذهنم	-12.8211
▁امروزی	-12.8211
ساندر	-12.8214
ستن	-12.8219
یور	-12.8229
▁۱۵۲	-12.8232
▁مگن	-12.8232
▁نهی	-12.8238
▁ویچ	-12.8251
▁ادین	-12.8251
▁وایلر	-12.8252
▁فینل	-12.8254
روحانی	-12.826
آیی	-12.8263
مراه	-12.8264
سد	-12.8268
▁جوانش	-12.8269
وینچ	-12.8273
▁موتورس	-12.8276
گردیده	-12.8278
▁رودخ	-12.8283
▁رهنو	-12.8288
▁رادار	-12.8297
رابی	-12.8304
▁سالگ	-12.8308
کنار	-12.8312
روزی	-12.8316
ربه	-12.8317
▁دشوارتر	-12.8337
عفو	-12.834
ماینر	-12.8347
▁فقیرتر	-12.8361
▁درآمدش	-12.8362
▁سرگ	-12.8367
تغییر	-12.8369
▁رسیدم	-12.8382
▁سلمانی	-12.8384
باغ	-12.8384
ویت	-12.8396
▁لیب	-12.8409
انگیزترین	-12.8411
وفق	-12.8434
تکین	-12.8441
ناعت	-12.8448
ژدهای	-12.8457
برابر	-12.8463
▁نار	-12.8468
دیبه	-12.8471
▁سایتش	-12.8474
وای	-12.8476
میلادی	-12.8477
یابد	-12.8482
سوخته	-12.8482
نواز	-12.8482
روم	-12.8483
▁عز	-12.8491
▁کمکها	-12.8493
▁تشخیصی	-12.8499
▁بنگا	-12.8502
دانش	-12.8505
الین	-12.8506
آمدن	-12.8511
▁حمایتها	-12.8515
راج	-12.8516
▁لیلا	-12.8525
سینما	-12.8531
لیتو	-12.8535
کیه	-12.8541
خواهان	-12.8547
▁ندار	-12.8553
نما	-12.8554
تراژ	-12.8555
▁ریا	-12.8564
اسک	-12.8574
▁فران	-12.8578
ورزش	-12.8578
▁نست	-12.8592
نیرو	-12.8596
اندا	-12.861
▁آنگو	-12.8611
دریافت	-12.8613
کادی	-12.8615
بهر	-12.8621
یاری	-12.8624
مدار	-12.8625
▁۱۰۵	-12.8629
▁عصا	-12.8633
▁یون	-12.8644
ترامپ	-12.8656
▁تریست	-12.8659
▁بوئن	-12.8665
نهاد	-12.8673
▁همکاریها	-12.8675
▁رایک	-12.868
تایی	-12.8686
▁کسا	-12.8687
الکسا	-12.8692
نیو	-12.8709
نبه	-12.8712
استیل	-12.8712
▁آک	-12.8726
متهم	-12.8729
درینو	-12.8735
ودگی	-12.875
آم	-12.8752
▁همدست	-12.8756
جیان	-12.876
▁نورا	-12.8763
▁حرا	-12.8764
گذران	-12.8767
▁مستندهای	-12.8771
سترد	-12.8775
▁مدلی	-12.878
قاب	-12.8786
شیو	-12.8786
تباهی	-12.8795
حکومت	-12.8796
▁بازگردان	-12.8802
تامین	-12.8814
تاثیر	-12.8835
مبارز	-12.8837
ابو	-12.886
آثار	-12.8861
▁بازم	-12.8863
▁آرل	-12.8863
▁سرز	-12.8865
نیروهای	-12.8866
سپر	-12.8868
▁چندسال	-12.8872
▁بازاری	-12.8872
▁استخرا	-12.8875
فسر	-12.8876
انتقاد	-12.8885
▁ویلای	-12.8888
یورو	-12.8893
▁زل	-12.8896
وضع	-12.8903
▁درانی	-12.8904
نامزد	-12.8907
▁''	-12.8909
▁سرایی	-12.8909
▁نگفت	-12.8915
انرژی	-12.8916
▁تراشی	-12.8917
▁تاخت	-12.8924
▁کورم	-12.8929
بندند	-12.8933
گلستان	-12.8939
گسترده	-12.8939
اذ	-12.8947
دندان	-12.8952
جوان	-12.896
▁سانت	-12.8961
رسیویر	-12.8965
▁سالیان	-12.8976
ارسال	-12.8977
معاملات	-12.8987
روسا	-12.8991
یکایی	-12.8995
▁دریاب	-12.8996
هاب	-12.9007
طراح	-12.9008
▁غیرع	-12.901
حرکت	-12.9011
تحریر	-12.9011
شهروندان	-12.9015
طول	-12.9019
▁مترو	-12.9019
اسکا	-12.9021
اختیار	-12.9024
▁تول	-12.9025
▁فوتو	-12.9029
قوانین	-12.9032
راس	-12.9041
دستور	-12.9043
ریاست	-12.9045
▁تنی	-12.9046
ضب	-12.9047
کوچک	-12.9052
▁کندایران	-12.9056
توسعه	-12.9057
زیتو	-12.9063
کنترل	-12.9066
امد	-12.9067
روسیه	-12.9071
واردات	-12.9072
امنیتی	-12.9073
آبان	-12.9074
تقریبا	-12.9076
عبدالم	-12.9076
▁راهبر	-12.9077
▁دکترای	-12.9077
▁شفی	-12.9078
اختلاف	-12.908
ربات	-12.908
ابات	-12.9081
خورشید	-12.9083
پارسال	-12.9084
▁۱۱۴	-12.9088
دخیل	-12.9091
چو	-12.9092
گورک	-12.9092
ابه	-12.9093
راپ	-12.9102
ماسک	-12.9102
یکشنبه	-12.9102
یتسی	-12.9103
▁کلیو	-12.9106
۲۰۲۱	-12.9107
اعدام	-12.911
▁استخوانی	-12.9112
کوتاه	-12.9113
▁مهن	-12.9113
حبو	-12.9115
▁آنتون	-12.9115
یلان	-12.9118
همیشه	-12.9124
▁مذ	-12.9127
▁پیشنهادهای	-12.9128
اندیشی	-12.9131
جشن	-12.9132
پژوهش	-12.9134
اعتراضات	-12.9134
نتر	-12.9135
▁معت	-12.9141
آرژانتین	-12.9141
رشنا	-12.9144
▁مقل	-12.9145
▁چم	-12.9146
ریل	-12.9147
پیچ	-12.9148
▁زمام	-12.9148
عط	-12.915
وبل	-12.9153
تغییرات	-12.9153
کستر	-12.9159
تحلیل	-12.9161
ساختمان	-12.9161
نفتکش	-12.9163
▁فردای	-12.9164
عمده	-12.9164
مجوز	-12.9168
ملامت	-12.9168
قدم	-12.9171
▁کارتن	-12.9174
لوئی	-12.9174
چپ	-12.9175
▁استروئید	-12.9175
مواجه	-12.9177
مجید	-12.9179
اکثر	-12.9187
سمت	-12.9194
منچستر	-12.9195
واشنگتن	-12.9199
رقم	-12.9199
علاقه	-12.9201
درمان	-12.9204
▁پائول	-12.9205
باند	-12.9205
▁مختا	-12.9208
▁انرژ	-12.9213
فهمد	-12.9214
۱۳۹۹	-12.9216
ونت	-12.9219
مدیرعامل	-12.9219
نشینان	-12.9222
▁امرال	-12.9224
▁ملیت	-12.9224
▁درآم	-12.9232
صبح	-12.9233
جزئیات	-12.9238
کتر	-12.9242
▁عب	-12.9246
کاو	-12.9249
بریت	-12.925
عوامل	-12.9258
بازنشستگ	-12.9262
▁تحقی	-12.9263
پنجشنبه	-12.9265
▁کشاندن	-12.9269
آنلاین	-12.927
خلاف	-12.9282
مدافع	-12.9282
اسطوره	-12.9283
فرزند	-12.9283
ورزشکار	-12.9283
▁درب	-12.9293
کابل	-12.9293
اصلاح	-12.9297
مشکل	-12.9299
تاسیسات	-12.93
فوریه	-12.9301
کانال	-12.9302
پرتاب	-12.9304
▁بلیک	-12.9304
سخنان	-12.9309
انندگان	-12.9312
معامل	-12.9314
تماشاگر	-12.9318
معمار	-12.9319
▁الکتریک	-12.9321
اینترنت	-12.9323
تکرار	-12.9324
شعار	-12.9325
آلودگی	-12.9327
دارایی	-12.9327
مسلم	-12.9328
پایگاه	-12.9329
فرانسوی	-12.9331
▁مخف	-12.9332
پادشاه	-12.9332
ازدواج	-12.9333
▁همجنسگرا	-12.9333
سرکوب	-12.9336
▁امروزش	-12.9337
سوئد	-12.9339
ناپذیر	-12.9342
▁پرکارت	-12.9344
روبرت	-12.9345
دسامبر	-12.9346
گواردیولا	-12.9347
▁ایرانشناس	-12.9353
الک	-12.9354
روت	-12.9354
▁خرمش	-12.9359
پرتغال	-12.9361
عشق	-12.9362
شهرداری	-12.9362
کریستیان	-12.9363
برنده	-12.9363
تحولات	-12.9364
▁نواز	-12.9364
تبعیض	-12.9365
تماشاگران	-12.9366
مدیرکل	-12.9368
برادر	-12.9369
تسلا	-12.937
شتر	-12.9373
فروشگاه	-12.9374
خاوران	-12.9374
کنم	-12.9376
پانزده	-12.9377
ویس	-12.9382
نمایندگی	-12.9382
یوب	-12.9382
کیفیت	-12.9383
خانوارهای	-12.9383
ماند	-12.9385
نابودی	-12.9387
اورتون	-12.939
دسیمون	-12.939
پاییز	-12.9392
ارج	-12.9393
سپاهان	-12.9395
استفن	-12.9397
استادیوم	-12.9397
سرزمین	-12.94
▁اسما	-12.9402
منچستریونایتد	-12.9405
▁ساسان	-12.9405
حشمت	-12.9406
اشتغال	-12.9407
خصوصا	-12.9407
▁درآو	-12.9411
▁دمش	-12.9411
بیلسا	-12.9412
بلومبرگ	-12.9417
ناو	-12.9417
ریاک	-12.9418
پزشکان	-12.942
مادرش	-12.9421
مارتین	-12.9421
مفسد	-12.9423
ویلیام	-12.9423
▁۱۵۱	-12.9423
بیروت	-12.9425
کوئ	-12.9426
واجه	-12.9426
جنایت	-12.9427
کاغذ	-12.9428
دیوار	-12.9428
ثروت	-12.9428
تسهیلات	-12.9428
کبیر	-12.9428
مبنای	-12.9429
سیاستگذار	-12.9429
چهاردهم	-12.9429
پنتاگون	-12.943
یگو	-12.943
دموکرات	-12.9431
کریسمس	-12.9432
فردا	-12.9432
پائیز	-12.9434
تکنولوژی	-12.9434
دیوارنگار	-12.9434
نل	-12.9435
لبخند	-12.9435
مزایای	-12.9436
لوکا	-12.9437
گابریل	-12.9437
سسه	-12.9438
مهاجمان	-12.9439
لاپورتا	-12.9439
کوپتر	-12.944
▁رسو	-12.9441
نهم	-12.9441
باربارا	-12.9442
ستارگان	-12.9442
فیزیکدان	-12.9442
آلزایمر	-12.9443
ایرنا	-12.9443
پینو	-12.9444
اسنپ	-12.9446
پشت	-12.9446
خرمشهر	-12.9447
تعویض	-12.9447
جمشید	-12.9447
سهراب	-12.9448
هالووین	-12.9448
الشهدا	-12.9448
اوساکا	-12.945
فستیوال	-12.945
بشنوید	-12.945
گیلبرت	-12.945
▁امیدها	-12.9451
حجت	-12.9452
فرندز	-12.9452
بنفش	-12.9452
غیر	-12.9453
▁حسگر	-12.9453
اشخاص	-12.9454
مریخ	-12.946
ذهن	-12.946
شهریار	-12.9463
▁بازجو	-12.9464
آغوش	-12.9464
جاشوا	-12.9464
پانزدهم	-12.9465
بیاید	-12.9466
گزارشگران	-12.9467
▁قزوین	-12.9468
اتری	-12.947
▁هیولا	-12.947
سندگرن	-12.947
اشرف	-12.9471
مطمئنا	-12.9471
جلسات	-12.9471
بهبود	-12.9474
سادات	-12.9475
همسایه	-12.9476
گرانتر	-12.9477
ترافیک	-12.9477
نست	-12.9477
عالی	-12.9478
بهرام	-12.9481
▁وکار	-12.9482
▁افزارها	-12.9484
▁آقاخان	-12.9484
توگراف	-12.9485
شکوف	-12.9487
پناه	-12.9489
ادعا	-12.9489
کنزو	-12.9492
بلخ	-12.9493
قبرس	-12.9496
▁شوش	-12.9498
رانندگان	-12.95
▁قبرها	-12.95
رحمانی	-12.9501
بایدن	-12.9504
باقی	-12.9504
منشا	-12.9505
▁استعفاها	-12.9507
▁نارنج	-12.9509
نصر	-12.9512
آرمی	-12.9512
نچه	-12.9513
پیتا	-12.9514
▁بلاتکلیف	-12.9514
بنیاد	-12.9514
۱۶۰	-12.9518
دادسرا	-12.9519
▁خانوارها	-12.9521
اکولوژی	-12.9525
بیز	-12.9528
▁همدل	-12.9529
اقتصاددان	-12.9534
تاس	-12.9541
فرض	-12.9541
مدارگ	-12.9541
▁دوشان	-12.9545
▁رخدادها	-12.9547
سطح	-12.9547
جیپ	-12.9549
دیر	-12.9557
کون	-12.956
▁صب	-12.956
صمد	-12.956
▁معیارها	-12.9561
پیشرفته	-12.9564
ثور	-12.9566
ناوال	-12.9567
▁هوشیار	-12.9568
نجف	-12.9569
اخترشناس	-12.9575
گفتگوهای	-12.9577
آموز	-12.958
شرف	-12.959
وارس	-12.9592
منافع	-12.9593
نماها	-12.9593
آگاهی	-12.9598
صفح	-12.9599
▁مختص	-12.9605
حاف	-12.9612
گش	-12.9612
عطف	-12.9615
انحصار	-12.9616
لطف	-12.9617
▁خاورمیان	-12.962
پپ	-12.9621
سروده	-12.9621
▁افسا	-12.9622
سکان	-12.9623
▁پروژ	-12.9624
مادران	-12.9626
▁کارآ	-12.9628
دارد	-12.963
خامت	-12.9635
ابتدای	-12.9638
▁نئ	-12.9642
▁دبیل	-12.9648
▁آه	-12.9648
▁صیا	-12.9648
▁وجوه	-12.9648
▁لئو	-12.9653
جوانی	-12.9653
دستگیری	-12.966
▁ساد	-12.966
ائونی	-12.9664
کوثر	-12.9665
ابوال	-12.9667
▁ناتو	-12.9668
▁مسلما	-12.9672
فرخ	-12.9673
درخت	-12.9678
اطب	-12.9678
▁زنم	-12.9681
حده	-12.9685
خب	-12.9687
جس	-12.9688
متیو	-12.9689
خاطرات	-12.969
▁عبدالح	-12.9691
وئیس	-12.9696
انصاری	-12.9705
حکمت	-12.9705
نتخابات	-12.9709
صبا	-12.971
هنری	-12.9714
شیری	-12.9714
▁ترانزی	-12.9714
هشتاد	-12.9716
عکاسی	-12.9722
▁جهانگیر	-12.9724
▁ترانس	-12.9724
▁تابع	-12.9726
موت	-12.9726
شرکتهای	-12.9728
گلوب	-12.9729
سینمای	-12.9734
گذرد	-12.9734
▁شراف	-12.974
▁شمرد	-12.9742
▁دوتای	-12.9747
▁الکترود	-12.9747
ذو	-12.9748
تش	-12.9754
▁بپرداز	-12.9756
▁آشتی	-12.9761
▁اکر	-12.9764
یگان	-12.9765
▁غافل	-12.9773
▁رونالد	-12.9775
▁الاجر	-12.9777
فیل	-12.9784
▁پابرجا	-12.9784
▁لرزان	-12.9785
ستاگرام	-12.9786
ضایع	-12.9788
موزگار	-12.9793
▁بشنوی	-12.9793
▁لوکزامبور	-12.9793
▁آتلانت	-12.9794
▁گالاپاگوس	-12.9796
زیرخاکی	-12.9796
ورتیکواستروئیدها	-12.9796
▁ابوظبی	-12.9796
▁اورنیتودیر	-12.9796
▁بولگاکف	-12.9796
▁ثلاثه	-12.9796
▁جوردیزج	-12.9796
▁رآکتور	-12.9796
▁رادیوتلسکوپ	-12.9796
▁سپاسگزار	-12.9796
▁متابولیک	-12.9796
▁میهایلوویچ	-12.9796
▁هادرسفیلد	-12.9796
▁هوآیفنگ	-12.9796
▁پاخاسته	-12.9796
▁یوکوکورا	-12.9796
▁بلموندو	-12.9796
▁هادیانفر	-12.9796
▁دیکتاتور	-12.9796
▁فراماسون	-12.9796
▁کامفیروزی	-12.9796
▁نپاشید	-12.9796
▁کاریکاتور	-12.9796
▁برافروختن	-12.9797
▁حوتاسفند	-12.9797
▁مالوچی	-12.9797
▁نپایید	-12.9797
▁واچارا	-12.9797
▁بورژوا	-12.9797
▁هلیکوپتر	-12.9797
▁میکروسکوپ	-12.9797
▁فانخیو	-12.9797
▁زاپاتا	-12.9797
▁زنجبیل	-12.9797
▁مدودف	-12.9797
▁رنگارنگ	-12.9797
▁ابطحی	-12.9797
▁آجرلو	-12.9797
▁پرستویی	-12.9797
▁گودرزی	-12.9797
▁بنوشند	-12.9797
▁مفاسد	-12.9797
▁فمینیست	-12.9797
▁کمرشکن	-12.9798
▁خونسرد	-12.9798
▁دایموند	-12.9798
▁فلفل	-12.9798
فتارها	-12.9798
▁آنفلو	-12.9799
▁قدرناشناس	-12.9799
▁تئودور	-12.9799
متنع	-12.9799
▁نگذارند	-12.98
▁افروختن	-12.98
▁امدادرسان	-12.9801
▁بزهکار	-12.9801
عاب	-12.9801
▁باواریا	-12.9801
▁بولیوی	-12.9801
▁ماراکا	-12.9801
▁ریزتراشه	-12.9801
▁بیاوریم	-12.9802
صمت	-12.9802
▁بنکدار	-12.9802
▁پاندمی	-12.9802
نسیون	-12.9802
▁۱۷۴۷	-12.9803
▁آسانژ	-12.9803
شبانه	-12.9803
▁صابری	-12.9804
▁حیث	-12.9804
▁هایپریون	-12.9804
▁پرچالش	-12.9804
▁ووندر	-12.9805
▁لامپ	-12.9805
▁بمانیم	-12.9806
▁لاستیک	-12.9806
▁بشناسیم	-12.9806
▁رزمندگان	-12.9806
▁الشعرای	-12.9806
▁بدردنخور	-12.9807
▁جاشو	-12.9807
▁بازگردیم	-12.9807
▁سرمنشا	-12.9809
▁گندم	-12.981
▁بالادستی	-12.9811
▁اردیب	-12.9811
▁بیکینی	-12.9811
▁دزدیدند	-12.9812
کپلر	-12.9812
▁نامتعارف	-12.9813
▁متنعم	-12.9813
بروکس	-12.9814
▁معصومانه	-12.9816
▁مائور	-12.9816
▁ببندد	-12.9816
▁کاذب	-12.9817
▁نرفتیم	-12.9817
▁مسجدی	-12.9818
▁پونت	-12.9818
▁سندیکا	-12.9819
کادمیم	-12.9819
▁خدایا	-12.982
▁بشوید	-12.982
▁کلسترو	-12.982
ستار	-12.982
▁برنگردد	-12.982
▁بسازند	-12.982
▁آسایش	-12.9822
▁فرایدی	-12.9823
▁نوازندگ	-12.9823
هنر	-12.9823
▁المپی	-12.9824
▁برمودا	-12.9824
عقوب	-12.9824
▁زوکر	-12.9825
▁جوبیل	-12.9825
▁۱۳۵۵	-12.9827
▁اوتاوا	-12.9828
ستشوی	-12.9829
▁موثق	-12.9831
▁نترس	-12.9831
▁واقف	-12.9833
▁شیمیدان	-12.9833
▁کلارین	-12.9833
شوقه	-12.9835
▁۵۵۶	-12.9836
▁فراقانونی	-12.9836
اگون	-12.9836
▁کلودیون	-12.9836
▁ضدکرونا	-12.9837
▁فلاح	-12.9838
▁موریسون	-12.9838
بارور	-12.9839
▁انجیل	-12.9839
کارزار	-12.9839
▁رخشان	-12.984
غذی	-12.9842
▁یوکو	-12.9843
▁کاسکی	-12.9843
▁درایو	-12.9844
▁نویدبخش	-12.9844
▁قبلش	-12.9845
▁نامهربان	-12.9846
▁تایماز	-12.9846
▁اوتنز	-12.9847
انگیخت	-12.9847
▁خواباند	-12.9848
▁صنع	-12.9852
▁تکریم	-12.9854
▁زردشت	-12.9855
▁عمارت	-12.9856
روسکوپ	-12.9857
پشمک	-12.9862
▁قدی	-12.9863
▁اینچنین	-12.9864
▁نرسانده	-12.9864
▁چرچ	-12.9864
▁خندند	-12.9865
▁نگذشت	-12.987
سیو	-12.9872
▁عقلانی	-12.9872
▁چاقو	-12.9874
▁جوانمرد	-12.9876
▁انجلس	-12.9877
وهنورد	-12.9877
▁قارچ	-12.9877
▁آزا	-12.9878
▁مرغوب	-12.9878
وتنز	-12.9879
▁پدربزرگش	-12.9879
▁پورنو	-12.9882
▁نشناخت	-12.9882
▁تویتتر	-12.9883
ارکان	-12.9883
▁امدادگر	-12.9884
▁لوکوم	-12.9884
▁لاهه	-12.9884
▁تعصب	-12.9892
گذرانی	-12.9893
▁برآید	-12.9893
▁آناتول	-12.9894
▁اکشن	-12.9894
▁بایستد	-12.9894
▁غواصان	-12.9897
تأسف	-12.9898
خمری	-12.9901
▁چمبر	-12.9905
▁ریسمان	-12.9912
▁بسازم	-12.9912
▁نخاع	-12.9913
▁بگریز	-12.9913
کینگز	-12.9914
رافات	-12.9914
▁سلین	-12.9915
▁پاندا	-12.9919
مزه	-12.992
▁سرآمد	-12.9925
▁تفنگدار	-12.9927
▁رئ	-12.9928
▁اختر	-12.9929
عمیق	-12.9931
▁سپی	-12.9931
▁تفریحات	-12.9932
▁پوشاندند	-12.9933
▁ایرادات	-12.9934
شمسی	-12.9935
▁گشاید	-12.9937
مگ	-12.9937
▁شهرزاد	-12.9938
حاک	-12.9939
▁اسطور	-12.994
یدگی	-12.9941
یوهان	-12.9942
▁فغان	-12.9943
▁میانمار	-12.9943
▁عابر	-12.9943
پیانیست	-12.9945
وسازی	-12.9947
▁آشتیان	-12.9948
▁یورکش	-12.995
▁ریتم	-12.9952
▁رقابتها	-12.9953
▁آدمکها	-12.9959
▁ابداعات	-12.9959
▁داوو	-12.9959
انگلر	-12.9959
۲۶	-12.9959
باکرگی	-12.996
▁گلگیر	-12.996
▁تابعی	-12.9963
رودی	-12.9965
▁باارزش	-12.9966
آندر	-12.9968
▁عمویی	-12.9971
▁دانی	-12.9974
▁انگی	-12.9976
▁نگرفتم	-12.9977
▁مطب	-12.9978
▁لافت	-12.9978
▁فروتن	-12.9979
طاب	-12.9981
▁بزرگوار	-12.9981
الگرد	-12.9981
▁اردبی	-12.9982
▁فلام	-12.9982
نماید	-12.9984
▁تهاتر	-12.9989
▁بکاه	-12.999
▁نکردیم	-12.9991
رزی	-12.9996
▁مأ	-13.0001
▁استنلی	-13.0002
▁بیهوش	-13.0007
ریض	-13.0008
▁فریبکار	-13.0009
مب	-13.0012
▁نرسد	-13.0015
▁استعدادیاب	-13.0019
▁مذا	-13.0019
▁بندها	-13.0027
شکاران	-13.0028
▁نائ	-13.0034
▁شایعند	-13.0036
▁اسفن	-13.0042
▁میکرو	-13.0044
بقای	-13.005
▁توما	-13.0051
اوت	-13.0052
ینگا	-13.0055
فاق	-13.0062
پسربچه	-13.0063
▁بلای	-13.0071
▁گفتار	-13.0071
همچن	-13.0073
▁رساندیم	-13.0079
▁همبازی	-13.008
یوتی	-13.0089
▁پاشیده	-13.009
▁پنجاهم	-13.0094
▁دلیری	-13.0097
▁بره	-13.0103
▁آستین	-13.0104
تلر	-13.0106
شریک	-13.0107
▁هاشم	-13.0114
▁ناراحتم	-13.0116
وگرافی	-13.0118
استفان	-13.0119
▁انیستی	-13.0124
▁ازآن	-13.0124
▁نرسیدند	-13.0125
▁آقاخانی	-13.0125
الگو	-13.0125
▁گوسفندان	-13.0129
برج	-13.0131
▁متنفری	-13.0133
بناب	-13.0134
▁قزوینی	-13.0135
▁یوشی	-13.0137
غرب	-13.0139
▁وسکو	-13.014
دسازی	-13.0141
شیا	-13.0145
قول	-13.0146
انسان	-13.0148
▁فلورا	-13.0148
▁کندبا	-13.015
▁یکصدم	-13.0155
▁ادیان	-13.0157
▁الشهدا	-13.0158
▁حمیدی	-13.0159
زهره	-13.0163
▁مقالات	-13.0163
▁وجد	-13.0169
تمالا	-13.0175
رباتی	-13.0175
▁تبرهای	-13.0176
▁حدف	-13.0179
دریانو	-13.0183
موسی	-13.0184
▁بسپار	-13.0186
▁استمقام	-13.0186
ایرج	-13.019
مناف	-13.019
▁لومب	-13.0194
▁شبستری	-13.0194
▁بروک	-13.0195
تونی	-13.0195
▁شنیدند	-13.0196
▁حشمت	-13.0203
▁نشیمن	-13.0204
▁ژس	-13.0206
▁شنو	-13.0207
بکار	-13.0218
▁کبیر	-13.0219
▁یورک	-13.022
▁قراردادها	-13.0223
▁والنتین	-13.0227
▁ردی	-13.0228
صرب	-13.0229
ژوز	-13.0229
▁مارات	-13.0236
▁دلخور	-13.024
وادور	-13.0244
▁ممی	-13.0246
غازه	-13.0249
▁لمب	-13.0249
▁بارد	-13.0249
ژیر	-13.025
▁بکنیم	-13.0251
▁بحری	-13.0254
▁هندرس	-13.0259
ماتیک	-13.0261
۴۱	-13.0271
▁دلسوزان	-13.0271
▁بردارند	-13.0273
کانی	-13.0276
انع	-13.0284
▁والا	-13.0285
آید	-13.0291
ئون	-13.0293
طین	-13.0298
▁اسکندر	-13.0303
▁همجنسگرای	-13.0304
▁مدعای	-13.0309
ینیو	-13.0314
▁فرستادند	-13.0318
▁بدق	-13.0323
▁مکررا	-13.0324
بوس	-13.033
▁ریچار	-13.0331
▁فابیان	-13.0334
لقو	-13.0337
▁ترو	-13.034
▁مولتی	-13.0343
▁اندروی	-13.0344
تراپ	-13.0344
▁نترسید	-13.035
▁شنود	-13.0353
▁هورمونی	-13.0354
▁سمرقندی	-13.0354
▁مارلو	-13.0355
▁جهنمی	-13.0359
▁برنگرد	-13.0366
▁تیفوها	-13.0369
▁دورهم	-13.0372
ورتور	-13.0383
▁یلدا	-13.0387
مهار	-13.0388
▁گنا	-13.0392
▁پویش	-13.0401
▁میکند	-13.041
▁جنگیم	-13.0413
▁سرگی	-13.0417
▁هارو	-13.0417
گرف	-13.0421
▁بوردو	-13.0425
گاری	-13.0426
سوخت	-13.0443
نهاده	-13.0445
▁آجر	-13.0449
زمایش	-13.046
رجان	-13.046
▁مکث	-13.0461
▁لانک	-13.0463
فاهی	-13.0464
رجمه	-13.0467
▁صمد	-13.0474
نکات	-13.0479
زاز	-13.0483
گام	-13.0486
▁هایما	-13.049
تجا	-13.0491
▁گسترد	-13.0498
▁وسای	-13.0502
رایزن	-13.0504
▁مصد	-13.0506
رمو	-13.0509
▁پشتکار	-13.0514
▁الان	-13.052
غات	-13.052
۶۵	-13.0521
▁برع	-13.0526
یبریا	-13.0528
ریخت	-13.0535
فیر	-13.0542
▁لاپ	-13.0549
▁بلاف	-13.055
▁اکرمی	-13.0553
▁استبر	-13.0557
والدی	-13.056
▁گواه	-13.0563
نتس	-13.0565
پنها	-13.0566
▁نزند	-13.057
تکلیف	-13.0571
منوچ	-13.0574
▁بارکی	-13.0578
▁گودو	-13.0583
▁موی	-13.0583
▁رامش	-13.0584
داود	-13.0588
▁فرانکن	-13.059
عاش	-13.059
خاص	-13.059
دای	-13.0599
جمعه	-13.06
فیف	-13.0608
تهام	-13.0608
ورانگو	-13.061
▁آژا	-13.0612
▁خانو	-13.0615
آب	-13.0619
گیرند	-13.0622
خسار	-13.0629
لوح	-13.0635
دستی	-13.0636
▁سرل	-13.0637
▁داستانها	-13.0652
ونگر	-13.0658
▁بردی	-13.066
نهام	-13.0662
▁موق	-13.0667
▁حماس	-13.0671
۴۸	-13.0672
حرم	-13.0674
▁آوازم	-13.0675
شستا	-13.0676
▁ضمی	-13.0686
▁زر	-13.0688
الیات	-13.0692
▁تغییرهای	-13.0696
اننده	-13.0702
لیف	-13.0704
کشن	-13.0705
یتانی	-13.0707
▁ژائ	-13.0717
ناکا	-13.072
▁محمدحس	-13.0721
▁جلا	-13.0729
▁طع	-13.073
▁گالا	-13.073
شناس	-13.0735
دونده	-13.0742
یرانی	-13.0746
▁افزای	-13.076
یارا	-13.0764
▁کبری	-13.0773
▁همزی	-13.0778
صی	-13.0782
نیز	-13.079
▁مهلک	-13.0804
درگیری	-13.0805
▁ملامت	-13.0807
یاهو	-13.0809
لوژی	-13.0816
راکتور	-13.0825
▁بیفت	-13.0828
▁اولیان	-13.0831
▁هاف	-13.0835
اینک	-13.0836
یپ	-13.0837
▁گندی	-13.0837
▁زدنند	-13.0846
کلیه	-13.0853
یرشا	-13.0863
▁ژست	-13.0867
▁مشغولند	-13.0874
▁تاجر	-13.0882
روشی	-13.0883
▁هیج	-13.0885
رامین	-13.0891
▁کامب	-13.0892
ارسیا	-13.0898
آواز	-13.0902
شنود	-13.0907
۹۳۹	-13.091
▁برخوردند	-13.0915
▁خاش	-13.0916
▁غیرسا	-13.0917
▁نیای	-13.0917
▁میگویند	-13.0922
ینس	-13.0928
تد	-13.093
▁گرانت	-13.0932
فائ	-13.0936
▁هاینر	-13.0946
لیپین	-13.0957
▁اسپری	-13.0961
▁اشتری	-13.0966
صولا	-13.0982
نطور	-13.0984
▁اعلامی	-13.0985
▁اخت	-13.0996
▁خواندم	-13.0998
بوت	-13.0998
▁پک	-13.1002
دف	-13.1006
تلاق	-13.1012
▁عن	-13.1012
▁راین	-13.1019
خار	-13.1021
تاق	-13.1025
بلند	-13.1028
شین	-13.1035
▁گما	-13.1045
▁وکیلش	-13.1052
یوآن	-13.1053
سکه	-13.1055
گفتار	-13.1059
هلن	-13.1068
رنس	-13.1074
▁سالار	-13.1079
اتریو	-13.1081
لویی	-13.1082
شکات	-13.1082
لمان	-13.1084
مولان	-13.1089
ئولی	-13.1096
ودزاده	-13.1105
▁بندند	-13.1108
گوپ	-13.111
یتس	-13.1111
ساعد	-13.1113
روبین	-13.1117
▁ویو	-13.1125
وانه	-13.1129
▁دستورهای	-13.1133
احس	-13.1135
▁خرو	-13.1139
ورگین	-13.1143
▁برخوردها	-13.1143
▁ارتد	-13.1151
▁جهاندار	-13.1159
قاعد	-13.1161
وپنجاه	-13.1161
بعیدی	-13.1163
▁آمریکااست	-13.1163
مثبت	-13.1164
پسند	-13.1165
۱۵۰	-13.1172
سخت	-13.1175
▁گلستانک	-13.118
▁الهی	-13.1187
زرویس	-13.1193
قراض	-13.1193
بردن	-13.1194
▁امیل	-13.1195
▁بنشین	-13.1195
یرویز	-13.1198
امر	-13.1198
▁ورن	-13.1201
▁استوای	-13.1219
▁رفتیم	-13.1228
▁انگاشت	-13.1231
▁ببخش	-13.1232
▁جبر	-13.1237
بوش	-13.1238
▁سیدمحم	-13.124
▁۱۷۷	-13.1242
▁وآمدها	-13.1251
سینگ	-13.1257
▁گردهما	-13.126
▁بوگو	-13.1263
سجم	-13.1265
یابانی	-13.1266
غفو	-13.1266
▁پژوه	-13.1269
▁میا	-13.1275
▁فرام	-13.1284
چلو	-13.1291
▁فاک	-13.1291
تئو	-13.1292
نتو	-13.1297
ودم	-13.1298
▁آست	-13.1302
▁درهایش	-13.1308
▁صاحبش	-13.1309
▁مگنو	-13.1324
▁ماسا	-13.1331
شبی	-13.1334
▁کدا	-13.1334
▁نکاست	-13.1344
زان	-13.135
فال	-13.136
▁زمانه	-13.1361
افشانی	-13.1372
فرنی	-13.1376
▁پهنا	-13.1376
▁الیو	-13.1382
▁سپهر	-13.1386
تیچ	-13.139
داما	-13.1393
▁اندازیم	-13.1394
ورنال	-13.1399
▁برادرز	-13.14
▁معتر	-13.1404
امیلی	-13.1408
اعی	-13.1409
کوش	-13.1413
نکن	-13.1415
▁براندا	-13.142
▁کالیفرنیای	-13.1423
تیلن	-13.1434
▁ایرا	-13.1438
بگ	-13.1448
حقوقدانان	-13.1451
۹۱۲	-13.146
▁گلها	-13.148
زاوی	-13.148
▁پانز	-13.1482
▁سح	-13.1484
▁میانشان	-13.1497
باق	-13.15
▁بستگانش	-13.1503
زلا	-13.1506
▁بول	-13.1515
اطع	-13.1517
گره	-13.1528
کالیف	-13.1538
▁برگشتن	-13.1541
▁فریم	-13.1544
▁کارن	-13.1545
موتورها	-13.1558
▁اورت	-13.1561
▁بورد	-13.1562
▁دستبند	-13.1575
داقبال	-13.1576
▁زیباتر	-13.1585
بندها	-13.1585
▁مامن	-13.159
▁استراز	-13.1592
سلین	-13.1594
۸۰	-13.1612
▁ساختم	-13.1612
رنو	-13.1615
▁آقازاد	-13.1622
▁گزار	-13.1623
▁شوداو	-13.1625
▁کشا	-13.1632
▁نقط	-13.1632
وشو	-13.1639
▁موتی	-13.164
▁بگری	-13.1644
ونتو	-13.1647
▁اندیشی	-13.165
داخته	-13.1653
قض	-13.1654
جاب	-13.1659
لع	-13.1661
▁لاف	-13.1665
▁عاشقان	-13.1669
ضیه	-13.1677
فرا	-13.1686
ارتر	-13.169
میتسو	-13.1699
۹۸۰	-13.1711
باوری	-13.1722
طنت	-13.174
روید	-13.1742
جف	-13.1748
۹۴	-13.1767
▁برت	-13.1777
▁میانسال	-13.1778
▁سپین	-13.1779
▁تریل	-13.1782
▁نوآ	-13.1786
▁مستم	-13.1789
ارزیا	-13.179
▁طبل	-13.179
▁اندمحمد	-13.1796
بودن	-13.1797
ثری	-13.1801
▁گالی	-13.1812
بورک	-13.1817
▁پورت	-13.1818
نکا	-13.1818
▁هرد	-13.1819
فورا	-13.182
رکنا	-13.1822
متعارف	-13.1831
▁انتقالش	-13.1834
یتون	-13.1847
بوتی	-13.1853
▁اقیانوسی	-13.1868
▁فرزندانم	-13.1869
نطق	-13.1874
▁درآور	-13.1879
▁ماندم	-13.1885
▁زال	-13.1888
▁پش	-13.1888
سیل	-13.1899
نگار	-13.19
دهای	-13.1902
▁کنک	-13.1905
▁نداری	-13.1909
▁تیمور	-13.192
▁گلاس	-13.192
مرا	-13.1925
▁اسحاقی	-13.1945
همان	-13.1946
▁بوسی	-13.1947
تهم	-13.1948
▁ورزید	-13.195
مالا	-13.1953
▁کارکرد	-13.1956
▁گارس	-13.1975
▁اورن	-13.1984
▁هوگ	-13.1991
▁انس	-13.1997
▁آسم	-13.1999
▁گردم	-13.2001
▁هانت	-13.2028
▁۴۸۰۰	-13.2043
عامل	-13.2061
▁چهارتا	-13.2066
مارکان	-13.209
ساط	-13.2091
▁نحس	-13.2099
▁پاراد	-13.21
ندتر	-13.2101
▁دس	-13.2104
تپل	-13.2104
▁نگو	-13.2108
۶۹	-13.2115
▁شدیک	-13.2125
▁ویرا	-13.2131
▁گلن	-13.2132
▁البد	-13.215
تروسپ	-13.2151
▁بوها	-13.2157
▁میلیاردی	-13.2159
اشبور	-13.2164
گمان	-13.2167
▁زیا	-13.218
فات	-13.2202
▁ایزد	-13.2213
واکس	-13.2223
▁میامی	-13.223
▁درازا	-13.2241
لبی	-13.225
مردی	-13.2251
▁گیریم	-13.2253
وئی	-13.2254
▁مینیا	-13.2258
▁تفسیرها	-13.2264
رمیم	-13.2266
▁واتس	-13.2268
▁نظرها	-13.2271
هامر	-13.2275
▁دورا	-13.2281
....	-13.2285
سعی	-13.2287
▁آزمود	-13.2293
▁مساعدت	-13.2294
ساس	-13.2297
عش	-13.23
رزهای	-13.2301
▁آیوا	-13.2306
▁ایش	-13.2308
▁صور	-13.2311
۹۶۰	-13.2311
▁عادلا	-13.2314
▁کانتی	-13.2318
ادر	-13.2319
وتر	-13.2332
ربا	-13.2333
ذیر	-13.234
▁فرس	-13.2351
تلف	-13.2356
▁مز	-13.2356
▁صنا	-13.2368
▁شودیک	-13.2368
▁احم	-13.2376
▁آرشی	-13.2381
لبه	-13.2386
اقلان	-13.2401
▁منا	-13.2403
▁بقدر	-13.2403
▁اینه	-13.2422
نحل	-13.2423
▁هوانو	-13.2429
▁جانک	-13.243
▁اوب	-13.2431
وپا	-13.244
▁اکسی	-13.2452
▁اجراهای	-13.2461
▁دادرس	-13.2478
یمون	-13.2509
خلاقی	-13.253
▁هادس	-13.2545
▁بیگانگ	-13.2548
▁فیو	-13.2552
▁انگیزد	-13.2564
▁بمیر	-13.2564
▁فعالند	-13.2566
تعرض	-13.2568
▁معر	-13.257
▁باردو	-13.2573
▁سلی	-13.2592
صو	-13.26
گم	-13.2602
▁فشا	-13.2604
لندن	-13.2605
جزایر	-13.2619
▁بیاور	-13.2624
فرت	-13.2631
▁دوی	-13.2641
▁تورس	-13.2645
▁سع	-13.2653
طر	-13.2653
حذ	-13.2662
موف	-13.2672
▁صع	-13.2673
تنی	-13.2674
▁کنددر	-13.2681
▁دربر	-13.2689
▁دوخت	-13.2692
▁ساع	-13.2692
▁تعزی	-13.2699
ادری	-13.2701
عبور	-13.2704
لول	-13.2707
چا	-13.2718
بریا	-13.2721
یابند	-13.2735
رمی	-13.2735
سیس	-13.2762
▁پلت	-13.2764
▁سیلوا	-13.2765
▁رژ	-13.2765
تنبور	-13.2778
▁کاستل	-13.279
فاشی	-13.2809
انگیز	-13.2809
گلیسم	-13.2813
امت	-13.283
▁مفا	-13.2843
▁آلو	-13.2851
منوعیت	-13.2885
بعه	-13.2896
ترش	-13.2902
▁بمان	-13.2903
وتا	-13.2904
روف	-13.2911
▁تباه	-13.2923
پائی	-13.2924
قر	-13.2925
خیل	-13.2926
مرت	-13.2943
نخ	-13.2944
ژا	-13.2951
دیک	-13.2953
ینگز	-13.2959
امن	-13.2963
تین	-13.2977
ئ	-13.2986
▁جنگلی	-13.3008
حوال	-13.3025
اپیش	-13.3027
میرز	-13.3027
▁معای	-13.3058
اندیشد	-13.3062
بات	-13.3072
ریستو	-13.3076
▁۲۱۸	-13.3085
ادبی	-13.309
▁گیرا	-13.3094
▁نگرا	-13.3107
قناع	-13.3115
پیشین	-13.312
اغر	-13.3143
▁توم	-13.3152
▁عاشورا	-13.3155
▁عطری	-13.3161
▁برانداز	-13.3164
یوه	-13.3175
دخواهان	-13.3185
▁پاشی	-13.3186
▁اکو	-13.3186
واچ	-13.3188
ودرو	-13.319
ترود	-13.3201
▁ایوب	-13.3208
▁پز	-13.322
▁صیاد	-13.3234
روژان	-13.3264
مکار	-13.3268
پایی	-13.3278
▁تمل	-13.3287
ارم	-13.3301
▁کاغذها	-13.3302
▁امپ	-13.3308
▁بویی	-13.3309
یناتور	-13.3319
▁شست	-13.3337
استاد	-13.3343
ورنتین	-13.3354
۷۶	-13.3356
▁سطل	-13.3358
حیط	-13.3364
▁اطلا	-13.3366
سط	-13.3383
▁بوس	-13.3386
▁توریس	-13.3389
روها	-13.3395
نچی	-13.3398
پروف	-13.3409
▁لائو	-13.3418
۲۶۰	-13.3421
هد	-13.3422
▁ناخو	-13.3455
مدند	-13.3459
▁ِ	-13.3462
▁بطل	-13.3481
انوس	-13.3481
گردها	-13.3484
▁تیمو	-13.3485
▁مئ	-13.3488
▁اتو	-13.349
▁موها	-13.3506
▁بنو	-13.3512
دعوا	-13.3512
▁یورد	-13.3529
؟'	-13.3532
▁بخواهی	-13.3535
▁عذ	-13.3537
دئو	-13.3548
▁شدمحمد	-13.3558
▁کنت	-13.357
▁آیلی	-13.3577
تصدی	-13.3591
▁جاپ	-13.3594
▁آمو	-13.3603
▁نواختن	-13.3605
ترن	-13.3606
ردند	-13.361
▁شودبر	-13.3612
▁پان	-13.3616
▁مشک	-13.3623
بابو	-13.3626
سات	-13.3628
معک	-13.3629
رخواهی	-13.3637
نگه	-13.3638
نائو	-13.364
▁گان	-13.3666
▁شیل	-13.3668
چسب	-13.3675
رکو	-13.3676
▁صادرکنن	-13.3702
▁مواقعی	-13.3703
▁روئی	-13.3704
▁نبات	-13.372
کتور	-13.3724
سازند	-13.3726
هرچ	-13.3733
ائر	-13.374
سلان	-13.3751
پورن	-13.3753
اپیما	-13.3756
آزمو	-13.3759
▁کلاسها	-13.376
▁خیا	-13.3767
▁هیب	-13.3773
مداران	-13.3777
افه	-13.3783
▁میتوان	-13.3785
شکنی	-13.3785
▁قرا	-13.3789
▁ویول	-13.3791
▁گنب	-13.3796
▁درگذشتند	-13.3798
فراغ	-13.38
▁پاشیدن	-13.3803
گولد	-13.3804
▁ایستو	-13.3815
معه	-13.3816
سپیر	-13.382
▁سلا	-13.3822
واس	-13.383
▁استرو	-13.3832
رکی	-13.3835
▁۱۷۸	-13.3841
▁سرن	-13.3842
▁استفان	-13.3852
▁گذاشتد	-13.3856
فاو	-13.3869
علام	-13.3895
▁مزا	-13.3934
▁ویلیس	-13.3934
▁راکل	-13.3947
▁استرلی	-13.3952
تبی	-13.3961
لیاتی	-13.3962
▁امنی	-13.3973
هت	-13.3988
ازن	-13.4002
گاو	-13.4015
▁هامحمد	-13.4028
▁متفک	-13.4042
شعا	-13.4043
جاری	-13.405
▁کلار	-13.4062
ستحق	-13.407
▁دینامی	-13.4085
آئو	-13.4099
مساعد	-13.4102
عن	-13.4108
ارهای	-13.4108
دهه	-13.4134
کلر	-13.4136
▁مضرا	-13.4137
تأ	-13.4145
▁شغلش	-13.4148
▁مراو	-13.4161
▁واسک	-13.4166
▁رباتی	-13.4181
لوده	-13.4194
فرق	-13.4202
ورها	-13.4203
▁دیز	-13.4227
وهای	-13.4235
اکمل	-13.4283
راکسی	-13.4296
درمیان	-13.4315
مایی	-13.4321
▁انج	-13.4323
▁پاکن	-13.433
▁متض	-13.4338
▁مینگ	-13.4341
گویید	-13.4347
▁دوبل	-13.4347
▁قاتلی	-13.4348
▁سازمانها	-13.4358
▁روشها	-13.4362
▁تازی	-13.4365
▁جیو	-13.4367
ریتانی	-13.4372
حراستی	-13.4374
▁تبعی	-13.4386
لیزا	-13.4386
▁حمی	-13.4386
▁برگز	-13.4387
▁قه	-13.4391
▁محمودی	-13.4398
▁روانشنا	-13.4399
▁هواس	-13.44
یچی	-13.4421
لب	-13.4423
جار	-13.4434
روسکو	-13.4448
هران	-13.4452
اعات	-13.4466
رشا	-13.4473
▁تارهای	-13.4474
بستند	-13.4483
▁شدندیک	-13.449
▁بشمر	-13.4498
دیوی	-13.4499
نویسم	-13.4523
عدد	-13.4532
▁کاملتر	-13.4542
ستایی	-13.4551
▁ایرانروزها	-13.4584
▁رادیک	-13.4587
▁جنگجو	-13.4592
▁جمهوریخواه	-13.4596
▁جش	-13.4603
▁استعدادی	-13.4606
▁مطم	-13.4607
▁خور	-13.4627
پتا	-13.4629
▁نعل	-13.464
مارت	-13.4645
▁صنو	-13.465
اض	-13.4651
▁بپوشان	-13.4651
داند	-13.4653
موفق	-13.4654
زبین	-13.4669
▁تریلی	-13.4673
▁عبداله	-13.4676
▁پاشو	-13.4682
▁ورند	-13.4689
یادت	-13.469
ردیف	-13.4691
بورسی۳	-13.4693
زنند	-13.4698
گوی	-13.4705
لیا	-13.4707
صدو	-13.4714
▁درعی	-13.4726
بودند	-13.4729
سلر	-13.473
کوف	-13.4731
▁ناتالی	-13.4734
▁ایز	-13.474
▁درامد	-13.4756
▁یافتم	-13.4764
▁اینت	-13.4771
▁زوا	-13.4774
▁ملکو	-13.4779
یسه	-13.4785
▁سرورها	-13.4797
وساز	-13.4809
حبت	-13.4833
رشدی	-13.4867
▁شدیدتری	-13.4876
▁کازو	-13.489
▁ظر	-13.4894
▁لیری	-13.4903
▁متوس	-13.4905
ئین	-13.4905
▁خودد	-13.4917
یرا	-13.4917
یندازیم	-13.4922
ریح	-13.4923
▁پین	-13.4932
جز	-13.4938
طبا	-13.4941
ساطی	-13.4945
▁تفر	-13.4949
▁عجم	-13.4959
▁استلا	-13.4996
▁قدرتمندتر	-13.5027
لدی	-13.5038
امان	-13.5042
بدی	-13.5049
▁سکونتش	-13.5068
▁کوکا	-13.5084
صادر	-13.5096
تخم	-13.5098
نداشته	-13.51
دهد	-13.5101
رزاده	-13.5105
▁پاکس	-13.5107
▁استشما	-13.5112
▁آمل	-13.5115
دهند	-13.5117
▁نامیدن	-13.5128
آما	-13.5131
راتو	-13.5138
مارس	-13.5148
▁مادو	-13.5157
لیل	-13.5161
▁ایرانمقام	-13.5173
▁مندل	-13.5175
سپرد	-13.5183
اخلاق	-13.5191
▁آیزا	-13.5203
رچ	-13.5205
رائ	-13.5214
هیجان	-13.522
دقت	-13.5234
▁غیرت	-13.524
▁نیروگاهها	-13.5271
ماز	-13.5271
غدار	-13.5275
پری	-13.5276
ناقل	-13.5284
۱۶۵	-13.5294
هاپ	-13.5304
▁۱۸۷	-13.5305
دیکت	-13.5322
رجی	-13.5343
▁فدا	-13.5346
هارت	-13.5354
الم	-13.536
اقی	-13.5361
دها	-13.5363
▁سراغش	-13.5368
▁پذیرفتن	-13.5371
▁طبا	-13.5376
▁تض	-13.5381
وآلا	-13.5393
اسپاس	-13.5395
▁اندبر	-13.54
▁واردکنند	-13.5403
فروشیم	-13.5405
بیا	-13.5408
نقا	-13.5423
▁اودی	-13.5432
▁نکنی	-13.5438
شقان	-13.5441
یستی	-13.5479
▁ساق	-13.5485
▁سوزن	-13.549
ارات	-13.5491
رپ	-13.5494
مهر	-13.5496
رنامه	-13.5498
۸۳	-13.5521
▁مجر	-13.5523
▁آنج	-13.5533
بهشت	-13.5538
▁آفری	-13.5551
▁شعبا	-13.5553
▁آلف	-13.5555
▁ماکرو	-13.5562
صور	-13.5568
▁بام	-13.5569
▁هکر	-13.5571
۷۰۰	-13.5575
▁چرت	-13.5576
مینی	-13.5581
کورت	-13.5593
▁استم	-13.5594
▁گلای	-13.5598
ستری	-13.5604
▁حساسی	-13.5618
▁ورش	-13.563
▁توص	-13.5638
زش	-13.5645
▁هلا	-13.5653
▁حص	-13.5657
▁مانو	-13.5681
عا	-13.5688
نجش	-13.5697
▁غد	-13.5698
▁ونت	-13.5708
دارانش	-13.5715
▁مف	-13.5727
▁پوشی	-13.5729
مغان	-13.5732
▁موع	-13.5748
▁مط	-13.5757
صه	-13.5764
▁شکای	-13.5769
جور	-13.5789
▁تزار	-13.579
▁کارکنانش	-13.579
اسم	-13.5797
برم	-13.5817
لن	-13.5823
انورا	-13.5825
فول	-13.583
▁بلان	-13.5856
برو	-13.5856
یلمن	-13.5857
▁اشتو	-13.5859
▁شنوی	-13.5859
▁رن	-13.5862
▁کپ	-13.5868
رینیو	-13.587
▁و۲	-13.5884
▁جفا	-13.5884
▁الا	-13.5904
زخ	-13.591
لوکه	-13.5912
نقیب	-13.5916
انزی	-13.5917
▁لوت	-13.5924
تومان	-13.5926
▁غا	-13.5942
▁میکر	-13.5958
▁قای	-13.5968
▁زندگ	-13.5968
قید	-13.5984
▁ووت	-13.5985
کیف	-13.5996
رانر	-13.5998
سترسی	-13.6007
واکسین	-13.601
آمد	-13.6019
گوت	-13.6023
آماد	-13.6027
▁میلانی	-13.6029
''	-13.6051
دخواهانه	-13.607
عصب	-13.6078
▁تعری	-13.6078
وارت	-13.6083
▁بیس	-13.609
یونیست	-13.6097
یشکر	-13.6122
گدا	-13.6125
▁وسو	-13.6126
المللی	-13.6139
▁میک	-13.6146
جنر	-13.6146
▁نشو	-13.617
الگری	-13.6173
پش	-13.6175
۷۴	-13.6185
ندیس	-13.6192
▁کجاها	-13.6195
▁الگ	-13.6208
الزمان	-13.6213
بروس	-13.6214
ظره	-13.6215
سنده	-13.6215
▁سروی	-13.6218
ومئ	-13.6219
اردی	-13.623
▁سیلو	-13.6231
اعت	-13.624
رزم	-13.6254
عین	-13.6257
▁ظاهرش	-13.6261
زبال	-13.6268
آخ	-13.628
گردانان	-13.6298
▁واری	-13.6312
▁ناه	-13.6314
▁یکجا	-13.6315
چیچ	-13.633
زمی	-13.6331
▁ضرو	-13.6332
▁شاک	-13.634
رهنگ	-13.6353
▁بازها	-13.6355
▁ورزی	-13.6357
▁پون	-13.6375
هید	-13.6379
ژیو	-13.639
درست	-13.6395
گوئ	-13.6403
لیچ	-13.6404
ورن	-13.6406
▁والد	-13.6407
▁جها	-13.6407
▁کوپ	-13.6424
یروس	-13.6425
▁کاندید	-13.6433
کنت	-13.6434
▁دربست	-13.6442
عاده	-13.6451
هفت	-13.6455
ئیس	-13.646
دوین	-13.6479
یاضی	-13.6487
▁حرفهای	-13.65
لمینگ	-13.6501
▁معاند	-13.6504
▁مناز	-13.6518
▁استیک	-13.6518
فتی	-13.6524
رنت	-13.6525
قتی	-13.6538
بستگ	-13.6538
املا	-13.6542
جباری	-13.6544
▁برم	-13.6592
▁هرت	-13.6593
▁ستد	-13.66
▁مجل	-13.6604
▁۴۱۰	-13.6613
لودی	-13.663
جریان	-13.6644
▁کیانی	-13.6655
بوری	-13.6656
ایز	-13.6658
▁منص	-13.6661
درو	-13.6671
▁ببند	-13.6671
سمن	-13.6671
▁راکد	-13.6689
تنه	-13.669
چیده	-13.6696
رساندن	-13.6699
▁چل	-13.6705
▁بوداها	-13.6708
کایی	-13.6709
▁لام	-13.6717
▁،	-13.6718
▁هاس	-13.6722
لیان	-13.6725
۷۱	-13.6726
پلی	-13.6742
نف	-13.6743
هدی	-13.678
▁نبست	-13.6781
یدمن	-13.6786
▁چرخد	-13.6796
عب	-13.6809
برآوردها	-13.6819
بارداری	-13.6834
▁توک	-13.684
▁بونو	-13.6866
▁پلاکارد	-13.6868
▁شدشه	-13.6889
▁آد	-13.6892
اهت	-13.69
ضو	-13.6901
▁آورا	-13.6913
▁صی	-13.6921
یکس	-13.6932
▁تیرس	-13.6954
▁نخوان	-13.6963
وایز	-13.6966
ریو	-13.6968
▁شف	-13.6995
انچی	-13.6996
کاوا	-13.7005
▁ناتی	-13.701
▁پستو	-13.7012
نابی	-13.7015
▁دیگرش	-13.7024
▁یولی	-13.7029
زما	-13.703
لام	-13.7043
▁آسای	-13.7047
▁مائوریت	-13.7058
▁گوه	-13.7065
توقف	-13.7071
اغت	-13.7078
کایین	-13.7099
دریایی	-13.7112
ارزها	-13.712
▁دیک	-13.712
▁قلو	-13.7121
انتانا	-13.713
یانه	-13.7131
▁لم	-13.7136
گسترد	-13.7146
▁آذربایجانی	-13.7157
مینگ	-13.7167
▁تاریکتر	-13.7169
حمله	-13.7178
لوز	-13.718
▁سازیم	-13.7181
پز	-13.7187
ماده	-13.7217
▁استاو	-13.7229
یوز	-13.7233
▁درخشیدن	-13.7241
بخت	-13.7242
▁هیون	-13.7266
اتفاق	-13.7269
▁داغتر	-13.7276
▁ناش	-13.7301
امنیت	-13.7309
▁اندر	-13.7318
▁هزارم	-13.7323
نوشته	-13.7323
آشو	-13.7336
هاست	-13.7354
نونی	-13.7354
▁خرم	-13.7355
ذر	-13.7383
▁استادی	-13.7385
▁اولا	-13.7411
▁اعل	-13.7416
توما	-13.743
▁شدندم	-13.7432
برجام	-13.7443
▁مارتا	-13.745
ساخت	-13.7457
▁کولی	-13.746
▁کرون	-13.7462
▁مخاطبانم	-13.7465
▁عرا	-13.7479
عراق	-13.7483
تابو	-13.7488
تعطیل	-13.7496
▁خاوی	-13.7502
▁آنگ	-13.7504
عدی	-13.7509
▁داست	-13.7522
چگون	-13.7529
▁هد	-13.7531
۳۷۹	-13.7546
پرش	-13.7559
▁نزدی	-13.7562
▁پارکها	-13.7564
سهام	-13.7567
▁آنجا	-13.7578
▁وکا	-13.7607
کتیو	-13.7609
جزی	-13.762
ونومی	-13.7625
▁شهرب	-13.7631
یچه	-13.7636
▁میدا	-13.7637
سکول	-13.7637
وو	-13.7639
بگذاری	-13.7649
واتی	-13.7657
افع	-13.7688
▁بکش	-13.7694
فغانستان	-13.7695
مربوط	-13.7696
تند	-13.7697
قدان	-13.7705
سهیل	-13.7706
▁ممل	-13.7718
▁صر	-13.7722
کیل	-13.7724
▁سوگن	-13.7736
صاص	-13.7769
ارتباط	-13.7772
▁شدنش	-13.7781
یوشیت	-13.7782
▁ایرانیک	-13.7805
فرهنگ	-13.7816
▁راهگشای	-13.7832
▁چان	-13.7836
▁پراند	-13.7852
▁وینگ	-13.788
▁حری	-13.789
▁گذ	-13.7897
▁۱۲۴	-13.7907
▁ایمپ	-13.7926
اردن	-13.7929
مود	-13.7951
کووید	-13.7953
▁مفص	-13.7956
کودکان	-13.7965
ایفا	-13.7967
فرش	-13.7968
سکوت	-13.7973
یناوی	-13.7984
اماتیک	-13.7993
مسئ	-13.7995
نمایش	-13.802
انقلاب	-13.802
سونی	-13.8027
اسپوتین	-13.8035
پولیتیک	-13.8036
سران	-13.8041
▁تقل	-13.8044
▁طرد	-13.8058
▁سرودها	-13.8064
سوب	-13.8076
کف	-13.8079
▁افز	-13.8081
▁ایما	-13.8087
کشورها	-13.8091
داش	-13.8122
▁اپی	-13.8124
وجی	-13.8132
▁بردم	-13.8133
شای	-13.8137
اسفند	-13.8161
▁مقن	-13.8165
▁جار	-13.8172
لاخ	-13.8177
۹۲	-13.8181
جلو	-13.8183
قریب	-13.819
▁نرسی	-13.8202
فینال	-13.8208
▁زیرو	-13.8219
طلبی	-13.822
▁پروس	-13.8234
یمن	-13.8236
▁شیم	-13.8236
رشید	-13.8246
▁تکا	-13.8252
▁رسیدنددو	-13.8256
▁نیاوردن	-13.8259
▁الاس	-13.8278
انفجار	-13.8279
ضرب	-13.8282
شمال	-13.8283
▁۱۴۵	-13.8299
▁بلندتر	-13.8301
دمین	-13.8301
نتونیو	-13.831
تحقیق	-13.8314
▁میچ	-13.8315
ئیز	-13.834
رساند	-13.834
نفرانس	-13.8357
ونزوئلا	-13.8366
فارسی	-13.8367
یشمن	-13.8367
خواهم	-13.8368
یکت	-13.8369
▁کفا	-13.8374
انریک	-13.8381
اشت	-13.839
چهارشنبه	-13.8391
▁انتظا	-13.8392
سیک	-13.8398
دفاع	-13.8398
مسر	-13.8404
خواب	-13.8404
نب	-13.8405
پروژه	-13.8407
نظام	-13.8408
ازد	-13.8417
شامل	-13.8419
▁آین	-13.8425
آوریل	-13.8441
فهرست	-13.8442
مصوب	-13.8443
▁گلب	-13.8448
بساط	-13.8451
کارگردان	-13.8457
▁پد	-13.8469
مبتلا	-13.847
▁گوتنب	-13.8471
گردد	-13.8471
حت	-13.8471
جانبدار	-13.8486
تجارت	-13.8493
قیقه	-13.8499
سراسر	-13.8501
کالا	-13.8507
▁ولو	-13.851
نسه	-13.8511
کلور	-13.8512
بگیرد	-13.8515
آمدتر	-13.8515
معروف	-13.8519
دارهای	-13.8519
▁فراه	-13.8534
نشا	-13.8539
پرواز	-13.8542
▁مسابق	-13.8543
بیرون	-13.8545
▁فعل	-13.8548
ارگرد	-13.8553
▁کارا	-13.8555
▁تاثیرگذارتر	-13.8555
تولد	-13.856
یدکی	-13.8562
رانگیز	-13.8566
وپولیت	-13.857
جامعه	-13.8575
هواپیما	-13.8577
رعایت	-13.8577
وپول	-13.8591
ولایت	-13.8601
عدالت	-13.8606
▁تقد	-13.8622
کودک	-13.8626
نظارت	-13.8627
نایت	-13.8628
بایرن	-13.8628
موافقت	-13.8631
یعه	-13.8631
رقی	-13.8637
فرهنگی	-13.8638
تفا	-13.8641
هاج	-13.8641
تهدید	-13.8647
▁ملای	-13.8649
تصویری	-13.8651
یتسو	-13.8657
اورز	-13.8658
پروازهای	-13.8665
▁دونا	-13.867
اوست	-13.8674
موفقیت	-13.8675
▁کردنش	-13.8678
نژ	-13.8679
ژو	-13.868
وهش	-13.868
پاریس	-13.868
افغان	-13.868
سخنران	-13.8697
مقایس	-13.8702
ابین	-13.8716
تمن	-13.8718
فارس	-13.8722
امیدوار	-13.8723
نشده	-13.8724
▁بیشمار	-13.8726
▁بازند	-13.873
نرم	-13.8738
شگاه	-13.8742
▁۱۶۱	-13.8754
سرا	-13.8755
اتم	-13.8756
برسد	-13.8757
واپسی	-13.8757
یدز	-13.8762
▁متاب	-13.8763
پیام	-13.8771
سکا	-13.8779
یورنس	-13.8791
شیره	-13.8795
گرایان	-13.8798
میرا	-13.8802
ورزشی	-13.8802
آموزش	-13.8816
▁بیا	-13.8822
آلبوم	-13.8823
▁خائ	-13.8826
مخالفت	-13.883
گذارد	-13.8835
▁راهگشا	-13.8836
اقیانوس	-13.884
درحال	-13.8841
▁۱۷۹	-13.8846
اوراق	-13.8847
سرتی	-13.8848
اردیبهشت	-13.8851
ورتینگ	-13.8854
▁یونی	-13.8858
چالش	-13.8863
معترضان	-13.8871
▁مغر	-13.8875
قاچاق	-13.8876
رستی	-13.8876
بالای	-13.8878
صحنه	-13.8881
زندانیان	-13.8883
محیط	-13.8889
آمازون	-13.8901
اولیه	-13.8902
آدریان	-13.8904
▁انصا	-13.8916
صنایع	-13.8918
▁شیک	-13.8919
هن	-13.892
زخمی	-13.8928
افزوده	-13.8928
سلمان	-13.8929
حفاظت	-13.8929
ماموران	-13.8934
مینا	-13.8944
رامش	-13.8944
آگاهان	-13.8946
متعل	-13.8948
مبلغ	-13.8952
مسدود	-13.8954
شاعر	-13.8954
آهنگ	-13.8955
نتا	-13.8957
اقل	-13.8957
▁مومی	-13.8958
اینستاگرام	-13.8959
زل	-13.8959
ادبیات	-13.8962
کلانش	-13.8964
اپل	-13.8964
موزه	-13.8965
زگی	-13.8968
اهمیت	-13.8969
سوریه	-13.8972
ارقام	-13.8972
▁متهما	-13.8977
تمدید	-13.8977
▁باشگا	-13.8979
▁ایج	-13.8982
طرفداران	-13.8994
اخبار	-13.9001
مدرسه	-13.9002
▁استآ	-13.9007
تلند	-13.9008
اکتبر	-13.9009
روایت	-13.9012
نوامبر	-13.9014
آفریقا	-13.9019
هنرمندان	-13.9024
رخه	-13.9027
ژنرا	-13.9029
قربانیان	-13.903
دختران	-13.9036
کارشناس	-13.9038
محمو	-13.9038
▁علیا	-13.9048
▁حسا	-13.9049
▁بحر	-13.9055
اصلی	-13.9055
دستمزد	-13.9057
مسافر	-13.906
خسارت	-13.9061
شهریور	-13.9062
رویکرد	-13.9071
ماموریت	-13.9072
پارچ	-13.908
▁بارت	-13.9081
▁بگذ	-13.9088
خزان	-13.9089
دیف	-13.909
▁جغرافیا	-13.9092
استاندار	-13.9095
قاضی	-13.9098
فلور	-13.91
قبول	-13.91
نکرده	-13.9106
طبیع	-13.9113
نروژ	-13.9115
تقاضای	-13.9116
چشمگیر	-13.9117
۲۰۱۵	-13.9118
اوکراین	-13.9124
دستورالعمل	-13.9124
پارلمان	-13.9129
صلاحیت	-13.913
مجازات	-13.9134
قتل	-13.9137
تاسیس	-13.9142
پارات	-13.9142
شصت	-13.9144
رقیب	-13.9146
سپت	-13.9146
داوطلبان	-13.9153
خاورمیانه	-13.9155
حراج	-13.9155
رماخ	-13.9157
علائم	-13.9158
پهلوی	-13.9158
غافلگیر	-13.9159
محکومیت	-13.9159
جوز	-13.916
▁استمرا	-13.9162
تراکتور	-13.9162
تخت	-13.9163
▁بسا	-13.9164
▁بورسی	-13.9164
کلمبیا	-13.917
اندونزی	-13.9172
لمب	-13.9175
▁غنا	-13.9177
ترو	-13.9178
کویی	-13.9179
▁نح	-13.9184
ویلموتس	-13.9185
مبل	-13.9186
خطوط	-13.9189
مطمئن	-13.9192
فایل	-13.9193
آموزند	-13.9196
تاریخی	-13.9198
▁خانواد	-13.9206
ویدیوی	-13.9206
▁نوشتار	-13.9207
▁گیره	-13.9208
مطلب	-13.9211
بازرسان	-13.9211
▁منط	-13.9215
برکنار	-13.9221
پرورش	-13.9222
قوم	-13.9223
مرداد	-13.9225
ظاهرا	-13.9225
▁فیلترکنند	-13.9225
هافبک	-13.9226
روبات	-13.9229
مذهبی	-13.9229
▁ابری	-13.9233
دانمارک	-13.9237
مرجان	-13.9238
بلژیک	-13.9238
▁جوه	-13.9241
نیروگاه	-13.9242
برگزیت	-13.9242
اولسان	-13.9245
▁نص	-13.9249
پادتن	-13.925
پلاستیک	-13.925
موقع	-13.925
جواب	-13.9252
▁زرتشت	-13.9253
پیچیده	-13.9255
تروریست	-13.9256
▁تصمی	-13.9257
تمان	-13.9259
▁الزا	-13.9264
ریکی	-13.9265
ترنت	-13.9265
بوندس	-13.9266
گزارشگر	-13.9267
قدرتمند	-13.9268
افکا	-13.927
ارتفاع	-13.9274
▁هری	-13.9274
وسایل	-13.9275
یافتند	-13.9276
یدری	-13.9277
زنگنه	-13.9277
متقاضی	-13.928
[...]
