{
  "src_word2id": {
    "<pad>": 0,
    "<s>": 1,
    "</s>": 2,
    "<unk>": 3,
    "ی": 4,
    ".": 5,
    "ه": 6,
    "▁است": 7,
    "▁": 8,
    "▁می": 9,
    "▁های": 10,
    "▁ایران": 11,
    "▁شده": 12,
    "،": 13,
    "▁سال": 14,
    "▁بود": 15,
    "▁یک": 16,
    "▁ها": 17,
    "▁شد": 18,
    "▁کرده": 19,
    "▁تصویر": 20,
    "▁ای": 21,
    "▁کرد": 22,
    "منبع": 23,
    "ان": 24,
    "▁شود": 25,
    "▁گفته": 26,
    "▁بر": 27,
    "▁دو": 28,
    "▁خود": 29,
    "▁کند": 30,
    "؛": 31,
    "▁اند": 32,
    "▁کرونا": 33,
    "ن": 34,
    "▁کشور": 35,
    "▁در": 36,
    "▁پیش": 37,
    "▁ماه": 38,
    "▁آمریکا": 39,
    "ش": 40,
    "▁گزارش": 41,
    "▁روز": 42,
    "ت": 43,
    "▁ا": 44,
    "▁دارد": 45,
    "▁فوتبال": 46,
    "▁بی": 47,
    "▁دهد": 48,
    "▁کار": 49,
    "▁گفت": 50,
    "▁تیم": 51,
    "▁اعلام": 52,
    "▁کنند": 53,
    "▁بازی": 54,
    "▁م": 55,
    "▁قرار": 56,
    "▁شرکت": 57,
    "▁داده": 58,
    "▁دیگر": 59,
    "▁هزار": 60,
    "▁و": 61,
    "ین": 62,
    "▁دولت": 63,
    "▁به": 64,
    "▁رئیس": 65,
    "▁با": 66,
    "م": 67,
    "▁یا": 68,
    "▁خواهد": 69,
    "▁دست": 70,
    "▁گذشته": 71,
    "▁سه": 72,
    "▁بین": 73,
    "▁جهان": 74,
    "▁آقای": 75,
    "▁پس": 76,
    "▁گوید": 77,
    "▁هر": 78,
    "▁درصد": 79,
    "▁درباره": 80,
    "▁بار": 81,
    "▁میلیون": 82,
    "▁آنها": 83,
    "در": 84,
    "▁تهران": 85,
    "▁دلیل": 86,
    "▁افزایش": 87,
    "▁نفر": 88,
    "'": 89,
    "▁لیگ": 90,
    "▁افغانستان": 91,
    "ا": 92,
    "▁'": 93,
    "▁داد": 94,
    "▁چند": 95,
    "▁هفته": 96,
    "این": 97,
    "▁بوده": 98,
    "▁بعد": 99,
    "▁یکی": 100,
    "▁ب": 101,
    "▁از": 102,
    "های": 103,
    "▁ملی": 104,
    "▁بازار": 105,
    ":": 106,
    "ر": 107,
    "▁جدید": 108,
    "▁قیمت": 109,
    "▁حال": 110,
    "▁خبر": 111,
    "▁سازمان": 112,
    "▁جمهوری": 113,
    "▁فیلم": 114,
    "▁جهانی": 115,
    "▁همه": 116,
    "▁نمی": 117,
    "▁نام": 118,
    "▁ویروس": 119,
    "▁دلار": 120,
    "▁باید": 121,
    "و": 122,
    "▁برگزار": 123,
    "ند": 124,
    "▁نظر": 125,
    "▁گرفته": 126,
    "▁ترین": 127,
    "▁نفت": 128,
    "د": 129,
    "▁هستند": 130,
    "▁مورد": 131,
    "▁تولید": 132,
    "▁بیش": 133,
    "▁مجلس": 134,
    "▁عنوان": 135,
    "▁امروز": 136,
    "▁ت": 137,
    "▁کاهش": 138,
    "▁شدن": 139,
    "▁علی": 140,
    "▁چین": 141,
    "▁نیست": 142,
    "▁روی": 143,
    "▁شب": 144,
    "▁وزیر": 145,
    "▁اخیر": 146,
    "به": 147,
    "▁سر": 148,
    "▁بریتانیا": 149,
    "▁کردند": 150,
    "▁داشت": 151,
    "▁آغاز": 152,
    "▁وزارت": 153,
    "▁بودند": 154,
    "ب": 155,
    "ات": 156,
    "▁سی": 157,
    "▁اروپا": 158,
    "▁بیشتر": 159,
    "▁حدود": 160,
    "▁نیز": 161,
    "▁ایرانی": 162,
    "▁مقابل": 163,
    "ل": 164,
    "▁اقتصادی": 165,
    "▁بانک": 166,
    "▁را": 167,
    "▁راه": 168,
    "▁بزرگ": 169,
    "▁نشان": 170,
    "▁تحریم": 171,
    "▁داشته": 172,
    "▁برنامه": 173,
    "▁باشگاه": 174,
    "▁باشد": 175,
    "▁همچنین": 176,
    "س": 177,
    "▁پایان": 178,
    "▁حضور": 179,
    "▁ف": 180,
    "▁انجام": 181,
    "▁اش": 182,
    "▁اساس": 183,
    "▁اولین": 184,
    "▁زمان": 185,
    "▁تر": 186,
    "▁آن": 187,
    "که": 188,
    "▁منتشر": 189,
    "▁هایی": 190,
    "▁توافق": 191,
    "▁شیوع": 192,
    "▁باز": 193,
    "▁صورت": 194,
    "▁واکسن": 195,
    "▁شهر": 196,
    "▁اول": 197,
    "▁شوند": 198,
    "▁بخش": 199,
    "▁س": 200,
    "▁جمله": 201,
    "له": 202,
    "ری": 203,
    "▁استفاده": 204,
    "آقای": 205,
    "دامه": 206,
    "▁مردم": 207,
    "▁میلیارد": 208,
    "▁وجود": 209,
    "▁میان": 210,
    "▁رسید": 211,
    "▁تومان": 212,
    "▁دارند": 213,
    "▁ارز": 214,
    "▁گل": 215,
    "▁مسابقه": 216,
    "او": 217,
    "▁همین": 218,
    "▁کم": 219,
    "؟": 220,
    "▁المللی": 221,
    "▁فصل": 222,
    "▁زندگی": 223,
    "▁خواست": 224,
    "گی": 225,
    "▁مسابقات": 226,
    "▁گروه": 227,
    "▁حقوق": 228,
    "▁چهار": 229,
    "▁آینده": 230,
    "▁شدند": 231,
    "▁مقام": 232,
    "▁ن": 233,
    "▁تنها": 234,
    "▁اسلامی": 235,
    "▁نرخ": 236,
    "▁پ": 237,
    "▁تمام": 238,
    "▁وضعیت": 239,
    "انه": 240,
    "ز": 241,
    "▁گیری": 242,
    "▁خانه": 243,
    "▁ماشین": 244,
    "▁حالی": 245,
    "▁افراد": 246,
    "▁محمد": 247,
    "▁ک": 248,
    "▁انتخابات": 249,
    "▁اقتصاد": 250,
    "▁امسال": 251,
    "▁وقت": 252,
    "▁گرفت": 253,
    "▁ساله": 254,
    "▁ه": 255,
    "▁خارجه": 256,
    "▁دوران": 257,
    "▁بیماری": 258,
    "▁زنان": 259,
    "عث": 260,
    "▁شرایط": 261,
    "▁کردن": 262,
    "▁۲۰": 263,
    "▁بسیاری": 264,
    "▁قبل": 265,
    "▁برتر": 266,
    "▁فعالیت": 267,
    "▁روحانی": 268,
    "▁زیاد": 269,
    "▁غیر": 270,
    "▁اجتماعی": 271,
    "نه": 272,
    "▁توان": 273,
    "بدون": 274,
    "▁تلاش": 275,
    "▁هیچ": 276,
    "▁جام": 277,
    "▁تواند": 278,
    "▁وارد": 279,
    "▁گویند": 280,
    "▁نزدیک": 281,
    "▁طرح": 282,
    "▁تازه": 283,
    "▁نخست": 284,
    "▁کمک": 285,
    "▁کشورهای": 286,
    "▁طور": 287,
    "▁حالا": 288,
    "یت": 289,
    "▁مرکزی": 290,
    "▁فروش": 291,
    "▁مختلف": 292,
    "▁خانواده": 293,
    "▁بسیار": 294,
    "▁ولی": 295,
    "▁مدت": 296,
    "▁جان": 297,
    "▁سوی": 298,
    "▁اطلاعات": 299,
    "ترین": 300,
    "▁۱۹": 301,
    "▁تصمیم": 302,
    "▁بورس": 303,
    "▁همراه": 304,
    "▁نه": 305,
    "▁منطقه": 306,
    "▁تغییر": 307,
    "▁پنج": 308,
    "▁زمین": 309,
    "▁تاریخ": 310,
    "▁دوره": 311,
    "▁دهه": 312,
    "▁سرمایه": 313,
    "▁زن": 314,
    "▁رسمی": 315,
    "▁اثر": 316,
    "▁خودرو": 317,
    "▁موسیقی": 318,
    "▁قهرمان": 319,
    "▁بعضی": 320,
    "▁د": 321,
    "▁رسان": 322,
    "▁پرسپولیس": 323,
    "▁پی": 324,
    "ق": 325,
    "▁منبع": 326,
    "▁برای": 327,
    "▁درگذشت": 328,
    "▁ریاست": 329,
    "▁مرکز": 330,
    "▁مهم": 331,
    "شان": 332,
    "▁ر": 333,
    "▁آمار": 334,
    "یه": 335,
    "▁قهرمانی": 336,
    "▁شکست": 337,
    "▁پر": 338,
    "ار": 339,
    "▁نوشته": 340,
    "قط": 341,
    "▁اصلی": 342,
    "▁دی": 343,
    "▁حمله": 344,
    "▁نقش": 345,
    "▁پیدا": 346,
    "▁برجام": 347,
    "نامه": 348,
    "▁مراسم": 349,
    "▁برابر": 350,
    "▁بررسی": 351,
    "▁شروع": 352,
    "▁میلادی": 353,
    "▁بالا": 354,
    "▁رقابت": 355,
    "▁آمریکایی": 356,
    "▁ش": 357,
    "▁کنار": 358,
    "▁فدراسیون": 359,
    "▁دوم": 360,
    "▁رسیده": 361,
    "شورای": 362,
    "▁عکس": 363,
    "▁جمهور": 364,
    "▁یافته": 365,
    "▁زیر": 366,
    "▁۱۰": 367,
    "▁۴": 368,
    "▁هسته": 369,
    "▁پول": 370,
    "▁ویژ": 371,
    "ثبت": 372,
    "ک": 373,
    "ست": 374,
    "▁رفت": 375,
    "▁اعتراض": 376,
    "نوز": 377,
    "▁کشتی": 378,
    "ده": 379,
    "▁حاضر": 380,
    "▁۵": 381,
    "ایی": 382,
    "▁دانشگاه": 383,
    "▁ساعت": 384,
    "▁نتیج": 385,
    "▁سفر": 386,
    "▁استان": 387,
    "▁هم": 388,
    "▁آزاد": 389,
    "یک": 390,
    "▁دنیا": 391,
    "▁سیاسی": 392,
    "▁که": 393,
    "▁اینک": 394,
    "▁مالی": 395,
    "▁موضوع": 396,
    "▁کل": 397,
    "▁الله": 398,
    "▁پرداخت": 399,
    "▁ممکن": 400,
    "▁برخ": 401,
    "ها": 402,
    "▁نشده": 403,
    "▁ندارد": 404,
    "▁کنیم": 405,
    "▁کتاب": 406,
    "گان": 407,
    "▁سهام": 408,
    "▁واکنش": 409,
    "با": 410,
    "▁همکاری": 411,
    "توسط": 412,
    "▁سابق": 413,
    "▁گذاری": 414,
    "▁شش": 415,
    "▁کمتر": 416,
    "نی": 417,
    "▁توجه": 418,
    "▁دنبال": 419,
    "▁شنبه": 420,
    "▁سیاست": 421,
    "▁آ": 422,
    "▁بازیکن": 423,
    "▁دریافت": 424,
    "▁۲": 425,
    "▁طی": 426,
    "▁عراق": 427,
    "▁آژانس": 428,
    "▁عرض": 429,
    "▁جایزه": 430,
    "▁حمایت": 431,
    "▁هدف": 432,
    "▁کمی": 433,
    "ون": 434,
    "▁دور": 435,
    "▁ترکیه": 436,
    "▁ترامپ": 437,
    "▁اشار": 438,
    "▁بودجه": 439,
    "▁استقلال": 440,
    "▁۲۰۲۰": 441,
    "▁انتشار": 442,
    "▁فرانسه": 443,
    "▁رشد": 444,
    "▁آمده": 445,
    "▁خرید": 446,
    "▁تعطیل": 447,
    "اکنون": 448,
    "▁دهند": 449,
    "▁متهم": 450,
    "▁نیمه": 451,
    "▁نامه": 452,
    "▁سازی": 453,
    "▁رسد": 454,
    "▁او": 455,
    "بر": 456,
    "▁انرژی": 457,
    "▁رو": 458,
    "▁آلمان": 459,
    "▁خبرگزا": 460,
    "▁زبان": 461,
    "ای": 462,
    "▁آب": 463,
    "▁پیروز": 464,
    "حتی": 465,
    "▁عربستان": 466,
    "▁کر": 467,
    "▁بازداشت": 468,
    "▁چنین": 469,
    "▁یافت": 470,
    "▁همان": 471,
    ")": 472,
    "▁نیاز": 473,
    "▁خام": 474,
    "▁خارجی": 475,
    "▁مذاکرات": 476,
    "▁مدیر": 477,
    "▁هشدار": 478,
    "▁اتحاد": 479,
    "▁تبدیل": 480,
    "▁تایید": 481,
    "▁اجرای": 482,
    "▁بهداشت": 483,
    "▁ده": 484,
    "▁تلویزیون": 485,
    "▁روند": 486,
    "▁صد": 487,
    "▁نیم": 488,
    "▁هفت": 489,
    "▁میزان": 490,
    "▁لیورپول": 491,
    "▁حسن": 492,
    "▁این": 493,
    "▁شمار": 494,
    "▁قهرمانان": 495,
    "▁دولتی": 496,
    "▁صادرات": 497,
    "▁محل": 498,
    "▁آزمایش": 499,
    "▁۳": 500,
    "▁دیدار": 501,
    "▁(": 502,
    "▁قابل": 503,
    "▁دیده": 504,
    "از": 505,
    "▁کشته": 506,
    "▁ورزش": 507,
    "▁ایجاد": 508,
    "ِ": 509,
    "▁مجموعه": 510,
    "▁خواهند": 511,
    "▁جنوبی": 512,
    "▁دادگاه": 513,
    "▁خارج": 514,
    "▁مربوط": 515,
    "▁بازیکنان": 516,
    "▁نهایی": 517,
    "▁جریان": 518,
    "▁زمانی": 519,
    "▁بازگشت": 520,
    "▁اقدام": 521,
    "کسب": 522,
    "▁مشخص": 523,
    "▁نا": 524,
    "▁مبارز": 525,
    "گیری": 526,
    "▁خط": 527,
    "▁.": 528,
    "▁اسرائیل": 529,
    "▁سرمربی": 530,
    "▁مرگ": 531,
    "▁زندان": 532,
    "▁قانون": 533,
    "▁ح": 534,
    "▁لغ": 535,
    "▁ام": 536,
    "▁مدل": 537,
    "▁روسیه": 538,
    "▁زده": 539,
    "▁فاصله": 540,
    "▁حکومت": 541,
    "▁کننده": 542,
    "▁صنعت": 543,
    "▁بشر": 544,
    "▁چرا": 545,
    "▁سخت": 546,
    "▁امنیت": 547,
    "▁ارتباط": 548,
    "▁ارزش": 549,
    "▁آی": 550,
    "▁ج": 551,
    "▁مرد": 552,
    "▁ابتلا": 553,
    "▁خطر": 554,
    "▁زمینه": 555,
    "▁بیمارستان": 556,
    "▁داستان": 557,
    "▁۶": 558,
    "▁سوم": 559,
    "▁اتمی": 560,
    "▁نقل": 561,
    "▁رد": 562,
    "▁دقیق": 563,
    "▁نمایش": 564,
    "▁حکم": 565,
    "▁انگلیس": 566,
    "▁خاطر": 567,
    "▁نمایند": 568,
    "▁محدودیت": 569,
    "▁رود": 570,
    "▁رهبر": 571,
    "▁برد": 572,
    "▁انتخاب": 573,
    "▁پلیس": 574,
    "▁نگاه": 575,
    "▁عمومی": 576,
    "▁جلو": 577,
    "▁درآمد": 578,
    "▁ساخته": 579,
    "▁اعضای": 580,
    "▁نمایندگان": 581,
    "▁تعداد": 582,
    "▁سخنگوی": 583,
    "▁امنیتی": 584,
    "▁نسبت": 585,
    "▁دیگری": 586,
    "▁تاثیر": 587,
    "▁عضو": 588,
    "▁کابل": 589,
    "▁آثار": 590,
    "▁۳۰": 591,
    "▁لندن": 592,
    "▁۱۳": 593,
    "▁منابع": 594,
    "▁سن": 595,
    "۸": 596,
    "▁ساخت": 597,
    "▁بیانیه": 598,
    "ینه": 599,
    "▁بالای": 600,
    "▁شکل": 601,
    "▁معاون": 602,
    "▁رکورد": 603,
    "▁کووید": 604,
    "▁سو": 605,
    "▁شناخت": 606,
    "▁همزمان": 607,
    "مین": 608,
    "▁کامل": 609,
    "▁طول": 610,
    "▁قرارداد": 611,
    "▁سپاه": 612,
    "▁امتیاز": 613,
    "▁انسان": 614,
    "▁جاری": 615,
    "چه": 616,
    "▁جا": 617,
    "▁آسیا": 618,
    "ور": 619,
    "▁پزشکی": 620,
    "▁سطح": 621,
    "▁نظامی": 622,
    "▁شورا": 623,
    "▁روزهای": 624,
    "▁کودکان": 625,
    "▁جلس": 626,
    "▁بخشی": 627,
    "▁طرف": 628,
    "▁قرنطینه": 629,
    "یم": 630,
    "▁رای": 631,
    "▁دوبار": 632,
    "ال": 633,
    "▁نیروهای": 634,
    "▁جنگ": 635,
    "▁سالگی": 636,
    "▁۲۵": 637,
    "▁گاز": 638,
    "▁المپیک": 639,
    "▁عالی": 640,
    "▁هوای": 641,
    "▁تحت": 642,
    "▁بهتری": 643,
    "▁چ": 644,
    "▁تع": 645,
    "▁اج": 646,
    "خیلی": 647,
    "▁تنیس": 648,
    "▁تو": 649,
    "▁جو": 650,
    "▁توانست": 651,
    "▁افت": 652,
    "▁صندوق": 653,
    "▁سابقه": 654,
    "▁نشست": 655,
    "▁مطرح": 656,
    "ره": 657,
    "▁معرف": 658,
    "ازه": 659,
    "▁انقلاب": 660,
    "▁انتظار": 661,
    "▁متحده": 662,
    "وز": 663,
    "-": 664,
    "▁گسترده": 665,
    "▁دانست": 666,
    "▁ترک": 667,
    "▁نامزد": 668,
    "▁مصاحبه": 669,
    "روز": 670,
    "▁داخل": 671,
    "▁شدت": 672,
    "▁بحران": 673,
    "▁وی": 674,
    "▁برق": 675,
    "▁مرح": 676,
    "▁جدی": 677,
    "▁آخری": 678,
    "▁نکرده": 679,
    "▁نگرانی": 680,
    "▁برنده": 681,
    "▁رفته": 682,
    "▁۲۰۰": 683,
    "▁ظریف": 684,
    "▁هز": 685,
    "▁نفتی": 686,
    "▁بایدن": 687,
    "▁چهر": 688,
    "▁انتقال": 689,
    "▁قو": 690,
    "▁ع": 691,
    "▁فشار": 692,
    "▁آیا": 693,
    "▁خوب": 694,
    "▁۲۰۱۹": 695,
    "▁متوقف": 696,
    "▁انتقاد": 697,
    "ف": 698,
    "▁خودش": 699,
    "نده": 700,
    "▁گرفتن": 701,
    "▁بینی": 702,
    "▁امور": 703,
    "▁تصوی": 704,
    "▁گذاشته": 705,
    "▁۱": 706,
    "▁۷": 707,
    "می": 708,
    "▁اتهام": 709,
    "▁اسفند": 710,
    "▁پاسخ": 711,
    "▁گیرد": 712,
    "▁پیشین": 713,
    "▁دستگاه": 714,
    "▁جامعه": 715,
    "اما": 716,
    "▁ارائه": 717,
    "▁فارسی": 718,
    "▁حرکت": 719,
    "▁ایتالیا": 720,
    "▁حساب": 721,
    "▁فرهنگ": 722,
    "▁قدرت": 723,
    "▁بست": 724,
    "▁دونالد": 725,
    "▁شدید": 726,
    "▁مشکلات": 727,
    "▁فعال": 728,
    "▁۱۲": 729,
    "▁موج": 730,
    "▁نوشت": 731,
    "▁آزادی": 732,
    "ستاد": 733,
    "رونده": 734,
    "▁کشید": 735,
    "▁آمد": 736,
    "▁طراح": 737,
    "▁بشک": 738,
    "▁سینما": 739,
    "▁اتفاق": 740,
    "▁فروردین": 741,
    "▁قطع": 742,
    "▁کسان": 743,
    "▁فینال": 744,
    "▁ورزشی": 745,
    "▁محکوم": 746,
    "▁باشند": 747,
    "▁۱۴۰۰": 748,
    "▁مرغ": 749,
    "▁سایر": 750,
    "ستاره": 751,
    "▁جای": 752,
    "▁روزنامه": 753,
    "▁داشتند": 754,
    "▁فضای": 755,
    "▁مانده": 756,
    "▁فکر": 757,
    "▁دستور": 758,
    "▁الکتریکی": 759,
    "▁دسترس": 760,
    "▁چشم": 761,
    "▁خانم": 762,
    "▁ملل": 763,
    "▁بلند": 764,
    "▁مشکل": 765,
    "▁کس": 766,
    "الات": 767,
    "▁موسس": 768,
    "▁رقم": 769,
    "▁هند": 770,
    "▁همچن": 771,
    "▁تورم": 772,
    "▁جمعیت": 773,
    "▁دوشنبه": 774,
    "▁قرن": 775,
    "▁۹": 776,
    "▁چهارم": 777,
    "▁گو": 778,
    "▁غنی": 779,
    "▁نوع": 780,
    "▁ورود": 781,
    "▁هنگام": 782,
    "▁پرو": 783,
    "▁جنوب": 784,
    "▁اجرا": 785,
    "▁آنچ": 786,
    "▁نو": 787,
    "▁مصوب": 788,
    "▁معاملات": 789,
    "▁۱۵": 790,
    "▁آسیب": 791,
    "▁محیط": 792,
    "▁امضا": 793,
    "بی": 794,
    "▁محدود": 795,
    "▁آبان": 796,
    "▁چگون": 797,
    "▁خروج": 798,
    "▁دادن": 799,
    "▁احتمال": 800,
    "▁فن": 801,
    "▁اف": 802,
    "▁قبلی": 803,
    "▁مسئولان": 804,
    "▁ورزشگاه": 805,
    "▁محلی": 806,
    "▁فرهنگی": 807,
    "ً": 808,
    "▁پشت": 809,
    "▁تشکیل": 810,
    "▁جمعه": 811,
    "▁تاریخی": 812,
    "▁طر": 813,
    "▁ناشی": 814,
    "▁باقی": 815,
    "سی": 816,
    "سیون": 817,
    "▁شهرهای": 818,
    "▁شجریان": 819,
    "▁انفجار": 820,
    "▁آوریل": 821,
    "▁اسکار": 822,
    "▁تجاری": 823,
    "▁شامل": 824,
    "▁سیاه": 825,
    "▁شما": 826,
    "ول": 827,
    "▁دفاع": 828,
    "▁۵۰": 829,
    "▁تاکید": 830,
    "▁بارسلونا": 831,
    "▁کنید": 832,
    "▁واحد": 833,
    "▁تجرب": 834,
    "▁کارگران": 835,
    "▁اروپایی": 836,
    "▁اختیار": 837,
    "▁طولانی": 838,
    "▁علت": 839,
    "▁شاخص": 840,
    "▁تن": 841,
    "ج": 842,
    "گاه": 843,
    "وی": 844,
    "▁شکایت": 845,
    "▁سیستم": 846,
    "▁امکان": 847,
    "▁مربی": 848,
    "▁ترکیب": 849,
    "▁متفاوت": 850,
    "▁نویسنده": 851,
    "▁نبود": 852,
    "▁پای": 853,
    "▁یاد": 854,
    "▁نهاد": 855,
    "▁ممنوع": 856,
    "▁آخر": 857,
    "▁آتش": 858,
    "▁نیروی": 859,
    "یین": 860,
    "▁صحبت": 861,
    "▁احتمالا": 862,
    "▁کنم": 863,
    "▁ترتیب": 864,
    "دی": 865,
    "▁تک": 866,
    "▁شان": 867,
    "▁دار": 868,
    "▁مرتبط": 869,
    "▁چپ": 870,
    "حفظ": 871,
    "▁داخلی": 872,
    "▁شهروندان": 873,
    "▁دادند": 874,
    "▁کوچک": 875,
    "▁اس": 876,
    "حه": 877,
    "▁هنر": 878,
    "▁یع": 879,
    "▁تحقیق": 880,
    "▁ضرب": 881,
    "▁درمان": 882,
    "▁شماری": 883,
    "▁روبرو": 884,
    "▁قوانین": 885,
    "▁لازم": 886,
    "لی": 887,
    "▁واردات": 888,
    "▁ال": 889,
    "یق": 890,
    "▁اولیه": 891,
    "▁ماسک": 892,
    "▁لای": 893,
    "▁بودن": 894,
    "▁نظام": 895,
    "▁ابتدای": 896,
    "▁مبتلا": 897,
    "▁مشترک": 898,
    "▁مسیر": 899,
    "▁کنترل": 900,
    "▁پروژه": 901,
    "▁مواد": 902,
    "▁تامین": 903,
    "▁درخواست": 904,
    "▁بیرون": 905,
    "▁۲۲": 906,
    "▁پایین": 907,
    "▁تحقیقات": 908,
    "▁قرمز": 909,
    "▁عباس": 910,
    "▁سقوط": 911,
    "▁آستان": 912,
    "▁مسی": 913,
    "▁بهتر": 914,
    "▁خوانده": 915,
    "▁حذف": 916,
    "▁گذشت": 917,
    "▁ونزوئلا": 918,
    "▁نقاشی": 919,
    "▁۲۰۱": 920,
    "پس": 921,
    "▁توسعه": 922,
    "▁۱۱": 923,
    "▁۸": 924,
    "▁شاهد": 925,
    "▁فرد": 926,
    "▁حل": 927,
    "تر": 928,
    "▁یکشنبه": 929,
    "۲": 930,
    "▁هایش": 931,
    "▁فهرست": 932,
    "▁بگیرد": 933,
    "▁موارد": 934,
    "▁نتایج": 935,
    "مه": 936,
    "▁افتاد": 937,
    "▁میزبان": 938,
    "▁عمل": 939,
    "رفع": 940,
    "▁رییس": 941,
    "▁سمت": 942,
    "▁سرعت": 943,
    "▁مسئول": 944,
    "▁سوخت": 945,
    "یون": 946,
    "▁۴۰": 947,
    "▁چهارشنبه": 948,
    "▁آورد": 949,
    "انی": 950,
    "▁مارادونا": 951,
    "▁همیشه": 952,
    "▁سنت": 953,
    "▁شاید": 954,
    "▁کلی": 955,
    "▁بندی": 956,
    "▁نژاد": 957,
    "سازی": 958,
    "▁هشت": 959,
    "▁نگهبان": 960,
    "▁نظیر": 961,
    "▁وین": 962,
    "▁اخیرا": 963,
    "▁روابط": 964,
    "▁هرات": 965,
    "۴": 966,
    "▁طبق": 967,
    "▁اختلاف": 968,
    "▁بد": 969,
    "▁سریال": 970,
    "▁طلا": 971,
    "▁زاده": 972,
    "▁هوا": 973,
    "▁خون": 974,
    "▁بتوان": 975,
    "▁آماده": 976,
    "▁تا": 977,
    "▁علاو": 978,
    "▁صفر": 979,
    "▁قانونی": 980,
    "▁تجارت": 981,
    "▁اتاق": 982,
    "▁برده": 983,
    "▁شناس": 984,
    "▁ط": 985,
    "ید": 986,
    "▁تقریبا": 987,
    "▁هنری": 988,
    "▁کوتاه": 989,
    "▁گروهی": 990,
    "▁سراسر": 991,
    "▁فعالان": 992,
    "▁دلایل": 993,
    "▁شمال": 994,
    "▁یورو": 995,
    "▁زود": 996,
    "▁بیشتری": 997,
    "▁مارس": 998,
    "▁ولایت": 999,
    "▁۲۰۲۱": 1000,
    "▁پارسال": 1001,
    "▁معروف": 1002,
    "▁جشنواره": 1003,
    "▁سلامت": 1004,
    "▁۱۴": 1005,
    "▁محمود": 1006,
    "▁بارها": 1007,
    "▁صادر": 1008,
    "▁فر": 1009,
    "▁زد": 1010,
    "▁عامل": 1011,
    "▁جز": 1012,
    "▁حادثه": 1013,
    "▁اقدامات": 1014,
    "▁قصد": 1015,
    "▁قطر": 1016,
    "▁کارگردان": 1017,
    "▁۶۰": 1018,
    "▁بخوانید": 1019,
    "▁ندارند": 1020,
    "▁اوپک": 1021,
    "▁کالا": 1022,
    "▁رفتن": 1023,
    "▁اداره": 1024,
    "▁تاکنون": 1025,
    "▁فوت": 1026,
    "▁متر": 1027,
    "اخر": 1028,
    "▁مصرف": 1029,
    "▁هواپیمایی": 1030,
    "▁رسیدن": 1031,
    "▁کارخان": 1032,
    "▁۹۸": 1033,
    "▁تاج": 1034,
    "▁اعدام": 1035,
    "▁مشابه": 1036,
    "▁بدن": 1037,
    "▁مجازی": 1038,
    "▁دارایی": 1039,
    "▁صفح": 1040,
    "▁رشت": 1041,
    "▁هواداران": 1042,
    "▁نقطه": 1043,
    "▁واقع": 1044,
    "▁پیشنهاد": 1045,
    "▁بنزین": 1046,
    "▁غرب": 1047,
    "▁سوار": 1048,
    "▁پور": 1049,
    "▁عد": 1050,
    "▁جمع": 1051,
    "نگ": 1052,
    "▁اطلاع": 1053,
    "▁مناطق": 1054,
    "▁کاری": 1055,
    "▁پرواز": 1056,
    "یی": 1057,
    "▁خصوصی": 1058,
    "▁کنندگان": 1059,
    "▁بیست": 1060,
    "▁۱۶": 1061,
    "▁سیتی": 1062,
    "▁رمان": 1063,
    "▁خوزستان": 1064,
    "▁رعایت": 1065,
    "▁عملیات": 1066,
    "▁حق": 1067,
    "▁رنگ": 1068,
    "▁اندازه": 1069,
    "▁کیلومتر": 1070,
    "علی": 1071,
    "▁پیام": 1072,
    "▁تابستان": 1073,
    "▁کاملا": 1074,
    "گر": 1075,
    "▁سا": 1076,
    "▁چاپ": 1077,
    "▁قلب": 1078,
    "▁سوریه": 1079,
    "▁تهدید": 1080,
    "اساس": 1081,
    "▁ق": 1082,
    "▁حد": 1083,
    "▁احمد": 1084,
    "ایران": 1085,
    "▁حرفه": 1086,
    "▁تهی": 1087,
    "▁عدالت": 1088,
    "▁نظارت": 1089,
    "▁مشهور": 1090,
    "▁فساد": 1091,
    "▁احیا": 1092,
    "۰": 1093,
    "▁نهادهای": 1094,
    "▁مهر": 1095,
    "ته": 1096,
    "▁زنده": 1097,
    "▁برسد": 1098,
    "▁فرصت": 1099,
    "▁پاریس": 1100,
    "▁کاخ": 1101,
    "▁جهش": 1102,
    "▁عمده": 1103,
    "۵": 1104,
    "▁گون": 1105,
    "▁ماند": 1106,
    "▁زیست": 1107,
    "▁توییتر": 1108,
    "▁جنسی": 1109,
    "▁بریتانیایی": 1110,
    "▁کشورها": 1111,
    "▁سایت": 1112,
    "▁توصیف": 1113,
    "▁حوزه": 1114,
    "▁رکود": 1115,
    "▁کشف": 1116,
    "عده": 1117,
    "▁اینترنت": 1118,
    "▁یونایتد": 1119,
    "▁اعتراضات": 1120,
    "▁مالیات": 1121,
    "▁کودک": 1122,
    "▁پدر": 1123,
    "تی": 1124,
    "▁بایرن": 1125,
    "▁جدول": 1126,
    "▁مجوز": 1127,
    "▁علمی": 1128,
    "▁نسل": 1129,
    "▁موفق": 1130,
    "▁۱۸": 1131,
    "▁گ": 1132,
    "▁ما": 1133,
    "▁خواهان": 1134,
    "▁مرز": 1135,
    "▁چیزی": 1136,
    "خانه": 1137,
    "▁حزب": 1138,
    "▁سفید": 1139,
    "▁محمو": 1140,
    "▁انگیز": 1141,
    "▁نگران": 1142,
    "▁بالاتر": 1143,
    "▁پخ": 1144,
    "▁خالی": 1145,
    "▁فضایی": 1146,
    "▁آید": 1147,
    "▁مذاکر": 1148,
    "▁مه": 1149,
    "▁من": 1150,
    "▁عملکرد": 1151,
    "▁رابطه": 1152,
    "براز": 1153,
    "▁بو": 1154,
    "▁پژوهش": 1155,
    "▁توپ": 1156,
    "▁۵۰۰": 1157,
    "▁تصاویر": 1158,
    "▁استرالیا": 1159,
    "▁سود": 1160,
    "▁بازیگر": 1161,
    "▁کنون": 1162,
    "▁کارگر": 1163,
    "▁مواجه": 1164,
    "▁موافقت": 1165,
    "▁سنگین": 1166,
    "مان": 1167,
    "▁دومین": 1168,
    "▁بزرگترین": 1169,
    "▁فدرر": 1170,
    "▁تغییرات": 1171,
    "▁۹۰": 1172,
    "▁گفتگو": 1173,
    "▁افغان": 1174,
    "▁سعید": 1175,
    "▁پایتخت": 1176,
    "▁ان": 1177,
    "نمایی": 1178,
    "▁عبور": 1179,
    "▁۱۷": 1180,
    "▁مجموع": 1181,
    "▁سریع": 1182,
    "▁خودروساز": 1183,
    "▁مت": 1184,
    "▁روش": 1185,
    "▁مجدد": 1186,
    "▁صدا": 1187,
    "▁ایالت": 1188,
    "▁روشن": 1189,
    "طور": 1190,
    "▁ایمن": 1191,
    "▁باخت": 1192,
    "▁مهدی": 1193,
    "▁سکه": 1194,
    "▁ژوئن": 1195,
    "▁نفتکش": 1196,
    "▁سرطان": 1197,
    "▁گر": 1198,
    "یر": 1199,
    "▁میدان": 1200,
    "▁چیز": 1201,
    "▁نشد": 1202,
    "▁تاجیکستان": 1203,
    "▁مقررات": 1204,
    "▁مقایس": 1205,
    "▁درست": 1206,
    "▁موفقیت": 1207,
    "▁قطعی": 1208,
    "▁خواننده": 1209,
    "▁امام": 1210,
    "ام": 1211,
    "▁کدام": 1212,
    "▁جوان": 1213,
    "▁مردان": 1214,
    "ممنوعیت": 1215,
    "▁مشغول": 1216,
    "▁توضیح": 1217,
    "▁گذار": 1218,
    "▁پنجم": 1219,
    "▁مجبور": 1220,
    "▁دهم": 1221,
    "▁آرژانتین": 1222,
    "▁افتاده": 1223,
    "▁تی": 1224,
    "▁سخنران": 1225,
    "▁مانع": 1226,
    "▁ماهه": 1227,
    "▁فرمانده": 1228,
    "▁چلسی": 1229,
    "▁مدیریت": 1230,
    "▁پروازهای": 1231,
    "▁صدای": 1232,
    "▁بیکار": 1233,
    "▁کن": 1234,
    "▁بال": 1235,
    "۶": 1236,
    "▁جشن": 1237,
    "▁تجمع": 1238,
    "▁۲۴": 1239,
    "▁۱۰۰": 1240,
    "▁مد": 1241,
    "▁ارزی": 1242,
    "▁چه": 1243,
    "▁مر": 1244,
    "▁احمدی": 1245,
    "فورد": 1246,
    "▁خواند": 1247,
    "▁ملت": 1248,
    "▁منتقل": 1249,
    "▁اظهارات": 1250,
    "▁سنگ": 1251,
    "▁جدا": 1252,
    "▁حسین": 1253,
    "▁رانند": 1254,
    "▁اضاف": 1255,
    "▁دریا": 1256,
    "▁-": 1257,
    "▁روزانه": 1258,
    "▁برخورد": 1259,
    "▁دختر": 1260,
    "▁ارتش": 1261,
    "▁ساختمان": 1262,
    "▁حرف": 1263,
    "▁دفتر": 1264,
    "▁سفیر": 1265,
    "▁تاتنهام": 1266,
    "▁پیشتر": 1267,
    "▁بهار": 1268,
    "▁تقوی": 1269,
    "▁دنیای": 1270,
    "▁ارشد": 1271,
    "▁ل": 1272,
    "▁واکسین": 1273,
    "▁بهمن": 1274,
    "▁دبیر": 1275,
    "▁مجله": 1276,
    "ع": 1277,
    "▁زندانی": 1278,
    "▁واقعی": 1279,
    "▁قضایی": 1280,
    "▁اجرایی": 1281,
    "▁ز": 1282,
    "▁۲۸": 1283,
    "▁نقاط": 1284,
    "▁خ": 1285,
    "▁حت": 1286,
    "▁بهبود": 1287,
    "▁اسپانیا": 1288,
    "▁تشخیص": 1289,
    "یات": 1290,
    "▁پا": 1291,
    "▁خصوص": 1292,
    "▁آورده": 1293,
    "▁دکتر": 1294,
    "▁خبرنگار": 1295,
    "▁یابد": 1296,
    "▁انگلستان": 1297,
    "▁دوچرخه": 1298,
    "▁گردد": 1299,
    "ریق": 1300,
    "▁خاک": 1301,
    "▁مل": 1302,
    "▁بنا": 1303,
    "▁بازارهای": 1304,
    "▁حداقل": 1305,
    "▁دچار": 1306,
    "محمد": 1307,
    "▁امیر": 1308,
    "▁مرداد": 1309,
    "اس": 1310,
    "▁قدیمی": 1311,
    "▁نوری": 1312,
    "▁بحث": 1313,
    "▁رساند": 1314,
    "▁هنرمند": 1315,
    "▁رخ": 1316,
    "▁انگلیسی": 1317,
    "▁سرشناس": 1318,
    "▁ظرف": 1319,
    "▁نشری": 1320,
    "▁اوت": 1321,
    "▁امیدوار": 1322,
    "▁ژان": 1323,
    "▁جدیدی": 1324,
    "▁شاه": 1325,
    "ویه": 1326,
    "▁گذاشت": 1327,
    "▁بهداشتی": 1328,
    "▁وزن": 1329,
    "▁تورنمنت": 1330,
    "▁دوربین": 1331,
    "▁بیت": 1332,
    "▁گمرک": 1333,
    "▁محمدرضا": 1334,
    "▁زنی": 1335,
    "▁مسکن": 1336,
    "▁فراهم": 1337,
    "▁پاسداران": 1338,
    "▁سوئیس": 1339,
    "▁علاقه": 1340,
    "▁مک": 1341,
    "▁زدن": 1342,
    "▁دوست": 1343,
    "▁ابتدا": 1344,
    "▁خورد": 1345,
    "▁صبح": 1346,
    "▁۱۳۹۹": 1347,
    "بیشتر": 1348,
    "وایل": 1349,
    "▁دانند": 1350,
    "▁برداشت": 1351,
    "▁عرب": 1352,
    "داری": 1353,
    "▁نویس": 1354,
    "۱": 1355,
    "▁ظاهر": 1356,
    "▁وابست": 1357,
    "▁قتل": 1358,
    "▁کانال": 1359,
    "▁سینمایی": 1360,
    "▁جنجال": 1361,
    "▁اوراق": 1362,
    "▁موجب": 1363,
    "▁فنی": 1364,
    "یا": 1365,
    "▁لو": 1366,
    "عودی": 1367,
    "▁حریف": 1368,
    "▁رضا": 1369,
    "▁فرانسوی": 1370,
    "دو": 1371,
    "▁آموزش": 1372,
    "▁تزریق": 1373,
    "خش": 1374,
    "▁منف": 1375,
    "▁آوری": 1376,
    "▁مالک": 1377,
    "▁کنونی": 1378,
    "▁عهد": 1379,
    "▁راست": 1380,
    "▁فرم": 1381,
    "▁کارشناسان": 1382,
    "▁۲۳": 1383,
    "▁وضع": 1384,
    "▁دانشمندان": 1385,
    "▁فو": 1386,
    "▁آلمانی": 1387,
    "▁ژاپن": 1388,
    "▁شرق": 1389,
    "▁معتقد": 1390,
    "۰۰": 1391,
    "▁منچستر": 1392,
    "▁واشنگتن": 1393,
    "▁هدایت": 1394,
    "▁بحرین": 1395,
    "▁موجود": 1396,
    "▁کوین": 1397,
    "▁فعلی": 1398,
    "▁پوند": 1399,
    "▁امید": 1400,
    "▁مغز": 1401,
    "▁شخصی": 1402,
    "▁مادر": 1403,
    "▁طبیع": 1404,
    "▁نهایت": 1405,
    "▁مثبت": 1406,
    "▁تعدادی": 1407,
    "▁مادرید": 1408,
    "▁معادل": 1409,
    "▁فیفا": 1410,
    "▁خرداد": 1411,
    "▁۷۰": 1412,
    "▁شخصیت": 1413,
    "▁خودروهای": 1414,
    "▁مستقیم": 1415,
    "▁روایت": 1416,
    "▁آلبوم": 1417,
    "▁مبتلایان": 1418,
    "▁نشود": 1419,
    "▁رفتار": 1420,
    "▁صدر": 1421,
    "▁بیمار": 1422,
    "▁مقامات": 1423,
    "▁دختران": 1424,
    "اوری": 1425,
    "کنندگان": 1426,
    "▁خانگی": 1427,
    "▁فوریه": 1428,
    "▁ارسال": 1429,
    "▁قبلا": 1430,
    "▁معمولا": 1431,
    "▁مخالفت": 1432,
    "▁دل": 1433,
    "▁پل": 1434,
    "▁معتبر": 1435,
    "▁صاحب": 1436,
    "▁معامل": 1437,
    "▁هستیم": 1438,
    "▁طالبان": 1439,
    "▁قدم": 1440,
    "▁فارس": 1441,
    "کی": 1442,
    "▁بن": 1443,
    "▁نداشته": 1444,
    "▁تومانی": 1445,
    "▁صعود": 1446,
    "عمال": 1447,
    "▁راهی": 1448,
    "▁جمعی": 1449,
    "▁دریای": 1450,
    "▁دید": 1451,
    "▁۹۹": 1452,
    "▁شعر": 1453,
    "▁خدمات": 1454,
    "▁گرفتند": 1455,
    "▁کاربران": 1456,
    "▁برزیل": 1457,
    "▁صحنه": 1458,
    "▁کارهای": 1459,
    "▁اصلاح": 1460,
    "▁پذیر": 1461,
    "▁درواز": 1462,
    "▁سینمای": 1463,
    "▁افزوده": 1464,
    "▁العاده": 1465,
    "▁موقعیت": 1466,
    "▁قضائیه": 1467,
    "▁پالایشگاه": 1468,
    "▁متعل": 1469,
    "▁سرخ": 1470,
    "▁آبی": 1471,
    "▁خوش": 1472,
    "▁زاغری": 1473,
    "▁مدیرعامل": 1474,
    "▁محصولات": 1475,
    "▁مطالع": 1476,
    "▁ضد": 1477,
    "▁دانش": 1478,
    "▁داریم": 1479,
    "▁درگیری": 1480,
    "ح": 1481,
    "▁جایی": 1482,
    "▁حمل": 1483,
    "▁اقیانوس": 1484,
    "▁پوست": 1485,
    "▁ساز": 1486,
    "▁نخواه": 1487,
    "▁مونیخ": 1488,
    "▁هوشمند": 1489,
    "▁قاچاق": 1490,
    "▁کمبود": 1491,
    "۹": 1492,
    "▁گیرند": 1493,
    "▁مهار": 1494,
    "▁مستند": 1495,
    "۷": 1496,
    "▁زندانیان": 1497,
    "▁چندان": 1498,
    "▁معنای": 1499,
    "▁بنابر": 1500,
    "▁مرزی": 1501,
    "▁هاست": 1502,
    "▁کمیس": 1503,
    "کسی": 1504,
    "▁۳۰۰": 1505,
    "▁نقدینگی": 1506,
    "▁احساس": 1507,
    "▁بدهی": 1508,
    "▁اردیبهشت": 1509,
    "▁لباس": 1510,
    "▁چالش": 1511,
    "▁قسمت": 1512,
    "▁تقاضا": 1513,
    "▁مو": 1514,
    "توجه": 1515,
    "▁مخالفان": 1516,
    "▁۲۱": 1517,
    "▁بیماران": 1518,
    "▁زخمی": 1519,
    "نقض": 1520,
    "اسیون": 1521,
    "▁موتور": 1522,
    "▁کشورش": 1523,
    "▁۳۵": 1524,
    "حسین": 1525,
    "▁شهروند": 1526,
    "۳": 1527,
    "▁گستر": 1528,
    "ران": 1529,
    "رد": 1530,
    "▁ژوئیه": 1531,
    "▁استقبال": 1532,
    "▁جزئیات": 1533,
    "▁زاد": 1534,
    "▁جوایز": 1535,
    "▁ایم": 1536,
    "▁خورشیدی": 1537,
    "▁رویترز": 1538,
    "▁عادی": 1539,
    "▁بازرگانی": 1540,
    "▁مکان": 1541,
    "گاهی": 1542,
    "▁رونالدو": 1543,
    "▁تصور": 1544,
    "▁لی": 1545,
    "وزارت": 1546,
    "▁علیرضا": 1547,
    "گ": 1548,
    "▁دین": 1549,
    "▁غربی": 1550,
    "▁عجیب": 1551,
    "▁چیست": 1552,
    "▁سفارت": 1553,
    "▁مدیران": 1554,
    "▁معترضان": 1555,
    "▁نویسندگان": 1556,
    "▁دیوان": 1557,
    "▁اسرائیلی": 1558,
    "▁مسافران": 1559,
    "▁نداشت": 1560,
    "خلق": 1561,
    "▁حسینی": 1562,
    "▁تمامی": 1563,
    "مقام": 1564,
    "▁صلح": 1565,
    "▁سوپر": 1566,
    "▁سامان": 1567,
    "▁موزه": 1568,
    "▁تخریب": 1569,
    "▁نشر": 1570,
    "▁گوش": 1571,
    "ازگی": 1572,
    "▁تلفن": 1573,
    "چند": 1574,
    "▁مجری": 1575,
    "▁توصی": 1576,
    "▁کارکنان": 1577,
    "▁بعدی": 1578,
    "▁کافی": 1579,
    "▁سند": 1580,
    "▁اینستاگرام": 1581,
    "▁پاکستان": 1582,
    "▁صنایع": 1583,
    "▁آمازون": 1584,
    "▁حفاظت": 1585,
    "▁فرهاد": 1586,
    "خواهد": 1587,
    "▁۲۶": 1588,
    "▁ناظر": 1589,
    "▁واقعیت": 1590,
    "▁آهنگ": 1591,
    "▁ارزها": 1592,
    "▁خورده": 1593,
    "▁تقاضای": 1594,
    "▁حاصل": 1595,
    "▁نگهداری": 1596,
    "▁مبلغ": 1597,
    "▁لحظ": 1598,
    "▁بنز": 1599,
    "▁مدافع": 1600,
    "▁عوامل": 1601,
    "▁نیویورک": 1602,
    "▁دریایی": 1603,
    "▁استاد": 1604,
    "▁درگیر": 1605,
    "▁جودو": 1606,
    "▁کالاهای": 1607,
    "▁میلان": 1608,
    "▁یو": 1609,
    "▁احتمالی": 1610,
    "فدراسیون": 1611,
    "▁اساسی": 1612,
    "▁سیستان": 1613,
    "▁تحویل": 1614,
    "▁پیشرفت": 1615,
    "▁باره": 1616,
    "▁بهادار": 1617,
    "▁ارقام": 1618,
    "▁ماموران": 1619,
    "▁صوتی": 1620,
    "▁پروتکل": 1621,
    "▁برقرار": 1622,
    "▁اشتباه": 1623,
    "▁کشاورز": 1624,
    "▁برمی": 1625,
    "▁ملک": 1626,
    "▁هست": 1627,
    "یان": 1628,
    "▁۸۰": 1629,
    "وم": 1630,
    "▁اهمیت": 1631,
    "▁آهن": 1632,
    "▁تأ": 1633,
    "▁منج": 1634,
    "▁حاشیه": 1635,
    "▁صراف": 1636,
    "▁انجمن": 1637,
    "▁خواهیم": 1638,
    "▁سیما": 1639,
    "▁رئال": 1640,
    "▁ورزشکاران": 1641,
    "▁مجید": 1642,
    "▁گران": 1643,
    "▁نگه": 1644,
    "▁بازنشستگ": 1645,
    "قب": 1646,
    "▁متوسط": 1647,
    "تان": 1648,
    "▁همسر": 1649,
    "▁نتوانست": 1650,
    "▁وکیل": 1651,
    "▁تعویق": 1652,
    "▁بلوچستان": 1653,
    "▁متعدد": 1654,
    "▁مسدود": 1655,
    "▁مشا": 1656,
    "▁برجسته": 1657,
    "▁هرچ": 1658,
    "▁صرف": 1659,
    "▁توقف": 1660,
    "▁مراجع": 1661,
    "▁تیراندازی": 1662,
    "▁تیر": 1663,
    "رکت": 1664,
    "▁داشتن": 1665,
    "▁ریال": 1666,
    "هرگز": 1667,
    "▁آرام": 1668,
    "▁نمو": 1669,
    "▁مالکی": 1670,
    "را": 1671,
    "▁برود": 1672,
    "▁کارشناس": 1673,
    "رضا": 1674,
    "▁فرزند": 1675,
    "▁قالیباف": 1676,
    "▁سراوان": 1677,
    "▁مراقب": 1678,
    "▁نجات": 1679,
    "▁پلاس": 1680,
    "▁تمدید": 1681,
    "▁مدعی": 1682,
    "▁پنجشنبه": 1683,
    "▁ادبیات": 1684,
    "▁نادال": 1685,
    "▁تماس": 1686,
    "▁حذفی": 1687,
    "▁فردا": 1688,
    "▁دشوار": 1689,
    "▁روزها": 1690,
    "▁فوری": 1691,
    "▁ماهی": 1692,
    "▁عین": 1693,
    "دولت": 1694,
    "▁مهاجم": 1695,
    "▁الدین": 1696,
    "▁بالاتری": 1697,
    "▁مناسب": 1698,
    "▁اوج": 1699,
    "▁نور": 1700,
    "▁صف": 1701,
    "قانونی": 1702,
    "▁جذب": 1703,
    "▁توکیو": 1704,
    "▁سلطنت": 1705,
    "▁نزدیکی": 1706,
    "▁افتخار": 1707,
    "▁آنلاین": 1708,
    "▁مج": 1709,
    "▁اخراج": 1710,
    "▁ایسنا": 1711,
    "▁محرم": 1712,
    "▁امارات": 1713,
    "اسی": 1714,
    "تنظیم": 1715,
    "▁رافائل": 1716,
    "قیف": 1717,
    "برای": 1718,
    "▁کارها": 1719,
    "▁آسمان": 1720,
    "▁کردم": 1721,
    "▁پست": 1722,
    "▁پژوهشگران": 1723,
    "زه": 1724,
    "▁سهم": 1725,
    "▁گلستان": 1726,
    "▁اختصاص": 1727,
    "▁اخبار": 1728,
    "▁نحو": 1729,
    "▁لوکس": 1730,
    "▁غذا": 1731,
    "▁فایل": 1732,
    "▁دارو": 1733,
    "▁کردیم": 1734,
    "▁فضا": 1735,
    "ط": 1736,
    "خبرگزا": 1737,
    "▁گرم": 1738,
    "▁کلوپ": 1739,
    "▁سوال": 1740,
    "▁اتفاقات": 1741,
    "▁چک": 1742,
    "من": 1743,
    "▁مربیان": 1744,
    "▁شبانه": 1745,
    "▁هن": 1746,
    "▁توییت": 1747,
    "▁اصل": 1748,
    "سال": 1749,
    "▁ورزشکار": 1750,
    "یروز": 1751,
    "▁ناگهان": 1752,
    "▁مشمول": 1753,
    "▁نوبل": 1754,
    "▁نوامبر": 1755,
    "▁اسطوره": 1756,
    "▁سبک": 1757,
    "بس": 1758,
    "▁موقت": 1759,
    "▁جایگاه": 1760,
    "امبر": 1761,
    "تبه": 1762,
    "غلب": 1763,
    "▁خیل": 1764,
    "▁مطابق": 1765,
    "▁بندر": 1766,
    "▁طبیعت": 1767,
    "▁جنگل": 1768,
    "▁همچ": 1769,
    "▁آزار": 1770,
    "▁موشک": 1771,
    "▁غذای": 1772,
    "▁ساکن": 1773,
    "سازمان": 1774,
    "▁محروم": 1775,
    "▁کنسرت": 1776,
    "▁مسلح": 1777,
    "▁۲۰۱۷": 1778,
    "▁اکتبر": 1779,
    "▁نارنجی": 1780,
    "▁مواردی": 1781,
    "▁ترس": 1782,
    "▁خیریه": 1783,
    "▁شمالی": 1784,
    "کس": 1785,
    "▁چهل": 1786,
    "▁مدرسه": 1787,
    "▁همتی": 1788,
    "▁هواپیما": 1789,
    "▁ادبی": 1790,
    "▁بازگرداند": 1791,
    "▁اع": 1792,
    "قدر": 1793,
    "▁سپاهان": 1794,
    "▁۳۱": 1795,
    "▁محبوب": 1796,
    "▁داند": 1797,
    "یکی": 1798,
    "▁ثابت": 1799,
    "▁کاپیتان": 1800,
    "▁ویمبلدون": 1801,
    "▁دعوت": 1802,
    "▁گیر": 1803,
    "▁مسئ": 1804,
    "▁معرض": 1805,
    "▁اجاره": 1806,
    "▁عصر": 1807,
    "▁ماجرا": 1808,
    "ونه": 1809,
    "▁یکدیگر": 1810,
    "سته": 1811,
    "وق": 1812,
    "پ": 1813,
    "▁راجر": 1814,
    "دار": 1815,
    "▁مارک": 1816,
    "است": 1817,
    "رئیس": 1818,
    "▁ماده": 1819,
    "▁خورشید": 1820,
    "▁هموار": 1821,
    "▁۲۹": 1822,
    "▁توزیع": 1823,
    "▁دیجیتال": 1824,
    "▁مسائل": 1825,
    "▁بقیه": 1826,
    "▁هنرپیشه": 1827,
    "▁ساحل": 1828,
    "رنگ": 1829,
    "وع": 1830,
    "▁تئاتر": 1831,
    "تیم": 1832,
    "▁سپت": 1833,
    "▁باور": 1834,
    "▁سعی": 1835,
    "شب": 1836,
    "▁عید": 1837,
    "▁هنرمندان": 1838,
    "▁۱۳۹": 1839,
    "▁دا": 1840,
    "یابی": 1841,
    "هایی": 1842,
    "▁افزود": 1843,
    "▁اندازی": 1844,
    "▁پارک": 1845,
    "▁تعهدات": 1846,
    "▁گام": 1847,
    "سه": 1848,
    "▁ریز": 1849,
    "▁حیات": 1850,
    "▁تخت": 1851,
    "▁شناسا": 1852,
    "▁مراکز": 1853,
    "▁اصفهان": 1854,
    "▁۱۳۹۷": 1855,
    "▁خسارت": 1856,
    "▁برگشت": 1857,
    "▁فراموش": 1858,
    "لاک": 1859,
    "▁منتظر": 1860,
    "▁طرفداران": 1861,
    "▁فوتبالیست": 1862,
    "▁پزشک": 1863,
    "▁مشاور": 1864,
    "▁ثانی": 1865,
    "خانم": 1866,
    "▁شاعر": 1867,
    "▁درجه": 1868,
    "▁مخالف": 1869,
    "▁خدم": 1870,
    "▁رحمان": 1871,
    "▁خان": 1872,
    "▁رویکرد": 1873,
    "▁مسافر": 1874,
    "▁زند": 1875,
    "▁داروی": 1876,
    "▁تحصیل": 1877,
    "▁نداریم": 1878,
    "▁مایک": 1879,
    "▁بوکس": 1880,
    "▁پرتاب": 1881,
    "▁رسما": 1882,
    "▁گذرد": 1883,
    "نا": 1884,
    "▁قوی": 1885,
    "▁پرس": 1886,
    "▁آل": 1887,
    "▁فرار": 1888,
    "▁مجاز": 1889,
    "▁آفریقا": 1890,
    "▁تست": 1891,
    "▁خیابان": 1892,
    "۱۹": 1893,
    "▁اتومبیل": 1894,
    "▁آذر": 1895,
    "▁ایستگاه": 1896,
    "▁تاخیر": 1897,
    "▁کلاس": 1898,
    "▁سرپرست": 1899,
    "▁تاسیسات": 1900,
    "▁ضمن": 1901,
    "▁اهل": 1902,
    "هر": 1903,
    "▁پاس": 1904,
    "▁نیازمند": 1905,
    "لیک": 1906,
    "سون": 1907,
    "▁لیون": 1908,
    "▁وگو": 1909,
    "کل": 1910,
    "▁مشاهد": 1911,
    "▁فرستاده": 1912,
    "▁کی": 1913,
    "▁عبدال": 1914,
    "افسانه": 1915,
    "▁سهمی": 1916,
    "ود": 1917,
    "▁دستگیر": 1918,
    "▁شیو": 1919,
    "▁عق": 1920,
    "اد": 1921,
    "▁فردی": 1922,
    "علوم": 1923,
    "▁عمیق": 1924,
    "گری": 1925,
    "▁تری": 1926,
    "▁دسته": 1927,
    "پیش": 1928,
    "▁متحد": 1929,
    "▁تمرین": 1930,
    "▁اعتبار": 1931,
    "هم": 1932,
    "▁قبول": 1933,
    "▁اطلاعی": 1934,
    "▁جیمز": 1935,
    "▁هویت": 1936,
    "▁بعدا": 1937,
    "▁آکادمی": 1938,
    "▁عکاسی": 1939,
    "▁جلوی": 1940,
    "▁سخنان": 1941,
    "▁قضاییه": 1942,
    "▁لس": 1943,
    "▁ژا": 1944,
    "▁نگار": 1945,
    "▁گفتند": 1946,
    "▁رقیب": 1947,
    "▁حس": 1948,
    "▁مشهد": 1949,
    "▁رادیو": 1950,
    "باید": 1951,
    "ضاع": 1952,
    "▁توانسته": 1953,
    "▁شهریور": 1954,
    "▁محسو": 1955,
    "اره": 1956,
    "▁قربانیان": 1957,
    "▁حکام": 1958,
    "▁آور": 1959,
    "▁سری": 1960,
    "▁محمدی": 1961,
    "▁هواپیمای": 1962,
    "▁گذارد": 1963,
    "جواد": 1964,
    "▁داور": 1965,
    "گزارش": 1966,
    "▁مس": 1967,
    "▁عدد": 1968,
    "▁فرود": 1969,
    "▁استعفا": 1970,
    "▁فرا": 1971,
    "تا": 1972,
    "▁پسر": 1973,
    "▁جه": 1974,
    "▁میانه": 1975,
    "ذیب": 1976,
    "▁حوادث": 1977,
    "▁خشونت": 1978,
    "▁اجلاس": 1979,
    "▁متولد": 1980,
    "▁دستمزد": 1981,
    "▁برادر": 1982,
    "▁مریخ": 1983,
    "▁عرص": 1984,
    "▁یوونتوس": 1985,
    "...": 1986,
    "▁همسرش": 1987,
    "▁ملایی": 1988,
    "▁حاکی": 1989,
    "▁ض": 1990,
    "▁بند": 1991,
    "▁هماهنگ": 1992,
    "▁منتقدان": 1993,
    "▁دارای": 1994,
    "▁فروخت": 1995,
    "▁گرانی": 1996,
    "▁خاص": 1997,
    "▁خبرنگاران": 1998,
    "ناصر": 1999,
    "اب": 2000,
    "▁بیان": 2001,
    "▁وام": 2002,
    "▁رهبری": 2003,
    "▁معدن": 2004,
    "یست": 2005,
    "▁برآورد": 2006,
    "▁قاسم": 2007,
    "▁اسکاتلند": 2008,
    "▁فرودگاه": 2009,
    "کار": 2010,
    "▁صلاحیت": 2011,
    "▁موضع": 2012,
    "▁آلودگی": 2013,
    "▁دیدن": 2014,
    "▁پنجاه": 2015,
    "▁دامن": 2016,
    "▁اجا": 2017,
    "▁اتریش": 2018,
    "کره": 2019,
    "▁چنان": 2020,
    "▁نرم": 2021,
    "▁نادر": 2022,
    "ساوی": 2023,
    "نیوم": 2024,
    "▁پدرش": 2025,
    "▁کرونای": 2026,
    "ابت": 2027,
    "▁محافظ": 2028,
    "▁اوپ": 2029,
    "▁جراح": 2030,
    "▁تکرار": 2031,
    "▁عا": 2032,
    "▁۴۰۰": 2033,
    "▁شغل": 2034,
    "▁الهام": 2035,
    "▁اورا": 2036,
    "▁حراج": 2037,
    "گرد": 2038,
    "وس": 2039,
    "▁حملات": 2040,
    "▁اطراف": 2041,
    "▁پایگاه": 2042,
    "▁اسب": 2043,
    "▁کوه": 2044,
    "▁واگذار": 2045,
    "▁حقوقی": 2046,
    "▁سلیمانی": 2047,
    "خمین": 2048,
    "▁موسو": 2049,
    "▁جوانان": 2050,
    "▁قول": 2051,
    "بنابر": 2052,
    "▁شناسی": 2053,
    "▁۳۲": 2054,
    "▁الملل": 2055,
    "▁انداخته": 2056,
    "بط": 2057,
    "▁شک": 2058,
    "سیم": 2059,
    "شیدا": 2060,
    "▁پیوست": 2061,
    "▁بلینکن": 2062,
    "▁مصنوعی": 2063,
    "▁خطرناک": 2064,
    "▁متوالی": 2065,
    "▁زمستان": 2066,
    "▁قالب": 2067,
    "▁تعلیق": 2068,
    "▁شصت": 2069,
    "▁ماموریت": 2070,
    "▁۲۰۱۵": 2071,
    "▁تبلیغات": 2072,
    "▁تسلا": 2073,
    "▁ایرنا": 2074,
    "▁فیسبوک": 2075,
    "▁آرسنال": 2076,
    "▁متخصص": 2077,
    "اری": 2078,
    "▁آمیز": 2079,
    "ما": 2080,
    "▁نفس": 2081,
    "▁ایتالیایی": 2082,
    "▁موثر": 2083,
    "▁نامش": 2084,
    "▁درک": 2085,
    "▁پزشکان": 2086,
    "▁بنیاد": 2087,
    "داد": 2088,
    "شته": 2089,
    "▁بستر": 2090,
    "▁حامل": 2091,
    "شاره": 2092,
    "▁اظهار": 2093,
    "▁تشویق": 2094,
    "▁بلا": 2095,
    "▁تنفس": 2096,
    "▁متن": 2097,
    "▁بگیرند": 2098,
    "▁شاغل": 2099,
    "▁میراث": 2100,
    "▁ناسا": 2101,
    "▁تولد": 2102,
    "▁نبوده": 2103,
    "▁ساعات": 2104,
    "▁مشتریان": 2105,
    "▁نهم": 2106,
    "▁کارمندان": 2107,
    "▁ترجم": 2108,
    "▁قطب": 2109,
    "▁شوم": 2110,
    "▁بهای": 2111,
    "رسدس": 2112,
    "▁سوزی": 2113,
    "▁ناز": 2114,
    "▁دادستان": 2115,
    "▁اسکی": 2116,
    "▁ابراهیم": 2117,
    "ترانه": 2118,
    "▁اعما": 2119,
    "▁نیستند": 2120,
    "تمام": 2121,
    "▁امیدواری": 2122,
    "▁جذاب": 2123,
    "درآمدهای": 2124,
    "▁نطنز": 2125,
    "▁سرنگون": 2126,
    "▁ژافره": 2127,
    "▁جبران": 2128,
    "▁آنجلس": 2129,
    "▁روانی": 2130,
    "▁شهرستان": 2131,
    "حسن": 2132,
    "▁شهرسازی": 2133,
    "▁ماراتن": 2134,
    "▁شفاف": 2135,
    "▁اطمینان": 2136,
    "▁آشنا": 2137,
    "▁رمز": 2138,
    "▁رانندگان": 2139,
    "یل": 2140,
    "▁تل": 2141,
    "▁شهری": 2142,
    "عهد": 2143,
    "یو": 2144,
    "▁کانادا": 2145,
    "بانک": 2146,
    "▁اضطرار": 2147,
    "کش": 2148,
    "میته": 2149,
    "فسور": 2150,
    "▁شیر": 2151,
    "▁نکرد": 2152,
    "▁مادرش": 2153,
    "▁کیلومتری": 2154,
    "▁نامداری": 2155,
    "▁گاه": 2156,
    "▁کالاها": 2157,
    "▁صدرنشین": 2158,
    "▁ازدواج": 2159,
    "▁حداکثر": 2160,
    "▁ناپذیر": 2161,
    "رده": 2162,
    "▁تحولات": 2163,
    "▁اسپانیایی": 2164,
    "▁انداز": 2165,
    "▁نفوذ": 2166,
    "▁جسد": 2167,
    "▁خلی": 2168,
    "▁نقاش": 2169,
    "▁دوز": 2170,
    "▁دام": 2171,
    "▁کلیه": 2172,
    "▁بازرس": 2173,
    "▁درمانی": 2174,
    "نجر": 2175,
    "وید": 2176,
    "▁قطعه": 2177,
    "حمل": 2178,
    "▁هوش": 2179,
    "دست": 2180,
    "▁حالت": 2181,
    "▁۲۷": 2182,
    "همزمان": 2183,
    "▁شرکتهای": 2184,
    "▁بان": 2185,
    "▁وق": 2186,
    "هفته": 2187,
    "▁اکبر": 2188,
    "▁شهرت": 2189,
    "▁کسر": 2190,
    "▁آکسفورد": 2191,
    "▁۴۲": 2192,
    "▁فعلا": 2193,
    "▁تردد": 2194,
    "▁حب": 2195,
    "▁مقصد": 2196,
    "▁عشق": 2197,
    "▁پادشاه": 2198,
    "▁ثبات": 2199,
    "▁فولاد": 2200,
    "▁شرقی": 2201,
    "بیشترین": 2202,
    "▁بدهد": 2203,
    "ئی": 2204,
    "▁سرکوب": 2205,
    "▁۱۵۰": 2206,
    "▁اسناد": 2207,
    "▁تماشاگران": 2208,
    "▁باغ": 2209,
    "▁کادر": 2210,
    "▁صدو": 2211,
    "▁جنسیت": 2212,
    "▁هشتم": 2213,
    "نویه": 2214,
    "▁گردشگری": 2215,
    "▁توجهی": 2216,
    "▁پیگیری": 2217,
    "▁محصول": 2218,
    "▁نداده": 2219,
    "وه": 2220,
    "زاده": 2221,
    "▁ساده": 2222,
    "▁خاصی": 2223,
    "▁چشمگیر": 2224,
    "▁عکاس": 2225,
    "▁ست": 2226,
    "صد": 2227,
    "▁اتفاقی": 2228,
    "▁خاتم": 2229,
    "۱۸": 2230,
    "▁تماشاگر": 2231,
    "▁امر": 2232,
    "▁لبنان": 2233,
    "▁تاسیس": 2234,
    "▁ژرمن": 2235,
    "▁کیلوگرم": 2236,
    "▁رویداد": 2237,
    "▁انتظامی": 2238,
    "▁نوروز": 2239,
    "▁اهواز": 2240,
    "▁زهرا": 2241,
    "▁دسامبر": 2242,
    "▁آواز": 2243,
    "▁پکن": 2244,
    "▁مهاجرت": 2245,
    "▁برخوردار": 2246,
    "▁هفتم": 2247,
    "▁جوکوویچ": 2248,
    "▁دهنده": 2249,
    "▁علنی": 2250,
    "▁درون": 2251,
    "▁مسعود": 2252,
    "▁نمایندگی": 2253,
    "▁جی": 2254,
    "جا": 2255,
    "▁ریش": 2256,
    "لان": 2257,
    "▁معن": 2258,
    "۹۷": 2259,
    "▁سخن": 2260,
    "▁ضرور": 2261,
    "▁خودروسازی": 2262,
    "▁جامع": 2263,
    "▁طلای": 2264,
    "▁ابلاغ": 2265,
    "▁۷۰۰": 2266,
    "جمع": 2267,
    "▁کالیفرنیا": 2268,
    "ریمه": 2269,
    "مول": 2270,
    "▁معمول": 2271,
    "▁جانب": 2272,
    "▁تق": 2273,
    "▁شبی": 2274,
    "▁گری": 2275,
    "▁گزین": 2276,
    "▁هیئت": 2277,
    "▁چارچوب": 2278,
    "▁روغن": 2279,
    "▁خفاش": 2280,
    "▁ویدیوی": 2281,
    "▁اوکراین": 2282,
    "▁تراکتور": 2283,
    "▁گشایش": 2284,
    "▁مجازات": 2285,
    "▁زاهد": 2286,
    "▁جلب": 2287,
    "▁شگفت": 2288,
    "تصاب": 2289,
    "▁نوروزی": 2290,
    "▁خودکشی": 2291,
    "▁پیچیده": 2292,
    "▁سوئد": 2293,
    "۱۶": 2294,
    "▁تفاوت": 2295,
    "لو": 2296,
    "▁وقف": 2297,
    "▁شهرداری": 2298,
    "▁دیوار": 2299,
    "▁دقیقا": 2300,
    "▁یمن": 2301,
    "▁اص": 2302,
    "یده": 2303,
    "▁بودم": 2304,
    "▁مار": 2305,
    "سعید": 2306,
    "▁ار": 2307,
    "▁جری": 2308,
    "رانی": 2309,
    "▁آمدن": 2310,
    "▁کا": 2311,
    "▁آنتونی": 2312,
    "▁یافتن": 2313,
    "▁نوجوان": 2314,
    "▁۳۳": 2315,
    "▁ذهن": 2316,
    "▁بازگش": 2317,
    "▁دما": 2318,
    "▁برداری": 2319,
    "نس": 2320,
    "▁آر": 2321,
    "▁خراسان": 2322,
    "▁مورینیو": 2323,
    "▁واگن": 2324,
    "▁تعریف": 2325,
    "▁پارلمان": 2326,
    "▁مطلب": 2327,
    "▁پاری": 2328,
    "▁تبعیض": 2329,
    "▁هفتاد": 2330,
    "▁شویم": 2331,
    "▁مقدار": 2332,
    "▁معلوم": 2333,
    "▁انداخت": 2334,
    "▁خاتمی": 2335,
    "▁مدنی": 2336,
    "▁کارزار": 2337,
    "▁اسماعیل": 2338,
    "▁پهلوی": 2339,
    "▁واقعا": 2340,
    "▁شاملو": 2341,
    "گفته": 2342,
    "▁مناسبت": 2343,
    "▁اتهامات": 2344,
    "▁عملا": 2345,
    "▁کارت": 2346,
    "▁ابر": 2347,
    "▁کجا": 2348,
    "ستان": 2349,
    "بعضی": 2350,
    "▁محققان": 2351,
    "▁گشت": 2352,
    "غم": 2353,
    "▁مسافرت": 2354,
    "▁فراوان": 2355,
    "▁اعتماد": 2356,
    "▁عمدتا": 2357,
    "▁مسجد": 2358,
    "▁تبریز": 2359,
    "▁خواب": 2360,
    "▁علائم": 2361,
    "▁دستورالعمل": 2362,
    "▁حقیقت": 2363,
    "▁نسخ": 2364,
    "▁میناوند": 2365,
    "قرار": 2366,
    "انجام": 2367,
    "▁خطیب": 2368,
    "▁کانون": 2369,
    "▁ردیف": 2370,
    "▁فیوری": 2371,
    "▁تجهیزات": 2372,
    "▁ژاپنی": 2373,
    "▁دهیم": 2374,
    "▁پاک": 2375,
    "▁تابلو": 2376,
    "▁محکومیت": 2377,
    "آزادسازی": 2378,
    "▁توانای": 2379,
    "شرکت": 2380,
    "▁ایستاده": 2381,
    "▁منظور": 2382,
    "▁آسان": 2383,
    "▁بخت": 2384,
    "▁گوشت": 2385,
    "خ": 2386,
    "▁ویدئوی": 2387,
    "وزیر": 2388,
    "دکتر": 2389,
    "▁هتل": 2390,
    "▁عمر": 2391,
    "▁مالیاتی": 2392,
    "اگر": 2393,
    "▁تحلیل": 2394,
    "▁فرمان": 2395,
    "آمریکا": 2396,
    "▁هی": 2397,
    "▁حکایت": 2398,
    "▁الحاق": 2399,
    "▁دائم": 2400,
    "▁استاندار": 2401,
    "حدود": 2402,
    "▁پوشش": 2403,
    "▁خلاف": 2404,
    "▁جواب": 2405,
    "▁خمینی": 2406,
    "▁کنفرانس": 2407,
    "▁مذهبی": 2408,
    "بار": 2409,
    "▁کلید": 2410,
    "وئل": 2411,
    "▁فولک": 2412,
    "خراج": 2413,
    "▁اختلال": 2414,
    "▁باری": 2415,
    "▁زنند": 2416,
    "▁نامید": 2417,
    "▁دیپلما": 2418,
    "▁مدرن": 2419,
    "▁روان": 2420,
    "▁پو": 2421,
    "▁بازیگران": 2422,
    "▁نشدن": 2423,
    "شدید": 2424,
    "نازنی": 2425,
    "▁داوطلبان": 2426,
    "خواهی": 2427,
    "▁برج": 2428,
    "▁تبار": 2429,
    "▁بیستم": 2430,
    "▁کش": 2431,
    "▁مبن": 2432,
    "ماه": 2433,
    "بری": 2434,
    "▁آم": 2435,
    "▁ششم": 2436,
    "▁پنهان": 2437,
    "▁استانبول": 2438,
    "▁نصب": 2439,
    "▁عبارت": 2440,
    "▁مثال": 2441,
    "▁رونق": 2442,
    "▁دیپلماتیک": 2443,
    "▁خطوط": 2444,
    "▁غافلگیر": 2445,
    "▁گواردیولا": 2446,
    "▁خبرساز": 2447,
    "▁بازدید": 2448,
    "▁سانسور": 2449,
    "۱۴": 2450,
    "▁بخار": 2451,
    "▁بهشت": 2452,
    "▁کریمی": 2453,
    "▁فرماندار": 2454,
    "▁اقدامی": 2455,
    "▁دوستان": 2456,
    "▁مور": 2457,
    "▁نیمک": 2458,
    "▁هیا": 2459,
    "▁شانس": 2460,
    "▁اجباری": 2461,
    "یش": 2462,
    "رو": 2463,
    "رت": 2464,
    "▁غلام": 2465,
    "▁مرور": 2466,
    "▁عذر": 2467,
    "وش": 2468,
    "یشه": 2469,
    "▁دلاری": 2470,
    "▁صادقی": 2471,
    "▁۴۵": 2472,
    "▁چرخ": 2473,
    "▁سفرهای": 2474,
    "▁نود": 2475,
    "وقت": 2476,
    "▁جزیر": 2477,
    "▁فرو": 2478,
    "▁محاسب": 2479,
    "▁معاصر": 2480,
    "▁کهکشان": 2481,
    "▁احترام": 2482,
    "▁مشاغل": 2483,
    "▁تب": 2484,
    "▁فراتر": 2485,
    "▁نباشد": 2486,
    "▁صادرکنندگان": 2487,
    "▁طلب": 2488,
    "▁باشیم": 2489,
    "▁کلمبیا": 2490,
    "▁اندونزی": 2491,
    "▁خطاب": 2492,
    "▁خاورمیانه": 2493,
    "▁مدیرکل": 2494,
    "▁سرنوشت": 2495,
    "▁نوسان": 2496,
    "▁مرجان": 2497,
    "▁باند": 2498,
    "▁باستان": 2499,
    "▁فراز": 2500,
    "▁بردن": 2501,
    "رز": 2502,
    "وخیم": 2503,
    "▁روس": 2504,
    "▁معاف": 2505,
    "نیک": 2506,
    "▁زدند": 2507,
    "▁دفاعی": 2508,
    "▁جک": 2509,
    "▁مدار": 2510,
    "▁تپ": 2511,
    "▁بردند": 2512,
    "▁ی": 2513,
    "بستری": 2514,
    "▁شی": 2515,
    "خالت": 2516,
    "▁نامزدهای": 2517,
    "▁ذخ": 2518,
    "▁عطر": 2519,
    "▁منع": 2520,
    "▁حاکم": 2521,
    "رون": 2522,
    "▁مان": 2523,
    "▁اور": 2524,
    "▁عوارض": 2525,
    "▁بسکتبال": 2526,
    "▁جستجو": 2527,
    "▁پیامدهای": 2528,
    "▁پرچم": 2529,
    "▁اولویت": 2530,
    "▁حیوانات": 2531,
    "▁وسیع": 2532,
    "▁جانسون": 2533,
    "▁۲۰۱۱": 2534,
    "▁بماند": 2535,
    "▁شواهد": 2536,
    "▁برکنار": 2537,
    "▁پرتغال": 2538,
    "▁کیفیت": 2539,
    "قیمت": 2540,
    "▁فایزر": 2541,
    "▁مسئولیت": 2542,
    "▁تکمیل": 2543,
    "▁خاوران": 2544,
    "▁وانت": 2545,
    "▁شنیده": 2546,
    "▁دانیم": 2547,
    "▁ماجرای": 2548,
    "▁فروشگاه": 2549,
    "▁رویدادهای": 2550,
    "▁برگزید": 2551,
    "▁فاش": 2552,
    "▁ناکام": 2553,
    "پی": 2554,
    "▁رویا": 2555,
    "▁فقر": 2556,
    "▁علم": 2557,
    "آ": 2558,
    "▁درآمدها": 2559,
    "▁اسکن": 2560,
    "▁گوشی": 2561,
    "▁صورتی": 2562,
    "▁پتروش": 2563,
    "▁دان": 2564,
    "▁برون": 2565,
    "▁پاپ": 2566,
    "اپی": 2567,
    "▁مطمئن": 2568,
    "▁موافق": 2569,
    "▁۳۴": 2570,
    "▁بیمه": 2571,
    "▁تصادف": 2572,
    "▁درحال": 2573,
    "زی": 2574,
    "واع": 2575,
    "▁جایگزین": 2576,
    "▁آرایش": 2577,
    "▁بگذارد": 2578,
    "فت": 2579,
    "▁تجدید": 2580,
    "▁ویلموتس": 2581,
    "▁مستقل": 2582,
    "▁محرومیت": 2583,
    "▁پرورش": 2584,
    "▁هیجان": 2585,
    "▁برگزیت": 2586,
    "▁جانشین": 2587,
    "▁بنیان": 2588,
    "▁مخفی": 2589,
    "▁تدریج": 2590,
    "▁امشب": 2591,
    "▁امکانات": 2592,
    "▁سپرده": 2593,
    "▁برند": 2594,
    "اک": 2595,
    "▁آلوده": 2596,
    "▁نماد": 2597,
    "▁خشک": 2598,
    "▁هلند": 2599,
    "▁همکاران": 2600,
    "▁اکثر": 2601,
    "▁دایک": 2602,
    "▁درحالی": 2603,
    "▁ایفا": 2604,
    "▁ایست": 2605,
    "▁گزارشگر": 2606,
    "▁آماد": 2607,
    "▁رحمانی": 2608,
    "▁اسدی": 2609,
    "گانه": 2610,
    "▁تخم": 2611,
    "▁رها": 2612,
    "غول": 2613,
    "ساله": 2614,
    "▁خرد": 2615,
    "▁طوری": 2616,
    "▁عظیم": 2617,
    "▁راحت": 2618,
    "ظ": 2619,
    "▁پژوهشگر": 2620,
    "▁یازده": 2621,
    "▁وایلد": 2622,
    "▁یخ": 2623,
    "آزمایی": 2624,
    "▁هالیوود": 2625,
    "▁استراماچونی": 2626,
    "▁اقلام": 2627,
    "▁گورستان": 2628,
    "▁یادداشت": 2629,
    "▁سهامداران": 2630,
    "▁بدهند": 2631,
    "▁منافع": 2632,
    "▁مقدمات": 2633,
    "▁نیرو": 2634,
    "▁هاشمی": 2635,
    "▁اورتون": 2636,
    "▁دانشجویان": 2637,
    "▁کف": 2638,
    "▁مهمتری": 2639,
    "▁تاثیرگذار": 2640,
    "▁یادآور": 2641,
    "▁بازرسان": 2642,
    "▁آرامش": 2643,
    "وند": 2644,
    "پور": 2645,
    "▁۷۵": 2646,
    "▁مخاطبان": 2647,
    "▁بطور": 2648,
    "▁سلطان": 2649,
    "▁کیو": 2650,
    "نین": 2651,
    "ینگ": 2652,
    "▁صالح": 2653,
    "▁حساس": 2654,
    "دن": 2655,
    "▁عادل": 2656,
    "▁ذو": 2657,
    "▁جرم": 2658,
    "مت": 2659,
    "ازم": 2660,
    "▁۱۹۹": 2661,
    "▁حج": 2662,
    "جسم": 2663,
    "جی": 2664,
    "لت": 2665,
    "▁اینتر": 2666,
    "کا": 2667,
    "▁تردید": 2668,
    "▁پیوسته": 2669,
    "اند": 2670,
    "▁آگاه": 2671,
    "▁اصلا": 2672,
    "▁تبلیغ": 2673,
    "▁وحش": 2674,
    "صمی": 2675,
    "▁ماندن": 2676,
    "▁قر": 2677,
    "▁مشروط": 2678,
    "▁اماکن": 2679,
    "▁شیری": 2680,
    "▁عمق": 2681,
    "۲۰۱۲": 2682,
    "▁رم": 2683,
    "▁شرط": 2684,
    "▁قایق": 2685,
    "▁سوالات": 2686,
    "▁کاوشگر": 2687,
    "▁نمایشگاه": 2688,
    "▁برندگان": 2689,
    "▁آذربایجان": 2690,
    "یوم": 2691,
    "▁سانتی": 2692,
    "▁اقلیم": 2693,
    "▁دیگران": 2694,
    "▁ابتلای": 2695,
    "▁کال": 2696,
    "▁شوک": 2697,
    "▁مرا": 2698,
    "▁نابودی": 2699,
    "▁کنگ": 2700,
    "اجع": 2701,
    "▁۴۸": 2702,
    "▁لستر": 2703,
    "سا": 2704,
    "لا": 2705,
    "بچه": 2706,
    "▁آسیای": 2707,
    "▁شعب": 2708,
    "▁برنت": 2709,
    "طی": 2710,
    "مند": 2711,
    "▁بدتر": 2712,
    "پدیده": 2713,
    "افزایش": 2714,
    "عه": 2715,
    "▁سازند": 2716,
    "سبب": 2717,
    "▁۵۷": 2718,
    "▁ادعای": 2719,
    "▁هو": 2720,
    "▁تبع": 2721,
    "▁تماشای": 2722,
    "▁کلاسیک": 2723,
    "▁انت": 2724,
    "باقر": 2725,
    "▁سراسری": 2726,
    "وال": 2727,
    "▁کارمند": 2728,
    "ص": 2729,
    "▁نی": 2730,
    "▁زیرا": 2731,
    "▁دونده": 2732,
    "▁قیمتها": 2733,
    "▁وال": 2734,
    "پیشتر": 2735,
    "▁فیزیک": 2736,
    "▁بغداد": 2737,
    "▁رستوران": 2738,
    "▁گوناگون": 2739,
    "▁سلاح": 2740,
    "▁سایپا": 2741,
    "▁آموزشی": 2742,
    "▁آشکار": 2743,
    "▁شکنجه": 2744,
    "▁ارشاد": 2745,
    "▁سرقت": 2746,
    "▁هافبک": 2747,
    "باره": 2748,
    "▁شتاب": 2749,
    "▁بودیم": 2750,
    "▁نفع": 2751,
    "▁۹۶": 2752,
    "▁رسیدند": 2753,
    "حال": 2754,
    "▁منچسترسیتی": 2755,
    "▁جدایی": 2756,
    "▁مستمر": 2757,
    "▁قلع": 2758,
    "▁ستار": 2759,
    "▁عبدالله": 2760,
    "▁برانگیز": 2761,
    "▁کریستیان": 2762,
    "▁سفارش": 2763,
    "▁تجا": 2764,
    "▁دانستند": 2765,
    "▁خواهم": 2766,
    "▁درخشان": 2767,
    "جم": 2768,
    "▁انگار": 2769,
    "▁طلبان": 2770,
    "▁فرستاد": 2771,
    "▁شهرها": 2772,
    "▁عبوری": 2773,
    "▁اردو": 2774,
    "▁سد": 2775,
    "▁حامی": 2776,
    "▁ضرر": 2777,
    "▁۹۵": 2778,
    "آن": 2779,
    "ئو": 2780,
    "▁فیل": 2781,
    "▁موقع": 2782,
    "▁فق": 2783,
    "وری": 2784,
    "▁عاشق": 2785,
    "وثی": 2786,
    "▁ادا": 2787,
    "شویی": 2788,
    "▁قار": 2789,
    "▁اسم": 2790,
    "▁چا": 2791,
    "▁فیلیپ": 2792,
    "ریم": 2793,
    "۹۸": 2794,
    "▁قاجار": 2795,
    "▁آفتاب": 2796,
    "▁موانع": 2797,
    "▁خداحافظ": 2798,
    "▁غیرمستقیم": 2799,
    "▁اقامت": 2800,
    "▁غزنی": 2801,
    "بین": 2802,
    "▁بلژیک": 2803,
    "▁اولسان": 2804,
    "▁کربن": 2805,
    "▁۲۵۰": 2806,
    "▁پارسی": 2807,
    "▁هشتاد": 2808,
    "▁پاییز": 2809,
    "▁بیاید": 2810,
    "▁استادیوم": 2811,
    "▁ضرورت": 2812,
    "▁خاطره": 2813,
    "▁محافظت": 2814,
    "▁عروس": 2815,
    "▁نگرفته": 2816,
    "ریزی": 2817,
    "▁قدس": 2818,
    "▁تعرف": 2819,
    "▁طلایی": 2820,
    "▁حا": 2821,
    "▁تحول": 2822,
    "▁هجوم": 2823,
    "▁کشد": 2824,
    "کو": 2825,
    "▁جر": 2826,
    "▁آفریقای": 2827,
    "▁قله": 2828,
    "▁۴۹": 2829,
    "▁شناور": 2830,
    "▁سالها": 2831,
    "▁مع": 2832,
    "اع": 2833,
    "▁آزمایشگاه": 2834,
    "▁سالم": 2835,
    "▁سرای": 2836,
    "داشت": 2837,
    "لند": 2838,
    "▁خیر": 2839,
    "▁سرود": 2840,
    "▁آندر": 2841,
    "▁فان": 2842,
    "▁۶۰۰": 2843,
    "سخنگوی": 2844,
    "▁رضوی": 2845,
    "▁پانصد": 2846,
    "▁فردوسی": 2847,
    "▁مطبوعات": 2848,
    "▁نیک": 2849,
    "▁مسکونی": 2850,
    "▁سلول": 2851,
    "رسمی": 2852,
    "▁دانمارک": 2853,
    "فر": 2854,
    "▁وسایل": 2855,
    "▁کانری": 2856,
    "▁تلخ": 2857,
    "نوبت": 2858,
    "مدال": 2859,
    "▁سرد": 2860,
    "▁اشرف": 2861,
    "کن": 2862,
    "▁سوئیسی": 2863,
    "▁یازدهم": 2864,
    "هزار": 2865,
    "▁مساوی": 2866,
    "▁کو": 2867,
    "▁نداشتند": 2868,
    "▁عادت": 2869,
    "▁اوبر": 2870,
    "▁مسئولین": 2871,
    "▁ری": 2872,
    "▁نشین": 2873,
    "▁موضوعات": 2874,
    "▁شکاف": 2875,
    "▁نماز": 2876,
    "▁برقی": 2877,
    "راضی": 2878,
    "▁نیروگاه": 2879,
    "گین": 2880,
    "▁قد": 2881,
    "▁حمید": 2882,
    "▁چندی": 2883,
    "▁تحلیلگر": 2884,
    "▁سپ": 2885,
    "▁خریدار": 2886,
    "▁پیشگیری": 2887,
    "▁ریه": 2888,
    "▁فکری": 2889,
    "دل": 2890,
    "امروز": 2891,
    "▁نمای": 2892,
    "▁پرفروش": 2893,
    "▁برایش": 2894,
    "▁گذراند": 2895,
    "▁آتی": 2896,
    "فرین": 2897,
    "فاصله": 2898,
    "افغانستان": 2899,
    "بیش": 2900,
    "▁شا": 2901,
    "▁دانشمند": 2902,
    "▁مشتری": 2903,
    "▁افزار": 2904,
    "▁۳۹": 2905,
    "قابل": 2906,
    "▁لحا": 2907,
    "▁جورج": 2908,
    "▁دبلیو": 2909,
    "▁گرنداسلم": 2910,
    "▁تظاهرات": 2911,
    "▁واژه": 2912,
    "▁عفو": 2913,
    "▁جنبش": 2914,
    "▁۴۴": 2915,
    "▁پادتن": 2916,
    "▁باشید": 2917,
    "▁ویران": 2918,
    "▁یور": 2919,
    "بو": 2920,
    "▁مدارک": 2921,
    "▁حیدر": 2922,
    "▁هیوندای": 2923,
    "▁مطالب": 2924,
    "▁آمارها": 2925,
    "▁بلیت": 2926,
    "▁کیم": 2927,
    "▁راهبرد": 2928,
    "ض": 2929,
    "قف": 2930,
    "▁مکانی": 2931,
    "▁سلمان": 2932,
    "▁ماهوار": 2933,
    "▁جن": 2934,
    "▁۰": 2935,
    "▁نرسیده": 2936,
    "ادورو": 2937,
    "▁ذر": 2938,
    "چی": 2939,
    "▁داوطلب": 2940,
    "▁پن": 2941,
    "▁کمال": 2942,
    "▁محمدجواد": 2943,
    "▁زا": 2944,
    "کاری": 2945,
    "▁فرزندان": 2946,
    "خره": 2947,
    "▁ضعیف": 2948,
    "▁حضورش": 2949,
    "▁راز": 2950,
    "سم": 2951,
    "رداد": 2952,
    "▁وست": 2953,
    "▁غار": 2954,
    "ناف": 2955,
    "▁رفتند": 2956,
    "▁۶۵": 2957,
    "▁رهبران": 2958,
    "▁قدر": 2959,
    "عبدال": 2960,
    "غ": 2961,
    "شده": 2962,
    "▁خوان": 2963,
    "▁محدودیتهای": 2964,
    "▁گرا": 2965,
    "امی": 2966,
    "دگی": 2967,
    "وریس": 2968,
    "▁سامسونگ": 2969,
    "▁تروریسم": 2970,
    "▁دهقان": 2971,
    "▁خلاص": 2972,
    "▁انفرادی": 2973,
    "▁عملی": 2974,
    "▁رمزارزها": 2975,
    "▁مخابرات": 2976,
    "▁عراقچی": 2977,
    "▁مقاومت": 2978,
    "▁بوندس": 2979,
    "▁قادر": 2980,
    "▁صمت": 2981,
    "▁فریاد": 2982,
    "▁مسلمان": 2983,
    "▁بزند": 2984,
    "▁تعهد": 2985,
    "▁تمایل": 2986,
    "▁راستا": 2987,
    "▁خانوارهای": 2988,
    "▁تور": 2989,
    "▁یاری": 2990,
    "بسیاری": 2991,
    "مجموعه": 2992,
    "▁خشم": 2993,
    "▁ادعا": 2994,
    "▁صادراتی": 2995,
    "▁نبرد": 2996,
    "کته": 2997,
    "▁سبز": 2998,
    "▁ظاهرا": 2999,
    "▁کیلو": 3000,
    "▁خیابانی": 3001,
    "ادی": 3002,
    "بخش": 3003,
    "▁فراری": 3004,
    "ماهی": 3005,
    "▁بابا": 3006,
    "▁کاربر": 3007,
    "دان": 3008,
    "▁ژنتیکی": 3009,
    "لوله": 3010,
    "▁باد": 3011,
    "▁جسم": 3012,
    "▁انبار": 3013,
    "▁بازیگری": 3014,
    "▁جم": 3015,
    "▁رسانی": 3016,
    "▁باخته": 3017,
    "▁فقیر": 3018,
    "▁حلق": 3019,
    "▁شاهزاد": 3020,
    "اکان": 3021,
    "باران": 3022,
    "▁شور": 3023,
    "▁دارم": 3024,
    "▁قوا": 3025,
    "▁اندک": 3026,
    "شی": 3027,
    "▁داری": 3028,
    "▁کارش": 3029,
    "▁منتقد": 3030,
    "▁تاجیک": 3031,
    "▁محقق": 3032,
    "▁خوشحال": 3033,
    "آی": 3034,
    "تری": 3035,
    "▁موبایل": 3036,
    "▁تدابیر": 3037,
    "▁فرآیند": 3038,
    "▁پیراهن": 3039,
    "▁ثامن": 3040,
    "▁الکترونیک": 3041,
    "▁مترجم": 3042,
    "▁فاز": 3043,
    "▁تاکسی": 3044,
    "خیص": 3045,
    "▁گروسی": 3046,
    "▁پلاستیک": 3047,
    "▁نمایشگر": 3048,
    "▁خاطرات": 3049,
    "▁روسی": 3050,
    "▁همسایه": 3051,
    "▁تج": 3052,
    "▁روزگار": 3053,
    "▁نژادپرست": 3054,
    "تو": 3055,
    "▁زرد": 3056,
    "▁ربط": 3057,
    "▁اسلام": 3058,
    "▁پرسش": 3059,
    "نکه": 3060,
    "▁زیبایی": 3061,
    "وض": 3062,
    "▁یاران": 3063,
    "▁عمان": 3064,
    "دم": 3065,
    "▁کاسته": 3066,
    "▁موش": 3067,
    "▁جلسات": 3068,
    "ذ": 3069,
    "احل": 3070,
    "▁پذیرفته": 3071,
    "▁فرش": 3072,
    "▁مبادل": 3073,
    "▁قص": 3074,
    "▁تف": 3075,
    "▁عموم": 3076,
    "▁پیست": 3077,
    "▁روح": 3078,
    "▁نم": 3079,
    "▁صند": 3080,
    "نادیده": 3081,
    "▁۵۵": 3082,
    "▁سل": 3083,
    "▁جوانی": 3084,
    "▁سالن": 3085,
    "▁ربات": 3086,
    "▁تکان": 3087,
    "▁نقدی": 3088,
    "▁گذر": 3089,
    "▁سران": 3090,
    "▁پرده": 3091,
    "▁خوانندگ": 3092,
    "▁گروگان": 3093,
    "▁امین": 3094,
    "▁دراز": 3095,
    "ولی": 3096,
    "▁غر": 3097,
    "▁اوران": 3098,
    "▁مغزی": 3099,
    "▁لذت": 3100,
    "ویز": 3101,
    "▁گمان": 3102,
    "▁تگزاس": 3103,
    "▁سئوال": 3104,
    "▁منحصر": 3105,
    "▁امتحان": 3106,
    "▁شمخانی": 3107,
    "▁تسلیحات": 3108,
    "▁ناحیه": 3109,
    "▁نتانیاهو": 3110,
    "▁دادگستری": 3111,
    "▁انبوه": 3112,
    "▁ترجیح": 3113,
    "▁خوراک": 3114,
    "▁کریکت": 3115,
    "▁مطل": 3116,
    "▁مصدومیت": 3117,
    "▁اپلیکیشن": 3118,
    "▁طوفان": 3119,
    "▁عفونت": 3120,
    "▁مدارس": 3121,
    "▁ارتفاع": 3122,
    "▁آدم": 3123,
    "▁زنگنه": 3124,
    "▁نکنید": 3125,
    "▁ایرانیان": 3126,
    "بنا": 3127,
    "غان": 3128,
    "▁زوج": 3129,
    "▁بامیان": 3130,
    "▁سرزمین": 3131,
    "▁محتوای": 3132,
    "▁ولز": 3133,
    "▁وبسایت": 3134,
    "▁مطالعات": 3135,
    "▁بدر": 3136,
    "▁قلم": 3137,
    "▁گردن": 3138,
    "▁کاردن": 3139,
    "▁ایلنا": 3140,
    "▁کیهان": 3141,
    "▁صرفا": 3142,
    "▁۱۹۸": 3143,
    "▁پپ": 3144,
    "زن": 3145,
    "▁قربانی": 3146,
    "پنج": 3147,
    "یس": 3148,
    "▁جدال": 3149,
    "▁باب": 3150,
    "▁وظ": 3151,
    "▁سرباز": 3152,
    "▁فراگیر": 3153,
    "▁لوئی": 3154,
    "▁ریاض": 3155,
    "▁عزیزی": 3156,
    "▁صادق": 3157,
    "▁کرام": 3158,
    "▁خواندن": 3159,
    "▁قدرتمند": 3160,
    "▁۳۸": 3161,
    "پوری": 3162,
    "▁افتد": 3163,
    "▁محسن": 3164,
    "▁خودروها": 3165,
    "وت": 3166,
    "▁خواستند": 3167,
    "▁رویای": 3168,
    "▁استخوان": 3169,
    "▁شیرین": 3170,
    "▁روستا": 3171,
    "▁راستی": 3172,
    "ایر": 3173,
    "▁باران": 3174,
    "جان": 3175,
    "وایی": 3176,
    "اش": 3177,
    "▁درهای": 3178,
    "▁دوام": 3179,
    "▁پانزده": 3180,
    "رسی": 3181,
    "▁افکن": 3182,
    "رویی": 3183,
    "▁نامدار": 3184,
    "▁تائ": 3185,
    "▁ویدیو": 3186,
    "نظر": 3187,
    "الب": 3188,
    "▁هیأت": 3189,
    "▁یوفا": 3190,
    "▁پرافتخار": 3191,
    "▁ازبکستان": 3192,
    "▁بکشد": 3193,
    "خرج": 3194,
    "▁برساند": 3195,
    "▁سیا": 3196,
    "▁علامت": 3197,
    "▁احت": 3198,
    "▁وا": 3199,
    "▁ولسوال": 3200,
    "▁متقاضی": 3201,
    "▁پردازد": 3202,
    "▁نادرست": 3203,
    "▁پیاده": 3204,
    "▁گردشگران": 3205,
    "▁اقلی": 3206,
    "▁اشتغال": 3207,
    "▁احساسات": 3208,
    "▁همسان": 3209,
    "▁ببرد": 3210,
    "▁اختلافات": 3211,
    "امسال": 3212,
    "▁غریب": 3213,
    "▁طنز": 3214,
    "عباس": 3215,
    "▁صلاح": 3216,
    "▁اضطراب": 3217,
    "▁جیب": 3218,
    "▁۳۷": 3219,
    "▁هستم": 3220,
    "▁آوردند": 3221,
    "▁تماشا": 3222,
    "▁پیمان": 3223,
    "خالص": 3224,
    "▁تاب": 3225,
    "یفه": 3226,
    "▁طیف": 3227,
    "▁روزه": 3228,
    "▁مقال": 3229,
    "▁منشا": 3230,
    "▁بدو": 3231,
    "▁خودم": 3232,
    "جه": 3233,
    "▁عزاداری": 3234,
    "▁والی": 3235,
    "▁بقای": 3236,
    "▁بران": 3237,
    "▁بلخ": 3238,
    "▁گمانه": 3239,
    "▁رقص": 3240,
    "چ": 3241,
    "التهاب": 3242,
    "▁خودروی": 3243,
    "ندگان": 3244,
    "شه": 3245,
    "▁تمرکز": 3246,
    "ستگی": 3247,
    "▁ذخا": 3248,
    "تنش": 3249,
    "▁اگر": 3250,
    "تیپ": 3251,
    "رس": 3252,
    "محمود": 3253,
    "▁۶۷": 3254,
    "▁۳۶": 3255,
    "وان": 3256,
    "تون": 3257,
    "آنها": 3258,
    "▁بعید": 3259,
    "▁اقلیمی": 3260,
    "▁زیان": 3261,
    "▁بوش": 3262,
    "مون": 3263,
    "▁نقد": 3264,
    "▁متاسف": 3265,
    "▁گم": 3266,
    "▁شعار": 3267,
    "ژه": 3268,
    "▁تخلف": 3269,
    "▁اعزام": 3270,
    "▁والیبال": 3271,
    "▁بلاروس": 3272,
    "▁راموس": 3273,
    "▁برانگیخت": 3274,
    "▁دقایق": 3275,
    "▁غربالگری": 3276,
    "▁خانوادگی": 3277,
    "▁۱۹۸۶": 3278,
    "▁۲۰۲۲": 3279,
    "▁فیلمساز": 3280,
    "▁خاموش": 3281,
    "▁نقص": 3282,
    "▁اهداف": 3283,
    "▁کمرنگ": 3284,
    "▁زلزله": 3285,
    "▁قاطع": 3286,
    "▁رادیوی": 3287,
    "▁خو": 3288,
    "▁تلگرام": 3289,
    "▁آنقدر": 3290,
    "▁آیند": 3291,
    "▁مقصر": 3292,
    "▁محاسبات": 3293,
    "▁قاضی": 3294,
    "▁شیراز": 3295,
    "▁طبری": 3296,
    "▁بیلسا": 3297,
    "▁صبر": 3298,
    "▁سرنشینان": 3299,
    "▁پوری": 3300,
    "▁اصلاحات": 3301,
    "▁تفاهم": 3302,
    "▁ترسیم": 3303,
    "تن": 3304,
    "▁ناامن": 3305,
    "▁سای": 3306,
    "▁استرالیایی": 3307,
    "▁زانو": 3308,
    "نگره": 3309,
    "▁رسول": 3310,
    "وستهم": 3311,
    "▁دادسرا": 3312,
    "▁آزمایی": 3313,
    "▁سیل": 3314,
    "▁پوشید": 3315,
    "▁شاهین": 3316,
    "▁جمال": 3317,
    "▁درخت": 3318,
    "▁توماس": 3319,
    "حض": 3320,
    "▁نکردن": 3321,
    "رق": 3322,
    "▁اهدا": 3323,
    "▁میلیاردها": 3324,
    "طبق": 3325,
    "▁سنا": 3326,
    "▁۱۳۷": 3327,
    "احض": 3328,
    "▁همیلتون": 3329,
    "یب": 3330,
    "▁ساختار": 3331,
    "▁اصطلاح": 3332,
    "▁گریز": 3333,
    "▁شورو": 3334,
    "▁گفتگوها": 3335,
    "▁نزد": 3336,
    "▁بهرام": 3337,
    "▁مهندس": 3338,
    "▁موشکی": 3339,
    "▁جلالی": 3340,
    "▁رنو": 3341,
    "ازی": 3342,
    "▁معمار": 3343,
    "▁بوک": 3344,
    "▁تس": 3345,
    "▁کوچکی": 3346,
    "▁تنگ": 3347,
    "▁۵۲": 3348,
    "رگن": 3349,
    "▁راند": 3350,
    "▁خوردن": 3351,
    "▁زیستی": 3352,
    "▁صحن": 3353,
    "▁۷۷": 3354,
    "▁اهدای": 3355,
    "▁مهاجر": 3356,
    "عکس": 3357,
    "▁پولی": 3358,
    "تواند": 3359,
    "حص": 3360,
    "▁ابزار": 3361,
    "▁شدم": 3362,
    "▁مادری": 3363,
    "▁خشکی": 3364,
    "▁مصون": 3365,
    "▁برگ": 3366,
    "▁ص": 3367,
    "بورن": 3368,
    "وف": 3369,
    "فیلم": 3370,
    "ستون": 3371,
    "▁ذ": 3372,
    "▁شایع": 3373,
    "▁الانبیا": 3374,
    "▁بنگلادش": 3375,
    "▁پروتئین": 3376,
    "▁موظف": 3377,
    "▁ارمنستان": 3378,
    "▁بامداد": 3379,
    "▁تدوین": 3380,
    "▁اخلال": 3381,
    "▁تحمیل": 3382,
    "ژانس": 3383,
    "▁بنیانگذار": 3384,
    "▁تلفیق": 3385,
    "▁مفید": 3386,
    "▁تعدیل": 3387,
    "▁لهستان": 3388,
    "▁بازگردد": 3389,
    "▁مفهوم": 3390,
    "▁۱۲۰": 3391,
    "▁ابعاد": 3392,
    "▁مبادلات": 3393,
    "▁کارگزار": 3394,
    "▁استرازنکا": 3395,
    "▁پیوند": 3396,
    "▁دموکرات": 3397,
    "▁عروسک": 3398,
    "وب": 3399,
    "▁بخصوص": 3400,
    "▁نوی": 3401,
    "▁لمس": 3402,
    "▁امن": 3403,
    "▁آبادی": 3404,
    "▁قریب": 3405,
    "نش": 3406,
    "▁آشفت": 3407,
    "▁دیگو": 3408,
    "▁نکند": 3409,
    "▁خریداران": 3410,
    "▁شریک": 3411,
    "▁تأثیر": 3412,
    "▁لیدز": 3413,
    "▁تایسون": 3414,
    "▁مبنای": 3415,
    "▁پایدار": 3416,
    "▁عطرساز": 3417,
    "اق": 3418,
    "قه": 3419,
    "ث": 3420,
    "▁پیکر": 3421,
    "شاخص": 3422,
    "▁ارزان": 3423,
    "▁۵۶": 3424,
    "اول": 3425,
    "▁دیر": 3426,
    "▁تاک": 3427,
    "▁یکصد": 3428,
    "▁آگ": 3429,
    "ظهر": 3430,
    "▁پدید": 3431,
    "▁اعضا": 3432,
    "▁امان": 3433,
    "▁باشگاهی": 3434,
    "یف": 3435,
    "▁جهاد": 3436,
    "مرکز": 3437,
    "▁افتتاح": 3438,
    "داوم": 3439,
    "▁غ": 3440,
    "▁جعل": 3441,
    "▁لب": 3442,
    "ارد": 3443,
    "لیگ": 3444,
    "▁سیف": 3445,
    "▁روستایی": 3446,
    "اقات": 3447,
    "▁اوست": 3448,
    "▁هنگ": 3449,
    "▁منته": 3450,
    "▁بستن": 3451,
    "▁بوی": 3452,
    "▁استعداد": 3453,
    "▁بها": 3454,
    "▁مزار": 3455,
    "▁کریست": 3456,
    "▁دستگیری": 3457,
    "▁نظریه": 3458,
    "▁خواه": 3459,
    "▁معترض": 3460,
    "ابی": 3461,
    "▁توانم": 3462,
    "▁تصویری": 3463,
    "▁منتف": 3464,
    "۲۵": 3465,
    "طئ": 3466,
    "▁صادرکنند": 3467,
    "▁موسوی": 3468,
    "۳۱": 3469,
    "▁خبرهای": 3470,
    "▁پرسید": 3471,
    "▁کلا": 3472,
    "▁اظهارنظر": 3473,
    "ونده": 3474,
    "نیم": 3475,
    "▁سحر": 3476,
    "▁تفریح": 3477,
    "▁سلف": 3478,
    "▁دروغ": 3479,
    "▁سپر": 3480,
    "▁نساجی": 3481,
    "▁اکسیژن": 3482,
    "▁لالیگا": 3483,
    "خصیص": 3484,
    "▁نوبخت": 3485,
    "▁ببینید": 3486,
    "▁اسپرت": 3487,
    "▁بدانیم": 3488,
    "▁مهرماه": 3489,
    "▁تسلیت": 3490,
    "یمی": 3491,
    "▁نیوزیلند": 3492,
    "▁رابرت": 3493,
    "▁دستیابی": 3494,
    "▁مارتین": 3495,
    "دا": 3496,
    "▁کام": 3497,
    "▁آورند": 3498,
    "▁آموزان": 3499,
    "شیوع": 3500,
    "▁شنا": 3501,
    "▁تکلیف": 3502,
    "سل": 3503,
    "اولین": 3504,
    "▁مکرون": 3505,
    "روی": 3506,
    "▁مهاجران": 3507,
    "▁صنف": 3508,
    "▁حداکثری": 3509,
    "▁جنبه": 3510,
    "▁قوس": 3511,
    "▁دانم": 3512,
    "▁بشار": 3513,
    "عادل": 3514,
    "لیورپول": 3515,
    "▁ایرلند": 3516,
    "احمد": 3517,
    "▁خوا": 3518,
    "پلیس": 3519,
    "▁خلو": 3520,
    "▁یونان": 3521,
    "شد": 3522,
    "▁نسب": 3523,
    "▁عرف": 3524,
    "▁سراغ": 3525,
    "۵۰": 3526,
    "▁نژادی": 3527,
    "▁انتقالات": 3528,
    "▁هاوس": 3529,
    "▁محور": 3530,
    "▁حیاتی": 3531,
    "▁شکار": 3532,
    "دانشمندان": 3533,
    "▁خا": 3534,
    "پرو": 3535,
    "▁نشت": 3536,
    "▁سگ": 3537,
    "▁دعوا": 3538,
    "▁استخر": 3539,
    "▁خل": 3540,
    "▁کتی": 3541,
    "▁خال": 3542,
    "هالی": 3543,
    "▁قراردادش": 3544,
    "▁داشتم": 3545,
    "گه": 3546,
    "▁عام": 3547,
    "▁ترور": 3548,
    "گروه": 3549,
    "▁رنج": 3550,
    "▁اوین": 3551,
    "▁تای": 3552,
    "▁بدی": 3553,
    "ولت": 3554,
    "▁داروهای": 3555,
    "کدام": 3556,
    "راحل": 3557,
    "▁ثروتمند": 3558,
    "▁گفتگوی": 3559,
    "▁هجومی": 3560,
    "▁افشا": 3561,
    "▁رس": 3562,
    "▁مرزهای": 3563,
    "▁کهن": 3564,
    "▁کشی": 3565,
    "▁آیین": 3566,
    "▁۹۱": 3567,
    "▁۴۶": 3568,
    "▁همیش": 3569,
    "▁ظهر": 3570,
    "▁کما": 3571,
    "▁لیگا": 3572,
    "▁۴۳": 3573,
    "غال": 3574,
    "تمرکز": 3575,
    "▁وسط": 3576,
    "سیا": 3577,
    "▁منتخب": 3578,
    "▁ناچار": 3579,
    "▁ثمر": 3580,
    "▁متاثر": 3581,
    "▁دوپینگ": 3582,
    "کننده": 3583,
    "▁لنون": 3584,
    "▁سیزده": 3585,
    "▁تماشاچی": 3586,
    "رنج": 3587,
    "▁ویلیامز": 3588,
    "▁بروکسل": 3589,
    "▁۲۰۰۳": 3590,
    "▁استراتژیک": 3591,
    "▁ونیز": 3592,
    "جونز": 3593,
    "دون": 3594,
    "▁چراغ": 3595,
    "▁شاگردان": 3596,
    "▁نکنند": 3597,
    "▁عضوی": 3598,
    "کان": 3599,
    "▁خرند": 3600,
    "▁مرخص": 3601,
    "▁منچستریونایتد": 3602,
    "▁معارف": 3603,
    "▁عکسی": 3604,
    "▁آبادان": 3605,
    "▁بریت": 3606,
    "راه": 3607,
    "▁محبوبیت": 3608,
    "▁بیروت": 3609,
    "عنوان": 3610,
    "▁ناجی": 3611,
    "▁یمانی": 3612,
    "▁برخلاف": 3613,
    "▁سربازان": 3614,
    "▁کابین": 3615,
    "▁تروریستی": 3616,
    "▁دف": 3617,
    "▁میر": 3618,
    "ختم": 3619,
    "▁نمکی": 3620,
    "▁کاشی": 3621,
    "رسان": 3622,
    "▁ایام": 3623,
    "مراسم": 3624,
    "سر": 3625,
    "▁تروی": 3626,
    "▁زیبا": 3627,
    "▁ویکتور": 3628,
    "▁۱۵۰۰": 3629,
    "حالا": 3630,
    "▁گذاشتن": 3631,
    "▁رساندن": 3632,
    "▁پلی": 3633,
    "▁دوحه": 3634,
    "▁پوش": 3635,
    "▁درد": 3636,
    "▁تعامل": 3637,
    "▁فیلتر": 3638,
    "▁شمسی": 3639,
    "▁گلزنی": 3640,
    "▁اسپی": 3641,
    "▁کشت": 3642,
    "نو": 3643,
    "کت": 3644,
    "ویژ": 3645,
    "▁مرزها": 3646,
    "▁ایوان": 3647,
    "▁استعفای": 3648,
    "گون": 3649,
    "▁فلیک": 3650,
    "▁نرسید": 3651,
    "▁مح": 3652,
    "▁تاز": 3653,
    "▁راک": 3654,
    "▁شوهر": 3655,
    "▁کشند": 3656,
    "▁سین": 3657,
    "▁رش": 3658,
    "▁نفری": 3659,
    "▁ور": 3660,
    "▁ناصر": 3661,
    "▁بازماند": 3662,
    "یره": 3663,
    "شهر": 3664,
    "یلی": 3665,
    "کم": 3666,
    "ناتور": 3667,
    "جاسوسی": 3668,
    "▁مون": 3669,
    "بعد": 3670,
    "▁شلوغ": 3671,
    "▁مایکروسافت": 3672,
    "▁تعقیب": 3673,
    "▁دژپسند": 3674,
    "▁فلوریدا": 3675,
    "▁انقراض": 3676,
    "▁ناپدید": 3677,
    "▁محاکم": 3678,
    "▁بندرعباس": 3679,
    "▁بزوس": 3680,
    "▁سردبیر": 3681,
    "▁یوگا": 3682,
    "▁خوشنام": 3683,
    "▁کارلوس": 3684,
    "▁بگیریم": 3685,
    "▁ساویز": 3686,
    "▁بزنند": 3687,
    "▁پرندگان": 3688,
    "▁رفاه": 3689,
    "▁متناسب": 3690,
    "▁ثروت": 3691,
    "▁قطار": 3692,
    "صورت": 3693,
    "▁تخلفات": 3694,
    "▁طرفدار": 3695,
    "▁سادات": 3696,
    "▁شاخ": 3697,
    "▁جاشوا": 3698,
    "▁بومی": 3699,
    "▁لحظات": 3700,
    "▁هنرها": 3701,
    "▁وزارتخانه": 3702,
    "▁پیوستن": 3703,
    "▁بهایی": 3704,
    "▁مقدم": 3705,
    "▁سومی": 3706,
    "فی": 3707,
    "▁خدا": 3708,
    "▁معمولی": 3709,
    "▁تقابل": 3710,
    "موند": 3711,
    "▁سیزدهم": 3712,
    "▁مقطع": 3713,
    "▁برادرش": 3714,
    "▁گردند": 3715,
    "زیگ": 3716,
    "نام": 3717,
    "▁اریک": 3718,
    "▁کردستان": 3719,
    "▁پستان": 3720,
    "گو": 3721,
    "▁سازد": 3722,
    "اتحاد": 3723,
    "وا": 3724,
    "▁ایمان": 3725,
    "▁سکونت": 3726,
    "اف": 3727,
    "▁دهک": 3728,
    "لک": 3729,
    "۳۰": 3730,
    "رای": 3731,
    "▁اطل": 3732,
    "▁روزی": 3733,
    "▁روزمر": 3734,
    "▁پراکند": 3735,
    "▁کنسول": 3736,
    "لق": 3737,
    "▁آوردن": 3738,
    "▁تاپ": 3739,
    "▁رحم": 3740,
    "▁مادران": 3741,
    "▁فتح": 3742,
    "تاسف": 3743,
    "شار": 3744,
    "▁گرد": 3745,
    "▁نجف": 3746,
    "▁افکار": 3747,
    "▁تورمی": 3748,
    "▁آباد": 3749,
    "▁مرس": 3750,
    "▁تایم": 3751,
    "پل": 3752,
    "▁نشانی": 3753,
    "▁سینماها": 3754,
    "▁نداد": 3755,
    "▁ات": 3756,
    "اج": 3757,
    "▁تایلند": 3758,
    "آوری": 3759,
    "▁شبه": 3760,
    "▁بس": 3761,
    "▁فا": 3762,
    "▁ازای": 3763,
    "شاهی": 3764,
    "ممکن": 3765,
    "▁کشیدن": 3766,
    "نز": 3767,
    "▁گوی": 3768,
    "برخ": 3769,
    "ساب": 3770,
    "گن": 3771,
    "▁اختلا": 3772,
    "▁لا": 3773,
    "جو": 3774,
    "▁سرا": 3775,
    "▁تقدی": 3776,
    "▁مهمان": 3777,
    "▁پرسی": 3778,
    "لف": 3779,
    "▁آنفلوآنزا": 3780,
    "▁مشکوک": 3781,
    "▁مشورت": 3782,
    "▁تجلیل": 3783,
    "▁بکشند": 3784,
    "▁خیانت": 3785,
    "▁دانشکد": 3786,
    "▁حرکات": 3787,
    "▁متعهد": 3788,
    "▁کامیون": 3789,
    "▁۱۳۹۵": 3790,
    "فق": 3791,
    "▁ذکر": 3792,
    "▁لزوم": 3793,
    "▁۲۰۳۰": 3794,
    "▁بمانند": 3795,
    "▁گیاه": 3796,
    "▁بوشهر": 3797,
    "▁استراحت": 3798,
    "▁صالحی": 3799,
    "▁مقرر": 3800,
    "▁حجاب": 3801,
    "▁زنجان": 3802,
    "▁تعجب": 3803,
    "▁فرونشست": 3804,
    "▁مرگبار": 3805,
    "▁ویلیام": 3806,
    "▁رانندگی": 3807,
    "▁الحسن": 3808,
    "▁بلومبرگ": 3809,
    "▁ون": 3810,
    "▁پناهجویان": 3811,
    "▁کمپین": 3812,
    "▁ستارگان": 3813,
    "▁سیاستمداران": 3814,
    "▁رئیسی": 3815,
    "خی": 3816,
    "رهای": 3817,
    "▁مقیم": 3818,
    "▁بورل": 3819,
    "▁سالمندان": 3820,
    "▁روبروست": 3821,
    "بون": 3822,
    "▁کارگروه": 3823,
    "ناد": 3824,
    "▁شوید": 3825,
    "استفاده": 3826,
    "▁وحید": 3827,
    "لر": 3828,
    "زم": 3829,
    "▁لیور": 3830,
    "▁عبدی": 3831,
    "▁انتقادهای": 3832,
    "▁داغ": 3833,
    "▁کشاند": 3834,
    "▁حاجی": 3835,
    "▁لیس": 3836,
    "گذاری": 3837,
    "▁سم": 3838,
    "▁اسپوت": 3839,
    "التی": 3840,
    "▁اوا": 3841,
    "یحی": 3842,
    "▁گزارشگران": 3843,
    "▁بدل": 3844,
    "▁توفیق": 3845,
    "▁ژوز": 3846,
    "▁ریچارد": 3847,
    "▁بهر": 3848,
    "▁حریفان": 3849,
    "▁شریفی": 3850,
    "مسئولان": 3851,
    "کر": 3852,
    "پژوهشگران": 3853,
    "▁آهنگساز": 3854,
    "ضعیف": 3855,
    "شاید": 3856,
    "دادگاه": 3857,
    "▁تقویم": 3858,
    "▁بشری": 3859,
    "▁انتقادها": 3860,
    "▁فروشی": 3861,
    "صاف": 3862,
    "▁وسی": 3863,
    "کوبی": 3864,
    "▁ژنتیک": 3865,
    "ردن": 3866,
    "▁ملا": 3867,
    "▁هرگ": 3868,
    "آبادی": 3869,
    "▁بل": 3870,
    "▁طرز": 3871,
    "▁دقت": 3872,
    "لحق": 3873,
    "▁نسبتا": 3874,
    "▁افسر": 3875,
    "▁نوشتن": 3876,
    "▁راس": 3877,
    "▁ویزا": 3878,
    "▁سرو": 3879,
    "▁بازنشست": 3880,
    "▁بروند": 3881,
    "▁گنج": 3882,
    "▁بمب": 3883,
    "▁ایراد": 3884,
    "▁شاعران": 3885,
    "داع": 3886,
    "▁حو": 3887,
    "الله": 3888,
    "▁فضانورد": 3889,
    "▁شون": 3890,
    "▁درس": 3891,
    "▁خارا": 3892,
    "تیکو": 3893,
    "شدت": 3894,
    "▁تثب": 3895,
    "امیر": 3896,
    "▁مکرر": 3897,
    "▁دردسر": 3898,
    "▁اندازد": 3899,
    "▁آفریقایی": 3900,
    "▁رغ": 3901,
    "▁گوگ": 3902,
    "▁دوازده": 3903,
    "▁فلسفه": 3904,
    "▁اعتقاد": 3905,
    "▁پرطرفدار": 3906,
    "▁تضمین": 3907,
    "▁ابتکار": 3908,
    "▁دماوند": 3909,
    "▁یهودی": 3910,
    "▁مواضع": 3911,
    "▁۸۰۰": 3912,
    "▁منفجر": 3913,
    "▁سید": 3914,
    "▁مکتب": 3915,
    "▁استراتژی": 3916,
    "▁بگوییم": 3917,
    "▁مسایل": 3918,
    "▁ببینند": 3919,
    "▁برگردد": 3920,
    "▁منزل": 3921,
    "▁مخصوص": 3922,
    "▁عنکبوت": 3923,
    "▁دایناسور": 3924,
    "▁جالب": 3925,
    "▁بختیار": 3926,
    "▁ستایش": 3927,
    "▁زور": 3928,
    "▁فجر": 3929,
    "▁فرگوسن": 3930,
    "▁خوک": 3931,
    "▁خرسند": 3932,
    "▁شایعات": 3933,
    "▁اق": 3934,
    "واسط": 3935,
    "▁۱۳۵": 3936,
    "▁انصاریان": 3937,
    "ایت": 3938,
    "▁دشمنان": 3939,
    "▁تالار": 3940,
    "▁اسلم": 3941,
    "▁ضایع": 3942,
    "▁زو": 3943,
    "▁تند": 3944,
    "▁صعودی": 3945,
    "▁فلز": 3946,
    "▁آرا": 3947,
    "بهار": 3948,
    "▁رایج": 3949,
    "▁ماهیگیر": 3950,
    "▁اعتیاد": 3951,
    "▁الکس": 3952,
    "▁مسکو": 3953,
    "▁گلف": 3954,
    "▁روستای": 3955,
    "تب": 3956,
    "▁همرسان": 3957,
    "▁منوچ": 3958,
    "▁کلود": 3959,
    "▁ادعاهای": 3960,
    "▁کاربرد": 3961,
    "▁کشتار": 3962,
    "▁گرند": 3963,
    "برنامه": 3964,
    "▁برانک": 3965,
    "▁حکمتی": 3966,
    "▁اسد": 3967,
    "▁اما": 3968,
    "ایع": 3969,
    "▁وزرای": 3970,
    "▁حرم": 3971,
    "▁ناو": 3972,
    "▁الیز": 3973,
    "▁گرمای": 3974,
    "▁حافظ": 3975,
    "▁اعتراضی": 3976,
    "▁جنس": 3977,
    "استقلال": 3978,
    "▁نظم": 3979,
    "ایح": 3980,
    "تلاف": 3981,
    "قص": 3982,
    "▁روسا": 3983,
    "خارجه": 3984,
    "وار": 3985,
    "▁مصاد": 3986,
    "▁قدمت": 3987,
    "▁گانه": 3988,
    "▁پسرش": 3989,
    "یعن": 3990,
    "جایی": 3991,
    "▁۷۳": 3992,
    "▁مستق": 3993,
    "آنتونی": 3994,
    "علیرضا": 3995,
    "▁اشک": 3996,
    "▁شخص": 3997,
    "▁کت": 3998,
    "▁کادی": 3999,
    "▁۹۰۰": 4000,
    "▁شه": 4001,
    "▁رنجر": 4002,
    "▁عقید": 4003,
    "▁گرگ": 4004,
    "▁داروها": 4005,
    "▁زخم": 4006,
    "▁رصد": 4007,
    "▁آقا": 4008,
    "▁جلال": 4009,
    "▁اموا": 4010,
    "ایش": 4011,
    "▁اصول": 4012,
    "تل": 4013,
    "▁بینند": 4014,
    "▁کمتری": 4015,
    "خر": 4016,
    "▁نامزدها": 4017,
    "▁حداد": 4018,
    "▁یکسال": 4019,
    "▁دوج": 4020,
    "یایی": 4021,
    "▁منطق": 4022,
    "▁شع": 4023,
    "سیویر": 4024,
    "▁کلام": 4025,
    "دیگر": 4026,
    "رین": 4027,
    "مهدی": 4028,
    "رات": 4029,
    "بت": 4030,
    "▁کاست": 4031,
    "▁کمربند": 4032,
    "▁۱۳۸": 4033,
    "▁۶۴": 4034,
    "▁شاهکار": 4035,
    "▁روب": 4036,
    "▁ساک": 4037,
    "▁ادب": 4038,
    "کینگ": 4039,
    "▁دریابندری": 4040,
    "▁کارداشیان": 4041,
    "▁مازندران": 4042,
    "▁وحدت": 4043,
    "▁محوطه": 4044,
    "▁اشتراک": 4045,
    "▁ورشکست": 4046,
    "▁بلوچ": 4047,
    "▁فلوید": 4048,
    "▁تعزیری": 4049,
    "▁شو": 4050,
    "▁معدود": 4051,
    "▁روشنفکر": 4052,
    "▁بیفتد": 4053,
    "▁پشتیبان": 4054,
    "▁مرجع": 4055,
    "▁سایبری": 4056,
    "▁ماندگار": 4057,
    "▁زغال": 4058,
    "▁مجاهد": 4059,
    "فاد": 4060,
    "▁آشوری": 4061,
    "▁ارزشمند": 4062,
    "▁۱۳۹۶": 4063,
    "▁مبدا": 4064,
    "▁پیشتاز": 4065,
    "▁سیگار": 4066,
    "▁وصل": 4067,
    "▁علیر": 4068,
    "▁ببیند": 4069,
    "▁کوهستان": 4070,
    "▁تعبیر": 4071,
    "مال": 4072,
    "▁خادم": 4073,
    "▁تسلیم": 4074,
    "▁رتکلیف": 4075,
    "نظرسنجی": 4076,
    "▁ویل": 4077,
    "▁یکسان": 4078,
    "▁ترافیک": 4079,
    "▁دیدگاه": 4080,
    "▁کرمان": 4081,
    "▁شانه": 4082,
    "▁جین": 4083,
    "▁پناهندگ": 4084,
    "▁زبا": 4085,
    "▁دیپلمات": 4086,
    "▁همینطور": 4087,
    "▁ساختن": 4088,
    "▁کیانوش": 4089,
    "▁تیرماه": 4090,
    "▁ابوال": 4091,
    "بازار": 4092,
    "▁جنایت": 4093,
    "کمیت": 4094,
    "▁موجودات": 4095,
    "درصد": 4096,
    "▁پیرلو": 4097,
    "▁مطهری": 4098,
    "▁رضایی": 4099,
    "▁آرامکو": 4100,
    "▁تنوع": 4101,
    "▁شاپو": 4102,
    "▁دارید": 4103,
    "۱۵": 4104,
    "مالاریا": 4105,
    "▁صفحات": 4106,
    "▁دخترش": 4107,
    "۲۳": 4108,
    "▁نداشتن": 4109,
    "▁لاری": 4110,
    "▁شیلی": 4111,
    "▁ردیاب": 4112,
    "▁غم": 4113,
    "برگ": 4114,
    "▁آمدند": 4115,
    "▁تصمیمات": 4116,
    "▁حدی": 4117,
    "▁انجامید": 4118,
    "▁نوید": 4119,
    "شماری": 4120,
    "▁شانزدهم": 4121,
    "رقابت": 4122,
    "مدت": 4123,
    "▁مسیرهای": 4124,
    "▁کپی": 4125,
    "▁مصطف": 4126,
    "فن": 4127,
    "اسل": 4128,
    "▁میل": 4129,
    "▁پیک": 4130,
    "منابع": 4131,
    "معاون": 4132,
    "اینها": 4133,
    "▁اح": 4134,
    "▁لیست": 4135,
    "▁بارداری": 4136,
    "▁پوشاند": 4137,
    "لاتین": 4138,
    "▁واسط": 4139,
    "یچ": 4140,
    "نشینی": 4141,
    "محققان": 4142,
    "▁گرایان": 4143,
    "▁نظرات": 4144,
    "▁جبه": 4145,
    "▁شناسان": 4146,
    "▁دورت": 4147,
    "سانه": 4148,
    "▁خودران": 4149,
    "نت": 4150,
    "▁اذ": 4151,
    "گفت": 4152,
    "▁نیوک": 4153,
    "▁۵۹": 4154,
    "▁کاغذ": 4155,
    "▁اسک": 4156,
    "▁قراردادهای": 4157,
    "▁کارگردانان": 4158,
    "آمار": 4159,
    "تکب": 4160,
    "بل": 4161,
    "▁ویلا": 4162,
    "▁نیو": 4163,
    "بازی": 4164,
    "مرث": 4165,
    "▁هندی": 4166,
    "▁اکس": 4167,
    "▁افشار": 4168,
    "▁نیش": 4169,
    "▁۷۲": 4170,
    "وله": 4171,
    "▁سون": 4172,
    "یخ": 4173,
    "▁تاریک": 4174,
    "نواک": 4175,
    "▁برداشتن": 4176,
    "▁شر": 4177,
    "▁برزیلی": 4178,
    "لاق": 4179,
    "▁دربار": 4180,
    "برداری": 4181,
    "▁شرمن": 4182,
    "فصل": 4183,
    "▁وحشی": 4184,
    "▁مرغدار": 4185,
    "▁قض": 4186,
    "▁پیمانکار": 4187,
    "▁دشمن": 4188,
    "دربند": 4189,
    "▁نت": 4190,
    "▁معیار": 4191,
    "▁گرفتم": 4192,
    "▁صداوسیما": 4193,
    "▁پارالمپیک": 4194,
    "کول": 4195,
    "▁آسوشیتدپرس": 4196,
    "▁بدخشان": 4197,
    "▁قزاقستان": 4198,
    "▁مدیترانه": 4199,
    "▁ترسناک": 4200,
    "▁تتلو": 4201,
    "▁آپارتمان": 4202,
    "▁بگویم": 4203,
    "▁حیوان": 4204,
    "گراندپری": 4205,
    "▁بگیرید": 4206,
    "▁مختل": 4207,
    "▁ثانوی": 4208,
    "▁غیاب": 4209,
    "▁ودیعه": 4210,
    "▁اکسید": 4211,
    "▁خزر": 4212,
    "▁نشیب": 4213,
    "▁نمادی": 4214,
    "▁آرشیو": 4215,
    "▁رمزارز": 4216,
    "▁فروپاشی": 4217,
    "▁زیستگاه": 4218,
    "▁خرابکار": 4219,
    "▁اردوگاه": 4220,
    "▁مزرعه": 4221,
    "ضعف": 4222,
    "▁حباب": 4223,
    "▁لامبورگینی": 4224,
    "▁۲۰۰۴": 4225,
    "▁توفان": 4226,
    "▁قرص": 4227,
    "▁سرویس": 4228,
    "▁تندرو": 4229,
    "▁هشتگ": 4230,
    "▁مولوی": 4231,
    "▁فسیل": 4232,
    "▁قم": 4233,
    "▁پلاک": 4234,
    "▁پراید": 4235,
    "▁تحصیلات": 4236,
    "▁لبخند": 4237,
    "▁غالب": 4238,
    "▁اتل": 4239,
    "▁دارا": 4240,
    "▁گوگل": 4241,
    "سو": 4242,
    "▁مداوم": 4243,
    "▁ظه": 4244,
    "شمار": 4245,
    "▁دستاوردهای": 4246,
    "▁عل": 4247,
    "▁تسهیلات": 4248,
    "▁زادگاه": 4249,
    "▁علاقمندان": 4250,
    "▁عزم": 4251,
    "▁جاسوس": 4252,
    "▁نکات": 4253,
    "▁عصب": 4254,
    "▁اندیش": 4255,
    "▁وجه": 4256,
    "▁۱۳۶": 4257,
    "▁فتاح": 4258,
    "چین": 4259,
    "▁کوچکتر": 4260,
    "▁۴۱": 4261,
    "▁خواهی": 4262,
    "▁ضربات": 4263,
    "▁مرتب": 4264,
    "نوش": 4265,
    "▁آفرین": 4266,
    "▁توضیحات": 4267,
    "▁فیس": 4268,
    "حل": 4269,
    "خاطر": 4270,
    "▁اعطا": 4271,
    "▁پیشرفته": 4272,
    "▁جانور": 4273,
    "▁شناسند": 4274,
    "▁نکردند": 4275,
    "دام": 4276,
    "▁ناآرامی": 4277,
    "▁الگوی": 4278,
    "▁چوب": 4279,
    "▁شغلی": 4280,
    "▁هواپیماهای": 4281,
    "الدین": 4282,
    "▁پارس": 4283,
    "۱۳": 4284,
    "▁ناراحت": 4285,
    "آخری": 4286,
    "▁ماز": 4287,
    "▁داشتیم": 4288,
    "عی": 4289,
    "▁زی": 4290,
    "وجود": 4291,
    "▁هوادار": 4292,
    "▁نک": 4293,
    "▁استاین": 4294,
    "▁الزام": 4295,
    "▁دانشجویی": 4296,
    "چرخه": 4297,
    "▁تبادل": 4298,
    "▁۷۴": 4299,
    "کرد": 4300,
    "▁شیمی": 4301,
    "▁لح": 4302,
    "▁هل": 4303,
    "▁انتقادات": 4304,
    "▁تعهداتش": 4305,
    "▁قرض": 4306,
    "▁کامپیوتری": 4307,
    "▁وع": 4308,
    "اطم": 4309,
    "▁تعل": 4310,
    "فعالان": 4311,
    "▁منصوری": 4312,
    "▁سختگیر": 4313,
    "گبا": 4314,
    "سرعت": 4315,
    "▁مهاجمان": 4316,
    "اتی": 4317,
    "محمدجواد": 4318,
    "▁ارا": 4319,
    "وریا": 4320,
    "▁مرگش": 4321,
    "▁۵۳": 4322,
    "▁مقا": 4323,
    "الی": 4324,
    "▁بانکها": 4325,
    "▁سان": 4326,
    "هز": 4327,
    "واک": 4328,
    "▁عمران": 4329,
    "▁پالا": 4330,
    "وپن": 4331,
    "▁ویرجی": 4332,
    "▁گلزن": 4333,
    "▁تخیل": 4334,
    "▁تلف": 4335,
    "منه": 4336,
    "باز": 4337,
    "▁مغ": 4338,
    "▁۷۸": 4339,
    "ندی": 4340,
    "▁کاظم": 4341,
    "▁نهاده": 4342,
    "▁بزرگتر": 4343,
    "▁پناه": 4344,
    "▁وب": 4345,
    "▁شدیدتر": 4346,
    "▁سلطانی": 4347,
    "▁بینیم": 4348,
    "▁خزان": 4349,
    "لاشه": 4350,
    "▁شنیدن": 4351,
    "▁فرانک": 4352,
    "▁اخطار": 4353,
    "▁ارد": 4354,
    "▁سرنشین": 4355,
    "▁ژنو": 4356,
    "▁گشود": 4357,
    "▁یکم": 4358,
    "▁ابهام": 4359,
    "▁مامور": 4360,
    "▁ذهنی": 4361,
    "▁یکبار": 4362,
    "▁مصدوم": 4363,
    "اقد": 4364,
    "▁آتالانتا": 4365,
    "▁زحمت": 4366,
    "▁اتوبوس": 4367,
    "▁وحشتناک": 4368,
    "▁غرامت": 4369,
    "▁شباهت": 4370,
    "▁مصلحت": 4371,
    "▁داغستان": 4372,
    "▁نوازنده": 4373,
    "▁معالج": 4374,
    "▁سوگوار": 4375,
    "▁پیشکسوت": 4376,
    "▁کمدی": 4377,
    "▁خلاقیت": 4378,
    "▁آوازخوان": 4379,
    "▁بپردازد": 4380,
    "▁احتیاط": 4381,
    "▁برتری": 4382,
    "▁اعتراف": 4383,
    "▁تغذیه": 4384,
    "▁ناشناخت": 4385,
    "▁۱۹۴۰": 4386,
    "۲۰": 4387,
    "▁توجیه": 4388,
    "▁ناقض": 4389,
    "▁پایبند": 4390,
    "▁صحیح": 4391,
    "▁ندارم": 4392,
    "▁پروان": 4393,
    "مد": 4394,
    "▁خسارات": 4395,
    "▁تمدن": 4396,
    "▁جابجا": 4397,
    "▁متنوع": 4398,
    "▁هستید": 4399,
    "▁عاشقانه": 4400,
    "▁گرمایش": 4401,
    "▁ضدحمل": 4402,
    "▁نزول": 4403,
    "▁کریسمس": 4404,
    "▁والدین": 4405,
    "▁سکوت": 4406,
    "اداری": 4407,
    "▁قاب": 4408,
    "▁ایستاد": 4409,
    "صخره": 4410,
    "▁جزییات": 4411,
    "▁ناب": 4412,
    "یشب": 4413,
    "▁مغاز": 4414,
    "▁بنکسی": 4415,
    "وازه": 4416,
    "▁پیشرو": 4417,
    "قی": 4418,
    "▁بردارد": 4419,
    "▁خریده": 4420,
    "▁چهاردهم": 4421,
    "▁شهید": 4422,
    "▁ریزش": 4423,
    "▁دیوی": 4424,
    "▁فی": 4425,
    "سانی": 4426,
    "▁کوهن": 4427,
    "تنها": 4428,
    "▁هفدهم": 4429,
    "▁رسم": 4430,
    "▁قطعات": 4431,
    "▁توریست": 4432,
    "نک": 4433,
    "زا": 4434,
    "▁نوجوانان": 4435,
    "▁جف": 4436,
    "▁کاس": 4437,
    "▁ترکمن": 4438,
    "روج": 4439,
    "اده": 4440,
    "▁بدین": 4441,
    "گل": 4442,
    "انکن": 4443,
    "▁ویدئو": 4444,
    "خت": 4445,
    "▁هکرها": 4446,
    "▁گازی": 4447,
    "▁لرز": 4448,
    "▁جهانگیری": 4449,
    "▁استثنا": 4450,
    "▁میز": 4451,
    "▁سارا": 4452,
    "شاه": 4453,
    "خانواده": 4454,
    "اقتصاد": 4455,
    "▁تیل": 4456,
    "▁کودتای": 4457,
    "▁رویه": 4458,
    "▁تار": 4459,
    "مانده": 4460,
    "شا": 4461,
    "هام": 4462,
    "▁دلال": 4463,
    "▁ایر": 4464,
    "▁۱۹۴": 4465,
    "▁موازی": 4466,
    "▁مارچ": 4467,
    "وطن": 4468,
    "▁سیم": 4469,
    "ولان": 4470,
    "▁بورگ": 4471,
    "▁آگاهی": 4472,
    "▁نق": 4473,
    "▁یافتند": 4474,
    "هدیه": 4475,
    "▁مند": 4476,
    "▁فرج": 4477,
    "▁۷۶": 4478,
    "▁درخش": 4479,
    "▁دیو": 4480,
    "▁لحن": 4481,
    "▁تخصص": 4482,
    "عداد": 4483,
    "مار": 4484,
    "▁۳۵۰": 4485,
    "▁خطای": 4486,
    "▁صفرها": 4487,
    "▁بیل": 4488,
    "▁۱۹۶۰": 4489,
    "تراشه": 4490,
    "مل": 4491,
    "▁عمد": 4492,
    "یوان": 4493,
    "▁نروژ": 4494,
    "▁ذی": 4495,
    "▁پروازها": 4496,
    "حمید": 4497,
    "▁دهان": 4498,
    "▁کیفر": 4499,
    "▁بازارها": 4500,
    "انس": 4501,
    "▁متشک": 4502,
    "▁ارگ": 4503,
    "▁کوبا": 4504,
    "علاو": 4505,
    "نصف": 4506,
    "▁شهریار": 4507,
    "▁بنیادی": 4508,
    "حافظه": 4509,
    "▁آرای": 4510,
    "▁خالص": 4511,
    "▁قومی": 4512,
    "لم": 4513,
    "وات": 4514,
    "▁چیزهای": 4515,
    "درفتار": 4516,
    "تولید": 4517,
    "▁آرش": 4518,
    "▁میرزا": 4519,
    "▁نوآور": 4520,
    "▁۱۷۰": 4521,
    "▁شط": 4522,
    "ودی": 4523,
    "▁همتای": 4524,
    "عشی": 4525,
    "▁درآورد": 4526,
    "راتی": 4527,
    "▁لوکا": 4528,
    "گشایی": 4529,
    "▁صدد": 4530,
    "زار": 4531,
    "▁پیچ": 4532,
    "▁رت": 4533,
    "▁پرت": 4534,
    "▁گفتگوهای": 4535,
    "▁معنا": 4536,
    "واد": 4537,
    "▁تعمیر": 4538,
    "▁ادار": 4539,
    "▁خشن": 4540,
    "هین": 4541,
    "▁همجنس": 4542,
    "▁آغداشلو": 4543,
    "▁مغناطیس": 4544,
    "▁واضح": 4545,
    "▁کانسپت": 4546,
    "▁یونسکو": 4547,
    "▁استخدام": 4548,
    "▁اوباما": 4549,
    "▁گلمکانی": 4550,
    "▁اصرار": 4551,
    "▁اقتدار": 4552,
    "▁مشکات": 4553,
    "▁بفروشد": 4554,
    "▁نامناسب": 4555,
    "▁بیاورد": 4556,
    "▁پوتین": 4557,
    "▁محترم": 4558,
    "▁لگن": 4559,
    "▁زیارت": 4560,
    "چهار": 4561,
    "▁یادبود": 4562,
    "▁اسرار": 4563,
    "▁مخدر": 4564,
    "▁ادارات": 4565,
    "▁شرح": 4566,
    "▁مداخل": 4567,
    "بینی": 4568,
    "▁ایرباس": 4569,
    "▁مرتضی": 4570,
    "▁حساسیت": 4571,
    "▁۹۴": 4572,
    "▁نیسان": 4573,
    "▁هشتصد": 4574,
    "▁غلط": 4575,
    "کور": 4576,
    "▁تیک": 4577,
    "▁سارس": 4578,
    "▁رضایت": 4579,
    "▁اسنپ": 4580,
    "▁تکنولوژی": 4581,
    "▁انحصار": 4582,
    "فیه": 4583,
    "▁حقیق": 4584,
    "▁مدرک": 4585,
    "▁ندهد": 4586,
    "▁ماشه": 4587,
    "▁۶۸": 4588,
    "▁نان": 4589,
    "▁۸۵": 4590,
    "▁آرمان": 4591,
    "▁دهندگان": 4592,
    "قات": 4593,
    "دور": 4594,
    "▁شوخی": 4595,
    "▁یوو": 4596,
    "▁پرهی": 4597,
    "▁خواهر": 4598,
    "▁تام": 4599,
    "▁قبال": 4600,
    "▁محکم": 4601,
    "▁زهره": 4602,
    "▁فرید": 4603,
    "▁سانتریفیوژ": 4604,
    "مر": 4605,
    "▁گذارند": 4606,
    "▁دهید": 4607,
    "▁تحقیر": 4608,
    "▁سعد": 4609,
    "▁خران": 4610,
    "▁ببر": 4611,
    "وفر": 4612,
    "▁گذاشتند": 4613,
    "▁ماهها": 4614,
    "سب": 4615,
    "▁امو": 4616,
    "▁رفتارهای": 4617,
    "مکعب": 4618,
    "▁سیام": 4619,
    "▁جلد": 4620,
    "▁درج": 4621,
    "▁حتما": 4622,
    "▁دنیاست": 4623,
    "▁مستقیما": 4624,
    "▁لوا": 4625,
    "خیره": 4626,
    "▁پار": 4627,
    "▁ایرج": 4628,
    "پتون": 4629,
    "▁معیشتی": 4630,
    "▁خوست": 4631,
    "همچنین": 4632,
    "رگس": 4633,
    "ایدو": 4634,
    "۰۰۰": 4635,
    "▁ثروتمندتر": 4636,
    "▁شادی": 4637,
    "زده": 4638,
    "▁گردانند": 4639,
    "▁صح": 4640,
    "▁برجا": 4641,
    "▁همانند": 4642,
    "▁۱۹۰": 4643,
    "۴۰": 4644,
    "▁پانزدهم": 4645,
    "▁همکار": 4646,
    "▁فوریت": 4647,
    "▁برایم": 4648,
    "انصراف": 4649,
    "▁زک": 4650,
    "لندر": 4651,
    "ونگ": 4652,
    "▁احسا": 4653,
    "▁استاندارد": 4654,
    "وکی": 4655,
    "▁دیدارهای": 4656,
    "▁تبعید": 4657,
    "مدیر": 4658,
    "لور": 4659,
    "▁ابرا": 4660,
    "▁نیا": 4661,
    "▁۱۷۶": 4662,
    "▁اکبری": 4663,
    "نمایندگان": 4664,
    "▁نوار": 4665,
    "انتظار": 4666,
    "صندوق": 4667,
    "▁کیست": 4668,
    "▁عزیز": 4669,
    "چرا": 4670,
    "▁سوری": 4671,
    "▁آثارش": 4672,
    "لس": 4673,
    "کوویچ": 4674,
    "فدرر": 4675,
    "▁نمود": 4676,
    "▁پاهای": 4677,
    "▁فای": 4678,
    "کارشناسان": 4679,
    "▁پرتر": 4680,
    "رهبر": 4681,
    "غلام": 4682,
    "خل": 4683,
    "اخیرا": 4684,
    "▁انیس": 4685,
    "▁دانشگاهی": 4686,
    "▁استدر": 4687,
    "▁کرو": 4688,
    "▁کامپیوتر": 4689,
    "▁گذراندن": 4690,
    "▁فین": 4691,
    "ناک": 4692,
    "▁هلی": 4693,
    "▁۶۲": 4694,
    "▁فیلمبردار": 4695,
    "▁روال": 4696,
    "خبر": 4697,
    "▁برگشته": 4698,
    "▁دوش": 4699,
    "▁ناامید": 4700,
    "▁اجبار": 4701,
    "▁چی": 4702,
    "▁مالکان": 4703,
    "▁شهردار": 4704,
    "مرگ": 4705,
    "▁سوا": 4706,
    "رشد": 4707,
    "▁کلان": 4708,
    "مصطف": 4709,
    "▁نخ": 4710,
    "▁شریف": 4711,
    "هدف": 4712,
    "▁تغییری": 4713,
    "▁درخشانی": 4714,
    "▁بلوک": 4715,
    "▁تشری": 4716,
    "▁شهیدی": 4717,
    "▁آلن": 4718,
    "▁موجودی": 4719,
    "▁پرآ": 4720,
    "▁دستاورد": 4721,
    "▁منظر": 4722,
    "لیون": 4723,
    "▁مکزیک": 4724,
    "▁استون": 4725,
    "▁نامی": 4726,
    "▁مردمی": 4727,
    "▁خانوار": 4728,
    "▁اخلاق": 4729,
    "▁مال": 4730,
    "▁مأمور": 4731,
    "▁آبراموویچ": 4732,
    "▁فزاینده": 4733,
    "▁زریاب": 4734,
    "▁معلم": 4735,
    "▁تفکیک": 4736,
    "▁راپینو": 4737,
    "▁آسمایی": 4738,
    "▁زیرساخت": 4739,
    "لاب": 4740,
    "▁مثلث": 4741,
    "▁کالبد": 4742,
    "▁یخچال": 4743,
    "▁مطلوب": 4744,
    "▁خفیف": 4745,
    "▁امواج": 4746,
    "▁لاریجان": 4747,
    "▁آشام": 4748,
    "▁طعم": 4749,
    "▁پنگوئن": 4750,
    "▁تکنیک": 4751,
    "جیمزباند": 4752,
    "▁بازنگری": 4753,
    "▁آمبول": 4754,
    "▁ترانزیت": 4755,
    "فینیتی": 4756,
    "▁فطر": 4757,
    "▁هرمز": 4758,
    "▁میلیاردر": 4759,
    "▁مسافت": 4760,
    "▁۲۰۰۱": 4761,
    "▁اکتشاف": 4762,
    "▁غیرنظامی": 4763,
    "▁مظاهری": 4764,
    "▁خراب": 4765,
    "▁حسرت": 4766,
    "▁گرایش": 4767,
    "▁بازخوان": 4768,
    "گرفته": 4769,
    "▁بوکسور": 4770,
    "▁جغرافیای": 4771,
    "▁نیجر": 4772,
    "▁گابریل": 4773,
    "▁جیپ": 4774,
    "▁سیبری": 4775,
    "▁برلین": 4776,
    "۶۰": 4777,
    "▁شمس": 4778,
    "▁نمایشنامه": 4779,
    "▁غل": 4780,
    "▁اسکو": 4781,
    "▁ندیده": 4782,
    "▁مایع": 4783,
    "▁رزم": 4784,
    "▁سالیوان": 4785,
    "▁گلوب": 4786,
    "▁دشت": 4787,
    "▁گال": 4788,
    "▁باشم": 4789,
    "▁فیروز": 4790,
    "▁آزمو": 4791,
    "تیک": 4792,
    "▁بافت": 4793,
    "وارد": 4794,
    "▁مخلو": 4795,
    "▁مراود": 4796,
    "هار": 4797,
    "▁نویسد": 4798,
    "▁مزایای": 4799,
    "▁معاد": 4800,
    "▁بدنی": 4801,
    "▁اک": 4802,
    "مسی": 4803,
    "۴۶": 4804,
    "▁کرج": 4805,
    "▁نمادهای": 4806,
    "رونمای": 4807,
    "شنگ": 4808,
    "▁۸۲": 4809,
    "▁سام": 4810,
    "آمیز": 4811,
    "▁ریخت": 4812,
    "▁وجو": 4813,
    "باشگاه": 4814,
    "مجلس": 4815,
    "▁آرزوی": 4816,
    "▁ضر": 4817,
    "▁مسیحی": 4818,
    "خامن": 4819,
    "▁اتکا": 4820,
    "▁آمریکاست": 4821,
    "▁شناسد": 4822,
    "فون": 4823,
    "دین": 4824,
    "▁گنجی": 4825,
    "▁کاوه": 4826,
    "▁کلر": 4827,
    "نم": 4828,
    "پا": 4829,
    "▁اید": 4830,
    "پرسپولیس": 4831,
    "▁ژو": 4832,
    "▁گیل": 4833,
    "▁افتادن": 4834,
    "▁فرض": 4835,
    "سکی": 4836,
    "▁جوز": 4837,
    "ژان": 4838,
    "باب": 4839,
    "▁امی": 4840,
    "▁کارفرمای": 4841,
    "▁کول": 4842,
    "مندان": 4843,
    "▁دم": 4844,
    "▁نورد": 4845,
    "▁ماریا": 4846,
    "▁پال": 4847,
    "دونالد": 4848,
    "۷۰": 4849,
    "سایه": 4850,
    "یع": 4851,
    "خته": 4852,
    "▁مواقع": 4853,
    "▁جوش": 4854,
    "موسس": 4855,
    "روزنامه": 4856,
    "یرت": 4857,
    "▁آنک": 4858,
    "▁استودیو": 4859,
    "سپاری": 4860,
    "▁سرب": 4861,
    "▁برآمد": 4862,
    "لتیک": 4863,
    "▁شهرک": 4864,
    "۹۰": 4865,
    "▁نابود": 4866,
    "مپ": 4867,
    "▁عالم": 4868,
    "▁مصر": 4869,
    "▁گزارشها": 4870,
    "▁فروشند": 4871,
    "امضاکنندگان": 4872,
    "فرج": 4873,
    "▁مدتها": 4874,
    "▁بناها": 4875,
    "یز": 4876,
    "▁فرزندش": 4877,
    "▁کرایس": 4878,
    "▁کین": 4879,
    "یقه": 4880,
    "۲۰۰": 4881,
    "▁جیل": 4882,
    "▁اد": 4883,
    "غه": 4884,
    "▁گرفتار": 4885,
    "نکور": 4886,
    "▁کیت": 4887,
    "▁تیره": 4888,
    "▁الکل": 4889,
    "▁مقر": 4890,
    "▁۶۱": 4891,
    "▁وگوی": 4892,
    "▁جاهای": 4893,
    "ناز": 4894,
    "▁۸۹": 4895,
    "▁تش": 4896,
    "قرض": 4897,
    "▁رکوردهای": 4898,
    "▁کج": 4899,
    "دوست": 4900,
    "▁آشنای": 4901,
    "▁انگشت": 4902,
    "▁گویی": 4903,
    "سپری": 4904,
    "یژن": 4905,
    "▁تابو": 4906,
    "ریک": 4907,
    "▁نوزاد": 4908,
    "ترا": 4909,
    "▁مندان": 4910,
    "نفتی": 4911,
    "▁ظ": 4912,
    "▁جست": 4913,
    "▁مستضعفان": 4914,
    "▁باورنکردنی": 4915,
    "▁دگرگون": 4916,
    "▁اپیدمی": 4917,
    "▁خرچنگ": 4918,
    "▁سرتاسر": 4919,
    "▁شارژ": 4920,
    "▁بنتلی": 4921,
    "▁تضاد": 4922,
    "▁تخفیف": 4923,
    "▁زودهنگام": 4924,
    "▁برشمرد": 4925,
    "▁آموزگار": 4926,
    "▁کولمن": 4927,
    "▁جرایم": 4928,
    "▁نصیب": 4929,
    "▁واریز": 4930,
    "▁ارتقا": 4931,
    "▁متوفی": 4932,
    "▁آنفیلد": 4933,
    "▁ریورا": 4934,
    "▁بفتا": 4935,
    "▁فرایند": 4936,
    "▁کلینیک": 4937,
    "▁۱۹۷۰": 4938,
    "▁بارز": 4939,
    "▁بگذارند": 4940,
    "▁شام": 4941,
    "▁سیارک": 4942,
    "▁مکمل": 4943,
    "▁تبریک": 4944,
    "▁نرفت": 4945,
    "▁قسط": 4946,
    "▁قائم": 4947,
    "▁انباشت": 4948,
    "▁پررنگ": 4949,
    "▁انستیتو": 4950,
    "▁ببرند": 4951,
    "▁نوشیدن": 4952,
    "▁غیبت": 4953,
    "خاذ": 4954,
    "▁۱۹۸۰": 4955,
    "▁متروکه": 4956,
    "▁نژادپرستانه": 4957,
    "▁هیچکس": 4958,
    "▁گواهی": 4959,
    "▁گناه": 4960,
    "▁گلایه": 4961,
    "▁کانادایی": 4962,
    "▁گوهر": 4963,
    "▁خلوت": 4964,
    "▁مخصوصا": 4965,
    "▁تحری": 4966,
    "▁ناتوان": 4967,
    "▁شکوف": 4968,
    "دهنده": 4969,
    "▁قبرس": 4970,
    "▁ته": 4971,
    "▁مردگان": 4972,
    "▁تحرک": 4973,
    "▁غفوری": 4974,
    "▁معوقه": 4975,
    "▁گودال": 4976,
    "▁رونالدینیو": 4977,
    "▁دندان": 4978,
    "▁۱۴۰": 4979,
    "▁شستا": 4980,
    "▁مغول": 4981,
    "▁ساسانی": 4982,
    "یلیون": 4983,
    "ناظر": 4984,
    "▁نویسندگ": 4985,
    "▁حبیب": 4986,
    "▁گرسنگ": 4987,
    "▁باختند": 4988,
    "تحول": 4989,
    "▁مثل": 4990,
    "لژی": 4991,
    "▁انداختن": 4992,
    "خواهید": 4993,
    "▁پیتر": 4994,
    "▁پردرآمد": 4995,
    "رگ": 4996,
    "▁رساندند": 4997,
    "▁نمانده": 4998,
    "ربی": 4999,
    "▁فضانوردان": 5000,
    "▁معاش": 5001,
    "▁ماس": 5002,
    "▁خواندند": 5003,
    "گیر": 5004,
    "میم": 5005,
    "▁میهمان": 5006,
    "عارف": 5007,
    "▁خیال": 5008,
    "▁تاکتیکی": 5009,
    "▁کنیا": 5010,
    "ایب": 5011,
    "▁زم": 5012,
    "▁وار": 5013,
    "▁خطرات": 5014,
    "▁گروگانگیر": 5015,
    "▁معاین": 5016,
    "▁تیموری": 5017,
    "رخ": 5018,
    "کاهش": 5019,
    "▁بگیر": 5020,
    "سخ": 5021,
    "▁سطو": 5022,
    "▁مگا": 5023,
    "غیب": 5024,
    "▁رانت": 5025,
    "لینی": 5026,
    "اظ": 5027,
    "▁کنی": 5028,
    "▁۶۵۰": 5029,
    "▁۸۳": 5030,
    "▁پیرو": 5031,
    "▁تاریکی": 5032,
    "ناشناس": 5033,
    "▁روبرت": 5034,
    "کرونا": 5035,
    "▁سالان": 5036,
    "▁رنگین": 5037,
    "▁بازوی": 5038,
    "▁نوزدهم": 5039,
    "▁کینگ": 5040,
    "▁حراست": 5041,
    "زین": 5042,
    "احی": 5043,
    "▁یگان": 5044,
    "▁قبر": 5045,
    "واکنش": 5046,
    "سوم": 5047,
    "▁سفی": 5048,
    "آمریکایی": 5049,
    "دالله": 5050,
    "خواهند": 5051,
    "▁پراکن": 5052,
    "شکل": 5053,
    "▁رومانی": 5054,
    "لات": 5055,
    "همه": 5056,
    "▁خر": 5057,
    "▁آندری": 5058,
    "کانادا": 5059,
    "▁کودتا": 5060,
    "ستانگ": 5061,
    "هرانا": 5062,
    "طرف": 5063,
    "▁کروناست": 5064,
    "جیب": 5065,
    "▁نیافت": 5066,
    "جمه": 5067,
    "▁قربان": 5068,
    "مانع": 5069,
    "زنی": 5070,
    "▁ساترا": 5071,
    "▁کارتو": 5072,
    "▁خالق": 5073,
    "▁چشمان": 5074,
    "راجر": 5075,
    "شش": 5076,
    "پر": 5077,
    "▁طب": 5078,
    "حق": 5079,
    "▁استرس": 5080,
    "▁پژو": 5081,
    "▁گرمی": 5082,
    "▁دادم": 5083,
    "وح": 5084,
    "ویر": 5085,
    "▁آنتی": 5086,
    "▁۵۱": 5087,
    "▁علاقمند": 5088,
    "▁پستی": 5089,
    "▁مشوق": 5090,
    "لین": 5091,
    "▁متحدان": 5092,
    "برید": 5093,
    "▁پذیری": 5094,
    "موث": 5095,
    "▁آلومینیوم": 5096,
    "▁اتیوپی": 5097,
    "▁اوربیتر": 5098,
    "▁شیکاگو": 5099,
    "▁جامائیکا": 5100,
    "▁رمضان": 5101,
    "▁ملاحظ": 5102,
    "▁مصیبت": 5103,
    "▁دانچیچ": 5104,
    "▁رئوف": 5105,
    "▁امتداد": 5106,
    "▁لاجورد": 5107,
    "▁خاشقچی": 5108,
    "▁کدخدای": 5109,
    "زادگان": 5110,
    "▁ربیعی": 5111,
    "▁فحش": 5112,
    "▁جهرمی": 5113,
    "▁گریبان": 5114,
    "▁ووهان": 5115,
    "▁گیگز": 5116,
    "▁فروزش": 5117,
    "▁وودز": 5118,
    "▁الماس": 5119,
    "▁اشکال": 5120,
    "▁بشردوستانه": 5121,
    "▁الاجل": 5122,
    "▁وفادار": 5123,
    "▁اذیت": 5124,
    "▁عقاب": 5125,
    "▁کلمات": 5126,
    "▁آث": 5127,
    "بپرس": 5128,
    "▁شجاع": 5129,
    "▁تلفات": 5130,
    "▁اتصال": 5131,
    "▁۲۰۰۶": 5132,
    "▁ژیمناست": 5133,
    "▁هوندا": 5134,
    "رطوب": 5135,
    "▁جناح": 5136,
    "▁۱۹۹۸": 5137,
    "▁پرستاران": 5138,
    "خواست": 5139,
    "▁فروغ": 5140,
    "▁نزدیکان": 5141,
    "انا": 5142,
    "پول": 5143,
    "▁آموز": 5144,
    "▁دبیرستان": 5145,
    "▁ترابی": 5146,
    "▁قفس": 5147,
    "سن": 5148,
    "رخی": 5149,
    "▁ایندی": 5150,
    "▁پناهجوی": 5151,
    "▁گرامی": 5152,
    "▁استفانو": 5153,
    "▁ریل": 5154,
    "▁فیلیپین": 5155,
    "▁صریح": 5156,
    "▁خبرها": 5157,
    "▁مستندساز": 5158,
    "▁اسپورت": 5159,
    "وخامت": 5160,
    "سئول": 5161,
    "▁ندانست": 5162,
    "▁انداختند": 5163,
    "▁خیام": 5164,
    "▁دورانگو": 5165,
    "▁ماهشهر": 5166,
    "▁سرش": 5167,
    "▁اقبال": 5168,
    "▁نهفته": 5169,
    "▁مضر": 5170,
    "▁آذری": 5171,
    "▁حی": 5172,
    "شدیدترین": 5173,
    "▁شمارش": 5174,
    "▁سکسک": 5175,
    "▁حضرت": 5176,
    "▁مب": 5177,
    "▁اینستاگرامش": 5178,
    "▁زنگ": 5179,
    "▁نیما": 5180,
    "▁خلیل": 5181,
    "▁سالیانه": 5182,
    "▁نگر": 5183,
    "▁ویدیوهای": 5184,
    "▁گرانتر": 5185,
    "▁متخلفان": 5186,
    "▁نداشتم": 5187,
    "ازما": 5188,
    "▁نگارش": 5189,
    "▁ادوارد": 5190,
    "▁جفت": 5191,
    "▁بدنش": 5192,
    "▁رژه": 5193,
    "جانب": 5194,
    "▁آوی": 5195,
    "▁متیو": 5196,
    "▁جعفری": 5197,
    "▁مض": 5198,
    "اران": 5199,
    "بته": 5200,
    "▁سیار": 5201,
    "▁رنگی": 5202,
    "سابقه": 5203,
    "▁دینی": 5204,
    "▁بزن": 5205,
    "▁تحریمها": 5206,
    "▁۱۸۰": 5207,
    "▁نشدند": 5208,
    "▁سرگرمی": 5209,
    "▁سبد": 5210,
    "روح": 5211,
    "▁نوشتند": 5212,
    "▁باقر": 5213,
    "مای": 5214,
    "▁شمایل": 5215,
    "ارغ": 5216,
    "فا": 5217,
    "▁دیدم": 5218,
    "▁بانو": 5219,
    "▁خالقی": 5220,
    "▁اله": 5221,
    "▁گردون": 5222,
    "▁سردار": 5223,
    "▁اصولگرای": 5224,
    "▁شیفت": 5225,
    "▁هامر": 5226,
    "▁رجب": 5227,
    "▁جولیان": 5228,
    "▁ابلاغی": 5229,
    "▁ساری": 5230,
    "▁پذیرای": 5231,
    "اله": 5232,
    "رانه": 5233,
    "▁تدری": 5234,
    "▁انوش": 5235,
    "بهم": 5236,
    "▁ماری": 5237,
    "یید": 5238,
    "▁نیکل": 5239,
    "رج": 5240,
    "دترین": 5241,
    "وندی": 5242,
    "زاد": 5243,
    "▁هرکس": 5244,
    "▁قرمزها": 5245,
    "▁۱۹۳": 5246,
    "▁۵۸": 5247,
    "خودرو": 5248,
    "▁افکاری": 5249,
    "فته": 5250,
    "▁۱۶۰": 5251,
    "▁سلام": 5252,
    "▁تابستانی": 5253,
    "▁پائی": 5254,
    "تلاش": 5255,
    "▁ژن": 5256,
    "▁پرند": 5257,
    "ونیست": 5258,
    "انتشار": 5259,
    "شت": 5260,
    "۹۹": 5261,
    "قو": 5262,
    "▁کالای": 5263,
    "▁درآمدزا": 5264,
    "▁فرهنگیان": 5265,
    "▁منصور": 5266,
    "بورس": 5267,
    "▁۸۶": 5268,
    "▁بور": 5269,
    "▁افتتاحی": 5270,
    "▁موهای": 5271,
    "▁رایان": 5272,
    "▁تراز": 5273,
    "بالغ": 5274,
    "▁ولد": 5275,
    "▁کمپ": 5276,
    "▁لاش": 5277,
    "هنورد": 5278,
    "روابط": 5279,
    "▁مهندسی": 5280,
    "▁رائو": 5281,
    "تاتنهام": 5282,
    "▁ژ": 5283,
    "چلسی": 5284,
    "▁عزادار": 5285,
    "▁فور": 5286,
    "▁درو": 5287,
    "▁حفر": 5288,
    "▁فخر": 5289,
    "▁تفسیر": 5290,
    "همیلتون": 5291,
    "۱۷": 5292,
    "ریچارد": 5293,
    "▁۸۸": 5294,
    "▁شانزده": 5295,
    "الیاس": 5296,
    "▁سپید": 5297,
    "وانند": 5298,
    "مارک": 5299,
    "▁ریوی": 5300,
    "▁دانشجو": 5301,
    "۱۰": 5302,
    "▁آما": 5303,
    "▁طیب": 5304,
    "▁فریب": 5305,
    "▁فهمید": 5306,
    "صول": 5307,
    "اوی": 5308,
    "▁منصو": 5309,
    "▁معیشت": 5310,
    "لینگ": 5311,
    "نر": 5312,
    "مجانی": 5313,
    "▁دود": 5314,
    "▁اندام": 5315,
    "مایک": 5316,
    "اصو": 5317,
    "▁جواهر": 5318,
    "▁تونس": 5319,
    "▁شعبان": 5320,
    "▁رخداد": 5321,
    "▁مسیح": 5322,
    "▁فرق": 5323,
    "▁محدودیتها": 5324,
    "▁باردار": 5325,
    "▁ترکی": 5326,
    "▁لق": 5327,
    "▁درآمده": 5328,
    "ساسی": 5329,
    "▁واحدها": 5330,
    "▁متخلف": 5331,
    "▁نظرهای": 5332,
    "تصاویر": 5333,
    "▁هلندی": 5334,
    "▁پوشان": 5335,
    "▁بلو": 5336,
    "▁فول": 5337,
    "▁۱۹۶": 5338,
    "دگان": 5339,
    "▁مصرفی": 5340,
    "▁بینید": 5341,
    "گیل": 5342,
    "دوستانه": 5343,
    "▁جد": 5344,
    "▁محصولاتش": 5345,
    "▁دایر": 5346,
    "▁گرما": 5347,
    "▁دول": 5348,
    "▁فرانسیس": 5349,
    "▁جنر": 5350,
    "کارآمد": 5351,
    "▁جنگی": 5352,
    "▁مقد": 5353,
    "نقل": 5354,
    "کید": 5355,
    "داران": 5356,
    "▁المستقبل": 5357,
    "▁جاپلقی": 5358,
    "▁زاناردی": 5359,
    "▁ضوابط": 5360,
    "▁پولیتزر": 5361,
    "▁ژئوپلیتیک": 5362,
    "▁الگوریتم": 5363,
    "▁خنثی": 5364,
    "▁کرگدن": 5365,
    "▁اختراع": 5366,
    "▁البرز": 5367,
    "▁تهاجم": 5368,
    "▁آرتتا": 5369,
    "▁مضاعف": 5370,
    "▁بسازد": 5371,
    "▁اسراییل": 5372,
    "▁سنگاپور": 5373,
    "▁۱۹۷۳": 5374,
    "▁پاراگوئه": 5375,
    "▁کرمانشاه": 5376,
    "▁کفتر": 5377,
    "▁محفظه": 5378,
    "▁فلج": 5379,
    "عارض": 5380,
    "▁دوستداران": 5381,
    "▁تصاحب": 5382,
    "▁تکامل": 5383,
    "▁دوازدهم": 5384,
    "▁تنگنا": 5385,
    "▁۱۳۵۰": 5386,
    "▁بخرد": 5387,
    "▁عصبانی": 5388,
    "▁نوازندگان": 5389,
    "▁قبیل": 5390,
    "▁۱۹۲۰": 5391,
    "▁نعمت": 5392,
    "▁سازندگی": 5393,
    "▁مبالغ": 5394,
    "▁لامرد": 5395,
    "▁اقامتگاه": 5396,
    "▁جنای": 5397,
    "▁تویوتا": 5398,
    "▁نابسامان": 5399,
    "▁سردرگم": 5400,
    "▁ایسلند": 5401,
    "▁بتهوون": 5402,
    "▁صراحت": 5403,
    "دغدغه": 5404,
    "▁سوگ": 5405,
    "▁برسند": 5406,
    "▁سولو": 5407,
    "▁سازندگان": 5408,
    "▁مسیری": 5409,
    "▁قائل": 5410,
    "▁بنجام": 5411,
    "وازم": 5412,
    "▁اشنویه": 5413,
    "▁مطلبی": 5414,
    "▁دیدیم": 5415,
    "بیه": 5416,
    "یسون": 5417,
    "▁مسترز": 5418,
    "▁ول": 5419,
    "▁تمرینات": 5420,
    "▁متکی": 5421,
    "اید": 5422,
    "جر": 5423,
    "▁ندادن": 5424,
    "۲۸": 5425,
    "▁بذر": 5426,
    "▁آلزایمر": 5427,
    "▁جمشید": 5428,
    "▁اعتنا": 5429,
    "▁کیا": 5430,
    "▁شکوه": 5431,
    "▁گیلان": 5432,
    "▁فیزیکدان": 5433,
    "▁گردش": 5434,
    "▁عقل": 5435,
    "واز": 5436,
    "زاری": 5437,
    "▁اخ": 5438,
    "▁معیارهای": 5439,
    "▁درختان": 5440,
    "▁گیاهان": 5441,
    "▁داریوش": 5442,
    "▁پردازند": 5443,
    "▁هیولای": 5444,
    "▁بیم": 5445,
    "▁راب": 5446,
    "▁بالگرد": 5447,
    "▁افسران": 5448,
    "▁اپل": 5449,
    "▁بازیار": 5450,
    "شر": 5451,
    "اعلام": 5452,
    "▁جانش": 5453,
    "▁ناوگان": 5454,
    "زائ": 5455,
    "▁ژنرا": 5456,
    "خورده": 5457,
    "▁محتوی": 5458,
    "▁برنگشت": 5459,
    "▁مصا": 5460,
    "▁وکلا": 5461,
    "▁اقتصاددان": 5462,
    "جیره": 5463,
    "▁بیورن": 5464,
    "جهان": 5465,
    "▁انگل": 5466,
    "▁اپراتورها": 5467,
    "ستا": 5468,
    "ندان": 5469,
    "▁فضلی": 5470,
    "▁بیدار": 5471,
    "▁سنبل": 5472,
    "▁مائوریتس": 5473,
    "▁مونت": 5474,
    "▁راهنمای": 5475,
    "▁بوق": 5476,
    "▁لیتر": 5477,
    "▁حاد": 5478,
    "▁علوی": 5479,
    "▁کاف": 5480,
    "▁خیز": 5481,
    "▁ریخته": 5482,
    "▁کوب": 5483,
    "رالله": 5484,
    "▁خوانند": 5485,
    "▁نوا": 5486,
    "▁خالد": 5487,
    "زاب": 5488,
    "▁۱۳۴": 5489,
    "▁مظ": 5490,
    "▁اچ": 5491,
    "لفظ": 5492,
    "خوان": 5493,
    "پچو": 5494,
    "▁باریک": 5495,
    "▁کشم": 5496,
    "▁وادار": 5497,
    "▁تابعیت": 5498,
    "▁مبارک": 5499,
    "▁ماخ": 5500,
    "لال": 5501,
    "▁صمیم": 5502,
    "▁دوستانش": 5503,
    "▁عج": 5504,
    "▁روزبه": 5505,
    "شو": 5506,
    "طرح": 5507,
    "▁لخت": 5508,
    "گفتگو": 5509,
    "▁آموخت": 5510,
    "ویچ": 5511,
    "▁همخوان": 5512,
    "وظ": 5513,
    "▁راکت": 5514,
    "▁دادیم": 5515,
    "▁سوئ": 5516,
    "▁رحمت": 5517,
    "تعداد": 5518,
    "آغاز": 5519,
    "ارت": 5520,
    "پایه": 5521,
    "وفس": 5522,
    "ائل": 5523,
    "شما": 5524,
    "▁کشمی": 5525,
    "▁سیر": 5526,
    "▁گارد": 5527,
    "▁زایی": 5528,
    "زمان": 5529,
    "درون": 5530,
    "▁تهدیدهای": 5531,
    "ریت": 5532,
    "سایت": 5533,
    "▁ایکس": 5534,
    "▁قاتل": 5535,
    "▁کاران": 5536,
    "▁استادان": 5537,
    "▁بدوی": 5538,
    "▁مشت": 5539,
    "منی": 5540,
    "▁فتحی": 5541,
    "▁کلاه": 5542,
    "▁مست": 5543,
    "▁محرک": 5544,
    "اطلاعات": 5545,
    "ائیل": 5546,
    "تصمیم": 5547,
    "▁جنگند": 5548,
    "▁افق": 5549,
    "▁اسل": 5550,
    "▁صده": 5551,
    "▁برهم": 5552,
    "▁دویچ": 5553,
    "یاپی": 5554,
    "▁بارور": 5555,
    "بررسی": 5556,
    "▁چار": 5557,
    "آلمان": 5558,
    "برد": 5559,
    "▁ثا": 5560,
    "▁پویا": 5561,
    "نخست": 5562,
    "فع": 5563,
    "▁امپرا": 5564,
    "قرب": 5565,
    "▁گلی": 5566,
    "صالح": 5567,
    "▁وظایف": 5568,
    "راب": 5569,
    "▁تالا": 5570,
    "کارگران": 5571,
    "تحقیقات": 5572,
    "مارادونا": 5573,
    "▁منار": 5574,
    "هی": 5575,
    "لوب": 5576,
    "▁گودا": 5577,
    "شتم": 5578,
    "▁گردشگر": 5579,
    "گوف": 5580,
    "▁لاس": 5581,
    "▁نوین": 5582,
    "کلوپ": 5583,
    "اسپانیا": 5584,
    "بفرستید": 5585,
    "هشدار": 5586,
    "اتریش": 5587,
    "▁بازرگان": 5588,
    "▁بچ": 5589,
    "▁میلاد": 5590,
    "بحث": 5591,
    "▁۸۷": 5592,
    "▁عواقب": 5593,
    "▁هول": 5594,
    "▁ران": 5595,
    "▁پهلو": 5596,
    "▁۸۱": 5597,
    "▁سرگرم": 5598,
    "▁قوت": 5599,
    "▁ژی": 5600,
    "اهید": 5601,
    "▁کولبر": 5602,
    "ابق": 5603,
    "اکثریت": 5604,
    "▁گور": 5605,
    "نیا": 5606,
    "▁اسحاق": 5607,
    "▁ارج": 5608,
    "تازه": 5609,
    "شم": 5610,
    "رکاب": 5611,
    "▁دستک": 5612,
    "▁غرو": 5613,
    "▁پسرم": 5614,
    "▁قند": 5615,
    "ایه": 5616,
    "اوش": 5617,
    "برگر": 5618,
    "نتیج": 5619,
    "زیه": 5620,
    "▁گریه": 5621,
    "حقق": 5622,
    "رتب": 5623,
    "▁سانتریفیوژها": 5624,
    "بانی": 5625,
    "ضرر": 5626,
    "قدس": 5627,
    "▁نیکلا": 5628,
    "تصور": 5629,
    "ژیم": 5630,
    "▁مدرس": 5631,
    "▁تیتر": 5632,
    "▁پیشگام": 5633,
    "▁سالی": 5634,
    "سلیم": 5635,
    "▁چاب": 5636,
    "▁دانشجوی": 5637,
    "▁پهپاد": 5638,
    "خان": 5639,
    "▁فدرا": 5640,
    "متر": 5641,
    "▁سیاستمدار": 5642,
    "صدایی": 5643,
    "دخت": 5644,
    "▁ابداع": 5645,
    "بادی": 5646,
    "▁دادخواه": 5647,
    "▁پالایش": 5648,
    "▁انیمیشن": 5649,
    "▁پدافند": 5650,
    "▁پومپئو": 5651,
    "▁راهپیمایی": 5652,
    "▁پیرامون": 5653,
    "▁بلانشت": 5654,
    "▁ابرنواختر": 5655,
    "▁کادرفنی": 5656,
    "▁فکاهی": 5657,
    "▁جونیور": 5658,
    "▁قضاوت": 5659,
    "▁پلامر": 5660,
    "ژورنال": 5661,
    "▁مسموم": 5662,
    "▁آژیر": 5663,
    "▁عنصر": 5664,
    "▁ببینیم": 5665,
    "▁حرارت": 5666,
    "▁وگاس": 5667,
    "▁آشپز": 5668,
    "▁انصاری": 5669,
    "▁برگردیم": 5670,
    "▁پیکولی": 5671,
    "▁خدایاری": 5672,
    "▁تعاون": 5673,
    "▁کلارک": 5674,
    "▁بدهکار": 5675,
    "▁بیافتد": 5676,
    "▁بنشیند": 5677,
    "▁پاکبان": 5678,
    "▁نارضای": 5679,
    "▁بسیج": 5680,
    "▁مستعار": 5681,
    "▁۶۳": 5682,
    "▁بهبهان": 5683,
    "▁استقراض": 5684,
    "هرابی": 5685,
    "▁پری": 5686,
    "▁گردنبند": 5687,
    "▁ابولا": 5688,
    "▁همر": 5689,
    "▁۴۷": 5690,
    "▁مانور": 5691,
    "▁شناگر": 5692,
    "▁اجساد": 5693,
    "▁احکام": 5694,
    "▁بدانند": 5695,
    "▁عسل": 5696,
    "جویی": 5697,
    "▁علایم": 5698,
    "▁نجوا": 5699,
    "▁خوانی": 5700,
    "▁تلویح": 5701,
    "▁شوت": 5702,
    "▁منظم": 5703,
    "▁خوشبخت": 5704,
    "▁حوض": 5705,
    "▁رخشانه": 5706,
    "▁ندهند": 5707,
    "▁تنیده": 5708,
    "▁کیلوولت": 5709,
    "▁روحی": 5710,
    "▁نشوند": 5711,
    "▁منفرد": 5712,
    "▁موعد": 5713,
    "▁سرشار": 5714,
    "سیتی": 5715,
    "▁اثبات": 5716,
    "▁جنی": 5717,
    "▁رز": 5718,
    "نفر": 5719,
    "▁خوابی": 5720,
    "▁کادیس": 5721,
    "▁شکننده": 5722,
    "نها": 5723,
    "▁خرس": 5724,
    "▁استقامت": 5725,
    "▁صید": 5726,
    "▁آغوش": 5727,
    "▁سادگی": 5728,
    "▁تعویض": 5729,
    "▁خرمشهر": 5730,
    "▁اسمیت": 5731,
    "▁کوپتر": 5732,
    "▁تصدی": 5733,
    "بریتی": 5734,
    "صداق": 5735,
    "▁خوشحالم": 5736,
    "▁کنزو": 5737,
    "جام": 5738,
    "▁نیمروز": 5739,
    "▁لبنانی": 5740,
    "لتی": 5741,
    "▁جزایر": 5742,
    "▁مسترد": 5743,
    "تور": 5744,
    "▁آلود": 5745,
    "▁کلیپ": 5746,
    "▁ادل": 5747,
    "▁بهزاد": 5748,
    "▁لندرو": 5749,
    "▁پیشگامان": 5750,
    "▁آنا": 5751,
    "▁تخل": 5752,
    "▁گدار": 5753,
    "▁مای": 5754,
    "▁یاب": 5755,
    "▁انگیزترین": 5756,
    "▁مهمانان": 5757,
    "▁ذات": 5758,
    "▁شکستن": 5759,
    "نشان": 5760,
    "▁برگردانده": 5761,
    "▁پناهند": 5762,
    "▁وحشت": 5763,
    "▁اضافی": 5764,
    "▁پروازهایش": 5765,
    "▁فشرد": 5766,
    "تصویر": 5767,
    "۴۲": 5768,
    "▁جولی": 5769,
    "▁شایست": 5770,
    "▁طل": 5771,
    "۲۴": 5772,
    "▁بوئنو": 5773,
    "▁رایزن": 5774,
    "▁اعم": 5775,
    "▁امتیازات": 5776,
    "نویس": 5777,
    "▁پردازی": 5778,
    "خیم": 5779,
    "▁صدایش": 5780,
    "▁۱۹۵": 5781,
    "لمپ": 5782,
    "▁فهم": 5783,
    "▁مق": 5784,
    "بخشی": 5785,
    "فلاتو": 5786,
    "▁آرزوهای": 5787,
    "▁متحدانش": 5788,
    "▁۹۳": 5789,
    "لقی": 5790,
    "▁الع": 5791,
    "رینگ": 5792,
    "کند": 5793,
    "▁گوف": 5794,
    "▁صاف": 5795,
    "قبل": 5796,
    "نجیره": 5797,
    "۴۹": 5798,
    "▁بالی": 5799,
    "▁فابی": 5800,
    "تهران": 5801,
    "خانقا": 5802,
    "داشته": 5803,
    "▁مولان": 5804,
    "▁گویم": 5805,
    "▁کریر": 5806,
    "لاله": 5807,
    "▁سرما": 5808,
    "▁کلاین": 5809,
    "هکرها": 5810,
    "▁۱۳۹۰": 5811,
    "▁رشید": 5812,
    "▁دهلی": 5813,
    "▁مانند": 5814,
    "تانیک": 5815,
    "▁تندی": 5816,
    "پذیر": 5817,
    "▁پیامک": 5818,
    "▁داو": 5819,
    "▁طرفی": 5820,
    "▁ماست": 5821,
    "▁عمو": 5822,
    "▁پیری": 5823,
    "نیچ": 5824,
    "▁صدم": 5825,
    "▁آو": 5826,
    "▁امریکا": 5827,
    "همین": 5828,
    "▁رامی": 5829,
    "▁قطعا": 5830,
    "واقع": 5831,
    "▁زلا": 5832,
    "▁توانی": 5833,
    "▁تص": 5834,
    "▁حدادی": 5835,
    "باع": 5836,
    "▁گاو": 5837,
    "▁اسپ": 5838,
    "▁یار": 5839,
    "▁ریو": 5840,
    "▁نگرفت": 5841,
    "ورا": 5842,
    "▁شرم": 5843,
    "یخته": 5844,
    "نان": 5845,
    "جل": 5846,
    "▁اغل": 5847,
    "جاد": 5848,
    "▁دزد": 5849,
    "▁نهادی": 5850,
    "▁انتها": 5851,
    "الکس": 5852,
    "▁۴۵۰": 5853,
    "سنگ": 5854,
    "مسابقات": 5855,
    "▁باتر": 5856,
    "▁آلبر": 5857,
    "▁برف": 5858,
    "▁آبهای": 5859,
    "▁معا": 5860,
    "زو": 5861,
    "▁دراین": 5862,
    "▁قا": 5863,
    "▁توس": 5864,
    "▁۱۹۷": 5865,
    "موج": 5866,
    "▁نیاورد": 5867,
    "انت": 5868,
    "▁دستی": 5869,
    "▁پرید": 5870,
    "ناب": 5871,
    "کلاهبرداری": 5872,
    "نج": 5873,
    "▁برفی": 5874,
    "▁مینیاتور": 5875,
    "۲۹": 5876,
    "مذاکرات": 5877,
    "برگزار": 5878,
    "▁سکت": 5879,
    "دلال": 5880,
    "▁جرد": 5881,
    "▁مهد": 5882,
    "اعضای": 5883,
    "▁۱۳۰": 5884,
    "ارث": 5885,
    "▁بجا": 5886,
    "▁فردین": 5887,
    "(": 5888,
    "جمعیت": 5889,
    "استرالیا": 5890,
    "▁آرزو": 5891,
    "▁اینجا": 5892,
    "▁پنجش": 5893,
    "▁سنگر": 5894,
    "دفتر": 5895,
    "قصد": 5896,
    "▁اجتماع": 5897,
    "الاب": 5898,
    "خیر": 5899,
    "▁رفتم": 5900,
    "مطابق": 5901,
    "اسماعیل": 5902,
    "۶۳": 5903,
    "منظور": 5904,
    "مجتب": 5905,
    "▁طاق": 5906,
    "منازع": 5907,
    "اداره": 5908,
    "مکش": 5909,
    "الت": 5910,
    "ویکتور": 5911,
    "خط": 5912,
    "تحلیلگر": 5913,
    "▁رسن": 5914,
    "تابعیت": 5915,
    "▁هشدارهای": 5916,
    "▁پیر": 5917,
    "کنون": 5918,
    "▁قطرک": 5919,
    "▁تاکتیک": 5920,
    "نیروی": 5921,
    "کاوه": 5922,
    "صره": 5923,
    "ورت": 5924,
    "▁وگوها": 5925,
    "ملک": 5926,
    "▁پریش": 5927,
    "▁گردید": 5928,
    "اط": 5929,
    "▁دبی": 5930,
    "سوزی": 5931,
    "▁۱۱۰": 5932,
    "شیپ": 5933,
    "گرا": 5934,
    "▁نمازی": 5935,
    "▁سهیم": 5936,
    "▁موس": 5937,
    "▁سازان": 5938,
    "▁برپا": 5939,
    "وفون": 5940,
    "▁معل": 5941,
    "▁گا": 5942,
    "نشین": 5943,
    "▁فار": 5944,
    "جک": 5945,
    "▁مجرم": 5946,
    "▁۳۲۰": 5947,
    "بیل": 5948,
    "ویل": 5949,
    "انش": 5950,
    "▁راد": 5951,
    "▁خواستم": 5952,
    "▁سفرها": 5953,
    "▁وای": 5954,
    "عفون": 5955,
    "دند": 5956,
    "▁دعا": 5957,
    "▁خریدن": 5958,
    "رمان": 5959,
    "دیمیر": 5960,
    "مایه": 5961,
    "یج": 5962,
    "▁خانمان": 5963,
    "▁تسهیل": 5964,
    "▁آکسفام": 5965,
    "▁تلسکوپ": 5966,
    "▁رفسنجان": 5967,
    "▁لومامبا": 5968,
    "▁پوچتینو": 5969,
    "▁بوچانی": 5970,
    "▁تزئین": 5971,
    "▁طغیان": 5972,
    "▁مستثن": 5973,
    "▁بلغارستان": 5974,
    "▁تدفین": 5975,
    "▁هامبورگ": 5976,
    "▁یادماندنی": 5977,
    "▁دفاتر": 5978,
    "▁تأسیس": 5979,
    "▁دردناک": 5980,
    "▁زاکانی": 5981,
    "▁کانتینر": 5982,
    "▁اسپایدر": 5983,
    "▁متمایز": 5984,
    "▁قاعدتا": 5985,
    "▁هلمند": 5986,
    "▁مقصود": 5987,
    "▁کومله": 5988,
    "▁ذیبخش": 5989,
    "▁سرماخورد": 5990,
    "▁نیچر": 5991,
    "▁مرضیه": 5992,
    "▁پرایس": 5993,
    "▁اعصاب": 5994,
    "▁آنکارا": 5995,
    "▁مطیع": 5996,
    "▁نابرابر": 5997,
    "▁فرنود": 5998,
    "▁جرارد": 5999,
    "تاج": 6000,
    "▁تبلت": 6001,
    "فه": 6002,
    "▁مخرب": 6003,
    "▁جاستین": 6004,
    "▁برگردند": 6005,
    "قندهار": 6006,
    "▁تربیت": 6007,
    "▁طناب": 6008,
    "▁بغلان": 6009,
    "▁توازن": 6010,
    "▁ریاضیات": 6011,
    "▁انتصاب": 6012,
    "▁شکارچی": 6013,
    "▁سازوکارهای": 6014,
    "▁لشگر": 6015,
    "▁اتومات": 6016,
    "▁مخاطب": 6017,
    "جوبی": 6018,
    "▁کلانتری": 6019,
    "ظه": 6020,
    "▁پیانو": 6021,
    "▁ریسک": 6022,
    "▁ارکستر": 6023,
    "▁سیگنال": 6024,
    "▁سیدنی": 6025,
    "▁نامجو": 6026,
    "▁دژ": 6027,
    "▁مطالبات": 6028,
    "▁معلولان": 6029,
    "▁بازتاب": 6030,
    "▁آرایشگاه": 6031,
    "▁تقلب": 6032,
    "▁ناچیز": 6033,
    "▁دوتار": 6034,
    "جوزپ": 6035,
    "▁اندرکاران": 6036,
    "▁موکل": 6037,
    "▁پرتو": 6038,
    "▁کوبید": 6039,
    "▁تفکر": 6040,
    "▁بقا": 6041,
    "▁اخترشناس": 6042,
    "▁خویش": 6043,
    "▁نامعلوم": 6044,
    "▁معلومات": 6045,
    "روسیا": 6046,
    "▁منکر": 6047,
    "▁ریختن": 6048,
    "پای": 6049,
    "▁پارکور": 6050,
    "▁ابزارهای": 6051,
    "▁گوییم": 6052,
    "رن": 6053,
    "▁مسبب": 6054,
    "ولا": 6055,
    "▁چارل": 6056,
    "سالار": 6057,
    "▁هانز": 6058,
    "▁پهن": 6059,
    "▁شفا": 6060,
    "▁پستاندار": 6061,
    "▁کشتند": 6062,
    "▁کثیر": 6063,
    "▁محاف": 6064,
    "▁لوی": 6065,
    "▁یابند": 6066,
    "فره": 6067,
    "▁انکار": 6068,
    "▁معتمدی": 6069,
    "▁جس": 6070,
    "▁چرخش": 6071,
    "▁گفتن": 6072,
    "فروش": 6073,
    "نوعی": 6074,
    "▁کلم": 6075,
    "▁تحق": 6076,
    "▁دیوانه": 6077,
    "▁ترا": 6078,
    "▁هولم": 6079,
    "▁راستش": 6080,
    "▁نشدنی": 6081,
    "تورهای": 6082,
    "▁شعارهای": 6083,
    "▁گزینش": 6084,
    "▁جع": 6085,
    "▁شکن": 6086,
    "▁سولار": 6087,
    "▁گهر": 6088,
    "▁دوندگان": 6089,
    "▁کیمن": 6090,
    "▁درز": 6091,
    "▁موسیقیدان": 6092,
    "▁گرای": 6093,
    "▁سکوها": 6094,
    "▁اعظم": 6095,
    "▁پادمان": 6096,
    "بود": 6097,
    "▁فاضل": 6098,
    "صوف": 6099,
    "ورهای": 6100,
    "▁بیانسه": 6101,
    "▁کتک": 6102,
    "▁دلتا": 6103,
    "▁عزیزان": 6104,
    "▁پینگ": 6105,
    "▁سرمای": 6106,
    "▁خطی": 6107,
    "▁پنا": 6108,
    "▁اشتباهات": 6109,
    "▁عظیمی": 6110,
    "▁گرفتیم": 6111,
    "▁درشت": 6112,
    "▁افش": 6113,
    "▁بفهم": 6114,
    "▁لطفی": 6115,
    "ائم": 6116,
    "▁فنل": 6117,
    "▁اسعد": 6118,
    "▁مباد": 6119,
    "فرانس": 6120,
    "رف": 6121,
    "▁جاد": 6122,
    "▁وث": 6123,
    "▁کاندیدا": 6124,
    "جله": 6125,
    "▁پیداست": 6126,
    "سیلوا": 6127,
    "▁شل": 6128,
    "▁انتخابی": 6129,
    "گشاد": 6130,
    "سفر": 6131,
    "▁هوادارانش": 6132,
    "▁سهامدار": 6133,
    "▁ناقل": 6134,
    "أی": 6135,
    "بجای": 6136,
    "▁مصم": 6137,
    "راق": 6138,
    "▁نیکولا": 6139,
    "▁منجم": 6140,
    "▁بکند": 6141,
    "▁گرب": 6142,
    "▁آری": 6143,
    "▁لیو": 6144,
    "تناسب": 6145,
    "▁اینج": 6146,
    "▁دانشگر": 6147,
    "ادا": 6148,
    "نگیز": 6149,
    "▁اصلاحی": 6150,
    "سری": 6151,
    "▁منک": 6152,
    "▁ساختند": 6153,
    "▁میلی": 6154,
    "پرها": 6155,
    "▁معما": 6156,
    "▁عکاسان": 6157,
    "▁سوزاند": 6158,
    "ائ": 6159,
    "ابلو": 6160,
    "▁وگوهای": 6161,
    "▁معمای": 6162,
    "فتن": 6163,
    "▁بله": 6164,
    "۲۲": 6165,
    "جیغ": 6166,
    "دلیل": 6167,
    "▁بخواهد": 6168,
    "▁نف": 6169,
    "دال": 6170,
    "▁چر": 6171,
    "▁صبا": 6172,
    "دترا": 6173,
    "▁بازگو": 6174,
    "▁سیلی": 6175,
    "▁بصر": 6176,
    "▁کشتن": 6177,
    "▁برا": 6178,
    "▁مول": 6179,
    "ستر": 6180,
    "▁پاد": 6181,
    "▁۷۹": 6182,
    "▁دوید": 6183,
    "▁مجتب": 6184,
    "▁ساید": 6185,
    "باط": 6186,
    "ریس": 6187,
    "▁کلاهبردار": 6188,
    "▁کاوا": 6189,
    "▁بازجوی": 6190,
    "▁جون": 6191,
    "اکی": 6192,
    "نوردی": 6193,
    "واره": 6194,
    "انتخابات": 6195,
    "▁فرزندانش": 6196,
    "▁محسوس": 6197,
    "طبی": 6198,
    "نیف": 6199,
    "▁هما": 6200,
    "▁محف": 6201,
    "رافائل": 6202,
    "۶۲": 6203,
    "خون": 6204,
    "اکبر": 6205,
    "▁۸۴": 6206,
    "مورد": 6207,
    "اراک": 6208,
    "▁ملته": 6209,
    "▁مزای": 6210,
    "▁سنج": 6211,
    "▁اکا": 6212,
    "عان": 6213,
    "▁محا": 6214,
    "▁ایال": 6215,
    "نیوز": 6216,
    "▁تح": 6217,
    "کاظم": 6218,
    "مجموع": 6219,
    "گا": 6220,
    "صیل": 6221,
    "▁عزا": 6222,
    "هادی": 6223,
    "لای": 6224,
    "ذل": 6225,
    "علت": 6226,
    "▁پوشیدن": 6227,
    "گذار": 6228,
    "نگاران": 6229,
    "▁جوی": 6230,
    "کمتر": 6231,
    "▁ریاضی": 6232,
    "▁انقلابی": 6233,
    "زیر": 6234,
    "▁نای": 6235,
    "ترکیه": 6236,
    "▁خلا": 6237,
    "▁حریم": 6238,
    "▁رسی": 6239,
    "دوران": 6240,
    "تم": 6241,
    "لانتی": 6242,
    "حادثه": 6243,
    "▁ناصری": 6244,
    "▁ممیز": 6245,
    "▁مص": 6246,
    "نقاشی": 6247,
    "نشست": 6248,
    "▁سومو": 6249,
    "▁مارکو": 6250,
    "▁۲۰۲": 6251,
    "زره": 6252,
    "دلایل": 6253,
    "▁بروم": 6254,
    "انجمن": 6255,
    "کنیم": 6256,
    "▁خاور": 6257,
    "پیروز": 6258,
    "جراح": 6259,
    "▁فضاپیما": 6260,
    "فضل": 6261,
    "▁۳۸۰": 6262,
    "نقش": 6263,
    "دانی": 6264,
    "▁هراس": 6265,
    "دوستان": 6266,
    "▁مخ": 6267,
    "▁شیع": 6268,
    "▁فوتبالی": 6269,
    "▁یادگار": 6270,
    "▁آنهاست": 6271,
    "▁آرم": 6272,
    "▁کلیسا": 6273,
    "یضا": 6274,
    "اه": 6275,
    "▁ایرلندی": 6276,
    "▁ابو": 6277,
    "▁فرستد": 6278,
    "حرفه": 6279,
    "عادت": 6280,
    "بان": 6281,
    "▁بیگ": 6282,
    "رشاد": 6283,
    "زیان": 6284,
    "▁لطف": 6285,
    "▁اعدا": 6286,
    "▁حف": 6287,
    "سوس": 6288,
    "▁ولا": 6289,
    "آیا": 6290,
    "سنگر": 6291,
    "▁فرح": 6292,
    "▁زانوی": 6293,
    "نون": 6294,
    "خواه": 6295,
    "اژ": 6296,
    "نمایند": 6297,
    "لث": 6298,
    "نتی": 6299,
    "▁کوهنورد": 6300,
    "▁حفا": 6301,
    "محسن": 6302,
    "افت": 6303,
    "▁خار": 6304,
    "جاع": 6305,
    "▁نماند": 6306,
    "ومبل": 6307,
    "وویچ": 6308,
    "▁سازه": 6309,
    "▁شاگرد": 6310,
    "خوانی": 6311,
    "نجی": 6312,
    "اور": 6313,
    "▁شرک": 6314,
    "▁اندرکار": 6315,
    "▁امپر": 6316,
    "▁قی": 6317,
    "▁مسافری": 6318,
    "یشگی": 6319,
    "▁مینا": 6320,
    "▁معلول": 6321,
    "▁متغیر": 6322,
    "▁بوفالو": 6323,
    "▁درها": 6324,
    "▁قدیم": 6325,
    "▁تشی": 6326,
    "نزا": 6327,
    "حصار": 6328,
    "▁پژ": 6329,
    "▁خوشی": 6330,
    "▁جزئی": 6331,
    "▁کانگورو": 6332,
    "▁اوگوپوگو": 6333,
    "▁فیلسوف": 6334,
    "▁رولزرویس": 6335,
    "▁سرلشکر": 6336,
    "▁ذوالنور": 6337,
    "▁مناقش": 6338,
    "▁ویتنام": 6339,
    "▁ارواح": 6340,
    "▁مونتاژ": 6341,
    "▁مقتدر": 6342,
    "▁اقتباس": 6343,
    "▁ژنشنگ": 6344,
    "▁گدوت": 6345,
    "▁النصر": 6346,
    "▁تجدد": 6347,
    "▁اصغر": 6348,
    "▁سیستماتیک": 6349,
    "▁ماراکانا": 6350,
    "▁خاشق": 6351,
    "▁ترشح": 6352,
    "▁هیدرو": 6353,
    "▁برسانند": 6354,
    "▁جوامع": 6355,
    "▁رغبت": 6356,
    "▁۱۹۷۹": 6357,
    "▁ناپولی": 6358,
    "▁فرسایش": 6359,
    "▁بدانید": 6360,
    "▁واجد": 6361,
    "▁طلسم": 6362,
    "▁بیاورند": 6363,
    "▁کفایت": 6364,
    "▁آبتین": 6365,
    "▁مکالم": 6366,
    "تصاعد": 6367,
    "▁واگیر": 6368,
    "▁باثبات": 6369,
    "▁معلولیت": 6370,
    "▁فرنگی": 6371,
    "▁نباشند": 6372,
    "▁کاشف": 6373,
    "▁پرجمعیت": 6374,
    "نوان": 6375,
    "▁۷۵۲": 6376,
    "▁پابند": 6377,
    "▁خردسال": 6378,
    "▁درآید": 6379,
    "▁مختاری": 6380,
    "میشل": 6381,
    "▁پاسگاه": 6382,
    "▁قرائت": 6383,
    "▁مردادماه": 6384,
    "فیلد": 6385,
    "▁مولف": 6386,
    "▁فیصل": 6387,
    "▁عروق": 6388,
    "▁جملات": 6389,
    "▁لوک": 6390,
    "▁دیرتر": 6391,
    "▁فلزات": 6392,
    "سله": 6393,
    "▁بخواهید": 6394,
    "▁تصرف": 6395,
    "▁تم": 6396,
    "▁دادخواست": 6397,
    "▁الاکلنگ": 6398,
    "▁گسل": 6399,
    "▁کاریر": 6400,
    "▁اشعار": 6401,
    "▁بگویند": 6402,
    "▁سفیددره": 6403,
    "▁گرافیک": 6404,
    "▁گز": 6405,
    "▁ایستادند": 6406,
    "▁فرسود": 6407,
    "▁نورمحمد": 6408,
    "▁مشروب": 6409,
    "۵۷": 6410,
    "▁دیابت": 6411,
    "▁افزاید": 6412,
    "جد": 6413,
    "▁نر": 6414,
    "▁قدردان": 6415,
    "داستان": 6416,
    "▁هوشیاری": 6417,
    "▁ملکشا": 6418,
    "عضو": 6419,
    "▁سینماگر": 6420,
    "▁گرگور": 6421,
    "▁فرندز": 6422,
    "▁گیلبرت": 6423,
    "▁کارولین": 6424,
    "▁پرشور": 6425,
    "▁جورجی": 6426,
    "▁اشخاص": 6427,
    "موسیقی": 6428,
    "گرایی": 6429,
    "▁ونگر": 6430,
    "روند": 6431,
    "▁موریس": 6432,
    "▁نوزادان": 6433,
    "▁عضلا": 6434,
    "▁سیاهپوست": 6435,
    "▁شخصا": 6436,
    "▁نگذاشته": 6437,
    "▁دسمو": 6438,
    "▁حکیم": 6439,
    "▁تعلیم": 6440,
    "▁کاتال": 6441,
    "▁فهیم": 6442,
    "▁دردسرهای": 6443,
    "▁سفت": 6444,
    "▁انتقام": 6445,
    "▁شانگ": 6446,
    "▁مهمتر": 6447,
    "▁عثمانی": 6448,
    "▁نامم": 6449,
    "▁کریم": 6450,
    "پائولو": 6451,
    "▁کامران": 6452,
    "تاکنون": 6453,
    "▁توق": 6454,
    "▁القا": 6455,
    "پرس": 6456,
    "▁نامشخص": 6457,
    "انکو": 6458,
    "▁سرگردان": 6459,
    "▁۱۸۵": 6460,
    "▁اختیارات": 6461,
    "▁پسران": 6462,
    "▁ورزند": 6463,
    "۱۹۶۵": 6464,
    "▁بلید": 6465,
    "ینی": 6466,
    "▁نایا": 6467,
    "▁بلک": 6468,
    "زمینی": 6469,
    "مانه": 6470,
    "▁ولت": 6471,
    "▁ساوت": 6472,
    "▁لط": 6473,
    "گرنه": 6474,
    "▁پاسدار": 6475,
    "▁اشیا": 6476,
    "▁اوار": 6477,
    "▁طاهر": 6478,
    "حصول": 6479,
    "▁تجمعات": 6480,
    "۲۷": 6481,
    "کیو": 6482,
    "گروهی": 6483,
    "رم": 6484,
    "▁لوو": 6485,
    "▁مهل": 6486,
    "▁بشریت": 6487,
    "▁دیوارهای": 6488,
    "▁مرادی": 6489,
    "لسون": 6490,
    "▁معین": 6491,
    "ندرسون": 6492,
    "برآورد": 6493,
    "ادل": 6494,
    "کام": 6495,
    "▁پروست": 6496,
    "▁کیف": 6497,
    "▁آپ": 6498,
    "▁مسال": 6499,
    "▁منظره": 6500,
    "▁درخشید": 6501,
    "▁احتیا": 6502,
    "▁آس": 6503,
    "▁بروید": 6504,
    "▁تشک": 6505,
    "▁کلیت": 6506,
    "ژ": 6507,
    "▁ماندند": 6508,
    "▁صحرای": 6509,
    "بند": 6510,
    "▁نس": 6511,
    "▁نیافته": 6512,
    "نمود": 6513,
    "▁فضاپیمای": 6514,
    "غا": 6515,
    "اسکو": 6516,
    "▁جراحت": 6517,
    "نسوخ": 6518,
    "▁نهایتا": 6519,
    "▁قوم": 6520,
    "رسیدن": 6521,
    "▁نیستیم": 6522,
    "▁کریس": 6523,
    "▁پذیرفت": 6524,
    "▁دیدند": 6525,
    "وستا": 6526,
    "لستون": 6527,
    "▁مبا": 6528,
    "▁آلایند": 6529,
    "▁نیوز": 6530,
    "▁سیمون": 6531,
    "لیسب": 6532,
    "علم": 6533,
    "په": 6534,
    "▁تئو": 6535,
    "فو": 6536,
    "گز": 6537,
    "▁منازع": 6538,
    "▁کلیسای": 6539,
    "▁عط": 6540,
    "▁عفون": 6541,
    "▁نش": 6542,
    "▁داروین": 6543,
    "▁دوگان": 6544,
    "▁بازنده": 6545,
    "▁پاسخگوی": 6546,
    "دلان": 6547,
    "ویک": 6548,
    "داده": 6549,
    "ابل": 6550,
    "▁زید": 6551,
    "ناس": 6552,
    "شیر": 6553,
    "آور": 6554,
    "▁ساعته": 6555,
    "▁هرجا": 6556,
    "▁بگذاری": 6557,
    "▁ژاک": 6558,
    "▁یزد": 6559,
    "▁پارچ": 6560,
    "یانت": 6561,
    "▁۴۲۰": 6562,
    "جیل": 6563,
    "▁حکمی": 6564,
    "▁برگرداندن": 6565,
    "وزن": 6566,
    "▁دوری": 6567,
    "▁آمریکای": 6568,
    "سیما": 6569,
    "افشاری": 6570,
    "ویروس": 6571,
    "مانیا": 6572,
    "شک": 6573,
    "وام": 6574,
    "▁قف": 6575,
    "▁افزودن": 6576,
    "بریتانیا": 6577,
    "▁نیل": 6578,
    "کمی": 6579,
    "▁دنی": 6580,
    "▁مری": 6581,
    "▁کویت": 6582,
    "ارل": 6583,
    "▁بتوانی": 6584,
    "یگر": 6585,
    "▁محدودی": 6586,
    "▁لوف": 6587,
    "▁برآورده": 6588,
    "اچو": 6589,
    "رایت": 6590,
    "وجه": 6591,
    "▁اولی": 6592,
    "پاش": 6593,
    "▁پینک": 6594,
    "ایتون": 6595,
    "۳۹": 6596,
    "اشی": 6597,
    "▁ربای": 6598,
    "تخصصی": 6599,
    "▁اکرا": 6600,
    "▁برگرداند": 6601,
    "جای": 6602,
    "تحریم": 6603,
    "رحیم": 6604,
    "▁کارفرما": 6605,
    "▁لوپ": 6606,
    "▁اروپاست": 6607,
    "چل": 6608,
    "▁۵۴": 6609,
    "▁سفرش": 6610,
    "▁محب": 6611,
    "▁اینچ": 6612,
    "▁نما": 6613,
    "▁ویروسی": 6614,
    "دنظر": 6615,
    "▁بادی": 6616,
    "▁میکروب": 6617,
    "▁حام": 6618,
    "▁نکو": 6619,
    "▁قل": 6620,
    "زندگی": 6621,
    "▁سریعتر": 6622,
    "حضور": 6623,
    "▁فشارهای": 6624,
    "اوران": 6625,
    "▁مسا": 6626,
    "۱۱": 6627,
    "▁بون": 6628,
    "تاب": 6629,
    "کانا": 6630,
    "▁معاهد": 6631,
    "▁دوئ": 6632,
    "▁بزرگان": 6633,
    "حقوق": 6634,
    "رفتن": 6635,
    "عادی": 6636,
    "▁انو": 6637,
    "▁رول": 6638,
    "پرداخت": 6639,
    "▁عکسها": 6640,
    "فلیک": 6641,
    "حداکثر": 6642,
    "▁دپ": 6643,
    "▁موک": 6644,
    "درگذشت": 6645,
    "شوند": 6646,
    "دانشگاه": 6647,
    "▁پرز": 6648,
    "▁خد": 6649,
    "▁همگ": 6650,
    "▁موسسا": 6651,
    "▁جوا": 6652,
    "▁تخ": 6653,
    "▁سکان": 6654,
    "▁رون": 6655,
    "آژانس": 6656,
    "رومن": 6657,
    "ظاهر": 6658,
    "کشتی": 6659,
    "▁رقبا": 6660,
    "▁نزدیکتر": 6661,
    "پادمان": 6662,
    "▁شناختن": 6663,
    "رکورد": 6664,
    "انتخاب": 6665,
    "▁مغزش": 6666,
    "▁جودوکا": 6667,
    "▁حسابدار": 6668,
    "مور": 6669,
    "ئید": 6670,
    "▁پوستر": 6671,
    "▁مساعد": 6672,
    "▁ناراحتی": 6673,
    "۱۴۰۰": 6674,
    "أ": 6675,
    "لئوپا": 6676,
    "▁گدا": 6677,
    "نتایج": 6678,
    "بور": 6679,
    "هواداران": 6680,
    "▁مستع": 6681,
    "ارزش": 6682,
    "یزه": 6683,
    "اوپک": 6684,
    "رتر": 6685,
    "جنجال": 6686,
    "▁برن": 6687,
    "گرفتن": 6688,
    "سریع": 6689,
    "۲۱": 6690,
    "فل": 6691,
    "فرگوس": 6692,
    "▁موتورها": 6693,
    "▁وات": 6694,
    "▁ریلی": 6695,
    "▁بانان": 6696,
    "▁گیم": 6697,
    "قاسم": 6698,
    "▁آلت": 6699,
    "▁اپرا": 6700,
    "▁۶۹": 6701,
    "محمدرضا": 6702,
    "کجاست": 6703,
    "▁سپرد": 6704,
    "اسناد": 6705,
    "توماس": 6706,
    "قهرمانی": 6707,
    "▁شیوا": 6708,
    "کوم": 6709,
    "هماهنگ": 6710,
    "▁مرت": 6711,
    "باد": 6712,
    "▁چال": 6713,
    "▁پیگیر": 6714,
    "▁نب": 6715,
    "۹۱": 6716,
    "▁گلو": 6717,
    "راجع": 6718,
    "▁کمیاب": 6719,
    "▁تبر": 6720,
    "▁کارل": 6721,
    "حساب": 6722,
    "▁گردهم": 6723,
    "▁بلندپرواز": 6724,
    "یار": 6725,
    "▁انح": 6726,
    "▁ناآرام": 6727,
    "ورانه": 6728,
    "قدرت": 6729,
    "▁امری": 6730,
    "▁برآوردها": 6731,
    "نوس": 6732,
    "▁شورش": 6733,
    "آر": 6734,
    "مع": 6735,
    "دختر": 6736,
    "▁۲۹۰": 6737,
    "▁کور": 6738,
    "▁کوچ": 6739,
    "اتیو": 6740,
    "ندر": 6741,
    "رژی": 6742,
    "▁استیو": 6743,
    "▁سلیمان": 6744,
    "▁کری": 6745,
    "▁مصل": 6746,
    "رش": 6747,
    "مایش": 6748,
    "جامع": 6749,
    "پزشکی": 6750,
    "▁سانتا": 6751,
    "وحید": 6752,
    "▁مشتاق": 6753,
    "واقعی": 6754,
    "▁تولیدکنند": 6755,
    "آلود": 6756,
    "ماجرای": 6757,
    "میدان": 6758,
    "▁نخب": 6759,
    "ماری": 6760,
    "▁آسا": 6761,
    "▁جور": 6762,
    "راک": 6763,
    "▁فشارها": 6764,
    "مرغ": 6765,
    "▁هک": 6766,
    "یتا": 6767,
    "خوشایند": 6768,
    "▁۹۲": 6769,
    "دینگ": 6770,
    "▁نوب": 6771,
    "▁ماتی": 6772,
    "▁قائ": 6773,
    "▁نمک": 6774,
    "هفتصد": 6775,
    "▁معاونان": 6776,
    "حام": 6777,
    "▁بیتل": 6778,
    "▁مشهورتر": 6779,
    "نور": 6780,
    "▁قاطعان": 6781,
    "▁موسی": 6782,
    "مری": 6783,
    "ریوس": 6784,
    "کسل": 6785,
    "نگرانی": 6786,
    "▁سازوکار": 6787,
    "هره": 6788,
    "▁داش": 6789,
    "منستان": 6790,
    "▁موزیک": 6791,
    "وادا": 6792,
    "▁برگزارکنند": 6793,
    "فیروز": 6794,
    "▁آرسن": 6795,
    "▁دموکراسی": 6796,
    "▁سخاوتمند": 6797,
    "▁اویغور": 6798,
    "▁انقطاع": 6799,
    "▁محتاط": 6800,
    "▁رادیواکتیو": 6801,
    "▁قزاق": 6802,
    "▁محتمل": 6803,
    "▁مکتوب": 6804,
    "▁بالیوود": 6805,
    "▁سانتیگراد": 6806,
    "▁غلیظ": 6807,
    "▁تورنتو": 6808,
    "▁وروورت": 6809,
    "▁کوشنر": 6810,
    "▁ناگزیر": 6811,
    "▁اسرارآمیز": 6812,
    "▁التحصیل": 6813,
    "▁فرمانروای": 6814,
    "▁اوقاف": 6815,
    "▁باشکوه": 6816,
    "▁مستاجر": 6817,
    "▁رزیدن": 6818,
    "▁انزوا": 6819,
    "▁مالباخت": 6820,
    "▁قتالی": 6821,
    "▁کرمانپور": 6822,
    "▁فونینی": 6823,
    "▁خشمگین": 6824,
    "▁گاگا": 6825,
    "▁جادوگر": 6826,
    "▁نقیض": 6827,
    "▁لشکر": 6828,
    "▁کمبریج": 6829,
    "▁استعمار": 6830,
    "▁اصالت": 6831,
    "▁بکاهند": 6832,
    "▁بفروشند": 6833,
    "▁فرناند": 6834,
    "▁مرموز": 6835,
    "▁هواشناسی": 6836,
    "▁بوزمن": 6837,
    "▁ظالمانه": 6838,
    "▁هالپ": 6839,
    "▁اردکان": 6840,
    "شریف": 6841,
    "▁تجدیدنظر": 6842,
    "▁روانچی": 6843,
    "▁احوال": 6844,
    "▁بپردازند": 6845,
    "▁کارائیب": 6846,
    "▁مارسیال": 6847,
    "▁خلوتگر": 6848,
    "▁بم": 6849,
    "▁صفوف": 6850,
    "▁بیندازند": 6851,
    "▁ویلسون": 6852,
    "کاراکاس": 6853,
    "▁۱۹۶۷": 6854,
    "گارت": 6855,
    "▁۱۹۶۸": 6856,
    "▁شاهرود": 6857,
    "▁سازگار": 6858,
    "▁رولز": 6859,
    "▁جاسک": 6860,
    "▁رفیق": 6861,
    "▁خودمختار": 6862,
    "▁ندارید": 6863,
    "▁بایستند": 6864,
    "▁گنبد": 6865,
    "ریان": 6866,
    "▁ببریم": 6867,
    "▁درسی": 6868,
    "▁کاسپی": 6869,
    "▁برویم": 6870,
    "▁بگذارم": 6871,
    "روازه": 6872,
    "▁ابهامات": 6873,
    "▁دستیاران": 6874,
    "▁نیفتاد": 6875,
    "▁مجلات": 6876,
    "▁برونته": 6877,
    "▁هاپک": 6878,
    "▁سولشر": 6879,
    "▁نورماگومدوف": 6880,
    "▁لوگو": 6881,
    "▁میلیاردرها": 6882,
    "▁برایانت": 6883,
    "▁خلاق": 6884,
    "▁احصا": 6885,
    "▁امیدوارکننده": 6886,
    "▁یونسی": 6887,
    "▁ملوان": 6888,
    "▁داوود": 6889,
    "▁خاندان": 6890,
    "▁مختصر": 6891,
    "▁دریانورد": 6892,
    "▁نامگذاری": 6893,
    "▁محوری": 6894,
    "▁مأموریت": 6895,
    "▁آگوست": 6896,
    "▁بگیرم": 6897,
    "مادر": 6898,
    "رک": 6899,
    "▁عزت": 6900,
    "▁گردیم": 6901,
    "▁فلامینگوها": 6902,
    "▁متقابل": 6903,
    "▁توبین": 6904,
    "▁اجداد": 6905,
    "▁جرج": 6906,
    "▁علیزاده": 6907,
    "▁خاکستر": 6908,
    "▁بزرگسالان": 6909,
    "بیست": 6910,
    "▁مساحت": 6911,
    "▁مجاور": 6912,
    "▁بورات": 6913,
    "▁تشوی": 6914,
    "▁سف": 6915,
    "ملی": 6916,
    "▁استانداری": 6917,
    "▁جلیل": 6918,
    "▁ایلام": 6919,
    "▁کارند": 6920,
    "▁فستیوال": 6921,
    "▁ابدی": 6922,
    "رغ": 6923,
    "▁ناشده": 6924,
    "▁تولی": 6925,
    "▁تجسم": 6926,
    "▁حسگرها": 6927,
    "▁سرخک": 6928,
    "▁لاپورتا": 6929,
    "▁سفره": 6930,
    "▁هروی": 6931,
    "▁جذابیت": 6932,
    "نعیم": 6933,
    "▁زالی": 6934,
    "▁فضل": 6935,
    "▁تناقض": 6936,
    "ارومیه": 6937,
    "▁شاکی": 6938,
    "▁کمربندهای": 6939,
    "شکاف": 6940,
    "▁رخدادهای": 6941,
    "▁عینی": 6942,
    "۶۷": 6943,
    "▁بدنشان": 6944,
    "چون": 6945,
    "▁هوشی": 6946,
    "▁ترقی": 6947,
    "▁پیچید": 6948,
    "▁توتال": 6949,
    "▁بگوید": 6950,
    "گردانده": 6951,
    "▁بدهم": 6952,
    "▁توسان": 6953,
    "سعود": 6954,
    "▁پیمانکاران": 6955,
    "ورد": 6956,
    "▁ثور": 6957,
    "▁اکثرا": 6958,
    "لیات": 6959,
    "۸۸": 6960,
    "▁کامیاب": 6961,
    "▁فرستادن": 6962,
    "نولد": 6963,
    "▁مادام": 6964,
    "▁یوسفی": 6965,
    "رود": 6966,
    "ومین": 6967,
    "▁سانچ": 6968,
    "▁یخی": 6969,
    "▁پیمود": 6970,
    "▁راشد": 6971,
    "اتور": 6972,
    "▁کشورهاست": 6973,
    "▁مذک": 6974,
    "یاس": 6975,
    "▁ماهرویان": 6976,
    "شدن": 6977,
    "▁بایر": 6978,
    "▁علما": 6979,
    "سپی": 6980,
    "گویان": 6981,
    "▁ناک": 6982,
    "▁فورا": 6983,
    "▁حجت": 6984,
    "▁آف": 6985,
    "مک": 6986,
    "▁تپند": 6987,
    "یسم": 6988,
    "▁والتر": 6989,
    "▁جادوی": 6990,
    "▁قاعد": 6991,
    "▁کورت": 6992,
    "وده": 6993,
    "▁قبض": 6994,
    "▁دارداین": 6995,
    "▁ترسد": 6996,
    "راحتی": 6997,
    "▁خوابیدن": 6998,
    "▁الی": 6999,
    "صف": 7000,
    "▁مافی": 7001,
    "بع": 7002,
    "▁کان": 7003,
    "▁شمش": 7004,
    "▁بوم": 7005,
    "کافی": 7006,
    "▁گرجستانی": 7007,
    "▁گوها": 7008,
    "▁گریخت": 7009,
    "تشکر": 7010,
    "گت": 7011,
    "▁نوک": 7012,
    "▁فرخ": 7013,
    "ارو": 7014,
    "▁سناریوها": 7015,
    "▁قاسمی": 7016,
    "▁سنی": 7017,
    "▁تشکیلات": 7018,
    "▁لینک": 7019,
    "▁توبی": 7020,
    "▁چاق": 7021,
    "▁پژوهشهای": 7022,
    "▁گره": 7023,
    "▁اثرگذار": 7024,
    "▁کجاست": 7025,
    "▁مشخصات": 7026,
    "▁سرور": 7027,
    "▁ماهنام": 7028,
    "▁اجت": 7029,
    "▁باختری": 7030,
    "▁رسند": 7031,
    "▁همای": 7032,
    "بیگ": 7033,
    "ینز": 7034,
    "▁برنز": 7035,
    "▁مسن": 7036,
    "کسیون": 7037,
    "ایشگاه": 7038,
    "آفرینی": 7039,
    "▁نماید": 7040,
    "▁پترو": 7041,
    "زیو": 7042,
    "▁اقسا": 7043,
    "▁قوز": 7044,
    "اصل": 7045,
    "▁آوا": 7046,
    "▁بفرستید": 7047,
    "▁۱۳۳": 7048,
    "ئه": 7049,
    "▁عالمی": 7050,
    "▁عینک": 7051,
    "▁کوس": 7052,
    "▁قصر": 7053,
    "▁شعرهای": 7054,
    "▁نیستم": 7055,
    "ومی": 7056,
    "▁رقبای": 7057,
    "طری": 7058,
    "▁دنیل": 7059,
    "برده": 7060,
    "▁تقلا": 7061,
    "▁قب": 7062,
    "شاپی": 7063,
    "یافته": 7064,
    "ژیک": 7065,
    "▁شرعی": 7066,
    "▁پیامبر": 7067,
    "میلیون": 7068,
    "صاب": 7069,
    "▁زوم": 7070,
    "▁لیدی": 7071,
    "فین": 7072,
    "▁شارل": 7073,
    "▁گی": 7074,
    "▁رانگل": 7075,
    "وسی": 7076,
    "طل": 7077,
    "▁شهریاری": 7078,
    "۳۳": 7079,
    "▁سرگذاشت": 7080,
    "▁فک": 7081,
    "▁راوی": 7082,
    "▁آش": 7083,
    "سلط": 7084,
    "▁رویاهای": 7085,
    "▁شاپ": 7086,
    "▁سرگرفت": 7087,
    "توری": 7088,
    "▁مبت": 7089,
    "▁زیبای": 7090,
    "دوغا": 7091,
    "▁میدهد": 7092,
    "آنچ": 7093,
    "▁رفراند": 7094,
    "▁سینو": 7095,
    "▁ذهنش": 7096,
    "▁دانستن": 7097,
    "گاوا": 7098,
    "یونان": 7099,
    "کسین": 7100,
    "پو": 7101,
    "▁بازدیدکنند": 7102,
    "▁نوآوران": 7103,
    "▁وض": 7104,
    "قهرمان": 7105,
    "پیر": 7106,
    "▁فیش": 7107,
    "▁بکت": 7108,
    "▁عاج": 7109,
    "عت": 7110,
    "خالف": 7111,
    "▁اسا": 7112,
    "ردی": 7113,
    "سید": 7114,
    "▁نجفی": 7115,
    "بزرگ": 7116,
    "▁فراخواند": 7117,
    "عمل": 7118,
    "▁فراخوان": 7119,
    "شون": 7120,
    "تک": 7121,
    "سالی": 7122,
    "بورد": 7123,
    "درهای": 7124,
    "الیز": 7125,
    "▁ننگ": 7126,
    "▁بریتانیاست": 7127,
    "▁کارتون": 7128,
    "▁صدایی": 7129,
    "▁هیل": 7130,
    "▁برنا": 7131,
    "لبان": 7132,
    "▁حول": 7133,
    "▁پرستار": 7134,
    "▁تران": 7135,
    "▁ستا": 7136,
    "▁اشتباهی": 7137,
    "▁اصطلاحا": 7138,
    "▁ناشر": 7139,
    "▁آشو": 7140,
    "▁مردن": 7141,
    "▁پیت": 7142,
    "▁سازهای": 7143,
    "بینند": 7144,
    "گستر": 7145,
    "▁کنو": 7146,
    "فری": 7147,
    "دیده": 7148,
    "بالا": 7149,
    "▁کلینت": 7150,
    "▁گپ": 7151,
    "▁کاپل": 7152,
    "ینچی": 7153,
    "وضعیت": 7154,
    "شروع": 7155,
    "ازاد": 7156,
    "▁پرش": 7157,
    "▁بهرامی": 7158,
    "فشار": 7159,
    "ونته": 7160,
    "مپیون": 7161,
    "▁چای": 7162,
    "▁پرداز": 7163,
    "▁بخشید": 7164,
    "رفه": 7165,
    "مزمن": 7166,
    "یامده": 7167,
    "▁گویا": 7168,
    "▁ارت": 7169,
    "▁درسال": 7170,
    "▁فلور": 7171,
    "وط": 7172,
    "▁ماریان": 7173,
    "▁گلد": 7174,
    "▁فرضی": 7175,
    "نرخ": 7176,
    "▁گاردی": 7177,
    "▁شاد": 7178,
    "▁پوک": 7179,
    "بازداشت": 7180,
    "▁شکنی": 7181,
    "▁سنگی": 7182,
    "ادت": 7183,
    "ابتدا": 7184,
    "انگ": 7185,
    "کشورهای": 7186,
    "▁شن": 7187,
    "ستند": 7188,
    "▁سوزان": 7189,
    "نفی": 7190,
    "▁نازل": 7191,
    "قرنطینه": 7192,
    "خضر": 7193,
    "▁۲۱۰": 7194,
    "پاتی": 7195,
    "مبا": 7196,
    "ایل": 7197,
    "ویی": 7198,
    "▁یوسی": 7199,
    "▁پاسخگو": 7200,
    "ایتالیا": 7201,
    "پاسخ": 7202,
    "ائی": 7203,
    "▁نیافتن": 7204,
    "▁برخاست": 7205,
    "اکس": 7206,
    "سام": 7207,
    "▁شم": 7208,
    "ترکیب": 7209,
    "خطر": 7210,
    "یتونا": 7211,
    "یونایتد": 7212,
    "اندن": 7213,
    "▁۶۶": 7214,
    "شکایت": 7215,
    "شناسی": 7216,
    "▁استبا": 7217,
    "جشنواره": 7218,
    "نژاد": 7219,
    "هنگام": 7220,
    "دقیق": 7221,
    "سیستم": 7222,
    "▁چرم": 7223,
    "تنیس": 7224,
    "اتح": 7225,
    "▁سروده": 7226,
    "تجرب": 7227,
    "بزرگترین": 7228,
    "▁اقام": 7229,
    "جن": 7230,
    "سرطان": 7231,
    "فرانسه": 7232,
    "ینا": 7233,
    "پالایشگاه": 7234,
    "▁رویز": 7235,
    "مدیریت": 7236,
    "رویترز": 7237,
    "▁گرجستان": 7238,
    "▁سرم": 7239,
    "حاشیه": 7240,
    "نوی": 7241,
    "▁دزدی": 7242,
    "فرهاد": 7243,
    "محل": 7244,
    "▁آلم": 7245,
    "▁گرین": 7246,
    "آکادمی": 7247,
    "▁۱۰۹": 7248,
    "ریکا": 7249,
    "منتقدان": 7250,
    "وص": 7251,
    "▁ویر": 7252,
    "▁آرزوها": 7253,
    "▁سفارشی": 7254,
    "شن": 7255,
    "نفوذ": 7256,
    "کوئین": 7257,
    "صرف": 7258,
    "دولتی": 7259,
    "وکیل": 7260,
    "دارا": 7261,
    "قبض": 7262,
    "مردان": 7263,
    "وتو": 7264,
    "▁بخشهای": 7265,
    "▁صحرا": 7266,
    "▁حاج": 7267,
    "▁۲۰۵": 7268,
    "▁مزد": 7269,
    "گردون": 7270,
    "هور": 7271,
    "▁عبد": 7272,
    "لستر": 7273,
    "ادگی": 7274,
    "▁نوردی": 7275,
    "▁نمادها": 7276,
    "دنیل": 7277,
    "یکون": 7278,
    "مقامات": 7279,
    "آزادی": 7280,
    "۷۵": 7281,
    "▁تون": 7282,
    "▁الگو": 7283,
    "زاک": 7284,
    "میلان": 7285,
    "▁صوت": 7286,
    "▁رویدادها": 7287,
    "دایی": 7288,
    "راد": 7289,
    "ذره": 7290,
    "▁تیز": 7291,
    "تجمع": 7292,
    "کین": 7293,
    "ادین": 7294,
    "دادستان": 7295,
    "▁بنده": 7296,
    "▁کنشگر": 7297,
    "▁سانتو": 7298,
    "مرد": 7299,
    "▁پرکار": 7300,
    "▁باخ": 7301,
    "جیک": 7302,
    "شوه": 7303,
    "▁تراک": 7304,
    "حضا": 7305,
    "▁بازده": 7306,
    "ماخ": 7307,
    "نیس": 7308,
    "گاتی": 7309,
    "▁اعت": 7310,
    "۸۵": 7311,
    "▁نهادها": 7312,
    "▁نصر": 7313,
    "بورگ": 7314,
    "▁شدیم": 7315,
    "حث": 7316,
    "▁بت": 7317,
    "گذشت": 7318,
    "ئیه": 7319,
    "▁جنب": 7320,
    "آبی": 7321,
    "دوج": 7322,
    "یکه": 7323,
    "نزل": 7324,
    "وپ": 7325,
    "▁تفنگ": 7326,
    "▁تقریب": 7327,
    "▁یوآ": 7328,
    "▁مخابر": 7329,
    "امه": 7330,
    "▁احداث": 7331,
    "▁اختاپوس": 7332,
    "▁اورشلیم": 7333,
    "▁زاکربرگ": 7334,
    "▁سزاوار": 7335,
    "▁لابراتوار": 7336,
    "▁چرنکوف": 7337,
    "▁ژئوفیزیک": 7338,
    "▁اکسیدکربن": 7339,
    "▁دگراندیش": 7340,
    "▁لاوروف": 7341,
    "▁بیضائی": 7342,
    "▁بولونیا": 7343,
    "▁جگوار": 7344,
    "▁فلسفی": 7345,
    "▁بیرمنگ": 7346,
    "▁تشریفات": 7347,
    "▁ناپایدار": 7348,
    "▁نافذ": 7349,
    "یونیسف": 7350,
    "▁کامبوج": 7351,
    "▁الارض": 7352,
    "▁فلاکت": 7353,
    "▁اوزیل": 7354,
    "▁باچان": 7355,
    "▁تدارک": 7356,
    "▁متقلب": 7357,
    "▁دوبلور": 7358,
    "▁تسخیر": 7359,
    "▁شلوار": 7360,
    "▁لاتکس": 7361,
    "▁هریرود": 7362,
    "▁میچام": 7363,
    "ئوری": 7364,
    "▁نیکزاد": 7365,
    "▁اوزون": 7366,
    "▁ناخشنود": 7367,
    "▁مبتکر": 7368,
    "▁فرهیخت": 7369,
    "▁دامغان": 7370,
    "▁حیثیت": 7371,
    "▁ضابط": 7372,
    "▁انحراف": 7373,
    "▁اینفانتی": 7374,
    "▁نزاع": 7375,
    "▁صربستان": 7376,
    "▁ظلم": 7377,
    "▁موازات": 7378,
    "▁تمایز": 7379,
    "▁حروف": 7380,
    "▁جاودان": 7381,
    "▁شنویم": 7382,
    "▁ارمجانی": 7383,
    "▁دشتکی": 7384,
    "▁متوازن": 7385,
    "▁بمیرد": 7386,
    "▁منفعت": 7387,
    "▁هنجار": 7388,
    "▁بلندپایه": 7389,
    "▁پابرجاست": 7390,
    "▁پرسنل": 7391,
    "▁مخوف": 7392,
    "▁مغایر": 7393,
    "▁سرسخت": 7394,
    "▁زیراتمی": 7395,
    "▁فورمن": 7396,
    "ژگان": 7397,
    "▁الاجراست": 7398,
    "▁حیا": 7399,
    "بازد": 7400,
    "▁عضلانی": 7401,
    "▁نورالله": 7402,
    "▁نکشید": 7403,
    "▁چوپ": 7404,
    "▁آهسته": 7405,
    "▁رکوردشکن": 7406,
    "▁خویشتن": 7407,
    "▁۱۹۹۴": 7408,
    "▁فلسطینیان": 7409,
    "▁کیل": 7410,
    "▁۱۳۶۰": 7411,
    "▁پرشمار": 7412,
    "▁قبرستان": 7413,
    "▁نیابد": 7414,
    "▁ناسیونالیس": 7415,
    "▁پرستون": 7416,
    "▁مراکش": 7417,
    "▁ژرف": 7418,
    "▁تحرکات": 7419,
    "▁هیپی": 7420,
    "▁تومور": 7421,
    "▁جانباخت": 7422,
    "▁عبادی": 7423,
    "▁هندرسون": 7424,
    "زای": 7425,
    "پوستان": 7426,
    "▁آبراه": 7427,
    "▁یقین": 7428,
    "۳۰۰": 7429,
    "دلی": 7430,
    "▁متغیرهای": 7431,
    "▁هنگفت": 7432,
    "▁خطاهای": 7433,
    "تال": 7434,
    "▁طبع": 7435,
    "▁رینت": 7436,
    "▁قیصر": 7437,
    "▁سحابی": 7438,
    "▁زادروز": 7439,
    "▁زینب": 7440,
    "▁قورباغه": 7441,
    "▁ازبک": 7442,
    "▁سرپوش": 7443,
    "▁برلوسکونی": 7444,
    "▁عبدالسلام": 7445,
    "زد": 7446,
    "شنا": 7447,
    "▁مارلی": 7448,
    "▁همسایگان": 7449,
    "رام": 7450,
    "ونز": 7451,
    "راندن": 7452,
    "▁کانت": 7453,
    "زیرو": 7454,
    "▁همفکر": 7455,
    "▁۲۵۰۰": 7456,
    "▁پاب": 7457,
    "▁شیب": 7458,
    "▁تعمیرات": 7459,
    "▁دکترا": 7460,
    "▁اتلان": 7461,
    "▁صرب": 7462,
    "▁اهرم": 7463,
    "لسک": 7464,
    "▁کبیری": 7465,
    "▁معنادار": 7466,
    "▁غذاخور": 7467,
    "▁۲۴۸": 7468,
    "▁ژائو": 7469,
    "▁نپال": 7470,
    "▁دلنشین": 7471,
    "▁مرکل": 7472,
    "▁رودکی": 7473,
    "▁تربت": 7474,
    "▁چسباند": 7475,
    "ذائ": 7476,
    "▁بایست": 7477,
    "▁ماهیچه": 7478,
    "▁پردازش": 7479,
    "▁برگر": 7480,
    "▁آزاردید": 7481,
    "▁بپذیر": 7482,
    "موتو": 7483,
    "▁کوشید": 7484,
    "عطوف": 7485,
    "▁شروط": 7486,
    "▁بشنوید": 7487,
    "▁ندادند": 7488,
    "▁تعرض": 7489,
    "▁کامپیوترها": 7490,
    "▁کوپر": 7491,
    "▁باج": 7492,
    "▁آویز": 7493,
    "▁نانو": 7494,
    "میزان": 7495,
    "گوگوش": 7496,
    "▁یاسر": 7497,
    "ستی": 7498,
    "سیزدهم": 7499,
    "▁درام": 7500,
    "▁نجومی": 7501,
    "▁مجلل": 7502,
    "▁بخواهند": 7503,
    "بله": 7504,
    "▁سک": 7505,
    "▁چادر": 7506,
    "▁۱۷۴": 7507,
    "▁مجادل": 7508,
    "سود": 7509,
    "▁واپس": 7510,
    "▁اندازند": 7511,
    "▁چهارمی": 7512,
    "▁ارگان": 7513,
    "رژه": 7514,
    "▁خوشبین": 7515,
    "▁تسلی": 7516,
    "▁تورین": 7517,
    "▁توئیتر": 7518,
    "▁غذاهای": 7519,
    "▁عناب": 7520,
    "▁موازن": 7521,
    "▁نثر": 7522,
    "▁افزودند": 7523,
    "۵۸": 7524,
    "یسی": 7525,
    "وژه": 7526,
    "▁سوفی": 7527,
    "ریا": 7528,
    "▁کنسر": 7529,
    "▁مشتاقان": 7530,
    "▁باختر": 7531,
    "▁چشید": 7532,
    "امین": 7533,
    "▁اقیانوسیه": 7534,
    "▁انرو": 7535,
    "▁همتایان": 7536,
    "▁فقی": 7537,
    "انزا": 7538,
    "▁ازسر": 7539,
    "▁نبی": 7540,
    "▁نوشتارها": 7541,
    "▁روم": 7542,
    "▁شرکا": 7543,
    "خن": 7544,
    "▁۷۵۰": 7545,
    "▁استر": 7546,
    "▁اظهارنظرهای": 7547,
    "▁عطف": 7548,
    "▁اجزا": 7549,
    "▁کاتل": 7550,
    "بنی": 7551,
    "ونی": 7552,
    "▁پهنه": 7553,
    "▁کلوز": 7554,
    "بن": 7555,
    "پاری": 7556,
    "▁متال": 7557,
    "لیت": 7558,
    "گراد": 7559,
    "▁عمیقا": 7560,
    "امو": 7561,
    "▁ستیز": 7562,
    "ریحان": 7563,
    "کیت": 7564,
    "▁بلندپروازی": 7565,
    "میلیارد": 7566,
    "▁نیت": 7567,
    "▁پارکر": 7568,
    "مهربان": 7569,
    "وران": 7570,
    "رفت": 7571,
    "▁کوید": 7572,
    "▁شجاعت": 7573,
    "▁بدهید": 7574,
    "▁رخت": 7575,
    "▁آرین": 7576,
    "▁رف": 7577,
    "ارتاک": 7578,
    "▁خطا": 7579,
    "▁بازیافت": 7580,
    "▁کشیدند": 7581,
    "ائو": 7582,
    "باتری": 7583,
    "یوئیت": 7584,
    "▁منفور": 7585,
    "دیه": 7586,
    "سارت": 7587,
    "▁گراند": 7588,
    "▁متو": 7589,
    "▁رباب": 7590,
    "پولو": 7591,
    "▁فورب": 7592,
    "▁بعض": 7593,
    "▁نظ": 7594,
    "▁عاملی": 7595,
    "▁جوانا": 7596,
    "▁لندر": 7597,
    "پراتور": 7598,
    "▁مراد": 7599,
    "▁سالمند": 7600,
    "ساز": 7601,
    "▁سیمین": 7602,
    "▁اپرای": 7603,
    "▁حریر": 7604,
    "▁ورق": 7605,
    "▁آمونی": 7606,
    "▁دن": 7607,
    "▁قبای": 7608,
    "▁برایت": 7609,
    "ورای": 7610,
    "▁میهن": 7611,
    "وزی": 7612,
    "▁غوری": 7613,
    "▁نزدیکانش": 7614,
    "نجره": 7615,
    "بک": 7616,
    "کوس": 7617,
    "ارا": 7618,
    "▁ایرانسل": 7619,
    "▁آرمی": 7620,
    "پرسینگ": 7621,
    "سوی": 7622,
    "▁بودا": 7623,
    "▁فروند": 7624,
    "۹۶": 7625,
    "▁آنگل": 7626,
    "فان": 7627,
    "هایش": 7628,
    "یلو": 7629,
    "وبیل": 7630,
    "وست": 7631,
    "ایان": 7632,
    "▁توقع": 7633,
    "قبره": 7634,
    "لاس": 7635,
    "▁رقیبان": 7636,
    "▁توسل": 7637,
    "▁خاوری": 7638,
    "▁حوال": 7639,
    "▁چهارده": 7640,
    "وزرای": 7641,
    "وستون": 7642,
    "مرز": 7643,
    "▁امضاکنند": 7644,
    "پزشک": 7645,
    "حرف": 7646,
    "▁کبد": 7647,
    "▁منقل": 7648,
    "۳۶۰": 7649,
    "مانی": 7650,
    "▁رایانه": 7651,
    "▁بستند": 7652,
    "▁درهم": 7653,
    "تاکس": 7654,
    "▁بخشیده": 7655,
    "قانون": 7656,
    "▁ورز": 7657,
    "۴۴": 7658,
    "▁بسر": 7659,
    "رزمی": 7660,
    "لد": 7661,
    "▁درصدد": 7662,
    "▁بدنم": 7663,
    "چنین": 7664,
    "کسر": 7665,
    "دستان": 7666,
    "گوئر": 7667,
    "▁مینیاتوری": 7668,
    "▁فل": 7669,
    "▁بزو": 7670,
    "▁هاروی": 7671,
    "▁زنیم": 7672,
    "▁بدتری": 7673,
    "▁نتوان": 7674,
    "حاملگی": 7675,
    "▁دیف": 7676,
    "ائب": 7677,
    "مو": 7678,
    "▁عطار": 7679,
    "انک": 7680,
    "▁استودیوی": 7681,
    "▁سردست": 7682,
    "▁ریگ": 7683,
    "▁اتری": 7684,
    "ولکس": 7685,
    "خوانده": 7686,
    "▁آز": 7687,
    "▁فعالیتش": 7688,
    "▁عمرش": 7689,
    "رگاه": 7690,
    "زمه": 7691,
    "کست": 7692,
    "۹۳": 7693,
    "بایی": 7694,
    "وانی": 7695,
    "▁سنجی": 7696,
    "▁جزای": 7697,
    "واشی": 7698,
    "▁تایی": 7699,
    "▁یانگ": 7700,
    "▁شاهدان": 7701,
    "حکم": 7702,
    "▁جوج": 7703,
    "▁نشستن": 7704,
    "تاد": 7705,
    "▁غیربو": 7706,
    "نمای": 7707,
    "▁وول": 7708,
    "▁سوخته": 7709,
    "دوزی": 7710,
    "▁چنگ": 7711,
    "بومی": 7712,
    "▁پلک": 7713,
    "کری": 7714,
    "▁بنیا": 7715,
    "▁دیپلم": 7716,
    "ملو": 7717,
    "▁مجت": 7718,
    "بیح": 7719,
    "▁دایی": 7720,
    "▁فری": 7721,
    "▁میکروبی": 7722,
    "گردانی": 7723,
    "▁بگ": 7724,
    "▁شوق": 7725,
    "ادیو": 7726,
    "▁شراب": 7727,
    "صال": 7728,
    "▁مث": 7729,
    "اثر": 7730,
    "▁چتر": 7731,
    "▁همسو": 7732,
    "تالیا": 7733,
    "▁بخشد": 7734,
    "▁جود": 7735,
    "▁الس": 7736,
    "پایان": 7737,
    "▁اورگ": 7738,
    "▁باربی": 7739,
    "▁سکو": 7740,
    "ارسل": 7741,
    "جماع": 7742,
    "▁محبوبش": 7743,
    "▁ازد": 7744,
    "▁روبین": 7745,
    "▁همسران": 7746,
    "▁مورف": 7747,
    "▁دیرو": 7748,
    "۸۹": 7749,
    "رچه": 7750,
    "▁بندهای": 7751,
    "لوت": 7752,
    "▁محبو": 7753,
    "گران": 7754,
    "قای": 7755,
    "۴۵": 7756,
    "▁مایل": 7757,
    "زنان": 7758,
    "اشا": 7759,
    "خوش": 7760,
    "چشم": 7761,
    "بد": 7762,
    "▁شدایران": 7763,
    "▁بلخی": 7764,
    "▁کوپا": 7765,
    "▁بگو": 7766,
    "▁قش": 7767,
    "▁درخشند": 7768,
    "اهی": 7769,
    "▁مادی": 7770,
    "▁کورو": 7771,
    "▁ایا": 7772,
    "▁استثنای": 7773,
    "▁نیرومند": 7774,
    "▁عم": 7775,
    "▁همب": 7776,
    "▁اغ": 7777,
    "خصوص": 7778,
    "▁حواس": 7779,
    "▁ضم": 7780,
    "▁بارش": 7781,
    "▁ترمی": 7782,
    "▁شیرینی": 7783,
    "تعلل": 7784,
    "سکار": 7785,
    "اعتراض": 7786,
    "ماجرا": 7787,
    "الیود": 7788,
    "کانس": 7789,
    "▁سیرو": 7790,
    "▁اتکای": 7791,
    "کسان": 7792,
    "▁رپ": 7793,
    "▁دانل": 7794,
    "▁دلو": 7795,
    "▁حاتم": 7796,
    "▁توفیقی": 7797,
    "موضوع": 7798,
    "▁رجبی": 7799,
    "تخیلی": 7800,
    "جایزه": 7801,
    "مانس": 7802,
    "▁پولهای": 7803,
    "۲۰۲۰": 7804,
    "بق": 7805,
    "▁ثب": 7806,
    "مشخص": 7807,
    "مسابقه": 7808,
    "همکاری": 7809,
    "قیاس": 7810,
    "درآمد": 7811,
    "▁شرت": 7812,
    "عکاس": 7813,
    "سترسیتی": 7814,
    "▁کلور": 7815,
    "۸۴": 7816,
    "▁دستش": 7817,
    "▁علا": 7818,
    "صنعت": 7819,
    "▁گذاریم": 7820,
    "▁کابلی": 7821,
    "▁جیمی": 7822,
    "▁الزاما": 7823,
    "▁مسخ": 7824,
    "▁سناریو": 7825,
    "▁بازه": 7826,
    "▁فلم": 7827,
    "خروج": 7828,
    "▁انسانها": 7829,
    "جنوب": 7830,
    "احتمال": 7831,
    "▁اب": 7832,
    "▁پشتو": 7833,
    "▁شجاعی": 7834,
    "▁نات": 7835,
    "▁الکسا": 7836,
    "ورس": 7837,
    "▁بستگان": 7838,
    "ترک": 7839,
    "شکی": 7840,
    "▁گرینو": 7841,
    "کوه": 7842,
    "گزا": 7843,
    "▁نزده": 7844,
    "تابستان": 7845,
    "▁۳۳۰": 7846,
    "▁نوزده": 7847,
    "آقازاده": 7848,
    "فرمانده": 7849,
    "گمرک": 7850,
    "مطالع": 7851,
    "▁اسلو": 7852,
    "سان": 7853,
    "نیویورک": 7854,
    "جوایز": 7855,
    "پروتکل": 7856,
    "تخریب": 7857,
    "طالبان": 7858,
    "فیفا": 7859,
    "اتفاقات": 7860,
    "تیراندازی": 7861,
    "▁سخنگو": 7862,
    "فش": 7863,
    "▁کوئین": 7864,
    "مالک": 7865,
    "▁ادوار": 7866,
    "یوس": 7867,
    "مشق": 7868,
    "جوکوویچ": 7869,
    "ابراهیم": 7870,
    "بست": 7871,
    "مناسبت": 7872,
    "جری": 7873,
    "مکزیکو": 7874,
    "فرجام": 7875,
    "اضطراب": 7876,
    "شایر": 7877,
    "صل": 7878,
    "دنبال": 7879,
    "تایسون": 7880,
    "▁اپراتور": 7881,
    "اتهامات": 7882,
    "بیانسه": 7883,
    "جسد": 7884,
    "فاضل": 7885,
    "ایلنا": 7886,
    "فرانسی": 7887,
    "فاصل": 7888,
    "هجوم": 7889,
    "▁مجال": 7890,
    "▁مذهب": 7891,
    "لیدز": 7892,
    "مزد": 7893,
    "▁چیزها": 7894,
    "راث": 7895,
    "▁کوری": 7896,
    "منتظر": 7897,
    "اعظم": 7898,
    "خزن": 7899,
    "▁مگ": 7900,
    "▁یادش": 7901,
    "▁دلش": 7902,
    "▁مطهر": 7903,
    "ملا": 7904,
    "رها": 7905,
    "▁مزایا": 7906,
    "نگین": 7907,
    "▁یوسف": 7908,
    "▁جعفر": 7909,
    "خواهیم": 7910,
    "الوح": 7911,
    "▁دلیلش": 7912,
    "سرجی": 7913,
    "▁رکسا": 7914,
    "مسعود": 7915,
    "نتینو": 7916,
    "▁کمالی": 7917,
    "سانس": 7918,
    "▁هواپیماها": 7919,
    "تیو": 7920,
    "درحالی": 7921,
    "▁یابی": 7922,
    "سورها": 7923,
    "▁اندرو": 7924,
    "▁توئیت": 7925,
    "لیگا": 7926,
    "رالزمان": 7927,
    "سنج": 7928,
    "گذشته": 7929,
    "▁معوق": 7930,
    "▁واحده": 7931,
    "▁بهت": 7932,
    "زدی": 7933,
    "کنند": 7934,
    "فارم": 7935,
    "▁قان": 7936,
    "▁غور": 7937,
    "▁اشت": 7938,
    "▁منت": 7939,
    "▁۱۲۸": 7940,
    "بندی": 7941,
    "▁بکر": 7942,
    "▁رکوردها": 7943,
    "نسک": 7944,
    "▁فلامینگو": 7945,
    "▁ایل": 7946,
    "▁۲۴۰": 7947,
    "پولیس": 7948,
    "وکین": 7949,
    "▁گار": 7950,
    "▁آتن": 7951,
    "دیدار": 7952,
    "▁همسایگ": 7953,
    "▁ترفند": 7954,
    "تروئ": 7955,
    "▁سوز": 7956,
    "کنفرانس": 7957,
    "ونا": 7958,
    "▁پدربزرگ": 7959,
    "مز": 7960,
    "گزار": 7961,
    "رگبار": 7962,
    "غو": 7963,
    "تمع": 7964,
    "حضرت": 7965,
    "▁ابتذال": 7966,
    "▁اسکورسیزی": 7967,
    "▁بفرستد": 7968,
    "▁تشعشع": 7969,
    "▁زحمات": 7970,
    "▁فیزیولوژی": 7971,
    "▁بفرستند": 7972,
    "▁بپیوندد": 7973,
    "▁حناچی": 7974,
    "▁پلتفرم": 7975,
    "▁کوکائین": 7976,
    "▁مارگاریتا": 7977,
    "▁اوزبیک": 7978,
    "▁پرتوافشانی": 7979,
    "▁ناسازگار": 7980,
    "▁اولیانوف": 7981,
    "▁عناوین": 7982,
    "▁هیدروژن": 7983,
    "▁بنکدارپور": 7984,
    "▁تنگاتنگ": 7985,
    "▁ننگرهار": 7986,
    "▁عنابستانی": 7987,
    "▁غزنوی": 7988,
    "▁شریعت": 7989,
    "▁مجارستان": 7990,
    "▁پغمان": 7991,
    "▁اتمسفر": 7992,
    "▁ناخودآگاه": 7993,
    "▁مفاهیم": 7994,
    "▁همجوار": 7995,
    "▁بیانجامد": 7996,
    "▁ایرلاین": 7997,
    "▁سولیوان": 7998,
    "▁نکونام": 7999,
    "▁مشروعیت": 8000,
    "▁معضل": 8001,
    "لازم": 8002,
    "▁تذکر": 8003,
    "▁طارمی": 8004,
    "▁غمگین": 8005,
    "▁رج": 8006,
    "▁دوقلو": 8007,
    "▁نباشید": 8008,
    "▁وسواس": 8009,
    "کشی": 8010,
    "▁تمهید": 8011,
    "▁سغد": 8012,
    "▁بلوغ": 8013,
    "▁لطیف": 8014,
    "▁چندرایان": 8015,
    "▁مقادیر": 8016,
    "▁خودکفا": 8017,
    "▁فراهانی": 8018,
    "▁عنایت": 8019,
    "▁الاجرا": 8020,
    "▁کلکسیون": 8021,
    "▁سمنان": 8022,
    "▁ببینم": 8023,
    "▁دیزل": 8024,
    "▁گوریل": 8025,
    "▁بیضایی": 8026,
    "رزرو": 8027,
    "▁ارژن": 8028,
    "▁آلبانی": 8029,
    "▁بسپارد": 8030,
    "▁صیادان": 8031,
    "▁۱۹۶۶": 8032,
    "▁منحنی": 8033,
    "▁گوترش": 8034,
    "▁۲۰۳۵": 8035,
    "▁بکشم": 8036,
    "▁کذب": 8037,
    "▁پوینت": 8038,
    "▁فواید": 8039,
    "▁تمجید": 8040,
    "▁مقیاس": 8041,
    "▁شادگان": 8042,
    "▁زوایا": 8043,
    "▁متضاد": 8044,
    "آنگولا": 8045,
    "شاد": 8046,
    "▁صفاری": 8047,
    "▁بزاق": 8048,
    "▁توفندها": 8049,
    "▁فعالی": 8050,
    "▁آوینی": 8051,
    "▁برنگرداند": 8052,
    "▁شادمان": 8053,
    "▁بانکوک": 8054,
    "▁بنویسم": 8055,
    "▁هشدارها": 8056,
    "▁۱۹۹۵": 8057,
    "▁ابول": 8058,
    "▁وارث": 8059,
    "▁تجسس": 8060,
    "▁وجدان": 8061,
    "▁اسکلت": 8062,
    "▁بخوانند": 8063,
    "▁زراعت": 8064,
    "زامبی": 8065,
    "▁رویس": 8066,
    "▁لبخندها": 8067,
    "شود": 8068,
    "▁بارچا": 8069,
    "▁بکنید": 8070,
    "▁لرزید": 8071,
    "▁کاردوس": 8072,
    "▁آصف": 8073,
    "▁انعکاس": 8074,
    "▁آپوف": 8075,
    "وتی": 8076,
    "▁جوابگوی": 8077,
    "ناگلزم": 8078,
    "▁سفیدپوستان": 8079,
    "▁آنچنان": 8080,
    "▁نوابی": 8081,
    "▁برنامک": 8082,
    "▁بازدارند": 8083,
    "▁بخورد": 8084,
    "▁اشکالات": 8085,
    "▁بارکلی": 8086,
    "▁دماغ": 8087,
    "▁قمار": 8088,
    "▁دستمزدها": 8089,
    "▁بهائی": 8090,
    "▁کابوس": 8091,
    "▁یولیا": 8092,
    "غذیه": 8093,
    "▁اعترافات": 8094,
    "▁آموس": 8095,
    "▁جویانه": 8096,
    "▁ملموس": 8097,
    "▁تایوان": 8098,
    "▁لافرته": 8099,
    "▁ماوریک": 8100,
    "▁مدد": 8101,
    "▁رجیس": 8102,
    "▁بیگم": 8103,
    "جویان": 8104,
    "صنوف": 8105,
    "▁هنکس": 8106,
    "رسید": 8107,
    "▁جذابی": 8108,
    "▁مجزا": 8109,
    "▁چفرین": 8110,
    "▁نگذاشت": 8111,
    "▁ادینبور": 8112,
    "▁حض": 8113,
    "ماگال": 8114,
    "نتسب": 8115,
    "▁گاردن": 8116,
    "▁کولبران": 8117,
    "لیه": 8118,
    "تمامی": 8119,
    "▁مشاهدات": 8120,
    "▁کریگ": 8121,
    "▁افشاگر": 8122,
    "▁کارم": 8123,
    "▁لنز": 8124,
    "▁فرز": 8125,
    "▁اسکات": 8126,
    "▁افراط": 8127,
    "▁کوثر": 8128,
    "▁کروات": 8129,
    "زیستی": 8130,
    "زمانی": 8131,
    "▁اسید": 8132,
    "▁دانید": 8133,
    "▁مشاه": 8134,
    "▁ویرانگر": 8135,
    "▁هادرون": 8136,
    "▁فاکس": 8137,
    "▁زدای": 8138,
    "▁معلمان": 8139,
    "▁آنتوان": 8140,
    "نندگان": 8141,
    "▁بیانداز": 8142,
    "▁لیمو": 8143,
    "معدنچی": 8144,
    "▁بنفش": 8145,
    "▁شاهکارهای": 8146,
    "باخ": 8147,
    "▁راهکارهای": 8148,
    "▁منظوم": 8149,
    "▁خطاط": 8150,
    "حور": 8151,
    "▁ترکمان": 8152,
    "▁فرستند": 8153,
    "▁یوهان": 8154,
    "گوئه": 8155,
    "▁امداد": 8156,
    "▁کانتر": 8157,
    "▁بلاتکلیفی": 8158,
    "▁شگرد": 8159,
    "رعلی": 8160,
    "▁بدیع": 8161,
    "هموار": 8162,
    "▁چابک": 8163,
    "▁زشت": 8164,
    "▁رحیمی": 8165,
    "هوش": 8166,
    "▁برگشتند": 8167,
    "▁چرخید": 8168,
    "▁زودرس": 8169,
    "▁روما": 8170,
    "▁آزادگان": 8171,
    "▁دالان": 8172,
    "▁کانل": 8173,
    "ارش": 8174,
    "▁چانگ": 8175,
    "جانی": 8176,
    "▁فراوانش": 8177,
    "تفلی": 8178,
    "▁عبدالرحم": 8179,
    "مکن": 8180,
    "▁کیمی": 8181,
    "مداری": 8182,
    "▁ربکا": 8183,
    "▁نازک": 8184,
    "ساتبی": 8185,
    "▁درصورت": 8186,
    "▁کاترین": 8187,
    "▁نامند": 8188,
    "▁حریری": 8189,
    "تورم": 8190,
    "گرانی": 8191,
    "▁حشر": 8192,
    "▁پربار": 8193,
    "▁وکارها": 8194,
    "▁برایان": 8195,
    "ورلد": 8196,
    "▁لات": 8197,
    "▁هامون": 8198,
    "آلبرت": 8199,
    "▁رازهای": 8200,
    "▁فتو": 8201,
    "▁آمر": 8202,
    "▁کارلو": 8203,
    "▁خبرگ": 8204,
    "▁افزارهای": 8205,
    "وکسل": 8206,
    "▁قبا": 8207,
    "شیتز": 8208,
    "▁شایان": 8209,
    "یامک": 8210,
    "نیمه": 8211,
    "یمه": 8212,
    "▁مایا": 8213,
    "رونا": 8214,
    "سبد": 8215,
    "ولوژی": 8216,
    "▁یدک": 8217,
    "صله": 8218,
    "▁وزرا": 8219,
    "▁نصیر": 8220,
    "کردن": 8221,
    "ویش": 8222,
    "▁فلی": 8223,
    "▁سینماگران": 8224,
    "▁ویولن": 8225,
    "یدی": 8226,
    "▁یوآن": 8227,
    "▁منسو": 8228,
    "▁جراحان": 8229,
    "▁نگهداشت": 8230,
    "▁فرحی": 8231,
    "غما": 8232,
    "راماتیک": 8233,
    "مسترد": 8234,
    "شنبه": 8235,
    "رب": 8236,
    "▁والن": 8237,
    "▁سهراب": 8238,
    "▁پیا": 8239,
    "کشته": 8240,
    "▁دوهزار": 8241,
    "رث": 8242,
    "▁چرن": 8243,
    "▁اشا": 8244,
    "▁بیگان": 8245,
    "▁موت": 8246,
    "فمن": 8247,
    "▁فراگرفت": 8248,
    "▁کشیم": 8249,
    "▁افتادند": 8250,
    "زبان": 8251,
    "▁دهی": 8252,
    "▁لاب": 8253,
    "همگی": 8254,
    "▁اژدها": 8255,
    "▁سمی": 8256,
    "نسون": 8257,
    "▁سیت": 8258,
    "▁سونا": 8259,
    "ولوو": 8260,
    "▁بیکارشد": 8261,
    "فروشی": 8262,
    "▁کریستی": 8263,
    "اسب": 8264,
    "▁بش": 8265,
    "▁تاجیکان": 8266,
    "▁داگ": 8267,
    "متن": 8268,
    "▁گاف": 8269,
    "▁باکر": 8270,
    "آباد": 8271,
    "▁رویکردهای": 8272,
    "ظن": 8273,
    "▁نبودند": 8274,
    "دید": 8275,
    "اسکورت": 8276,
    "موش": 8277,
    "رمانی": 8278,
    "▁تردیدهای": 8279,
    "▁گرو": 8280,
    "دانه": 8281,
    "▁قانونگذار": 8282,
    "▁دانا": 8283,
    "▁شناختند": 8284,
    "یح": 8285,
    "▁صداها": 8286,
    "▁میرود": 8287,
    "▁تقی": 8288,
    "چال": 8289,
    "▁میلیچ": 8290,
    "لوگ": 8291,
    "▁محر": 8292,
    "▁کلک": 8293,
    "دمای": 8294,
    "▁تونسی": 8295,
    "نفت": 8296,
    "▁تاثیرات": 8297,
    "▁بریج": 8298,
    "▁کیپ": 8299,
    "▁راهکار": 8300,
    "▁میزبانش": 8301,
    "۸۲": 8302,
    "▁بازگشتند": 8303,
    "میر": 8304,
    "▁لوور": 8305,
    "▁مصو": 8306,
    "▁وزار": 8307,
    "▁همهمه": 8308,
    "▁۱۳۲": 8309,
    "▁افکند": 8310,
    "▁چش": 8311,
    "کران": 8312,
    "▁بخ": 8313,
    "▁ویز": 8314,
    "طم": 8315,
    "▁سیب": 8316,
    "رگز": 8317,
    "▁خودکار": 8318,
    "▁شوراها": 8319,
    "۸۶": 8320,
    "▁نبردها": 8321,
    "▁قهر": 8322,
    "ژی": 8323,
    "کتری": 8324,
    "▁ساندر": 8325,
    "▁همپ": 8326,
    "تار": 8327,
    "▁نایاب": 8328,
    "باسی": 8329,
    "لایه": 8330,
    "▁هایپر": 8331,
    "▁زدم": 8332,
    "▁حواسش": 8333,
    "▁مهیا": 8334,
    "▁طو": 8335,
    "▁درمی": 8336,
    "▁دویدن": 8337,
    "▁یادم": 8338,
    "▁چید": 8339,
    "▁تعبی": 8340,
    "▁همد": 8341,
    "▁دانستم": 8342,
    "▁پود": 8343,
    "▁بایستی": 8344,
    "قا": 8345,
    "▁گوستا": 8346,
    "▁وظایفش": 8347,
    "▁کنش": 8348,
    "رویا": 8349,
    "▁هستی": 8350,
    "اتنگ": 8351,
    "▁وایت": 8352,
    "▁بشود": 8353,
    "هکرهای": 8354,
    "▁عر": 8355,
    "رقیز": 8356,
    "افتاده": 8357,
    "▁زای": 8358,
    "▁لنگ": 8359,
    "رفته": 8360,
    "▁نخواست": 8361,
    "یوید": 8362,
    "▁نوپا": 8363,
    "▁رشدی": 8364,
    "▁صلیبی": 8365,
    "▁سور": 8366,
    "▁سوییس": 8367,
    "▁دلم": 8368,
    "درنا": 8369,
    "▁مین": 8370,
    "▁همگان": 8371,
    "اندر": 8372,
    "▁خانود": 8373,
    "▁گذران": 8374,
    "یشان": 8375,
    "▁ژیل": 8376,
    "▁دومی": 8377,
    "▁محص": 8378,
    "▁گوا": 8379,
    "▁تویی": 8380,
    "یرو": 8381,
    "▁هراتی": 8382,
    "درباره": 8383,
    "▁سودجو": 8384,
    "گنجی": 8385,
    "▁استرا": 8386,
    "جات": 8387,
    "▁برخاستن": 8388,
    "نشأ": 8389,
    "▁حکمت": 8390,
    "مهم": 8391,
    "▁۱۳۱": 8392,
    "لیس": 8393,
    "▁پورتو": 8394,
    "▁رزو": 8395,
    "ارجه": 8396,
    "سپاس": 8397,
    "▁بیک": 8398,
    "ستیک": 8399,
    "▁شکستند": 8400,
    "نگوی": 8401,
    "▁عطا": 8402,
    "▁متول": 8403,
    "▁فراور": 8404,
    "▁پاتر": 8405,
    "▁کوک": 8406,
    "سای": 8407,
    "▁لوکه": 8408,
    "بیت": 8409,
    "▁کشاورزان": 8410,
    "▁تولیدش": 8411,
    "چندی": 8412,
    "▁شرکتها": 8413,
    "اندرو": 8414,
    "▁سق": 8415,
    "▁افرا": 8416,
    "▁اراد": 8417,
    "صلی": 8418,
    "گوین": 8419,
    "اشار": 8420,
    "آفرین": 8421,
    "ارآفرین": 8422,
    "▁سرف": 8423,
    "▁سلیم": 8424,
    "▁ره": 8425,
    "پژوه": 8426,
    "جمهوری": 8427,
    "▁عی": 8428,
    "رگیری": 8429,
    "▁اشتها": 8430,
    "سلطان": 8431,
    "ارز": 8432,
    "ولد": 8433,
    "▁متف": 8434,
    "یلند": 8435,
    "دیو": 8436,
    "▁عار": 8437,
    "۳۷": 8438,
    "مگان": 8439,
    "▁اپ": 8440,
    "▁ضیا": 8441,
    "هو": 8442,
    "پزی": 8443,
    "▁محی": 8444,
    "▁امیدهای": 8445,
    "محمدی": 8446,
    "▁نیاورده": 8447,
    "▁بازنش": 8448,
    "ناوب": 8449,
    "▁سیریا": 8450,
    "▁فرسا": 8451,
    "گرم": 8452,
    "۳۲": 8453,
    "▁مرم": 8454,
    "▁دیواره": 8455,
    "فرید": 8456,
    "▁خاکس": 8457,
    "لیور": 8458,
    "▁آندرس": 8459,
    "فرنو": 8460,
    "اپ": 8461,
    "نمی": 8462,
    "▁نیر": 8463,
    "▁نبودن": 8464,
    "▁کساد": 8465,
    "اتل": 8466,
    "▁افع": 8467,
    "▁پارکین": 8468,
    "▁چسب": 8469,
    "۵۳": 8470,
    "▁صلیب": 8471,
    "روژ": 8472,
    "انسون": 8473,
    "توافق": 8474,
    "▁استوایی": 8475,
    "▁آغ": 8476,
    "▁۱۸۸": 8477,
    "روس": 8478,
    "اشک": 8479,
    "پرستانه": 8480,
    "▁محصولش": 8481,
    "تامی": 8482,
    "آمارها": 8483,
    "رگوت": 8484,
    "ادام": 8485,
    "▁فیزیوتراپ": 8486,
    "گویی": 8487,
    "ستانه": 8488,
    "▁افشاری": 8489,
    "▁آریا": 8490,
    "▁خب": 8491,
    "زنده": 8492,
    "نزدیک": 8493,
    "▁نبو": 8494,
    "▁هیو": 8495,
    "مردم": 8496,
    "▁صحبتها": 8497,
    "▁مخاط": 8498,
    "ارس": 8499,
    "▁توا": 8500,
    "▁لن": 8501,
    "▁اصولگرا": 8502,
    "▁شرع": 8503,
    "▁وزیری": 8504,
    "خو": 8505,
    "ضا": 8506,
    "▁بولد": 8507,
    "رساز": 8508,
    "افراد": 8509,
    "ماشین": 8510,
    "▁بوهای": 8511,
    "اجرای": 8512,
    "پالا": 8513,
    "زر": 8514,
    "▁حوا": 8515,
    "یال": 8516,
    "رگذشت": 8517,
    "شرایط": 8518,
    "فعالیت": 8519,
    "▁؛": 8520,
    "▁لوس": 8521,
    "ودن": 8522,
    "کلی": 8523,
    "▁کاپ": 8524,
    "بنیا": 8525,
    "بیماری": 8526,
    "▁بکار": 8527,
    "خارج": 8528,
    "▁بازن": 8529,
    "▁نزن": 8530,
    "▁محو": 8531,
    "رمند": 8532,
    "ینک": 8533,
    "▁آرت": 8534,
    "▁۱۲۶": 8535,
    "۸۱": 8536,
    "پانی": 8537,
    "مختار": 8538,
    "▁پرد": 8539,
    "▁ند": 8540,
    "ویو": 8541,
    "مق": 8542,
    "انند": 8543,
    "خیز": 8544,
    "▁سوت": 8545,
    "▁بده": 8546,
    "▁پیکا": 8547,
    "▁سب": 8548,
    "▁موفقی": 8549,
    "▁نابینا": 8550,
    "قدیم": 8551,
    "▁باش": 8552,
    "ازهای": 8553,
    "عربستان": 8554,
    "کتاب": 8555,
    "صراف": 8556,
    "▁قضا": 8557,
    "روزهای": 8558,
    "سیاسی": 8559,
    "قد": 8560,
    "ندگی": 8561,
    "صادرات": 8562,
    "آزمایش": 8563,
    "اسرائیل": 8564,
    "۶۱": 8565,
    "▁نوزدهمی": 8566,
    "قوی": 8567,
    "بازیکنان": 8568,
    "نقدر": 8569,
    "طوری": 8570,
    "محدودیت": 8571,
    "▁نشا": 8572,
    "▁مدرنی": 8573,
    "زستان": 8574,
    "حمدرضا": 8575,
    "قطع": 8576,
    "سپاه": 8577,
    "▁لغز": 8578,
    "▁امیرم": 8579,
    "بحران": 8580,
    "▁خودرا": 8581,
    "مسئول": 8582,
    "متوقف": 8583,
    "ورزشگاه": 8584,
    "▁اسکا": 8585,
    "▁خطری": 8586,
    "صلاح": 8587,
    "متاز": 8588,
    "▁العم": 8589,
    "صیر": 8590,
    "برت": 8591,
    "▁هفده": 8592,
    "چاق": 8593,
    "احسا": 8594,
    "نهادهای": 8595,
    "ناتالی": 8596,
    "خبرنگار": 8597,
    "تانک": 8598,
    "▁چپگرا": 8599,
    "اتهام": 8600,
    "سقوط": 8601,
    "جنگ": 8602,
    "فضای": 8603,
    "سوری": 8604,
    "دالر": 8605,
    "▁مدا": 8606,
    "نگاه": 8607,
    "درخواست": 8608,
    "▁موثرتر": 8609,
    "فرصت": 8610,
    "▁دروغگو": 8611,
    "▁رادو": 8612,
    "انیس": 8613,
    "اظهارات": 8614,
    "▁اشع": 8615,
    "▁کارهایش": 8616,
    "▁نیاب": 8617,
    "ربط": 8618,
    "▁فاین": 8619,
    "هان": 8620,
    "لار": 8621,
    "سوئیس": 8622,
    "حکام": 8623,
    "▁پاتری": 8624,
    "رکود": 8625,
    "کاملا": 8626,
    "▁شیاد": 8627,
    "فای": 8628,
    "قسمت": 8629,
    "▁جولیا": 8630,
    "توییت": 8631,
    "عل": 8632,
    "▁نیروها": 8633,
    "▁گیران": 8634,
    "▁یوت": 8635,
    "وبی": 8636,
    "اشته": 8637,
    "موارد": 8638,
    "ریتز": 8639,
    "کشف": 8640,
    "یوونتوس": 8641,
    "▁اسکان": 8642,
    "ورو": 8643,
    "مشاور": 8644,
    "لحظ": 8645,
    "امارات": 8646,
    "خودروهای": 8647,
    "اختلال": 8648,
    "جاز": 8649,
    "▁سواد": 8650,
    "▁الن": 8651,
    "۳۸": 8652,
    "▁تحر": 8653,
    "اسپوت": 8654,
    "ساعات": 8655,
    "نژادپرست": 8656,
    "▁کوو": 8657,
    "کاوشگر": 8658,
    "خانی": 8659,
    "پذیرفته": 8660,
    "واقعیت": 8661,
    "خبرنگاران": 8662,
    "▁آرنو": 8663,
    "آرامکو": 8664,
    "پیرلو": 8665,
    "انتقادات": 8666,
    "سولار": 8667,
    "اسحاق": 8668,
    "رعه": 8669,
    "مستند": 8670,
    "ایف": 8671,
    "وشن": 8672,
    "عبدالله": 8673,
    "حبیب": 8674,
    "ایکون": 8675,
    "نگل": 8676,
    "سنا": 8677,
    "▁پناهجو": 8678,
    "▁اکرم": 8679,
    "فراگ": 8680,
    "رسون": 8681,
    "عزیز": 8682,
    "رییس": 8683,
    "قبلا": 8684,
    "▁جادو": 8685,
    "کریس": 8686,
    "ربکا": 8687,
    "▁جل": 8688,
    "باستان": 8689,
    "▁بک": 8690,
    "جنسی": 8691,
    "سارا": 8692,
    "▁شنید": 8693,
    "رانگ": 8694,
    "▁خسرو": 8695,
    "▁سوکا": 8696,
    "▁کوتاهتر": 8697,
    "پانز": 8698,
    "مرح": 8699,
    "▁طاه": 8700,
    "غوری": 8701,
    "نوشت": 8702,
    "کیهان": 8703,
    "نیاز": 8704,
    "کلیف": 8705,
    "ناوگان": 8706,
    "مکرون": 8707,
    "▁استانهای": 8708,
    "▁بازنگشت": 8709,
    "۸۷": 8710,
    "▁جمل": 8711,
    "▁قضائی": 8712,
    "نار": 8713,
    "ناتان": 8714,
    "▁تروریست": 8715,
    "▁کوش": 8716,
    "پروم": 8717,
    "ارتی": 8718,
    "وشکن": 8719,
    "▁شوخ": 8720,
    "یاب": 8721,
    "شاهزاد": 8722,
    "تابلو": 8723,
    "شهرت": 8724,
    "▁گوسفند": 8725,
    "▁مواج": 8726,
    "▁۷۱": 8727,
    "▁شیرها": 8728,
    "زهای": 8729,
    "▁خدای": 8730,
    "گمش": 8731,
    "امک": 8732,
    "▁حالش": 8733,
    "▁تلا": 8734,
    "۳۴": 8735,
    "▁کد": 8736,
    "▁کتا": 8737,
    "کرده": 8738,
    "▁هموطن": 8739,
    "▁هجدهمی": 8740,
    "الیزا": 8741,
    "غلو": 8742,
    "انتقالات": 8743,
    "▁هیچگ": 8744,
    "▁باگ": 8745,
    "ویا": 8746,
    "اندی": 8747,
    "تص": 8748,
    "بیورن": 8749,
    "لز": 8750,
    "لخ": 8751,
    "سیاست": 8752,
    "▁الاح": 8753,
    "▁..": 8754,
    "اسکار": 8755,
    "اسیرو": 8756,
    "▁غواص": 8757,
    "▁واژگ": 8758,
    "تعدد": 8759,
    "▁جوری": 8760,
    "▁میشود": 8761,
    "▁ردیفی": 8762,
    "▁مکاتب": 8763,
    "▁فض": 8764,
    "▁بخوان": 8765,
    "▁مطبوع": 8766,
    "ندگرن": 8767,
    "▁پرور": 8768,
    "▁گروهها": 8769,
    "▁کاو": 8770,
    "▁بیولوژی": 8771,
    "▁کوئ": 8772,
    "▁الشع": 8773,
    "▁بلایندرز": 8774,
    "▁بورکینافاسو": 8775,
    "▁رامهرمز": 8776,
    "▁سوسیالیست": 8777,
    "▁طنزپرداز": 8778,
    "▁مرتضوی": 8779,
    "▁هژمون": 8780,
    "▁انقباض": 8781,
    "▁سریلانکا": 8782,
    "▁ولاسکز": 8783,
    "▁ترائوره": 8784,
    "▁دزفول": 8785,
    "▁سوبرانا": 8786,
    "▁پورنوگرافی": 8787,
    "▁بشنوند": 8788,
    "▁دگرباش": 8789,
    "▁سانفرانسیسکو": 8790,
    "▁مغانلو": 8791,
    "▁پرینسخرا": 8792,
    "▁یوردانس": 8793,
    "▁سرخپوشان": 8794,
    "▁پرسورینس": 8795,
    "▁قیراط": 8796,
    "▁غیاث": 8797,
    "▁رستگار": 8798,
    "▁سارقان": 8799,
    "▁سانتیاگو": 8800,
    "▁ویسکانس": 8801,
    "▁سمنزا": 8802,
    "▁محتکر": 8803,
    "▁مصائب": 8804,
    "▁فرخزاد": 8805,
    "▁بپرسید": 8806,
    "▁جانبازان": 8807,
    "▁عواطف": 8808,
    "▁سوینتن": 8809,
    "▁ناآشنا": 8810,
    "▁نذری": 8811,
    "معجزه": 8812,
    "▁هولدینگ": 8813,
    "▁گلاسگو": 8814,
    "▁نوترینو": 8815,
    "▁بازوبند": 8816,
    "▁وسعت": 8817,
    "▁بیاموز": 8818,
    "▁سوراخ": 8819,
    "▁غیرمجاز": 8820,
    "▁هکتار": 8821,
    "▁آسایشگاه": 8822,
    "▁تظاهرکنندگان": 8823,
    "▁لوکزامبورگ": 8824,
    "▁نافرجام": 8825,
    "▁هیوستون": 8826,
    "▁اساتید": 8827,
    "▁اوتیسم": 8828,
    "▁سرامیک": 8829,
    "▁روزافزون": 8830,
    "▁برلیناله": 8831,
    "▁برسانیم": 8832,
    "▁انهدام": 8833,
    "▁جماعت": 8834,
    "▁انسداد": 8835,
    "▁هیلتون": 8836,
    "▁بغل": 8837,
    "▁مکوندی": 8838,
    "▁شوشتر": 8839,
    "▁الفبا": 8840,
    "▁ناخدا": 8841,
    "▁خمیس": 8842,
    "▁ستمگر": 8843,
    "▁مترمکعب": 8844,
    "ارزپاشی": 8845,
    "▁غیرعمد": 8846,
    "▁فرازمینی": 8847,
    "▁الخروج": 8848,
    "▁غیرمعمول": 8849,
    "▁سهمگین": 8850,
    "▁مقاطع": 8851,
    "▁مادربزرگ": 8852,
    "▁ستیزانه": 8853,
    "▁ارنست": 8854,
    "▁دفعات": 8855,
    "دریچ": 8856,
    "▁شیرجه": 8857,
    "▁بیاییم": 8858,
    "▁مصادیق": 8859,
    "▁مشکاتیان": 8860,
    "▁سیندمی": 8861,
    "▁شیطان": 8862,
    "▁خیری": 8863,
    "▁آتلانتا": 8864,
    "▁۱۳۸۶": 8865,
    "▁کیس": 8866,
    "▁بازگردم": 8867,
    "▁مالزی": 8868,
    "▁مرورگر": 8869,
    "▁معابد": 8870,
    "▁شئون": 8871,
    "▁بنویسد": 8872,
    "▁قراداد": 8873,
    "▁مقبول": 8874,
    "▁دیلن": 8875,
    "▁۱۹۴۴": 8876,
    "▁دلهره": 8877,
    "▁مولایی": 8878,
    "▁همینگوی": 8879,
    "▁سفیدپوست": 8880,
    "▁کانتونا": 8881,
    "▁خودخواهانه": 8882,
    "▁زهیر": 8883,
    "▁باغبان": 8884,
    "▁کالینگ": 8885,
    "دوش": 8886,
    "▁موزیکال": 8887,
    "▁عبرت": 8888,
    "▁آسپر": 8889,
    "▁نگیرد": 8890,
    "▁ایرویز": 8891,
    "▁پرالتهاب": 8892,
    "▁قعر": 8893,
    "▁روانشناس": 8894,
    "پدر": 8895,
    "▁خرابکارانه": 8896,
    "▁تمیز": 8897,
    "▁عابران": 8898,
    "▁۲۶۶": 8899,
    "▁ونچ": 8900,
    "تقی": 8901,
    "▁ترفتال": 8902,
    "▁ماریو": 8903,
    "▁زیربنا": 8904,
    "▁باروک": 8905,
    "▁بنرهای": 8906,
    "▁منکین": 8907,
    "▁خورند": 8908,
    "▁۲۳۹": 8909,
    "▁اغما": 8910,
    "▁احتمالات": 8911,
    "▁گزاف": 8912,
    "عات": 8913,
    "▁بلی": 8914,
    "▁روباه": 8915,
    "وین": 8916,
    "▁تنبل": 8917,
    "▁علیشاهی": 8918,
    "▁بوفالوران": 8919,
    "▁۱۷۵": 8920,
    "▁بوئین": 8921,
    "▁معصوم": 8922,
    "کمیس": 8923,
    "▁بیولوژیک": 8924,
    "ئر": 8925,
    "ستراح": 8926,
    "▁آندریاس": 8927,
    "▁سکس": 8928,
    "▁بازپرس": 8929,
    "▁خجالت": 8930,
    "▁آزاری": 8931,
    "روث": 8932,
    "▁۱۹۱۸": 8933,
    "▁دیسک": 8934,
    "▁۱۵۵": 8935,
    "▁صداقت": 8936,
    "▁درمانگاه": 8937,
    "▁عذاب": 8938,
    "بازدید": 8939,
    "بنوی": 8940,
    "هشت": 8941,
    "▁کلو": 8942,
    "▁نداشتیم": 8943,
    "▁خرنامه": 8944,
    "▁قلمرو": 8945,
    "▁امیدورا": 8946,
    "▁سحرگاه": 8947,
    "▁۱۲۲": 8948,
    "نظار": 8949,
    "▁قبایل": 8950,
    "▁شوکور": 8951,
    "▁شهباز": 8952,
    "▁پاش": 8953,
    "هالیفیلد": 8954,
    "▁چهارصد": 8955,
    "ستردا": 8956,
    "وگو": 8957,
    "▁پیشگیر": 8958,
    "▁سموم": 8959,
    "▁گیج": 8960,
    "▁شنیدنش": 8961,
    "▁بامیه": 8962,
    "▁میناری": 8963,
    "▁ریختند": 8964,
    "▁هولو": 8965,
    "▁۲۶۰": 8966,
    "▁پیوندند": 8967,
    "▁محصور": 8968,
    "مانند": 8969,
    "حک": 8970,
    "▁لرزاند": 8971,
    "▁الگوهای": 8972,
    "▁هموطنان": 8973,
    "▁تحریر": 8974,
    "یگ": 8975,
    "لیو": 8976,
    "▁گوارش": 8977,
    "▁اتمر": 8978,
    "نوا": 8979,
    "▁ربع": 8980,
    "▁ژنوم": 8981,
    "▁مشهود": 8982,
    "▁بگذار": 8983,
    "زند": 8984,
    "▁الاصل": 8985,
    "▁اخطارهای": 8986,
    "▁گرافی": 8987,
    "▁اوساکا": 8988,
    "▁هالووین": 8989,
    "▁کورین": 8990,
    "▁وفا": 8991,
    "▁مجا": 8992,
    "ارنوک": 8993,
    "▁خوابگاه": 8994,
    "▁مش": 8995,
    "یعی": 8996,
    "هند": 8997,
    "▁مهیب": 8998,
    "▁متاسفم": 8999,
    "▁پرتلا": 9000,
    "▁سندگرن": 9001,
    "▁دارالا": 9002,
    "▁رودر": 9003,
    "▁تماشگر": 9004,
    "نگا": 9005,
    "▁گذراندم": 9006,
    "پهن": 9007,
    "▁عزل": 9008,
    "چشمه": 9009,
    "▁هورن": 9010,
    "▁بسط": 9011,
    "▁مفسد": 9012,
    "▁مرزبان": 9013,
    "▁توانمند": 9014,
    "▁گمارد": 9015,
    "▁مرج": 9016,
    "ماد": 9017,
    "▁بنام": 9018,
    "▁فوتسی": 9019,
    "▁اون": 9020,
    "صریح": 9021,
    "▁نمودار": 9022,
    "تولی": 9023,
    "▁نط": 9024,
    "راست": 9025,
    "▁نگذشته": 9026,
    "اسرای": 9027,
    "▁هرج": 9028,
    "▁ویدئوهای": 9029,
    "▁پائیز": 9030,
    "کمپ": 9031,
    "▁هزارتومان": 9032,
    "▁کبود": 9033,
    "میلیا": 9034,
    "ایند": 9035,
    "▁مخالفند": 9036,
    "▁ترسند": 9037,
    "▁وفن": 9038,
    "واگذار": 9039,
    "▁کارآمد": 9040,
    "یتز": 9041,
    "▁یزدان": 9042,
    "▁دستفروش": 9043,
    "▁قبرهای": 9044,
    "▁انگشتان": 9045,
    "▁چریک": 9046,
    "▁آنجل": 9047,
    "▁ماسی": 9048,
    "▁شمع": 9049,
    "▁نرسیدن": 9050,
    "▁گردآ": 9051,
    "▁فرشید": 9052,
    "▁نگا": 9053,
    "▁بدود": 9054,
    "▁کیان": 9055,
    "▁گرون": 9056,
    "سوار": 9057,
    "۱۹۶۴": 9058,
    "▁ساچ": 9059,
    "▁الاه": 9060,
    "▁رستم": 9061,
    "▁آفرید": 9062,
    "▁روبات": 9063,
    "▁مته": 9064,
    "▁لوح": 9065,
    "دس": 9066,
    "هنگ": 9067,
    "▁مطلق": 9068,
    "▁مبه": 9069,
    "▁سیری": 9070,
    "▁شنای": 9071,
    "حی": 9072,
    "▁ایفل": 9073,
    "▁مجرمان": 9074,
    "▁اوتار": 9075,
    "وقف": 9076,
    "▁صفا": 9077,
    "▁فیض": 9078,
    "ولاتش": 9079,
    "رح": 9080,
    "▁پترولی": 9081,
    "فشان": 9082,
    "▁کلت": 9083,
    "ارک": 9084,
    "سالم": 9085,
    "▁معذ": 9086,
    "سانسور": 9087,
    "▁طلاق": 9088,
    "▁صدیق": 9089,
    "▁راهیاب": 9090,
    "▁کتابخوان": 9091,
    "▁حوت": 9092,
    "▁کاش": 9093,
    "▁خوانید": 9094,
    "▁ویسل": 9095,
    "لون": 9096,
    "▁آبه": 9097,
    "ختی": 9098,
    "▁حک": 9099,
    "▁پناهندگان": 9100,
    "▁بزرگسال": 9101,
    "▁منح": 9102,
    "پن": 9103,
    "خشنود": 9104,
    "▁چهلم": 9105,
    "العمل": 9106,
    "▁روده": 9107,
    "نیایی": 9108,
    "▁شهنا": 9109,
    "▁هجدهم": 9110,
    "▁کورس": 9111,
    "هیه": 9112,
    "▁گفتم": 9113,
    "یانگ": 9114,
    "▁کوواکس": 9115,
    "▁تهدیدات": 9116,
    "▁مسیریاب": 9117,
    "ژن": 9118,
    "▁پرمخاط": 9119,
    "▁جلوست": 9120,
    "▁قضای": 9121,
    "▁قامت": 9122,
    "▁مطمئنا": 9123,
    "۴۳": 9124,
    "▁تخار": 9125,
    "▁طبقات": 9126,
    "▁سیاستگذار": 9127,
    "▁همدان": 9128,
    "وردی": 9129,
    "کولبر": 9130,
    "▁خوشایند": 9131,
    "▁خصوصیات": 9132,
    "▁آمری": 9133,
    "▁هجر": 9134,
    "▁فرگوس": 9135,
    "عد": 9136,
    "▁کوچه": 9137,
    "▁ماجراهای": 9138,
    "▁فروشد": 9139,
    "الج": 9140,
    "▁وانگ": 9141,
    "▁نبرده": 9142,
    "ضی": 9143,
    "▁وو": 9144,
    "▁دلا": 9145,
    "▁بدهیم": 9146,
    "▁سالروز": 9147,
    "▁تلک": 9148,
    "▁جدیدش": 9149,
    "▁السلط": 9150,
    "▁بری": 9151,
    "▁سرزن": 9152,
    "مونت": 9153,
    "▁منه": 9154,
    "▁خندد": 9155,
    "آخر": 9156,
    "▁کلاسیکو": 9157,
    "اویر": 9158,
    "▁ترسم": 9159,
    "شایست": 9160,
    "▁مورخ": 9161,
    "یکپا": 9162,
    "ادیوم": 9163,
    "▁رازی": 9164,
    "▁پرتوی": 9165,
    "نشری": 9166,
    "روش": 9167,
    "▁اینست": 9168,
    "▁پذیرد": 9169,
    "طاع": 9170,
    "سالگی": 9171,
    "▁تختی": 9172,
    "دری": 9173,
    "سین": 9174,
    "▁تاس": 9175,
    "انزلی": 9176,
    "▁ندید": 9177,
    "▁سپه": 9178,
    "ارگ": 9179,
    "انو": 9180,
    "▁پاور": 9181,
    "▁الف": 9182,
    "میانه": 9183,
    "راژ": 9184,
    "دهم": 9185,
    "▁نشدم": 9186,
    "▁نوای": 9187,
    "▁تان": 9188,
    "دوم": 9189,
    "▁۱۹۲": 9190,
    "▁حقوقش": 9191,
    "کثیر": 9192,
    "▁رامین": 9193,
    "▁لایک": 9194,
    "غر": 9195,
    "▁لیز": 9196,
    "▁انگ": 9197,
    "ریه": 9198,
    "▁دخ": 9199,
    "گور": 9200,
    "دانف": 9201,
    "▁چاو": 9202,
    "▁ارغ": 9203,
    "▁رسا": 9204,
    "تقبل": 9205,
    "▁سندر": 9206,
    "▁راهور": 9207,
    "▁نیلی": 9208,
    "▁آسو": 9209,
    "کاران": 9210,
    "راکت": 9211,
    "تمایل": 9212,
    "▁لارن": 9213,
    "▁استف": 9214,
    "۳۵": 9215,
    "▁گزی": 9216,
    "اطبا": 9217,
    "زیا": 9218,
    "▁لئوپ": 9219,
    "▁بیکاران": 9220,
    "▁اندیشید": 9221,
    "▁فراپا": 9222,
    "نچ": 9223,
    "اردو": 9224,
    "▁دز": 9225,
    "▁کارول": 9226,
    "▁اسپا": 9227,
    "لانی": 9228,
    "▁وصدا": 9229,
    "▁پدرو": 9230,
    "▁کلن": 9231,
    "جدی": 9232,
    "باف": 9233,
    "▁۱۸۹": 9234,
    "▁ناخ": 9235,
    "وئر": 9236,
    "▁پولدار": 9237,
    "▁تراشید": 9238,
    "▁شودبا": 9239,
    "رضی": 9240,
    "حالی": 9241,
    "▁وتو": 9242,
    "کات": 9243,
    "گذرانند": 9244,
    "اتوری": 9245,
    "▁خفا": 9246,
    "الیف": 9247,
    "▁فدر": 9248,
    "قضی": 9249,
    "▁موری": 9250,
    "▁وارن": 9251,
    "ائوس": 9252,
    "یزی": 9253,
    "▁یونه": 9254,
    "▁نگ": 9255,
    "زود": 9256,
    "▁فیزیوتراپی": 9257,
    "تینگ": 9258,
    "▁اولیو": 9259,
    "وک": 9260,
    "▁ناامیدی": 9261,
    "▁مذاکراتش": 9262,
    "ناوند": 9263,
    "نگو": 9264,
    "▁آهنگی": 9265,
    "▁جووان": 9266,
    "▁تز": 9267,
    "اتب": 9268,
    "▁گله": 9269,
    "یکل": 9270,
    "هرزاد": 9271,
    "والی": 9272,
    "▁نرفتن": 9273,
    "▁خند": 9274,
    "▁درسا": 9275,
    "رل": 9276,
    "▁هریس": 9277,
    "▁امیلی": 9278,
    "دهی": 9279,
    "▁نروژی": 9280,
    "▁فال": 9281,
    "گوید": 9282,
    "ورهم": 9283,
    "ولو": 9284,
    "▁رکس": 9285,
    "ندنی": 9286,
    "فلورای": 9287,
    "خاطره": 9288,
    "▁نبوی": 9289,
    "رنوش": 9290,
    "ورود": 9291,
    "▁بریز": 9292,
    "▁پنس": 9293,
    "نزو": 9294,
    "▁زین": 9295,
    "▁چون": 9296,
    "▁بالاست": 9297,
    "▁دری": 9298,
    "▁دیاب": 9299,
    "▁صن": 9300,
    "▁ابراهیمی": 9301,
    "لزم": 9302,
    "شواری": 9303,
    "▁برچید": 9304,
    "عطا": 9305,
    "▁ایرایی": 9306,
    "▁میانج": 9307,
    "انستان": 9308,
    "▁لین": 9309,
    "▁ندا": 9310,
    "▁پوشا": 9311,
    "قطعی": 9312,
    "▁اصولی": 9313,
    "رمد": 9314,
    "هیج": 9315,
    "گرمی": 9316,
    "▁بلن": 9317,
    "▁مورفی": 9318,
    "▁بلندهای": 9319,
    "▁معتبری": 9320,
    "▁خوار": 9321,
    "▁استوار": 9322,
    "▁واکسنی": 9323,
    "تحرک": 9324,
    "▁گرانش": 9325,
    "▁رومانیا": 9326,
    "▁دوسال": 9327,
    "▁بدنساز": 9328,
    "▁پرستاره": 9329,
    "▁رسیم": 9330,
    "یکا": 9331,
    "▁تسا": 9332,
    "▁دوور": 9333,
    "▁بنی": 9334,
    "میمون": 9335,
    "سرع": 9336,
    "اختا": 9337,
    "▁لویی": 9338,
    "نگر": 9339,
    "ورال": 9340,
    "ذخا": 9341,
    "عریض": 9342,
    "▁نورال": 9343,
    "▁فونت": 9344,
    "بسیار": 9345,
    "▁افزا": 9346,
    "▁مستن": 9347,
    "هنه": 9348,
    "▁دک": 9349,
    "▁رایکو": 9350,
    "▁دقتی": 9351,
    "ساکن": 9352,
    "▁اتم": 9353,
    "▁مگو": 9354,
    "▁مشق": 9355,
    "▁الم": 9356,
    "▁آلک": 9357,
    "شهره": 9358,
    "▁مارین": 9359,
    "▁آرن": 9360,
    "▁دیرین": 9361,
    "▁کنسولی": 9362,
    "لوف": 9363,
    "▁کانا": 9364,
    "میان": 9365,
    "طغ": 9366,
    "▁خصوصا": 9367,
    "یانی": 9368,
    "منت": 9369,
    "▁لال": 9370,
    "ظاهری": 9371,
    "باری": 9372,
    "شهری": 9373,
    "دینامیک": 9374,
    "۴۰۰": 9375,
    "ارپن": 9376,
    "ورش": 9377,
    "بوه": 9378,
    "▁وود": 9379,
    "یگری": 9380,
    "▁رگی": 9381,
    "▁بگویی": 9382,
    "جدید": 9383,
    "▁ایرانایران": 9384,
    "▁افزو": 9385,
    "▁امیدی": 9386,
    "▁کوئی": 9387,
    "▁غزل": 9388,
    "استان": 9389,
    "▁بینداز": 9390,
    "ضیا": 9391,
    "طع": 9392,
    "▁چکی": 9393,
    "خه": 9394,
    "ونتی": 9395,
    "▁سوپ": 9396,
    "ساعت": 9397,
    "▁کنارش": 9398,
    "▁دیا": 9399,
    "▁بدان": 9400,
    "▁انع": 9401,
    "▁خم": 9402,
    "▁دیدگ": 9403,
    "▁مارسل": 9404,
    "▁ویلر": 9405,
    "▁ائ": 9406,
    "عکسی": 9407,
    "متری": 9408,
    "▁بستگ": 9409,
    "▁ببری": 9410,
    "▁گول": 9411,
    "▁همسری": 9412,
    "▁محم": 9413,
    "سکو": 9414,
    "لیبی": 9415,
    "▁فوب": 9416,
    "ایده": 9417,
    "▁سویی": 9418,
    "▁وز": 9419,
    "▁بغ": 9420,
    "▁کامر": 9421,
    "▁صل": 9422,
    "فعال": 9423,
    "ریسون": 9424,
    "▁سکوی": 9425,
    "▁وزر": 9426,
    "▁شوی": 9427,
    "▁عمرم": 9428,
    "واری": 9429,
    "▁الجز": 9430,
    "▁لک": 9431,
    "▁آنف": 9432,
    "▁روا": 9433,
    "غی": 9434,
    "▁اط": 9435,
    "▁ابط": 9436,
    "بدیل": 9437,
    "یض": 9438,
    "▁توخ": 9439,
    "▁بخو": 9440,
    "امگاه": 9441,
    "▁فرمین": 9442,
    "ورز": 9443,
    "واکسن": 9444,
    "گاس": 9445,
    "زاق": 9446,
    "کولی": 9447,
    "▁آنه": 9448,
    "۷۸": 9449,
    "اپور": 9450,
    "▁داران": 9451,
    "▁شار": 9452,
    "رونالدو": 9453,
    "▁گلشی": 9454,
    "اقدام": 9455,
    "▁۱۲۵": 9456,
    "روسازی": 9457,
    "تاریخ": 9458,
    "▁بفهمی": 9459,
    "جمله": 9460,
    "ئوس": 9461,
    "وود": 9462,
    "دمان": 9463,
    "قاد": 9464,
    "پک": 9465,
    "لومین": 9466,
    "آقا": 9467,
    "خرید": 9468,
    "▁آبیار": 9469,
    "▁آت": 9470,
    "وحه": 9471,
    "ترینگ": 9472,
    "ازنده": 9473,
    "▁دولتها": 9474,
    "▁کیش": 9475,
    "خواند": 9476,
    "▁هوادارن": 9477,
    "صدای": 9478,
    "▁۴۸۰": 9479,
    "خور": 9480,
    "▁پاپو": 9481,
    "▁جویا": 9482,
    "رسا": 9483,
    "▁انبارها": 9484,
    "۱۰۰": 9485,
    "ئل": 9486,
    "▁توافقات": 9487,
    "یچک": 9488,
    "چیزی": 9489,
    "اگ": 9490,
    "جران": 9491,
    "▁رویاها": 9492,
    "فرد": 9493,
    "▁وج": 9494,
    "▁سلامتش": 9495,
    "شور": 9496,
    "▁متح": 9497,
    "قچی": 9498,
    "▁کوبی": 9499,
    "▁اوس": 9500,
    "▁بیو": 9501,
    "▁باشی": 9502,
    "▁استانداردها": 9503,
    "۰۹": 9504,
    "▁پاها": 9505,
    "پیدا": 9506,
    "▁گود": 9507,
    "یلیچ": 9508,
    "بول": 9509,
    "وشه": 9510,
    "▁خش": 9511,
    "▁نیکول": 9512,
    "دونا": 9513,
    "ارق": 9514,
    "بازیکن": 9515,
    "کمک": 9516,
    "▁براه": 9517,
    "▁آزم": 9518,
    "▁شدگ": 9519,
    "▁پنداشت": 9520,
    "داخل": 9521,
    "ینکی": 9522,
    "کارت": 9523,
    "▁فرما": 9524,
    "ستین": 9525,
    "فور": 9526,
    "تفاوت": 9527,
    "حمایت": 9528,
    "▁زبانه": 9529,
    "▁سودی": 9530,
    "ودتر": 9531,
    "عیار": 9532,
    "زانه": 9533,
    "بودجه": 9534,
    "▁دریاها": 9535,
    "لاند": 9536,
    "تلویزیون": 9537,
    "▁خص": 9538,
    "سپورت": 9539,
    "▁سول": 9540,
    "برمی": 9541,
    "یلد": 9542,
    "وکس": 9543,
    "ناسا": 9544,
    "یاد": 9545,
    "سترون": 9546,
    "▁غز": 9547,
    "سرمربی": 9548,
    "تایید": 9549,
    "▁حر": 9550,
    "▁بز": 9551,
    "▁اجسا": 9552,
    "شکست": 9553,
    "۸۰۰": 9554,
    "قامت": 9555,
    "کلاس": 9556,
    "وانگ": 9557,
    "شاهد": 9558,
    "المپیک": 9559,
    "۷۷": 9560,
    "سلی": 9561,
    "▁حقوقدان": 9562,
    "ستانی": 9563,
    "میخ": 9564,
    "بیانیه": 9565,
    "قرارداد": 9566,
    "▁جاست": 9567,
    "▁جیم": 9568,
    "▁پارسا": 9569,
    "استار": 9570,
    "فولک": 9571,
    "راز": 9572,
    "انتقال": 9573,
    "وازا": 9574,
    "مصاحبه": 9575,
    "▁مالت": 9576,
    "کوب": 9577,
    "▁بایس": 9578,
    "▁هال": 9579,
    "لیز": 9580,
    "درس": 9581,
    "ظریف": 9582,
    "رایش": 9583,
    "▁غیران": 9584,
    "▁منو": 9585,
    "بارسلونا": 9586,
    "▁داود": 9587,
    "▁سبزی": 9588,
    "جین": 9589,
    "▁ماجراجو": 9590,
    "▁چیپ": 9591,
    "برداشت": 9592,
    "امید": 9593,
    "هیچ": 9594,
    "صحبت": 9595,
    "اتکلیف": 9596,
    "▁هاستل": 9597,
    "واحد": 9598,
    "لکس": 9599,
    "اربی": 9600,
    "▁ارو": 9601,
    "▁تئاترها": 9602,
    "نای": 9603,
    "ریز": 9604,
    "آتش": 9605,
    "▁نظران": 9606,
    "حذف": 9607,
    "▁مبد": 9608,
    "عملیات": 9609,
    "عملکرد": 9610,
    "▁گنجان": 9611,
    "▁زندگیش": 9612,
    "سریال": 9613,
    "▁کامی": 9614,
    "فساد": 9615,
    "آلبر": 9616,
    "ساخته": 9617,
    "توییتر": 9618,
    "چاپ": 9619,
    "سپ": 9620,
    "خودروساز": 9621,
    "جدول": 9622,
    "بریتانیایی": 9623,
    "رابطه": 9624,
    "دبیر": 9625,
    "برخورد": 9626,
    "عظم": 9627,
    "▁ونزوئلای": 9628,
    "مصرف": 9629,
    "سفیر": 9630,
    "بحرین": 9631,
    "▁کردید": 9632,
    "برزیل": 9633,
    "اتاق": 9634,
    "تزریق": 9635,
    "خواننده": 9636,
    "نند": 9637,
    "صعود": 9638,
    "▁گلوی": 9639,
    "▁نویسند": 9640,
    "دیوان": 9641,
    "نهایی": 9642,
    "هدایت": 9643,
    "سفارت": 9644,
    "چار": 9645,
    "معمولا": 9646,
    "کمبود": 9647,
    "نویسندگان": 9648,
    "▁هجده": 9649,
    "▁بارتو": 9650,
    "دروس": 9651,
    "فراموش": 9652,
    "شعر": 9653,
    "سرپرست": 9654,
    "رئال": 9655,
    "آرسنال": 9656,
    "فیسبوک": 9657,
    "نگران": 9658,
    "نادال": 9659,
    "ایسنا": 9660,
    "خیابان": 9661,
    "آذر": 9662,
    "یاط": 9663,
    "مجله": 9664,
    "کاخ": 9665,
    "عصر": 9666,
    "متخصص": 9667,
    "اطمینان": 9668,
    "▁بینم": 9669,
    "بازارهای": 9670,
    "فولاد": 9671,
    "خودکشی": 9672,
    "تجهیزات": 9673,
    "یدن": 9674,
    "جنگل": 9675,
    "▁تجار": 9676,
    "الا": 9677,
    "سرنوشت": 9678,
    "فایزر": 9679,
    "منچسترسیتی": 9680,
    "▁ماورا": 9681,
    "تکمیل": 9682,
    "تدریج": 9683,
    "▁دلی": 9684,
    "▁بریم": 9685,
    "قت": 9686,
    "عرص": 9687,
    "هیوندای": 9688,
    "وبسایت": 9689,
    "عطرساز": 9690,
    "جیمز": 9691,
    "مجری": 9692,
    "غریب": 9693,
    "▁ناخوش": 9694,
    "برخلاف": 9695,
    "▁حریفش": 9696,
    "کیانوش": 9697,
    "حریف": 9698,
    "سوال": 9699,
    "تیرماه": 9700,
    "▁عثمان": 9701,
    "رونالدینیو": 9702,
    "▁معتمد": 9703,
    "فتاح": 9704,
    "مهندس": 9705,
    "جزییات": 9706,
    "معمول": 9707,
    "هفتم": 9708,
    "بنکسی": 9709,
    "یویا": 9710,
    "ذب": 9711,
    "ساترا": 9712,
    "توتال": 9713,
    "کلیسای": 9714,
    "شاملو": 9715,
    "تفاهم": 9716,
    "▁سمرقند": 9717,
    "▁هورمون": 9718,
    "خود": 9719,
    "خالق": 9720,
    "▁گرسن": 9721,
    "بدهی": 9722,
    "آلن": 9723,
    "کوبا": 9724,
    "▁تیرانداز": 9725,
    "جدال": 9726,
    "▁ولای": 9727,
    "▁مزارش": 9728,
    "جعفر": 9729,
    "▁تیفو": 9730,
    "▁۱۸۴": 9731,
    "▁مضا": 9732,
    "▁جهنم": 9733,
    "داریوش": 9734,
    "▁بازیها": 9735,
    "▁واعظ": 9736,
    "ارتش": 9737,
    "▁وسائ": 9738,
    "دیوم": 9739,
    "▁محتوا": 9740,
    "امشب": 9741,
    "ماراتن": 9742,
    "▁ادعاها": 9743,
    "تماس": 9744,
    "▁محدو": 9745,
    "الف": 9746,
    "پیکر": 9747,
    "تس": 9748,
    "رپر": 9749,
    "آشفت": 9750,
    "▁نجوم": 9751,
    "▁مرب": 9752,
    "مدیران": 9753,
    "▁۲۱۶": 9754,
    "پوش": 9755,
    "▁اظهارنظرها": 9756,
    "گمانه": 9757,
    "طالب": 9758,
    "▁شغلها": 9759,
    "علنی": 9760,
    "▁مارکی": 9761,
    "شهرهای": 9762,
    "اوبر": 9763,
    "نوسان": 9764,
    "مثل": 9765,
    "▁برازند": 9766,
    "▁پابل": 9767,
    "▁۶۲۰": 9768,
    "نیت": 9769,
    "▁گرداند": 9770,
    "دوره": 9771,
    "▁دلسوز": 9772,
    "▁۲۰۷": 9773,
    "▁وینفر": 9774,
    "وقی": 9775,
    "▁غفور": 9776,
    "امبو": 9777,
    "امضا": 9778,
    "زبور": 9779,
    "وگند": 9780,
    "شرط": 9781,
    "▁عدل": 9782,
    "▁لوب": 9783,
    "اقت": 9784,
    "سبک": 9785,
    "گارد": 9786,
    "کلت": 9787,
    "پوشانی": 9788,
    "▁رهن": 9789,
    "▁سلب": 9790,
    "▁دیپ": 9791,
    "سمانی": 9792,
    "دومین": 9793,
    "▁فرودست": 9794,
    "▁دیوارها": 9795,
    "تناقض": 9796,
    "ارمی": 9797,
    "▁دهشت": 9798,
    "مرور": 9799,
    "نشدنی": 9800,
    "▁اوستر": 9801,
    "کریست": 9802,
    "▁محک": 9803,
    "سبز": 9804,
    "گذراند": 9805,
    "دات": 9806,
    "طفی": 9807,
    "بالگرد": 9808,
    "▁کشو": 9809,
    "▁دیگ": 9810,
    "▁اپلیکیش": 9811,
    "▁۱۷۳": 9812,
    "شمالی": 9813,
    "یگز": 9814,
    "رمت": 9815,
    "▁تهدیدها": 9816,
    "سترازنکا": 9817,
    "▁مقاوم": 9818,
    "منتف": 9819,
    "▁آدمی": 9820,
    "ریزش": 9821,
    "ضرور": 9822,
    "▁عوا": 9823,
    "تقابل": 9824,
    "طابق": 9825,
    "▁مبتلای": 9826,
    "▁مقدا": 9827,
    "گیرش": 9828,
    "▁کانتون": 9829,
    "بال": 9830,
    "۹۵": 9831,
    "اراگوئه": 9832,
    "پارتمان": 9833,
    "▁ظالم": 9834,
    "ستراز": 9835,
    "دلیلش": 9836,
    "▁ابرکامپیوترها": 9837,
    "▁الکترومغناطیس": 9838,
    "▁سولوویوف": 9839,
    "▁ناپلئون": 9840,
    "▁ژئوپلتیک": 9841,
    "▁همقطاران": 9842,
    "▁تمسخر": 9843,
    "▁غوغای": 9844,
    "▁اسپانسر": 9845,
    "▁اکونومی": 9846,
    "▁شرمسار": 9847,
    "▁پولانسکی": 9848,
    "▁وبلاگ": 9849,
    "▁وبیتکو": 9850,
    "▁خویشاوند": 9851,
    "▁متعاقب": 9852,
    "▁متذکر": 9853,
    "▁انسولین": 9854,
    "▁تکواندو": 9855,
    "▁فینچر": 9856,
    "▁سمنگان": 9857,
    "▁فاحش": 9858,
    "▁هورایزن": 9859,
    "▁نردبان": 9860,
    "▁سیدابراهیم": 9861,
    "▁خاستگاه": 9862,
    "▁العالم": 9863,
    "▁اگنس": 9864,
    "▁سمفونی": 9865,
    "لجستیک": 9866,
    "ناملموس": 9867,
    "▁مانیتور": 9868,
    "▁اوکلاه": 9869,
    "▁صحافی": 9870,
    "▁گمپرت": 9871,
    "▁تظاهر": 9872,
    "▁مقننه": 9873,
    "▁چهارچوب": 9874,
    "▁مخترع": 9875,
    "▁جوانبخت": 9876,
    "▁استنشاق": 9877,
    "▁بااستعداد": 9878,
    "▁اسنوبرد": 9879,
    "▁مهدیخانی": 9880,
    "▁سربگیرند": 9881,
    "▁اتوبان": 9882,
    "▁خرگوش": 9883,
    "▁کالینز": 9884,
    "▁بکشاند": 9885,
    "▁عقوبت": 9886,
    "▁کربلا": 9887,
    "▁وصیت": 9888,
    "▁مزاح": 9889,
    "▁نباشیم": 9890,
    "▁بمانید": 9891,
    "▁فورهند": 9892,
    "▁نیفتند": 9893,
    "▁مقتض": 9894,
    "▁مرزبندی": 9895,
    "▁۵۳ساله": 9896,
    "▁کلمبو": 9897,
    "▁گنجایش": 9898,
    "▁موتورسوار": 9899,
    "▁بیندازید": 9900,
    "حرمسرا": 9901,
    "▁آلمادو": 9902,
    "▁اوباش": 9903,
    "تیاگو": 9904,
    "رافی": 9905,
    "▁فرازمند": 9906,
    "▁پردیس": 9907,
    "▁گلیزر": 9908,
    "▁تشابه": 9909,
    "▁آلفرد": 9910,
    "▁بنشینند": 9911,
    "▁حشرات": 9912,
    "▁بشناسد": 9913,
    "▁اوصاف": 9914,
    "▁الکسی": 9915,
    "▁ببخشد": 9916,
    "▁قرائ": 9917,
    "▁بکاهد": 9918,
    "▁امثال": 9919,
    "▁ضدویروس": 9920,
    "▁فروزان": 9921,
    "▁حیفا": 9922,
    "▁درنوردید": 9923,
    "▁هتلداران": 9924,
    "رجب": 9925,
    "▁گاندو": 9926,
    "▁دستورها": 9927,
    "▁پنهانکاری": 9928,
    "▁پرنفوذ": 9929,
    "مویرگی": 9930,
    "▁الاغ": 9931,
    "▁بصیر": 9932,
    "▁آنالیز": 9933,
    "▁بگریزد": 9934,
    "▁قرآن": 9935,
    "▁متأسف": 9936,
    "▁تلاقی": 9937,
    "▁قاپید": 9938,
    "▁تبهکار": 9939,
    "▁۱۹۱۲": 9940,
    "▁دستگیرزاده": 9941,
    "▁سالوادور": 9942,
    "▁بیایید": 9943,
    "▁اپوز": 9944,
    "▁سنجاب": 9945,
    "▁ومعرف": 9946,
    "▁بزنید": 9947,
    "▁۱۳۸۰": 9948,
    "▁ابلهان": 9949,
    "▁روایات": 9950,
    "▁وولف": 9951,
    "▁۶۱۲": 9952,
    "▁متهیا": 9953,
    "▁گیگاب": 9954,
    "▁عوام": 9955,
    "▁بزنیم": 9956,
    "▁نوازد": 9957,
    "▁بیابند": 9958,
    "▁بوسد": 9959,
    "▁بروکلی": 9960,
    "▁توکلی": 9961,
    "▁گریختند": 9962,
    "▁بندپی": 9963,
    "▁مسیرها": 9964,
    "▁بردارم": 9965,
    "▁۱۹۳۹": 9966,
    "▁فاسد": 9967,
    "▁فد": 9968,
    "▁واداشته": 9969,
    "▁سمع": 9970,
    "▁فلسطینی": 9971,
    "▁ریاکاری": 9972,
    "▁مکاتبات": 9973,
    "▁احرا": 9974,
    "▁کوانت": 9975,
    "▁آپارت": 9976,
    "▁ولیحی": 9977,
    "▁آلترن": 9978,
    "▁حماسی": 9979,
    "▁رهنوش": 9980,
    "▁متما": 9981,
    "▁شنیدم": 9982,
    "▁غفار": 9983,
    "▁ندانستند": 9984,
    "▁بنویس": 9985,
    "▁پراوی": 9986,
    "▁هدفمند": 9987,
    "ضلع": 9988,
    "▁کولون": 9989,
    "▁آق": 9990,
    "ندرت": 9991,
    "▁عنف": 9992,
    "▁سرمست": 9993,
    "لگرام": 9994,
    "▁خطرهای": 9995,
    "▁اولترا": 9996,
    "▁هرسال": 9997,
    "▁فرمایش": 9998,
    "▁استیشن": 9999,
    "▁رافا": 10000,
    "▁گذرا": 10001,
    "▁طومار": 10002,
    "▁ملایم": 10003,
    "▁شرافت": 10004,
    "▁جنایات": 10005,
    "▁ترفندهای": 10006,
    "▁معط": 10007,
    "▁نامطلوب": 10008,
    "▁مگاصیص": 10009,
    "▁الک": 10010,
    "▁بازوهای": 10011,
    "▁گاسکوئین": 10012,
    "▁ولگردها": 10013,
    "روژن": 10014,
    "▁دوب": 10015,
    "▁ناباور": 10016,
    "▁گسست": 10017,
    "▁هوی": 10018,
    "پابلیک": 10019,
    "▁ناظمی": 10020,
    "▁نومید": 10021,
    "▁گزارشش": 10022,
    "▁ناراحتند": 10023,
    "▁منشور": 10024,
    "▁حکاک": 10025,
    "▁فالک": 10026,
    "▁نوگرا": 10027,
    "▁متروک": 10028,
    "▁آغازکرد": 10029,
    "▁جالبند": 10030,
    "▁خیاط": 10031,
    "ویتز": 10032,
    "▁پردازیم": 10033,
    "▁ضمیر": 10034,
    "بندهای": 10035,
    "▁برچی": 10036,
    "▁الکترودهای": 10037,
    "▁کشمیر": 10038,
    "کریک": 10039,
    "حکیم": 10040,
    "▁پوسترهای": 10041,
    "▁گرانبهای": 10042,
    "▁کاوش": 10043,
    "▁زرتشتی": 10044,
    "▁کاونت": 10045,
    "▁گذا": 10046,
    "▁هنرش": 10047,
    "▁لئون": 10048,
    "▁آندریا": 10049,
    "▁الاسلام": 10050,
    "▁نگشته": 10051,
    "▁جهانبخ": 10052,
    "▁ایت": 10053,
    "▁خونبار": 10054,
    "ناپس": 10055,
    "▁رقصیدن": 10056,
    "▁پسندید": 10057,
    "▁پالیس": 10058,
    "▁چرخاند": 10059,
    "سرگ": 10060,
    "▁هملت": 10061,
    "تراتو": 10062,
    "▁اکولوژی": 10063,
    "▁۱۶۶": 10064,
    "▁مسلم": 10065,
    "اوج": 10066,
    "▁دال": 10067,
    "▁قمر": 10068,
    "مالی": 10069,
    "▁رادارها": 10070,
    "سایر": 10071,
    "▁پرفسور": 10072,
    "▁کوکو": 10073,
    "▁درانتخابات": 10074,
    "▁غص": 10075,
    "زیچ": 10076,
    "▁تاکسیران": 10077,
    "▁ربود": 10078,
    "▁نرود": 10079,
    "▁فقرا": 10080,
    "▁مشوقهای": 10081,
    "▁گیت": 10082,
    "کشور": 10083,
    "▁نزدند": 10084,
    "▁ترمز": 10085,
    "▁خوانیم": 10086,
    "▁پاکیز": 10087,
    "▁فدریک": 10088,
    "یغ": 10089,
    "▁خوابید": 10090,
    "▁شکس": 10091,
    "▁درگذشتمحمد": 10092,
    "ذا": 10093,
    "▁تحص": 10094,
    "▁واژگان": 10095,
    "▁لودو": 10096,
    "▁باربارا": 10097,
    "▁پنتاگون": 10098,
    "▁ندادم": 10099,
    "▁معبد": 10100,
    "▁بساط": 10101,
    "▁پرماجرا": 10102,
    "تیس": 10103,
    "توم": 10104,
    "▁بپیچ": 10105,
    "▁آوردیم": 10106,
    "▁مانورهای": 10107,
    "انیا": 10108,
    "▁انریک": 10109,
    "▁دیوارنگار": 10110,
    "▁زدیم": 10111,
    "▁درخشد": 10112,
    "نسل": 10113,
    "▁آرمانگرا": 10114,
    "▁گرکان": 10115,
    "▁گردآمد": 10116,
    "▁برخوردارند": 10117,
    "۷۲": 10118,
    "▁مبنا": 10119,
    "▁فاصل": 10120,
    "▁دفاعیات": 10121,
    "▁پهپادهای": 10122,
    "▁ایستادن": 10123,
    "▁بازنگشته": 10124,
    "یژ": 10125,
    "▁جزیرو": 10126,
    "ننده": 10127,
    "زیاد": 10128,
    "▁منصف": 10129,
    "▁چشمه": 10130,
    "▁حادتر": 10131,
    "▁اکستر": 10132,
    "بشر": 10133,
    "▁نیکو": 10134,
    "بلنک": 10135,
    "▁طالب": 10136,
    "▁خیرخواه": 10137,
    "چک": 10138,
    "ضراب": 10139,
    "▁واعظی": 10140,
    "▁غیرم": 10141,
    "▁مکید": 10142,
    "اگرا": 10143,
    "▁کاکس": 10144,
    "▁بخواب": 10145,
    "رسانی": 10146,
    "▁یونیو": 10147,
    "نادر": 10148,
    "▁الو": 10149,
    "▁دیسکی": 10150,
    "▁نوشتاری": 10151,
    "پات": 10152,
    "▁قدیس": 10153,
    "▁نونو": 10154,
    "سند": 10155,
    "▁روایتگر": 10156,
    "▁مسج": 10157,
    "▁کولا": 10158,
    "▁بوتا": 10159,
    "▁فرمانیه": 10160,
    "▁غنای": 10161,
    "چندان": 10162,
    "درمانی": 10163,
    "نورلند": 10164,
    "▁ابزارک": 10165,
    "رفتار": 10166,
    "▁کینگز": 10167,
    "▁فیروزجا": 10168,
    "▁داکا": 10169,
    "بنز": 10170,
    "▁مارکان": 10171,
    "▁نگارم": 10172,
    "▁کوهنوردان": 10173,
    "زارها": 10174,
    "تعدادی": 10175,
    "نسان": 10176,
    "▁چغا": 10177,
    "فهیم": 10178,
    "▁پولها": 10179,
    "گزین": 10180,
    "▁خسروی": 10181,
    "▁رحیم": 10182,
    "▁فتوا": 10183,
    "کیا": 10184,
    "چیان": 10185,
    "▁درمیان": 10186,
    "▁سیستانی": 10187,
    "فراز": 10188,
    "هاوس": 10189,
    "▁عرق": 10190,
    "▁نقدهای": 10191,
    "▁آغازکرده": 10192,
    "هشتم": 10193,
    "تورباز": 10194,
    "▁اندبا": 10195,
    "▁ترها": 10196,
    "▁آمیزش": 10197,
    "▁حسی": 10198,
    "پذیری": 10199,
    "▁سودده": 10200,
    "انجیر": 10201,
    "اقبال": 10202,
    "▁بلندق": 10203,
    "نگی": 10204,
    "لینک": 10205,
    "▁ث": 10206,
    "تناب": 10207,
    "اح": 10208,
    "انح": 10209,
    "▁پرداختن": 10210,
    "▁نوده": 10211,
    "▁لیورپولی": 10212,
    "قایق": 10213,
    "ونیک": 10214,
    "▁لاین": 10215,
    "▁وک": 10216,
    "▁کورن": 10217,
    "▁سلط": 10218,
    "▁پیوستند": 10219,
    "▁کراش": 10220,
    "شناخت": 10221,
    "▁همنوا": 10222,
    "کای": 10223,
    "وانا": 10224,
    "جرد": 10225,
    "▁زیردریا": 10226,
    "▁هرچیز": 10227,
    "سیلو": 10228,
    "صالحی": 10229,
    "▁جرئ": 10230,
    "آمده": 10231,
    "چس": 10232,
    "کلاسی": 10233,
    "▁بردیم": 10234,
    "▁وینس": 10235,
    "کشید": 10236,
    "▁مواجهند": 10237,
    "▁کولاک": 10238,
    "حانی": 10239,
    "▁هنرپیشگ": 10240,
    "خنده": 10241,
    "▁تحم": 10242,
    "▁تکراری": 10243,
    "▁متش": 10244,
    "سارو": 10245,
    "اشتن": 10246,
    "▁میلو": 10247,
    "سک": 10248,
    "لابی": 10249,
    "▁جوانب": 10250,
    "▁حوز": 10251,
    "ادزه": 10252,
    "▁بروی": 10253,
    "هیز": 10254,
    "▁شنوند": 10255,
    "وث": 10256,
    "پشتکاری": 10257,
    "▁دفع": 10258,
    "شیده": 10259,
    "ثه": 10260,
    "مس": 10261,
    "تژیک": 10262,
    "دافع": 10263,
    "اکبری": 10264,
    "▁شیعی": 10265,
    "▁شهرنشین": 10266,
    "▁بیدگ": 10267,
    "▁دروغگوی": 10268,
    "ستحکم": 10269,
    "▁خاطراتی": 10270,
    "فاخر": 10271,
    "امرویل": 10272,
    "▁منس": 10273,
    "▁کیلی": 10274,
    "▁نپرداخت": 10275,
    "▁اینترف": 10276,
    "جمعی": 10277,
    "عود": 10278,
    "▁استانها": 10279,
    "▁نشرات": 10280,
    "رند": 10281,
    "پسون": 10282,
    "قطب": 10283,
    "▁خونی": 10284,
    "▁سرکو": 10285,
    "▁استکه": 10286,
    "فرمانی": 10287,
    "▁انف": 10288,
    "خدم": 10289,
    "▁موزی": 10290,
    "خوف": 10291,
    "▁فرشت": 10292,
    "ثمی": 10293,
    "▁مکزیکو": 10294,
    "امور": 10295,
    "▁تازیان": 10296,
    "▁حسابش": 10297,
    "نتین": 10298,
    "وصدا": 10299,
    "▁اجراست": 10300,
    "▁لارو": 10301,
    "کلا": 10302,
    "نواختر": 10303,
    "ئیت": 10304,
    "گفتگوی": 10305,
    "۷۱۰": 10306,
    "▁چپگرای": 10307,
    "▁برو": 10308,
    "▁پلاکاردها": 10309,
    "▁دایم": 10310,
    "▁کنج": 10311,
    "▁مولد": 10312,
    "▁دمید": 10313,
    "▁مم": 10314,
    "▁چول": 10315,
    "▁لورن": 10316,
    "▁فاخر": 10317,
    "▁آنتو": 10318,
    "▁لگو": 10319,
    "▁شهره": 10320,
    "▁بشویی": 10321,
    "سکین": 10322,
    "▁۲۰۶": 10323,
    "پیک": 10324,
    "▁ماجراجوی": 10325,
    "▁فرمانی": 10326,
    "رسیده": 10327,
    "▁بادام": 10328,
    "همراه": 10329,
    "فوتبال": 10330,
    "خدایی": 10331,
    "پار": 10332,
    "▁پوسید": 10333,
    "▁یادگاری": 10334,
    "ریف": 10335,
    "لغ": 10336,
    "ذه": 10337,
    "تیر": 10338,
    "پال": 10339,
    "ضمن": 10340,
    "▁همدم": 10341,
    "▁پسند": 10342,
    "▁خوردند": 10343,
    "وزش": 10344,
    "▁سندی": 10345,
    "▁ماهان": 10346,
    "▁منش": 10347,
    "خالی": 10348,
    "۶۸": 10349,
    "▁آسیاب": 10350,
    "ندا": 10351,
    "▁میمن": 10352,
    "▁دارن": 10353,
    "▁روست": 10354,
    "▁گذرانی": 10355,
    "▁ژر": 10356,
    "▁آئ": 10357,
    "وتنبرگ": 10358,
    "▁دلخو": 10359,
    "قطر": 10360,
    "الیس": 10361,
    "نسی": 10362,
    "یتی": 10363,
    "▁سالخورد": 10364,
    "طب": 10365,
    "▁هادی": 10366,
    "▁کارتونی": 10367,
    "▁میکردند": 10368,
    "نوری": 10369,
    "عرض": 10370,
    "▁لیر": 10371,
    "▁برنج": 10372,
    "▁نابینای": 10373,
    "چهل": 10374,
    "وخته": 10375,
    "▁پریان": 10376,
    "نازل": 10377,
    "▁بالدار": 10378,
    "ارتوم": 10379,
    "▁انگیزش": 10380,
    "▁اروپای": 10381,
    "▁بیند": 10382,
    "▁برسید": 10383,
    "ریال": 10384,
    "▁بازد": 10385,
    "▁آرکا": 10386,
    "▁خف": 10387,
    "لنگر": 10388,
    "ماگو": 10389,
    "توت": 10390,
    "رباب": 10391,
    "یافت": 10392,
    "قل": 10393,
    "جیح": 10394,
    "بشار": 10395,
    "▁نع": 10396,
    "واضع": 10397,
    "▁دخترم": 10398,
    "▁عواقبی": 10399,
    "انتری": 10400,
    "اخ": 10401,
    "▁خودس": 10402,
    "▁رزمند": 10403,
    "▁اورک": 10404,
    "▁زهی": 10405,
    "▁تصو": 10406,
    "▁بخوانی": 10407,
    "دنی": 10408,
    "▁تورب": 10409,
    "▁پتر": 10410,
    "یته": 10411,
    "▁تایلندی": 10412,
    "▁دات": 10413,
    "▁کولبری": 10414,
    "▁استکمی": 10415,
    "▁پودر": 10416,
    "یادی": 10417,
    "حسا": 10418,
    "▁سوک": 10419,
    "۰۵": 10420,
    "▁رک": 10421,
    "▁نبردی": 10422,
    "▁هرل": 10423,
    "▁دوک": 10424,
    "۳۶": 10425,
    "▁کیفی": 10426,
    "▁اض": 10427,
    "▁زب": 10428,
    "▁نیستید": 10429,
    "رسانده": 10430,
    "▁شغلهای": 10431,
    "کاب": 10432,
    "رصدخان": 10433,
    "لیدی": 10434,
    "▁برآن": 10435,
    "سرین": 10436,
    "نیتو": 10437,
    "▁ایروان": 10438,
    "▁فریبی": 10439,
    "اینس": 10440,
    "▁ابرها": 10441,
    "لاشی": 10442,
    "▁شدبا": 10443,
    "▁لیپ": 10444,
    "▁کمپا": 10445,
    "اذب": 10446,
    "▁افغانی": 10447,
    "دورا": 10448,
    "▁بکنند": 10449,
    "جلس": 10450,
    "▁هچ": 10451,
    "تگان": 10452,
    "رستان": 10453,
    "▁گنجه": 10454,
    "دبی": 10455,
    "خونی": 10456,
    "اتمی": 10457,
    "تح": 10458,
    "نالد": 10459,
    "وانیم": 10460,
    "وکلا": 10461,
    "▁شبان": 10462,
    "▁سفال": 10463,
    "شکر": 10464,
    "▁کنگو": 10465,
    "▁جهانگرد": 10466,
[...]
