ی	-2.6861
ه	-3.38543
</s>	0
<unk>	0
.	-3.85866
ان	-4.17642
ت	-4.18974
د	-4.2619
م	-4.29608
ل	-4.32962
ر	-4.37381
▁	-4.43043
ش	-4.44155
▁است	-4.44243
ن	-4.54029
ا	-4.58394
▁می	-4.63349
ب	-4.63734
س	-4.77494
و	-4.78868
▁م	-4.92146
▁های	-4.98483
▁ایران	-5.03344
ق	-5.07076
ک	-5.08641
ز	-5.14435
ع	-5.17044
ور	-5.26724
ات	-5.28255
ف	-5.30717
ند	-5.31367
▁ت	-5.34758
▁بر	-5.41817
▁سال	-5.43428
▁ا	-5.43785
ار	-5.43846
▁ن	-5.43933
▁شده	-5.45759
،	-5.48531
خ	-5.49682
ین	-5.51616
ال	-5.52862
ح	-5.54686
▁بود	-5.56198
▁ها	-5.56987
▁یک	-5.57393
ست	-5.58635
▁شد	-5.59396
ص	-5.62373
▁ع	-5.62444
ام	-5.64081
▁ای	-5.66766
▁ب	-5.68149
▁س	-5.68909
▁و	-5.69783
ج	-5.71348
▁ف	-5.71736
▁ش	-5.73272
▁آ	-5.78036
▁دو	-5.78733
▁خ	-5.81987
پ	-5.82063
ون	-5.82352
▁تصویر	-5.82674
▁کرده	-5.86332
های	-5.86334
▁کرد	-5.86981
ده	-5.87316
▁ر	-5.88506
▁ج	-5.89136
اد	-5.90174
▁در	-5.94473
منبع	-6.01502
از	-6.0354
▁کار	-6.0356
گ	-6.04926
▁اند	-6.06064
ط	-6.0647
ای	-6.07025
▁ح	-6.07742
▁خود	-6.10348
▁شود	-6.10626
▁د	-6.10952
▁گفته	-6.12959
▁کند	-6.20865
را	-6.21231
یت	-6.21667
▁با	-6.2243
▁پ	-6.22457
ید	-6.22845
؛	-6.23064
▁سر	-6.23481
▁روز	-6.23537
▁پیش	-6.2539
▁ق	-6.26306
گر	-6.26663
ری	-6.26967
بر	-6.27238
▁کرونا	-6.27956
ود	-6.31603
▁دست	-6.33147
▁ه	-6.33428
▁بی	-6.33644
در	-6.34362
اب	-6.35315
تر	-6.35421
▁فر	-6.35655
▁ماه	-6.3754
اس	-6.37686
چ	-6.40172
▁کشور	-6.40792
غ	-6.4108
نا	-6.43291
۰	-6.46998
نگ	-6.4747
مان	-6.4759
▁به	-6.47952
▁گزارش	-6.4858
ول	-6.48703
▁آمریکا	-6.49344
ها	-6.50373
▁یا	-6.508
ض	-6.51291
▁سو	-6.55054
▁گفت	-6.55208
ما	-6.55862
▁ص	-6.56007
▁کنند	-6.56095
لا	-6.56849
وی	-6.576
▁تر	-6.58145
گی	-6.60741
دا	-6.61264
دی	-6.63197
گاه	-6.63642
▁ک	-6.64697
▁نا	-6.65323
▁را	-6.65613
▁بازی	-6.65696
▁دیگر	-6.65787
▁فوتبال	-6.65911
▁گ	-6.669
لی	-6.67523
▁دولت	-6.68124
ئ	-6.68331
▁هر	-6.70936
▁مر	-6.71233
▁داد	-6.71707
▁رو	-6.71847
▁دارد	-6.72005
یم	-6.72377
خت	-6.72724
▁تیم	-6.75026
▁چ	-6.75181
▁دهد	-6.75248
ایی	-6.75395
▁اعلام	-6.76022
یر	-6.76922
▁ز	-6.7714
با	-6.77386
▁پا	-6.7831
▁بین	-6.78638
▁شرکت	-6.79893
▁بار	-6.79952
▁نام	-6.80147
▁مت	-6.80621
▁قرار	-6.81354
▁ط	-6.82768
▁هزار	-6.83291
▁تو	-6.84217
ث	-6.84366
▁ل	-6.84844
▁مو	-6.8499
ذ	-6.85222
▁شهر	-6.85487
ژ	-6.85552
▁پس	-6.86532
▁جهان	-6.87018
▁پر	-6.87266
▁مس	-6.87416
نی	-6.87468
وا	-6.87514
▁داده	-6.87855
▁هم	-6.8902
▁باز	-6.89079
ظ	-6.89361
▁نو	-6.89449
رو	-6.89654
▁سه	-6.90159
▁مع	-6.90231
▁رئیس	-6.90434
▁دی	-6.90813
می	-6.90939
یک	-6.92406
▁آن	-6.94258
اج	-6.94758
ستان	-6.96589
▁اس	-6.96856
▁گذشته	-6.96913
▁۲	-6.97708
▁ام	-6.98767
نده	-6.9883
▁سا	-6.99034
۹	-6.9905
▁خواهد	-6.99429
کن	-6.99535
سی	-6.99759
▁کا	-6.99865
▁آقای	-6.99887
▁او	-7.00507
▁گوید	-7.00587
آ	-7.01113
▁داشت	-7.0135
▁۳	-7.0263
اف	-7.02637
▁رسید	-7.02694
وم	-7.03093
▁مج	-7.03136
▁بعد	-7.03379
▁سی	-7.03767
اک	-7.03838
این	-7.04385
▁روی	-7.05622
▁پی	-7.06073
▁چند	-7.06085
▁دربار	-7.06099
مین	-7.06151
▁نفت	-7.06213
او	-7.06993
وش	-7.07114
▁کل	-7.07361
▁مح	-7.07966
▁قهرمان	-7.08093
▁از	-7.08663
دار	-7.08922
▁نفر	-7.09073
رس	-7.09304
▁آنها	-7.09338
▁تهران	-7.09517
کار	-7.09537
▁اج	-7.09608
لو	-7.10019
▁میلیون	-7.10813
▁کن	-7.10929
▁بازار	-7.11661
▁شا	-7.11801
▁باید	-7.11983
۸	-7.12134
▁فیلم	-7.12134
▁من	-7.12599
▁دلیل	-7.12745
▁درصد	-7.12877
▁خارج	-7.1323
▁آم	-7.13844
▁افزایش	-7.14706
بی	-7.15041
▁ارز	-7.1515
۲	-7.15502
▁جدید	-7.15854
زی	-7.15979
▁افغانستان	-7.16096
▁حال	-7.1622
▁'	-7.16881
۱	-7.17727
▁گر	-7.18271
'	-7.18594
▁خبر	-7.1875
گو	-7.18952
▁هفته	-7.19566
▁لیگ	-7.19842
فت	-7.20521
▁قیمت	-7.20602
▁بد	-7.21425
▁بیشتر	-7.2155
فا	-7.21557
گان	-7.21868
▁اروپا	-7.22457
ران	-7.22492
▁زمان	-7.2262
به	-7.22726
▁ال	-7.2332
▁۴	-7.23869
▁تا	-7.2489
:	-7.25317
ترین	-7.25421
▁دلار	-7.25623
▁علی	-7.25753
▁بزرگ	-7.25872
۵	-7.26104
▁شب	-7.26321
▁همچن	-7.26572
▁اش	-7.26697
وز	-7.27072
▁گرفت	-7.27091
▁بوده	-7.27096
▁کم	-7.27477
▁اول	-7.2782
▁بریتانیا	-7.27837
کر	-7.27877
▁نظر	-7.28274
▁ملی	-7.28307
▁اخیر	-7.28703
▁برگزار	-7.2898
▁سازمان	-7.28981
▁دار	-7.29308
فر	-7.29486
▁۵	-7.2979
▁رفت	-7.3005
▁ویروس	-7.30132
▁نمی	-7.30254
▁هستند	-7.30428
▁جمهوری	-7.30595
▁تولید	-7.30872
۶	-7.32011
▁جهانی	-7.32061
▁۱۹	-7.32184
▁مورد	-7.32294
مند	-7.32297
▁کو	-7.32635
▁عنوان	-7.3278
▁جو	-7.32857
▁همه	-7.33076
▁نیست	-7.33409
▁بخش	-7.3355
▁گل	-7.34048
کس	-7.34355
گذار	-7.34992
کی	-7.35292
▁تع	-7.35312
▁ترین	-7.35338
▁راه	-7.35395
▁گرفته	-7.361
▁گو	-7.36378
▁امروز	-7.36802
من	-7.37249
▁پرو	-7.37416
له	-7.37573
▁مرکز	-7.37674
▁ورزش	-7.37816
▁مد	-7.3898
▁بن	-7.39365
▁کس	-7.3944
▁مجلس	-7.39889
▁بالا	-7.39891
▁کر	-7.40242
▁کردند	-7.40316
سا	-7.40431
▁شدن	-7.40542
▁وزارت	-7.40837
۴	-7.41087
۷	-7.41415
▁وزیر	-7.41501
▁چهار	-7.42006
▁کاهش	-7.42036
▁بیش	-7.4264
▁قبل	-7.43074
▁تح	-7.43861
انه	-7.43945
وس	-7.44174
▁غ	-7.45234
▁۹	-7.45348
▁یکی	-7.45371
▁اساس	-7.4578
▁چین	-7.45791
▁۲۰۱	-7.46693
▁مقابل	-7.46995
▁آغاز	-7.46997
▁ار	-7.473
▁نیز	-7.48356
▁حدود	-7.48566
▁نشان	-7.48588
بار	-7.48856
اری	-7.4915
▁بانک	-7.49712
▁زن	-7.49783
۳	-7.50889
▁بودند	-7.51203
▁حضور	-7.51385
کو	-7.51564
▁گروه	-7.51609
▁یافت	-7.5233
▁ساخت	-7.52511
▁زمین	-7.53589
▁داشته	-7.53917
کا	-7.53941
▁۶	-7.54136
▁باشگاه	-7.54484
وان	-7.54637
▁آب	-7.54941
نامه	-7.55121
▁پایان	-7.55284
▁انجام	-7.55596
قط	-7.56004
▁نیم	-7.56281
▁برنامه	-7.56426
پر	-7.56592
▁صورت	-7.56746
دن	-7.57226
▁باشد	-7.5774
▁هنر	-7.57956
▁وارد	-7.5812
▁منتشر	-7.58634
۰۰	-7.5882
کل	-7.59744
▁محمد	-7.59931
▁رسان	-7.60029
▁اقتصادی	-7.60249
▁واکسن	-7.60385
داد	-7.6145
▁یو	-7.61471
نه	-7.61576
▁مدیر	-7.61597
▁اولین	-7.62064
▁تحریم	-7.62173
که	-7.62233
شان	-7.6262
▁مقام	-7.6361
▁بازیکن	-7.63657
▁میلیارد	-7.6521
▁حقوق	-7.65416
▁تاریخ	-7.65421
اق	-7.65485
▁آزاد	-7.65641
▁تومان	-7.65644
دامه	-7.65972
▁سن	-7.66082
▁استفاده	-7.66461
داری	-7.66563
▁جمله	-7.6688
▁شیوع	-7.67083
▁شوند	-7.67358
▁تمام	-7.67368
▁پنج	-7.6737
▁توافق	-7.67714
▁۱۳	-7.68349
▁فصل	-7.69241
▁غیر	-7.69502
▁شورا	-7.69587
▁جمع	-7.69895
▁خودرو	-7.70451
روز	-7.7058
گیری	-7.71357
دو	-7.71403
▁تغییر	-7.71588
▁۷	-7.7168
آقای	-7.72376
▁خوا	-7.72707
▁زندگی	-7.73141
▁توان	-7.73808
▁وجود	-7.73817
▁خواست	-7.74206
▁مسابقه	-7.74258
▁پو	-7.74427
▁جام	-7.74738
▁همین	-7.74952
وار	-7.75052
ازه	-7.75795
▁ماشین	-7.7585
▁نزدیک	-7.77001
▁مسابقات	-7.77233
زا	-7.7761
▁جا	-7.78298
▁ده	-7.7835
ندگان	-7.78467
سازی	-7.78497
▁دارند	-7.78524
▁جان	-7.78542
؟	-7.78636
▁مردم	-7.78702
▁المللی	-7.79821
▁ان	-7.80315
▁گیری	-7.80515
▁فروش	-7.80718
▁اعتراض	-7.82723
▁سابق	-7.82748
▁بو	-7.83182
▁انتخابات	-7.83237
ثبت	-7.83255
▁زد	-7.83417
▁تنها	-7.83541
▁ض	-7.83748
▁اف	-7.84181
جو	-7.84382
▁وقت	-7.8479
رضا	-7.8483
▁دنیا	-7.84981
▁مالی	-7.85018
▁آینده	-7.86038
▁برای	-7.86292
▁تواند	-7.86622
▁افراد	-7.86995
▁زنان	-7.87266
▁میان	-7.87313
▁خانه	-7.87588
▁شمار	-7.87616
▁شدند	-7.87905
▁مهم	-7.87982
▁امنیت	-7.88549
▁ری	-7.88778
▁مرد	-7.88882
▁نرخ	-7.89116
▁حالی	-7.89236
▁زیاد	-7.89391
زاری	-7.89715
▁۱۰	-7.89777
▁اسلامی	-7.89844
▁سینما	-7.90389
▁بیماری	-7.90449
▁دوران	-7.90525
▁فعالیت	-7.90864
▁طور	-7.91137
▁گویند	-7.91262
▁زا	-7.91266
▁شرایط	-7.91436
▁هیچ	-7.91771
▁اجتماعی	-7.91973
▁امسال	-7.92254
▁بسیاری	-7.92455
▁منبع	-7.92816
▁جنوب	-7.93602
نوز	-7.9365
▁برتر	-7.93651
اکنون	-7.93837
جا	-7.93907
▁صد	-7.93998
▁اقدام	-7.94702
عث	-7.94952
▁تلاش	-7.95559
▁اقتصاد	-7.95728
▁تصمیم	-7.95814
▁مسئول	-7.96377
▁خط	-7.96426
▁تازه	-7.96576
▁کردن	-7.96618
▁وضعیت	-7.96939
▁مختلف	-7.96939
▁زندان	-7.97006
▁طرح	-7.97039
▁نخست	-7.97527
▁سفر	-7.97671
▁مجموع	-7.98364
▁موج	-7.98424
▁طول	-7.98604
▁آر	-7.98804
▁ولی	-7.9952
▁کشورهای	-7.99607
▁دور	-7.99914
▁زیر	-8.00522
▁روحانی	-8.00688
▁فضا	-8.00786
توسط	-8.00968
▁پول	-8.01614
▁محل	-8.01681
▁بسیار	-8.02236
▁اع	-8.0225
▁مار	-8.0232
▁درگذشت	-8.02464
▁برخ	-8.02677
▁آلمان	-8.02786
▁بورس	-8.02936
▁۸	-8.03048
▁خانواده	-8.03063
▁آمار	-8.03131
▁مدت	-8.03182
▁ریاست	-8.03377
▁گرد	-8.03427
▁هفت	-8.03865
▁که	-8.04075
▁احتمال	-8.04274
▁اثر	-8.04295
▁برابر	-8.04342
▁قانون	-8.04914
▁کمک	-8.05375
▁عکس	-8.05399
▁موسیقی	-8.05808
▁پیدا	-8.05994
▁منطقه	-8.06117
▁کی	-8.06209
▁ماند	-8.06263
▁حت	-8.06314
▁تحقیق	-8.06428
▁توجه	-8.06779
▁هوا	-8.06868
▁حالا	-8.07053
▁فرا	-8.07066
▁بهداشت	-8.07365
▁فرهنگ	-8.07397
▁رسمی	-8.08335
▁بست	-8.08416
▁نقش	-8.08418
▁داخل	-8.0863
زن	-8.0874
▁دوره	-8.08791
شروع	-8.08871
▁سرمایه	-8.0927
▁آخر	-8.09332
▁همراه	-8.09612
▁شکست	-8.09624
▁مشا	-8.09772
▁۲۰	-8.1014
▁نویس	-8.10156
▁دهه	-8.1024
▁کمی	-8.10685
▁لو	-8.10819
ستاد	-8.10921
▁جمهور	-8.11145
▁درآمد	-8.11206
▁رقابت	-8.11206
▁بعضی	-8.11206
▁کنار	-8.11218
▁واقع	-8.11864
▁عراق	-8.11884
▁این	-8.11886
▁جای	-8.12509
▁مشکل	-8.12537
▁اینک	-8.12617
▁اصلی	-8.13195
▁هسته	-8.1328
▁قطع	-8.13537
▁برجام	-8.13542
▁جنگ	-8.14025
▁خرید	-8.14026
▁گذاشت	-8.14186
▁عمل	-8.14218
▁نوشته	-8.14231
▁آمریکایی	-8.14232
▁کامل	-8.14588
▁دهند	-8.15021
▁مراسم	-8.15212
▁اطلاعات	-8.15839
▁نهاد	-8.16098
▁بررسی	-8.17031
▁افت	-8.17617
▁ویژ	-8.177
▁نشده	-8.17824
▁پرسپولیس	-8.17954
▁سیاست	-8.1798
▁خاطر	-8.18304
▁همکاری	-8.1903
▁ممکن	-8.19042
▁فعال	-8.19085
سیون	-8.19154
▁نیاز	-8.19286
▁انگلیس	-8.1936
▁قو	-8.19635
▁استقلال	-8.19716
▁نظام	-8.1972
▁کمتر	-8.19829
▁رهبر	-8.20147
▁نتیج	-8.20791
▁تعداد	-8.20926
▁لا	-8.21288
▁کشتی	-8.21512
▁شناس	-8.21556
▁نمایش	-8.21871
▁حمله	-8.22245
▁ساعت	-8.22264
▁مادر	-8.22463
▁دنبال	-8.22598
▁اشار	-8.23133
▁موضوع	-8.23331
▁دانش	-8.2336
▁بهتر	-8.23437
▁دانشگاه	-8.23463
▁جایزه	-8.23725
▁خر	-8.23767
▁سهام	-8.23802
▁حاضر	-8.24071
▁حمایت	-8.24447
▁میلادی	-8.24465
▁نکرد	-8.24537
▁پرداخت	-8.24816
▁دقیق	-8.24818
▁طرف	-8.24842
▁سیاسی	-8.24876
▁هواپیما	-8.2519
▁واکنش	-8.2519
▁کتاب	-8.2558
▁نگران	-8.25627
▁خبرگ	-8.26157
▁ترکیه	-8.26343
▁آزمایش	-8.26702
▁دریافت	-8.26783
▁نامزد	-8.27147
▁مرگ	-8.27193
▁فدراسیون	-8.27418
▁آورد	-8.28145
-	-8.28625
▁الله	-8.28988
▁انتشار	-8.29405
▁اتفاق	-8.29406
▁کالا	-8.29695
▁تاثیر	-8.29798
▁دریا	-8.30506
▁فرانسه	-8.30987
ئو	-8.31246
▁جلو	-8.3134
▁هدف	-8.31443
▁رشد	-8.3159
▁تک	-8.31594
▁خطر	-8.31775
▁اسرائیل	-8.31782
▁انرژی	-8.31782
▁سپاه	-8.31783
▁هشدار	-8.32194
▁بشر	-8.32466
▁محدودیت	-8.32754
▁روند	-8.33
▁خواند	-8.33204
ِ	-8.33398
▁۲۰۰	-8.33411
▁ندارد	-8.33423
▁عرض	-8.33426
▁دیدار	-8.33662
▁ترامپ	-8.33813
▁مذاکرات	-8.34039
▁آژانس	-8.34216
▁اتحاد	-8.34216
▁تعطیل	-8.34217
▁شنبه	-8.34231
▁ابتلا	-8.35041
▁نمایند	-8.35388
▁کنیم	-8.35404
)	-8.36291
خانه	-8.36662
▁۱۵	-8.37135
▁رسد	-8.37342
▁ایجاد	-8.37581
▁کشته	-8.38842
▁مبارز	-8.3885
▁احمد	-8.39272
▁خواهند	-8.39303
▁مربوط	-8.39703
▁عربستان	-8.40137
▁چنین	-8.40171
▁متهم	-8.402
▁آسیا	-8.40223
▁هشت	-8.40311
▁خصوص	-8.40574
علی	-8.40659
▁۲۰۲۰	-8.41013
▁چشم	-8.4115
▁بودجه	-8.41207
▁ابتدا	-8.41454
▁تایید	-8.41576
▁صادرات	-8.41883
▁افتاد	-8.41885
▁(	-8.41952
▁محمو	-8.41986
▁تلویزیون	-8.4234
▁انسان	-8.42381
▁خیل	-8.42624
▁حکم	-8.42878
▁زبان	-8.42879
▁توانست	-8.43148
▁رکورد	-8.43236
▁۲۵	-8.4354
▁چیز	-8.43649
▁معاون	-8.43704
▁دادگاه	-8.43978
▁پیروز	-8.44362
▁بازداشت	-8.44592
▁مشخص	-8.44593
▁قابل	-8.45073
اخر	-8.45086
▁فاصله	-8.45508
▁بیمارستان	-8.45584
▁حسن	-8.45605
▁مبتلا	-8.45969
▁موفق	-8.45985
▁غرب	-8.4602
▁آثار	-8.46439
▁نهایی	-8.4649
▁میزان	-8.46896
▁شناخت	-8.469
▁جلس	-8.47049
▁ستار	-8.47102
▁چرا	-8.47247
▁انتقاد	-8.47364
▁مخالف	-8.48306
▁نوشت	-8.48361
▁دانست	-8.48378
▁نداشت	-8.48779
▁تبدیل	-8.4878
▁جریان	-8.49312
▁صدا	-8.49914
▁بازگشت	-8.50214
▁حکومت	-8.50214
بدون	-8.50305
▁انتخاب	-8.50655
▁صنعت	-8.50698
▁نبود	-8.50742
▁حرف	-8.50769
▁ایتالیا	-8.51184
▁لندن	-8.5123
▁مربی	-8.52139
▁منابع	-8.52166
▁عضو	-8.5268
▁۱۲	-8.53152
▁نسبت	-8.54149
▁سرمربی	-8.55154
▁بیانیه	-8.55191
▁سطح	-8.55677
▁کشید	-8.55711
▁کابل	-8.56257
▁محکوم	-8.56691
▁پلیس	-8.56706
▁روسیه	-8.56719
▁شامل	-8.57142
▁اعضای	-8.57201
▁سخنگوی	-8.57205
▁نمایندگان	-8.57296
▁اتمی	-8.57333
▁نژاد	-8.57725
▁قرارداد	-8.58048
▁ارتباط	-8.58239
▁لیورپول	-8.58239
▁همزمان	-8.58245
▁منتق	-8.58284
طرح	-8.58667
▁تماشا	-8.58763
▁عمومی	-8.58764
▁نقل	-8.59503
▁بلند	-8.59948
▁انقلاب	-8.6035
▁حذف	-8.60356
▁انتقال	-8.60884
▁قرنطینه	-8.61422
▁اتهام	-8.61432
▁داستان	-8.61444
▁نشست	-8.61534
▁المپیک	-8.61963
▁شخص	-8.6199
▁قدرت	-8.61995
▁صادر	-8.62021
▁نقاش	-8.62508
▁سخن	-8.62587
▁خورد	-8.62976
أ	-8.63052
▁امتیاز	-8.63603
▁لغو	-8.63611
▁تنیس	-8.63643
▁پاسخ	-8.64185
▁فشار	-8.64266
▁ظریف	-8.65269
▁حرکت	-8.6527
▁موارد	-8.65366
نشین	-8.66746
▁پزشکی	-8.66964
▁دختر	-8.6703
▁ارائه	-8.67535
▁گسترده	-8.6811
▁چهر	-8.68406
▁ممنوع	-8.68456
▁کووید	-8.69287
▁تورم	-8.70218
▁طراح	-8.71039
▁امضا	-8.71053
▁معرف	-8.71078
▁پشت	-8.71246
▁رانند	-8.71705
▁مسافر	-8.72257
▁اطلاع	-8.72303
▁خانم	-8.72717
▁بیمار	-8.7272
▁متوقف	-8.7283
▁امکان	-8.72893
▁شمال	-8.73007
▁جامعه	-8.7349
▁کیلومتر	-8.74046
▁کوچک	-8.74051
▁بحران	-8.74054
▁سیستم	-8.74088
▁ورود	-8.7421
▁مصاحبه	-8.7466
▁نشد	-8.75246
▁خبرنگار	-8.75281
▁۱۷	-8.75902
▁بشک	-8.76473
▁باشند	-8.76745
▁انتظار	-8.77152
▁دفاع	-8.78429
▁اسفند	-8.78438
▁هنگام	-8.79071
▁فینال	-8.7911
▁سیاه	-8.79316
▁نشر	-8.79399
▁الکتریکی	-8.79708
▁مارادونا	-8.79708
▁غذا	-8.79753
▁۱۴۰۰	-8.79754
▁موسس	-8.79788
▁مالک	-8.79874
▁رقم	-8.79907
▁صندوق	-8.80358
▁فروردین	-8.80358
▁چگون	-8.80389
▁۱۱	-8.81016
▁گذر	-8.81051
▁بارسلونا	-8.81669
▁اظهار	-8.81669
▁واحد	-8.81671
▁مصوب	-8.81672
▁تصوی	-8.81707
▁برخورد	-8.82442
▁اختلاف	-8.82998
▁کارگردان	-8.82999
▁تهدید	-8.83005
▁ضرب	-8.83086
▁پژوهش	-8.83465
▁حسین	-8.83765
▁دوشنبه	-8.84345
▁تشکیل	-8.84345
▁بتوان	-8.84374
▁نیروهای	-8.85026
▁خودروساز	-8.85627
▁دونالد	-8.85712
▁منچستر	-8.864
▁معاملات	-8.864
▁گیرد	-8.86429
▁قرن	-8.86584
▁قرمز	-8.87095
▁سراسر	-8.8714
▁اسپانیا	-8.87793
▁خروج	-8.87807
▁صفح	-8.87813
▁حساب	-8.87831
▁ماسک	-8.87855
▁محیط	-8.87893
▁جشنواره	-8.88497
▁کارشناس	-8.89207
▁شکایت	-8.89212
نجر	-8.89871
▁۱۸	-8.89926
▁۱۴	-8.90593
▁شجریان	-8.90641
▁پروژه	-8.90657
▁معمول	-8.90664
▁جنسی	-8.90679
▁طبق	-8.90689
▁افزود	-8.91369
▁تجاری	-8.91379
▁روبرو	-8.91393
▁محدود	-8.91818
▁اختیار	-8.92096
▁نیروی	-8.92125
▁تقاضا	-8.9283
▁پذیر	-8.92834
▁قوانین	-8.92851
▁تاکید	-8.92856
▁امیدوار	-8.93572
▁تجرب	-8.93576
▁شاخص	-8.93581
▁آسیب	-8.93608
▁متفاوت	-8.94317
▁درخواست	-8.95069
▁استرالیا	-8.95074
▁۱۶	-8.95074
▁کنترل	-8.95086
▁ژاپن	-8.95827
▁مشترک	-8.96591
▁کوتاه	-8.96593
▁همسر	-8.96696
▁ادبی	-8.96698
حفظ	-8.97325
▁ترتیب	-8.97371
▁قطر	-8.97499
▁گذشت	-8.97871
▁ونزوئلا	-8.98134
▁نگهبان	-8.98135
▁صحبت	-8.98135
▁فهرست	-8.9814
▁علاو	-8.98205
▁عباس	-8.99017
▁چهارشنبه	-8.99703
▁یکشنبه	-8.99703
▁خورشید	-8.99704
▁مصرف	-9.00498
▁بنزین	-9.00517
▁همیشه	-9.0052
▁میزبان	-9.01305
▁اعدام	-9.01318
▁درگیر	-9.01369
▁قضایی	-9.02106
▁مغز	-9.02188
▁بیرون	-9.02197
▁روابط	-9.02921
▁سفید	-9.02958
محمد	-9.03369
▁بگیرد	-9.03737
▁شهروندان	-9.03737
▁چاپ	-9.03765
▁اتاق	-9.03796
▁آرژانتین	-9.04562
▁مرتبط	-9.05396
▁خوزستان	-9.05398
▁پیشنهاد	-9.06241
▁احیا	-9.06275
▁انفجار	-9.07083
(	-11.4734
