{
  "src_word2id": {
    "<pad>": 0,
    "<s>": 1,
    "</s>": 2,
    "<unk>": 3,
    "ی": 4,
    "ه": 5,
    ".": 6,
    "ان": 7,
    "ت": 8,
    "د": 9,
    "م": 10,
    "ل": 11,
    "ر": 12,
    "▁": 13,
    "ش": 14,
    "▁است": 15,
    "ن": 16,
    "ا": 17,
    "▁می": 18,
    "ب": 19,
    "س": 20,
    "و": 21,
    "▁م": 22,
    "▁های": 23,
    "▁ایران": 24,
    "ق": 25,
    "ک": 26,
    "ز": 27,
    "ع": 28,
    "ور": 29,
    "ات": 30,
    "ف": 31,
    "ند": 32,
    "▁ت": 33,
    "▁بر": 34,
    "▁سال": 35,
    "▁ا": 36,
    "ار": 37,
    "▁ن": 38,
    "▁شده": 39,
    "،": 40,
    "خ": 41,
    "ین": 42,
    "ال": 43,
    "ح": 44,
    "▁بود": 45,
    "▁ها": 46,
    "▁یک": 47,
    "ست": 48,
    "▁شد": 49,
    "ص": 50,
    "▁ع": 51,
    "ام": 52,
    "▁ای": 53,
    "▁ب": 54,
    "▁س": 55,
    "▁و": 56,
    "ج": 57,
    "▁ف": 58,
    "▁ش": 59,
    "▁آ": 60,
    "▁دو": 61,
    "▁خ": 62,
    "پ": 63,
    "ون": 64,
    "▁تصویر": 65,
    "▁کرده": 66,
    "های": 67,
    "▁کرد": 68,
    "ده": 69,
    "▁ر": 70,
    "▁ج": 71,
    "اد": 72,
    "▁در": 73,
    "منبع": 74,
    "از": 75,
    "▁کار": 76,
    "گ": 77,
    "▁اند": 78,
    "ط": 79,
    "ای": 80,
    "▁ح": 81,
    "▁خود": 82,
    "▁شود": 83,
    "▁د": 84,
    "▁گفته": 85,
    "▁کند": 86,
    "را": 87,
    "یت": 88,
    "▁با": 89,
    "▁پ": 90,
    "ید": 91,
    "؛": 92,
    "▁سر": 93,
    "▁روز": 94,
    "▁پیش": 95,
    "▁ق": 96,
    "گر": 97,
    "ری": 98,
    "بر": 99,
    "▁کرونا": 100,
    "ود": 101,
    "▁دست": 102,
    "▁ه": 103,
    "▁بی": 104,
    "در": 105,
    "اب": 106,
    "تر": 107,
    "▁فر": 108,
    "▁ماه": 109,
    "اس": 110,
    "چ": 111,
    "▁کشور": 112,
    "غ": 113,
    "نا": 114,
    "۰": 115,
    "نگ": 116,
    "مان": 117,
    "▁به": 118,
    "▁گزارش": 119,
    "ول": 120,
    "▁آمریکا": 121,
    "ها": 122,
    "▁یا": 123,
    "ض": 124,
    "▁سو": 125,
    "▁گفت": 126,
    "ما": 127,
    "▁ص": 128,
    "▁کنند": 129,
    "لا": 130,
    "وی": 131,
    "▁تر": 132,
    "گی": 133,
    "دا": 134,
    "دی": 135,
    "گاه": 136,
    "▁ک": 137,
    "▁نا": 138,
    "▁را": 139,
    "▁بازی": 140,
    "▁دیگر": 141,
    "▁فوتبال": 142,
    "▁گ": 143,
    "لی": 144,
    "▁دولت": 145,
    "ئ": 146,
    "▁هر": 147,
    "▁مر": 148,
    "▁داد": 149,
    "▁رو": 150,
    "▁دارد": 151,
    "یم": 152,
    "خت": 153,
    "▁تیم": 154,
    "▁چ": 155,
    "▁دهد": 156,
    "ایی": 157,
    "▁اعلام": 158,
    "یر": 159,
    "▁ز": 160,
    "با": 161,
    "▁پا": 162,
    "▁بین": 163,
    "▁شرکت": 164,
    "▁بار": 165,
    "▁نام": 166,
    "▁مت": 167,
    "▁قرار": 168,
    "▁ط": 169,
    "▁هزار": 170,
    "▁تو": 171,
    "ث": 172,
    "▁ل": 173,
    "▁مو": 174,
    "ذ": 175,
    "▁شهر": 176,
    "ژ": 177,
    "▁پس": 178,
    "▁جهان": 179,
    "▁پر": 180,
    "▁مس": 181,
    "نی": 182,
    "وا": 183,
    "▁داده": 184,
    "▁هم": 185,
    "▁باز": 186,
    "ظ": 187,
    "▁نو": 188,
    "رو": 189,
    "▁سه": 190,
    "▁مع": 191,
    "▁رئیس": 192,
    "▁دی": 193,
    "می": 194,
    "یک": 195,
    "▁آن": 196,
    "اج": 197,
    "ستان": 198,
    "▁اس": 199,
    "▁گذشته": 200,
    "▁۲": 201,
    "▁ام": 202,
    "نده": 203,
    "▁سا": 204,
    "۹": 205,
    "▁خواهد": 206,
    "کن": 207,
    "سی": 208,
    "▁کا": 209,
    "▁آقای": 210,
    "▁او": 211,
    "▁گوید": 212,
    "آ": 213,
    "▁داشت": 214,
    "▁۳": 215,
    "اف": 216,
    "▁رسید": 217,
    "وم": 218,
    "▁مج": 219,
    "▁بعد": 220,
    "▁سی": 221,
    "اک": 222,
    "این": 223,
    "▁روی": 224,
    "▁پی": 225,
    "▁چند": 226,
    "▁دربار": 227,
    "مین": 228,
    "▁نفت": 229,
    "او": 230,
    "وش": 231,
    "▁کل": 232,
    "▁مح": 233,
    "▁قهرمان": 234,
    "▁از": 235,
    "دار": 236,
    "▁نفر": 237,
    "رس": 238,
    "▁آنها": 239,
    "▁تهران": 240,
    "کار": 241,
    "▁اج": 242,
    "لو": 243,
    "▁میلیون": 244,
    "▁کن": 245,
    "▁بازار": 246,
    "▁شا": 247,
    "▁باید": 248,
    "۸": 249,
    "▁فیلم": 250,
    "▁من": 251,
    "▁دلیل": 252,
    "▁درصد": 253,
    "▁خارج": 254,
    "▁آم": 255,
    "▁افزایش": 256,
    "بی": 257,
    "▁ارز": 258,
    "۲": 259,
    "▁جدید": 260,
    "زی": 261,
    "▁افغانستان": 262,
    "▁حال": 263,
    "▁'": 264,
    "۱": 265,
    "▁گر": 266,
    "'": 267,
    "▁خبر": 268,
    "گو": 269,
    "▁هفته": 270,
    "▁لیگ": 271,
    "فت": 272,
    "▁قیمت": 273,
    "▁بد": 274,
    "▁بیشتر": 275,
    "فا": 276,
    "گان": 277,
    "▁اروپا": 278,
    "ران": 279,
    "▁زمان": 280,
    "به": 281,
    "▁ال": 282,
    "▁۴": 283,
    "▁تا": 284,
    ":": 285,
    "ترین": 286,
    "▁دلار": 287,
    "▁علی": 288,
    "▁بزرگ": 289,
    "۵": 290,
    "▁شب": 291,
    "▁همچن": 292,
    "▁اش": 293,
    "وز": 294,
    "▁گرفت": 295,
    "▁بوده": 296,
    "▁کم": 297,
    "▁اول": 298,
    "▁بریتانیا": 299,
    "کر": 300,
    "▁نظر": 301,
    "▁ملی": 302,
    "▁اخیر": 303,
    "▁برگزار": 304,
    "▁سازمان": 305,
    "▁دار": 306,
    "فر": 307,
    "▁۵": 308,
    "▁رفت": 309,
    "▁ویروس": 310,
    "▁نمی": 311,
    "▁هستند": 312,
    "▁جمهوری": 313,
    "▁تولید": 314,
    "۶": 315,
    "▁جهانی": 316,
    "▁۱۹": 317,
    "▁مورد": 318,
    "مند": 319,
    "▁کو": 320,
    "▁عنوان": 321,
    "▁جو": 322,
    "▁همه": 323,
    "▁نیست": 324,
    "▁بخش": 325,
    "▁گل": 326,
    "کس": 327,
    "گذار": 328,
    "کی": 329,
    "▁تع": 330,
    "▁ترین": 331,
    "▁راه": 332,
    "▁گرفته": 333,
    "▁گو": 334,
    "▁امروز": 335,
    "من": 336,
    "▁پرو": 337,
    "له": 338,
    "▁مرکز": 339,
    "▁ورزش": 340,
    "▁مد": 341,
    "▁بن": 342,
    "▁کس": 343,
    "▁مجلس": 344,
    "▁بالا": 345,
    "▁کر": 346,
    "▁کردند": 347,
    "سا": 348,
    "▁شدن": 349,
    "▁وزارت": 350,
    "۴": 351,
    "۷": 352,
    "▁وزیر": 353,
    "▁چهار": 354,
    "▁کاهش": 355,
    "▁بیش": 356,
    "▁قبل": 357,
    "▁تح": 358,
    "انه": 359,
    "وس": 360,
    "▁غ": 361,
    "▁۹": 362,
    "▁یکی": 363,
    "▁اساس": 364,
    "▁چین": 365,
    "▁۲۰۱": 366,
    "▁مقابل": 367,
    "▁آغاز": 368,
    "▁ار": 369,
    "▁نیز": 370,
    "▁حدود": 371,
    "▁نشان": 372,
    "بار": 373,
    "اری": 374,
    "▁بانک": 375,
    "▁زن": 376,
    "۳": 377,
    "▁بودند": 378,
    "▁حضور": 379,
    "کو": 380,
    "▁گروه": 381,
    "▁یافت": 382,
    "▁ساخت": 383,
    "▁زمین": 384,
    "▁داشته": 385,
    "کا": 386,
    "▁۶": 387,
    "▁باشگاه": 388,
    "وان": 389,
    "▁آب": 390,
    "نامه": 391,
    "▁پایان": 392,
    "▁انجام": 393,
    "قط": 394,
    "▁نیم": 395,
    "▁برنامه": 396,
    "پر": 397,
    "▁صورت": 398,
    "دن": 399,
    "▁باشد": 400,
    "▁هنر": 401,
    "▁وارد": 402,
    "▁منتشر": 403,
    "۰۰": 404,
    "کل": 405,
    "▁محمد": 406,
    "▁رسان": 407,
    "▁اقتصادی": 408,
    "▁واکسن": 409,
    "داد": 410,
    "▁یو": 411,
    "نه": 412,
    "▁مدیر": 413,
    "▁اولین": 414,
    "▁تحریم": 415,
    "که": 416,
    "شان": 417,
    "▁مقام": 418,
    "▁بازیکن": 419,
    "▁میلیارد": 420,
    "▁حقوق": 421,
    "▁تاریخ": 422,
    "اق": 423,
    "▁آزاد": 424,
    "▁تومان": 425,
    "دامه": 426,
    "▁سن": 427,
    "▁استفاده": 428,
    "داری": 429,
    "▁جمله": 430,
    "▁شیوع": 431,
    "▁شوند": 432,
    "▁تمام": 433,
    "▁پنج": 434,
    "▁توافق": 435,
    "▁۱۳": 436,
    "▁فصل": 437,
    "▁غیر": 438,
    "▁شورا": 439,
    "▁جمع": 440,
    "▁خودرو": 441,
    "روز": 442,
    "گیری": 443,
    "دو": 444,
    "▁تغییر": 445,
    "▁۷": 446,
    "آقای": 447,
    "▁خوا": 448,
    "▁زندگی": 449,
    "▁توان": 450,
    "▁وجود": 451,
    "▁خواست": 452,
    "▁مسابقه": 453,
    "▁پو": 454,
    "▁جام": 455,
    "▁همین": 456,
    "وار": 457,
    "ازه": 458,
    "▁ماشین": 459,
    "▁نزدیک": 460,
    "▁مسابقات": 461,
    "زا": 462,
    "▁جا": 463,
    "▁ده": 464,
    "ندگان": 465,
    "سازی": 466,
    "▁دارند": 467,
    "▁جان": 468,
    "؟": 469,
    "▁مردم": 470,
    "▁المللی": 471,
    "▁ان": 472,
    "▁گیری": 473,
    "▁فروش": 474,
    "▁اعتراض": 475,
    "▁سابق": 476,
    "▁بو": 477,
    "▁انتخابات": 478,
    "ثبت": 479,
    "▁زد": 480,
    "▁تنها": 481,
    "▁ض": 482,
    "▁اف": 483,
    "جو": 484,
    "▁وقت": 485,
    "رضا": 486,
    "▁دنیا": 487,
    "▁مالی": 488,
    "▁آینده": 489,
    "▁برای": 490,
    "▁تواند": 491,
    "▁افراد": 492,
    "▁زنان": 493,
    "▁میان": 494,
    "▁خانه": 495,
    "▁شمار": 496,
    "▁شدند": 497,
    "▁مهم": 498,
    "▁امنیت": 499,
    "▁ری": 500,
    "▁مرد": 501,
    "▁نرخ": 502,
    "▁حالی": 503,
    "▁زیاد": 504,
    "زاری": 505,
    "▁۱۰": 506,
    "▁اسلامی": 507,
    "▁سینما": 508,
    "▁بیماری": 509,
    "▁دوران": 510,
    "▁فعالیت": 511,
    "▁طور": 512,
    "▁گویند": 513,
    "▁زا": 514,
    "▁شرایط": 515,
    "▁هیچ": 516,
    "▁اجتماعی": 517,
    "▁امسال": 518,
    "▁بسیاری": 519,
    "▁منبع": 520,
    "▁جنوب": 521,
    "نوز": 522,
    "▁برتر": 523,
    "اکنون": 524,
    "جا": 525,
    "▁صد": 526,
    "▁اقدام": 527,
    "عث": 528,
    "▁تلاش": 529,
    "▁اقتصاد": 530,
    "▁تصمیم": 531,
    "▁مسئول": 532,
    "▁خط": 533,
    "▁تازه": 534,
    "▁کردن": 535,
    "▁وضعیت": 536,
    "▁مختلف": 537,
    "▁زندان": 538,
    "▁طرح": 539,
    "▁نخست": 540,
    "▁سفر": 541,
    "▁مجموع": 542,
    "▁موج": 543,
    "▁طول": 544,
    "▁آر": 545,
    "▁ولی": 546,
    "▁کشورهای": 547,
    "▁دور": 548,
    "▁زیر": 549,
    "▁روحانی": 550,
    "▁فضا": 551,
    "توسط": 552,
    "▁پول": 553,
    "▁محل": 554,
    "▁بسیار": 555,
    "▁اع": 556,
    "▁مار": 557,
    "▁درگذشت": 558,
    "▁برخ": 559,
    "▁آلمان": 560,
    "▁بورس": 561,
    "▁۸": 562,
    "▁خانواده": 563,
    "▁آمار": 564,
    "▁مدت": 565,
    "▁ریاست": 566,
    "▁گرد": 567,
    "▁هفت": 568,
    "▁که": 569,
    "▁احتمال": 570,
    "▁اثر": 571,
    "▁برابر": 572,
    "▁قانون": 573,
    "▁کمک": 574,
    "▁عکس": 575,
    "▁موسیقی": 576,
    "▁پیدا": 577,
    "▁منطقه": 578,
    "▁کی": 579,
    "▁ماند": 580,
    "▁حت": 581,
    "▁تحقیق": 582,
    "▁توجه": 583,
    "▁هوا": 584,
    "▁حالا": 585,
    "▁فرا": 586,
    "▁بهداشت": 587,
    "▁فرهنگ": 588,
    "▁رسمی": 589,
    "▁بست": 590,
    "▁نقش": 591,
    "▁داخل": 592,
    "زن": 593,
    "▁دوره": 594,
    "شروع": 595,
    "▁سرمایه": 596,
    "▁آخر": 597,
    "▁همراه": 598,
    "▁شکست": 599,
    "▁مشا": 600,
    "▁۲۰": 601,
    "▁نویس": 602,
    "▁دهه": 603,
    "▁کمی": 604,
    "▁لو": 605,
    "ستاد": 606,
    "▁جمهور": 607,
    "▁درآمد": 608,
    "▁رقابت": 609,
    "▁بعضی": 610,
    "▁کنار": 611,
    "▁واقع": 612,
    "▁عراق": 613,
    "▁این": 614,
    "▁جای": 615,
    "▁مشکل": 616,
    "▁اینک": 617,
    "▁اصلی": 618,
    "▁هسته": 619,
    "▁قطع": 620,
    "▁برجام": 621,
    "▁جنگ": 622,
    "▁خرید": 623,
    "▁گذاشت": 624,
    "▁عمل": 625,
    "▁نوشته": 626,
    "▁آمریکایی": 627,
    "▁کامل": 628,
    "▁دهند": 629,
    "▁مراسم": 630,
    "▁اطلاعات": 631,
    "▁نهاد": 632,
    "▁بررسی": 633,
    "▁افت": 634,
    "▁ویژ": 635,
    "▁نشده": 636,
    "▁پرسپولیس": 637,
    "▁سیاست": 638,
    "▁خاطر": 639,
    "▁همکاری": 640,
    "▁ممکن": 641,
    "▁فعال": 642,
    "سیون": 643,
    "▁نیاز": 644,
    "▁انگلیس": 645,
    "▁قو": 646,
    "▁استقلال": 647,
    "▁نظام": 648,
    "▁کمتر": 649,
    "▁رهبر": 650,
    "▁نتیج": 651,
    "▁تعداد": 652,
    "▁لا": 653,
    "▁کشتی": 654,
    "▁شناس": 655,
    "▁نمایش": 656,
    "▁حمله": 657,
    "▁ساعت": 658,
    "▁مادر": 659,
    "▁دنبال": 660,
    "▁اشار": 661,
    "▁موضوع": 662,
    "▁دانش": 663,
    "▁بهتر": 664,
    "▁دانشگاه": 665,
    "▁جایزه": 666,
    "▁خر": 667,
    "▁سهام": 668,
    "▁حاضر": 669,
    "▁حمایت": 670,
    "▁میلادی": 671,
    "▁نکرد": 672,
    "▁پرداخت": 673,
    "▁دقیق": 674,
    "▁طرف": 675,
    "▁سیاسی": 676,
    "▁هواپیما": 677,
    "▁واکنش": 678,
    "▁کتاب": 679,
    "▁نگران": 680,
    "▁خبرگ": 681,
    "▁ترکیه": 682,
    "▁آزمایش": 683,
    "▁دریافت": 684,
    "▁نامزد": 685,
    "▁مرگ": 686,
    "▁فدراسیون": 687,
    "▁آورد": 688,
    "-": 689,
    "▁الله": 690,
    "▁انتشار": 691,
    "▁اتفاق": 692,
    "▁کالا": 693,
    "▁تاثیر": 694,
    "▁دریا": 695,
    "▁فرانسه": 696,
    "ئو": 697,
    "▁جلو": 698,
    "▁هدف": 699,
    "▁رشد": 700,
    "▁تک": 701,
    "▁خطر": 702,
    "▁اسرائیل": 703,
    "▁انرژی": 704,
    "▁سپاه": 705,
    "▁هشدار": 706,
    "▁بشر": 707,
    "▁محدودیت": 708,
    "▁روند": 709,
    "▁خواند": 710,
    "ِ": 711,
    "▁۲۰۰": 712,
    "▁ندارد": 713,
    "▁عرض": 714,
    "▁دیدار": 715,
    "▁ترامپ": 716,
    "▁مذاکرات": 717,
    "▁آژانس": 718,
    "▁اتحاد": 719,
    "▁تعطیل": 720,
    "▁شنبه": 721,
    "▁ابتلا": 722,
    "▁نمایند": 723,
    "▁کنیم": 724,
    ")": 725,
    "خانه": 726,
    "▁۱۵": 727,
    "▁رسد": 728,
    "▁ایجاد": 729,
    "▁کشته": 730,
    "▁مبارز": 731,
    "▁احمد": 732,
    "▁خواهند": 733,
    "▁مربوط": 734,
    "▁عربستان": 735,
    "▁چنین": 736,
    "▁متهم": 737,
    "▁آسیا": 738,
    "▁هشت": 739,
    "▁خصوص": 740,
    "علی": 741,
    "▁۲۰۲۰": 742,
    "▁چشم": 743,
    "▁بودجه": 744,
    "▁ابتدا": 745,
    "▁تایید": 746,
    "▁صادرات": 747,
    "▁افتاد": 748,
    "▁(": 749,
    "▁محمو": 750,
    "▁تلویزیون": 751,
    "▁انسان": 752,
    "▁خیل": 753,
    "▁حکم": 754,
    "▁زبان": 755,
    "▁توانست": 756,
    "▁رکورد": 757,
    "▁۲۵": 758,
    "▁چیز": 759,
    "▁معاون": 760,
    "▁دادگاه": 761,
    "▁پیروز": 762,
    "▁بازداشت": 763,
    "▁مشخص": 764,
    "▁قابل": 765,
    "اخر": 766,
    "▁فاصله": 767,
    "▁بیمارستان": 768,
    "▁حسن": 769,
    "▁مبتلا": 770,
    "▁موفق": 771,
    "▁غرب": 772,
    "▁آثار": 773,
    "▁نهایی": 774,
    "▁میزان": 775,
    "▁شناخت": 776,
    "▁جلس": 777,
    "▁ستار": 778,
    "▁چرا": 779,
    "▁انتقاد": 780,
    "▁مخالف": 781,
    "▁نوشت": 782,
    "▁دانست": 783,
    "▁نداشت": 784,
    "▁تبدیل": 785,
    "▁جریان": 786,
    "▁صدا": 787,
    "▁بازگشت": 788,
    "▁حکومت": 789,
    "بدون": 790,
    "▁انتخاب": 791,
    "▁صنعت": 792,
    "▁نبود": 793,
    "▁حرف": 794,
    "▁ایتالیا": 795,
    "▁لندن": 796,
    "▁مربی": 797,
    "▁منابع": 798,
    "▁عضو": 799,
    "▁۱۲": 800,
    "▁نسبت": 801,
    "▁سرمربی": 802,
    "▁بیانیه": 803,
    "▁سطح": 804,
    "▁کشید": 805,
    "▁کابل": 806,
    "▁محکوم": 807,
    "▁پلیس": 808,
    "▁روسیه": 809,
    "▁شامل": 810,
    "▁اعضای": 811,
    "▁سخنگوی": 812,
    "▁نمایندگان": 813,
    "▁اتمی": 814,
    "▁نژاد": 815,
    "▁قرارداد": 816,
    "▁ارتباط": 817,
    "▁لیورپول": 818,
    "▁همزمان": 819,
    "▁منتق": 820,
    "طرح": 821,
    "▁تماشا": 822,
    "▁عمومی": 823,
    "▁نقل": 824,
    "▁بلند": 825,
    "▁انقلاب": 826,
    "▁حذف": 827,
    "▁انتقال": 828,
    "▁قرنطینه": 829,
    "▁اتهام": 830,
    "▁داستان": 831,
    "▁نشست": 832,
    "▁المپیک": 833,
    "▁شخص": 834,
    "▁قدرت": 835,
    "▁صادر": 836,
    "▁نقاش": 837,
    "▁سخن": 838,
    "▁خورد": 839,
    "أ": 840,
    "▁امتیاز": 841,
    "▁لغو": 842,
    "▁تنیس": 843,
    "▁پاسخ": 844,
    "▁فشار": 845,
    "▁ظریف": 846,
    "▁حرکت": 847,
    "▁موارد": 848,
    "نشین": 849,
    "▁پزشکی": 850,
    "▁دختر": 851,
    "▁ارائه": 852,
    "▁گسترده": 853,
    "▁چهر": 854,
    "▁ممنوع": 855,
    "▁کووید": 856,
    "▁تورم": 857,
    "▁طراح": 858,
    "▁امضا": 859,
    "▁معرف": 860,
    "▁پشت": 861,
    "▁رانند": 862,
    "▁مسافر": 863,
    "▁اطلاع": 864,
    "▁خانم": 865,
    "▁بیمار": 866,
    "▁متوقف": 867,
    "▁امکان": 868,
    "▁شمال": 869,
    "▁جامعه": 870,
    "▁کیلومتر": 871,
    "▁کوچک": 872,
    "▁بحران": 873,
    "▁سیستم": 874,
    "▁ورود": 875,
    "▁مصاحبه": 876,
    "▁نشد": 877,
    "▁خبرنگار": 878,
    "▁۱۷": 879,
    "▁بشک": 880,
    "▁باشند": 881,
    "▁انتظار": 882,
    "▁دفاع": 883,
    "▁اسفند": 884,
    "▁هنگام": 885,
    "▁فینال": 886,
    "▁سیاه": 887,
    "▁نشر": 888,
    "▁الکتریکی": 889,
    "▁مارادونا": 890,
    "▁غذا": 891,
    "▁۱۴۰۰": 892,
    "▁موسس": 893,
    "▁مالک": 894,
    "▁رقم": 895,
    "▁صندوق": 896,
    "▁فروردین": 897,
    "▁چگون": 898,
    "▁۱۱": 899,
    "▁گذر": 900,
    "▁بارسلونا": 901,
    "▁اظهار": 902,
    "▁واحد": 903,
    "▁مصوب": 904,
    "▁تصوی": 905,
    "▁برخورد": 906,
    "▁اختلاف": 907,
    "▁کارگردان": 908,
    "▁تهدید": 909,
    "▁ضرب": 910,
    "▁پژوهش": 911,
    "▁حسین": 912,
    "▁دوشنبه": 913,
    "▁تشکیل": 914,
    "▁بتوان": 915,
    "▁نیروهای": 916,
    "▁خودروساز": 917,
    "▁دونالد": 918,
    "▁منچستر": 919,
    "▁معاملات": 920,
    "▁گیرد": 921,
    "▁قرن": 922,
    "▁قرمز": 923,
    "▁سراسر": 924,
    "▁اسپانیا": 925,
    "▁خروج": 926,
    "▁صفح": 927,
    "▁حساب": 928,
    "▁ماسک": 929,
    "▁محیط": 930,
    "▁جشنواره": 931,
    "▁کارشناس": 932,
    "▁شکایت": 933,
    "نجر": 934,
    "▁۱۸": 935,
    "▁۱۴": 936,
    "▁شجریان": 937,
    "▁پروژه": 938,
    "▁معمول": 939,
    "▁جنسی": 940,
    "▁طبق": 941,
    "▁افزود": 942,
    "▁تجاری": 943,
    "▁روبرو": 944,
    "▁محدود": 945,
    "▁اختیار": 946,
    "▁نیروی": 947,
    "▁تقاضا": 948,
    "▁پذیر": 949,
    "▁قوانین": 950,
    "▁تاکید": 951,
    "▁امیدوار": 952,
    "▁تجرب": 953,
    "▁شاخص": 954,
    "▁آسیب": 955,
    "▁متفاوت": 956,
    "▁درخواست": 957,
    "▁استرالیا": 958,
    "▁۱۶": 959,
    "▁کنترل": 960,
    "▁ژاپن": 961,
    "▁مشترک": 962,
    "▁کوتاه": 963,
    "▁همسر": 964,
    "▁ادبی": 965,
    "حفظ": 966,
    "▁ترتیب": 967,
    "▁قطر": 968,
    "▁گذشت": 969,
    "▁ونزوئلا": 970,
    "▁نگهبان": 971,
    "▁صحبت": 972,
    "▁فهرست": 973,
    "▁علاو": 974,
    "▁عباس": 975,
    "▁چهارشنبه": 976,
    "▁یکشنبه": 977,
    "▁خورشید": 978,
    "▁مصرف": 979,
    "▁بنزین": 980,
    "▁همیشه": 981,
    "▁میزبان": 982,
    "▁اعدام": 983,
    "▁درگیر": 984,
    "▁قضایی": 985,
    "▁مغز": 986,
    "▁بیرون": 987,
    "▁روابط": 988,
    "▁سفید": 989,
    "محمد": 990,
    "▁بگیرد": 991,
    "▁شهروندان": 992,
    "▁چاپ": 993,
    "▁اتاق": 994,
    "▁آرژانتین": 995,
    "▁مرتبط": 996,
    "▁خوزستان": 997,
    "▁پیشنهاد": 998,
    "▁احیا": 999,
    "▁انفجار": 1000,
    "(": 1001
  }
}