{
  "src_word2id": {
    "<pad>": 0,
    "<s>": 1,
    "</s>": 2,
    "<unk>": 3,
    "ی": 4,
    ".": 5,
    "ه": 6,
    "▁است": 7,
    "▁می": 8,
    "▁": 9,
    "▁های": 10,
    "▁ایران": 11,
    "ان": 12,
    "▁شده": 13,
    "،": 14,
    "▁سال": 15,
    "▁بود": 16,
    "▁یک": 17,
    "▁ها": 18,
    "▁شد": 19,
    "ش": 20,
    "▁تصویر": 21,
    "▁ای": 22,
    "▁کرده": 23,
    "ت": 24,
    "ین": 25,
    "▁کرد": 26,
    "م": 27,
    "▁بر": 28,
    "منبع": 29,
    "▁شود": 30,
    "▁گفته": 31,
    "▁دو": 32,
    "▁خود": 33,
    "▁کند": 34,
    "؛": 35,
    "▁کرونا": 36,
    "▁اند": 37,
    "ن": 38,
    "▁در": 39,
    "ز": 40,
    "▁ماه": 41,
    "ند": 42,
    "▁کشور": 43,
    "▁پیش": 44,
    "ا": 45,
    "د": 46,
    "▁آمریکا": 47,
    "▁روز": 48,
    "س": 49,
    "▁گزارش": 50,
    "ات": 51,
    "ل": 52,
    "▁بی": 53,
    "▁و": 54,
    "های": 55,
    "▁ا": 56,
    "▁م": 57,
    "ب": 58,
    "▁فوتبال": 59,
    "▁دارد": 60,
    "▁کار": 61,
    "ر": 62,
    "▁دهد": 63,
    "▁تیم": 64,
    "▁بازی": 65,
    "▁گفت": 66,
    "▁کنند": 67,
    "▁اعلام": 68,
    "▁قرار": 69,
    "▁هزار": 70,
    "▁دیگر": 71,
    "▁یا": 72,
    "▁شرکت": 73,
    "▁دولت": 74,
    "▁داده": 75,
    "▁دست": 76,
    "▁با": 77,
    "در": 78,
    "▁جهان": 79,
    "▁رئیس": 80,
    "▁به": 81,
    "▁بار": 82,
    "▁بین": 83,
    "▁سه": 84,
    "▁هر": 85,
    "▁گذشته": 86,
    "▁پس": 87,
    "▁ب": 88,
    "ف": 89,
    "و": 90,
    "▁خواهد": 91,
    "ار": 92,
    "▁آقای": 93,
    "ک": 94,
    "▁گوید": 95,
    "▁ف": 96,
    "▁میلیون": 97,
    "▁درباره": 98,
    "▁درصد": 99,
    "▁لیگ": 100,
    "▁نفر": 101,
    "▁آنها": 102,
    "این": 103,
    "ها": 104,
    "▁افزایش": 105,
    "▁تهران": 106,
    "▁داد": 107,
    "▁سر": 108,
    "ور": 109,
    "▁دلیل": 110,
    "▁چند": 111,
    "▁افغانستان": 112,
    "▁'": 113,
    "▁از": 114,
    "'": 115,
    "▁بعد": 116,
    "▁جدید": 117,
    "▁دلار": 118,
    "▁هفته": 119,
    "▁خبر": 120,
    "▁حال": 121,
    "▁ت": 122,
    "▁بوده": 123,
    "▁نفت": 124,
    "▁نام": 125,
    "▁ویروس": 126,
    "▁همچن": 127,
    "▁ملی": 128,
    "▁بازار": 129,
    "▁را": 130,
    ":": 131,
    "▁قیمت": 132,
    "▁یکی": 133,
    "▁سازمان": 134,
    "▁جهانی": 135,
    "▁همه": 136,
    "▁ترین": 137,
    "▁نظر": 138,
    "▁مورد": 139,
    "▁جمهوری": 140,
    "ری": 141,
    "▁فیلم": 142,
    "▁نمی": 143,
    "▁برگزار": 144,
    "▁هستند": 145,
    "▁باید": 146,
    "▁تولید": 147,
    "▁روی": 148,
    "▁گرفته": 149,
    "▁عنوان": 150,
    "▁سی": 151,
    "▁بیشتر": 152,
    "▁امروز": 153,
    "▁ن": 154,
    "▁چین": 155,
    "▁بیش": 156,
    "▁کاهش": 157,
    "▁داشت": 158,
    "▁کردند": 159,
    "▁شب": 160,
    "▁مجلس": 161,
    "▁وزیر": 162,
    "▁نیست": 163,
    "▁بزرگ": 164,
    "▁اروپا": 165,
    "▁بودند": 166,
    "▁آغاز": 167,
    "گی": 168,
    "▁شدن": 169,
    "▁علی": 170,
    "▁باز": 171,
    "▁تر": 172,
    "ع": 173,
    "▁مقابل": 174,
    "▁راه": 175,
    "▁اخیر": 176,
    "▁وزارت": 177,
    "▁حدود": 178,
    "▁بریتانیا": 179,
    "▁نشان": 180,
    "▁آن": 181,
    "به": 182,
    "ج": 183,
    "▁حضور": 184,
    "ست": 185,
    "▁واکسن": 186,
    "▁برنامه": 187,
    "▁شهر": 188,
    "▁نیز": 189,
    "▁اقتصادی": 190,
    "▁پایان": 191,
    "▁گل": 192,
    "▁داشته": 193,
    "▁ش": 194,
    "▁کم": 195,
    "▁زمان": 196,
    "▁اش": 197,
    "▁باشگاه": 198,
    "▁زمین": 199,
    "▁بانک": 200,
    "یت": 201,
    "▁صورت": 202,
    "سیون": 203,
    "▁باشد": 204,
    "▁اساس": 205,
    "▁انجام": 206,
    "▁بخش": 207,
    "که": 208,
    "او": 209,
    "▁توافق": 210,
    "▁اول": 211,
    "▁منتشر": 212,
    "ق": 213,
    "▁اولین": 214,
    "▁دی": 215,
    "▁شیوع": 216,
    "▁تحریم": 217,
    "ح": 218,
    "خ": 219,
    "▁میلیارد": 220,
    "با": 221,
    "دامه": 222,
    "▁فصل": 223,
    "▁میان": 224,
    "▁استفاده": 225,
    "▁جمله": 226,
    "▁مردم": 227,
    "ون": 228,
    "▁وجود": 229,
    "▁رسید": 230,
    "▁شورا": 231,
    "▁ر": 232,
    "▁دارند": 233,
    "بر": 234,
    "له": 235,
    "▁شوند": 236,
    "؟": 237,
    "انه": 238,
    "▁مسابقات": 239,
    "▁خواست": 240,
    "ال": 241,
    "آقای": 242,
    "▁گیری": 243,
    "▁پر": 244,
    "▁همین": 245,
    "▁پی": 246,
    "▁ایرانی": 247,
    "▁زندگی": 248,
    "▁گروه": 249,
    "▁تومان": 250,
    "یک": 251,
    "▁چهار": 252,
    "▁گرفت": 253,
    "▁مسابقه": 254,
    "▁ارز": 255,
    "▁حقوق": 256,
    "▁المللی": 257,
    "▁مقام": 258,
    "▁آ": 259,
    "▁تمام": 260,
    "▁کل": 261,
    "شان": 262,
    "▁ماشین": 263,
    "▁کر": 264,
    "▁برتر": 265,
    "ام": 266,
    "تر": 267,
    "▁بسیاری": 268,
    "▁تواند": 269,
    "نه": 270,
    "▁شدند": 271,
    "▁وقت": 272,
    "▁آینده": 273,
    "▁اقتصاد": 274,
    "▁نرخ": 275,
    "▁وضعیت": 276,
    "▁اسلامی": 277,
    "گان": 278,
    "▁غیر": 279,
    "▁تنها": 280,
    "▁بیماری": 281,
    "یم": 282,
    "▁فروش": 283,
    "▁پنج": 284,
    "▁شرایط": 285,
    "▁امسال": 286,
    "▁نزدیک": 287,
    "▁توان": 288,
    "▁تصمیم": 289,
    "رسی": 290,
    "▁جام": 291,
    "▁زنان": 292,
    "▁وارد": 293,
    "نگ": 294,
    "▁هیچ": 295,
    "▁قبل": 296,
    "▁فعالیت": 297,
    "▁کشورهای": 298,
    "▁حالی": 299,
    "▁دوران": 300,
    "▁مهم": 301,
    "▁زیاد": 302,
    "بدون": 303,
    "▁رسان": 304,
    "▁مختلف": 305,
    "▁طور": 306,
    "▁س": 307,
    "▁طرح": 308,
    "▁خانه": 309,
    "▁کردن": 310,
    "▁اجتماعی": 311,
    "گ": 312,
    "▁منبع": 313,
    "▁محمد": 314,
    "عث": 315,
    "ترین": 316,
    "ید": 317,
    "▁روحانی": 318,
    "▁خارجه": 319,
    "▁ولی": 320,
    "▁قهرمان": 321,
    "▁تلاش": 322,
    "▁او": 323,
    "▁نخست": 324,
    "▁جان": 325,
    "▁گویند": 326,
    "▁تغییر": 327,
    "▁مدت": 328,
    "▁هنو": 329,
    "▁افراد": 330,
    "قط": 331,
    "▁برای": 332,
    "▁خانواده": 333,
    "پ": 334,
    "▁ساله": 335,
    "▁پول": 336,
    "▁کمک": 337,
    "▁ل": 338,
    "▁نه": 339,
    "▁هم": 340,
    "اب": 341,
    "▁بسیار": 342,
    "▁آخر": 343,
    "▁بورس": 344,
    "▁تازه": 345,
    "نی": 346,
    "▁هایی": 347,
    "▁انتخابات": 348,
    "▁برخ": 349,
    "▁نا": 350,
    "▁دهه": 351,
    "▁حت": 352,
    "▁تاریخ": 353,
    "گر": 354,
    "▁ریاست": 355,
    "▁دانشگاه": 356,
    "▁حالا": 357,
    "▁دنیا": 358,
    "▁درگذشت": 359,
    "▁سوی": 360,
    "▁اثر": 361,
    "▁مرکزی": 362,
    "▁دوره": 363,
    "▁زیر": 364,
    "▁سفر": 365,
    "روز": 366,
    "▁عکس": 367,
    "▁قهرمانی": 368,
    "▁اصلی": 369,
    "نامه": 370,
    "▁کنار": 371,
    "از": 372,
    "▁منطقه": 373,
    "▁جمهور": 374,
    "▁رسمی": 375,
    "▁این": 376,
    "▁سرمایه": 377,
    "▁پیدا": 378,
    "لی": 379,
    "▁برابر": 380,
    "▁زن": 381,
    "▁موسیقی": 382,
    "▁سو": 383,
    "▁همراه": 384,
    "▁رقابت": 385,
    "▁خودرو": 386,
    "▁اینک": 387,
    "▁اعتراض": 388,
    "▁هسته": 389,
    "شروع": 390,
    "▁دوم": 391,
    "▁۲۰": 392,
    "۱": 393,
    "▁۱۰": 394,
    "▁اطلاعات": 395,
    "▁بعضی": 396,
    "▁رسیده": 397,
    "ثبت": 398,
    "▁آمار": 399,
    "ول": 400,
    "دی": 401,
    "▁که": 402,
    "ای": 403,
    "▁۱۹": 404,
    "▁آمریکایی": 405,
    "▁ال": 406,
    "▁پرسپولیس": 407,
    "▁صد": 408,
    "▁مرکز": 409,
    "▁دور": 410,
    "▁میلادی": 411,
    "▁نقش": 412,
    "▁شکست": 413,
    "▁نتیج": 414,
    "۸": 415,
    "▁رو": 416,
    "▁اشار": 417,
    "▁برجام": 418,
    "▁آزاد": 419,
    "▁توجه": 420,
    "▁بالا": 421,
    "▁آب": 422,
    "▁ق": 423,
    "▁ده": 424,
    "▁ح": 425,
    "▁سهام": 426,
    "▁کشتی": 427,
    "▁یافته": 428,
    "▁رشد": 429,
    "▁رفت": 430,
    "▁۴": 431,
    "▁بودجه": 432,
    "▁نشده": 433,
    "▁دنبال": 434,
    "▁کمتر": 435,
    "▁حاضر": 436,
    "▁جایزه": 437,
    "▁ممکن": 438,
    "۶": 439,
    "▁ام": 440,
    "▁حمله": 441,
    "▁سیاسی": 442,
    "▁حمایت": 443,
    "▁همکاری": 444,
    "▁چ": 445,
    "▁آلمان": 446,
    "▁دریافت": 447,
    "ده": 448,
    "▁نوشته": 449,
    "▁پرداخت": 450,
    "را": 451,
    "▁خرید": 452,
    "▁بازیکن": 453,
    "▁شمار": 454,
    "▁مراسم": 455,
    "▁شش": 456,
    "▁مالی": 457,
    "▁واکنش": 458,
    "توسط": 459,
    "▁اج": 460,
    "▁کتاب": 461,
    "▁الله": 462,
    "▁۵": 463,
    "▁ساعت": 464,
    "۲": 465,
    "▁بهترین": 466,
    "▁بهداشت": 467,
    "▁سیاست": 468,
    "▁استان": 469,
    "▁ندارد": 470,
    "▁هدف": 471,
    "▁استقلال": 472,
    "▁طی": 473,
    "▁دیدار": 474,
    "▁عراق": 475,
    "▁تو": 476,
    "▁۲۰۲۰": 477,
    "بی": 478,
    "اس": 479,
    "▁۲۰۱": 480,
    "اکنون": 481,
    "▁خام": 482,
    "▁فرانسه": 483,
    "▁آژانس": 484,
    "▁فدرا": 485,
    "▁عرض": 486,
    "▁رد": 487,
    "▁درآمد": 488,
    "▁شنبه": 489,
    "▁نامه": 490,
    "▁ترکیه": 491,
    "▁جو": 492,
    "▁نیمه": 493,
    "▁یافت": 494,
    "▁روند": 495,
    "سی": 496,
    "▁مدیر": 497,
    "ما": 498,
    "▁خبرگزا": 499,
    "▁سوم": 500,
    "ِ": 501,
    "▁عربستان": 502,
    "▁رسد": 503,
    "▁ویژه": 504,
    "▁همان": 505,
    "▁آمده": 506,
    "▁انتشار": 507,
    "▁پیروز": 508,
    "▁انرژی": 509,
    "▁چنین": 510,
    "▁دهند": 511,
    "▁ج": 512,
    "▁سابق": 513,
    "▁۸": 514,
    "▁جنوبی": 515,
    "۴": 516,
    "▁کمی": 517,
    "▁هشدار": 518,
    "▁قهرمانان": 519,
    "▁۲": 520,
    "▁گذاری": 521,
    "۵": 522,
    "▁موضوع": 523,
    "▁د": 524,
    "ازه": 525,
    ")": 526,
    "▁قانون": 527,
    "▁نو": 528,
    "▁کنیم": 529,
    "رو": 530,
    "▁ترامپ": 531,
    "▁مرگ": 532,
    "ض": 533,
    "گو": 534,
    "▁نهایی": 535,
    "▁خط": 536,
    "▁مبارز": 537,
    "▁سازی": 538,
    "▁زبان": 539,
    "▁اتحاد": 540,
    "▁آی": 541,
    "▁میزان": 542,
    "▁ایجاد": 543,
    "گیری": 544,
    "▁قابل": 545,
    "▁نیاز": 546,
    "▁مشخص": 547,
    "▁تبدیل": 548,
    "▁خواهند": 549,
    "▁تاثیر": 550,
    "▁آزمایش": 551,
    "▁ساخت": 552,
    "▁ورزش": 553,
    "▁۶": 554,
    "▁اجرای": 555,
    "لو": 556,
    "▁بازیکنان": 557,
    "ایی": 558,
    "▁تع": 559,
    "▁۷": 560,
    "▁صادرات": 561,
    "▁اقدام": 562,
    "▁مذاکرات": 563,
    "دار": 564,
    "▁جریان": 565,
    "▁خیل": 566,
    "▁(": 567,
    "ط": 568,
    "▁مرد": 569,
    "▁کشته": 570,
    "▁متهم": 571,
    "▁عضو": 572,
    "▁حسن": 573,
    "▁خارجی": 574,
    "۰": 575,
    "▁گو": 576,
    "▁پرونده": 577,
    "ص": 578,
    "اد": 579,
    "▁رود": 580,
    "کسب": 581,
    "▁نیم": 582,
    "▁بشر": 583,
    "یا": 584,
    "▁زده": 585,
    "چه": 586,
    "▁جنگ": 587,
    "▁هفت": 588,
    "ود": 589,
    "▁سپاه": 590,
    "▁تلویزیون": 591,
    "▁تایید": 592,
    "▁کس": 593,
    "▁تعطیل": 594,
    "▁جلو": 595,
    "▁نمایش": 596,
    "▁بیمارستان": 597,
    "▁آسیا": 598,
    "گاه": 599,
    "▁مربوط": 600,
    "▁انسان": 601,
    "▁خارج": 602,
    "▁اسرائیل": 603,
    "▁مدل": 604,
    "▁فاصله": 605,
    "▁روسیه": 606,
    "▁بازگشت": 607,
    "▁طریق": 608,
    "دو": 609,
    "می": 610,
    "▁لو": 611,
    "▁محل": 612,
    "مین": 613,
    "▁بازداشت": 614,
    "▁رهبر": 615,
    "▁قرارداد": 616,
    "▁دیده": 617,
    "▁ارتباط": 618,
    "۹": 619,
    "▁انتخاب": 620,
    "چ": 621,
    "▁خاطر": 622,
    "▁سرمربی": 623,
    "▁هی": 624,
    "▁چرا": 625,
    "▁بست": 626,
    "▁انگلیس": 627,
    "▁احمد": 628,
    "▁لیورپول": 629,
    "▁سالگی": 630,
    "▁مجموعه": 631,
    "▁۳": 632,
    "▁قطع": 633,
    "▁تنیس": 634,
    "▁قو": 635,
    "▁معاون": 636,
    "مان": 637,
    "▁نمایندگان": 638,
    "▁بالای": 639,
    "▁نشست": 640,
    "کس": 641,
    "▁دولتی": 642,
    "▁خطر": 643,
    "▁برد": 644,
    "▁نسبت": 645,
    "▁طرف": 646,
    "▁تعداد": 647,
    "▁مت": 648,
    "▁بیانی": 649,
    "▁حکومت": 650,
    "نا": 651,
    "▁امنیت": 652,
    "▁۲۰۰": 653,
    "▁ابتلا": 654,
    "▁اتمی": 655,
    "▁اعضای": 656,
    "▁دوبار": 657,
    "▁پلیس": 658,
    "▁دادگاه": 659,
    "▁رکورد": 660,
    "وس": 661,
    "▁کو": 662,
    "▁آثار": 663,
    "▁سطح": 664,
    "▁قرنطینه": 665,
    "وی": 666,
    "فر": 667,
    "▁ع": 668,
    "▁تن": 669,
    "▁سن": 670,
    "▁کامل": 671,
    "▁۳۰": 672,
    "▁زمانی": 673,
    "▁طول": 674,
    "▁داستان": 675,
    "▁شناخت": 676,
    "وز": 677,
    "▁ساخته": 678,
    "▁ان": 679,
    "▁کننده": 680,
    "▁صنعت": 681,
    "▁محدودیت": 682,
    "وم": 683,
    "▁سخنگوی": 684,
    "▁فر": 685,
    "▁کابل": 686,
    "▁گاز": 687,
    "▁حکم": 688,
    "▁تحت": 689,
    "▁خوب": 690,
    "▁۲۵": 691,
    "▁پخ": 692,
    "غ": 693,
    "▁عمومی": 694,
    "▁رای": 695,
    "▁منابع": 696,
    "▁امتیاز": 697,
    "▁لندن": 698,
    "▁ترک": 699,
    "▁نظامی": 700,
    "▁زندان": 701,
    "▁لغو": 702,
    "▁جا": 703,
    "▁انقلاب": 704,
    "▁پا": 705,
    "▁نگاه": 706,
    "▁هند": 707,
    "اما": 708,
    "▁ارزش": 709,
    "▁نقل": 710,
    "▁همزمان": 711,
    "▁کودکان": 712,
    "▁سخت": 713,
    "کو": 714,
    "▁برق": 715,
    "▁توصی": 716,
    "۷": 717,
    "▁بخشی": 718,
    "▁ظریف": 719,
    "▁گ": 720,
    "▁نهاد": 721,
    "▁گسترده": 722,
    "▁۹": 723,
    "▁بشک": 724,
    "▁جاری": 725,
    "تا": 726,
    "۰۰": 727,
    "▁چشم": 728,
    "▁پزشکی": 729,
    "▁نمایند": 730,
    "▁امنیتی": 731,
    "▁انتقاد": 732,
    "▁نوشت": 733,
    "▁۱۲": 734,
    "▁سابقه": 735,
    "▁یو": 736,
    "▁شدید": 737,
    "▁فشار": 738,
    "▁نامزد": 739,
    "وق": 740,
    "▁نگرانی": 741,
    "▁جلسه": 742,
    "▁روزهای": 743,
    "▁طراح": 744,
    "▁مطرح": 745,
    "▁شکل": 746,
    "ستاره": 747,
    "▁انتظار": 748,
    "▁صندوق": 749,
    "کا": 750,
    "▁المپیک": 751,
    "▁انتقال": 752,
    "▁حرکت": 753,
    "ستان": 754,
    "-": 755,
    "▁بد": 756,
    "▁مرح": 757,
    "ازم": 758,
    "▁دادن": 759,
    "▁توانست": 760,
    "▁بلند": 761,
    "▁تورم": 762,
    "▁چهر": 763,
    "▁هز": 764,
    "▁برنده": 765,
    "▁ورود": 766,
    "▁۲۰۱۹": 767,
    "▁آیا": 768,
    "▁تصوی": 769,
    "▁عالی": 770,
    "▁بایدن": 771,
    "▁دانست": 772,
    "▁افت": 773,
    "▁ورزشگاه": 774,
    "▁ورزشی": 775,
    "▁خودش": 776,
    "رت": 777,
    "▁باشند": 778,
    "الات": 779,
    "▁دستگاه": 780,
    "▁جمعیت": 781,
    "▁رقم": 782,
    "▁سینما": 783,
    "▁گرفتن": 784,
    "▁آبان": 785,
    "▁متوقف": 786,
    "▁پاسخ": 787,
    "▁ک": 788,
    "سا": 789,
    "▁کووید": 790,
    "یست": 791,
    "▁متحده": 792,
    "▁ایتالیا": 793,
    "▁هوای": 794,
    "▁نکرده": 795,
    "▁۱۴۰۰": 796,
    "دا": 797,
    "▁شان": 798,
    "▁شدت": 799,
    "▁چهارم": 800,
    "▁مع": 801,
    "▁کشید": 802,
    "▁ارائه": 803,
    "▁بحران": 804,
    "▁معرف": 805,
    "▁بینی": 806,
    "▁اتفاق": 807,
    "▁قدرت": 808,
    "▁دیگری": 809,
    "▁کلی": 810,
    "▁مشکلات": 811,
    "ستاد": 812,
    "آ": 813,
    "سازی": 814,
    "▁نفتی": 815,
    "▁تحقیق": 816,
    "▁جای": 817,
    "▁تک": 818,
    "▁۱۵": 819,
    "▁هواپیمای": 820,
    "▁امور": 821,
    "▁مسی": 822,
    "▁فرهنگ": 823,
    "▁شهرهای": 824,
    "▁۱۱": 825,
    "▁موسس": 826,
    "▁گیرد": 827,
    "▁دستور": 828,
    "▁مانده": 829,
    "▁داشتند": 830,
    "▁بدن": 831,
    "▁جدی": 832,
    "▁آنچ": 833,
    "▁فعال": 834,
    "▁مصاحبه": 835,
    "▁فینال": 836,
    "▁پیشین": 837,
    "▁جنوب": 838,
    "▁موج": 839,
    "▁عد": 840,
    "▁تشکیل": 841,
    "▁نوع": 842,
    "▁تحقیقات": 843,
    "▁سایر": 844,
    "▁کسان": 845,
    "▁نبود": 846,
    "▁گذاشته": 847,
    "▁فن": 848,
    "ظ": 849,
    "▁الکتریکی": 850,
    "▁قرمز": 851,
    "▁حساب": 852,
    "▁بارسلونا": 853,
    "▁اروپایی": 854,
    "▁بالاتر": 855,
    "▁آمد": 856,
    "دن": 857,
    "اخر": 858,
    "▁مصوب": 859,
    "▁هنگام": 860,
    "▁پل": 861,
    "▁ما": 862,
    "▁وی": 863,
    "▁پشت": 864,
    "▁نیروهای": 865,
    "حه": 866,
    "▁خانم": 867,
    "کر": 868,
    "▁مسیر": 869,
    "▁یاد": 870,
    "▁آزادی": 871,
    "▁قرن": 872,
    "▁رفته": 873,
    "▁مربی": 874,
    "▁جامعه": 875,
    "▁شامل": 876,
    "▁درمان": 877,
    "▁عمل": 878,
    "▁من": 879,
    "▁داخل": 880,
    "لا": 881,
    "▁مشکل": 882,
    "▁چگون": 883,
    "۳": 884,
    "▁دار": 885,
    "▁اتهام": 886,
    "▁محیط": 887,
    "▁۲۲": 888,
    "▁۱": 889,
    "▁یع": 890,
    "▁فکر": 891,
    "ینه": 892,
    "▁داخلی": 893,
    "▁ممنوع": 894,
    "▁باقی": 895,
    "▁طولانی": 896,
    "▁معاملات": 897,
    "▁دادند": 898,
    "▁۱۳": 899,
    "▁فروردین": 900,
    "▁ماسک": 901,
    "▁زد": 902,
    "▁اجرا": 903,
    "▁فارسی": 904,
    "▁سیستم": 905,
    "▁احتمال": 906,
    "▁ابتدای": 907,
    "▁اف": 908,
    "▁مسئولان": 909,
    "▁مبتلا": 910,
    "▁اسفند": 911,
    "▁تجرب": 912,
    "یر": 913,
    "▁مو": 914,
    "ویه": 915,
    "▁افتاد": 916,
    "▁آسیب": 917,
    "▁ضرب": 918,
    "▁تا": 919,
    "▁خون": 920,
    "▁فرهنگی": 921,
    "▁روزنامه": 922,
    "▁خروج": 923,
    "▁ز": 924,
    "▁نیروی": 925,
    "▁کنم": 926,
    "فت": 927,
    "اک": 928,
    "▁میزبان": 929,
    "کار": 930,
    "▁کوچک": 931,
    "▁بتوان": 932,
    "▁رشت": 933,
    "▁دونالد": 934,
    "▁اختیار": 935,
    "▁ترکیب": 936,
    "▁سیاه": 937,
    "▁سریال": 938,
    "▁اس": 939,
    "لق": 940,
    "▁لی": 941,
    "▁لای": 942,
    "▁نگهبان": 943,
    "▁آتش": 944,
    "▁حد": 945,
    "▁غنی": 946,
    "▁کنید": 947,
    "▁عامل": 948,
    "▁ملل": 949,
    "▁طبق": 950,
    "▁۵۰": 951,
    "▁محکوم": 952,
    "▁محدود": 953,
    "▁صحبت": 954,
    "▁درخواست": 955,
    "▁نژاد": 956,
    "▁قبلی": 957,
    "▁مارادونا": 958,
    "▁گون": 959,
    "▁شماری": 960,
    "▁خبرنگار": 961,
    "▁تجاری": 962,
    "▁شما": 963,
    "▁امکان": 964,
    "▁مرغ": 965,
    "▁دوشنبه": 966,
    "▁واردات": 967,
    "▁رنگ": 968,
    "▁تهدید": 969,
    "▁زیست": 970,
    "▁تاکید": 971,
    "▁اسکار": 972,
    "▁مارس": 973,
    "▁پایین": 974,
    "▁گذشت": 975,
    "▁کی": 976,
    "▁محلی": 977,
    "▁پ": 978,
    "▁سقوط": 979,
    "▁دلایل": 980,
    "▁چهارشنبه": 981,
    "▁گر": 982,
    "▁هنر": 983,
    "دان": 984,
    "▁اعدام": 985,
    "من": 986,
    "▁تاریخی": 987,
    "▁هنری": 988,
    "▁شاخص": 989,
    "▁سیتی": 990,
    "نو": 991,
    "▁متر": 992,
    "▁شاهد": 993,
    "▁مواد": 994,
    "▁علت": 995,
    "▁جز": 996,
    "▁بنزین": 997,
    "رفع": 998,
    "▁۱۷": 999,
    "▁فضای": 1000,
    "▁آورد": 1001,
    "▁سراسر": 1002,
    "▁مشترک": 1003,
    "▁نخواه": 1004,
    "▁ناشی": 1005,
    "▁دل": 1006,
    "▁وین": 1007,
    "▁ژان": 1008,
    "▁صادر": 1009,
    "کل": 1010,
    "سال": 1011,
    "▁خ": 1012,
    "▁کارگران": 1013,
    "▁ترتیب": 1014,
    "▁همیشه": 1015,
    "▁پارسال": 1016,
    "براز": 1017,
    "▁آوریل": 1018,
    "▁پور": 1019,
    "ژ": 1020,
    "▁بودن": 1021,
    "▁کوتاه": 1022,
    "▁کارگردان": 1023,
    "▁تامین": 1024,
    "▁خوانده": 1025,
    "▁حرفه": 1026,
    "▁بازیگر": 1027,
    "▁یکشنبه": 1028,
    "جا": 1029,
    "طور": 1030,
    "▁فرد": 1031,
    "▁کنترل": 1032,
    "▁چپ": 1033,
    "▁بیرون": 1034,
    "▁دفاع": 1035,
    "▁باخت": 1036,
    "▁موارد": 1037,
    "▁واحد": 1038,
    "▁گفتگو": 1039,
    "▁کن": 1040,
    "▁اولیه": 1041,
    "▁۶۰": 1042,
    "اق": 1043,
    "تو": 1044,
    "▁دقیقه": 1045,
    "▁جوان": 1046,
    "▁امضا": 1047,
    "▁حذف": 1048,
    "▁۴۰": 1049,
    "▁احتمالا": 1050,
    "یو": 1051,
    "▁مهر": 1052,
    "▁خصوصی": 1053,
    "▁توسعه": 1054,
    "▁نویسنده": 1055,
    "▁مصرف": 1056,
    "▁۱۸": 1057,
    "▁روابط": 1058,
    "▁سمت": 1059,
    "▁چیز": 1060,
    "▁دسترس": 1061,
    "داد": 1062,
    "▁مسئول": 1063,
    "▁قوانین": 1064,
    "▁تقریبا": 1065,
    "▁هواداران": 1066,
    "▁۱۴": 1067,
    "▁نظام": 1068,
    "▁مر": 1069,
    "▁اقدامات": 1070,
    "▁شجریان": 1071,
    "▁متفاوت": 1072,
    "▁نظیر": 1073,
    "گرد": 1074,
    "▁سلامت": 1075,
    "است": 1076,
    "▁ماند": 1077,
    "▁درگیر": 1078,
    "▁جمعه": 1079,
    "سر": 1080,
    "▁استرالیا": 1081,
    "▁روبرو": 1082,
    "▁انفجار": 1083,
    "▁خوزستان": 1084,
    "▁سوخت": 1085,
    "▁نتایج": 1086,
    "▁پیام": 1087,
    "▁یونایتد": 1088,
    "▁سرعت": 1089,
    "▁آل": 1090,
    "▁کالا": 1091,
    "▁۱۶": 1092,
    "▁شهروندان": 1093,
    "▁مناطق": 1094,
    "▁پیشنهاد": 1095,
    "▁مد": 1096,
    "▁بندی": 1097,
    "▁۹۸": 1098,
    "▁سنت": 1099,
    "▁آستان": 1100,
    "▁جهش": 1101,
    "▁مل": 1102,
    "بود": 1103,
    "▁ونزوئلا": 1104,
    "▁پروژه": 1105,
    "▁انگیز": 1106,
    "▁راست": 1107,
    "▁قصد": 1108,
    "▁حل": 1109,
    "▁شاید": 1110,
    "▁کاملا": 1111,
    "▁سود": 1112,
    "▁صفر": 1113,
    "ائ": 1114,
    "▁مادر": 1115,
    "▁معروف": 1116,
    "▁بگیرد": 1117,
    "▁اوپک": 1118,
    "▁اطلاع": 1119,
    "▁اخیرا": 1120,
    "نجر": 1121,
    "▁آماده": 1122,
    "▁علاو": 1123,
    "▁تاکنون": 1124,
    "▁محمود": 1125,
    "▁زاده": 1126,
    "امبر": 1127,
    "کن": 1128,
    "▁غرب": 1129,
    "▁اندازه": 1130,
    "▁آرژانتین": 1131,
    "▁۲۰۲۱": 1132,
    "▁ولایت": 1133,
    "خت": 1134,
    "▁قطر": 1135,
    "▁احیا": 1136,
    "▁جشنواره": 1137,
    "وت": 1138,
    "▁فضایی": 1139,
    "مر": 1140,
    "▁عباس": 1141,
    "▁پذیر": 1142,
    "▁بیست": 1143,
    "▁بو": 1144,
    "▁مرتبط": 1145,
    "ایران": 1146,
    "پس": 1147,
    "▁فعالان": 1148,
    "رد": 1149,
    "▁بال": 1150,
    "▁بن": 1151,
    "▁پرواز": 1152,
    "وال": 1153,
    "▁بارها": 1154,
    "▁جدول": 1155,
    "▁ندارند": 1156,
    "▁عبور": 1157,
    "▁شمال": 1158,
    "▁تجارت": 1159,
    "▁اتاق": 1160,
    "▁عملیات": 1161,
    "داری": 1162,
    "▁شا": 1163,
    "▁ملت": 1164,
    "▁اختلاف": 1165,
    "▁موفق": 1166,
    "▁فهرست": 1167,
    "▁دختر": 1168,
    "▁مالیات": 1169,
    "اساس": 1170,
    "▁مذاکر": 1171,
    "▁دارایی": 1172,
    "▁بخوانید": 1173,
    "▁شکایت": 1174,
    "▁رییس": 1175,
    "▁سپ": 1176,
    "ئو": 1177,
    "▁دومین": 1178,
    "▁کارگر": 1179,
    "سون": 1180,
    "نس": 1181,
    "▁مرز": 1182,
    "▁هوا": 1183,
    "▁فوت": 1184,
    "▁دید": 1185,
    "اف": 1186,
    "خانه": 1187,
    "▁تاج": 1188,
    "بو": 1189,
    "جو": 1190,
    "پر": 1191,
    "محمد": 1192,
    "▁صدای": 1193,
    "وا": 1194,
    "▁مشهور": 1195,
    "حفظ": 1196,
    "▁توییتر": 1197,
    "▁بزرگترین": 1198,
    "ره": 1199,
    "▁شناسا": 1200,
    "▁دهم": 1201,
    "▁رسیدن": 1202,
    "▁قلب": 1203,
    "▁تابستان": 1204,
    "▁برده": 1205,
    "▁فدرر": 1206,
    "▁ریز": 1207,
    "▁کارخان": 1208,
    "▁رساند": 1209,
    "عودی": 1210,
    "▁حریف": 1211,
    "▁مغز": 1212,
    "▁امید": 1213,
    "▁کشورها": 1214,
    "▁ایالت": 1215,
    "ئی": 1216,
    "▁ص": 1217,
    "▁زنده": 1218,
    "▁صفح": 1219,
    "▁حق": 1220,
    "▁گذار": 1221,
    "▁واکسین": 1222,
    "هم": 1223,
    "▁مشابه": 1224,
    "▁سریع": 1225,
    "▁ساز": 1226,
    "▁اداره": 1227,
    "▁نشد": 1228,
    "▁فرصت": 1229,
    "▁نقطه": 1230,
    "▁واقع": 1231,
    "▁چاپ": 1232,
    "▁پاریس": 1233,
    "▁بهبود": 1234,
    "▁سنگین": 1235,
    "▁یورو": 1236,
    "▁اعتراضات": 1237,
    "▁چیزی": 1238,
    "▁اعمال": 1239,
    "▁تجمع": 1240,
    "یده": 1241,
    "▁آر": 1242,
    "▁جمع": 1243,
    "▁منف": 1244,
    "▁نقاشی": 1245,
    "تن": 1246,
    "▁بیت": 1247,
    "▁کمیت": 1248,
    "▁رضا": 1249,
    "▁پروازهای": 1250,
    "▁فساد": 1251,
    "▁مجدد": 1252,
    "▁مجوز": 1253,
    "▁فرمانده": 1254,
    "▁کشف": 1255,
    "▁نگران": 1256,
    "▁بریتانیایی": 1257,
    "▁۵۰۰": 1258,
    "▁دکتر": 1259,
    "▁کنندگان": 1260,
    "▁افغان": 1261,
    "▁مواجه": 1262,
    "▁حزب": 1263,
    "▁تی": 1264,
    "▁موفقیت": 1265,
    "پور": 1266,
    "بار": 1267,
    "ث": 1268,
    "▁سایت": 1269,
    "▁تهی": 1270,
    "▁رانند": 1271,
    "▁نظارت": 1272,
    "▁سرطان": 1273,
    "▁برزیل": 1274,
    "▁خصوص": 1275,
    "▁گذاشت": 1276,
    "پی": 1277,
    "▁جنسی": 1278,
    "▁ایمن": 1279,
    "▁لا": 1280,
    "▁گاه": 1281,
    "▁برخورد": 1282,
    "عده": 1283,
    "▁اضاف": 1284,
    "▁رکود": 1285,
    "▁خواننده": 1286,
    "▁نسل": 1287,
    "▁۲۴": 1288,
    "▁خالی": 1289,
    "▁توپ": 1290,
    "▁پدر": 1291,
    "▁روزانه": 1292,
    "▁گردد": 1293,
    "نمایی": 1294,
    "▁هشت": 1295,
    "▁کودک": 1296,
    "▁نور": 1297,
    "▁مردان": 1298,
    "▁تغییرات": 1299,
    "▁مه": 1300,
    "▁هرات": 1301,
    "فورد": 1302,
    "▁طلا": 1303,
    "▁نهادهای": 1304,
    "کش": 1305,
    "▁خواهان": 1306,
    "▁کنون": 1307,
    "▁رفتن": 1308,
    "▁هایش": 1309,
    "▁طبیعی": 1310,
    "▁حوزه": 1311,
    "▁حادثه": 1312,
    "▁پنجم": 1313,
    "▁برداشت": 1314,
    "▁قانونی": 1315,
    "▁حرف": 1316,
    "علی": 1317,
    "▁رعایت": 1318,
    "▁اینترنت": 1319,
    "▁عملکرد": 1320,
    "▁عدالت": 1321,
    "▁صعود": 1322,
    "▁موافقت": 1323,
    "▁منچستر": 1324,
    "▁علمی": 1325,
    "▁مهدی": 1326,
    "▁۲۱": 1327,
    "▁روشن": 1328,
    "ذ": 1329,
    "▁مکان": 1330,
    "▁رخ": 1331,
    "▁رابطه": 1332,
    "▁شعر": 1333,
    "▁بهار": 1334,
    "▁تصاویر": 1335,
    "▁گرد": 1336,
    "▁درست": 1337,
    "وف": 1338,
    "▁جنگل": 1339,
    "▁بیکار": 1340,
    "▁گروهی": 1341,
    "▁جشن": 1342,
    "▁۱۰۰": 1343,
    "▁سفید": 1344,
    "▁نفتکش": 1345,
    "▁چلسی": 1346,
    "▁امام": 1347,
    "وب": 1348,
    "▁ناز": 1349,
    "▁قضایی": 1350,
    "▁۲۳": 1351,
    "▁مجبور": 1352,
    "▁بایرن": 1353,
    "▁کاخ": 1354,
    "▁دوست": 1355,
    "▁سا": 1356,
    "▁درواز": 1357,
    "▁مج": 1358,
    "▁کیلومتر": 1359,
    "▁مجموع": 1360,
    "▁پست": 1361,
    "▁آید": 1362,
    "▁دبیر": 1363,
    "▁روش": 1364,
    "▁میدان": 1365,
    "▁پاسداران": 1366,
    "▁مقایس": 1367,
    "▁بحث": 1368,
    "کی": 1369,
    "▁مک": 1370,
    "▁ابتدا": 1371,
    "▁کا": 1372,
    "▁توضیح": 1373,
    "▁اسپانیا": 1374,
    "▁مستند": 1375,
    "▁دچار": 1376,
    "▁ژوئن": 1377,
    "▁مهاجم": 1378,
    "▁ارتش": 1379,
    "▁یابد": 1380,
    "▁سوریه": 1381,
    "▁سعید": 1382,
    "▁مقررات": 1383,
    "اوری": 1384,
    "▁ترس": 1385,
    "▁برسد": 1386,
    "▁صدا": 1387,
    "▁عمده": 1388,
    "▁استاد": 1389,
    "▁فرا": 1390,
    "▁پیشرفت": 1391,
    "▁کانال": 1392,
    "▁مجله": 1393,
    "▁مانع": 1394,
    "▁کدام": 1395,
    "▁جدا": 1396,
    "▁خواند": 1397,
    "▁بیشتری": 1398,
    "▁نشری": 1399,
    "▁خودروساز": 1400,
    "▁دنیای": 1401,
    "▁دین": 1402,
    "▁بهتر": 1403,
    "▁منتقل": 1404,
    "▁معتقد": 1405,
    "▁تاسیس": 1406,
    "▁مجازی": 1407,
    "بیشتر": 1408,
    "کنندگان": 1409,
    "▁۲۸": 1410,
    "غلب": 1411,
    "▁دانند": 1412,
    "▁اوت": 1413,
    "▁ست": 1414,
    "▁کارشناسان": 1415,
    "▁کاری": 1416,
    "▁تاز": 1417,
    "جی": 1418,
    "▁کوین": 1419,
    "▁سنگ": 1420,
    "▁نقاط": 1421,
    "▁نقدینگی": 1422,
    "▁امیدوار": 1423,
    "▁سفیر": 1424,
    "ممنوعیت": 1425,
    "▁مرداد": 1426,
    "▁سخنران": 1427,
    "▁پای": 1428,
    "▁دریا": 1429,
    "▁چا": 1430,
    "▁بازارهای": 1431,
    "▁صحنه": 1432,
    "یابی": 1433,
    "▁موجود": 1434,
    "▁آورده": 1435,
    "▁برگشت": 1436,
    "▁تاتنهام": 1437,
    "▁رمان": 1438,
    "▁نویس": 1439,
    "▁دارو": 1440,
    "▁پرس": 1441,
    "لان": 1442,
    "▁واقعی": 1443,
    "▁بنا": 1444,
    "پا": 1445,
    "▁سوار": 1446,
    "▁گران": 1447,
    "▁گمرک": 1448,
    "▁مسکن": 1449,
    "▁خاک": 1450,
    "▁ارشد": 1451,
    "▁مستقیم": 1452,
    "▁اظهارات": 1453,
    "▁پوند": 1454,
    "سو": 1455,
    "▁هنرمند": 1456,
    "▁نداشت": 1457,
    "بین": 1458,
    "▁پژوهش": 1459,
    "▁ژاپن": 1460,
    "▁انگلستان": 1461,
    "▁تورنمنت": 1462,
    "▁پایتخت": 1463,
    "▁مشغول": 1464,
    "▁اوراق": 1465,
    "وان": 1466,
    "▁حسین": 1467,
    "وار": 1468,
    "▁مدیریت": 1469,
    "▁-": 1470,
    "ادی": 1471,
    "▁موجب": 1472,
    "▁افتاده": 1473,
    "▁وگو": 1474,
    "▁هو": 1475,
    "▁مثبت": 1476,
    "▁تقوی": 1477,
    "▁فنی": 1478,
    "▁خورد": 1479,
    "▁زود": 1480,
    "▁ض": 1481,
    "▁مح": 1482,
    "▁تشخیص": 1483,
    "▁بنز": 1484,
    "▁گرم": 1485,
    "▁حیات": 1486,
    "▁موسو": 1487,
    "▁چه": 1488,
    "▁غذا": 1489,
    "▁بیمار": 1490,
    "▁عهد": 1491,
    "▁دقیق": 1492,
    "▁چک": 1493,
    "▁تزریق": 1494,
    "▁حداقل": 1495,
    "▁نهایت": 1496,
    "▁رفتار": 1497,
    "▁همسر": 1498,
    "تبه": 1499,
    "▁زنی": 1500,
    "▁عرب": 1501,
    "▁خوش": 1502,
    "▁العاده": 1503,
    "▁سرشناس": 1504,
    "▁نشود": 1505,
    "▁قتل": 1506,
    "▁تاجیکستان": 1507,
    "▁مادرید": 1508,
    "نیوم": 1509,
    "▁قطعی": 1510,
    "▁اصلاح": 1511,
    "▁شاه": 1512,
    "▁مالک": 1513,
    "▁وضع": 1514,
    "▁ظرف": 1515,
    "▁معتبر": 1516,
    "▁اسطوره": 1517,
    "▁استعفا": 1518,
    "▁وابست": 1519,
    "▁۱۳۹۹": 1520,
    "▁فراهم": 1521,
    "▁ساختمان": 1522,
    "▁نکرد": 1523,
    "▁اورا": 1524,
    "▁دفتر": 1525,
    "▁پیشتر": 1526,
    "▁مخالفت": 1527,
    "▁تیر": 1528,
    "اسیون": 1529,
    "▁دانشمندان": 1530,
    "▁درآمدهای": 1531,
    "▁کارهای": 1532,
    "▁سینمایی": 1533,
    "▁حب": 1534,
    "▁کارکنان": 1535,
    "▁هوشمند": 1536,
    "خوان": 1537,
    "▁سوئیس": 1538,
    "▁بهمن": 1539,
    "▁۹۰": 1540,
    "شنبه": 1541,
    "وید": 1542,
    "▁آوری": 1543,
    "▁فرزند": 1544,
    "▁مدیران": 1545,
    "شب": 1546,
    "چند": 1547,
    "قب": 1548,
    "▁پارک": 1549,
    "▁محمو": 1550,
    "▁معامل": 1551,
    "▁سرخ": 1552,
    "▁هاست": 1553,
    "▁اقیانوس": 1554,
    "▁نوبل": 1555,
    "▁ضد": 1556,
    "▁پوست": 1557,
    "▁پو": 1558,
    "▁۷۰": 1559,
    "▁خودروهای": 1560,
    "▁فوریه": 1561,
    "▁صف": 1562,
    "▁۲۶": 1563,
    "▁معنای": 1564,
    "▁اردیبهشت": 1565,
    "▁جنجال": 1566,
    "▁فیفا": 1567,
    "▁پاس": 1568,
    "▁جراح": 1569,
    "▁کاربران": 1570,
    "▁وزن": 1571,
    "▁زاد": 1572,
    "▁جایی": 1573,
    "▁شرق": 1574,
    "▁هستیم": 1575,
    "▁قربانی": 1576,
    "▁فرار": 1577,
    "قدر": 1578,
    "وایل": 1579,
    "▁دریایی": 1580,
    "چی": 1581,
    "▁زاغری": 1582,
    "▁جزئیات": 1583,
    "▁قدیمی": 1584,
    "▁بستر": 1585,
    "▁خرداد": 1586,
    "▁قدم": 1587,
    "▁چیست": 1588,
    "▁ماهه": 1589,
    "▁گرفتند": 1590,
    "▁امیر": 1591,
    "رس": 1592,
    "▁عق": 1593,
    "▁حمل": 1594,
    "رون": 1595,
    "ایر": 1596,
    "▁پاکستان": 1597,
    "▁متع": 1598,
    "▁نمو": 1599,
    "▁حس": 1600,
    "فا": 1601,
    "مل": 1602,
    "نک": 1603,
    "▁شک": 1604,
    "اع": 1605,
    "▁لحظ": 1606,
    "▁عین": 1607,
    "هر": 1608,
    "▁گوش": 1609,
    "▁۹۹": 1610,
    "▁محصولات": 1611,
    "▁زدن": 1612,
    "زن": 1613,
    "▁فارس": 1614,
    "نت": 1615,
    "▁اجرایی": 1616,
    "یل": 1617,
    "▁اوپ": 1618,
    "▁ظاهر": 1619,
    "▁هدایت": 1620,
    "▁روایت": 1621,
    "▁چرخ": 1622,
    "▁تعهدات": 1623,
    "▁پالایشگاه": 1624,
    "▁آهنگ": 1625,
    "▁نوری": 1626,
    "▁دما": 1627,
    "▁مسافران": 1628,
    "▁آبی": 1629,
    "▁آموزش": 1630,
    "▁دستگیر": 1631,
    "▁دریای": 1632,
    "▁کنونی": 1633,
    "▁۳۰۰": 1634,
    "▁احساس": 1635,
    "▁مطالع": 1636,
    "▁رئال": 1637,
    "▁محبوب": 1638,
    "▁نیویورک": 1639,
    "▁قسمت": 1640,
    "▁مسدود": 1641,
    "▁موزه": 1642,
    "▁موقعیت": 1643,
    "▁نوامبر": 1644,
    "▁معادل": 1645,
    "▁صدر": 1646,
    "▁نداشته": 1647,
    "ماه": 1648,
    "▁غ": 1649,
    "▁دانش": 1650,
    "▁۳۱": 1651,
    "▁مخالفان": 1652,
    "▁قبلا": 1653,
    "نین": 1654,
    "▁بحرین": 1655,
    "▁قضائیه": 1656,
    "▁اشتباه": 1657,
    "▁مبلغ": 1658,
    "▁علاقه": 1659,
    "▁استقبال": 1660,
    "▁رویترز": 1661,
    "نقض": 1662,
    "▁تخم": 1663,
    "▁موتور": 1664,
    "▁بهداشتی": 1665,
    "▁یکدیگر": 1666,
    "▁مان": 1667,
    "▁چهل": 1668,
    "ران": 1669,
    "▁بدهی": 1670,
    "▁وا": 1671,
    "▁زا": 1672,
    "▁خر": 1673,
    "ریمه": 1674,
    "مون": 1675,
    "▁دوچرخه": 1676,
    "▁مدیرعامل": 1677,
    "▁عجیب": 1678,
    "▁آلبوم": 1679,
    "▁فوری": 1680,
    "▁محمدرضا": 1681,
    "▁دوربین": 1682,
    "▁مارک": 1683,
    "▁تحصیل": 1684,
    "▁فعلی": 1685,
    "▁مهار": 1686,
    "▁داریم": 1687,
    "▁اع": 1688,
    "▁حج": 1689,
    "▁سکه": 1690,
    "▁تومانی": 1691,
    "▁بیماران": 1692,
    "▁چندان": 1693,
    "▁سینمای": 1694,
    "▁مار": 1695,
    "▁اینستاگرام": 1696,
    "▁رونالدو": 1697,
    "شهر": 1698,
    "لیک": 1699,
    "▁نگار": 1700,
    "▁گستر": 1701,
    "قیف": 1702,
    "▁خدمات": 1703,
    "مت": 1704,
    "▁ط": 1705,
    "▁هست": 1706,
    "▁خورشیدی": 1707,
    "▁مص": 1708,
    "▁آهن": 1709,
    "▁کالاهای": 1710,
    "▁صلح": 1711,
    "▁نادال": 1712,
    "▁تماس": 1713,
    "▁مراجع": 1714,
    "▁لباس": 1715,
    "▁سفارت": 1716,
    "▁آذر": 1717,
    "▁سند": 1718,
    "▁رافائل": 1719,
    "▁ایم": 1720,
    "▁متوسط": 1721,
    "▁بنابر": 1722,
    "اپی": 1723,
    "▁پسر": 1724,
    "گا": 1725,
    "▁نماد": 1726,
    "▁مقامات": 1727,
    "▁فرانسوی": 1728,
    "▁بازنشستگان": 1729,
    "▁خواهیم": 1730,
    "▁مبتلایان": 1731,
    "▁ماموران": 1732,
    "▁ناظر": 1733,
    "▁گیرند": 1734,
    "▁انگلیسی": 1735,
    "▁آلمانی": 1736,
    "▁جمعی": 1737,
    "▁هواپیما": 1738,
    "▁۳۵": 1739,
    "وه": 1740,
    "▁معمول": 1741,
    "▁ماجرا": 1742,
    "▁جوایز": 1743,
    "▁طالب": 1744,
    "▁تخریب": 1745,
    "▁زندانی": 1746,
    "▁ساکن": 1747,
    "▁معترضان": 1748,
    "▁تعدادی": 1749,
    "▁علیرضا": 1750,
    "▁شخصیت": 1751,
    "▁غربی": 1752,
    "▁سعی": 1753,
    "▁افزوده": 1754,
    "▁اساسی": 1755,
    "تان": 1756,
    "▁خورده": 1757,
    "بط": 1758,
    "▁دختران": 1759,
    "علوم": 1760,
    "▁برود": 1761,
    "رضا": 1762,
    "▁صنایع": 1763,
    "▁ژوئیه": 1764,
    "▁دشوار": 1765,
    "▁شغل": 1766,
    "▁مونیخ": 1767,
    "▁چالش": 1768,
    "▁نحو": 1769,
    "▁ارسال": 1770,
    "▁ایستگاه": 1771,
    "صد": 1772,
    "فدرا": 1773,
    "▁میلان": 1774,
    "سل": 1775,
    "رانی": 1776,
    "▁تقاضا": 1777,
    "▁ابلاغ": 1778,
    "▁تحویل": 1779,
    "▁خان": 1780,
    "▁آزار": 1781,
    "▁۲۰۱۷": 1782,
    "▁مجری": 1783,
    "حسین": 1784,
    "▁معمولا": 1785,
    "▁ماده": 1786,
    "▁برقرار": 1787,
    "▁اوج": 1788,
    "بل": 1789,
    "سه": 1790,
    "▁سهمی": 1791,
    "▁مایک": 1792,
    "▁گری": 1793,
    "▁رادیو": 1794,
    "▁خدم": 1795,
    "▁اصل": 1796,
    "▁واشنگتن": 1797,
    "▁صبح": 1798,
    "▁بازگشا": 1799,
    "▁توقف": 1800,
    "▁نارنجی": 1801,
    "▁متعدد": 1802,
    "▁جوکوویچ": 1803,
    "▁بلا": 1804,
    "مقام": 1805,
    "دولت": 1806,
    "توجه": 1807,
    "▁شخصی": 1808,
    "▁مسافر": 1809,
    "▁خوان": 1810,
    "▁هرچ": 1811,
    "▁جی": 1812,
    "▁کف": 1813,
    "▁کشورش": 1814,
    "▁خیابان": 1815,
    "▁بازرگانی": 1816,
    "▁قالیباف": 1817,
    "▁ویمبلدون": 1818,
    "▁سلیمانی": 1819,
    "▁ثابت": 1820,
    "▁ذخ": 1821,
    "▁آنلاین": 1822,
    "▁اکبر": 1823,
    "▁موشک": 1824,
    "▁اجاره": 1825,
    "▁نگهداری": 1826,
    "▁۸۰": 1827,
    "▁سوپر": 1828,
    "▁دام": 1829,
    "▁موقت": 1830,
    "▁اخراج": 1831,
    "▁تقاضای": 1832,
    "▁برآورد": 1833,
    "▁ادبیات": 1834,
    "▁راجر": 1835,
    "گری": 1836,
    "▁تخت": 1837,
    "▁کارها": 1838,
    "▁انداخت": 1839,
    "ساز": 1840,
    "دست": 1841,
    "اری": 1842,
    "کم": 1843,
    "▁صاحب": 1844,
    "▁قاچاق": 1845,
    "▁اخبار": 1846,
    "▁بهادار": 1847,
    "▁پدید": 1848,
    "▁۱۳۹۸": 1849,
    "▁هموار": 1850,
    "پیش": 1851,
    "▁۲۹": 1852,
    "هرگز": 1853,
    "▁نویسندگان": 1854,
    "▁تصور": 1855,
    "▁برمی": 1856,
    "▁ورزشکاران": 1857,
    "روی": 1858,
    "▁افزود": 1859,
    "▁سهم": 1860,
    "▁ملک": 1861,
    "▁جذاب": 1862,
    "▁نتوانست": 1863,
    "▁اکتبر": 1864,
    "▁جذب": 1865,
    "▁کنسرت": 1866,
    "▁صوتی": 1867,
    "▁نجات": 1868,
    "▁همچو": 1869,
    "▁محسو": 1870,
    "▁عادی": 1871,
    "▁خلق": 1872,
    "▁خانگی": 1873,
    "▁حاشیه": 1874,
    "▁پرو": 1875,
    "گین": 1876,
    "▁انجمن": 1877,
    "▁کلوپ": 1878,
    "▁لیون": 1879,
    "▁نگه": 1880,
    "▁خواب": 1881,
    "سازمان": 1882,
    "▁شیر": 1883,
    "▁باور": 1884,
    "دگی": 1885,
    "▁عبدال": 1886,
    "▁جر": 1887,
    "رز": 1888,
    "▁خلی": 1889,
    "▁غذای": 1890,
    "وش": 1891,
    "▁توییت": 1892,
    "▁مربیان": 1893,
    "▁۳۲": 1894,
    "▁قاسم": 1895,
    "▁کافی": 1896,
    "▁حاصل": 1897,
    "▁تسلا": 1898,
    "▁بیان": 1899,
    "▁دارای": 1900,
    "▁جایگاه": 1901,
    "▁پلاس": 1902,
    "▁حداکثر": 1903,
    "تون": 1904,
    "قانونی": 1905,
    "▁شاعر": 1906,
    "وند": 1907,
    "▁فردا": 1908,
    "▁قار": 1909,
    "▁ترانه": 1910,
    "▁داند": 1911,
    "▁هنرمندان": 1912,
    "قیه": 1913,
    "▁شهروند": 1914,
    "▁جدیدی": 1915,
    "▁جه": 1916,
    "▁دیدن": 1917,
    "مند": 1918,
    "دل": 1919,
    "▁اختصاص": 1920,
    "▁تئاتر": 1921,
    "▁حفاظت": 1922,
    "▁اهمیت": 1923,
    "▁فرهاد": 1924,
    "▁مدعی": 1925,
    "▁لوکس": 1926,
    "▁تیراندازی": 1927,
    "جه": 1928,
    "▁دوستان": 1929,
    "رکت": 1930,
    "وزارت": 1931,
    "اوی": 1932,
    "یره": 1933,
    "مه": 1934,
    "▁یخ": 1935,
    "▁نوروز": 1936,
    "▁سخنان": 1937,
    "▁سپاهان": 1938,
    "▁فرود": 1939,
    "▁شبانه": 1940,
    "▁ادبی": 1941,
    "▁جم": 1942,
    "▁مناسب": 1943,
    "▁زخمی": 1944,
    "شید": 1945,
    "▁فرمو": 1946,
    "بند": 1947,
    "▁طبیعت": 1948,
    "▁تعویق": 1949,
    "▁معرض": 1950,
    "▁مسلح": 1951,
    "فسور": 1952,
    "شیدا": 1953,
    "▁فایل": 1954,
    "▁مجید": 1955,
    "▁طرفداران": 1956,
    "▁تلفن": 1957,
    "▁بان": 1958,
    "▁نشر": 1959,
    "▁پن": 1960,
    "خانم": 1961,
    "▁شر": 1962,
    "▁گیر": 1963,
    "▁بل": 1964,
    "▁گفتند": 1965,
    "مدید": 1966,
    "▁بعدا": 1967,
    "▁دس": 1968,
    "▁۴۲": 1969,
    "ئ": 1970,
    "▁مشا": 1971,
    "▁دیجیتال": 1972,
    "▁مدافع": 1973,
    "▁ناگهان": 1974,
    "▁مراکز": 1975,
    "▁سبک": 1976,
    "▁مریخ": 1977,
    "نر": 1978,
    "▁خیریه": 1979,
    "▁۱۹۹": 1980,
    "▁صرف": 1981,
    "▁مالکی": 1982,
    "▁شمالی": 1983,
    "▁هوش": 1984,
    "▁عکاس": 1985,
    "▁بند": 1986,
    "ابت": 1987,
    "▁متحد": 1988,
    "طی": 1989,
    "▁شناس": 1990,
    "آن": 1991,
    "▁باره": 1992,
    "▁کردیم": 1993,
    "▁اصفهان": 1994,
    "▁متولد": 1995,
    "▁آسمان": 1996,
    "▁اجلاس": 1997,
    "▁قبول": 1998,
    "تنظیم": 1999,
    "▁دان": 2000,
    "▁سوزی": 2001,
    "▁انداز": 2002,
    "▁اتریش": 2003,
    "▁نیک": 2004,
    "▁گام": 2005,
    "▁متن": 2006,
    "ارد": 2007,
    "▁اتفاقات": 2008,
    "▁پژوهشگران": 2009,
    "▁واقعیت": 2010,
    "▁ادار": 2011,
    "▁زند": 2012,
    "▁احتمالی": 2013,
    "▁کارشناس": 2014,
    "▁اسرائیلی": 2015,
    "سن": 2016,
    "▁مواردی": 2017,
    "اج": 2018,
    "▁عوامل": 2019,
    "▁مسائل": 2020,
    "▁افتخار": 2021,
    "▁نوجوان": 2022,
    "▁عمیق": 2023,
    "▁وحش": 2024,
    "افسانه": 2025,
    "▁صلاحیت": 2026,
    "▁مشاهد": 2027,
    "اش": 2028,
    "▁اهل": 2029,
    "نز": 2030,
    "▁پزشک": 2031,
    "▁مطابق": 2032,
    "▁سوال": 2033,
    "▁دادستان": 2034,
    "انجام": 2035,
    "▁مخالف": 2036,
    "▁ارزی": 2037,
    "▁تری": 2038,
    "رسدس": 2039,
    "▁طلای": 2040,
    "▁سای": 2041,
    "▁محروم": 2042,
    "▁کاپیتان": 2043,
    "▁ارقام": 2044,
    "▁عصر": 2045,
    "▁تمرین": 2046,
    "▁برجسته": 2047,
    "▁جبران": 2048,
    "▁خشک": 2049,
    "هفته": 2050,
    "▁ماموریت": 2051,
    "▁ضمن": 2052,
    "▁پرتاب": 2053,
    "▁رویکرد": 2054,
    "▁آلودگی": 2055,
    "▁ریال": 2056,
    "▁شهریور": 2057,
    "▁بهر": 2058,
    "▁مرزی": 2059,
    "وئل": 2060,
    "▁کردم": 2061,
    "▁سازند": 2062,
    "▁فوتبالیست": 2063,
    "▁نشدن": 2064,
    "▁نادر": 2065,
    "▁فردی": 2066,
    "▁مور": 2067,
    "▁داور": 2068,
    "▁داروی": 2069,
    "▁حذفی": 2070,
    "▁شرقی": 2071,
    "▁راهی": 2072,
    "▁تاخیر": 2073,
    "▁محرم": 2074,
    "تصاب": 2075,
    "▁موثر": 2076,
    "▁بنیاد": 2077,
    "▁نرم": 2078,
    "▁آشنا": 2079,
    "ضاع": 2080,
    "▁بگیرند": 2081,
    "▁دوز": 2082,
    "▁ناسا": 2083,
    "تمام": 2084,
    "▁اید": 2085,
    "▁بندر": 2086,
    "▁برادر": 2087,
    "▁روان": 2088,
    "▁عدد": 2089,
    "▁جاد": 2090,
    "▁ورزشکار": 2091,
    "▁وال": 2092,
    "▁تمامی": 2093,
    "▁آرسنال": 2094,
    "▁خسارت": 2095,
    "▁کشاورز": 2096,
    "▁حراج": 2097,
    "▁شاغل": 2098,
    "▁هنرپیشه": 2099,
    "▁برکنار": 2100,
    "▁ایسنا": 2101,
    "▁مراقب": 2102,
    "کننده": 2103,
    "▁حاکی": 2104,
    "▁جیمز": 2105,
    "▁داشتن": 2106,
    "▁رسما": 2107,
    "▁دستمزد": 2108,
    "▁قطب": 2109,
    "▁کلاس": 2110,
    "▁دیوان": 2111,
    "▁سیما": 2112,
    "▁عید": 2113,
    "نیا": 2114,
    "حص": 2115,
    "▁گذارد": 2116,
    "▁کارمندان": 2117,
    "رئیس": 2118,
    "▁روزها": 2119,
    "▁آمیز": 2120,
    "▁درک": 2121,
    "▁سم": 2122,
    "▁فضا": 2123,
    "۵۰": 2124,
    "▁زندانیان": 2125,
    "▁الملل": 2126,
    "▁سان": 2127,
    "وثی": 2128,
    "▁نهم": 2129,
    "باید": 2130,
    "▁توانای": 2131,
    "فق": 2132,
    "▁خاص": 2133,
    "▁آمازون": 2134,
    "▁خشونت": 2135,
    "▁توزیع": 2136,
    "▁توکیو": 2137,
    "▁مدرسه": 2138,
    "غول": 2139,
    "▁وام": 2140,
    "▁گذرد": 2141,
    "▁شناسی": 2142,
    "▁مس": 2143,
    "▁تماشاگران": 2144,
    "▁مای": 2145,
    "▁شیو": 2146,
    "▁ایتالیایی": 2147,
    "▁اسب": 2148,
    "▁اندازی": 2149,
    "▁نقاش": 2150,
    "خبرگزا": 2151,
    "اط": 2152,
    "▁مشمول": 2153,
    "▁پروتکل": 2154,
    "▁شصت": 2155,
    "▁گزین": 2156,
    "▁افزار": 2157,
    "▁همتی": 2158,
    "▁مشاور": 2159,
    "▁سیستان": 2160,
    "گیر": 2161,
    "▁گرا": 2162,
    "گزارش": 2163,
    "یچ": 2164,
    "▁پاک": 2165,
    "گذاری": 2166,
    "▁پیوست": 2167,
    "▁نیرو": 2168,
    "رنگ": 2169,
    "▁سد": 2170,
    "ویس": 2171,
    "▁کام": 2172,
    "گانه": 2173,
    "▁بعدی": 2174,
    "تیم": 2175,
    "▁نزدیکی": 2176,
    "▁مسئ": 2177,
    "▁سلطنت": 2178,
    "▁اعتبار": 2179,
    "▁رقیب": 2180,
    "▁مشهد": 2181,
    "▁چنان": 2182,
    "▁پنجاه": 2183,
    "ندگان": 2184,
    "▁منتظر": 2185,
    "▁جن": 2186,
    "▁هویت": 2187,
    "▁ابراهیم": 2188,
    "▁آگاه": 2189,
    "▁صالح": 2190,
    "▁جواد": 2191,
    "▁درجه": 2192,
    "کسی": 2193,
    "▁ابر": 2194,
    "▁فل": 2195,
    "▁رس": 2196,
    "داران": 2197,
    "▁تب": 2198,
    "گون": 2199,
    "برای": 2200,
    "▁رهبری": 2201,
    "▁ترجم": 2202,
    "بری": 2203,
    "▁رحمان": 2204,
    "▁تست": 2205,
    "▁آور": 2206,
    "▁موضع": 2207,
    "▁صراف": 2208,
    "▁عرص": 2209,
    "▁سرنگون": 2210,
    "▁حکام": 2211,
    "▁فروخته": 2212,
    "▁تردد": 2213,
    "ذیب": 2214,
    "▁تبلیغات": 2215,
    "▁آکادمی": 2216,
    "▁جودو": 2217,
    "▁۲۰۱۵": 2218,
    "▁آلود": 2219,
    "▁مطلب": 2220,
    "▁گلستان": 2221,
    "▁توانسته": 2222,
    "▁خواه": 2223,
    "▁تس": 2224,
    "▁سرای": 2225,
    "وع": 2226,
    "▁محققان": 2227,
    "▁شاملو": 2228,
    "▁پایه": 2229,
    "▁اطلاعی": 2230,
    "▁سامانه": 2231,
    "▁الدین": 2232,
    "▁روانی": 2233,
    "▁سخن": 2234,
    "▁کلید": 2235,
    "▁هشتم": 2236,
    "یکی": 2237,
    "▁تماشاگر": 2238,
    "▁آم": 2239,
    "▁لس": 2240,
    "▁اتومبیل": 2241,
    "▁مصنوعی": 2242,
    "▁فراموش": 2243,
    "▁اوکراین": 2244,
    "▁فیزیک": 2245,
    "▁تفاوت": 2246,
    "▁سرپرست": 2247,
    "▁ایرنا": 2248,
    "▁الهام": 2249,
    "▁پنهان": 2250,
    "▁مسعود": 2251,
    "▁حسینی": 2252,
    "▁بهای": 2253,
    "زاده": 2254,
    "▁درخشان": 2255,
    "▁مبن": 2256,
    "▁منتقدان": 2257,
    "▁ریش": 2258,
    "بخش": 2259,
    "اسی": 2260,
    "▁باب": 2261,
    "▁کارت": 2262,
    "حسن": 2263,
    "▁علم": 2264,
    "▁کوه": 2265,
    "▁محافظ": 2266,
    "▁فرستاده": 2267,
    "▁جانب": 2268,
    "▁آندر": 2269,
    "جمع": 2270,
    "أ": 2271,
    "▁بازگرداند": 2272,
    "▁دعوت": 2273,
    "▁ذهن": 2274,
    "▁حامل": 2275,
    "▁لبنان": 2276,
    "▁تکرار": 2277,
    "▁اهواز": 2278,
    "▁نفس": 2279,
    "▁بلوچستان": 2280,
    "▁ذر": 2281,
    "خراج": 2282,
    "اگر": 2283,
    "▁رانندگان": 2284,
    "▁ساده": 2285,
    "▁واگذار": 2286,
    "جسم": 2287,
    "▁یمن": 2288,
    "▁شهرستان": 2289,
    "▁حملات": 2290,
    "اکان": 2291,
    "▁خورشید": 2292,
    "▁گردشگری": 2293,
    "گل": 2294,
    "▁آباد": 2295,
    "اتور": 2296,
    "▁دیپلما": 2297,
    "▁دامن": 2298,
    "...": 2299,
    "▁نداده": 2300,
    "▁آماد": 2301,
    "▁آرام": 2302,
    "گفته": 2303,
    "▁اطراف": 2304,
    "▁گواردیولا": 2305,
    "▁آنجلس": 2306,
    "▁بلینکن": 2307,
    "▁نداریم": 2308,
    "▁رونق": 2309,
    "▁تولد": 2310,
    "▁سراوان": 2311,
    "▁۱۳۹۷": 2312,
    "▁گذراند": 2313,
    "▁رویداد": 2314,
    "▁تأ": 2315,
    "▁۳۴": 2316,
    "▁شهرداری": 2317,
    "لک": 2318,
    "▁مشتریان": 2319,
    "▁کادر": 2320,
    "▁شوم": 2321,
    "▁برخوردار": 2322,
    "ولی": 2323,
    "▁جامع": 2324,
    "لف": 2325,
    "قابل": 2326,
    "▁شهرت": 2327,
    "▁حو": 2328,
    "▁پزشکان": 2329,
    "▁نیستند": 2330,
    "مندان": 2331,
    "لم": 2332,
    "▁چشمگیر": 2333,
    "ساوی": 2334,
    "▁کسر": 2335,
    "آزادسازی": 2336,
    "▁عکاسی": 2337,
    "▁خاتم": 2338,
    "▁اسکن": 2339,
    "▁تنگ": 2340,
    "لر": 2341,
    "▁آکسفورد": 2342,
    "▁ازدواج": 2343,
    "▁اسکاتلند": 2344,
    "▁اضطرار": 2345,
    "▁ژافره": 2346,
    "▁فعلا": 2347,
    "▁استانبول": 2348,
    "▁وکیل": 2349,
    "▁خطرناک": 2350,
    "▁قالب": 2351,
    "▁پکن": 2352,
    "▁سرکوب": 2353,
    "▁تاجیک": 2354,
    "▁جورج": 2355,
    "سبب": 2356,
    "▁هلند": 2357,
    "▁مسئولیت": 2358,
    "▁منع": 2359,
    "▁جلوی": 2360,
    "شر": 2361,
    "▁داوطلبان": 2362,
    "▁اص": 2363,
    "▁همسرش": 2364,
    "رسان": 2365,
    "ولا": 2366,
    "▁قدر": 2367,
    "حمل": 2368,
    "▁برداری": 2369,
    "عهد": 2370,
    "▁اسم": 2371,
    "واع": 2372,
    "▁۴۵": 2373,
    "▁گرانی": 2374,
    "▁نبوده": 2375,
    "▁۴۰۰": 2376,
    "الب": 2377,
    "▁تصادف": 2378,
    "▁حوادث": 2379,
    "▁کالیفرنیا": 2380,
    "▁خفاش": 2381,
    "▁تعلیق": 2382,
    "▁مقصد": 2383,
    "▁فولاد": 2384,
    "▁بازدید": 2385,
    "▁هتل": 2386,
    "▁زمستان": 2387,
    "▁عمدتا": 2388,
    "▁بدهد": 2389,
    "▁ثانی": 2390,
    "▁فرودگاه": 2391,
    "▁ساحل": 2392,
    "▁اختلال": 2393,
    "▁دیوار": 2394,
    "▁حالت": 2395,
    "باقر": 2396,
    "▁کت": 2397,
    "مدال": 2398,
    "زار": 2399,
    "▁دقیقا": 2400,
    "▁قد": 2401,
    "▁اسپانیایی": 2402,
    "قرار": 2403,
    "▁بچ": 2404,
    "▁هل": 2405,
    "▁کلیه": 2406,
    "▁نیازمند": 2407,
    "آمریکا": 2408,
    "▁امر": 2409,
    "▁کیم": 2410,
    "بنا": 2411,
    "▁اور": 2412,
    "▁بس": 2413,
    "▁معدن": 2414,
    "▁مجاز": 2415,
    "▁فرو": 2416,
    "▁یافتن": 2417,
    "▁چارچوب": 2418,
    "▁یوونتوس": 2419,
    "▁پادشاه": 2420,
    "ضعیف": 2421,
    "▁ساعات": 2422,
    "▁میراث": 2423,
    "▁ناپذیر": 2424,
    "▁آواز": 2425,
    "▁مدیرکل": 2426,
    "▁۹۷": 2427,
    "▁دانیم": 2428,
    "ویز": 2429,
    "▁نژادپرست": 2430,
    "▁بدتر": 2431,
    "▁هماهنگ": 2432,
    "▁۳۳": 2433,
    "قو": 2434,
    "▁نت": 2435,
    "▁باغ": 2436,
    "▁سرد": 2437,
    "▁اکثر": 2438,
    "صاف": 2439,
    "شته": 2440,
    "▁برنت": 2441,
    "ناصر": 2442,
    "▁آمدن": 2443,
    "دکتر": 2444,
    "▁هفتم": 2445,
    "▁انداخته": 2446,
    "دام": 2447,
    "▁کال": 2448,
    "▁خرد": 2449,
    "▁۱۵۰": 2450,
    "▁عمر": 2451,
    "▁۷۵": 2452,
    "▁آفریقا": 2453,
    "▁اطمینان": 2454,
    "▁پارلمان": 2455,
    "▁مشاغل": 2456,
    "▁شفاف": 2457,
    "▁جلب": 2458,
    "▁صدرنشین": 2459,
    "▁پایگاه": 2460,
    "▁کانادا": 2461,
    "▁سوئد": 2462,
    "▁آسان": 2463,
    "▁تحولات": 2464,
    "▁خاوران": 2465,
    "▁فرم": 2466,
    "▁اسکی": 2467,
    "▁پیگیری": 2468,
    "▁مرور": 2469,
    "▁ذو": 2470,
    "▁حقوقی": 2471,
    "▁نشین": 2472,
    "▁استاندار": 2473,
    "▁نامش": 2474,
    "بعضی": 2475,
    "▁اسپ": 2476,
    "▁ایستاده": 2477,
    "▁اعتماد": 2478,
    "▁بسکتبال": 2479,
    "▁تشویق": 2480,
    "▁عوارض": 2481,
    "▁متخصص": 2482,
    "▁نطنز": 2483,
    "▁کلمبیا": 2484,
    "▁عظیم": 2485,
    "▁حکایت": 2486,
    "▁عشق": 2487,
    "▁بماند": 2488,
    "▁راحت": 2489,
    "▁نوسان": 2490,
    "▁شگفت": 2491,
    "▁تابلو": 2492,
    "▁محرومیت": 2493,
    "▁تف": 2494,
    "▁مستقل": 2495,
    "شدید": 2496,
    "غم": 2497,
    "▁نمایندگی": 2498,
    "▁ری": 2499,
    "▁میانه": 2500,
    "▁ژ": 2501,
    "▁انتخاباتی": 2502,
    "نظر": 2503,
    "▁معن": 2504,
    "▁شانس": 2505,
    "همزمان": 2506,
    "▁طلب": 2507,
    "بنابر": 2508,
    "▁شبی": 2509,
    "▁گذر": 2510,
    "▁امیدواری": 2511,
    "بانک": 2512,
    "▁کجا": 2513,
    "▁سفرهای": 2514,
    "پای": 2515,
    "▁بازرس": 2516,
    "▁پاپ": 2517,
    "▁نوروزی": 2518,
    "▁۶۰۰": 2519,
    "امی": 2520,
    "▁اظهار": 2521,
    "افت": 2522,
    "▁دسته": 2523,
    "▁تحلیل": 2524,
    "▁تور": 2525,
    "▁دهنده": 2526,
    "▁فیسبوک": 2527,
    "▁گرنداسلم": 2528,
    "▁پرچم": 2529,
    "▁لحا": 2530,
    "▁پیچیده": 2531,
    "▁خلاف": 2532,
    "▁آفریقای": 2533,
    "▁دانشجویان": 2534,
    "▁ردیف": 2535,
    "▁ارزها": 2536,
    "▁کیو": 2537,
    "ایل": 2538,
    "▁کارزار": 2539,
    "▁۱۹۸": 2540,
    "▁مهاجرت": 2541,
    "▁نفوذ": 2542,
    "▁منظور": 2543,
    "▁خطاب": 2544,
    "▁ادعا": 2545,
    "▁فراز": 2546,
    "▁آنتونی": 2547,
    "▁مذهبی": 2548,
    "▁مسافرت": 2549,
    "▁داروها": 2550,
    "▁نامید": 2551,
    "▁کیلومتری": 2552,
    "▁گوشت": 2553,
    "ینگ": 2554,
    "▁زدند": 2555,
    "▁تماشای": 2556,
    "شمار": 2557,
    "▁بیستم": 2558,
    "▁لستر": 2559,
    "▁امضای": 2560,
    "شرکت": 2561,
    "▁جوانان": 2562,
    "▁ویدیوی": 2563,
    "▁ماندن": 2564,
    "▁ضرور": 2565,
    "▁رویا": 2566,
    "▁نمای": 2567,
    "▁عفو": 2568,
    "▁شواهد": 2569,
    "▁ژرمن": 2570,
    "▁کامپیوتر": 2571,
    "▁گشایش": 2572,
    "▁تجدید": 2573,
    "▁ریاض": 2574,
    "▁دانشجو": 2575,
    "▁سانسور": 2576,
    "▁کهکشان": 2577,
    "▁مقدار": 2578,
    "▁امارات": 2579,
    "▁اولویت": 2580,
    "▁تنفس": 2581,
    "▁خمینی": 2582,
    "▁اورتون": 2583,
    "▁پاییز": 2584,
    "▁خاصی": 2585,
    "▁ات": 2586,
    "▁وسیع": 2587,
    "▁ژاپنی": 2588,
    "▁مدرن": 2589,
    "▁بابا": 2590,
    "▁درد": 2591,
    "▁ملایی": 2592,
    "▁اسماعیل": 2593,
    "▁آرایش": 2594,
    "خواهی": 2595,
    "▁معلوم": 2596,
    "▁تل": 2597,
    "▁پوشش": 2598,
    "داشت": 2599,
    "▁فرمان": 2600,
    "▁ویدیو": 2601,
    "▁روح": 2602,
    "▁اینتر": 2603,
    "▁زودتر": 2604,
    "▁شرکتهای": 2605,
    "▁نامزدهای": 2606,
    "▁تپ": 2607,
    "ستون": 2608,
    "▁درحالی": 2609,
    "▁سرود": 2610,
    "▁محمدی": 2611,
    "▁نای": 2612,
    "▁پارس": 2613,
    "خته": 2614,
    "▁صادقی": 2615,
    "یسم": 2616,
    "زم": 2617,
    "نما": 2618,
    "▁محصول": 2619,
    "رود": 2620,
    "▁تجهیزات": 2621,
    "▁ثبات": 2622,
    "▁علائم": 2623,
    "▁اقامت": 2624,
    "▁عبارت": 2625,
    "▁روغن": 2626,
    "▁دائم": 2627,
    "▁زهرا": 2628,
    "▁فیوری": 2629,
    "▁کربن": 2630,
    "▁رمز": 2631,
    "▁مرجان": 2632,
    "▁حامی": 2633,
    "▁بنیان": 2634,
    "▁مقدمات": 2635,
    "▁نسخ": 2636,
    "▁فولک": 2637,
    "▁پدرش": 2638,
    "▁۱۹۷": 2639,
    "▁یادآور": 2640,
    "▁درمانی": 2641,
    "▁۴۴": 2642,
    "▁رویدادهای": 2643,
    "▁۴۸": 2644,
    "▁بخت": 2645,
    "اجع": 2646,
    "▁پوشید": 2647,
    "▁قله": 2648,
    "▁ششم": 2649,
    "▁ماجرای": 2650,
    "▁میر": 2651,
    "طفی": 2652,
    "▁اقلیم": 2653,
    "▁قضاییه": 2654,
    "▁صادرکنند": 2655,
    "▁شنا": 2656,
    "حدود": 2657,
    "▁قول": 2658,
    "آی": 2659,
    "▁سپرد": 2660,
    "▁آسیای": 2661,
    "▁بازیگران": 2662,
    "تری": 2663,
    "▁دفاعی": 2664,
    "▁موافق": 2665,
    "▁تج": 2666,
    "▁کشت": 2667,
    "▁ازبکستان": 2668,
    "▁دستورالعمل": 2669,
    "▁پانزده": 2670,
    "▁اندونزی": 2671,
    "▁خطوط": 2672,
    "▁نصب": 2673,
    "▁آرزو": 2674,
    "▁سلطان": 2675,
    "▁متوالی": 2676,
    "▁گروسی": 2677,
    "▁شویم": 2678,
    "▁نبرد": 2679,
    "▁گار": 2680,
    "▁فراوان": 2681,
    "▁امشب": 2682,
    "▁شناور": 2683,
    "▁ون": 2684,
    "▁۲۷": 2685,
    "▁مخاطبان": 2686,
    "▁بردن": 2687,
    "▁مجازات": 2688,
    "گن": 2689,
    "▁کریست": 2690,
    "▁مالیاتی": 2691,
    "▁خیر": 2692,
    "▁افکار": 2693,
    "▁جواب": 2694,
    "شویی": 2695,
    "▁خواهم": 2696,
    "▁زنند": 2697,
    "▁یاران": 2698,
    "۲۲": 2699,
    "▁آرامش": 2700,
    "▁پیوسته": 2701,
    "▁ارد": 2702,
    "▁خودروسازی": 2703,
    "▁پاری": 2704,
    "کته": 2705,
    "اپ": 2706,
    "▁تعطیلات": 2707,
    "مانده": 2708,
    "سعید": 2709,
    "احل": 2710,
    "▁کالاها": 2711,
    "احض": 2712,
    "▁کور": 2713,
    "▁جک": 2714,
    "▁خلو": 2715,
    "رق": 2716,
    "تاب": 2717,
    "ریم": 2718,
    "▁اسدی": 2719,
    "شنا": 2720,
    "▁انتظامی": 2721,
    "▁سفارش": 2722,
    "▁غافلگیر": 2723,
    "▁نباشد": 2724,
    "▁برگزید": 2725,
    "▁بگذارد": 2726,
    "▁مطالب": 2727,
    "▁مثال": 2728,
    "▁مخفی": 2729,
    "▁سرنوشت": 2730,
    "▁کیفیت": 2731,
    "▁باشیم": 2732,
    "▁فضانورد": 2733,
    "▁یونان": 2734,
    "▁اسناد": 2735,
    "▁کریمی": 2736,
    "▁فقر": 2737,
    "▁کانون": 2738,
    "▁تدریج": 2739,
    "▁راز": 2740,
    "لاک": 2741,
    "▁۳۸": 2742,
    "▁سیر": 2743,
    "▁ژنتیکی": 2744,
    "وخیم": 2745,
    "۲۰": 2746,
    "خالت": 2747,
    "▁بودم": 2748,
    "▁واقعا": 2749,
    "جان": 2750,
    "غان": 2751,
    "▁امکانات": 2752,
    "شاه": 2753,
    "▁اتهامات": 2754,
    "▁عملا": 2755,
    "▁شاهین": 2756,
    "▁اصلا": 2757,
    "سکی": 2758,
    "فاصله": 2759,
    "▁دف": 2760,
    "▁ایست": 2761,
    "▁مرا": 2762,
    "▁جزیر": 2763,
    "▁برون": 2764,
    "کاری": 2765,
    "راه": 2766,
    "اقات": 2767,
    "▁سین": 2768,
    "▁عطر": 2769,
    "▁معاصر": 2770,
    "▁تعریف": 2771,
    "▁جاسوس": 2772,
    "▁سقف": 2773,
    "▁فرگوسن": 2774,
    "▁نیمکت": 2775,
    "▁تردید": 2776,
    "▁فتح": 2777,
    "▁خشم": 2778,
    "▁قلم": 2779,
    "▁سهامداران": 2780,
    "▁خطیب": 2781,
    "▁شور": 2782,
    "▁زاهد": 2783,
    "▁حقیقت": 2784,
    "▁بوکس": 2785,
    "▁تش": 2786,
    "▁هفتاد": 2787,
    "▁گلزن": 2788,
    "▁محکومیت": 2789,
    "▁دهیم": 2790,
    "اده": 2791,
    "شک": 2792,
    "▁درون": 2793,
    "▁مدار": 2794,
    "▁نداد": 2795,
    "▁باد": 2796,
    "▁مناسبت": 2797,
    "▁صادق": 2798,
    "▁انت": 2799,
    "▁ایفا": 2800,
    "▁سری": 2801,
    "▁فاز": 2802,
    "▁قوی": 2803,
    "نام": 2804,
    "▁مادرش": 2805,
    "▁فرزندان": 2806,
    "قیمت": 2807,
    "وزیر": 2808,
    "▁قر": 2809,
    "مار": 2810,
    "الدین": 2811,
    "▁زیرا": 2812,
    "▁ببر": 2813,
    "انا": 2814,
    "▁روب": 2815,
    "▁کارمند": 2816,
    "پل": 2817,
    "▁عاشق": 2818,
    "نوش": 2819,
    "▁تراکتور": 2820,
    "▁مطمئن": 2821,
    "▁کاوشگر": 2822,
    "▁مورینیو": 2823,
    "▁منافع": 2824,
    "▁تائید": 2825,
    "▁احترام": 2826,
    "▁شعار": 2827,
    "▁اماکن": 2828,
    "▁فریاد": 2829,
    "▁واگن": 2830,
    "▁کنفرانس": 2831,
    "▁لمس": 2832,
    "▁سانتی": 2833,
    "▁جانشین": 2834,
    "سخ": 2835,
    "▁بهشت": 2836,
    "▁عاص": 2837,
    "▁شتاب": 2838,
    "▁شوک": 2839,
    "▁حیوانات": 2840,
    "▁فراتر": 2841,
    "▁نمایشگاه": 2842,
    "▁مساوی": 2843,
    "▁شیش": 2844,
    "▁فرستاد": 2845,
    "▁اندک": 2846,
    "▁سنا": 2847,
    "▁قیمتها": 2848,
    "رگن": 2849,
    "▁زیبای": 2850,
    "واز": 2851,
    "▁زنج": 2852,
    "وقت": 2853,
    "▁مسئولین": 2854,
    "ناس": 2855,
    "▁شهری": 2856,
    "کرد": 2857,
    "کول": 2858,
    "▁گزارشگر": 2859,
    "▁دانشمند": 2860,
    "▁درخش": 2861,
    "▁پژوهشگر": 2862,
    "▁نوا": 2863,
    "برگ": 2864,
    "▁محاسب": 2865,
    "نج": 2866,
    "حال": 2867,
    "▁مشروط": 2868,
    "▁هافبک": 2869,
    "▁کیلوگرم": 2870,
    "▁هیئت": 2871,
    "▁قایق": 2872,
    "▁تعرف": 2873,
    "▁مهندس": 2874,
    "▁بخار": 2875,
    "▁انگار": 2876,
    "▁بامیان": 2877,
    "▁تایسون": 2878,
    "▁اولسان": 2879,
    "▁هاشمی": 2880,
    "▁وستهم": 2881,
    "▁یادداشت": 2882,
    "▁کریستیان": 2883,
    "▁گنج": 2884,
    "▁خودکشی": 2885,
    "▁رقص": 2886,
    "▁نامداری": 2887,
    "▁زرد": 2888,
    "▁هشتاد": 2889,
    "▁دیپلماتیک": 2890,
    "▁مدارس": 2891,
    "▁کلاسیک": 2892,
    "▁شهرها": 2893,
    "▁ابتلای": 2894,
    "▁روستای": 2895,
    "▁منشا": 2896,
    "▁فرماندار": 2897,
    "ناک": 2898,
    "▁نود": 2899,
    "نیک": 2900,
    "▁تبار": 2901,
    "▁برندگان": 2902,
    "▁اسک": 2903,
    "▁بیمه": 2904,
    "▁رحمانی": 2905,
    "▁طیف": 2906,
    "ناز": 2907,
    "▁تماشا": 2908,
    "▁ویژ": 2909,
    "▁هجوم": 2910,
    "▁جنسیت": 2911,
    "▁کاس": 2912,
    "▁بردند": 2913,
    "▁ویل": 2914,
    "▁ارا": 2915,
    "▁بدی": 2916,
    "▁رها": 2917,
    "▁اجباری": 2918,
    "وات": 2919,
    "اوش": 2920,
    "▁داو": 2921,
    "▁قطعه": 2922,
    "▁تجا": 2923,
    "▁دیگران": 2924,
    "▁امین": 2925,
    "قای": 2926,
    "۱۹": 2927,
    "تکلیف": 2928,
    "▁خاطره": 2929,
    "▁بلژیک": 2930,
    "▁جایگزین": 2931,
    "▁حافظ": 2932,
    "▁پتروشیمی": 2933,
    "▁آفتاب": 2934,
    "▁مسجد": 2935,
    "▁خراسان": 2936,
    "▁تبعیض": 2937,
    "▁جنبش": 2938,
    "▁سلاح": 2939,
    "▁آدم": 2940,
    "▁خوشحال": 2941,
    "▁تاریک": 2942,
    "▁هیجان": 2943,
    "▁نفع": 2944,
    "برخ": 2945,
    "▁شرط": 2946,
    "▁بلخ": 2947,
    "▁فاش": 2948,
    "▁مدنی": 2949,
    "▁هنگ": 2950,
    "▁غار": 2951,
    "فرانس": 2952,
    "▁ضرر": 2953,
    "▁نزد": 2954,
    "▁کرمان": 2955,
    "نیم": 2956,
    "▁محمدجواد": 2957,
    "▁وایل": 2958,
    "▁ناو": 2959,
    "▁عام": 2960,
    "مع": 2961,
    "▁اقدامی": 2962,
    "▁عادل": 2963,
    "▁رهبران": 2964,
    "▁لب": 2965,
    "▁گم": 2966,
    "▁شخص": 2967,
    "▁اپرا": 2968,
    "▁انتقادها": 2969,
    "▁اتفاقی": 2970,
    "▁طلبان": 2971,
    "▁کشم": 2972,
    "▁خریدار": 2973,
    "▁گمان": 2974,
    "▁جسم": 2975,
    "▁مقال": 2976,
    "▁خوانندگ": 2977,
    "▁سیل": 2978,
    "▁والی": 2979,
    "▁۶۵": 2980,
    "▁آنک": 2981,
    "جل": 2982,
    "▁شیری": 2983,
    "▁دیر": 2984,
    "▁پیک": 2985,
    "▁راستا": 2986,
    "خور": 2987,
    "▁موقع": 2988,
    "شده": 2989,
    "▁آذربایجان": 2990,
    "▁اصطلاح": 2991,
    "▁اقلام": 2992,
    "▁خاورمیانه": 2993,
    "▁غیرمستقیم": 2994,
    "▁نساجی": 2995,
    "▁پرتغال": 2996,
    "▁پیراهن": 2997,
    "▁ترجیح": 2998,
    "▁علنی": 2999,
    "▁قلع": 3000,
    "▁پلاستیک": 3001,
    "▁پیامدهای": 3002,
    "▁آشکار": 3003,
    "▁جسد": 3004,
    "▁قادر": 3005,
    "▁دانمارک": 3006,
    "▁ناکام": 3007,
    "▁فیلیپ": 3008,
    "امروز": 3009,
    "▁مغزی": 3010,
    "▁گورستان": 3011,
    "▁پرفروش": 3012,
    "▁شهید": 3013,
    "▁سلول": 3014,
    "▁گشت": 3015,
    "▁زانو": 3016,
    "▁افسر": 3017,
    "▁افکن": 3018,
    "▁واژ": 3019,
    "فرین": 3020,
    "▁آتی": 3021,
    "▁۱۳۵": 3022,
    "▁خست": 3023,
    "مپ": 3024,
    "گروه": 3025,
    "▁غلام": 3026,
    "▁کان": 3027,
    "▁جدایی": 3028,
    "▁شنیده": 3029,
    "جن": 3030,
    "▁نیمی": 3031,
    "▁۲۵۰": 3032,
    "▁روس": 3033,
    "▁پهلوی": 3034,
    "▁افشا": 3035,
    "وک": 3036,
    "▁آموزشی": 3037,
    "ناد": 3038,
    "▁۰": 3039,
    "▁برایش": 3040,
    "سخنگوی": 3041,
    "عبدال": 3042,
    "مدیر": 3043,
    "واد": 3044,
    "وریا": 3045,
    "▁سل": 3046,
    "▁رحم": 3047,
    "هزار": 3048,
    "▁فکری": 3049,
    "▁نان": 3050,
    "کلا": 3051,
    "خواه": 3052,
    "▁شایع": 3053,
    "▁مطل": 3054,
    "▁برگزیت": 3055,
    "▁خلاص": 3056,
    "▁بغداد": 3057,
    "▁پادتن": 3058,
    "▁تکمیل": 3059,
    "▁تبریز": 3060,
    "▁میناوند": 3061,
    "▁دایک": 3062,
    "▁جستجو": 3063,
    "▁کنگره": 3064,
    "▁بدهند": 3065,
    "شورای": 3066,
    "▁حساس": 3067,
    "▁مخصوص": 3068,
    "▁تاکسی": 3069,
    "▁شعب": 3070,
    "▁باخته": 3071,
    "▁شمس": 3072,
    "▁توجهی": 3073,
    "▁۳۷": 3074,
    "▁۱۳۸": 3075,
    "▁آزمایشگاه": 3076,
    "▁۵۷": 3077,
    "▁توماس": 3078,
    "▁احت": 3079,
    "▁تحلیلگر": 3080,
    "▁تحول": 3081,
    "▁برند": 3082,
    "▁ظاهرا": 3083,
    "▁وست": 3084,
    "▁سوالات": 3085,
    "▁پرده": 3086,
    "▁اوبر": 3087,
    "▁سپر": 3088,
    "▁خدا": 3089,
    "▁مسال": 3090,
    "▁فرش": 3091,
    "▁تند": 3092,
    "▁یازدهم": 3093,
    "افزایش": 3094,
    "▁فان": 3095,
    "پو": 3096,
    "▁بودیم": 3097,
    "▁درهای": 3098,
    "▁ترور": 3099,
    "▁نظریه": 3100,
    "▁سید": 3101,
    "خو": 3102,
    "▁معترض": 3103,
    "بادی": 3104,
    "▁آمارها": 3105,
    "▁الکترونیک": 3106,
    "▁ناراحت": 3107,
    "▁گوناگون": 3108,
    "▁فرآیند": 3109,
    "▁قاطع": 3110,
    "▁همجنس": 3111,
    "▁معیشت": 3112,
    "▁پانصد": 3113,
    "▁لذت": 3114,
    "▁وسایل": 3115,
    "▁غزنی": 3116,
    "▁بوندس": 3117,
    "▁لیدز": 3118,
    "▁استادیوم": 3119,
    "▁سرقت": 3120,
    "▁نابودی": 3121,
    "▁بیاید": 3122,
    "عوض": 3123,
    "▁اسلم": 3124,
    "▁شکاف": 3125,
    "نادیده": 3126,
    "▁لوئی": 3127,
    "▁تاثیرگذار": 3128,
    "▁۳۹": 3129,
    "▁۲۰۱۰": 3130,
    "▁اطل": 3131,
    "▁ویران": 3132,
    "▁قص": 3133,
    "یزه": 3134,
    "▁خاتمی": 3135,
    "▁اذ": 3136,
    "▁منصور": 3137,
    "▁همای": 3138,
    "▁شورو": 3139,
    "▁اسلام": 3140,
    "▁رسیدند": 3141,
    "▁نگرفته": 3142,
    "▁گرند": 3143,
    "▁الکس": 3144,
    "▁قدس": 3145,
    "▁مهمان": 3146,
    "▁دوام": 3147,
    "بهار": 3148,
    "۶۰": 3149,
    "ثر": 3150,
    "بورگ": 3151,
    "▁اهدا": 3152,
    "ریک": 3153,
    "▁نقد": 3154,
    "بسیاری": 3155,
    "▁ارزان": 3156,
    "▁درحال": 3157,
    "▁برج": 3158,
    "لند": 3159,
    "مجموعه": 3160,
    "▁مون": 3161,
    "سپت": 3162,
    "▁پوش": 3163,
    "▁خوردن": 3164,
    "▁دراز": 3165,
    "▁رفتند": 3166,
    "آفرین": 3167,
    "▁ادعای": 3168,
    "رخ": 3169,
    "▁پرداز": 3170,
    "خره": 3171,
    "▁داغ": 3172,
    "▁الحاق": 3173,
    "▁خداحافظ": 3174,
    "▁فایزر": 3175,
    "▁هالیوود": 3176,
    "▁برانگیخت": 3177,
    "▁برانگیز": 3178,
    "▁والیبال": 3179,
    "▁مسلمان": 3180,
    "▁تمایل": 3181,
    "▁سحر": 3182,
    "▁دوازده": 3183,
    "▁تقس": 3184,
    "▁نماز": 3185,
    "▁مستمر": 3186,
    "▁ایستاد": 3187,
    "▁بخصوص": 3188,
    "▁صمت": 3189,
    "▁نیروگاه": 3190,
    "▁سرزمین": 3191,
    "▁عمق": 3192,
    "▁حیدر": 3193,
    "▁شیراز": 3194,
    "▁طبری": 3195,
    "▁ارشاد": 3196,
    "▁پیوند": 3197,
    "▁ریخت": 3198,
    "▁ببرد": 3199,
    "▁۴۹": 3200,
    "▁۱۹۴": 3201,
    "یژن": 3202,
    "▁باشید": 3203,
    "▁اردو": 3204,
    "▁کشد": 3205,
    "▁نمایشگر": 3206,
    "▁کارش": 3207,
    "▁عادت": 3208,
    "▁خوا": 3209,
    "پرو": 3210,
    "▁دیگو": 3211,
    "▁حمید": 3212,
    "▁امان": 3213,
    "▁نداشتند": 3214,
    "▁صند": 3215,
    "▁کنگ": 3216,
    "ارغ": 3217,
    "▁بازرسان": 3218,
    "▁ماز": 3219,
    "▁کمال": 3220,
    "▁دانستند": 3221,
    "▁مست": 3222,
    "▁مول": 3223,
    "▁شیرین": 3224,
    "گذار": 3225,
    "▁داری": 3226,
    "طل": 3227,
    "▁سالم": 3228,
    "▁روسا": 3229,
    "▁نرسیده": 3230,
    "▁راند": 3231,
    "▁فیلمساز": 3232,
    "▁منتقد": 3233,
    "▁بدر": 3234,
    "▁بازنشست": 3235,
    "▁آنفلوآنزا": 3236,
    "▁سامسونگ": 3237,
    "▁قاضی": 3238,
    "▁مطهری": 3239,
    "▁هیوندای": 3240,
    "▁محتوای": 3241,
    "▁مقاومت": 3242,
    "▁توفیق": 3243,
    "▁محاکمه": 3244,
    "▁همیشگی": 3245,
    "▁زوج": 3246,
    "▁دوپینگ": 3247,
    "▁بکشد": 3248,
    "▁ابزار": 3249,
    "▁فرونشست": 3250,
    "▁مترجم": 3251,
    "▁منچستریونایتد": 3252,
    "▁اظهارنظر": 3253,
    "▁بورل": 3254,
    "▁پرورش": 3255,
    "▁عالم": 3256,
    "▁نیافت": 3257,
    "▁سلمان": 3258,
    "▁بوشهر": 3259,
    "▁قدرتمند": 3260,
    "▁عراقچی": 3261,
    "▁خیابانی": 3262,
    "▁اهداف": 3263,
    "▁جنبه": 3264,
    "▁بزند": 3265,
    "▁۴۳": 3266,
    "وطن": 3267,
    "غال": 3268,
    "▁پپ": 3269,
    "▁مدارک": 3270,
    "ممکن": 3271,
    "▁قض": 3272,
    "▁محور": 3273,
    "نزا": 3274,
    "رویی": 3275,
    "نشین": 3276,
    "▁جیب": 3277,
    "▁محافظت": 3278,
    "طئ": 3279,
    "▁منته": 3280,
    "▁مال": 3281,
    "▁۱۳۶": 3282,
    "▁کپ": 3283,
    "وریس": 3284,
    "▁گفتگوها": 3285,
    "▁۵۵": 3286,
    "▁اح": 3287,
    "▁آزمایی": 3288,
    "▁رسانی": 3289,
    "▁کش": 3290,
    "میم": 3291,
    "دورو": 3292,
    "▁قوا": 3293,
    "▁موضوعات": 3294,
    "سیا": 3295,
    "▁پیشگیری": 3296,
    "قرض": 3297,
    "هنورد": 3298,
    "▁ناصر": 3299,
    "▁۷۳": 3300,
    "▁دارم": 3301,
    "▁گوشی": 3302,
    "▁۹۶": 3303,
    "رسمی": 3304,
    "وکی": 3305,
    "▁ریه": 3306,
    "▁زیبا": 3307,
    "▁بهایی": 3308,
    "▁موش": 3309,
    "▁اندیش": 3310,
    "▁گور": 3311,
    "▁سیار": 3312,
    "▁تبلیغ": 3313,
    "التی": 3314,
    "پنج": 3315,
    "▁تای": 3316,
    "موند": 3317,
    "▁۱۳۹": 3318,
    "▁استراماچونی": 3319,
    "▁تسلیحات": 3320,
    "▁تگزاس": 3321,
    "▁فلوریدا": 3322,
    "▁مطبوعات": 3323,
    "▁نتانیاهو": 3324,
    "▁تظاهرات": 3325,
    "▁موظف": 3326,
    "▁نوبخت": 3327,
    "▁نکنید": 3328,
    "▁برخلاف": 3329,
    "▁وبسایت": 3330,
    "▁ناحیه": 3331,
    "▁دقت": 3332,
    "▁بعید": 3333,
    "▁بیلسا": 3334,
    "▁سبز": 3335,
    "▁فردوسی": 3336,
    "▁غریب": 3337,
    "▁مصدومیت": 3338,
    "▁مکرون": 3339,
    "▁۱۹۸۶": 3340,
    "باران": 3341,
    "▁یوفا": 3342,
    "بورن": 3343,
    "▁تلخ": 3344,
    "▁سراسری": 3345,
    "▁شاخ": 3346,
    "▁فلز": 3347,
    "▁پیمان": 3348,
    "فضل": 3349,
    "نوبت": 3350,
    "▁حلق": 3351,
    "▁سران": 3352,
    "▁نوید": 3353,
    "▁بهتری": 3354,
    "▁مند": 3355,
    "▁یاری": 3356,
    "▁اگر": 3357,
    "هالی": 3358,
    "▁ساک": 3359,
    "▁گذاشتن": 3360,
    "▁۵۶": 3361,
    "▁عا": 3362,
    "▁پیر": 3363,
    "▁تاب": 3364,
    "▁افتد": 3365,
    "لیگ": 3366,
    "▁سالن": 3367,
    "▁خاطرات": 3368,
    "▁جرم": 3369,
    "▁ریو": 3370,
    "آوری": 3371,
    "رژ": 3372,
    "▁هنرها": 3373,
    "▁باند": 3374,
    "نوایی": 3375,
    "▁پیست": 3376,
    "۳۰": 3377,
    "بیش": 3378,
    "خواست": 3379,
    "خالص": 3380,
    "آزمایی": 3381,
    "آمیز": 3382,
    "طبق": 3383,
    "خاطر": 3384,
    "فیلم": 3385,
    "▁۱۲۰": 3386,
    "▁مهاجر": 3387,
    "▁۹۵": 3388,
    "▁وسی": 3389,
    "▁سوئیسی": 3390,
    "▁اقلیمی": 3391,
    "▁شریفی": 3392,
    "▁مرزها": 3393,
    "▁توانم": 3394,
    "▁تلف": 3395,
    "▁بینند": 3396,
    "▁سرباز": 3397,
    "▁عروس": 3398,
    "بست": 3399,
    "۲۰۱۲": 3400,
    "▁کهن": 3401,
    "▁مغ": 3402,
    "▁تأثیر": 3403,
    "▁دموکرات": 3404,
    "▁شمخانی": 3405,
    "▁ویلموتس": 3406,
    "▁قاجار": 3407,
    "▁موبایل": 3408,
    "▁رضوی": 3409,
    "▁طوفان": 3410,
    "▁ببینید": 3411,
    "▁اشتغال": 3412,
    "▁کودتا": 3413,
    "▁ثمر": 3414,
    "▁ایرلند": 3415,
    "▁تعامل": 3416,
    "▁ماراتن": 3417,
    "▁خواستند": 3418,
    "التهاب": 3419,
    "▁کامیون": 3420,
    "▁تروریسم": 3421,
    "▁ناامن": 3422,
    "▁همسان": 3423,
    "▁معمار": 3424,
    "▁معیار": 3425,
    "▁خوک": 3426,
    "▁متاسف": 3427,
    "▁خل": 3428,
    "▁مبنای": 3429,
    "▁موشکی": 3430,
    "دوف": 3431,
    "عظم": 3432,
    "▁عبدالله": 3433,
    "▁فیلتر": 3434,
    "فع": 3435,
    "▁گوگل": 3436,
    "▁خرج": 3437,
    "▁۷۷": 3438,
    "▁بومی": 3439,
    "▁گردشگران": 3440,
    "▁باران": 3441,
    "▁فروشگاه": 3442,
    "▁درخت": 3443,
    "▁اصلاحات": 3444,
    "▁طوری": 3445,
    "▁قبر": 3446,
    "▁حداد": 3447,
    "▁ماهوار": 3448,
    "▁اختلافات": 3449,
    "▁جدال": 3450,
    "▁راس": 3451,
    "▁نیو": 3452,
    "▁هستم": 3453,
    "▁کاردن": 3454,
    "▁مز": 3455,
    "اتب": 3456,
    "▁پار": 3457,
    "▁اصول": 3458,
    "▁نرسید": 3459,
    "▁نقدی": 3460,
    "دور": 3461,
    "▁پرسش": 3462,
    "▁مرزهای": 3463,
    "▁یازده": 3464,
    "▁رساندن": 3465,
    "▁۹۱": 3466,
    "▁۵۲": 3467,
    "جونز": 3468,
    "پذیر": 3469,
    "▁گمانه": 3470,
    "استفاده": 3471,
    "افغانستان": 3472,
    "پلیس": 3473,
    "تیپ": 3474,
    "پیشتر": 3475,
    "رعه": 3476,
    "▁کاربر": 3477,
    "▁آگ": 3478,
    "▁گیاه": 3479,
    "▁محقق": 3480,
    "▁سیام": 3481,
    "▁ویلیام": 3482,
    "▁ویدئو": 3483,
    "خصیص": 3484,
    "▁اخطار": 3485,
    "▁ارتفاع": 3486,
    "▁الانبیا": 3487,
    "▁تحمیل": 3488,
    "▁غربالگری": 3489,
    "▁ناآرام": 3490,
    "▁پرافتخار": 3491,
    "▁پروتئین": 3492,
    "▁ودیعه": 3493,
    "▁عذر": 3494,
    "▁افتتاح": 3495,
    "▁خوراک": 3496,
    "▁تخیل": 3497,
    "▁تعدیل": 3498,
    "اثبات": 3499,
    "▁پذیرفته": 3500,
    "داوم": 3501,
    "▁تلفیق": 3502,
    "▁جلال": 3503,
    "▁ایلنا": 3504,
    "▁منوچ": 3505,
    "▁وزرا": 3506,
    "▁عزاداری": 3507,
    "▁وسط": 3508,
    "▁برانکو": 3509,
    "▁دشت": 3510,
    "▁شکنج": 3511,
    "▁یمانی": 3512,
    "▁دردسر": 3513,
    "▁سناتور": 3514,
    "▁تعهد": 3515,
    "▁تبعات": 3516,
    "▁پرندگان": 3517,
    "▁ویدئویی": 3518,
    "▁بهرام": 3519,
    "▁ویلیامز": 3520,
    "▁پردازد": 3521,
    "▁مصاد": 3522,
    "رالله": 3523,
    "▁سرنشینان": 3524,
    "▁ژن": 3525,
    "▁محسن": 3526,
    "▁دنی": 3527,
    "▁آورند": 3528,
    "▁همیلتون": 3529,
    "▁مزار": 3530,
    "▁فرید": 3531,
    "▁تکان": 3532,
    "▁لحظات": 3533,
    "▁گریز": 3534,
    "▁روسی": 3535,
    "▁کانت": 3536,
    "▁جین": 3537,
    "▁استعداد": 3538,
    "▁پرسید": 3539,
    "۱۴": 3540,
    "▁گردن": 3541,
    "▁اهدای": 3542,
    "▁غر": 3543,
    "راب": 3544,
    "راحل": 3545,
    "▁ناب": 3546,
    "▁کاسته": 3547,
    "▁رغ": 3548,
    "خواهید": 3549,
    "▁اشک": 3550,
    "▁فدرال": 3551,
    "▁ایام": 3552,
    "▁هجومی": 3553,
    "▁۳۶": 3554,
    "محمود": 3555,
    "ویژه": 3556,
    "آنها": 3557,
    "آباد": 3558,
    "▁شدیدتر": 3559,
    "▁گروگان": 3560,
    "▁آرای": 3561,
    "▁نسب": 3562,
    "بانی": 3563,
    "▁۶۲": 3564,
    "ناف": 3565,
    "▁تخلف": 3566,
    "▁پرند": 3567,
    "▁دبلیو": 3568,
    "▁لالیگا": 3569,
    "▁نیوزیلند": 3570,
    "▁انقراض": 3571,
    "▁مشورت": 3572,
    "▁لاریجانی": 3573,
    "▁لبخند": 3574,
    "▁بلاروس": 3575,
    "▁اعزام": 3576,
    "▁سراغ": 3577,
    "▁منحصر": 3578,
    "▁معلول": 3579,
    "▁موانع": 3580,
    "▁بدانیم": 3581,
    "▁تدوین": 3582,
    "▁ابهام": 3583,
    "▁نجف": 3584,
    "▁کارلوس": 3585,
    "▁فسیل": 3586,
    "▁لهستان": 3587,
    "▁راهبرد": 3588,
    "▁فلوید": 3589,
    "▁تسهیلات": 3590,
    "▁نقص": 3591,
    "▁خاموش": 3592,
    "کینگ": 3593,
    "▁پلاک": 3594,
    "▁کیلو": 3595,
    "▁زیان": 3596,
    "▁ربط": 3597,
    "▁سلف": 3598,
    "▁وانت": 3599,
    "▁عم": 3600,
    "▁آهنگساز": 3601,
    "▁بلیت": 3602,
    "▁آنقدر": 3603,
    "▁کشند": 3604,
    "▁محاسبات": 3605,
    "▁گرایان": 3606,
    "▁صلاح": 3607,
    "▁آرامکو": 3608,
    "بویایی": 3609,
    "▁محدودیتهای": 3610,
    "▁گیل": 3611,
    "▁خودروها": 3612,
    "▁استرالیایی": 3613,
    "مجانی": 3614,
    "▁ازای": 3615,
    "▁مقا": 3616,
    "▁۱۹۳": 3617,
    "▁عموم": 3618,
    "▁تمرکز": 3619,
    "▁آوردند": 3620,
    "راضی": 3621,
    "▁منار": 3622,
    "▁بروند": 3623,
    "▁لیس": 3624,
    "▁پرهی": 3625,
    "چین": 3626,
    "۲۵": 3627,
    "روج": 3628,
    "صدا": 3629,
    "▁عقید": 3630,
    "گذشت": 3631,
    "▁کول": 3632,
    "زده": 3633,
    "بزرگ": 3634,
    "بون": 3635,
    "امسال": 3636,
    "▁سرو": 3637,
    "▁سیزدهم": 3638,
    "زکی": 3639,
    "▁۷۲": 3640,
    "▁باستانی": 3641,
    "▁کشی": 3642,
    "▁لیگا": 3643,
    "خان": 3644,
    "▁قم": 3645,
    "▁اقلی": 3646,
    "▁ژنتیک": 3647,
    "▁کوچکتر": 3648,
    "▁روستا": 3649,
    "▁ثروت": 3650,
    "▁حیوان": 3651,
    "▁رمزارز": 3652,
    "▁پناه": 3653,
    "▁حاکم": 3654,
    "▁انفرادی": 3655,
    "▁اپلیکیشن": 3656,
    "▁تلگرام": 3657,
    "▁جلسات": 3658,
    "▁دایناسور": 3659,
    "▁دقایق": 3660,
    "▁زلزله": 3661,
    "▁متقاضی": 3662,
    "▁پارالمپیک": 3663,
    "▁مازندران": 3664,
    "▁برگرداند": 3665,
    "▁شجاع": 3666,
    "▁یهودی": 3667,
    "▁عبدی": 3668,
    "▁بازگردد": 3669,
    "▁تروریستی": 3670,
    "▁نمکی": 3671,
    "▁فقیر": 3672,
    "▁زنگنه": 3673,
    "▁مقیم": 3674,
    "▁اکسیژن": 3675,
    "▁کریکت": 3676,
    "▁دهقان": 3677,
    "▁قریب": 3678,
    "▁منتف": 3679,
    "▁نکند": 3680,
    "▁عفونت": 3681,
    "▁بختیار": 3682,
    "خیص": 3683,
    "▁اسپرت": 3684,
    "▁استرازنکا": 3685,
    "▁پیمانکار": 3686,
    "▁متناسب": 3687,
    "▁جالب": 3688,
    "▁خانوارهای": 3689,
    "▁۱۳۷": 3690,
    "▁کمرنگ": 3691,
    "▁تخلفات": 3692,
    "▁رزم": 3693,
    "الیز": 3694,
    "▁یکصد": 3695,
    "▁عطرساز": 3696,
    "▁ترسیم": 3697,
    "▁متشک": 3698,
    "▁پروان": 3699,
    "جایی": 3700,
    "▁ویکتور": 3701,
    "▁مطالعات": 3702,
    "▁ضرورت": 3703,
    "لاق": 3704,
    "▁آیین": 3705,
    "▁زور": 3706,
    "مرد": 3707,
    "▁پیکر": 3708,
    "۳۱": 3709,
    "▁امن": 3710,
    "▁رویای": 3711,
    "▁خواندن": 3712,
    "▁پال": 3713,
    "▁تاک": 3714,
    "▁عمران": 3715,
    "▁آوردن": 3716,
    "▁شاهزاد": 3717,
    "▁اوست": 3718,
    "یمز": 3719,
    "▁دهک": 3720,
    "۶۳": 3721,
    "وفر": 3722,
    "▁داشتم": 3723,
    "▁رنج": 3724,
    "▁بازماند": 3725,
    "▁ارگ": 3726,
    "▁میلیاردها": 3727,
    "▁سیف": 3728,
    "رشو": 3729,
    "▁خبرهای": 3730,
    "▁انبار": 3731,
    "▁پرستار": 3732,
    "عباس": 3733,
    "شاخص": 3734,
    "▁ادا": 3735,
    "شدت": 3736,
    "▁مادران": 3737,
    "میر": 3738,
    "▁خال": 3739,
    "کدام": 3740,
    "▁همکاران": 3741,
    "▁احس": 3742,
    "بازی": 3743,
    "بع": 3744,
    "▁آقا": 3745,
    "▁مستق": 3746,
    "▁تروی": 3747,
    "▁نورد": 3748,
    "▁تحری": 3749,
    "ختم": 3750,
    "▁تدابیر": 3751,
    "▁خلاقیت": 3752,
    "▁رستوران": 3753,
    "▁فلسفه": 3754,
    "▁مأمور": 3755,
    "▁محوطه": 3756,
    "▁مدیترانه": 3757,
    "▁استراحت": 3758,
    "▁همسایه": 3759,
    "▁ذکر": 3760,
    "▁عضلا": 3761,
    "▁عرف": 3762,
    "▁استخدام": 3763,
    "▁دروغ": 3764,
    "▁انبوه": 3765,
    "▁اشرف": 3766,
    "▁بنیانگذار": 3767,
    "▁برساند": 3768,
    "▁علامت": 3769,
    "▁تایلند": 3770,
    "▁رابرت": 3771,
    "▁منچسترسیتی": 3772,
    "▁سرگرم": 3773,
    "▁پیشتاز": 3774,
    "▁طنز": 3775,
    "▁ونیز": 3776,
    "▁سایپا": 3777,
    "▁قرص": 3778,
    "▁نشت": 3779,
    "▁کیهان": 3780,
    "▁هاوس": 3781,
    "▁برلین": 3782,
    "▁رمزارزها": 3783,
    "▁استخر": 3784,
    "زیگ": 3785,
    "▁تالاب": 3786,
    "هکرها": 3787,
    "▁مداوم": 3788,
    "▁جانسون": 3789,
    "▁بوک": 3790,
    "▁ناجی": 3791,
    "▁منظر": 3792,
    "رنج": 3793,
    "▁نیوک": 3794,
    "قص": 3795,
    "▁پایدار": 3796,
    "▁صرفا": 3797,
    "▁دستیابی": 3798,
    "▁یور": 3799,
    "تینو": 3800,
    "▁خریداران": 3801,
    "▁مبادل": 3802,
    "▁عط": 3803,
    "گفت": 3804,
    "حق": 3805,
    "▁بمب": 3806,
    "▁تقویم": 3807,
    "نواک": 3808,
    "▁وب": 3809,
    "▁۴۶": 3810,
    "▁وقفه": 3811,
    "خیم": 3812,
    "تمرکز": 3813,
    "▁مرس": 3814,
    "▁جرد": 3815,
    "ساب": 3816,
    "بیل": 3817,
    "یحی": 3818,
    "عنوان": 3819,
    "رقابت": 3820,
    "وتو": 3821,
    "حالا": 3822,
    "▁مشتری": 3823,
    "▁آپ": 3824,
    "▁هوادار": 3825,
    "سئول": 3826,
    "▁بدل": 3827,
    "▁مقرر": 3828,
    "▁اکتشاف": 3829,
    "▁تحرک": 3830,
    "▁امتحان": 3831,
    "▁بنگلادش": 3832,
    "▁تخصص": 3833,
    "▁پرطرفدار": 3834,
    "▁سکونت": 3835,
    "▁مفهوم": 3836,
    "▁ابعاد": 3837,
    "▁اشتراک": 3838,
    "▁زیارت": 3839,
    "▁کیانوش": 3840,
    "▁تاکتیک": 3841,
    "ریچارد": 3842,
    "▁سادات": 3843,
    "▁سئوال": 3844,
    "▁ثامن": 3845,
    "▁روزگار": 3846,
    "▁حرم": 3847,
    "▁تماشاچی": 3848,
    "▁کشاند": 3849,
    "▁بشار": 3850,
    "▁طرز": 3851,
    "▁عزیزی": 3852,
    "ظیف": 3853,
    "▁غیاب": 3854,
    "ولوژی": 3855,
    "▁ولز": 3856,
    "▁اعضا": 3857,
    "▁سون": 3858,
    "▁لرز": 3859,
    "▁عروسک": 3860,
    "▁صح": 3861,
    "▁نادرست": 3862,
    "▁مصون": 3863,
    "▁۱۳۴": 3864,
    "▁جنایت": 3865,
    "▁۶۷": 3866,
    "▁آیند": 3867,
    "▁بستن": 3868,
    "▁۸۰۰": 3869,
    "▁لاش": 3870,
    "▁گروگانگیر": 3871,
    "▁احساسات": 3872,
    "▁سربازان": 3873,
    "مسترد": 3874,
    "سیویر": 3875,
    "چهار": 3876,
    "▁دانم": 3877,
    "اول": 3878,
    "▁ماس": 3879,
    "▁گردند": 3880,
    "▁آبادان": 3881,
    "لحق": 3882,
    "تلاف": 3883,
    "مرث": 3884,
    "▁جهانگیری": 3885,
    "▁همگ": 3886,
    "▁ظهر": 3887,
    "▁تیل": 3888,
    "▁شهردار": 3889,
    "▁نسبتا": 3890,
    "▁وقف": 3891,
    "اشا": 3892,
    "اژ": 3893,
    "▁کشیدن": 3894,
    "▁صحن": 3895,
    "▁اسکو": 3896,
    "▁کاوا": 3897,
    "▁قند": 3898,
    "▁یکسال": 3899,
    "سابقه": 3900,
    "▁۵۳": 3901,
    "▁آلن": 3902,
    "شاید": 3903,
    "دانشمندان": 3904,
    "اسل": 3905,
    "خارجه": 3906,
    "صورت": 3907,
    "آمار": 3908,
    "ظهر": 3909,
    "اصل": 3910,
    "▁کاست": 3911,
    "عادل": 3912,
    "▁ثروتمند": 3913,
    "اولین": 3914,
    "▁طب": 3915,
    "۲۳": 3916,
    "فیلد": 3917,
    "▁عصب": 3918,
    "▁پالایش": 3919,
    "▁اعتراف": 3920,
    "▁اعتیاد": 3921,
    "▁ترانزیت": 3922,
    "▁مایکروسافت": 3923,
    "▁تحقیر": 3924,
    "▁تعقیب": 3925,
    "▁تفاهم": 3926,
    "▁متاثر": 3927,
    "▁مرخص": 3928,
    "▁وقایع": 3929,
    "▁ستارگان": 3930,
    "▁مرجع": 3931,
    "▁شاگردان": 3932,
    "▁هفده": 3933,
    "▁تفریح": 3934,
    "▁مقصر": 3935,
    "▁نوشیدن": 3936,
    "▁بگویم": 3937,
    "▁نوزدهم": 3938,
    "▁ستایش": 3939,
    "▁ببینند": 3940,
    "▁آشفت": 3941,
    "▁صنف": 3942,
    "▁تقدی": 3943,
    "▁بامداد": 3944,
    "▁ابوال": 3945,
    "▁استودیو": 3946,
    "▁ربات": 3947,
    "▁خوشنام": 3948,
    "▁ساویز": 3949,
    "▁الزام": 3950,
    "▁کاغذ": 3951,
    "▁تیرماه": 3952,
    "بعد": 3953,
    "▁نروژ": 3954,
    "▁مهرماه": 3955,
    "▁کابین": 3956,
    "▁۱۹۹۰": 3957,
    "▁ساختن": 3958,
    "▁اسپوت": 3959,
    "▁دیدگاه": 3960,
    "▁۲۰۰۳": 3961,
    "▁رصد": 3962,
    "▁علیر": 3963,
    "▁فرض": 3964,
    "▁بزن": 3965,
    "▁صبر": 3966,
    "▁طرفدار": 3967,
    "▁شریک": 3968,
    "▁۵۹": 3969,
    "▁دونده": 3970,
    "▁۱۹۵": 3971,
    "▁رادیویی": 3972,
    "صف": 3973,
    "▁نوشتن": 3974,
    "▁گال": 3975,
    "▁وحید": 3976,
    "▁لیور": 3977,
    "▁کرو": 3978,
    "▁جبه": 3979,
    "▁پراکند": 3980,
    "▁۶۱": 3981,
    "▁فراگیر": 3982,
    "▁گویی": 3983,
    "▁نامزدها": 3984,
    "▁مهل": 3985,
    "▁سام": 3986,
    "▁جولی": 3987,
    "▁شکار": 3988,
    "▁خند": 3989,
    "▁پیوستن": 3990,
    "▁قدمت": 3991,
    "▁خارا": 3992,
    "▁پیچ": 3993,
    "▁خالص": 3994,
    "▁ساختار": 3995,
    "▁کلام": 3996,
    "▁ماهیگیر": 3997,
    "▁شناسان": 3998,
    "▁جانور": 3999,
    "واک": 4000,
    "▁اکس": 4001,
    "▁قراردادش": 4002,
    "وایی": 4003,
    "▁انیس": 4004,
    "▁فلیک": 4005,
    "فتن": 4006,
    "▁قوس": 4007,
    "کمیت": 4008,
    "سلیم": 4009,
    "▁مگا": 4010,
    "▁داوطلب": 4011,
    "▁ژنو": 4012,
    "واقع": 4013,
    "استقلال": 4014,
    "احمد": 4015,
    "جمعیت": 4016,
    "اطم": 4017,
    "▁غم": 4018,
    "▁اختلا": 4019,
    "▁عمد": 4020,
    "حقق": 4021,
    "▁اعتقاد": 4022,
    "▁منتخب": 4023,
    "▁کمربند": 4024,
    "▁تجلیل": 4025,
    "▁انگشت": 4026,
    "▁لزوم": 4027,
    "▁ناامید": 4028,
    "▁نکنند": 4029,
    "▁کنسول": 4030,
    "▁نوزاد": 4031,
    "▁پاکبان": 4032,
    "▁اسرار": 4033,
    "▁نظم": 4034,
    "▁راموس": 4035,
    "▁مفید": 4036,
    "▁آموزان": 4037,
    "▁مخدر": 4038,
    "مالاریا": 4039,
    "▁بندرعباس": 4040,
    "▁دادسرا": 4041,
    "▁برگردد": 4042,
    "▁مسایل": 4043,
    "▁منزل": 4044,
    "▁پیشگام": 4045,
    "▁پشتیبان": 4046,
    "▁همتای": 4047,
    "صوفی": 4048,
    "▁مکرر": 4049,
    "▁مسکونی": 4050,
    "▁۱۳۹۶": 4051,
    "▁مخابرات": 4052,
    "▁آرامگاه": 4053,
    "▁خرابکار": 4054,
    "وداع": 4055,
    "▁رخداد": 4056,
    "▁رتکلیف": 4057,
    "▁تسلیم": 4058,
    "▁متعهد": 4059,
    "▁مستع": 4060,
    "مختار": 4061,
    "▁مرگبار": 4062,
    "▁جمال": 4063,
    "حث": 4064,
    "▁بزنند": 4065,
    "▁کشتار": 4066,
    "▁غالب": 4067,
    "▁شایعات": 4068,
    "▁علاقمندان": 4069,
    "▁خشکسالی": 4070,
    "▁۶۴": 4071,
    "تراشه": 4072,
    "▁روبروست": 4073,
    "▁رضایت": 4074,
    "▁فیل": 4075,
    "نقل": 4076,
    "▁وجه": 4077,
    "▁بزو": 4078,
    "▁گیاهان": 4079,
    "▁لاری": 4080,
    "▁سینماها": 4081,
    "▁موجودات": 4082,
    "▁توضیحات": 4083,
    "▁سگ": 4084,
    "▁لطف": 4085,
    "▁جوز": 4086,
    "▁زم": 4087,
    "بدا": 4088,
    "▁نامدار": 4089,
    "ویل": 4090,
    "▁۳۵۰": 4091,
    "▁اسد": 4092,
    "▁ویلا": 4093,
    "▁تون": 4094,
    "▁آمدند": 4095,
    "▁دارا": 4096,
    "▁ملا": 4097,
    "▁گرگ": 4098,
    "▁بگیر": 4099,
    "▁بوش": 4100,
    "▁گرفتار": 4101,
    "کاوه": 4102,
    "▁فال": 4103,
    "وجود": 4104,
    "لیورپول": 4105,
    "خانواده": 4106,
    "باشگاه": 4107,
    "▁بلو": 4108,
    "▁شاعران": 4109,
    "▁مامور": 4110,
    "▁۹۰۰": 4111,
    "▁ظه": 4112,
    "اقد": 4113,
    "▁خانوار": 4114,
    "کتب": 4115,
    "▁تکنولوژی": 4116,
    "▁درآورد": 4117,
    "▁شلوغ": 4118,
    "▁تضمین": 4119,
    "▁زریاب": 4120,
    "▁سردبیر": 4121,
    "▁اصرار": 4122,
    "▁قزاق": 4123,
    "▁ابتکار": 4124,
    "▁خویش": 4125,
    "▁شوهر": 4126,
    "▁مقطع": 4127,
    "▁استثنا": 4128,
    "▁صحیح": 4129,
    "▁لنون": 4130,
    "نظرسنجی": 4131,
    "▁مارتین": 4132,
    "▁دانشکد": 4133,
    "▁سعد": 4134,
    "▁نرفت": 4135,
    "▁پوشاند": 4136,
    "▁شارژ": 4137,
    "▁ایرج": 4138,
    "▁بلوچ": 4139,
    "▁زغال": 4140,
    "▁مسیحی": 4141,
    "▁کووید۱۹": 4142,
    "▁کلینیک": 4143,
    "▁اکسید": 4144,
    "▁خالق": 4145,
    "▁شیلی": 4146,
    "▁شاهکار": 4147,
    "▁معلم": 4148,
    "▁مارچ": 4149,
    "▁غرق": 4150,
    "▁همرسان": 4151,
    "▁استراتژیک": 4152,
    "▁کولبر": 4153,
    "▁روبرت": 4154,
    "▁حکمتی": 4155,
    "▁مرتب": 4156,
    "▁مبادلات": 4157,
    "▁سیاستمداران": 4158,
    "▁چراغ": 4159,
    "▁موازی": 4160,
    "▁بوق": 4161,
    "▁ورز": 4162,
    "▁اریک": 4163,
    "▁کاظم": 4164,
    "▁دشمنان": 4165,
    "سیلوا": 4166,
    "▁اندازد": 4167,
    "خبر": 4168,
    "▁خواهر": 4169,
    "▁شریف": 4170,
    "▁دارید": 4171,
    "▁درختان": 4172,
    "جمه": 4173,
    "سپاری": 4174,
    "▁معنا": 4175,
    "▁گزارشگران": 4176,
    "راتی": 4177,
    "▁واسط": 4178,
    "▁رایج": 4179,
    "▁نیل": 4180,
    "ابق": 4181,
    "▁پرتر": 4182,
    "▁دال": 4183,
    "امیر": 4184,
    "▁ریل": 4185,
    "▁باستان": 4186,
    "فاد": 4187,
    "▁ماریا": 4188,
    "دخت": 4189,
    "مص": 4190,
    "رایان": 4191,
    "▁تالا": 4192,
    "نصف": 4193,
    "▁شنیدن": 4194,
    "▁شرمن": 4195,
    "پژوهشگران": 4196,
    "قدس": 4197,
    "پزشک": 4198,
    "اخیرا": 4199,
    "معاون": 4200,
    "اتحاد": 4201,
    "گراد": 4202,
    "واسط": 4203,
    "صرف": 4204,
    "مدت": 4205,
    "▁تثب": 4206,
    "▁سکت": 4207,
    "سیتی": 4208,
    "▁دشمن": 4209,
    "برنامه": 4210,
    "هدیه": 4211,
    "جوبی": 4212,
    "▁مقدم": 4213,
    "گبا": 4214,
    "ژانس": 4215,
    "شیبا": 4216,
    "▁آسمایی": 4217,
    "▁اخلال": 4218,
    "▁بلومبرگ": 4219,
    "▁بگوییم": 4220,
    "▁دریابندری": 4221,
    "▁دژپسند": 4222,
    "▁صداوسیما": 4223,
    "▁فروپاشی": 4224,
    "▁ولسوال": 4225,
    "▁کارداشیان": 4226,
    "▁اسحاق": 4227,
    "▁خفیف": 4228,
    "▁مداخل": 4229,
    "▁بقایای": 4230,
    "▁روشنفکر": 4231,
    "▁آشوری": 4232,
    "▁ناچار": 4233,
    "▁شباهت": 4234,
    "▁مشکات": 4235,
    "▁اوباما": 4236,
    "▁توخل": 4237,
    "▁نشیب": 4238,
    "▁تعبیر": 4239,
    "▁سکوت": 4240,
    "▁بیفتد": 4241,
    "▁وصل": 4242,
    "▁توجیه": 4243,
    "▁حاجی": 4244,
    "▁کمپین": 4245,
    "▁فیلمبردار": 4246,
    "▁نزول": 4247,
    "▁مسکو": 4248,
    "▁جابجا": 4249,
    "▁قطار": 4250,
    "▁ایراد": 4251,
    "ضعف": 4252,
    "▁اردوگاه": 4253,
    "▁مولوی": 4254,
    "▁کوهستان": 4255,
    "▁بگیریم": 4256,
    "▁فخر": 4257,
    "▁فیروز": 4258,
    "▁پناهندگ": 4259,
    "▁ترکمن": 4260,
    "▁چوب": 4261,
    "▁تشری": 4262,
    "▁هشتگ": 4263,
    "▁تقابل": 4264,
    "▁یکسان": 4265,
    "▁شوش": 4266,
    "▁پناهجویان": 4267,
    "▁تعجب": 4268,
    "▁پائی": 4269,
    "▁اپل": 4270,
    "▁افشار": 4271,
    "▁وزارتخانه": 4272,
    "▁۴۱": 4273,
    "▁نول": 4274,
    "▁نمادهای": 4275,
    "▁کیست": 4276,
    "▁محا": 4277,
    "مهدی": 4278,
    "▁بجا": 4279,
    "▁جاست": 4280,
    "▁نداشتن": 4281,
    "▁زخم": 4282,
    "▁همکارانش": 4283,
    "▁ثروتمندتر": 4284,
    "▁صفحات": 4285,
    "▁سامان": 4286,
    "▁۹۳": 4287,
    "▁بافت": 4288,
    "▁جزیی": 4289,
    "▁سختگیر": 4290,
    "▁فوریت": 4291,
    "▁سیزده": 4292,
    "▁آرا": 4293,
    "لندر": 4294,
    "▁جنس": 4295,
    "▁نمود": 4296,
    "▁۱۵۰۰": 4297,
    "▁منطق": 4298,
    "▁محدودیتها": 4299,
    "▁خودران": 4300,
    "▁بدوی": 4301,
    "تکب": 4302,
    "▁برادرش": 4303,
    "▁جعل": 4304,
    "▁بلوک": 4305,
    "▁پیرو": 4306,
    "▁پسرش": 4307,
    "فروش": 4308,
    "▁شرم": 4309,
    "رشاد": 4310,
    "▁گوگ": 4311,
    "محققان": 4312,
    "▁منصو": 4313,
    "شیوع": 4314,
    "مشخص": 4315,
    "فصل": 4316,
    "▁تام": 4317,
    "دادگاه": 4318,
    "مارک": 4319,
    "▁شاپو": 4320,
    "▁خار": 4321,
    "درصد": 4322,
    "▁مکزیک": 4323,
    "غذی": 4324,
    "▁عزا": 4325,
    "▁فضاپیما": 4326,
    "▁آغداشلو": 4327,
    "▁آموزگار": 4328,
    "▁اضطراب": 4329,
    "▁اپیدمی": 4330,
    "▁خسارات": 4331,
    "▁مواضع": 4332,
    "▁ایرباس": 4333,
    "▁بروکسل": 4334,
    "▁زحمت": 4335,
    "▁متغیر": 4336,
    "▁مرتضی": 4337,
    "▁نیاورد": 4338,
    "▁ناشناخت": 4339,
    "▁بدخشان": 4340,
    "▁جاشوا": 4341,
    "▁آرشیو": 4342,
    "▁خیانت": 4343,
    "گراندپری": 4344,
    "▁تسلیت": 4345,
    "▁وفادار": 4346,
    "▁معدود": 4347,
    "▁منفجر": 4348,
    "▁خرسند": 4349,
    "▁بمانند": 4350,
    "▁ندارم": 4351,
    "▁خزر": 4352,
    "▁تتلو": 4353,
    "▁تأیید": 4354,
    "▁کانسپت": 4355,
    "کثیر": 4356,
    "فلاتو": 4357,
    "▁گرمای": 4358,
    "▁داریوش": 4359,
    "انصراف": 4360,
    "▁مکاتب": 4361,
    "▁مشت": 4362,
    "▁دزد": 4363,
    "▁دماوند": 4364,
    "▁مدرک": 4365,
    "▁۱۳۹۵": 4366,
    "▁گرایش": 4367,
    "▁۲۰۳۰": 4368,
    "▁ارزشمند": 4369,
    "▁مبت": 4370,
    "تاسف": 4371,
    "▁سارا": 4372,
    "▁زیستگاه": 4373,
    "ائیل": 4374,
    "▁ژوز": 4375,
    "▁شوید": 4376,
    "▁۷۴": 4377,
    "▁همینطور": 4378,
    "▁۵۴": 4379,
    "▁پرآ": 4380,
    "▁۵۸": 4381,
    "▁شناسند": 4382,
    "▁هواپیماهای": 4383,
    "▁دهندگان": 4384,
    "▁خرند": 4385,
    "▁مهاجران": 4386,
    "▁دیپلمات": 4387,
    "▁سفی": 4388,
    "▁برنز": 4389,
    "▁خواندند": 4390,
    "▁عقل": 4391,
    "▁اجبار": 4392,
    "رسون": 4393,
    "▁احمدشا": 4394,
    "▁مغاز": 4395,
    "ناب": 4396,
    "▁پروازها": 4397,
    "▁سنج": 4398,
    "▁کوبا": 4399,
    "لینی": 4400,
    "▁خانواد": 4401,
    "▁لخت": 4402,
    "▁واحدها": 4403,
    "آر": 4404,
    "▁۱۹۰": 4405,
    "لمپ": 4406,
    "آنتونی": 4407,
    "حمید": 4408,
    "ناظر": 4409,
    "ایدو": 4410,
    "انتظار": 4411,
    "صندوق": 4412,
    "مراسم": 4413,
    "گفتگو": 4414,
    "عداد": 4415,
    "سکار": 4416,
    "▁اشکال": 4417,
    "خواهانه": 4418,
    "چرا": 4419,
    "دیگر": 4420,
    "▁سلام": 4421,
    "▁استراتژی": 4422,
    "▁مختل": 4423,
    "▁مقر": 4424,
    "عزیز": 4425,
    "رکاب": 4426,
    "▁آتالانتا": 4427,
    "▁ارکستر": 4428,
    "▁بوفالو": 4429,
    "▁زودهنگام": 4430,
    "▁لامبورگینی": 4431,
    "▁وظایف": 4432,
    "▁پهپاد": 4433,
    "▁آغوش": 4434,
    "▁اعصاب": 4435,
    "▁تورنتو": 4436,
    "▁یونسکو": 4437,
    "▁دعوا": 4438,
    "▁کریسمس": 4439,
    "▁کمبریج": 4440,
    "▁مکتوب": 4441,
    "▁ترافیک": 4442,
    "▁امیرشاهی": 4443,
    "▁بیاورد": 4444,
    "▁معارف": 4445,
    "▁گشود": 4446,
    "▁بکشند": 4447,
    "▁میکروب": 4448,
    "▁مخلو": 4449,
    "▁گرسنگ": 4450,
    "مرگ": 4451,
    "▁عقرب": 4452,
    "▁پراید": 4453,
    "▁بفهم": 4454,
    "▁رفاه": 4455,
    "تابعیت": 4456,
    "▁مشوق": 4457,
    "▁چهاردهم": 4458,
    "▁بدانند": 4459,
    "▁بولت": 4460,
    "▁خیال": 4461,
    "▁مطلوب": 4462,
    "▁ببیند": 4463,
    "▁ضدحمل": 4464,
    "▁رولینگ": 4465,
    "پادمان": 4466,
    "▁۱۹۴۰": 4467,
    "▁تکنیک": 4468,
    "مکعب": 4469,
    "▁۱۹۷۰": 4470,
    "▁باشم": 4471,
    "کوبی": 4472,
    "▁یادبود": 4473,
    "▁شیمی": 4474,
    "کوئین": 4475,
    "▁۱۴۰": 4476,
    "▁محکم": 4477,
    "▁بوکسور": 4478,
    "▁خاور": 4479,
    "جانب": 4480,
    "▁زبا": 4481,
    "▁۲۰۰۴": 4482,
    "▁بازخوان": 4483,
    "▁۴۷": 4484,
    "▁گرمایش": 4485,
    "▁۷۸": 4486,
    "▁۶۸": 4487,
    "ساعد": 4488,
    "یویا": 4489,
    "▁مردگان": 4490,
    "سلط": 4491,
    "مجتب": 4492,
    "▁شادی": 4493,
    "▁تونس": 4494,
    "▁نیش": 4495,
    "▁رفتارهای": 4496,
    "ارث": 4497,
    "▁جست": 4498,
    "دترا": 4499,
    "▁پاتر": 4500,
    "▁فرانک": 4501,
    "نصر": 4502,
    "▁شانزدهم": 4503,
    "دندان": 4504,
    "▁جور": 4505,
    "▁اشیا": 4506,
    "قبل": 4507,
    "▁ادب": 4508,
    "صخره": 4509,
    "▁سازد": 4510,
    "▁علا": 4511,
    "نوردی": 4512,
    "▁کوب": 4513,
    "دلال": 4514,
    "تعداد": 4515,
    "▁۱۷۶": 4516,
    "تواند": 4517,
    "▁سطو": 4518,
    "▁کمدی": 4519,
    "ماجرا": 4520,
    "منابع": 4521,
    "نمایندگان": 4522,
    "درآمد": 4523,
    "فدرر": 4524,
    "علاو": 4525,
    "علیرضا": 4526,
    "دهنده": 4527,
    "خورده": 4528,
    "تحول": 4529,
    "هدف": 4530,
    "رهبر": 4531,
    "▁رنجر": 4532,
    "▁عمو": 4533,
    "الکس": 4534,
    "مرکز": 4535,
    "فلیک": 4536,
    "▁دستاورد": 4537,
    "▁سوئ": 4538,
    "مانع": 4539,
    "▁ورشکست": 4540,
    "▁انستیتو": 4541,
    "▁باورنکردنی": 4542,
    "▁بوئنو": 4543,
    "▁تلسکوپ": 4544,
    "▁عواقب": 4545,
    "▁فزاینده": 4546,
    "▁مصلحت": 4547,
    "▁گلمکانی": 4548,
    "▁زیرساخت": 4549,
    "▁واضح": 4550,
    "▁وحدت": 4551,
    "▁گابریل": 4552,
    "▁اخلاق": 4553,
    "▁ضایع": 4554,
    "▁پیرامون": 4555,
    "▁احکام": 4556,
    "▁بگذارند": 4557,
    "▁ناقض": 4558,
    "▁مضاعف": 4559,
    "▁محترم": 4560,
    "▁ویرجی": 4561,
    "▁سوگوار": 4562,
    "▁آویو": 4563,
    "▁عارف": 4564,
    "▁نیسان": 4565,
    "▁دادگستری": 4566,
    "فاضل": 4567,
    "▁ناتوان": 4568,
    "▁اصولگرا": 4569,
    "▁اندرکار": 4570,
    "▁بفتا": 4571,
    "▁رقبا": 4572,
    "کارآمد": 4573,
    "▁عزیزان": 4574,
    "▁آشام": 4575,
    "منازع": 4576,
    "▁چرب": 4577,
    "▁نکات": 4578,
    "▁آوازخوان": 4579,
    "▁سایبری": 4580,
    "▁بگیرید": 4581,
    "▁۱۹۸۰": 4582,
    "خوشایند": 4583,
    "▁بپردازد": 4584,
    "▁استونز": 4585,
    "▁بردارد": 4586,
    "▁الحسن": 4587,
    "▁هیدرو": 4588,
    "▁سنبل": 4589,
    "▁۱۹۹۸": 4590,
    "پوش": 4591,
    "▁سانتریفیوژهای": 4592,
    "▁حساسیت": 4593,
    "▁دستاوردهای": 4594,
    "▁متنوع": 4595,
    "▁پررنگ": 4596,
    "▁رسول": 4597,
    "تیکو": 4598,
    "▁نارس": 4599,
    "▁کیفر": 4600,
    "▁حباب": 4601,
    "▁هستید": 4602,
    "وارد": 4603,
    "▁الکل": 4604,
    "▁جهاد": 4605,
    "▁۹۴": 4606,
    "▁لوکا": 4607,
    "▁حاد": 4608,
    "لانتی": 4609,
    "▁فیس": 4610,
    "▁استاندارد": 4611,
    "رحیم": 4612,
    "▁رانت": 4613,
    "▁آنتی": 4614,
    "▁ذی": 4615,
    "راجر": 4616,
    "▁نوآور": 4617,
    "▁حتما": 4618,
    "▁ژو": 4619,
    "ویچ": 4620,
    "▁دهید": 4621,
    "لینگ": 4622,
    "طرف": 4623,
    "ابلو": 4624,
    "تاپ": 4625,
    "پاتی": 4626,
    "▁صفرها": 4627,
    "▁اراد": 4628,
    "انکن": 4629,
    "آموز": 4630,
    "شتم": 4631,
    "▁تابو": 4632,
    "فشار": 4633,
    "اقتصاد": 4634,
    "مارادونا": 4635,
    "فعالان": 4636,
    "مجلس": 4637,
    "تولید": 4638,
    "کرونا": 4639,
    "کاهش": 4640,
    "بازار": 4641,
    "آخری": 4642,
    "▁نویسندگ": 4643,
    "سایت": 4644,
    "▁سرنشین": 4645,
    "▁سانتریفیوژ": 4646,
    "بفرستید": 4647,
    "▁تخفیف": 4648,
    "▁جامائیکا": 4649,
    "▁غیرنظامی": 4650,
    "▁آسوشیتدپرس": 4651,
    "▁اتوبوس": 4652,
    "▁اقتدار": 4653,
    "▁انصاریان": 4654,
    "▁زاناردی": 4655,
    "▁مشکوک": 4656,
    "▁وروورت": 4657,
    "▁پنگوئن": 4658,
    "▁بوچانی": 4659,
    "▁دگرگون": 4660,
    "▁معافیت": 4661,
    "▁نوازنده": 4662,
    "▁قائدی": 4663,
    "▁کادرفنی": 4664,
    "▁سرتاسر": 4665,
    "▁غرامت": 4666,
    "▁تبادل": 4667,
    "▁ببینیم": 4668,
    "▁ثانوی": 4669,
    "▁برآمد": 4670,
    "▁ندانست": 4671,
    "▁پلامر": 4672,
    "▁طعم": 4673,
    "▁آمبول": 4674,
    "فینیتی": 4675,
    "▁موزیک": 4676,
    "▁استعمار": 4677,
    "▁گودال": 4678,
    "▁تمدن": 4679,
    "▁معوقه": 4680,
    "رشد": 4681,
    "▁قبال": 4682,
    "▁کرمانشاه": 4683,
    "▁رولز": 4684,
    "▁اعتنا": 4685,
    "▁بیروت": 4686,
    "▁استفانو": 4687,
    "▁توفان": 4688,
    "فرگوس": 4689,
    "▁پستاندار": 4690,
    "▁گلایه": 4691,
    "ضاح": 4692,
    "▁تبعید": 4693,
    "▁تعمیر": 4694,
    "▁ساترا": 4695,
    "▁صحرا": 4696,
    "▁سارس": 4697,
    "▁مزای": 4698,
    "▁عزم": 4699,
    "▁بالگرد": 4700,
    "▁حاکمیت": 4701,
    "▁شیع": 4702,
    "▁۱۹۶۰": 4703,
    "دالله": 4704,
    "▁مرکل": 4705,
    "▁خراب": 4706,
    "عارض": 4707,
    "▁سالیوان": 4708,
    "▁تدری": 4709,
    "▁محض": 4710,
    "▁رایزن": 4711,
    "▁نیکلا": 4712,
    "▁آرمان": 4713,
    "▁تندرو": 4714,
    "▁مواقع": 4715,
    "نکور": 4716,
    "▁کاربرد": 4717,
    "▁حفر": 4718,
    "▁میهمان": 4719,
    "▁کانادایی": 4720,
    "▁انوش": 4721,
    "امضاکنندگان": 4722,
    "▁پویا": 4723,
    "رمد": 4724,
    "▁اعما": 4725,
    "باتری": 4726,
    "تنوع": 4727,
    "▁گردشگر": 4728,
    "▁میلاد": 4729,
    "روژ": 4730,
    "صره": 4731,
    "▁نگرفت": 4732,
    "لاتین": 4733,
    "▁۱۶۰": 4734,
    "ونتی": 4735,
    "▁۱۳۳": 4736,
    "▁شانزده": 4737,
    "ظاهر": 4738,
    "چلسی": 4739,
    "عکاس": 4740,
    "پرسپولیس": 4741,
    "آغاز": 4742,
    "سرعت": 4743,
    "واکنش": 4744,
    "دفتر": 4745,
    "منچستر": 4746,
    "حکم": 4747,
    "▁میرزا": 4748,
    "احی": 4749,
    "▁مصدوم": 4750,
    "دغدغه": 4751,
    "▁آشپز": 4752,
    "▁اختراع": 4753,
    "▁ارجاع": 4754,
    "▁تصاحب": 4755,
    "▁جغرافیای": 4756,
    "▁خنثی": 4757,
    "▁رمضان": 4758,
    "▁شیکاگو": 4759,
    "▁غفوری": 4760,
    "▁لاجورد": 4761,
    "▁ملاحظ": 4762,
    "▁مونتاژ": 4763,
    "▁ناپدید": 4764,
    "▁اتیوپی": 4765,
    "▁خرچنگ": 4766,
    "▁هجدهم": 4767,
    "▁کلاهبردار": 4768,
    "▁خوشبخت": 4769,
    "▁رستگار": 4770,
    "▁طارمی": 4771,
    "▁مسموم": 4772,
    "▁نعمت": 4773,
    "▁آموخت": 4774,
    "▁احتیاط": 4775,
    "▁مسوول": 4776,
    "▁بوزمن": 4777,
    "▁سانتیمتر": 4778,
    "▁خادم": 4779,
    "▁خدایاری": 4780,
    "▁ماندگار": 4781,
    "▁ادوارد": 4782,
    "▁معالج": 4783,
    "▁جرایم": 4784,
    "▁مکالم": 4785,
    "▁مینیاتور": 4786,
    "▁زائر": 4787,
    "▁بازنگری": 4788,
    "▁واریز": 4789,
    "▁زهره": 4790,
    "▁عثمان": 4791,
    "سکانس": 4792,
    "▁مثلث": 4793,
    "▁ندهد": 4794,
    "▁رجب": 4795,
    "▁زیدان": 4796,
    "▁فتاح": 4797,
    "▁امریکا": 4798,
    "▁مجرم": 4799,
    "▁مشتاق": 4800,
    "▁مسافت": 4801,
    "▁مضر": 4802,
    "▁کولمن": 4803,
    "▁بهبهان": 4804,
    "▁مکلف": 4805,
    "▁پالاس": 4806,
    "▁هرمز": 4807,
    "▁پایبند": 4808,
    "▁توریست": 4809,
    "▁فروغ": 4810,
    "▁یزد": 4811,
    "▁معاش": 4812,
    "▁آنفیلد": 4813,
    "▁ژاک": 4814,
    "▁بوئین": 4815,
    "▁یوگا": 4816,
    "▁مبالغ": 4817,
    "▁اعطا": 4818,
    "▁بازنشستگی": 4819,
    "▁عاشقانه": 4820,
    "▁تبع": 4821,
    "▁کانری": 4822,
    "▁سیارک": 4823,
    "بپرس": 4824,
    "▁دستیار": 4825,
    "ستانگ": 4826,
    "▁مستندساز": 4827,
    "▁حفا": 4828,
    "▁لق": 4829,
    "رینگ": 4830,
    "ایح": 4831,
    "▁انتها": 4832,
    "▁جنای": 4833,
    "هرانا": 4834,
    "کجاست": 4835,
    "برگزار": 4836,
    "مزد": 4837,
    "پتون": 4838,
    "▁کنیا": 4839,
    "وویچ": 4840,
    "ساسی": 4841,
    "میلیا": 4842,
    "اکثریت": 4843,
    "▁ردیاب": 4844,
    "ویکتور": 4845,
    "یونایتد": 4846,
    "محمدجواد": 4847,
    "غلام": 4848,
    "کانادا": 4849,
    "رافائل": 4850,
    "دونالد": 4851,
    "قهرمان": 4852,
    "(": 4853,
    "مسئولان": 4854,
    "▁خشن": 4855,
    "نفتی": 4856,
    "تهران": 4857,
    "تلاش": 4858,
    "▁علاقمند": 4859,
    "بورد": 4860,
    "نشست": 4861,
    "▁۱۷۰": 4862,
    "▁تخل": 4863,
    "▁آلومینیوم": 4864,
    "▁آپارتمان": 4865,
    "▁جعفری": 4866,
    "▁دانچیچ": 4867,
    "▁فرسایش": 4868,
    "▁مظنون": 4869,
    "▁هواشناسی": 4870,
    "▁پومپئو": 4871,
    "▁چرنکوف": 4872,
    "▁ژیمناست": 4873,
    "▁کدخدایی": 4874,
    "▁الاجرا": 4875,
    "▁مستاجر": 4876,
    "▁وحشتناک": 4877,
    "▁جاذبه": 4878,
    "▁مجاهد": 4879,
    "▁گیگز": 4880,
    "▁سازوکار": 4881,
    "▁مرضیه": 4882,
    "▁کارگزار": 4883,
    "▁بفروشد": 4884,
    "▁تفسیر": 4885,
    "▁امواج": 4886,
    "▁مصیبت": 4887,
    "▁پیشکسوت": 4888,
    "▁گاگا": 4889,
    "خاذ": 4890,
    "▁منظم": 4891,
    "▁جونیور": 4892,
    "▁رژیم": 4893,
    "▁فطر": 4894,
    "▁فهمید": 4895,
    "▁تکامل": 4896,
    "▁گواهی": 4897,
    "▁رومانیا": 4898,
    "▁البرز": 4899,
    "▁نیجر": 4900,
    "▁اشعار": 4901,
    "▁الماس": 4902,
    "▁ایسلند": 4903,
    "▁گریبان": 4904,
    "▁وودز": 4905,
    "▁فجر": 4906,
    "▁فلسطینیان": 4907,
    "▁مثل": 4908,
    "▁فشرد": 4909,
    "▁ساسان": 4910,
    "▁جلد": 4911,
    "▁فحش": 4912,
    "▁علوی": 4913,
    "▁محرک": 4914,
    "▁سکسک": 4915,
    "▁کلمات": 4916,
    "▁عنصر": 4917,
    "▁تایتان": 4918,
    "گشاد": 4919,
    "افزون": 4920,
    "▁ویزا": 4921,
    "فرجام": 4922,
    "▁فرایند": 4923,
    "▁علایم": 4924,
    "▁شرکا": 4925,
    "درفتار": 4926,
    "▁اتکا": 4927,
    "▁ماشه": 4928,
    "▁عسل": 4929,
    "▁مزایای": 4930,
    "▁کوبید": 4931,
    "▁شناگر": 4932,
    "▁دایر": 4933,
    "▁جیپ": 4934,
    "▁شمایل": 4935,
    "▁گرامی": 4936,
    "▁حواس": 4937,
    "روسیا": 4938,
    "▁فابی": 4939,
    "حلال": 4940,
    "▁جزای": 4941,
    "الیاس": 4942,
    "ارتوم": 4943,
    "▁بطر": 4944,
    "تشکر": 4945,
    "ویر": 4946,
    "عادت": 4947,
    "کارشناسان": 4948,
    "روابط": 4949,
    "آلمان": 4950,
    "مسابقات": 4951,
    "خودرو": 4952,
    "ویروس": 4953,
    "علت": 4954,
    "▁پناهجوی": 4955,
    "▁حقیق": 4956,
    "▁داش": 4957,
    "▁ارمنستان": 4958,
    "▁اسراییل": 4959,
    "▁المستقبل": 4960,
    "▁بلندپرواز": 4961,
    "▁حرکات": 4962,
    "▁فلامینگو": 4963,
    "▁لابراتوار": 4964,
    "▁نگذاشت": 4965,
    "▁پدافند": 4966,
    "▁پولیتزر": 4967,
    "▁ژئوپلیتیک": 4968,
    "▁بالیوود": 4969,
    "▁ربیعی": 4970,
    "▁یخچال": 4971,
    "▁تویوتا": 4972,
    "▁نصیب": 4973,
    "▁نوازندگان": 4974,
    "▁۱۹۶۷": 4975,
    "▁سنگاپور": 4976,
    "▁کرگدن": 4977,
    "▁گرجستان": 4978,
    "▁۱۹۶۶": 4979,
    "▁انحصار": 4980,
    "▁تفکیک": 4981,
    "▁نامناسب": 4982,
    "▁زادگاهش": 4983,
    "▁ویتنام": 4984,
    "▁عروق": 4985,
    "▁غلط": 4986,
    "▁همسایگ": 4987,
    "▁یادگار": 4988,
    "▁اسپورت": 4989,
    "▁بنتلی": 4990,
    "▁اشنویه": 4991,
    "▁هوندا": 4992,
    "▁سینماگران": 4993,
    "▁تعاون": 4994,
    "▁مظاهری": 4995,
    "▁سیگار": 4996,
    "▁متوفی": 4997,
    "▁شستا": 4998,
    "▁کبد": 4999,
    "▁ممیز": 5000,
    "▁قاتل": 5001
  }
}