{
  "src_word2id": {
    "<pad>": 0,
    "<s>": 1,
    "</s>": 2,
    "<unk>": 3,
    "ی": 4,
    ".": 5,
    "ه": 6,
    "▁است": 7,
    "▁می": 8,
    "▁": 9,
    "▁های": 10,
    "▁ایران": 11,
    "▁شده": 12,
    "ان": 13,
    "،": 14,
    "▁سال": 15,
    "▁یک": 16,
    "▁بود": 17,
    "▁ها": 18,
    "▁شد": 19,
    "ش": 20,
    "▁ای": 21,
    "م": 22,
    "▁تصویر": 23,
    "▁کرده": 24,
    "ت": 25,
    "▁کرد": 26,
    "منبع": 27,
    "▁بر": 28,
    "▁شود": 29,
    "▁دو": 30,
    "▁گفته": 31,
    "▁کند": 32,
    "▁خود": 33,
    "ین": 34,
    "؛": 35,
    "ن": 36,
    "▁کرونا": 37,
    "▁اند": 38,
    "ا": 39,
    "▁در": 40,
    "ل": 41,
    "ند": 42,
    "ر": 43,
    "▁ماه": 44,
    "▁آمریکا": 45,
    "د": 46,
    "▁پیش": 47,
    "▁کشور": 48,
    "ات": 49,
    "▁گزارش": 50,
    "▁روز": 51,
    "▁و": 52,
    "▁بی": 53,
    "های": 54,
    "ب": 55,
    "▁دیگر": 56,
    "▁کار": 57,
    "▁ا": 58,
    "▁دارد": 59,
    "▁فوتبال": 60,
    "س": 61,
    "▁دهد": 62,
    "▁گفت": 63,
    "▁تیم": 64,
    "▁بازی": 65,
    "▁م": 66,
    "▁اعلام": 67,
    "▁کنند": 68,
    "▁قرار": 69,
    "▁با": 70,
    "▁شرکت": 71,
    "▁یا": 72,
    "▁هزار": 73,
    "▁دولت": 74,
    "ز": 75,
    "▁داده": 76,
    "و": 77,
    "▁به": 78,
    "▁بین": 79,
    "در": 80,
    "▁رئیس": 81,
    "▁جهان": 82,
    "▁سه": 83,
    "▁بار": 84,
    "▁دست": 85,
    "▁هر": 86,
    "▁گذشته": 87,
    "ک": 88,
    "▁خواهد": 89,
    "▁پس": 90,
    "▁ف": 91,
    "▁آقای": 92,
    "▁گوید": 93,
    "▁درصد": 94,
    "▁درباره": 95,
    "▁تهران": 96,
    "▁لیگ": 97,
    "▁آنها": 98,
    "▁دلیل": 99,
    "▁میلیون": 100,
    "این": 101,
    "▁سر": 102,
    "▁افغانستان": 103,
    "▁نفر": 104,
    "▁افزایش": 105,
    "▁از": 106,
    "▁داد": 107,
    "▁چند": 108,
    "▁هفته": 109,
    "▁ت": 110,
    "▁جدید": 111,
    "▁نام": 112,
    "▁ب": 113,
    "▁'": 114,
    "▁بعد": 115,
    "ها": 116,
    "ری": 117,
    "'": 118,
    "▁حال": 119,
    "▁خبر": 120,
    "▁ملی": 121,
    "▁بوده": 122,
    "ف": 123,
    "▁سی": 124,
    ":": 125,
    "▁جمهوری": 126,
    "ور": 127,
    "▁دلار": 128,
    "▁فیلم": 129,
    "ار": 130,
    "▁نظر": 131,
    "▁نمی": 132,
    "▁ویروس": 133,
    "▁یکی": 134,
    "▁ترین": 135,
    "▁همه": 136,
    "▁داشت": 137,
    "▁جهانی": 138,
    "▁را": 139,
    "▁بازار": 140,
    "▁هستند": 141,
    "▁قیمت": 142,
    "▁روی": 143,
    "ع": 144,
    "▁برگزار": 145,
    "▁علی": 146,
    "▁چین": 147,
    "▁باید": 148,
    "▁امروز": 149,
    "ست": 150,
    "▁تولید": 151,
    "▁عنوان": 152,
    "▁مورد": 153,
    "▁سازمان": 154,
    "▁بیشتر": 155,
    "▁نیست": 156,
    "▁گرفته": 157,
    "▁کردند": 158,
    "▁نفت": 159,
    "▁شدن": 160,
    "▁کاهش": 161,
    "▁بیش": 162,
    "▁وزیر": 163,
    "ایی": 164,
    "▁بریتانیا": 165,
    "▁شب": 166,
    "▁بزرگ": 167,
    "ق": 168,
    "▁ش": 169,
    "▁آغاز": 170,
    "▁تر": 171,
    "▁وزارت": 172,
    "▁مقابل": 173,
    "▁اش": 174,
    "▁اخیر": 175,
    "▁نیز": 176,
    "▁اروپا": 177,
    "▁نشان": 178,
    "▁باشگاه": 179,
    "▁بودند": 180,
    "▁حدود": 181,
    "به": 182,
    "▁راه": 183,
    "▁باز": 184,
    "▁بانک": 185,
    "▁آن": 186,
    "▁برنامه": 187,
    "او": 188,
    "▁همچنین": 189,
    "بر": 190,
    "یت": 191,
    "▁مجلس": 192,
    "▁داشته": 193,
    "▁زمان": 194,
    "▁قبل": 195,
    "▁باشد": 196,
    "▁حضور": 197,
    "▁پایان": 198,
    "▁صورت": 199,
    "▁تحریم": 200,
    "▁انجام": 201,
    "▁توافق": 202,
    "گی": 203,
    "ج": 204,
    "▁کم": 205,
    "▁اول": 206,
    "▁اساس": 207,
    "▁اولین": 208,
    "که": 209,
    "▁اقتصادی": 210,
    "▁بخش": 211,
    "▁شهر": 212,
    "▁گل": 213,
    "▁منتشر": 214,
    "ال": 215,
    "له": 216,
    "▁واکسن": 217,
    "▁شیوع": 218,
    "▁دی": 219,
    "▁استفاده": 220,
    "▁ن": 221,
    "ید": 222,
    "▁فصل": 223,
    "▁میان": 224,
    "▁جمله": 225,
    "آقای": 226,
    "▁رسید": 227,
    "دامه": 228,
    "▁وجود": 229,
    "▁شورا": 230,
    "با": 231,
    "ح": 232,
    "▁دارند": 233,
    "تر": 234,
    "؟": 235,
    "▁مسابقه": 236,
    "▁مردم": 237,
    "▁گروه": 238,
    "▁خواست": 239,
    "یم": 240,
    "▁زندگی": 241,
    "▁شوند": 242,
    "▁چهار": 243,
    "▁س": 244,
    "▁میلیارد": 245,
    "▁پی": 246,
    "▁ماشین": 247,
    "▁آ": 248,
    "▁المللی": 249,
    "▁مسابقات": 250,
    "▁پر": 251,
    "شان": 252,
    "▁زنان": 253,
    "▁ر": 254,
    "▁همین": 255,
    "▁پنج": 256,
    "▁توان": 257,
    "▁گرفت": 258,
    "▁گیری": 259,
    "▁ایرانی": 260,
    "▁حقوق": 261,
    "▁کر": 262,
    "انه": 263,
    "▁تنها": 264,
    "▁مقام": 265,
    "▁کل": 266,
    "▁شدند": 267,
    "▁تومان": 268,
    "▁ارز": 269,
    "▁برتر": 270,
    "▁تمام": 271,
    "▁تواند": 272,
    "▁وقت": 273,
    "یک": 274,
    "نه": 275,
    "ون": 276,
    "▁امسال": 277,
    "▁زیاد": 278,
    "▁غیر": 279,
    "▁رسان": 280,
    "▁حالی": 281,
    "▁شرایط": 282,
    "▁نزدیک": 283,
    "▁اسلامی": 284,
    "خ": 285,
    "▁وضعیت": 286,
    "▁دوران": 287,
    "▁محمد": 288,
    "▁هیچ": 289,
    "▁آینده": 290,
    "عث": 291,
    "ترین": 292,
    "▁فروش": 293,
    "▁جام": 294,
    "▁اقتصاد": 295,
    "▁کردن": 296,
    "▁طور": 297,
    "▁تصمیم": 298,
    "▁کشورهای": 299,
    "▁بیماری": 300,
    "▁فعالیت": 301,
    "بدون": 302,
    "▁خانه": 303,
    "▁مدت": 304,
    "▁خارجه": 305,
    "▁بسیار": 306,
    "▁تلاش": 307,
    "▁وارد": 308,
    "▁منبع": 309,
    "▁بسیاری": 310,
    "▁مهم": 311,
    "از": 312,
    "▁ولی": 313,
    "▁پول": 314,
    "▁تازه": 315,
    "▁زمین": 316,
    "نگ": 317,
    "ام": 318,
    "▁گویند": 319,
    "▁نرخ": 320,
    "▁انتخابات": 321,
    "▁هایی": 322,
    "▁ریاست": 323,
    "▁برای": 324,
    "▁هم": 325,
    "▁افراد": 326,
    "▁سوی": 327,
    "▁تغییر": 328,
    "نوز": 329,
    "▁کمک": 330,
    "▁مختلف": 331,
    "قط": 332,
    "گ": 333,
    "▁اثر": 334,
    "▁اجتماعی": 335,
    "▁خودرو": 336,
    "▁نه": 337,
    "گان": 338,
    "وی": 339,
    "▁نخست": 340,
    "▁قهرمان": 341,
    "▁ساله": 342,
    "▁روحانی": 343,
    "▁تاریخ": 344,
    "دی": 345,
    "▁حت": 346,
    "▁زن": 347,
    "▁جان": 348,
    "▁خانواده": 349,
    "▁همراه": 350,
    "▁درگذشت": 351,
    "▁منطقه": 352,
    "نامه": 353,
    "اب": 354,
    "▁پیدا": 355,
    "روز": 356,
    "گاه": 357,
    "▁مجموع": 358,
    "▁حالا": 359,
    "▁مرکزی": 360,
    "▁شکست": 361,
    "▁طرح": 362,
    "▁سو": 363,
    "▁کنار": 364,
    "▁آخر": 365,
    "▁ط": 366,
    "▁شروع": 367,
    "▁برخ": 368,
    "▁برابر": 369,
    "▁برجام": 370,
    "▁اصلی": 371,
    "▁هسته": 372,
    "▁عکس": 373,
    "▁موسیقی": 374,
    "▁مرکز": 375,
    "▁رو": 376,
    "▁دهه": 377,
    "▁اینک": 378,
    "▁صد": 379,
    "▁او": 380,
    "▁توجه": 381,
    "▁دوم": 382,
    "▁بورس": 383,
    "▁۴": 384,
    "▁دوره": 385,
    "▁سفر": 386,
    "▁زیر": 387,
    "را": 388,
    "▁ه": 389,
    "▁بررسی": 390,
    "▁پرسپولیس": 391,
    "▁نا": 392,
    "▁آمریکایی": 393,
    "▁بعضی": 394,
    "ای": 395,
    "ثبت": 396,
    "▁اشار": 397,
    "▁۵": 398,
    "▁جمهور": 399,
    "ریق": 400,
    "▁کمتر": 401,
    "▁آب": 402,
    "▁میلادی": 403,
    "▁فدراسیون": 404,
    "▁قهرمانی": 405,
    "▁نقش": 406,
    "▁اطلاعات": 407,
    "▁۱۹": 408,
    "▁۱۰": 409,
    "▁دور": 410,
    "▁آمار": 411,
    "▁دنیا": 412,
    "ط": 413,
    "مان": 414,
    "▁۲۰": 415,
    "۸": 416,
    "▁رسمی": 417,
    "▁نوشته": 418,
    "▁چ": 419,
    "▁رسیده": 420,
    "▁سرمایه": 421,
    "▁بالا": 422,
    "▁رقابت": 423,
    "▁رفت": 424,
    "▁که": 425,
    "▁یافته": 426,
    "▁همکاری": 427,
    "▁ممکن": 428,
    "▁حمله": 429,
    "▁نتیج": 430,
    "▁بهترین": 431,
    "▁ساعت": 432,
    "▁واکنش": 433,
    "▁جو": 434,
    "▁نشده": 435,
    "▁آزاد": 436,
    "▁ال": 437,
    "▁رشد": 438,
    "▁عراق": 439,
    "▁دانشگاه": 440,
    "▁پرداخت": 441,
    "▁حمایت": 442,
    "▁مراسم": 443,
    "می": 444,
    "۶": 445,
    "▁جایزه": 446,
    "▁کو": 447,
    "▁اعتراض": 448,
    "پ": 449,
    "▁دنبال": 450,
    "▁تن": 451,
    "▁استقلال": 452,
    "▁ام": 453,
    "▁فرانسه": 454,
    "▁آژانس": 455,
    "۲": 456,
    "▁این": 457,
    "چ": 458,
    "▁مالی": 459,
    "▁کشتی": 460,
    "اد": 461,
    "▁۲": 462,
    "▁حاضر": 463,
    "▁بازیکن": 464,
    "اکنون": 465,
    "▁سابق": 466,
    "▁پرونده": 467,
    "▁۶": 468,
    "▁موضوع": 469,
    "▁سیاسی": 470,
    "▁الله": 471,
    "▁ج": 472,
    "▁خط": 473,
    "▁ورزش": 474,
    "▁شنبه": 475,
    "▁شش": 476,
    "توسط": 477,
    "▁کنیم": 478,
    "▁خبرگزا": 479,
    "▁تو": 480,
    "▁روند": 481,
    "▁ندارد": 482,
    "ما": 483,
    "▁ترامپ": 484,
    "رو": 485,
    "▁گو": 486,
    "▁رد": 487,
    "ِ": 488,
    "▁تعداد": 489,
    "▁انتشار": 490,
    "▁مدیر": 491,
    "کس": 492,
    "ص": 493,
    "▁کتاب": 494,
    "▁نو": 495,
    "▁خرید": 496,
    "▁نیمه": 497,
    "گر": 498,
    "▁رسد": 499,
    "ول": 500,
    "▁دیدار": 501,
    "▁ترکیه": 502,
    "▁استان": 503,
    "▁زبان": 504,
    "▁عرض": 505,
    "▁موج": 506,
    "▁هدف": 507,
    "▁آلمان": 508,
    "▁اج": 509,
    "▁دریافت": 510,
    "▁جنوبی": 511,
    "لی": 512,
    "▁انرژی": 513,
    "▁قهرمانان": 514,
    "▁طی": 515,
    "▁دهند": 516,
    "▁مذاکرات": 517,
    "▁ع": 518,
    "▁سهام": 519,
    "گیری": 520,
    "بی": 521,
    "▁ده": 522,
    "▁شمار": 523,
    "اس": 524,
    "▁هشدار": 525,
    "ده": 526,
    "▁۲۰۲۰": 527,
    "▁خام": 528,
    "▁خطر": 529,
    "▁اجرای": 530,
    "▁متهم": 531,
    "▁مرگ": 532,
    "ض": 533,
    "▁آمده": 534,
    "▁کس": 535,
    "▁آزمایش": 536,
    "▁مرد": 537,
    "▁اتحاد": 538,
    "▁ویژه": 539,
    "▁۸": 540,
    "▁مربوط": 541,
    "▁مبارز": 542,
    "▁هند": 543,
    "▁اقدام": 544,
    "▁چنین": 545,
    "▁سیاست": 546,
    "▁درآمد": 547,
    "▁نهایی": 548,
    "▁حد": 549,
    "ازه": 550,
    "▁پیروز": 551,
    "▁عربستان": 552,
    "▁۳": 553,
    "▁خواهند": 554,
    "۴": 555,
    "▁ک": 556,
    "▁آی": 557,
    "▁گذاری": 558,
    "▁مشخص": 559,
    "▁د": 560,
    "▁رود": 561,
    "نا": 562,
    "▁تبدیل": 563,
    "▁تلویزیون": 564,
    "▁سازی": 565,
    "▁ح": 566,
    "▁عضو": 567,
    "▁بهداشت": 568,
    "▁ساخت": 569,
    "▁آسیا": 570,
    "▁هفت": 571,
    "▁قرارداد": 572,
    "▁ایجاد": 573,
    "▁تایید": 574,
    "▁جریان": 575,
    "▁محل": 576,
    "▁لیورپول": 577,
    "▁بست": 578,
    "▁انسان": 579,
    "۱": 580,
    "▁امنیت": 581,
    ")": 582,
    "▁سرمربی": 583,
    "▁۲۰۱": 584,
    "▁همان": 585,
    "سی": 586,
    "▁میزان": 587,
    "▁لو": 588,
    "▁صادرات": 589,
    "۵": 590,
    "▁یافت": 591,
    "▁شناس": 592,
    "لو": 593,
    "چه": 594,
    "▁خیل": 595,
    "▁بد": 596,
    "▁نقل": 597,
    "▁دوبار": 598,
    "▁جنگ": 599,
    "▁زده": 600,
    "▁دیده": 601,
    "▁کمی": 602,
    "▁جلو": 603,
    "▁انگلیس": 604,
    "▁کابل": 605,
    "▁خارجی": 606,
    "▁زندان": 607,
    "▁بازداشت": 608,
    "▁قابل": 609,
    "▁انتخاب": 610,
    "▁خارج": 611,
    "▁حسن": 612,
    "▁مدل": 613,
    "▁محدودیت": 614,
    "▁رهبر": 615,
    "▁فاصله": 616,
    "▁تع": 617,
    "▁سن": 618,
    "▁بازیکنان": 619,
    "▁نمایش": 620,
    "▁نیاز": 621,
    "▁قانون": 622,
    "▁برد": 623,
    "▁ترک": 624,
    "▁آثار": 625,
    "▁بیمارستان": 626,
    "▁زمینه": 627,
    "▁روسیه": 628,
    "▁سوم": 629,
    "مین": 630,
    "وس": 631,
    "▁نسبت": 632,
    "کسب": 633,
    "وم": 634,
    "▁(": 635,
    "▁حکم": 636,
    "▁چرا": 637,
    "▁رای": 638,
    "▁کننده": 639,
    "▁طرف": 640,
    "▁خاطر": 641,
    "▁هی": 642,
    "▁سخت": 643,
    "▁دقیق": 644,
    "▁امتیاز": 645,
    "۹": 646,
    "▁طول": 647,
    "▁شناخت": 648,
    "▁معاون": 649,
    "▁پلیس": 650,
    "▁لغو": 651,
    "▁تاثیر": 652,
    "آ": 653,
    "▁گ": 654,
    "دن": 655,
    "▁بازگشت": 656,
    "▁کامل": 657,
    "وز": 658,
    "▁۲۰۰": 659,
    "▁قطع": 660,
    "کا": 661,
    "▁ارزش": 662,
    "▁کشته": 663,
    "▁منابع": 664,
    "▁تعطیل": 665,
    "▁دادگاه": 666,
    "دو": 667,
    "▁حکومت": 668,
    "▁اتمی": 669,
    "▁شکل": 670,
    "▁سپاه": 671,
    "▁دولتی": 672,
    "▁ابتلا": 673,
    "▁لندن": 674,
    "▁۷": 675,
    "▁نیم": 676,
    "▁تحت": 677,
    "▁سالگی": 678,
    "▁بشر": 679,
    "غ": 680,
    "▁بیانی": 681,
    "▁ساخته": 682,
    "▁سینما": 683,
    "▁ظریف": 684,
    "▁نامزد": 685,
    "ث": 686,
    "ود": 687,
    "▁سطح": 688,
    "▁مطرح": 689,
    "▁۳۰": 690,
    "▁اسرائیل": 691,
    "▁۱۳": 692,
    "دار": 693,
    "▁۲۵": 694,
    "▁ستار": 695,
    "▁اعضای": 696,
    "▁نشست": 697,
    "▁سخنگوی": 698,
    "▁انقلاب": 699,
    "▁عالی": 700,
    "▁حرکت": 701,
    "▁قرنطینه": 702,
    "▁نگاه": 703,
    "فر": 704,
    "لا": 705,
    "▁نمایند": 706,
    "▁ارتباط": 707,
    "▁جا": 708,
    "▁بودجه": 709,
    "▁نگرانی": 710,
    "اما": 711,
    "▁گاز": 712,
    "▁نوشت": 713,
    "▁چشم": 714,
    "▁زمانی": 715,
    "▁برنده": 716,
    "▁همزمان": 717,
    "▁پزشکی": 718,
    "▁تنیس": 719,
    "▁رکورد": 720,
    "▁مرح": 721,
    "▁جلس": 722,
    "▁بالای": 723,
    "▁آیا": 724,
    "▁گسترده": 725,
    "▁تک": 726,
    "▁داستان": 727,
    "▁عمومی": 728,
    "▁ادار": 729,
    "▁نامه": 730,
    "▁۹": 731,
    "▁انتقال": 732,
    "▁فشار": 733,
    "▁فکر": 734,
    "▁مت": 735,
    "سیون": 736,
    "▁مصاحبه": 737,
    "وق": 738,
    "▁روزهای": 739,
    "▁خوب": 740,
    "▁۱۲": 741,
    "▁هوای": 742,
    "تا": 743,
    "▁صنعت": 744,
    "▁امنیتی": 745,
    "▁تورم": 746,
    "▁قو": 747,
    "▁بایدن": 748,
    "▁پخ": 749,
    "▁سابقه": 750,
    "▁نهاد": 751,
    "۷": 752,
    "▁سیستم": 753,
    "▁اف": 754,
    "▁جاری": 755,
    "گو": 756,
    "▁کشید": 757,
    "▁متحده": 758,
    "▁کسان": 759,
    "▁دانست": 760,
    "▁فن": 761,
    "▁گرفتن": 762,
    "▁اس": 763,
    "▁الکتریکی": 764,
    "▁داخل": 765,
    "▁بخشی": 766,
    "▁برق": 767,
    "▁متوقف": 768,
    "▁حساب": 769,
    "▁دار": 770,
    "▁افت": 771,
    "▁بلند": 772,
    "▁۱۵": 773,
    "▁عمل": 774,
    "▁ان": 775,
    "▁نوع": 776,
    "▁خانم": 777,
    "▁پاسخ": 778,
    "▁اروپایی": 779,
    "▁ز": 780,
    "▁اتهام": 781,
    "▁نیروهای": 782,
    "▁انتظار": 783,
    "▁۲۰۱۹": 784,
    "▁باشند": 785,
    "▁کووید": 786,
    "▁صندوق": 787,
    "▁امور": 788,
    "▁دادن": 789,
    "-": 790,
    "▁طراح": 791,
    "یر": 792,
    "▁قدرت": 793,
    "سا": 794,
    "▁آنچ": 795,
    "سال": 796,
    "▁جای": 797,
    "▁لی": 798,
    "▁دستگاه": 799,
    "▁کودکان": 800,
    "▁پیشین": 801,
    "▁بدن": 802,
    "الات": 803,
    "▁نظامی": 804,
    "▁نکرده": 805,
    "▁اجرا": 806,
    "▁عد": 807,
    "▁جدی": 808,
    "ستاد": 809,
    "ره": 810,
    "پس": 811,
    "▁فینال": 812,
    "▁دستور": 813,
    "▁نمایندگان": 814,
    "▁تحقیق": 815,
    "▁مس": 816,
    "▁المپیک": 817,
    "▁چهر": 818,
    "▁فارسی": 819,
    "▁بو": 820,
    "▁فرهنگ": 821,
    "▁شان": 822,
    "کار": 823,
    "▁داشتند": 824,
    "▁بحران": 825,
    "۰۰": 826,
    "▁انتقاد": 827,
    "▁توانست": 828,
    "کو": 829,
    "نی": 830,
    "▁محکوم": 831,
    "▁مسئولان": 832,
    "▁معرف": 833,
    "▁باخت": 834,
    "یو": 835,
    "▁پشت": 836,
    "▁چهارم": 837,
    "▁جامعه": 838,
    "▁رقم": 839,
    "▁۱": 840,
    "▁ورود": 841,
    "▁قرن": 842,
    "▁کوچک": 843,
    "▁شدید": 844,
    "▁اسفند": 845,
    "▁چگون": 846,
    "یا": 847,
    "▁ورزشگاه": 848,
    "▁مربی": 849,
    "▁ما": 850,
    "▁بینی": 851,
    "▁یاد": 852,
    "▁مسیر": 853,
    "▁هز": 854,
    "▁فروردین": 855,
    "▁موسس": 856,
    "▁احتمال": 857,
    "▁نبود": 858,
    "▁نفتی": 859,
    "▁خ": 860,
    "▁ارائه": 861,
    "▁آزادی": 862,
    "▁دوشنبه": 863,
    "▁وی": 864,
    "▁اختیار": 865,
    "▁تشکیل": 866,
    "▁بتوان": 867,
    "▁کنترل": 868,
    "▁یو": 869,
    "▁اتفاق": 870,
    "▁مسی": 871,
    "▁ورزشی": 872,
    "▁جنوب": 873,
    "▁تهدید": 874,
    "▁ملل": 875,
    "▁مانده": 876,
    "ویه": 877,
    "▁۱۱": 878,
    "▁خودش": 879,
    "▁رفته": 880,
    "فت": 881,
    "▁سراسر": 882,
    "▁نخواه": 883,
    "▁شدت": 884,
    "ینه": 885,
    "▁شاهد": 886,
    "▁همچن": 887,
    "▁پروژه": 888,
    "▁غنی": 889,
    "▁معاملات": 890,
    "▁تحقیقات": 891,
    "▁آر": 892,
    "▁گذاشته": 893,
    "▁آبان": 894,
    "▁۱۴۰۰": 895,
    "تو": 896,
    "▁دونالد": 897,
    "▁ایتالیا": 898,
    "▁تاریخی": 899,
    "▁مبتلا": 900,
    "▁۱۷": 901,
    "▁فضای": 902,
    "▁گیرد": 903,
    "▁پ": 904,
    "▁شامل": 905,
    "▁محدود": 906,
    "▁مصوب": 907,
    "▁تجاری": 908,
    "▁هنر": 909,
    "▁روزنامه": 910,
    "▁آمد": 911,
    "اک": 912,
    "▁گر": 913,
    "▁درمان": 914,
    "▁داخلی": 915,
    "کل": 916,
    "▁سیاه": 917,
    "▁بازیگر": 918,
    "▁فرهنگی": 919,
    "▁پا": 920,
    "▁ضرب": 921,
    "▁فعال": 922,
    "▁نژاد": 923,
    "▁محیط": 924,
    "▁هنگام": 925,
    "▁من": 926,
    "▁کارگران": 927,
    "۳": 928,
    "▁مشکل": 929,
    "▁تا": 930,
    "▁کنید": 931,
    "▁مشکلات": 932,
    "▁محلی": 933,
    "▁تصوی": 934,
    "▁کلی": 935,
    "▁آسیب": 936,
    "▁شکایت": 937,
    "▁نیروی": 938,
    "▁بالاتر": 939,
    "▁ممنوع": 940,
    "▁طولانی": 941,
    "▁بارسلونا": 942,
    "▁بشک": 943,
    "سازی": 944,
    "ظ": 945,
    "▁متر": 946,
    "▁عامل": 947,
    "▁گفتگو": 948,
    "دا": 949,
    "▁۵۰": 950,
    "▁رنگ": 951,
    "▁فضایی": 952,
    "▁مارادونا": 953,
    "▁دسترس": 954,
    "من": 955,
    "▁جمعیت": 956,
    "▁ناشی": 957,
    "▁سوخت": 958,
    "▁تجرب": 959,
    "یعن": 960,
    "▁پل": 961,
    "▁بودن": 962,
    "▁زد": 963,
    "▁آورد": 964,
    "▁امکان": 965,
    "▁واردات": 966,
    "▁جمعه": 967,
    "▁۲۲": 968,
    "▁مرغ": 969,
    "نو": 970,
    "▁صحبت": 971,
    "▁مع": 972,
    "▁کارگردان": 973,
    "▁درخواست": 974,
    "▁۱۸": 975,
    "▁ابتدای": 976,
    "▁سایر": 977,
    "▁سمت": 978,
    "▁دفاع": 979,
    "▁گون": 980,
    "یست": 981,
    "▁باقی": 982,
    "▁جز": 983,
    "▁خون": 984,
    "▁شما": 985,
    "▁شماری": 986,
    "خت": 987,
    "▁اولیه": 988,
    "▁احتمالا": 989,
    "▁موارد": 990,
    "▁روبرو": 991,
    "▁اعدام": 992,
    "▁علت": 993,
    "▁دادند": 994,
    "▁دل": 995,
    "▁افتاد": 996,
    "▁جوان": 997,
    "▁مرتبط": 998,
    "▁لا": 999,
    "▁ماسک": 1000,
    "▁وین": 1001,
    "▁نظام": 1002,
    "▁هنری": 1003,
    "حفظ": 1004,
    "▁متفاوت": 1005,
    "▁قرمز": 1006,
    "▁لازم": 1007,
    "▁تقریبا": 1008,
    "وا": 1009,
    "▁۱۶": 1010,
    "▁پای": 1011,
    "▁صفر": 1012,
    "▁تاکید": 1013,
    "▁ژان": 1014,
    "▁گذشت": 1015,
    "ژ": 1016,
    "▁امضا": 1017,
    "▁پارسال": 1018,
    "▁سریال": 1019,
    "▁بگیرد": 1020,
    "▁ق": 1021,
    "▁فرد": 1022,
    "▁۶۰": 1023,
    "▁زیست": 1024,
    "▁ولایت": 1025,
    "▁نگهبان": 1026,
    "▁قوانین": 1027,
    "▁قطر": 1028,
    "▁حذف": 1029,
    "▁چهارشنبه": 1030,
    "▁علاو": 1031,
    "کر": 1032,
    "▁یکشنبه": 1033,
    "▁فر": 1034,
    "▁توسعه": 1035,
    "▁ونزوئلا": 1036,
    "▁مشترک": 1037,
    "▁ترتیب": 1038,
    "▁مرز": 1039,
    "▁دلایل": 1040,
    "▁سرعت": 1041,
    "▁قصد": 1042,
    "▁طبق": 1043,
    "براز": 1044,
    "▁مارس": 1045,
    "▁کی": 1046,
    "▁هوا": 1047,
    "▁کنم": 1048,
    "▁رشت": 1049,
    "▁پیشنهاد": 1050,
    "▁کوتاه": 1051,
    "▁احمد": 1052,
    "▁غرب": 1053,
    "▁شهرهای": 1054,
    "▁حل": 1055,
    "▁ماند": 1056,
    "▁سنت": 1057,
    "▁فهرست": 1058,
    "▁خروج": 1059,
    "▁روابط": 1060,
    "▁اقدامات": 1061,
    "دان": 1062,
    "▁مسئول": 1063,
    "ئو": 1064,
    "▁احیا": 1065,
    "▁مواد": 1066,
    "رفع": 1067,
    "▁شهروندان": 1068,
    "▁بندی": 1069,
    "▁کاملا": 1070,
    "▁مل": 1071,
    "▁اخیرا": 1072,
    "▁سقوط": 1073,
    "نس": 1074,
    "▁ترکیب": 1075,
    "کن": 1076,
    "▁شاید": 1077,
    "▁قانونی": 1078,
    "پی": 1079,
    "▁خوانده": 1080,
    "▁مصرف": 1081,
    "▁نتایج": 1082,
    "▁کارخان": 1083,
    "▁تامین": 1084,
    "اخر": 1085,
    "▁۱۴": 1086,
    "▁پرواز": 1087,
    "▁واحد": 1088,
    "▁تی": 1089,
    "جا": 1090,
    "▁پیام": 1091,
    "▁موفق": 1092,
    "▁انفجار": 1093,
    "▁آستان": 1094,
    "▁سیتی": 1095,
    "▁اختلاف": 1096,
    "▁رییس": 1097,
    "▁نسل": 1098,
    "▁فوت": 1099,
    "▁بیرون": 1100,
    "▁برده": 1101,
    "▁۴۰": 1102,
    "کش": 1103,
    "▁نقاشی": 1104,
    "▁شمال": 1105,
    "▁مشهور": 1106,
    "▁کالا": 1107,
    "▁نقطه": 1108,
    "▁چپ": 1109,
    "▁پذیر": 1110,
    "▁حرفه": 1111,
    "▁پایین": 1112,
    "▁کیلومتر": 1113,
    "ایران": 1114,
    "▁شجریان": 1115,
    "▁نظیر": 1116,
    "ي": 1117,
    "▁صادر": 1118,
    "صد": 1119,
    "▁درگیر": 1120,
    "سر": 1121,
    "▁نویسنده": 1122,
    "▁انگیز": 1123,
    "▁پروازهای": 1124,
    "رس": 1125,
    "▁صفح": 1126,
    "▁یورو": 1127,
    "▁عبور": 1128,
    "▁سلامت": 1129,
    "▁میزبان": 1130,
    "▁جشنواره": 1131,
    "▁چلسی": 1132,
    "▁منج": 1133,
    "▁آماده": 1134,
    "▁استرالیا": 1135,
    "▁کن": 1136,
    "▁اندازه": 1137,
    "▁اسکار": 1138,
    "▁طلا": 1139,
    "▁آوریل": 1140,
    "▁جهش": 1141,
    "داد": 1142,
    "است": 1143,
    "▁صدای": 1144,
    "▁سوار": 1145,
    "▁خواند": 1146,
    "▁مالیات": 1147,
    "▁آرژانتین": 1148,
    "▁۲۰۲۱": 1149,
    "▁بخوانید": 1150,
    "▁همیشه": 1151,
    "▁هایش": 1152,
    "سون": 1153,
    "یده": 1154,
    "▁راست": 1155,
    "▁یونایتد": 1156,
    "▁شاخص": 1157,
    "نمایی": 1158,
    "رد": 1159,
    "گرد": 1160,
    "▁افغان": 1161,
    "▁سریع": 1162,
    "▁توصیف": 1163,
    "▁آلود": 1164,
    "▁تاکنون": 1165,
    "▁مجازی": 1166,
    "▁محمود": 1167,
    "▁اطلاع": 1168,
    "▁رفتن": 1169,
    "▁نگران": 1170,
    "▁مردان": 1171,
    "▁مهر": 1172,
    "▁زاده": 1173,
    "▁فرصت": 1174,
    "▁قلب": 1175,
    "▁تجارت": 1176,
    "▁مو": 1177,
    "▁عباس": 1178,
    "▁بزرگترین": 1179,
    "▁گذار": 1180,
    "▁ملت": 1181,
    "▁دکتر": 1182,
    "▁مهد": 1183,
    "▁جمع": 1184,
    "خانه": 1185,
    "▁لای": 1186,
    "▁تابستان": 1187,
    "▁عملیات": 1188,
    "▁پاریس": 1189,
    "جو": 1190,
    "▁مادر": 1191,
    "▁سنگ": 1192,
    "▁نور": 1193,
    "▁بریتانیایی": 1194,
    "اق": 1195,
    "▁سا": 1196,
    "▁معروف": 1197,
    "▁روشن": 1198,
    "رت": 1199,
    "▁کمیت": 1200,
    "▁خصوصی": 1201,
    "▁مد": 1202,
    "▁کنندگان": 1203,
    "▁کشورها": 1204,
    "▁صعود": 1205,
    "▁هواپیمایی": 1206,
    "▁اوپک": 1207,
    "▁هواداران": 1208,
    "▁امید": 1209,
    "▁برسد": 1210,
    "▁نهادهای": 1211,
    "حه": 1212,
    "▁اعتراضات": 1213,
    "▁دومین": 1214,
    "▁روان": 1215,
    "اساس": 1216,
    "▁مذاکر": 1217,
    "▁واقع": 1218,
    "▁۵۰۰": 1219,
    "▁اعمال": 1220,
    "▁علمی": 1221,
    "▁هشت": 1222,
    "▁تاج": 1223,
    "علی": 1224,
    "▁سنگین": 1225,
    "▁نشد": 1226,
    "محمد": 1227,
    "▁نظارت": 1228,
    "▁اضاف": 1229,
    "▁مجدد": 1230,
    "▁سفید": 1231,
    "▁روش": 1232,
    "▁ایمن": 1233,
    "▁رفتار": 1234,
    "▁صدا": 1235,
    "▁بارها": 1236,
    "رز": 1237,
    "▁پژوهش": 1238,
    "▁پور": 1239,
    "▁تهی": 1240,
    "▁رعایت": 1241,
    "▁ندارند": 1242,
    "▁جدول": 1243,
    "▁اتاق": 1244,
    "▁مقایس": 1245,
    "▁آتش": 1246,
    "▁دارایی": 1247,
    "▁مشابه": 1248,
    "▁مک": 1249,
    "▁هرات": 1250,
    "▁گذاشت": 1251,
    "▁حق": 1252,
    "▁سایت": 1253,
    "▁زنده": 1254,
    "▁چیزی": 1255,
    "▁دید": 1256,
    "طور": 1257,
    "▁مناطق": 1258,
    "▁منتقل": 1259,
    "▁حادثه": 1260,
    "▁چاپ": 1261,
    "تن": 1262,
    "زی": 1263,
    "▁بن": 1264,
    "▁خواننده": 1265,
    "▁۹۸": 1266,
    "▁موفقیت": 1267,
    "▁۹۰": 1268,
    "پر": 1269,
    "▁کاخ": 1270,
    "▁رسیدن": 1271,
    "▁سرطان": 1272,
    "▁تاتنهام": 1273,
    "▁بهبود": 1274,
    "▁۲۴": 1275,
    "▁مغز": 1276,
    "▁کدام": 1277,
    "▁بهتر": 1278,
    "الدین": 1279,
    "▁ساز": 1280,
    "▁مانع": 1281,
    "▁توییتر": 1282,
    "▁عمده": 1283,
    "اقل": 1284,
    "هم": 1285,
    "▁مالک": 1286,
    "▁پیشرفت": 1287,
    "▁حوزه": 1288,
    "▁سوریه": 1289,
    "▁عملکرد": 1290,
    "▁رخ": 1291,
    "▁فعالان": 1292,
    "▁توپ": 1293,
    "▁دریا": 1294,
    "ذ": 1295,
    "▁پوست": 1296,
    "وایل": 1297,
    "وت": 1298,
    "▁دوست": 1299,
    "▁ناز": 1300,
    "▁نمو": 1301,
    "▁موجود": 1302,
    "عودی": 1303,
    "▁مجوز": 1304,
    "▁گاه": 1305,
    "▁چیز": 1306,
    "▁بنزین": 1307,
    "▁ریز": 1308,
    "▁بیست": 1309,
    "بود": 1310,
    "▁برداشت": 1311,
    "سل": 1312,
    "▁امیدوار": 1313,
    "▁احمدی": 1314,
    "▁پدر": 1315,
    "▁رکود": 1316,
    "▁مواجه": 1317,
    "▁مستند": 1318,
    "▁اینترنت": 1319,
    "بیشتر": 1320,
    "کنندگان": 1321,
    "ستان": 1322,
    "▁دختر": 1323,
    "▁دهم": 1324,
    "بار": 1325,
    "ممنوعیت": 1326,
    "▁خر": 1327,
    "کی": 1328,
    "▁کشف": 1329,
    "▁گمرک": 1330,
    "▁منچستر": 1331,
    "▁آید": 1332,
    "▁مر": 1333,
    "▁بال": 1334,
    "▁ص": 1335,
    "▁سوئیس": 1336,
    "▁برگشت": 1337,
    "▁بیشتری": 1338,
    "▁سفیر": 1339,
    "▁رابط": 1340,
    "داری": 1341,
    "▁دین": 1342,
    "▁خصوص": 1343,
    "▁پیشتر": 1344,
    "سو": 1345,
    "▁بیکار": 1346,
    "▁ایالت": 1347,
    "▁درست": 1348,
    "▁مکان": 1349,
    "▁رضا": 1350,
    "▁بحث": 1351,
    "▁بحرین": 1352,
    "▁نقدینگی": 1353,
    "▁فساد": 1354,
    "▁تاجیکستان": 1355,
    "▁مادرید": 1356,
    "▁رساند": 1357,
    "۰": 1358,
    "▁تصاویر": 1359,
    "▁موشک": 1360,
    "لان": 1361,
    "▁آل": 1362,
    "▁جنسی": 1363,
    "▁خودروساز": 1364,
    "▁تغییرات": 1365,
    "یین": 1366,
    "▁برخورد": 1367,
    "▁رانند": 1368,
    "▁اقیانوس": 1369,
    "▁خوزستان": 1370,
    "▁دچار": 1371,
    "▁حزب": 1372,
    "▁مج": 1373,
    "▁خاک": 1374,
    "▁مار": 1375,
    "▁دارو": 1376,
    "▁چا": 1377,
    "▁۲۳": 1378,
    "▁ض": 1379,
    "▁۱۰۰": 1380,
    "▁کارگر": 1381,
    "▁پایتخت": 1382,
    "▁شعر": 1383,
    "▁ارتش": 1384,
    "▁فرمانده": 1385,
    "▁مقررات": 1386,
    "▁تجمع": 1387,
    "▁مجله": 1388,
    "▁مرداد": 1389,
    "▁اظهارات": 1390,
    "▁منف": 1391,
    "بین": 1392,
    "▁کا": 1393,
    "▁گردد": 1394,
    "▁پسر": 1395,
    "ازگی": 1396,
    "نیوم": 1397,
    "▁خبرنگار": 1398,
    "▁شرق": 1399,
    "▁گروهی": 1400,
    "▁طبیعی": 1401,
    "▁پوند": 1402,
    "▁۲۸": 1403,
    "▁افتاده": 1404,
    "عده": 1405,
    "▁مه": 1406,
    "▁بستر": 1407,
    "▁خالی": 1408,
    "▁محمو": 1409,
    "▁اورا": 1410,
    "اسی": 1411,
    "▁عق": 1412,
    "▁ار": 1413,
    "▁نقاط": 1414,
    "▁مشغول": 1415,
    "فورد": 1416,
    "اوری": 1417,
    "▁بازارهای": 1418,
    "▁هنرمند": 1419,
    "شب": 1420,
    "تبه": 1421,
    "▁قضایی": 1422,
    "اف": 1423,
    "▁حرف": 1424,
    "وف": 1425,
    "▁اسپانیا": 1426,
    "▁انگلیسی": 1427,
    "▁ارشد": 1428,
    "▁سینمایی": 1429,
    "▁زدن": 1430,
    "فا": 1431,
    "▁پیوست": 1432,
    "▁حریف": 1433,
    "▁عهد": 1434,
    "پا": 1435,
    "▁ابتدا": 1436,
    "▁کنون": 1437,
    "▁کشاورز": 1438,
    "▁مجبور": 1439,
    "▁پاکستان": 1440,
    "▁درواز": 1441,
    "▁فرا": 1442,
    "▁فدرر": 1443,
    "▁بنا": 1444,
    "▁شاه": 1445,
    "▁آوری": 1446,
    "▁فارس": 1447,
    "▁هدایت": 1448,
    "▁قتل": 1449,
    "▁قدیمی": 1450,
    "▁موسو": 1451,
    "▁پرس": 1452,
    "▁سخنران": 1453,
    "بو": 1454,
    "▁روزانه": 1455,
    "▁جراح": 1456,
    "▁موافقت": 1457,
    "زا": 1458,
    "▁سکه": 1459,
    "▁بدهی": 1460,
    "▁جایی": 1461,
    "▁کارشناسان": 1462,
    "▁مثبت": 1463,
    "وان": 1464,
    "ینگ": 1465,
    "▁دوچرخه": 1466,
    "▁زاغری": 1467,
    "▁معتقد": 1468,
    "▁استعفا": 1469,
    "▁-": 1470,
    "▁محصولات": 1471,
    "▁نفتکش": 1472,
    "▁گرم": 1473,
    "▁پنجم": 1474,
    "لیک": 1475,
    "▁تقوی": 1476,
    "▁توضیح": 1477,
    "▁اوت": 1478,
    "▁حسین": 1479,
    "▁سعید": 1480,
    "▁خوش": 1481,
    "▁ظاهر": 1482,
    "▁رئال": 1483,
    "▁تشخیص": 1484,
    "▁وابست": 1485,
    "▁گران": 1486,
    "▁وزن": 1487,
    "▁نشری": 1488,
    "▁نویس": 1489,
    "▁کودک": 1490,
    "▁حب": 1491,
    "▁صحنه": 1492,
    "▁اع": 1493,
    "▁سود": 1494,
    "▁اصلاح": 1495,
    "وال": 1496,
    "▁بنز": 1497,
    "▁۱۳۹۹": 1498,
    "▁مهاجم": 1499,
    "▁برزیل": 1500,
    "▁هوشمند": 1501,
    "▁یابد": 1502,
    "▁عدالت": 1503,
    "▁چک": 1504,
    "▁تز": 1505,
    "▁تخم": 1506,
    "غلب": 1507,
    "▁دفتر": 1508,
    "نین": 1509,
    "▁دانش": 1510,
    "▁آورده": 1511,
    "▁قطعی": 1512,
    "▁وگو": 1513,
    "▁تسل": 1514,
    "▁افزوده": 1515,
    "▁نداشت": 1516,
    "▁زنی": 1517,
    "▁پو": 1518,
    "▁کاری": 1519,
    "▁زود": 1520,
    "▁ظرف": 1521,
    "▁انگلستان": 1522,
    "▁فیفا": 1523,
    "▁دوربین": 1524,
    "▁ساختمان": 1525,
    "تان": 1526,
    "▁مدیریت": 1527,
    "▁فنی": 1528,
    "جی": 1529,
    "▁دبیر": 1530,
    "▁پاسداران": 1531,
    "▁دانند": 1532,
    "▁خورد": 1533,
    "▁۲۱": 1534,
    "▁همسر": 1535,
    "▁چه": 1536,
    "▁ماهه": 1537,
    "▁مستقیم": 1538,
    "▁سرخ": 1539,
    "▁نج": 1540,
    "▁العاده": 1541,
    "▁صبح": 1542,
    "▁پارک": 1543,
    "▁تعهدات": 1544,
    "▁ژاپن": 1545,
    "▁غ": 1546,
    "چند": 1547,
    "▁اجرایی": 1548,
    "خوان": 1549,
    "▁دنیای": 1550,
    "▁دختران": 1551,
    "▁بهار": 1552,
    "▁درآمدها": 1553,
    "▁فوریه": 1554,
    "▁فراهم": 1555,
    "▁جی": 1556,
    "▁بهمن": 1557,
    "یابی": 1558,
    "شنبه": 1559,
    "▁شخصیت": 1560,
    "▁کارهای": 1561,
    "▁رمان": 1562,
    "▁مح": 1563,
    "▁هست": 1564,
    "▁وضع": 1565,
    "▁مدافع": 1566,
    "▁معتبر": 1567,
    "▁استقبال": 1568,
    "▁مدعی": 1569,
    "▁موزه": 1570,
    "▁نهایت": 1571,
    "▁حیات": 1572,
    "▁موقعیت": 1573,
    "▁فوری": 1574,
    "وید": 1575,
    "▁فرار": 1576,
    "▁آموزش": 1577,
    "▁جنگل": 1578,
    "▁غذا": 1579,
    "نز": 1580,
    "اج": 1581,
    "▁مقامات": 1582,
    "نت": 1583,
    "▁ژوئن": 1584,
    "▁شاعر": 1585,
    "▁تماس": 1586,
    "وار": 1587,
    "دود": 1588,
    "▁حمل": 1589,
    "▁۳۰۰": 1590,
    "▁زاد": 1591,
    "▁زندانی": 1592,
    "رون": 1593,
    "▁جدا": 1594,
    "▁واقعی": 1595,
    "▁احساس": 1596,
    "▁میدان": 1597,
    "▁اشتباه": 1598,
    "▁طالبان": 1599,
    "▁متحد": 1600,
    "زن": 1601,
    "▁خانگی": 1602,
    "▁جنجال": 1603,
    "چی": 1604,
    "▁فعلی": 1605,
    "▁شخصی": 1606,
    "▁نیرو": 1607,
    "▁مخالفت": 1608,
    "▁استاد": 1609,
    "▁گرد": 1610,
    "▁امام": 1611,
    "▁مسافران": 1612,
    "کم": 1613,
    "مون": 1614,
    "▁تیر": 1615,
    "▁زا": 1616,
    "هر": 1617,
    "▁وا": 1618,
    "▁اردیبهشت": 1619,
    "▁اینستاگرام": 1620,
    "▁روایت": 1621,
    "▁فایل": 1622,
    "▁کانال": 1623,
    "▁معادل": 1624,
    "▁محمدرضا": 1625,
    "▁چیست": 1626,
    "▁۲۶": 1627,
    "▁ترس": 1628,
    "▁سفارت": 1629,
    "▁کاربران": 1630,
    "▁کشورش": 1631,
    "▁بیت": 1632,
    "اش": 1633,
    "▁خان": 1634,
    "▁قبلا": 1635,
    "▁بیماران": 1636,
    "▁دانشمندان": 1637,
    "▁فرزند": 1638,
    "▁صدر": 1639,
    "وند": 1640,
    "▁مان": 1641,
    "▁حس": 1642,
    "▁عرب": 1643,
    "▁علاق": 1644,
    "▁تحویل": 1645,
    "▁صوتی": 1646,
    "▁رویترز": 1647,
    "▁بایرن": 1648,
    "▁جشن": 1649,
    "▁عجیب": 1650,
    "▁سرشناس": 1651,
    "▁موتور": 1652,
    "▁بیمار": 1653,
    "▁تلفن": 1654,
    "▁گوش": 1655,
    "▁اوج": 1656,
    "▁ترانه": 1657,
    "▁بنابر": 1658,
    "▁سینمای": 1659,
    "▁توصی": 1660,
    "▁واکسین": 1661,
    "▁نشود": 1662,
    "▁اکبر": 1663,
    "▁خرداد": 1664,
    "▁خواهیم": 1665,
    "▁هستیم": 1666,
    "▁قدم": 1667,
    "▁گری": 1668,
    "▁مهار": 1669,
    "خواهان": 1670,
    "اری": 1671,
    "▁پست": 1672,
    "▁خواه": 1673,
    "▁عین": 1674,
    "▁آرام": 1675,
    "قدر": 1676,
    "گری": 1677,
    "▁قسمت": 1678,
    "▁فرانسوی": 1679,
    "▁مدیرعامل": 1680,
    "▁هرچ": 1681,
    "▁مبتلایان": 1682,
    "▁دیوان": 1683,
    "▁اوراق": 1684,
    "ریمه": 1685,
    "▁مجری": 1686,
    "▁خدمات": 1687,
    "▁علیرضا": 1688,
    "▁جر": 1689,
    "▁پاس": 1690,
    "▁بهداشتی": 1691,
    "نقض": 1692,
    "▁شیر": 1693,
    "▁مبلغ": 1694,
    "▁آلبوم": 1695,
    "▁چرخ": 1696,
    "مقام": 1697,
    "▁مجید": 1698,
    "▁سیستان": 1699,
    "▁گیرند": 1700,
    "▁انداخت": 1701,
    "▁امیر": 1702,
    "▁هواپیما": 1703,
    "▁دا": 1704,
    "▁نشر": 1705,
    "وش": 1706,
    "▁نوری": 1707,
    "▁ایم": 1708,
    "▁معامل": 1709,
    "▁گستر": 1710,
    "▁جزئیات": 1711,
    "▁حفاظت": 1712,
    "▁کارکنان": 1713,
    "▁عادی": 1714,
    "▁پالایشگاه": 1715,
    "▁ارسال": 1716,
    "▁خلق": 1717,
    "▁روستا": 1718,
    "▁نداشته": 1719,
    "▁برمی": 1720,
    "▁متوسط": 1721,
    "▁تقاضا": 1722,
    "▁بان": 1723,
    "▁دما": 1724,
    "آن": 1725,
    "▁تورنمنت": 1726,
    "▁رونالدو": 1727,
    "▁اسطوره": 1728,
    "▁فرهاد": 1729,
    "ندگان": 1730,
    "▁نوامبر": 1731,
    "▁سوپر": 1732,
    "▁موقت": 1733,
    "رضا": 1734,
    "قب": 1735,
    "▁صف": 1736,
    "▁دستگیر": 1737,
    "▁ضد": 1738,
    "▁۳۵": 1739,
    "جه": 1740,
    "▁آلمانی": 1741,
    "▁شر": 1742,
    "▁ارزی": 1743,
    "▁لحظ": 1744,
    "▁تخریب": 1745,
    "▁واشنگتن": 1746,
    "▁کنسرت": 1747,
    "▁جوایز": 1748,
    "▁متعل": 1749,
    "▁ضرور": 1750,
    "▁معرض": 1751,
    "▁۲۰۱۷": 1752,
    "▁اخراج": 1753,
    "▁کنونی": 1754,
    "▁خورده": 1755,
    "▁جدیدی": 1756,
    "وب": 1757,
    "▁تحصیل": 1758,
    "▁عصر": 1759,
    "▁قاسم": 1760,
    "▁بنیاد": 1761,
    "▁نگار": 1762,
    "▁اکت": 1763,
    "▁لباس": 1764,
    "▁هاست": 1765,
    "▁مشا": 1766,
    "▁نگه": 1767,
    "شهر": 1768,
    "▁داریم": 1769,
    "▁مسافر": 1770,
    "امبر": 1771,
    "▁۷۰": 1772,
    "▁دریایی": 1773,
    "▁مدیران": 1774,
    "▁خورشیدی": 1775,
    "باز": 1776,
    "▁ایستاد": 1777,
    "▁نتوانست": 1778,
    "▁مسلح": 1779,
    "▁شغل": 1780,
    "▁نحو": 1781,
    "▁امارات": 1782,
    "▁کافی": 1783,
    "▁صرف": 1784,
    "هرگز": 1785,
    "پور": 1786,
    "▁خواب": 1787,
    "▁سوال": 1788,
    "▁رافائل": 1789,
    "دولت": 1790,
    "▁ناظر": 1791,
    "▁غذای": 1792,
    "▁چندان": 1793,
    "▁۸۰": 1794,
    "▁مناسب": 1795,
    "▁سان": 1796,
    "▁ملک": 1797,
    "▁۱۳۹۸": 1798,
    "▁ذهن": 1799,
    "▁تصور": 1800,
    "رکت": 1801,
    "▁محرم": 1802,
    "▁بلوچستان": 1803,
    "▁ایستگاه": 1804,
    "▁سند": 1805,
    "▁آهنگ": 1806,
    "▁حداکثر": 1807,
    "▁دیدن": 1808,
    "▁معمولا": 1809,
    "▁معنای": 1810,
    "خانم": 1811,
    "قیف": 1812,
    "توجه": 1813,
    "ایر": 1814,
    "▁فوتبالیست": 1815,
    "بط": 1816,
    "▁دریای": 1817,
    "▁بند": 1818,
    "▁فردا": 1819,
    "▁سعی": 1820,
    "▁خودروهای": 1821,
    "▁داند": 1822,
    "▁آبی": 1823,
    "▁تومانی": 1824,
    "▁خلی": 1825,
    "▁فضا": 1826,
    "▁مطالع": 1827,
    "▁جیمز": 1828,
    "▁قضائیه": 1829,
    "▁نیویورک": 1830,
    "▁ویمبلدون": 1831,
    "▁دشوار": 1832,
    "▁نوبل": 1833,
    "▁داشتن": 1834,
    "▁بازگش": 1835,
    "▁آذر": 1836,
    "▁شک": 1837,
    "▁گام": 1838,
    "▁برقرار": 1839,
    "▁معترضان": 1840,
    "بند": 1841,
    "▁اوپ": 1842,
    "سازمان": 1843,
    "▁ست": 1844,
    "▁۲۹": 1845,
    "▁توییت": 1846,
    "▁زخمی": 1847,
    "▁خوان": 1848,
    "▁مارک": 1849,
    "▁خیابان": 1850,
    "▁تمرین": 1851,
    "▁قاچاق": 1852,
    "▁ژوئیه": 1853,
    "▁صلح": 1854,
    "▁هموار": 1855,
    "▁ماجرا": 1856,
    "▁حج": 1857,
    "مند": 1858,
    "وزارت": 1859,
    "▁بلا": 1860,
    "▁کالاهای": 1861,
    "▁عبدال": 1862,
    "▁راهی": 1863,
    "▁اندازی": 1864,
    "▁جاد": 1865,
    "▁غربی": 1866,
    "علوم": 1867,
    "▁مرزی": 1868,
    "▁آمازون": 1869,
    "▁حاصل": 1870,
    "▁حاشیه": 1871,
    "▁مونیخ": 1872,
    "▁نادال": 1873,
    "▁عمیق": 1874,
    "▁بهادار": 1875,
    "▁پدید": 1876,
    "▁نگهداری": 1877,
    "▁آزار": 1878,
    "▁پرتاب": 1879,
    "▁۹۹": 1880,
    "▁حسینی": 1881,
    "ازم": 1882,
    "▁انجمن": 1883,
    "فدراسیون": 1884,
    "▁کردم": 1885,
    "▁تقاضای": 1886,
    "▁مخالفان": 1887,
    "▁لیون": 1888,
    "▁شیو": 1889,
    "▁پژوهشگران": 1890,
    "دست": 1891,
    "برای": 1892,
    "▁پرو": 1893,
    "▁خبرنگاران": 1894,
    "▁بل": 1895,
    "▁شهروند": 1896,
    "▁دوستان": 1897,
    "ساز": 1898,
    "▁فرمو": 1899,
    "▁محبوب": 1900,
    "▁جمعی": 1901,
    "▁ابلاغ": 1902,
    "▁تعویق": 1903,
    "▁رقیب": 1904,
    "▁اهمیت": 1905,
    "▁کانادا": 1906,
    "▁وحش": 1907,
    "▁مریخ": 1908,
    "▁تیراندازی": 1909,
    "▁نویسندگان": 1910,
    "▁برآورد": 1911,
    "▁یکدیگر": 1912,
    "▁ادبیات": 1913,
    "تون": 1914,
    "لاک": 1915,
    "قانونی": 1916,
    "نظر": 1917,
    "▁مالکی": 1918,
    "▁آمیز": 1919,
    "▁هواپیمای": 1920,
    "▁گیر": 1921,
    "▁برود": 1922,
    "▁۳۱": 1923,
    "اپی": 1924,
    "ابت": 1925,
    "▁مربیان": 1926,
    "▁محروم": 1927,
    "▁عوامل": 1928,
    "▁متعدد": 1929,
    "▁نوجوان": 1930,
    "▁توقف": 1931,
    "▁حکام": 1932,
    "▁برجسته": 1933,
    "▁گزین": 1934,
    "▁مراجع": 1935,
    "▁صلاحیت": 1936,
    "▁دام": 1937,
    "▁دارای": 1938,
    "خبرگزا": 1939,
    "▁چهل": 1940,
    "هفته": 1941,
    "▁ورزشکاران": 1942,
    "▁داروی": 1943,
    "▁سیما": 1944,
    "▁گرفتند": 1945,
    "▁واقعیت": 1946,
    "نک": 1947,
    "▁جن": 1948,
    "▁سم": 1949,
    "زاده": 1950,
    "▁روزها": 1951,
    "▁پزشک": 1952,
    "▁اختصاص": 1953,
    "▁افتخار": 1954,
    "▁آسمان": 1955,
    "▁سپت": 1956,
    "▁آشنا": 1957,
    "▁ایسنا": 1958,
    "مت": 1959,
    "حسین": 1960,
    "▁سخنان": 1961,
    "▁آور": 1962,
    "▁نزدیکی": 1963,
    "رج": 1964,
    "▁انداز": 1965,
    "▁مور": 1966,
    "وئل": 1967,
    "▁صنایع": 1968,
    "▁مطابق": 1969,
    "▁پروتکل": 1970,
    "▁جذب": 1971,
    "▁سلیمانی": 1972,
    "▁ثابت": 1973,
    "▁هجوم": 1974,
    "▁آنلاین": 1975,
    "▁چالش": 1976,
    "▁سراوان": 1977,
    "▁پن": 1978,
    "▁لس": 1979,
    "▁کلاس": 1980,
    "▁جودو": 1981,
    "▁ساکن": 1982,
    "ابی": 1983,
    "▁ماموران": 1984,
    "▁سهم": 1985,
    "انجام": 1986,
    "شیدا": 1987,
    "جمع": 1988,
    "▁مخالف": 1989,
    "▁اصل": 1990,
    "▁فردی": 1991,
    "▁بازرگانی": 1992,
    "▁جه": 1993,
    "▁خدم": 1994,
    "▁سلطنت": 1995,
    "▁توکیو": 1996,
    "▁خشک": 1997,
    "▁حاکی": 1998,
    "▁عمر": 1999,
    "▁همچو": 2000,
    "▁بوکس": 2001,
    "▁رسما": 2002,
    "▁ریال": 2003,
    "▁دیوار": 2004,
    "▁همتی": 2005,
    "ماه": 2006,
    "اع": 2007,
    "▁درجه": 2008,
    "▁کارمندان": 2009,
    "▁باره": 2010,
    "▁عکاس": 2011,
    "▁مسک": 2012,
    "▁خورشید": 2013,
    "ران": 2014,
    "▁باور": 2015,
    "بل": 2016,
    "▁سای": 2017,
    "▁کت": 2018,
    "اسیون": 2019,
    "▁مسئ": 2020,
    "▁زند": 2021,
    "▁خشونت": 2022,
    "▁قالیباف": 2023,
    "▁بازگرداند": 2024,
    "گون": 2025,
    "▁وکیل": 2026,
    "▁اخبار": 2027,
    "▁دستمزد": 2028,
    "▁تمامی": 2029,
    "▁جایگاه": 2030,
    "ظیم": 2031,
    "▁تاسیسات": 2032,
    "▁روس": 2033,
    "▁راجر": 2034,
    "▁احتمالی": 2035,
    "کننده": 2036,
    "لک": 2037,
    "▁یخ": 2038,
    "▁برادر": 2039,
    "▁کردیم": 2040,
    "▁بندر": 2041,
    "▁هنرمندان": 2042,
    "▁افزود": 2043,
    "گین": 2044,
    "▁مایک": 2045,
    "باید": 2046,
    "دگی": 2047,
    "▁کارشناس": 2048,
    "▁ارقام": 2049,
    "▁اجلاس": 2050,
    "▁فرودگاه": 2051,
    "▁پنجاه": 2052,
    "▁اهل": 2053,
    "▁پلاس": 2054,
    "▁قار": 2055,
    "۵۰": 2056,
    "▁بعدا": 2057,
    "▁دان": 2058,
    "▁مواردی": 2059,
    "▁اسکن": 2060,
    "ورت": 2061,
    "▁گذارد": 2062,
    "▁ارزها": 2063,
    "ساوی": 2064,
    "▁الملل": 2065,
    "▁۳۲": 2066,
    "▁اسب": 2067,
    "سه": 2068,
    "▁عکاسی": 2069,
    "▁بازرس": 2070,
    "▁اسرائیلی": 2071,
    "یکی": 2072,
    "▁گفتند": 2073,
    "▁متن": 2074,
    "▁شهرت": 2075,
    "▁جذاب": 2076,
    "▁طبیعت": 2077,
    "▁یوونتوس": 2078,
    "▁توزیع": 2079,
    "▁لبنان": 2080,
    "▁موثر": 2081,
    "▁سبک": 2082,
    "▁جوکوویچ": 2083,
    "▁ماده": 2084,
    "▁نامداری": 2085,
    "▁نیک": 2086,
    "▁طرفداران": 2087,
    "▁اور": 2088,
    "▁داور": 2089,
    "▁نکرد": 2090,
    "▁قر": 2091,
    "▁نقاش": 2092,
    "▁نادر": 2093,
    "▁زندانیان": 2094,
    "▁میلان": 2095,
    "▁سوز": 2096,
    "▁رادیو": 2097,
    "لف": 2098,
    "▁۴۲": 2099,
    "▁اصفهان": 2100,
    "▁تاخیر": 2101,
    "▁دیجیتال": 2102,
    "▁منتظر": 2103,
    "▁دعوت": 2104,
    "▁صراف": 2105,
    "▁جبران": 2106,
    "فسور": 2107,
    "▁کلوپ": 2108,
    "▁محسو": 2109,
    "▁ضمن": 2110,
    "▁شهریور": 2111,
    "▁رویکرد": 2112,
    "▁تبلیغات": 2113,
    "▁ناسا": 2114,
    "▁جواد": 2115,
    "▁صالح": 2116,
    "▁منتقدان": 2117,
    "▁هو": 2118,
    "داشت": 2119,
    "فق": 2120,
    "▁فرود": 2121,
    "▁ادبی": 2122,
    "اسان": 2123,
    "▁کارها": 2124,
    "▁خاص": 2125,
    "▁آنجلس": 2126,
    "▁تمدید": 2127,
    "▁کاپیتان": 2128,
    "▁اوکراین": 2129,
    "▁متولد": 2130,
    "▁مراکز": 2131,
    "▁اتریش": 2132,
    "▁حراج": 2133,
    "▁تست": 2134,
    "▁گلستان": 2135,
    "▁مشاور": 2136,
    "پیش": 2137,
    "▁گذرد": 2138,
    "▁هل": 2139,
    "▁نهم": 2140,
    "▁اید": 2141,
    "...": 2142,
    "▁عدد": 2143,
    "▁وال": 2144,
    "▁رحمان": 2145,
    "▁رویا": 2146,
    "▁ورزشکار": 2147,
    "نر": 2148,
    "دل": 2149,
    "▁حا": 2150,
    "گیر": 2151,
    "▁مسائل": 2152,
    "▁مشمول": 2153,
    "▁مقصد": 2154,
    "▁سرپرست": 2155,
    "▁مراقب": 2156,
    "▁فرستاده": 2157,
    "▁نرم": 2158,
    "▁اسپ": 2159,
    "▁لوکس": 2160,
    "رنگ": 2161,
    "▁اتفاقات": 2162,
    "▁مجاز": 2163,
    "▁پایه": 2164,
    "▁گردشگری": 2165,
    "▁ثانی": 2166,
    "▁نماد": 2167,
    "▁سد": 2168,
    "▁قوی": 2169,
    "▁اتومبیل": 2170,
    "▁خسارت": 2171,
    "▁۱۳۹۷": 2172,
    "▁فراموش": 2173,
    "▁فیسبوک": 2174,
    "▁فیزیک": 2175,
    "▁هنرپیشه": 2176,
    "▁سرنگون": 2177,
    "▁قبول": 2178,
    "▁جسد": 2179,
    "▁بازدید": 2180,
    "ضاع": 2181,
    "▁واگذار": 2182,
    "▁مرا": 2183,
    "▁مطلب": 2184,
    "▁تش": 2185,
    "▁تخت": 2186,
    "▁جلوی": 2187,
    "▁همسرش": 2188,
    "▁پاک": 2189,
    "▁شرقی": 2190,
    "▁چشمگیر": 2191,
    "▁قول": 2192,
    "▁۱۹۹": 2193,
    "رانی": 2194,
    "▁نوروز": 2195,
    "▁ری": 2196,
    "▁تری": 2197,
    "▁آهن": 2198,
    "▁حذفی": 2199,
    "▁تئاتر": 2200,
    "▁هماهنگ": 2201,
    "▁زمستان": 2202,
    "▁بقیه": 2203,
    "▁پنهان": 2204,
    "▁ناپذیر": 2205,
    "▁تابلو": 2206,
    "▁خیریه": 2207,
    "▁بخت": 2208,
    "▁فرمان": 2209,
    "شویی": 2210,
    "ولی": 2211,
    "حسن": 2212,
    "▁باغ": 2213,
    "۱۹": 2214,
    "▁محققان": 2215,
    "▁سهمی": 2216,
    "▁مش": 2217,
    "▁شاملو": 2218,
    "▁سامانه": 2219,
    "مار": 2220,
    "▁صاحب": 2221,
    "تیم": 2222,
    "▁امر": 2223,
    "ستون": 2224,
    "▁آندر": 2225,
    "▁حامل": 2226,
    "▁شنا": 2227,
    "ولا": 2228,
    "▁اسکاتلند": 2229,
    "▁کالیفرنیا": 2230,
    "▁میراث": 2231,
    "▁تنفس": 2232,
    "▁مشاهد": 2233,
    "▁تحولات": 2234,
    "▁اساسی": 2235,
    "حص": 2236,
    "▁کف": 2237,
    "▁ابر": 2238,
    "▁سپاهان": 2239,
    "▁سل": 2240,
    "▁آگاه": 2241,
    "▁آفریقای": 2242,
    "▁پدرش": 2243,
    "▁فرو": 2244,
    "▁مبن": 2245,
    "خته": 2246,
    "▁درک": 2247,
    "▁شمالی": 2248,
    "گانه": 2249,
    "▁سرای": 2250,
    "یچ": 2251,
    "وثی": 2252,
    "▁۳۳": 2253,
    "▁آرسنال": 2254,
    "▁اطمینان": 2255,
    "▁شاغل": 2256,
    "▁ازدواج": 2257,
    "▁موضع": 2258,
    "▁ساعات": 2259,
    "▁نارنجی": 2260,
    "▁برکنار": 2261,
    "▁تکرار": 2262,
    "▁صدرنشین": 2263,
    "▁چنان": 2264,
    "▁آم": 2265,
    "▁ساحل": 2266,
    "انس": 2267,
    "▁۲۰۱۵": 2268,
    "خراج": 2269,
    "▁منع": 2270,
    "▁عید": 2271,
    "▁کارت": 2272,
    "▁درخشان": 2273,
    "▁جامع": 2274,
    "▁تماشاگران": 2275,
    "ویز": 2276,
    "صاف": 2277,
    "رئیس": 2278,
    "همزمان": 2279,
    "گا": 2280,
    "▁تور": 2281,
    "▁خرد": 2282,
    "▁دامن": 2283,
    "۲۰": 2284,
    "▁شناسی": 2285,
    "▁محافظ": 2286,
    "رسدس": 2287,
    "▁آماد": 2288,
    "▁شبی": 2289,
    "▁نداده": 2290,
    "▁اطراف": 2291,
    "▁ناگهان": 2292,
    "▁نطنز": 2293,
    "▁فعلا": 2294,
    "▁مقدار": 2295,
    "▁بماند": 2296,
    "▁فیوری": 2297,
    "تصاب": 2298,
    "▁مشهد": 2299,
    "▁افزار": 2300,
    "▁کجا": 2301,
    "▁نفس": 2302,
    "▁برخوردار": 2303,
    "▁آباد": 2304,
    "واع": 2305,
    "▁آرایش": 2306,
    "▁پاپ": 2307,
    "ناصر": 2308,
    "▁شبانه": 2309,
    "عهد": 2310,
    "گزارش": 2311,
    "▁باب": 2312,
    "▁گرا": 2313,
    "▁۴۵": 2314,
    "▁ژ": 2315,
    "▁بس": 2316,
    "▁هشتم": 2317,
    "▁رهبری": 2318,
    "▁سوئد": 2319,
    "▁دسامبر": 2320,
    "▁تعلیق": 2321,
    "▁رونق": 2322,
    "▁عمدتا": 2323,
    "▁اسناد": 2324,
    "▁گذراند": 2325,
    "▁قربانیان": 2326,
    "▁مسعود": 2327,
    "▁ذر": 2328,
    "▁الهام": 2329,
    "▁بگیرند": 2330,
    "▁۲۷": 2331,
    "▁توانسته": 2332,
    "▁جواب": 2333,
    "▁هلند": 2334,
    "▁مشتریان": 2335,
    "▁نیازمند": 2336,
    "لور": 2337,
    "▁هفتم": 2338,
    "▁اص": 2339,
    "▁۱۹۸": 2340,
    "خواهی": 2341,
    "▁بچ": 2342,
    "امی": 2343,
    "▁جانب": 2344,
    "▁سخن": 2345,
    "طی": 2346,
    "احض": 2347,
    "▁آفریقا": 2348,
    "▁جوانان": 2349,
    "۴۰۰": 2350,
    "▁اظهار": 2351,
    "▁تب": 2352,
    "▁آکادمی": 2353,
    "▁ژافره": 2354,
    "▁عرص": 2355,
    "▁نداریم": 2356,
    "▁تولد": 2357,
    "▁فروخته": 2358,
    "▁پادتن": 2359,
    "▁فیلیپ": 2360,
    "▁ماموریت": 2361,
    "▁ساده": 2362,
    "یف": 2363,
    "▁کارزار": 2364,
    "▁فولک": 2365,
    "▁سرکوب": 2366,
    "رسان": 2367,
    "غول": 2368,
    "▁قدر": 2369,
    "▁مرور": 2370,
    "شاه": 2371,
    "▁یمن": 2372,
    "▁دادستان": 2373,
    "▁اسم": 2374,
    "▁نشدن": 2375,
    "▁لستر": 2376,
    "▁حملات": 2377,
    "لند": 2378,
    "▁استاندار": 2379,
    "▁ایتالیایی": 2380,
    "▁گرانی": 2381,
    "▁برداری": 2382,
    "▁نیستند": 2383,
    "▁یافتن": 2384,
    "▁برج": 2385,
    "۶۰": 2386,
    "▁بهر": 2387,
    "▁تماشاگر": 2388,
    "▁مدار": 2389,
    "▁خاتمی": 2390,
    "▁محمدی": 2391,
    "پرس": 2392,
    "وع": 2393,
    "▁تاسیس": 2394,
    "▁محصول": 2395,
    "▁اضطرار": 2396,
    "▁تصادف": 2397,
    "▁دستورالعمل": 2398,
    "▁شواهد": 2399,
    "▁اعتبار": 2400,
    "▁پیچیده": 2401,
    "▁ژرمن": 2402,
    "▁اقامت": 2403,
    "▁سلطان": 2404,
    "▁جلب": 2405,
    "▁ترجم": 2406,
    "▁خمینی": 2407,
    "▁هتل": 2408,
    "▁آسان": 2409,
    "▁بازنشستگان": 2410,
    "▁بدهد": 2411,
    "▁اکثر": 2412,
    "▁نسخ": 2413,
    "▁شعب": 2414,
    "▁کلیه": 2415,
    "▁کالاها": 2416,
    "▁هویت": 2417,
    "▁حیوانات": 2418,
    "▁محرومیت": 2419,
    "▁مدرن": 2420,
    "▁خاصی": 2421,
    "▁فراز": 2422,
    "▁مسئولیت": 2423,
    "کته": 2424,
    "▁آمدن": 2425,
    "▁اطلاعی": 2426,
    "▁هوش": 2427,
    "▁کشت": 2428,
    "بنا": 2429,
    "بخش": 2430,
    "▁ویژ": 2431,
    "▁طلب": 2432,
    "▁وق": 2433,
    "▁۳۴": 2434,
    "▁تماشای": 2435,
    "▁انداخته": 2436,
    "سن": 2437,
    "▁نبوده": 2438,
    "▁ذخ": 2439,
    "▁علم": 2440,
    "▁بردن": 2441,
    "▁اعتماد": 2442,
    "▁مصنوعی": 2443,
    "▁هیئت": 2444,
    "▁تعرف": 2445,
    "▁پادشاه": 2446,
    "▁اپرا": 2447,
    "▁ایرنا": 2448,
    "ذیب": 2449,
    "▁گشت": 2450,
    "▁۱۹۶": 2451,
    "▁ریش": 2452,
    "▁پاری": 2453,
    "▁نفوذ": 2454,
    "ورا": 2455,
    "▁شرکتهای": 2456,
    "▁جم": 2457,
    "▁بعدی": 2458,
    "غم": 2459,
    "▁داوطلبان": 2460,
    "▁مادرش": 2461,
    "▁نشین": 2462,
    "اگر": 2463,
    "▁شانس": 2464,
    "گرا": 2465,
    "▁کیم": 2466,
    "▁میانه": 2467,
    "▁سرود": 2468,
    "▁انتخاباتی": 2469,
    "▁تنگ": 2470,
    "▁کور": 2471,
    "▁کام": 2472,
    "▁درمانی": 2473,
    "▁متخصص": 2474,
    "▁قالب": 2475,
    "▁مجسمه": 2476,
    "▁کیفیت": 2477,
    "▁خطرناک": 2478,
    "▁تبعیض": 2479,
    "▁متوالی": 2480,
    "▁راحت": 2481,
    "▁واگن": 2482,
    "▁خفاش": 2483,
    "▁شفاف": 2484,
    "▁خودکشی": 2485,
    "▁پکن": 2486,
    "▁دیر": 2487,
    "▁مدیرکل": 2488,
    "سکی": 2489,
    "▁دانیم": 2490,
    "▁زهرا": 2491,
    "▁مستقل": 2492,
    "▁معلوم": 2493,
    "▁خاطره": 2494,
    "سبب": 2495,
    "▁اسکی": 2496,
    "▁کادر": 2497,
    "▁امیدواری": 2498,
    "▁نامید": 2499,
    "▁مسافرت": 2500,
    "▁لب": 2501,
    "▁حقوقی": 2502,
    "▁انت": 2503,
    "▁دوز": 2504,
    "تمام": 2505,
    "▁کیلومتری": 2506,
    "▁سفرهای": 2507,
    "▁کوه": 2508,
    "شرکت": 2509,
    "▁وایلد": 2510,
    "▁ویدیوی": 2511,
    "روی": 2512,
    "▁۷۵": 2513,
    "▁بازیگران": 2514,
    "احل": 2515,
    "▁حالت": 2516,
    "▁فرم": 2517,
    "▁برگزید": 2518,
    "▁تشویق": 2519,
    "▁مورینیو": 2520,
    "▁کیلوگرم": 2521,
    "▁تجدید": 2522,
    "▁اندونزی": 2523,
    "▁نصب": 2524,
    "▁پرچم": 2525,
    "▁مدرسه": 2526,
    "▁تردید": 2527,
    "▁تردد": 2528,
    "▁مطالب": 2529,
    "▁درحال": 2530,
    "▁فقر": 2531,
    "▁تأ": 2532,
    "▁رمز": 2533,
    "▁سپر": 2534,
    "▁مجازات": 2535,
    "شمار": 2536,
    "باقر": 2537,
    "مپ": 2538,
    "▁نمای": 2539,
    "اجع": 2540,
    "کرد": 2541,
    "▁دهیم": 2542,
    "وقت": 2543,
    "▁ون": 2544,
    "▁مسکو": 2545,
    "سم": 2546,
    "▁گوشت": 2547,
    "▁تف": 2548,
    "حمل": 2549,
    "▁دقیقا": 2550,
    "بانک": 2551,
    "▁کلید": 2552,
    "▁معدن": 2553,
    "▁روب": 2554,
    "▁حو": 2555,
    "▁دیپلما": 2556,
    "▁قطعه": 2557,
    "▁انتظا": 2558,
    "▁نای": 2559,
    "▁قد": 2560,
    "▁ابراهیم": 2561,
    "▁دائم": 2562,
    "▁گرنداسلم": 2563,
    "▁مشاغل": 2564,
    "▁بگذارد": 2565,
    "▁قلع": 2566,
    "▁عشق": 2567,
    "▁نیمکت": 2568,
    "▁گیاه": 2569,
    "▁خلاف": 2570,
    "▁مرجان": 2571,
    "▁اجاره": 2572,
    "▁هاشمی": 2573,
    "گفته": 2574,
    "▁سلول": 2575,
    "▁قطب": 2576,
    "▁مقدمات": 2577,
    "▁عبدالله": 2578,
    "▁ماجرای": 2579,
    "▁مخ": 2580,
    "▁نمایندگی": 2581,
    "▁وام": 2582,
    "▁باستان": 2583,
    "▁آنتونی": 2584,
    "▁شاهین": 2585,
    "▁تپ": 2586,
    "حال": 2587,
    "▁بیان": 2588,
    "▁تل": 2589,
    "▁زنند": 2590,
    "▁باد": 2591,
    "▁عملا": 2592,
    "▁فرزندان": 2593,
    "▁راز": 2594,
    "خو": 2595,
    "دکتر": 2596,
    "بعضی": 2597,
    "قیمت": 2598,
    "بته": 2599,
    "بنابر": 2600,
    "هام": 2601,
    "▁اسک": 2602,
    "▁بابا": 2603,
    "▁پرت": 2604,
    "▁مطل": 2605,
    "خالت": 2606,
    "▁کاس": 2607,
    "مدال": 2608,
    "▁آکسفورد": 2609,
    "▁تجهیزات": 2610,
    "▁اهواز": 2611,
    "▁خطوط": 2612,
    "▁ابزار": 2613,
    "▁گشایش": 2614,
    "▁شعار": 2615,
    "▁شصت": 2616,
    "▁مهندس": 2617,
    "▁شویم": 2618,
    "▁شگفت": 2619,
    "▁فرستاد": 2620,
    "▁وسیع": 2621,
    "▁وانت": 2622,
    "▁نود": 2623,
    "▁ماندن": 2624,
    "▁بهای": 2625,
    "▁افکار": 2626,
    "▁پوشش": 2627,
    "▁محکومیت": 2628,
    "▁پیگیری": 2629,
    "▁ویدیو": 2630,
    "▁روح": 2631,
    "▁طلای": 2632,
    "▁زودتر": 2633,
    "شدید": 2634,
    "قرار": 2635,
    "▁جنسیت": 2636,
    "▁ششم": 2637,
    "▁اندک": 2638,
    "خور": 2639,
    "حدود": 2640,
    "▁انتقادها": 2641,
    "تور": 2642,
    "▁پژوهشگر": 2643,
    "شار": 2644,
    "▁تس": 2645,
    "▁بسکتبال": 2646,
    "▁علائم": 2647,
    "▁چارچوب": 2648,
    "▁گواردیولا": 2649,
    "▁عاشق": 2650,
    "▁منافع": 2651,
    "▁تفاوت": 2652,
    "▁استانبول": 2653,
    "▁جلال": 2654,
    "▁سلاح": 2655,
    "▁گروسی": 2656,
    "▁مسجد": 2657,
    "▁دانشجویان": 2658,
    "▁معاف": 2659,
    "▁پرتغال": 2660,
    "وخیم": 2661,
    "▁بلخ": 2662,
    "▁زاهد": 2663,
    "▁بیستم": 2664,
    "▁یادآور": 2665,
    "▁اسلام": 2666,
    "▁خیر": 2667,
    "▁اتفاقی": 2668,
    "▁درحالی": 2669,
    "▁آزمایشگاه": 2670,
    "▁اسماعیل": 2671,
    "وات": 2672,
    "▁تحول": 2673,
    "▁۱۵۰": 2674,
    "▁معمول": 2675,
    "▁اسپانیایی": 2676,
    "▁اقلیم": 2677,
    "▁برنت": 2678,
    "▁شورو": 2679,
    "▁سنا": 2680,
    "▁سرد": 2681,
    "▁ایفا": 2682,
    "▁طلبان": 2683,
    "▁راک": 2684,
    "اکان": 2685,
    "آمریکا": 2686,
    "▁خودروسازی": 2687,
    "▁جک": 2688,
    "▁کسر": 2689,
    "▁اجباری": 2690,
    "▁برون": 2691,
    "▁نت": 2692,
    "▁بردند": 2693,
    "▁رغ": 2694,
    "▁زیبا": 2695,
    "▁سیل": 2696,
    "اقات": 2697,
    "آزادسازی": 2698,
    "▁غیرمستقیم": 2699,
    "▁لذت": 2700,
    "▁تالاب": 2701,
    "▁بخار": 2702,
    "▁نماز": 2703,
    "▁باشیم": 2704,
    "▁نبرد": 2705,
    "▁دیپلماتیک": 2706,
    "▁سانتی": 2707,
    "یسم": 2708,
    "▁عظیم": 2709,
    "بری": 2710,
    "▁امضای": 2711,
    "سیا": 2712,
    "▁حقیقت": 2713,
    "▁پرد": 2714,
    "▁شهرستان": 2715,
    "▁شهرسازی": 2716,
    "▁شهرداری": 2717,
    "▁نداد": 2718,
    "▁تجا": 2719,
    "▁لن": 2720,
    "▁اینتر": 2721,
    "▁خاتم": 2722,
    "▁صادق": 2723,
    "▁واقعا": 2724,
    "▁داروها": 2725,
    "▁امکانات": 2726,
    "▁نیمی": 2727,
    "▁مناسبت": 2728,
    "▁دهنده": 2729,
    "▁پزشکان": 2730,
    "پل": 2731,
    "▁پیک": 2732,
    "کاری": 2733,
    "▁زدند": 2734,
    "▁پهلوی": 2735,
    "▁ارد": 2736,
    "▁میر": 2737,
    "▁سالن": 2738,
    "▁مالیاتی": 2739,
    "▁گذر": 2740,
    "▁اصلا": 2741,
    "▁گفتگوها": 2742,
    "▁نامش": 2743,
    "▁آواز": 2744,
    "▁سفارش": 2745,
    "▁مشروط": 2746,
    "▁کامپیوتر": 2747,
    "▁بلینکن": 2748,
    "▁عذر": 2749,
    "▁سرنوشت": 2750,
    "▁تبریز": 2751,
    "▁کانون": 2752,
    "▁ناکام": 2753,
    "▁سبز": 2754,
    "▁شتاب": 2755,
    "▁نابودی": 2756,
    "▁نوسان": 2757,
    "▁آدم": 2758,
    "▁اولسان": 2759,
    "▁سازنده": 2760,
    "▁شوک": 2761,
    "▁پاییز": 2762,
    "▁گنج": 2763,
    "▁نفع": 2764,
    "▁عمق": 2765,
    "▁ردیف": 2766,
    "▁اختلال": 2767,
    "▁منظور": 2768,
    "▁کریست": 2769,
    "سخ": 2770,
    "▁تایسون": 2771,
    "▁اسدی": 2772,
    "▁حلق": 2773,
    "▁جدایی": 2774,
    "▁کال": 2775,
    "▁تماشا": 2776,
    "پای": 2777,
    "▁قضاییه": 2778,
    "▁کیو": 2779,
    "نیا": 2780,
    "قابل": 2781,
    "رود": 2782,
    "▁نیا": 2783,
    "▁نی": 2784,
    "آزمایی": 2785,
    "افت": 2786,
    "▁۳۹": 2787,
    "امروز": 2788,
    "▁ناب": 2789,
    "▁درخش": 2790,
    "▁معن": 2791,
    "▁۷۰۰": 2792,
    "▁موافق": 2793,
    "▁خال": 2794,
    "▁۶۰۰": 2795,
    "▁موقع": 2796,
    "▁رویدادها": 2797,
    "▁آذربایجان": 2798,
    "▁الحاق": 2799,
    "▁بلژیک": 2800,
    "▁تسلیحات": 2801,
    "▁ثبات": 2802,
    "▁نباشد": 2803,
    "▁کاوشگر": 2804,
    "▁کلمبیا": 2805,
    "▁لحا": 2806,
    "▁علنی": 2807,
    "▁مثال": 2808,
    "▁مخاطبان": 2809,
    "▁آشکار": 2810,
    "▁پانزده": 2811,
    "▁جانشین": 2812,
    "▁هیجان": 2813,
    "التی": 2814,
    "▁جسم": 2815,
    "نوش": 2816,
    "▁مدنی": 2817,
    "▁مست": 2818,
    "پرداز": 2819,
    "▁۴۴": 2820,
    "▁۴۸": 2821,
    "▁فروشگاه": 2822,
    "▁ارا": 2823,
    "▁سوالات": 2824,
    "پرو": 2825,
    "▁رهبران": 2826,
    "▁دفاعی": 2827,
    "خالص": 2828,
    "▁بودیم": 2829,
    "▁نامزدهای": 2830,
    "▁خلو": 2831,
    "خواست": 2832,
    "شته": 2833,
    "مجموع": 2834,
    "▁نان": 2835,
    "▁مند": 2836,
    "▁عفو": 2837,
    "▁ناصر": 2838,
    "راب": 2839,
    "▁مقال": 2840,
    "گران": 2841,
    "جان": 2842,
    "▁سیار": 2843,
    "لر": 2844,
    "▁تحلیل": 2845,
    "▁۶۵": 2846,
    "▁مطمئن": 2847,
    "▁عبارت": 2848,
    "▁جاسوس": 2849,
    "▁سقف": 2850,
    "▁همکاران": 2851,
    "▁پیامدهای": 2852,
    "▁قلم": 2853,
    "▁پرورش": 2854,
    "▁بامیان": 2855,
    "▁اماکن": 2856,
    "▁اورتون": 2857,
    "▁فراوان": 2858,
    "▁تائ": 2859,
    "▁سپرده": 2860,
    "افسانه": 2861,
    "یشه": 2862,
    "▁بنیان": 2863,
    "▁جورج": 2864,
    "▁شمس": 2865,
    "▁امشب": 2866,
    "▁بزند": 2867,
    "▁شرط": 2868,
    "▁نمایشگر": 2869,
    "▁اپل": 2870,
    "گل": 2871,
    "▁خاوران": 2872,
    "▁فرماندار": 2873,
    "▁اد": 2874,
    "▁ماهوار": 2875,
    "رگن": 2876,
    "▁مذهبی": 2877,
    "رخ": 2878,
    "رق": 2879,
    "▁زانو": 2880,
    "▁آسیای": 2881,
    "▁۳۸": 2882,
    "یحی": 2883,
    "ماهی": 2884,
    "▁نرسیده": 2885,
    "وریس": 2886,
    "عداد": 2887,
    "▁گمان": 2888,
    "▁ببر": 2889,
    "فاصله": 2890,
    "پار": 2891,
    "▁تبلیغ": 2892,
    "▁محاسب": 2893,
    "▁کارمند": 2894,
    "▁فرش": 2895,
    "أ": 2896,
    "داران": 2897,
    "▁استراماچونی": 2898,
    "▁جایگزین": 2899,
    "▁جستجو": 2900,
    "▁فایزر": 2901,
    "▁حافظ": 2902,
    "▁حکایت": 2903,
    "▁رضوی": 2904,
    "▁همیشگی": 2905,
    "▁افتتاح": 2906,
    "▁تکمیل": 2907,
    "▁ماراتن": 2908,
    "▁قادر": 2909,
    "▁درون": 2910,
    "▁فتح": 2911,
    "▁فضانورد": 2912,
    "▁عزیزی": 2913,
    "▁کریستیان": 2914,
    "▁قض": 2915,
    "▁تبع": 2916,
    "▁۹۷": 2917,
    "▁گلزن": 2918,
    "▁بلیت": 2919,
    "▁۲۰۱۱": 2920,
    "▁پان": 2921,
    "▁نمایشگاه": 2922,
    "▁۰": 2923,
    "▁ویران": 2924,
    "▁ذو": 2925,
    "▁خطاب": 2926,
    "▁رها": 2927,
    "▁ملایی": 2928,
    "▁برند": 2929,
    "▁اردو": 2930,
    "▁پوشید": 2931,
    "▁محافظت": 2932,
    "▁آنک": 2933,
    "▁کشم": 2934,
    "▁طیف": 2935,
    "▁قیمتها": 2936,
    "▁خواهم": 2937,
    "هزار": 2938,
    "لوله": 2939,
    "جد": 2940,
    "▁اتهامات": 2941,
    "▁بازرسان": 2942,
    "▁تعطیلات": 2943,
    "▁نوروزی": 2944,
    "▁جزیر": 2945,
    "▁تج": 2946,
    "▁تقس": 2947,
    "سعید": 2948,
    "وزیر": 2949,
    "ين": 2950,
    "▁آگ": 2951,
    "▁نخ": 2952,
    "رویی": 2953,
    "یره": 2954,
    "▁باند": 2955,
    "▁زیرا": 2956,
    "▁دانشمند": 2957,
    "▁نژادپرست": 2958,
    "▁عام": 2959,
    "▁غافلگیر": 2960,
    "▁تراکتور": 2961,
    "▁حوادث": 2962,
    "▁ناراحت": 2963,
    "▁هالیوود": 2964,
    "▁هیوندای": 2965,
    "▁پارلمان": 2966,
    "▁فرآیند": 2967,
    "▁سانسور": 2968,
    "▁جنبش": 2969,
    "▁بیاید": 2970,
    "▁خشم": 2971,
    "▁مخصوص": 2972,
    "▁سایپا": 2973,
    "▁بهشت": 2974,
    "▁قدرتمند": 2975,
    "▁تدریج": 2976,
    "▁خطیب": 2977,
    "▁رانندگان": 2978,
    "▁شناور": 2979,
    "▁۹۶": 2980,
    "▁افکن": 2981,
    "▁ویل": 2982,
    "▁کلاسیک": 2983,
    "▁تاجیک": 2984,
    "▁ریخت": 2985,
    "▁عادت": 2986,
    "▁سیام": 2987,
    "▁احت": 2988,
    "نیم": 2989,
    "نوبت": 2990,
    "شورای": 2991,
    "▁غلام": 2992,
    "گذاری": 2993,
    "▁دسته": 2994,
    "ارد": 2995,
    "▁۱۳۵": 2996,
    "▁رسیدند": 2997,
    "نام": 2998,
    "▁کمال": 2999,
    "▁ادعا": 3000,
    "▁خریدار": 3001,
    "▁مسال": 3002,
    "▁تبار": 3003,
    "عبدال": 3004,
    "پنج": 3005,
    "▁گوشی": 3006,
    "▁فان": 3007,
    "اپ": 3008,
    "▁افشار": 3009,
    "ناز": 3010,
    "▁بدتر": 3011,
    "▁تعل": 3012,
    "▁نظریه": 3013,
    "۲۵": 3014,
    "▁ژاپنی": 3015,
    "۱۴": 3016,
    "وپ": 3017,
    "نج": 3018,
    "▁عروس": 3019,
    "▁وار": 3020,
    "تکلیف": 3021,
    "بیل": 3022,
    "امت": 3023,
    "▁خاورمیانه": 3024,
    "▁معاصر": 3025,
    "▁هافبک": 3026,
    "▁آفتاب": 3027,
    "▁تمایل": 3028,
    "▁اعزام": 3029,
    "▁برانگیز": 3030,
    "▁قایق": 3031,
    "▁عاص": 3032,
    "▁راموس": 3033,
    "▁انگار": 3034,
    "▁فریاد": 3035,
    "▁وسط": 3036,
    "▁یونان": 3037,
    "▁ابتلای": 3038,
    "▁گورستان": 3039,
    "▁فلز": 3040,
    "▁بدهند": 3041,
    "▁حیدر": 3042,
    "▁یوفا": 3043,
    "▁ژنتیکی": 3044,
    "▁ویلیامز": 3045,
    "▁عراقچی": 3046,
    "▁دایک": 3047,
    "▁طبری": 3048,
    "▁مزار": 3049,
    "▁عطر": 3050,
    "▁بطور": 3051,
    "▁دیگو": 3052,
    "▁کش": 3053,
    "▁یازده": 3054,
    "▁راند": 3055,
    "▁خار": 3056,
    "▁منصور": 3057,
    "▁لیس": 3058,
    "▁شیرین": 3059,
    "▁امان": 3060,
    "آی": 3061,
    "▁خاطرات": 3062,
    "▁شخص": 3063,
    "فن": 3064,
    "▁والی": 3065,
    "رسمی": 3066,
    "لین": 3067,
    "گن": 3068,
    "▁رحم": 3069,
    "قرض": 3070,
    "وکی": 3071,
    "▁افشا": 3072,
    "نم": 3073,
    "▁راستا": 3074,
    "▁اقدامی": 3075,
    "غان": 3076,
    "▁بهایی": 3077,
    "▁آمارها": 3078,
    "▁شایع": 3079,
    "▁ایست": 3080,
    "طئ": 3081,
    "▁اصطلاح": 3082,
    "▁عوارض": 3083,
    "▁ویلموتس": 3084,
    "▁قاجار": 3085,
    "▁ریاض": 3086,
    "▁طوفان": 3087,
    "▁تعریف": 3088,
    "▁شنیده": 3089,
    "▁احترام": 3090,
    "▁دوازده": 3091,
    "▁اقلام": 3092,
    "▁اولویت": 3093,
    "▁کانری": 3094,
    "▁منچسترسیتی": 3095,
    "▁برانکو": 3096,
    "مال": 3097,
    "▁کنفرانس": 3098,
    "▁یادداشت": 3099,
    "▁خوک": 3100,
    "▁افسر": 3101,
    "بورن": 3102,
    "▁معارف": 3103,
    "▁حامی": 3104,
    "▁پیوند": 3105,
    "▁فراتر": 3106,
    "▁۴۳": 3107,
    "▁لمس": 3108,
    "▁مغ": 3109,
    "▁عادل": 3110,
    "▁اذ": 3111,
    "▁محمدجواد": 3112,
    "▁درد": 3113,
    "▁خوردن": 3114,
    "▁نداشتند": 3115,
    "▁دف": 3116,
    "▁تاب": 3117,
    "▁بدر": 3118,
    "▁هستم": 3119,
    "▁خودم": 3120,
    "▁اح": 3121,
    "▁مسئولین": 3122,
    "▁ارزان": 3123,
    "بست": 3124,
    "▁۵۵": 3125,
    "گروه": 3126,
    "▁شور": 3127,
    "پذیر": 3128,
    "▁۳۷": 3129,
    "▁مون": 3130,
    "مدیر": 3131,
    "۳۰": 3132,
    "▁آموزشی": 3133,
    "▁کوب": 3134,
    "▁گروگان": 3135,
    "▁ویدئو": 3136,
    "سیم": 3137,
    "▁دراز": 3138,
    "▁شاخ": 3139,
    "▁الکترونیک": 3140,
    "▁دبلیو": 3141,
    "▁لوئی": 3142,
    "▁گوناگون": 3143,
    "▁برخلاف": 3144,
    "▁پلاستیک": 3145,
    "▁غزنی": 3146,
    "▁فرونشست": 3147,
    "▁باشید": 3148,
    "▁قبا": 3149,
    "▁تاریک": 3150,
    "▁تعهد": 3151,
    "ادورو": 3152,
    "▁شهید": 3153,
    "▁حساس": 3154,
    "▁داری": 3155,
    "▁سلمان": 3156,
    "▁ارشاد": 3157,
    "نادیده": 3158,
    "▁کریمی": 3159,
    "باران": 3160,
    "▁هشتاد": 3161,
    "▁متاسف": 3162,
    "▁عروسک": 3163,
    "▁قم": 3164,
    "▁۹۵": 3165,
    "هکرها": 3166,
    "برگ": 3167,
    "▁امن": 3168,
    "▁مدارس": 3169,
    "▁مهاجرت": 3170,
    "▁مدارک": 3171,
    "▁برقی": 3172,
    "▁آتی": 3173,
    "▁قله": 3174,
    "▁کشد": 3175,
    "▁شکاف": 3176,
    "تقابل": 3177,
    "فرانس": 3178,
    "اول": 3179,
    "▁فلیک": 3180,
    "▁منار": 3181,
    "▁بیمه": 3182,
    "لیگ": 3183,
    "▁منته": 3184,
    "ریک": 3185,
    "▁شوم": 3186,
    "▁متشک": 3187,
    "▁شکار": 3188,
    "▁هنگ": 3189,
    "▁خدا": 3190,
    "▁آرامش": 3191,
    "▁مول": 3192,
    "▁رحمانی": 3193,
    "▁استعداد": 3194,
    "▁پیشگیری": 3195,
    "▁تق": 3196,
    "لاق": 3197,
    "▁اهدا": 3198,
    "▁هنرها": 3199,
    "▁۴۹": 3200,
    "▁کنگ": 3201,
    "▁قوا": 3202,
    "فرین": 3203,
    "ویچ": 3204,
    "▁مشتری": 3205,
    "▁آیند": 3206,
    "▁وست": 3207,
    "فاش": 3208,
    "اوش": 3209,
    "▁رفتند": 3210,
    "▁پارسی": 3211,
    "▁گذاشتن": 3212,
    "▁آنفلوآنزا": 3213,
    "▁برگزیت": 3214,
    "▁تگزاس": 3215,
    "▁خداحافظ": 3216,
    "▁زلزله": 3217,
    "▁سامسونگ": 3218,
    "▁قاضی": 3219,
    "▁مازندران": 3220,
    "▁موبایل": 3221,
    "▁پتروش": 3222,
    "▁بغداد": 3223,
    "▁تظاهرات": 3224,
    "▁وسایل": 3225,
    "▁کنسول": 3226,
    "▁روغن": 3227,
    "▁دروغ": 3228,
    "▁ضرر": 3229,
    "▁منشا": 3230,
    "▁عالم": 3231,
    "▁مستمر": 3232,
    "▁سرگرم": 3233,
    "▁سرقت": 3234,
    "▁اظهارنظر": 3235,
    "▁خوشحال": 3236,
    "▁پرفروش": 3237,
    "▁مکرون": 3238,
    "▁داغ": 3239,
    "▁۲۰۱۰": 3240,
    "▁انبار": 3241,
    "▁تاثیرگذار": 3242,
    "▁شیراز": 3243,
    "▁جانسون": 3244,
    "▁نیوک": 3245,
    "▁خوانندگ": 3246,
    "▁ویدئویی": 3247,
    "▁هفتاد": 3248,
    "▁زیبایی": 3249,
    "▁تاپ": 3250,
    "رالله": 3251,
    "▁قص": 3252,
    "▁مال": 3253,
    "▁طلایی": 3254,
    "▁بودم": 3255,
    "▁گیل": 3256,
    "▁گور": 3257,
    "▁حمید": 3258,
    "▁قدس": 3259,
    "▁ضعیف": 3260,
    "▁نگرفته": 3261,
    "▁ژن": 3262,
    "۹۴": 3263,
    "۶۱": 3264,
    "▁محدودیتهای": 3265,
    "▁امین": 3266,
    "بویایی": 3267,
    "▁درهای": 3268,
    "▁عط": 3269,
    "▁خواندن": 3270,
    "برخ": 3271,
    "افغانستان": 3272,
    "پیشتر": 3273,
    "خره": 3274,
    "نزا": 3275,
    "خواه": 3276,
    "▁رم": 3277,
    "اولین": 3278,
    "ژه": 3279,
    "▁محقق": 3280,
    "▁گزارشگر": 3281,
    "▁پروان": 3282,
    "میم": 3283,
    "شده": 3284,
    "▁فیل": 3285,
    "▁ازبکستان": 3286,
    "▁تخصص": 3287,
    "▁دادگستری": 3288,
    "▁رستوران": 3289,
    "▁شمخانی": 3290,
    "▁مقاومت": 3291,
    "▁ناآرام": 3292,
    "▁ببینید": 3293,
    "▁وبسایت": 3294,
    "▁زوج": 3295,
    "▁فرگوسن": 3296,
    "▁توماس": 3297,
    "▁پذیرفته": 3298,
    "▁موانع": 3299,
    "▁اشرف": 3300,
    "▁قاطع": 3301,
    "▁شکنجه": 3302,
    "▁اسلم": 3303,
    "▁عفونت": 3304,
    "▁بخصوص": 3305,
    "▁دانشجو": 3306,
    "▁مطبوعات": 3307,
    "▁صمت": 3308,
    "▁سرزمین": 3309,
    "▁قربان": 3310,
    "▁زرد": 3311,
    "▁کمرنگ": 3312,
    "▁۱۹۷": 3313,
    "تغال": 3314,
    "▁خیابانی": 3315,
    "وطن": 3316,
    "راحل": 3317,
    "▁غار": 3318,
    "▁مساوی": 3319,
    "▁بزو": 3320,
    "▁فرید": 3321,
    "▁حضورش": 3322,
    "▁کرمان": 3323,
    "▁صرفا": 3324,
    "▁ظاهرا": 3325,
    "▁شاد": 3326,
    "▁خل": 3327,
    "▁اختلافات": 3328,
    "▁شهرها": 3329,
    "▁پرسید": 3330,
    "▁وظ": 3331,
    "بهار": 3332,
    "▁استخوان": 3333,
    "▁ساختار": 3334,
    "▁اوست": 3335,
    "▁گرند": 3336,
    "▁یاری": 3337,
    "▁اشک": 3338,
    "▁پوش": 3339,
    "▁جلسات": 3340,
    "▁برایش": 3341,
    "▁جرم": 3342,
    "▁عزاداری": 3343,
    "▁ادعای": 3344,
    "▁ناو": 3345,
    "▁پیوستن": 3346,
    "۳۱": 3347,
    "افزایش": 3348,
    "بسیاری": 3349,
    "آباد": 3350,
    "پلیس": 3351,
    "دور": 3352,
    "▁۶۷": 3353,
    "▁بهتری": 3354,
    "▁دم": 3355,
    "▁۷۳": 3356,
    "▁نقد": 3357,
    "▁مغزی": 3358,
    "▁منتقد": 3359,
    "▁آرا": 3360,
    "▁سرباز": 3361,
    "کاب": 3362,
    "هالی": 3363,
    "▁طوری": 3364,
    "▁حیوان": 3365,
    "گذار": 3366,
    "▁باردار": 3367,
    "▁یور": 3368,
    "▁کشی": 3369,
    "▁تلف": 3370,
    "▁دقایق": 3371,
    "▁مأمور": 3372,
    "▁مخابرات": 3373,
    "▁نیوزیلند": 3374,
    "▁پروتئین": 3375,
    "▁نکنید": 3376,
    "▁برگرداند": 3377,
    "▁خلاص": 3378,
    "▁معیشت": 3379,
    "▁ترجیح": 3380,
    "▁خوراک": 3381,
    "▁خادم": 3382,
    "▁منحصر": 3383,
    "▁ایرلند": 3384,
    "▁بعید": 3385,
    "▁برساند": 3386,
    "▁مترجم": 3387,
    "▁روزگار": 3388,
    "خیص": 3389,
    "▁نشت": 3390,
    "▁کنگره": 3391,
    "▁ولز": 3392,
    "ویکتور": 3393,
    "▁رقص": 3394,
    "▁متناسب": 3395,
    "▁نقص": 3396,
    "▁اهداف": 3397,
    "▁طنز": 3398,
    "▁ریه": 3399,
    "▁کیلو": 3400,
    "▁پناهجوی": 3401,
    "▁بهرام": 3402,
    "▁پپ": 3403,
    "▁زیان": 3404,
    "▁اضطراب": 3405,
    "▁گردشگران": 3406,
    "زار": 3407,
    "▁محسن": 3408,
    "چین": 3409,
    "▁دونده": 3410,
    "▁رویداد": 3411,
    "▁نزد": 3412,
    "هنورد": 3413,
    "▁پیمان": 3414,
    "▁راس": 3415,
    "▁صند": 3416,
    "▁ایرانیان": 3417,
    "▁دانم": 3418,
    "▁برندگان": 3419,
    "▁اصول": 3420,
    "▁تحلیلگر": 3421,
    "▁مقا": 3422,
    "▁میلیاردها": 3423,
    "▁قدمت": 3424,
    "▁خند": 3425,
    "راضی": 3426,
    "▁اهدای": 3427,
    "▁جیب": 3428,
    "▁انتقالات": 3429,
    "▁شار": 3430,
    "▁مرس": 3431,
    "▁موضوعات": 3432,
    "▁موش": 3433,
    "▁کاربر": 3434,
    "▁۱۳۷": 3435,
    "ناد": 3436,
    "آمیز": 3437,
    "سخنگوی": 3438,
    "استفاده": 3439,
    "یفه": 3440,
    "▁صادقی": 3441,
    "▁کرام": 3442,
    "▁فیلمساز": 3443,
    "۲۰۱۲": 3444,
    "▁سرو": 3445,
    "▁پناه": 3446,
    "▁پوری": 3447,
    "کینگ": 3448,
    "▁مخفی": 3449,
    "▁زک": 3450,
    "▁انقراض": 3451,
    "▁بنگلادش": 3452,
    "▁تحرک": 3453,
    "▁غربالگری": 3454,
    "▁نتانیاهو": 3455,
    "▁ولسوال": 3456,
    "▁علامت": 3457,
    "▁لبخند": 3458,
    "▁مرخص": 3459,
    "▁همسایه": 3460,
    "▁فولاد": 3461,
    "▁عرف": 3462,
    "▁معلول": 3463,
    "▁دقت": 3464,
    "التهاب": 3465,
    "▁ابهام": 3466,
    "▁منچستریونایتد": 3467,
    "▁فردوسی": 3468,
    "▁نوزاد": 3469,
    "▁بنیانگذار": 3470,
    "▁سناتور": 3471,
    "▁نکند": 3472,
    "▁راهبرد": 3473,
    "▁یمانی": 3474,
    "نشین": 3475,
    "▁تلخ": 3476,
    "▁صادرکنندگان": 3477,
    "▁خالق": 3478,
    "▁آهنگساز": 3479,
    "▁ربط": 3480,
    "▁جنبه": 3481,
    "▁ذخا": 3482,
    "▁ناجی": 3483,
    "▁صلاح": 3484,
    "▁کیا": 3485,
    "▁شریک": 3486,
    "▁مگا": 3487,
    "▁محور": 3488,
    "▁برلین": 3489,
    "▁لحظات": 3490,
    "▁سینماها": 3491,
    "اسل": 3492,
    "▁ران": 3493,
    "▁۷۷": 3494,
    "▁نوید": 3495,
    "▁گردن": 3496,
    "مهدی": 3497,
    "▁نقدی": 3498,
    "▁نب": 3499,
    "▁آوردند": 3500,
    "اشا": 3501,
    "▁دانستند": 3502,
    "▁شاهزاد": 3503,
    "▁بروند": 3504,
    "آوری": 3505,
    "ناوند": 3506,
    "▁گمانه": 3507,
    "▁بم": 3508,
    "دوین": 3509,
    "▁رز": 3510,
    "واد": 3511,
    "ضعیف": 3512,
    "بزرگ": 3513,
    "▁پاد": 3514,
    "ناف": 3515,
    "▁اخ": 3516,
    "▁معمولی": 3517,
    "▁اقلیمی": 3518,
    "▁تخلف": 3519,
    "▁جف": 3520,
    "▁ارتفاع": 3521,
    "▁دموکرات": 3522,
    "▁شطرنج": 3523,
    "▁پرافتخار": 3524,
    "▁برانگیخت": 3525,
    "▁محتوای": 3526,
    "▁اخطار": 3527,
    "فیلد": 3528,
    "▁کودتا": 3529,
    "▁تایلند": 3530,
    "▁لیدز": 3531,
    "▁کهکشان": 3532,
    "▁سئوال": 3533,
    "▁فدرال": 3534,
    "▁کامیون": 3535,
    "▁استثنا": 3536,
    "▁دادسرا": 3537,
    "▁ثامن": 3538,
    "▁کربن": 3539,
    "▁منوچ": 3540,
    "▁پوشاند": 3541,
    "عوض": 3542,
    "روج": 3543,
    "▁مصدومیت": 3544,
    "نصر": 3545,
    "▁جهاد": 3546,
    "▁خاموش": 3547,
    "▁اگر": 3548,
    "عظم": 3549,
    "بانی": 3550,
    "شیر": 3551,
    "▁بشار": 3552,
    "▁نادرست": 3553,
    "▁مبادلات": 3554,
    "▁آنقدر": 3555,
    "پک": 3556,
    "▁ببرد": 3557,
    "▁نجف": 3558,
    "▁عموم": 3559,
    "▁ترسیم": 3560,
    "▁مطالعات": 3561,
    "اسکو": 3562,
    "واک": 3563,
    "▁گرگ": 3564,
    "▁مهمان": 3565,
    "▁موجودات": 3566,
    "بالغ": 3567,
    "▁مبادل": 3568,
    "▁نکردن": 3569,
    "▁پیر": 3570,
    "اقد": 3571,
    "▁خودران": 3572,
    "لیون": 3573,
    "▁پال": 3574,
    "▁مری": 3575,
    "▁۵۶": 3576,
    "▁سران": 3577,
    "▁پستان": 3578,
    "▁گریز": 3579,
    "▁خبرهای": 3580,
    "پول": 3581,
    "▁۲۵۰": 3582,
    "زده": 3583,
    "▁کهن": 3584,
    "▁کاست": 3585,
    "▁وسی": 3586,
    "عباس": 3587,
    "احمد": 3588,
    "طبق": 3589,
    "▁جولی": 3590,
    "▁داوطلب": 3591,
    "▁اما": 3592,
    "▁معترض": 3593,
    "▁دهان": 3594,
    "▁تاک": 3595,
    "▁روسا": 3596,
    "▁لق": 3597,
    "زانه": 3598,
    "▁حاکم": 3599,
    "▁تدابیر": 3600,
    "▁محاکمه": 3601,
    "▁پارالمپیک": 3602,
    "▁کانسپت": 3603,
    "▁نساجی": 3604,
    "▁آشوری": 3605,
    "▁والیبال": 3606,
    "▁کاظم": 3607,
    "▁تروریستی": 3608,
    "▁اکسیژن": 3609,
    "▁فقیر": 3610,
    "▁سراغ": 3611,
    "▁انبوه": 3612,
    "▁بوندس": 3613,
    "▁مقیم": 3614,
    "▁کریکت": 3615,
    "▁آموزان": 3616,
    "▁بدانیم": 3617,
    "▁دانمارک": 3618,
    "▁پیاده": 3619,
    "▁واژه": 3620,
    "▁جالب": 3621,
    "▁لرز": 3622,
    "▁اموا": 3623,
    "▁الزام": 3624,
    "▁سهامداران": 3625,
    "▁استخر": 3626,
    "▁جمال": 3627,
    "▁موکو": 3628,
    "▁چراغ": 3629,
    "▁ثروتمند": 3630,
    "▁رصد": 3631,
    "▁صبر": 3632,
    "▁تسلیت": 3633,
    "۹۳": 3634,
    "▁دستیابی": 3635,
    "جونز": 3636,
    "▁۷۲": 3637,
    "▁پراکند": 3638,
    "▁فراگیر": 3639,
    "▁جدال": 3640,
    "▁مرزهای": 3641,
    "▁بستن": 3642,
    "تلاف": 3643,
    "▁جین": 3644,
    "▁سین": 3645,
    "▁وقفه": 3646,
    "یرت": 3647,
    "▁نرسید": 3648,
    "▁پرسش": 3649,
    "▁آزمایی": 3650,
    "▁اکس": 3651,
    "▁۵۷": 3652,
    "خواهید": 3653,
    "▁ریو": 3654,
    "▁کاسته": 3655,
    "▁جعل": 3656,
    "▁گم": 3657,
    "گذشت": 3658,
    "▁ترور": 3659,
    "▁ویلا": 3660,
    "لیورپول": 3661,
    "استقلال": 3662,
    "خارجه": 3663,
    "کدام": 3664,
    "بعد": 3665,
    "▁دارم": 3666,
    "▁غر": 3667,
    "▁نیافت": 3668,
    "▁بوک": 3669,
    "نواک": 3670,
    "امسال": 3671,
    "▁۱۳۶": 3672,
    "▁مرم": 3673,
    "▁۱۲۰": 3674,
    "▁تحری": 3675,
    "▁نسب": 3676,
    "▁ثروت": 3677,
    "▁بازنشست": 3678,
    "▁عصب": 3679,
    "▁صح": 3680,
    "تاسف": 3681,
    "▁اطلس": 3682,
    "▁امتحان": 3683,
    "▁تحمیل": 3684,
    "▁مدیترانه": 3685,
    "▁۲۰۲۲": 3686,
    "▁اصرار": 3687,
    "▁شنیدن": 3688,
    "▁تاکتیک": 3689,
    "▁مسلمان": 3690,
    "▁بکشد": 3691,
    "▁کمپین": 3692,
    "▁ناامن": 3693,
    "تابعیت": 3694,
    "▁ایلنا": 3695,
    "▁غریب": 3696,
    "عارف": 3697,
    "صوفی": 3698,
    "▁شریفی": 3699,
    "▁قرص": 3700,
    "▁رمزارزها": 3701,
    "▁کیهان": 3702,
    "▁۱۳۸": 3703,
    "▁کارگزار": 3704,
    "اطی": 3705,
    "▁مرگبار": 3706,
    "▁هامر": 3707,
    "▁خرسند": 3708,
    "▁۲۰۰۳": 3709,
    "▁شاگردان": 3710,
    "لحق": 3711,
    "▁رساندن": 3712,
    "▁هاوس": 3713,
    "▁مبنای": 3714,
    "باتری": 3715,
    "▁خرج": 3716,
    "▁الکس": 3717,
    "▁بومی": 3718,
    "وریا": 3719,
    "مرد": 3720,
    "▁وجه": 3721,
    "▁یاران": 3722,
    "▁اصلاحات": 3723,
    "▁اقلی": 3724,
    "▁شهردار": 3725,
    "▁بازماند": 3726,
    "حل": 3727,
    "ابق": 3728,
    "▁نوار": 3729,
    "▁پیکر": 3730,
    "▁آوردن": 3731,
    "جیره": 3732,
    "شریف": 3733,
    "▁تقویم": 3734,
    "▁رزم": 3735,
    "▁گوگ": 3736,
    "وفر": 3737,
    "ارغ": 3738,
    "برایتون": 3739,
    "پارد": 3740,
    "▁نسبتا": 3741,
    "▁پیرو": 3742,
    "▁مهل": 3743,
    "بون": 3744,
    "▁۵۲": 3745,
    "▁لاش": 3746,
    "▁۹۱": 3747,
    "▁۸۰۰": 3748,
    "▁درس": 3749,
    "۶۳": 3750,
    "▁۴۶": 3751,
    "دانشمندان": 3752,
    "عنوان": 3753,
    "▁۷۴": 3754,
    "رقابت": 3755,
    "ظهر": 3756,
    "ایع": 3757,
    "صورت": 3758,
    "▁همگ": 3759,
    "▁بوش": 3760,
    "▁مامور": 3761,
    "▁توانم": 3762,
    "▁رویای": 3763,
    "▁یازدهم": 3764,
    "▁مستق": 3765,
    "▁ویلیام": 3766,
    "▁ژنتیک": 3767,
    "ولوژی": 3768,
    "ژانس": 3769,
    "▁ابعاد": 3770,
    "▁استخدام": 3771,
    "▁اپلیکیشن": 3772,
    "▁ترانزیت": 3773,
    "▁خانوادگی": 3774,
    "▁خلاقیت": 3775,
    "▁دژپسند": 3776,
    "▁محوطه": 3777,
    "▁مفهوم": 3778,
    "▁منتخب": 3779,
    "▁استراحت": 3780,
    "▁ثمر": 3781,
    "▁موظف": 3782,
    "▁تفاهم": 3783,
    "▁لاریجانی": 3784,
    "▁هیأت": 3785,
    "▁خرابکار": 3786,
    "▁بلاروس": 3787,
    "▁نوبخت": 3788,
    "▁مقصر": 3789,
    "▁بازگردد": 3790,
    "▁صنف": 3791,
    "▁فلوید": 3792,
    "▁ناحیه": 3793,
    "▁بامداد": 3794,
    "▁اسرار": 3795,
    "▁لهستان": 3796,
    "▁دهقان": 3797,
    "▁مارتین": 3798,
    "▁کارلوس": 3799,
    "▁فتاح": 3800,
    "▁بیروت": 3801,
    "▁رابرت": 3802,
    "▁همسان": 3803,
    "▁پشتیبان": 3804,
    "داوم": 3805,
    "▁شجاع": 3806,
    "▁رخداد": 3807,
    "▁کاشی": 3808,
    "▁بوشهر": 3809,
    "▁استراتژیک": 3810,
    "▁شاهکار": 3811,
    "▁روبرت": 3812,
    "▁فرض": 3813,
    "▁فیلتر": 3814,
    "▁انصاریان": 3815,
    "چهار": 3816,
    "▁جنایت": 3817,
    "▁علاقمندان": 3818,
    "▁محاسبات": 3819,
    "▁وحید": 3820,
    "▁کشند": 3821,
    "▁ماریا": 3822,
    "▁۱۹۴": 3823,
    "▁لم": 3824,
    "▁سفی": 3825,
    "▁نوآور": 3826,
    "▁نق": 3827,
    "▁اتل": 3828,
    "▁گروگانگیر": 3829,
    "▁خریداران": 3830,
    "▁ساختن": 3831,
    "▁بقا": 3832,
    "▁جاست": 3833,
    "▁درخت": 3834,
    "▁ارگ": 3835,
    "▁نیش": 3836,
    "▁اسد": 3837,
    "ساب": 3838,
    "▁معنا": 3839,
    "▁دوحه": 3840,
    "▁شدیدتر": 3841,
    "▁سگ": 3842,
    "نویس": 3843,
    "▁عم": 3844,
    "▁اکرا": 3845,
    "مندان": 3846,
    "▁فاز": 3847,
    "پو": 3848,
    "▁انیس": 3849,
    "لینی": 3850,
    "▁مادران": 3851,
    "پینگ": 3852,
    "▁اندیش": 3853,
    "شاخص": 3854,
    "فیلم": 3855,
    "عمل": 3856,
    "شدت": 3857,
    "▁۹۰۰": 3858,
    "▁مهاجر": 3859,
    "▁عمد": 3860,
    "▁دپ": 3861,
    "آنها": 3862,
    "شاید": 3863,
    "کانا": 3864,
    "▁۳۶": 3865,
    "▁گانه": 3866,
    "▁آیین": 3867,
    "▁غم": 3868,
    "سئول": 3869,
    "▁مختل": 3870,
    "تمرکز": 3871,
    "▁انفرادی": 3872,
    "▁بروکسل": 3873,
    "▁تأثیر": 3874,
    "▁متقاضی": 3875,
    "▁مواضع": 3876,
    "▁وحدت": 3877,
    "▁اکتشاف": 3878,
    "▁ناچار": 3879,
    "▁کمربند": 3880,
    "▁نکنند": 3881,
    "▁عبدی": 3882,
    "▁نرفت": 3883,
    "▁نمکی": 3884,
    "▁سحر": 3885,
    "▁رولز": 3886,
    "▁سکونت": 3887,
    "▁منزل": 3888,
    "▁استادیوم": 3889,
    "▁ارمنستان": 3890,
    "▁ربات": 3891,
    "انصراف": 3892,
    "▁استودیو": 3893,
    "▁حرم": 3894,
    "▁قطار": 3895,
    "▁کشاند": 3896,
    "▁قریب": 3897,
    "▁دردسر": 3898,
    "▁بختیار": 3899,
    "▁تیرماه": 3900,
    "▁بورل": 3901,
    "▁مهرماه": 3902,
    "▁نورد": 3903,
    "▁متعهد": 3904,
    "▁بگویم": 3905,
    "غال": 3906,
    "▁۱۹۸۶": 3907,
    "▁زنجان": 3908,
    "▁موازی": 3909,
    "▁خانوارهای": 3910,
    "▁تقدی": 3911,
    "▁حجاب": 3912,
    "▁ژوز": 3913,
    "▁کیفر": 3914,
    "رسون": 3915,
    "ویژه": 3916,
    "▁یکسان": 3917,
    "جلیل": 3918,
    "تیکو": 3919,
    "▁طرز": 3920,
    "▁بدل": 3921,
    "▁رنو": 3922,
    "▁وزارتخانه": 3923,
    "اطم": 3924,
    "▁کلود": 3925,
    "▁کاد": 3926,
    "▁رادیویی": 3927,
    "▁اوب": 3928,
    "▁آورند": 3929,
    "▁سربازان": 3930,
    "▁مرزها": 3931,
    "▁رنج": 3932,
    "▁پروازها": 3933,
    "▁پیست": 3934,
    "▁زور": 3935,
    "▁توضیحات": 3936,
    "▁نامدار": 3937,
    "▁کمدی": 3938,
    "▁نامزدها": 3939,
    "▁اوبر": 3940,
    "مانده": 3941,
    "تقاد": 3942,
    "▁۵۹": 3943,
    "▁تروی": 3944,
    "مرث": 3945,
    "▁همانند": 3946,
    "▁۱۹۳": 3947,
    "▁گلف": 3948,
    "▁حریفان": 3949,
    "▁کول": 3950,
    "▁صحن": 3951,
    "▁یکصد": 3952,
    "▁قش": 3953,
    "▁عقید": 3954,
    "▁گار": 3955,
    "واقع": 3956,
    "وارد": 3957,
    "▁برادرش": 3958,
    "محمود": 3959,
    "معاون": 3960,
    "علیرضا": 3961,
    "▁۶۲": 3962,
    "آمار": 3963,
    "خیم": 3964,
    "▁رسم": 3965,
    "دادگاه": 3966,
    "بازار": 3967,
    "▁اختلا": 3968,
    "▁هوادار": 3969,
    "کوبی": 3970,
    "حقق": 3971,
    "▁بلومبرگ": 3972,
    "▁مایکروسافت": 3973,
    "▁همیلتون": 3974,
    "▁تعقیب": 3975,
    "▁مالاریا": 3976,
    "▁مصاد": 3977,
    "▁هفده": 3978,
    "▁نشیب": 3979,
    "▁تعدیل": 3980,
    "▁آشفت": 3981,
    "▁تعمیر": 3982,
    "▁مزایا": 3983,
    "▁منتف": 3984,
    "▁اخلاق": 3985,
    "▁وصل": 3986,
    "▁پرستار": 3987,
    "▁فجر": 3988,
    "▁دانشکد": 3989,
    "▁غیاب": 3990,
    "▁تماشاچی": 3991,
    "▁پیمانکار": 3992,
    "منستان": 3993,
    "▁ارزشمند": 3994,
    "▁الحسن": 3995,
    "▁همرسان": 3996,
    "▁غرق": 3997,
    "سلیم": 3998,
    "▁مداوم": 3999,
    "حریم": 4000,
    "▁پلاک": 4001,
    "▁دیدگاه": 4002,
    "▁تخلفات": 4003,
    "▁تعجب": 4004,
    "▁زیستگاه": 4005,
    "پوری": 4006,
    "▁همینطور": 4007,
    "▁سکت": 4008,
    "▁شایعات": 4009,
    "زیگ": 4010,
    "▁خشکسالی": 4011,
    "▁رانندگی": 4012,
    "▁گوگل": 4013,
    "▁طرفدار": 4014,
    "▁کاربرد": 4015,
    "لوب": 4016,
    "▁پایدار": 4017,
    "▁سرنشینان": 4018,
    "▁فرانک": 4019,
    "▁۶۸": 4020,
    "موند": 4021,
    "▁درختان": 4022,
    "تراشه": 4023,
    "▁اندازد": 4024,
    "▁هواپیماهای": 4025,
    "▁پارس": 4026,
    "نصف": 4027,
    "▁مصطف": 4028,
    "▁چیزهای": 4029,
    "▁جنس": 4030,
    "▁کوچکتر": 4031,
    "▁واسط": 4032,
    "▁معمار": 4033,
    "▁صفحات": 4034,
    "▁استرالیایی": 4035,
    "۱۵": 4036,
    "▁آبادان": 4037,
    "▁سازد": 4038,
    "▁صاحبان": 4039,
    "▁شون": 4040,
    "امیر": 4041,
    "▁ضربات": 4042,
    "ممکن": 4043,
    "▁میلیاردر": 4044,
    "▁قوس": 4045,
    "▁جهانگیری": 4046,
    "▁کلام": 4047,
    "▁دوام": 4048,
    "▁افتد": 4049,
    "▁ازای": 4050,
    "خاطر": 4051,
    "▁آمدند": 4052,
    "دوف": 4053,
    "▁خودروها": 4054,
    "مرکز": 4055,
    "▁تون": 4056,
    "▁نتوا": 4057,
    "اینها": 4058,
    "▁کشیدن": 4059,
    "▁۱۳۴": 4060,
    "ویل": 4061,
    "لندر": 4062,
    "اژ": 4063,
    "قص": 4064,
    "▁سام": 4065,
    "▁کرو": 4066,
    "ارژ": 4067,
    "حرف": 4068,
    "واسط": 4069,
    "▁فال": 4070,
    "▁دخترش": 4071,
    "▁شاپ": 4072,
    "▁نف": 4073,
    "▁۱۵۰۰": 4074,
    "ایح": 4075,
    "▁ظه": 4076,
    "▁مقرر": 4077,
    "▁دایناسور": 4078,
    "▁فروپاشی": 4079,
    "▁فضاپیما": 4080,
    "▁ناپدید": 4081,
    "▁تلگرام": 4082,
    "▁درآورد": 4083,
    "▁لالیگا": 4084,
    "▁لزوم": 4085,
    "▁۱۳۹۶": 4086,
    "▁اخلال": 4087,
    "▁کارفرما": 4088,
    "▁خیانت": 4089,
    "▁تخیل": 4090,
    "▁انگشت": 4091,
    "▁بیاورد": 4092,
    "▁ذکر": 4093,
    "▁مشکات": 4094,
    "▁گشود": 4095,
    "▁تفریح": 4096,
    "▁بکشند": 4097,
    "▁مبدا": 4098,
    "▁نظم": 4099,
    "▁عضلا": 4100,
    "نظرسنجی": 4101,
    "▁بیفتد": 4102,
    "▁ابوال": 4103,
    "▁بیلسا": 4104,
    "▁پردازد": 4105,
    "▁اندرکار": 4106,
    "▁بقایای": 4107,
    "▁ضایع": 4108,
    "▁پیشگام": 4109,
    "▁مکرر": 4110,
    "وداع": 4111,
    "▁بهبهان": 4112,
    "▁سایبری": 4113,
    "▁بلوچ": 4114,
    "▁اسپرت": 4115,
    "▁۲۰۳۰": 4116,
    "▁انگل": 4117,
    "▁کابین": 4118,
    "▁حاکمیت": 4119,
    "▁رنجر": 4120,
    "بورگ": 4121,
    "▁بزن": 4122,
    "▁غالب": 4123,
    "▁شهریار": 4124,
    "▁مایل": 4125,
    "▁ویزا": 4126,
    "▁حکمتی": 4127,
    "▁شیمی": 4128,
    "▁زبا": 4129,
    "▁پورتو": 4130,
    "▁کارگروه": 4131,
    "▁۵۳": 4132,
    "▁آلن": 4133,
    "۸۰": 4134,
    "▁رضایت": 4135,
    "▁انوش": 4136,
    "یویا": 4137,
    "▁روبروست": 4138,
    "▁سالمندان": 4139,
    "▁مهاجران": 4140,
    "▁تایم": 4141,
    "▁اعضا": 4142,
    "▁ریچارد": 4143,
    "▁دیپلمات": 4144,
    "▁سیزدهم": 4145,
    "صف": 4146,
    "▁بافت": 4147,
    "▁تمرکز": 4148,
    "▁خواهر": 4149,
    "لاتین": 4150,
    "سیتی": 4151,
    "▁جانور": 4152,
    "▁ظهر": 4153,
    "▁منطق": 4154,
    "▁کردستان": 4155,
    "لقی": 4156,
    "▁گرفتار": 4157,
    "▁صفرها": 4158,
    "▁شناسند": 4159,
    "▁برداشتن": 4160,
    "▁پرهی": 4161,
    "▁گارد": 4162,
    "دلال": 4163,
    "▁سنج": 4164,
    "▁تام": 4165,
    "▁یافتند": 4166,
    "کمیت": 4167,
    "▁ژنو": 4168,
    "زمان": 4169,
    "سابقه": 4170,
    "ظاهر": 4171,
    "محققان": 4172,
    "مراسم": 4173,
    "تحول": 4174,
    "▁دربار": 4175,
    "▁سامان": 4176,
    "▁۳۵۰": 4177,
    "دیگر": 4178,
    "روژ": 4179,
    "نوردی": 4180,
    "▁بدخ": 4181,
    "▁رمزارز": 4182,
    "ائیل": 4183,
    "خصیص": 4184,
    "▁استرازنکا": 4185,
    "▁الانبیا": 4186,
    "▁تغذیه": 4187,
    "▁خسارات": 4188,
    "▁عنکبوت": 4189,
    "▁فلوریدا": 4190,
    "▁متخلف": 4191,
    "▁مزرعه": 4192,
    "▁چرنکوف": 4193,
    "▁کارداشیان": 4194,
    "▁توفیق": 4195,
    "▁دریابندری": 4196,
    "▁۱۳۹۵": 4197,
    "▁آسمایی": 4198,
    "▁مجاهد": 4199,
    "▁دعوا": 4200,
    "▁همجنس": 4201,
    "▁سردبیر": 4202,
    "▁مرجع": 4203,
    "▁ابتکار": 4204,
    "▁ستایش": 4205,
    "▁شوهر": 4206,
    "▁ناامید": 4207,
    "▁مصون": 4208,
    "▁نوزدهم": 4209,
    "عزیز": 4210,
    "▁برگردد": 4211,
    "▁قزاقستان": 4212,
    "▁کلینیک": 4213,
    "▁رسول": 4214,
    "▁اصولگرا": 4215,
    "▁وزرا": 4216,
    "▁داغستان": 4217,
    "▁ببیند": 4218,
    "▁شوماخر": 4219,
    "▁مجرم": 4220,
    "▁پیرلو": 4221,
    "▁سرویس": 4222,
    "▁تعامل": 4223,
    "▁فرج": 4224,
    "▁توریست": 4225,
    "▁بگیرید": 4226,
    "▁رتکلیف": 4227,
    "▁تاکسی": 4228,
    "▁یادبود": 4229,
    "▁دستاوردهای": 4230,
    "▁چوب": 4231,
    "▁خاور": 4232,
    "▁گرمای": 4233,
    "▁گرایان": 4234,
    "▁محبوبیت": 4235,
    "▁مخدر": 4236,
    "▁۲۰۰۴": 4237,
    "▁پهن": 4238,
    "▁سکوت": 4239,
    "▁دشمنان": 4240,
    "▁شوید": 4241,
    "▁۴۷": 4242,
    "▁کنیا": 4243,
    "▁لوکا": 4244,
    "▁نمادهای": 4245,
    "▁ندید": 4246,
    "▁حداد": 4247,
    "▁۵۸": 4248,
    "▁بجا": 4249,
    "▁شرمن": 4250,
    "▁معاین": 4251,
    "▁آفرین": 4252,
    "▁بگیر": 4253,
    "▁الیز": 4254,
    "احی": 4255,
    "▁گردند": 4256,
    "▁اشیا": 4257,
    "صخره": 4258,
    "مسترد": 4259,
    "▁قند": 4260,
    "▁الس": 4261,
    "▁انتقادات": 4262,
    "▁دهک": 4263,
    "▁صادرکنند": 4264,
    "▁کاردن": 4265,
    "▁مغاز": 4266,
    "▁بلوک": 4267,
    "▁همای": 4268,
    "▁ریس": 4269,
    "۴۰": 4270,
    "▁خوا": 4271,
    "قبل": 4272,
    "لوغ": 4273,
    "۲۳": 4274,
    "مرگ": 4275,
    "فروش": 4276,
    "▁رسن": 4277,
    "▁قبرس": 4278,
    "بیش": 4279,
    "پزشک": 4280,
    "پژوهشگران": 4281,
    "قدس": 4282,
    "▁ملا": 4283,
    "جانب": 4284,
    "▁بمب": 4285,
    "هدف": 4286,
    "▁سرنشین": 4287,
    "▁اشکال": 4288,
    "▁ثروتمندتر": 4289,
    "درصد": 4290,
    "▁مقدم": 4291,
    "▁ساک": 4292,
    "▁استراتژی": 4293,
    "▁ناشنا": 4294,
    "یقه": 4295,
    "بفرستید": 4296,
    "▁آموزگار": 4297,
    "▁اعتیاد": 4298,
    "▁پائی": 4299,
    "▁پرطرفدار": 4300,
    "▁پهپاد": 4301,
    "▁کاغذ": 4302,
    "▁مشکوک": 4303,
    "▁بفروشد": 4304,
    "▁زیارت": 4305,
    "▁تعزیری": 4306,
    "▁لحن": 4307,
    "▁بپردازد": 4308,
    "▁سرتیپ": 4309,
    "▁سوگوار": 4310,
    "▁ببینند": 4311,
    "▁توخل": 4312,
    "▁گرسنگ": 4313,
    "▁زنگنه": 4314,
    "▁مقطع": 4315,
    "▁بگوییم": 4316,
    "▁ندارم": 4317,
    "▁صحیح": 4318,
    "▁خزر": 4319,
    "▁سیگار": 4320,
    "▁تتلو": 4321,
    "▁پراید": 4322,
    "▁مظاهری": 4323,
    "▁تندرو": 4324,
    "▁نکات": 4325,
    "▁سعد": 4326,
    "▁مطلوب": 4327,
    "▁آوازخوان": 4328,
    "▁خوشنام": 4329,
    "▁دشت": 4330,
    "▁خیال": 4331,
    "▁۱۹۹۰": 4332,
    "ارتاک": 4333,
    "▁ماس": 4334,
    "▁محکم": 4335,
    "▁فضلی": 4336,
    "▁حاجی": 4337,
    "▁تعادل": 4338,
    "مکعب": 4339,
    "▁نروژ": 4340,
    "▁شیلی": 4341,
    "▁معدود": 4342,
    "▁تنوع": 4343,
    "▁حساسیت": 4344,
    "▁شیع": 4345,
    "▁بزنند": 4346,
    "▁کشتار": 4347,
    "▁الکل": 4348,
    "▁آرامکو": 4349,
    "▁سیاستمداران": 4350,
    "▁سکو": 4351,
    "▁شکن": 4352,
    "▁ستارگان": 4353,
    "▁مرغدار": 4354,
    "نقل": 4355,
    "▁تونس": 4356,
    "▁دهندگان": 4357,
    "▁احساسات": 4358,
    "ظن": 4359,
    "حمید": 4360,
    "▁آقا": 4361,
    "▁روزمر": 4362,
    "▁دهید": 4363,
    "▁دارید": 4364,
    "▁نداشتن": 4365,
    "▁خرند": 4366,
    "▁زخم": 4367,
    "▁کرای": 4368,
    "▁گزارشگران": 4369,
    "▁احمدشا": 4370,
    "▁شام": 4371,
    "▁پاهای": 4372,
    "▁خم": 4373,
    "▁محب": 4374,
    "▁ادب": 4375,
    "ابلو": 4376,
    "▁قبر": 4377,
    "ستیک": 4378,
    "موث": 4379,
    "دوست": 4380,
    "فاد": 4381,
    "وستهم": 4382,
    "▁طب": 4383,
    "▁۱۹۵": 4384,
    "یژن": 4385,
    "مصطف": 4386,
    "ایدو": 4387,
    "محمدجواد": 4388,
    "خودرو": 4389,
    "اتحاد": 4390,
    "باشگاه": 4391,
    "فدرر": 4392,
    "تولید": 4393,
    "پوش": 4394,
    "مشخص": 4395,
    "▁۷۸": 4396,
    "دهنده": 4397,
    "رشد": 4398,
    "صرف": 4399,
    "آخری": 4400,
    "▁۱۹۰": 4401,
    "▁یوو": 4402,
    "نیوز": 4403,
    "چرا": 4404,
    "حالا": 4405,
    "تنها": 4406,
    "روزنامه": 4407,
    "▁سیزده": 4408,
    "▁کوهن": 4409,
    "گزار": 4410,
    "▁نوازند": 4411,
    "▁مرتب": 4412,
    "وکسین": 4413,
    "▁اعتراف": 4414,
    "▁تحقیر": 4415,
    "▁فلسفه": 4416,
    "▁قائدی": 4417,
    "▁لامبورگینی": 4418,
    "▁متاثر": 4419,
    "▁ورشکست": 4420,
    "▁کلاهبردار": 4421,
    "▁ارکستر": 4422,
    "▁بوفالو": 4423,
    "▁زیرساخت": 4424,
    "▁مداخل": 4425,
    "▁مرتضی": 4426,
    "▁مصلحت": 4427,
    "▁پیراهن": 4428,
    "▁ودیعه": 4429,
    "▁کریسمس": 4430,
    "▁اشتراک": 4431,
    "▁تبادل": 4432,
    "▁تضمین": 4433,
    "▁ببینیم": 4434,
    "▁مکتوب": 4435,
    "▁کالبد": 4436,
    "▁برآمد": 4437,
    "▁جاشوا": 4438,
    "▁طارمی": 4439,
    "▁ندانست": 4440,
    "▁شباهت": 4441,
    "▁مسایل": 4442,
    "▁منفجر": 4443,
    "▁خویش": 4444,
    "فاضل": 4445,
    "▁تعبیر": 4446,
    "▁ماندگار": 4447,
    "▁نیاورد": 4448,
    "▁ناتوان": 4449,
    "▁بفتا": 4450,
    "▁عقرب": 4451,
    "▁قاعد": 4452,
    "▁مفید": 4453,
    "▁توجیه": 4454,
    "▁رفاه": 4455,
    "▁تروریسم": 4456,
    "▁بنکسی": 4457,
    "▁فلج": 4458,
    "▁توفان": 4459,
    "▁فسیل": 4460,
    "▁نزول": 4461,
    "▁ویرجی": 4462,
    "▁متنوع": 4463,
    "▁کولمن": 4464,
    "▁داریوش": 4465,
    "▁دزد": 4466,
    "▁همتای": 4467,
    "صریح": 4468,
    "▁ایراد": 4469,
    "▁اتکا": 4470,
    "▁مسافت": 4471,
    "▁فرایند": 4472,
    "▁گرایش": 4473,
    "سیویر": 4474,
    "▁پایبند": 4475,
    "▁بگیریم": 4476,
    "فضل": 4477,
    "▁اعطا": 4478,
    "▁قاب": 4479,
    "▁تسهیلات": 4480,
    "▁۱۹۹۸": 4481,
    "▁پناهندگ": 4482,
    "▁سالیوان": 4483,
    "▁نیو": 4484,
    "ادیو": 4485,
    "▁عطرساز": 4486,
    "▁بوکسور": 4487,
    "۳۹": 4488,
    "فلات": 4489,
    "▁حباب": 4490,
    "سپاری": 4491,
    "▁فیس": 4492,
    "▁گرمایش": 4493,
    "▁ذی": 4494,
    "▁استاندارد": 4495,
    "▁آنتی": 4496,
    "خط": 4497,
    "▁دهلی": 4498,
    "▁پاتر": 4499,
    "▁تئو": 4500,
    "▁خرس": 4501,
    "▁لیور": 4502,
    "▁مستقیما": 4503,
    "دالله": 4504,
    "▁جبه": 4505,
    "▁کاوا": 4506,
    "▁روال": 4507,
    "۷۰": 4508,
    "▁ریل": 4509,
    "▁نماند": 4510,
    "▁مخاط": 4511,
    "سایت": 4512,
    "لاند": 4513,
    "۱۰": 4514,
    "گفت": 4515,
    "مایک": 4516,
    "هدیه": 4517,
    "▁معیار": 4518,
    "▁ثان": 4519,
    "▁بلو": 4520,
    "▁ژو": 4521,
    "شناسی": 4522,
    "▁ردیاب": 4523,
    "ماجرا": 4524,
    "فعالان": 4525,
    "ناظر": 4526,
    "فصل": 4527,
    "ایشگاه": 4528,
    "▁جنای": 4529,
    "انتخابات": 4530,
    "خورده": 4531,
    "▁معما": 4532,
    "▁بناها": 4533,
    "وجود": 4534,
    "عشی": 4535,
    "▁سازندگ": 4536,
    "▁تثب": 4537,
    "▁جزای": 4538,
    "▁دستاورد": 4539,
    "▁سانتریفیوژ": 4540,
    "▁مصدوم": 4541,
    "▁تلسکوپ": 4542,
    "▁غفوری": 4543,
    "▁غیرنظامی": 4544,
    "▁مغناطیس": 4545,
    "▁گلمکانی": 4546,
    "▁یونسکو": 4547,
    "▁آرزوها": 4548,
    "▁تکنولوژی": 4549,
    "▁وظایف": 4550,
    "▁گابریل": 4551,
    "▁اعصاب": 4552,
    "▁خفیف": 4553,
    "▁لطف": 4554,
    "▁هجدهم": 4555,
    "▁رمضان": 4556,
    "▁مینیاتور": 4557,
    "▁آموخت": 4558,
    "▁ترسناک": 4559,
    "▁غلط": 4560,
    "▁جابجا": 4561,
    "▁میکروب": 4562,
    "▁امیرشاهی": 4563,
    "▁تکامل": 4564,
    "▁گودال": 4565,
    "▁مکزیک": 4566,
    "اسحاق": 4567,
    "▁تلفیق": 4568,
    "▁آشام": 4569,
    "▁تالار": 4570,
    "رطوب": 4571,
    "▁فروزش": 4572,
    "▁مثلث": 4573,
    "▁زغال": 4574,
    "▁رجب": 4575,
    "▁هرمز": 4576,
    "▁کوهستان": 4577,
    "▁گلایه": 4578,
    "▁مقر": 4579,
    "▁جناح": 4580,
    "▁یزد": 4581,
    "▁الگوی": 4582,
    "▁بردارد": 4583,
    "▁مدرک": 4584,
    "▁دخ": 4585,
    "▁فخر": 4586,
    "▁بازنشستگی": 4587,
    "ناشناس": 4588,
    "▁سکان": 4589,
    "▁مخلو": 4590,
    "▁شمایل": 4591,
    "▁سنبل": 4592,
    "▁تبعید": 4593,
    "▁سانتریفیوژهای": 4594,
    "▁پررنگ": 4595,
    "▁زهر": 4596,
    "▁حواس": 4597,
    "▁لخت": 4598,
    "▁هشتگ": 4599,
    "▁دستیار": 4600,
    "▁شفا": 4601,
    "▁میرزا": 4602,
    "▁مردگان": 4603,
    "ژیم": 4604,
    "مارک": 4605,
    "▁قبال": 4606,
    "▁لاری": 4607,
    "▁فرق": 4608,
    "فرج": 4609,
    "▁بگو": 4610,
    "▁جرد": 4611,
    "قای": 4612,
    "▁شانزدهم": 4613,
    "الیز": 4614,
    "پوتن": 4615,
    "▁نیل": 4616,
    "▁انتها": 4617,
    "▁اجبار": 4618,
    "فرجام": 4619,
    "مزد": 4620,
    "ونتی": 4621,
    "▁کنو": 4622,
    "پتون": 4623,
    "تکب": 4624,
    "▁عج": 4625,
    "آموز": 4626,
    "▁وقف": 4627,
    "▁کانت": 4628,
    "نکور": 4629,
    "۲۴": 4630,
    "▁منصو": 4631,
    "صالح": 4632,
    "اقتصاد": 4633,
    "قهرمان": 4634,
    "اخیرا": 4635,
    "منابع": 4636,
    "مجلس": 4637,
    "سرعت": 4638,
    "مسئولان": 4639,
    "علاو": 4640,
    "دونالد": 4641,
    "آژانس": 4642,
    "شیوع": 4643,
    "شتم": 4644,
    "ونته": 4645,
    "تلاش": 4646,
    "▁عمو": 4647,
    "▁آبراموویچ": 4648,
    "▁آغداشلو": 4649,
    "▁اثبات": 4650,
    "▁المستقبل": 4651,
    "▁باورنکردنی": 4652,
    "▁بوئنو": 4653,
    "▁حرکات": 4654,
    "▁دگرگون": 4655,
    "▁رولزرویس": 4656,
    "▁قائل": 4657,
    "▁پنگوئن": 4658,
    "▁یخچال": 4659,
    "▁آغوش": 4660,
    "▁واضح": 4661,
    "▁گرجستان": 4662,
    "▁راپینو": 4663,
    "▁روشنفکر": 4664,
    "▁انحصار": 4665,
    "▁سازوکار": 4666,
    "▁سنگاپور": 4667,
    "▁وروورت": 4668,
    "▁مشتاق": 4669,
    "▁احکام": 4670,
    "▁زریاب": 4671,
    "▁خستگی": 4672,
    "▁ویتنام": 4673,
    "▁ناقض": 4674,
    "▁پلامر": 4675,
    "▁احتیاط": 4676,
    "▁معالج": 4677,
    "▁محترم": 4678,
    "▁جزییات": 4679,
    "▁نیسان": 4680,
    "▁گواهی": 4681,
    "▁تکنیک": 4682,
    "▁پوتین": 4683,
    "▁بمانند": 4684,
    "فرگوس": 4685,
    "▁تأیید": 4686,
    "▁ندهد": 4687,
    "▁تایتان": 4688,
    "▁جلد": 4689,
    "▁بندرعباس": 4690,
    "▁عزم": 4691,
    "▁فیلمبردار": 4692,
    "▁چهاردهم": 4693,
    "وخامت": 4694,
    "▁بدانند": 4695,
    "▁هالپ": 4696,
    "منازع": 4697,
    "▁چرب": 4698,
    "ضعف": 4699,
    "▁ساویز": 4700,
    "▁۱۹۴۰": 4701,
    "▁مشوق": 4702,
    "غیب": 4703,
    "عارض": 4704,
    "▁سارس": 4705,
    "▁صحرا": 4706,
    "▁هشتصد": 4707,
    "▁آزمو": 4708,
    "▁شرکا": 4709,
    "▁مرکل": 4710,
    "▁نژادپرستانه": 4711,
    "▁مبت": 4712,
    "▁محض": 4713,
    "▁رایزن": 4714,
    "▁۱۳۰": 4715,
    "▁فریب": 4716,
    "▁نیکلا": 4717,
    "▁نامگذاری": 4718,
    "▁پاسخگو": 4719,
    "▁مایع": 4720,
    "▁نارس": 4721,
    "▁گردانند": 4722,
    "▁گلوب": 4723,
    "▁ادعاهای": 4724,
    "▁اینجا": 4725,
    "▁سیبری": 4726,
    "لانتی": 4727,
    "بریتی": 4728,
    "▁احسا": 4729,
    "▁شوت": 4730,
    "وفون": 4731,
    "▁پستاندار": 4732,
    "▁اریک": 4733,
    "▁حرا": 4734,
    "دترا": 4735,
    "▁موزی": 4736,
    "جاع": 4737,
    "▁اعما": 4738,
    "▁گردشگر": 4739,
    "▁دال": 4740,
    "گرفته": 4741,
    "تاکس": 4742,
    "▁پژو": 4743,
    "▁نیازها": 4744,
    "رنج": 4745,
    "سلسل": 4746,
    "راجر": 4747,
    "▁نگرفت": 4748,
    "▁سطو": 4749,
    "▁تابو": 4750,
    "جیب": 4751,
    "یونایتد": 4752,
    "آنتونی": 4753,
    "آفرین": 4754,
    "زمینی": 4755,
    "نفتی": 4756,
    "▁شاپو": 4757,
    "جویان": 4758,
    "▁نگر": 4759,
    "نشست": 4760,
    "▁آتالانتا": 4761,
    "▁آسوشیتد": 4762,
    "▁آلزایمر": 4763,
    "▁اتیوپی": 4764,
    "▁اپیدمی": 4765,
    "▁خنثی": 4766,
    "▁زودهنگام": 4767,
    "▁صراحت": 4768,
    "▁مونتاژ": 4769,
    "▁نامناسب": 4770,
    "▁وحشتناک": 4771,
    "▁پوچتینو": 4772,
    "▁کامبوج": 4773,
    "▁ایرباس": 4774,
    "▁متغیر": 4775,
    "▁ربیعی": 4776,
    "▁خوشبخت": 4777,
    "▁تورنتو": 4778,
    "▁نعمت": 4779,
    "▁تفسیر": 4780,
    "▁پیشکسوت": 4781,
    "▁ترافیک": 4782,
    "▁بوزمن": 4783,
    "▁مسموم": 4784,
    "▁امتداد": 4785,
    "▁آرشیو": 4786,
    "▁قفس": 4787,
    "▁بازنگری": 4788,
    "▁غیبت": 4789,
    "▁نیجر": 4790,
    "▁گناه": 4791,
    "▁هواشناسی": 4792,
    "▁ونیز": 4793,
    "▁ضدحمل": 4794,
    "▁بصر": 4795,
    "▁اپراتورها": 4796,
    "جیمزباند": 4797,
    "▁دماوند": 4798,
    "▁پالاس": 4799,
    "ضاح": 4800,
    "▁دبیرستان": 4801,
    "▁حسرت": 4802,
    "▁فروغ": 4803,
    "▁ریورا": 4804,
    "▁معاش": 4805,
    "▁امواج": 4806,
    "▁بالگرد": 4807,
    "▁اکسید": 4808,
    "▁مولوی": 4809,
    "▁مخفیانه": 4810,
    "توازن": 4811,
    "▁ماشه": 4812,
    "▁کولبر": 4813,
    "▁تدری": 4814,
    "▁جیپ": 4815,
    "▁مواقع": 4816,
    "▁گرامی": 4817,
    "▁پریش": 4818,
    "▁جمج": 4819,
    "▁فرح": 4820,
    "قیاس": 4821,
    "▁درآمدزا": 4822,
    "انکن": 4823,
    "ساعد": 4824,
    "طرف": 4825,
    "▁ماهیگیر": 4826,
    "▁بازرگان": 4827,
    "عفون": 4828,
    "الگو": 4829,
    "▁پهلو": 4830,
    "▁بخشید": 4831,
    "بورد": 4832,
    "▁شانزده": 4833,
    "رینگ": 4834,
    "▁خوار": 4835,
    "▁داوی": 4836,
    "غلام": 4837,
    "کارشناسان": 4838,
    "تصاویر": 4839,
    "انتظار": 4840,
    "(": 4841,
    "خانواده": 4842,
    "همچنین": 4843,
    "بریتانیا": 4844,
    "نمایندگان": 4845,
    "▁خشن": 4846,
    "داستان": 4847,
    "مدت": 4848,
    "▁دشمن": 4849,
    "▁علاقمند": 4850,
    "▁تخل": 4851,
    "▁خاشق": 4852,
    "▁انستیتو": 4853,
    "▁ایوانکوویچ": 4854,
    "▁بشردوستانه": 4855,
    "▁تزئین": 4856,
    "▁تصاحب": 4857,
    "▁دانچیچ": 4858,
    "▁زائر": 4859,
    "▁شیکاگو": 4860,
    "▁صداوسیما": 4861,
    "▁ضوابط": 4862,
    "▁عواقب": 4863,
    "▁فزاینده": 4864,
    "▁قائم": 4865,
    "▁لاجورد": 4866,
    "▁مائوریتس": 4867,
    "▁متمایز": 4868,
    "▁مستضعفان": 4869,
    "▁پردرآمد": 4870,
    "▁ژیمناست": 4871,
    "▁رستگار": 4872,
    "▁سرماخورد": 4873,
    "▁فرسایش": 4874,
    "▁مظنون": 4875,
    "▁گیگز": 4876,
    "▁فرانسیس": 4877,
    "▁سرتاسر": 4878,
    "▁کالدرون": 4879,
    "▁بخرد": 4880,
    "▁علایم": 4881,
    "▁سانتیمتر": 4882,
    "▁دردناک": 4883,
    "گراندپری": 4884,
    "▁انباشت": 4885,
    "▁مسوول": 4886,
    "▁بنتلی": 4887,
    "▁وفادار": 4888,
    "خاذ": 4889,
    "▁هوندا": 4890,
    "▁وودز": 4891,
    "کارآمد": 4892,
    "▁اشعار": 4893,
    "▁مکتب": 4894,
    "▁استعمار": 4895,
    "▁طناب": 4896,
    "بالاحصار": 4897,
    "تناقض": 4898,
    "▁ادوارد": 4899,
    "▁عزیزان": 4900,
    "▁کرمانشاه": 4901,
    "▁شستا": 4902,
    "▁عثمان": 4903,
    "▁حرارت": 4904,
    "▁حریر": 4905,
    "▁پیشتاز": 4906,
    "▁شکارچی": 4907,
    "▁دندان": 4908,
    "▁اسپورت": 4909,
    "نگیز": 4910,
    "▁هوشیار": 4911,
    "▁محفظه": 4912,
    "▁مثل": 4913,
    "▁تصویربردار": 4914,
    "گارت": 4915,
    "▁برسند": 4916,
    "▁ولد": 4917,
    "▁رامش": 4918,
    "خوشایند": 4919,
    "▁موکل": 4920,
    "▁عسل": 4921,
    "▁گردون": 4922,
    "مجتب": 4923,
    "رحیم": 4924,
    "لسک": 4925,
    "▁غرو": 4926,
    "▁واحدها": 4927,
    "اذب": 4928,
    "▁دادخواه": 4929,
    "نالد": 4930,
    "▁معیارها": 4931,
    "▁سختگیر": 4932,
    "تشکر": 4933,
    "واشی": 4934,
    "ریچارد": 4935,
    "اسماعیل": 4936,
    "رافائل": 4937,
    "▁نگفت": 4938,
    "روابط": 4939,
    "اعضای": 4940,
    "مذاکرات": 4941,
    "پرسپولیس": 4942,
    "مسابقات": 4943,
    "عکاس": 4944,
    "دفتر": 4945,
    "کرونا": 4946,
    "موسس": 4947,
    "▁۱۶۰": 4948,
    "کارگران": 4949,
    "▁۱۸۰": 4950,
    "بورس": 4951,
    "▁سیاستمدار": 4952,
    "نیروی": 4953,
    "▁خانوار": 4954,
    "▁پالایش": 4955,
    "ئرنیک": 4956,
    "▁تخفیف": 4957,
    "▁آشپز": 4958,
    "▁الگوریتم": 4959,
    "▁بتهوون": 4960,
    "▁تهاجمی": 4961,
    "▁جاپلقی": 4962,
    "▁رفسنجان": 4963,
    "▁زاناردی": 4964,
    "▁لابراتوار": 4965,
    "▁معتمدی": 4966,
    "▁ملاحظ": 4967,
    "▁نگذاشت": 4968,
    "▁پدافند": 4969,
    "▁ژئوپلیتیک": 4970,
    "▁کاندیدا": 4971,
    "▁بالیوود": 4972,
    "▁فلامینگو": 4973,
    "▁اوربیتر": 4974,
    "▁نوشیدن": 4975,
    "▁تویوتا": 4976,
    "▁مصداق": 4977,
    "▁مرضیه": 4978,
    "▁پیرامون": 4979,
    "▁کیلوولت": 4980,
    "▁معاهد": 4981,
    "▁کرگدن": 4982,
    "▁ارتقا": 4983,
    "▁کلانتری": 4984,
    "▁تفکیک": 4985,
    "▁کادرفنی": 4986,
    "▁جونیور": 4987,
    "▁سلتیک": 4988,
    "▁آرتتا": 4989,
    "▁الاجل": 4990,
    "▁منظم": 4991,
    "▁آمبول": 4992,
    "▁اتصال": 4993,
    "▁عروق": 4994,
    "▁یادگار": 4995,
    "▁خدایاری": 4996,
    "▁همسایگ": 4997,
    "▁قسط": 4998,
    "▁وگاس": 4999,
    "▁بفهم": 5000,
    "ئ": 5001
  }
}