<unk>	0
<s>	0
</s>	0
ی	-3.20579
.	-3.43355
ه	-3.74297
▁است	-4.1139
▁می	-4.20929
▁	-4.38647
▁های	-4.61318
▁ایران	-4.69086
▁شده	-5.03146
،	-5.08375
▁سال	-5.14715
▁بود	-5.18786
▁یک	-5.22312
▁ها	-5.2383
▁شد	-5.277
▁تصویر	-5.39881
ان	-5.41112
▁کرده	-5.42995
▁ای	-5.44005
▁کرد	-5.49542
منبع	-5.58166
▁بر	-5.58466
ین	-5.65618
▁شود	-5.66401
▁گفته	-5.69937
▁کند	-5.76819
▁خود	-5.77425
▁دو	-5.78398
ش	-5.80247
؛	-5.81536
▁کرونا	-5.83489
▁اند	-5.84851
ت	-5.96609
▁در	-6.01798
▁ماه	-6.0433
▁کشور	-6.04474
▁پیش	-6.07064
▁آمریکا	-6.07959
▁روز	-6.09172
▁گزارش	-6.12061
▁بی	-6.24327
▁فوتبال	-6.26175
▁دارد	-6.27361
▁دهد	-6.29573
▁تیم	-6.30541
م	-6.30844
▁بازی	-6.31141
▁کنند	-6.3353
▁کار	-6.33783
▁گفت	-6.33922
▁اعلام	-6.35356
▁و	-6.35392
▁ا	-6.37184
▁قرار	-6.38456
▁هزار	-6.39357
▁دیگر	-6.40262
▁شرکت	-6.40805
▁داده	-6.43438
▁دولت	-6.43677
▁دست	-6.4436
▁یا	-6.44847
▁م	-6.44961
▁رئیس	-6.46937
▁جهان	-6.47892
ن	-6.50007
▁سه	-6.50845
▁به	-6.51137
▁گذشته	-6.51704
▁با	-6.51838
▁بین	-6.53559
▁پس	-6.53987
▁خواهد	-6.54973
▁هر	-6.55741
در	-6.58006
▁آقای	-6.58287
▁بار	-6.58429
▁گوید	-6.60461
▁میلیون	-6.63298
▁درباره	-6.63767
▁درصد	-6.6694
▁لیگ	-6.67652
▁نفر	-6.68398
▁آنها	-6.68726
▁افزایش	-6.69197
▁تهران	-6.69531
ات	-6.72392
▁دلیل	-6.72668
▁افغانستان	-6.73271
▁چند	-6.73531
▁'	-6.74603
های	-6.74695
▁داد	-6.75532
'	-6.75678
ند	-6.75852
▁بعد	-6.76229
▁هفته	-6.7706
این	-6.77101
▁جدید	-6.77422
▁از	-6.77662
ب	-6.77784
▁خبر	-6.78996
▁حال	-6.79029
▁بوده	-6.7939
▁نفت	-6.80107
▁ویروس	-6.8057
▁یکی	-6.80604
▁دلار	-6.81047
س	-6.81649
▁ملی	-6.82014
▁همچن	-6.82132
:	-6.83031
▁قیمت	-6.83369
▁جهانی	-6.84133
▁بازار	-6.847
▁سازمان	-6.85216
▁ترین	-6.86086
▁همه	-6.86459
ل	-6.86676
▁مورد	-6.86735
▁جمهوری	-6.86845
▁فیلم	-6.87192
▁نام	-6.8758
▁نمی	-6.87609
▁هستند	-6.88477
▁سر	-6.88644
▁برگزار	-6.88955
▁تولید	-6.89779
▁باید	-6.89787
▁گرفته	-6.90782
▁عنوان	-6.90886
▁نظر	-6.9178
▁ف	-6.92525
▁روی	-6.92619
▁امروز	-6.93515
▁بیشتر	-6.93689
▁چین	-6.93884
▁بیش	-6.94198
▁کاهش	-6.94863
▁کردند	-6.94909
ا	-6.97234
▁مجلس	-6.97563
▁داشت	-6.9808
▁وزیر	-6.98255
▁بودند	-6.9906
▁شب	-7.00107
▁شدن	-7.00619
▁اروپا	-7.00767
▁آغاز	-7.00828
▁نیست	-7.02132
▁سی	-7.02218
ز	-7.02485
▁علی	-7.02486
▁مقابل	-7.0283
▁ب	-7.03828
▁را	-7.042
▁اخیر	-7.04267
▁وزارت	-7.04307
▁حدود	-7.04781
▁بزرگ	-7.05737
▁راه	-7.05819
▁بریتانیا	-7.06256
▁نشان	-7.06315
د	-7.06668
▁واکسن	-7.07875
▁ت	-7.07895
▁برنامه	-7.08277
▁اقتصادی	-7.08447
▁نیز	-7.08586
▁پایان	-7.09396
▁داشته	-7.09952
ر	-7.11327
▁زمان	-7.11608
▁حضور	-7.11793
▁باشگاه	-7.12102
▁زمین	-7.12111
▁شهر	-7.1245
▁آن	-7.13105
گی	-7.13258
به	-7.13854
▁باشد	-7.14895
▁بانک	-7.1616
▁کم	-7.1632
▁تر	-7.16474
▁اساس	-7.17014
▁گل	-7.17164
▁باز	-7.1724
▁اش	-7.17387
که	-7.1758
▁منتشر	-7.17798
▁صورت	-7.18391
▁اولین	-7.18396
▁توافق	-7.18665
▁اول	-7.19181
▁شیوع	-7.19632
▁انجام	-7.1964
▁تحریم	-7.19815
سیون	-7.19901
▁بخش	-7.22076
دامه	-7.22187
▁فصل	-7.22472
▁میان	-7.22806
▁استفاده	-7.25652
▁جمله	-7.25832
▁مردم	-7.25911
▁میلیارد	-7.26334
▁وجود	-7.26705
▁رسید	-7.27282
▁دی	-7.2745
▁دارند	-7.28224
▁شورا	-7.30033
▁ایرانی	-7.30309
▁شوند	-7.30403
؟	-7.30604
او	-7.3077
▁مسابقات	-7.3176
آقای	-7.32767
▁گیری	-7.32962
ری	-7.33486
▁زندگی	-7.34047
▁خواست	-7.34449
▁همین	-7.34465
▁گروه	-7.34776
له	-7.35177
▁تومان	-7.35185
▁مسابقه	-7.35917
▁المللی	-7.3688
▁مقام	-7.37145
▁چهار	-7.37646
▁حقوق	-7.38424
▁ارز	-7.38579
▁تمام	-7.38808
ار	-7.39093
▁ماشین	-7.39755
▁برتر	-7.40178
▁شدند	-7.40599
▁بسیاری	-7.40711
▁گرفت	-7.41031
▁تواند	-7.41352
و	-7.41987
▁وقت	-7.42108
▁آینده	-7.42366
▁نرخ	-7.42755
▁وضعیت	-7.42756
▁اسلامی	-7.43078
▁بیماری	-7.44149
▁تنها	-7.44156
▁شرایط	-7.45575
▁پنج	-7.45663
▁امسال	-7.45899
▁اقتصاد	-7.46572
▁زنان	-7.46693
▁جام	-7.46702
▁توان	-7.46785
▁هایی	-7.4735
▁وارد	-7.47717
▁هیچ	-7.47959
بدون	-7.48094
نه	-7.48095
▁حالی	-7.48098
ها	-7.48191
▁فعالیت	-7.48221
▁کشورهای	-7.48487
▁قبل	-7.48674
▁زیاد	-7.49534
▁مختلف	-7.50077
▁غیر	-7.50127
▁رسان	-7.50516
▁طرح	-7.50922
▁تصمیم	-7.51069
▁طور	-7.51091
▁۲۰	-7.51183
▁دوران	-7.51303
▁خانه	-7.51338
▁کردن	-7.51342
▁اجتماعی	-7.5182
▁منبع	-7.51982
عث	-7.5256
ف	-7.52703
رسی	-7.52722
▁محمد	-7.52796
▁پی	-7.52882
شان	-7.53022
▁روحانی	-7.53125
▁خارجه	-7.53173
▁ولی	-7.53976
▁نزدیک	-7.54276
▁تلاش	-7.54285
انه	-7.54738
▁نخست	-7.54836
▁قهرمان	-7.54948
▁نه	-7.55112
▁گویند	-7.55676
▁تغییر	-7.56133
▁افراد	-7.56553
▁خانواده	-7.56716
▁کمک	-7.56921
▁مهم	-7.56971
▁ساله	-7.57492
▁فروش	-7.57586
▁آخر	-7.58022
▁جان	-7.58213
یک	-7.58393
▁بسیار	-7.5844
قط	-7.58628
▁تازه	-7.58711
▁بورس	-7.5891
▁برای	-7.59517
▁انتخابات	-7.59788
▁دهه	-7.59858
▁مدت	-7.60419
▁کر	-7.60486
▁ریاست	-7.61308
▁حالا	-7.61449
▁تاریخ	-7.61578
▁دانشگاه	-7.61622
▁برخ	-7.62166
▁مرکزی	-7.63034
▁سوی	-7.63632
▁دوره	-7.63744
▁قهرمانی	-7.64733
▁اثر	-7.65329
▁اصلی	-7.65543
▁درگذشت	-7.66168
▁۱۹	-7.66222
▁منطقه	-7.66512
▁حت	-7.66893
▁زیر	-7.67069
▁دنیا	-7.67082
▁رسمی	-7.67272
▁سرمایه	-7.67335
▁برابر	-7.67582
▁جمهور	-7.67623
▁کنار	-7.67646
▁ن	-7.68047
▁دوم	-7.6844
▁همراه	-7.68557
▁اینک	-7.68848
▁رقابت	-7.68971
▁سفر	-7.69153
▁پول	-7.69184
بر	-7.69315
▁هسته	-7.69437
▁موسیقی	-7.69917
▁اطلاعات	-7.70624
▁بعضی	-7.70782
▁رسیده	-7.70834
▁پیدا	-7.70846
▁س	-7.71074
ثبت	-7.71097
▁که	-7.71694
▁آمریکایی	-7.7208
▁آمار	-7.72089
یت	-7.72292
ور	-7.72314
▁عکس	-7.72398
▁پرسپولیس	-7.72615
شروع	-7.72774
▁۱۰	-7.72918
با	-7.73255
▁خودرو	-7.73261
▁مرکز	-7.73427
▁میلادی	-7.7343
گان	-7.73843
▁زن	-7.73869
▁نقش	-7.7396
▁نتیج	-7.73971
▁پر	-7.74628
▁اشار	-7.74866
نامه	-7.74976
▁او	-7.75042
▁اعتراض	-7.75083
▁برجام	-7.75346
ترین	-7.75607
▁توجه	-7.76564
▁کشتی	-7.76692
▁یافته	-7.7696
ک	-7.77064
▁رشد	-7.77157
▁بودجه	-7.77524
▁۴	-7.77553
▁نشده	-7.77569
▁شکست	-7.77695
▁دنبال	-7.77821
▁کمتر	-7.77964
▁حاضر	-7.78165
▁آزاد	-7.78191
▁جایزه	-7.78197
▁ممکن	-7.78294
▁کل	-7.7857
▁دور	-7.78614
▁حمله	-7.78843
▁استان	-7.79027
▁آب	-7.79602
▁حمایت	-7.79634
▁سیاسی	-7.79757
▁همکاری	-7.79814
▁نوشته	-7.80312
▁سهام	-7.80359
▁دریافت	-7.80371
▁آلمان	-7.80448
▁بالا	-7.80591
▁شش	-7.80891
▁بازیکن	-7.8107
▁مراسم	-7.81165
▁مالی	-7.81172
▁رفت	-7.81351
▁واکنش	-7.81896
توسط	-7.82078
▁پرداخت	-7.82108
▁الله	-7.82313
▁بهترین	-7.82913
ست	-7.83145
▁ندارد	-7.83724
▁استقلال	-7.83818
▁بهداشت	-7.83926
▁۵	-7.8439
▁عراق	-7.84481
▁۲۰۲۰	-7.84887
▁هدف	-7.84935
▁کتاب	-7.84981
▁ساعت	-7.85244
▁سیاست	-7.85271
روز	-7.85618
▁هم	-7.8586
▁خام	-7.86043
▁رد	-7.86331
▁آژانس	-7.86476
▁فرانسه	-7.86476
▁فدرا	-7.86624
▁این	-7.86689
▁نامه	-7.86728
▁عرض	-7.86817
▁شنبه	-7.87217
▁صد	-7.87247
▁طی	-7.8771
▁ترکیه	-7.87719
▁نیمه	-7.88194
▁روند	-7.88558
اکنون	-7.88845
▁آی	-7.8937
▁مدیر	-7.89604
▁ده	-7.8964
▁ش	-7.89752
▁شمار	-7.89759
▁خبرگزا	-7.90072
▁خرید	-7.90277
ِ	-7.90418
▁رسد	-7.90423
▁عربستان	-7.90439
نی	-7.90458
▁ویژه	-7.90466
▁دیدار	-7.90807
▁انتشار	-7.90876
▁۲	-7.909
▁آمده	-7.90909
▁پیروز	-7.9095
▁انرژی	-7.91648
▁چنین	-7.91678
▁دهند	-7.9182
▁جنوبی	-7.92596
▁سابق	-7.92615
▁قهرمانان	-7.93125
▁آ	-7.93421
▁سوم	-7.93734
▁کمی	-7.9389
▁موضوع	-7.94044
)	-7.94153
▁کنیم	-7.94638
▁گذاری	-7.94836
▁یافت	-7.94947
▁ترامپ	-7.95002
▁سازی	-7.95177
▁ام	-7.95282
▁نهایی	-7.95468
کسب	-7.95542
▁اج	-7.95673
▁مبارز	-7.95867
▁زبان	-7.95916
▁درآمد	-7.9627
▁اتحاد	-7.96387
▁رو	-7.96395
▁همان	-7.96693
▁میزان	-7.96785
▁هشدار	-7.97075
▁ایجاد	-7.97177
گیری	-7.97421
▁قابل	-7.97795
▁نیاز	-7.97882
از	-7.97985
▁قانون	-7.98386
▁تبدیل	-7.98474
▁خواهند	-7.985
▁آزمایش	-7.98887
ازه	-7.99031
▁اجرای	-7.99478
▁ورزش	-7.99802
▁مذاکرات	-7.99916
▁جریان	-8.00259
▁(	-8.00321
▁نا	-8.0045
▁کشته	-8.0051
▁خارجی	-8.00544
▁مشخص	-8.00618
▁اقدام	-8.00644
▁متهم	-8.00724
▁عضو	-8.00743
▁حسن	-8.01009
▁پرونده	-8.01635
▁تاثیر	-8.01933
▁ساخت	-8.01998
▁بازیکنان	-8.02022
▁زده	-8.02161
▁ر	-8.02734
▁مرد	-8.02856
▁هفت	-8.03392
▁تایید	-8.03455
▁تلویزیون	-8.0346
▁مرگ	-8.03493
▁سپاه	-8.035
▁تعطیل	-8.03798
▁بیمارستان	-8.04387
▁آسیا	-8.05078
▁مربوط	-8.05334
▁مدل	-8.05399
▁فاصله	-8.05587
▁روسیه	-8.05639
▁طریق	-8.05799
▁خارج	-8.06018
▁اسرائیل	-8.06095
▁احمد	-8.06239
▁۶	-8.06281
▁دیده	-8.06284
▁بازداشت	-8.06332
▁جلو	-8.06344
▁محل	-8.06632
▁صادرات	-8.06648
▁ارتباط	-8.06757
▁دولتی	-8.06962
▁رهبر	-8.07187
▁خاطر	-8.0724
▁سرمربی	-8.0725
▁چرا	-8.07816
▁ل	-8.07819
▁سو	-8.07856
▁رود	-8.08003
▁۳	-8.08157
▁خیل	-8.08236
▁سالگی	-8.08257
▁لیورپول	-8.08319
▁مجموعه	-8.08503
▁بازگشت	-8.08564
▁انگلیس	-8.08581
▁تنیس	-8.08729
▁بالای	-8.08731
▁انسان	-8.0894
▁نمایش	-8.09139
▁برد	-8.09279
▁نمایندگان	-8.09312
▁بیانی	-8.10447
▁نسبت	-8.10601
▁طرف	-8.10692
▁حکومت	-8.11189
▁تعداد	-8.11231
▁خط	-8.11823
نوز	-8.11831
▁اعضای	-8.12144
▁امنیت	-8.12222
▁اتمی	-8.12244
▁جو	-8.1228
۸	-8.12281
▁پلیس	-8.12357
▁دادگاه	-8.124
▁۷	-8.12425
▁زمانی	-8.12538
▁دوبار	-8.12653
▁ابتلا	-8.12728
▁۳۰	-8.13065
▁نشست	-8.13113
▁انتخاب	-8.13149
▁معاون	-8.13352
▁تو	-8.13463
▁تع	-8.13556
▁سطح	-8.13721
▁قرنطینه	-8.13741
▁کامل	-8.14143
▁بست	-8.14163
▁طول	-8.14216
▁ساخته	-8.14335
▁جنگ	-8.14482
▁صنعت	-8.14761
▁کننده	-8.14787
▁محدودیت	-8.15146
▁کس	-8.1531
▁خطر	-8.15331
▁سخنگوی	-8.15571
▁کابل	-8.15793
▁پخ	-8.16097
▁تحت	-8.16318
▁خوب	-8.16322
▁عمومی	-8.16346
▁نیم	-8.16355
▁قرارداد	-8.16664
▁منابع	-8.16937
▁نظامی	-8.17324
▁لندن	-8.17371
▁لغو	-8.17908
▁زندان	-8.18335
▁انقلاب	-8.18453
▁۲۵	-8.18472
▁نگاه	-8.18534
۰۰	-8.18575
▁بشر	-8.18674
▁ارزش	-8.18746
▁حکم	-8.18915
▁نقل	-8.19064
▁کودکان	-8.1926
▁همزمان	-8.19276
▁سخت	-8.1943
▁توصی	-8.19526
▁ظریف	-8.2009
ج	-8.20092
▁ترک	-8.20114
▁آثار	-8.20204
▁شناخت	-8.20342
▁امنیتی	-8.20595
▁گسترده	-8.20633
▁بشک	-8.20661
▁جاری	-8.2069
▁پزشکی	-8.20864
▁۲۰۱	-8.2109
▁نمایند	-8.21141
▁۲۰۰	-8.21545
▁سابقه	-8.21644
▁ح	-8.21675
▁چ	-8.22289
▁روزهای	-8.2233
▁نگرانی	-8.22479
▁بخشی	-8.22484
▁نامزد	-8.2273
▁شدید	-8.22861
▁جلسه	-8.22869
چه	-8.23077
▁سن	-8.23226
▁امتیاز	-8.23289
▁گاز	-8.23342
▁مطرح	-8.23422
▁طراح	-8.23428
▁شکل	-8.23491
▁قطع	-8.23744
▁۹	-8.2409
▁انتظار	-8.24098
▁صندوق	-8.24101
▁تن	-8.24383
▁رای	-8.24571
▁المپیک	-8.24574
▁حرکت	-8.24582
▁رکورد	-8.24991
-	-8.25003
▁مرح	-8.25148
▁دادن	-8.25281
یم	-8.25514
▁توانست	-8.25736
▁چهر	-8.2607
▁ورود	-8.26346
▁۲۰۱۹	-8.26395
▁داستان	-8.26396
▁آیا	-8.26414
ازم	-8.26416
▁هز	-8.26486
▁برنده	-8.26495
▁تصوی	-8.26759
▁بایدن	-8.26822
▁ورزشی	-8.26854
▁عالی	-8.26875
اما	-8.27281
▁خودش	-8.27362
▁دیگری	-8.27382
▁ورزشگاه	-8.2751
▁باشند	-8.28057
▁دستگاه	-8.28215
▁جمعیت	-8.28283
▁رقم	-8.2865
▁آبان	-8.28782
▁افت	-8.28914
▁شدت	-8.28958
▁متوقف	-8.29267
▁۱۲	-8.29343
▁گرفتن	-8.29468
▁چشم	-8.29694
▁هوای	-8.29743
▁کووید	-8.29847
▁متحده	-8.29914
▁نکرده	-8.29976
▁نفتی	-8.30146
الات	-8.30185
▁چهارم	-8.30287
▁نوشت	-8.30303
▁ایتالیا	-8.30367
▁۱۴۰۰	-8.3052
▁برق	-8.30979
▁فشار	-8.30981
▁ارائه	-8.31066
▁معرف	-8.31079
▁ج	-8.31092
▁بحران	-8.31102
▁جا	-8.31181
▁قدرت	-8.31202
ده	-8.3132
ستاد	-8.31375
▁مشکلات	-8.31791
▁جای	-8.32135
▁قو	-8.32444
▁هواپیمای	-8.3259
▁شهرهای	-8.32976
▁امور	-8.32983
▁بلند	-8.33014
۴	-8.33144
▁انتقاد	-8.33247
▁داشتند	-8.33395
▁انتقال	-8.33431
▁مانده	-8.33492
▁نهاد	-8.33515
▁گیرد	-8.33593
▁موسس	-8.33631
▁پیشین	-8.33631
۵	-8.33823
▁فرهنگ	-8.33934
▁جدی	-8.34087
▁عد	-8.34169
▁فینال	-8.34175
▁مصاحبه	-8.34193
▁فعال	-8.34273
▁اتفاق	-8.34332
سازی	-8.34397
▁هنو	-8.34552
▁موج	-8.34778
▁نوع	-8.34854
▁دانست	-8.34972
▁تحقیقات	-8.34992
▁آمد	-8.35016
▁کشید	-8.35235
▁جنوب	-8.35303
▁کسان	-8.3537
▁گذاشته	-8.35493
▁سایر	-8.35495
▁فن	-8.35586
حه	-8.35762
▁وی	-8.35797
▁سینما	-8.35845
▁بینی	-8.35878
▁اروپایی	-8.36064
▁الکتریکی	-8.36124
▁بارسلونا	-8.36128
▁تک	-8.36256
ینه	-8.36259
▁بالاتر	-8.36386
نگ	-8.36424
▁آنچ	-8.36505
▁تورم	-8.36595
مین	-8.36666
▁مصوب	-8.36729
▁پاسخ	-8.36764
▁هنگام	-8.36789
▁آزادی	-8.37488
▁ال	-8.38088
▁نیروهای	-8.38132
▁دستور	-8.38366
▁رفته	-8.38595
▁قرن	-8.38724
▁جامعه	-8.38772
▁۱	-8.3883
▁مربی	-8.38915
▁مسی	-8.38976
ال	-8.39049
▁تشکیل	-8.39222
▁شامل	-8.39292
▁نو	-8.39313
▁حساب	-8.39535
▁مشکل	-8.39919
▁۱۵	-8.39934
▁داخل	-8.4003
▁چگون	-8.4004
▁هند	-8.40075
▁اتهام	-8.40567
▁محیط	-8.40693
▁داخلی	-8.41365
▁دادند	-8.41396
▁ه	-8.41481
▁درمان	-8.41536
ویه	-8.41815
▁باقی	-8.42051
▁طولانی	-8.42068
▁معاملات	-8.42112
▁نبود	-8.42125
▁فکر	-8.42139
▁یع	-8.42209
▁فروردین	-8.4273
▁فارسی	-8.42784
▁ماسک	-8.42861
▁ابتدای	-8.43243
▁۲۲	-8.43312
▁سیستم	-8.4346
▁۱۱	-8.43694
۲	-8.43836
ون	-8.43838
▁مسئولان	-8.43918
▁خانم	-8.44056
▁مبتلا	-8.44096
▁اسفند	-8.44137
▁احتمال	-8.44196
▁قرمز	-8.44197
اخر	-8.44688
▁ممنوع	-8.44749
▁آسیب	-8.44818
▁تحقیق	-8.44857
۱	-8.45149
▁روزنامه	-8.45368
▁نیروی	-8.45372
گاه	-8.45409
▁خروج	-8.45551
▁کنم	-8.45595
▁رشت	-8.45677
▁یاد	-8.46095
▁کوچک	-8.46313
▁دونالد	-8.46336
▁پشت	-8.46437
▁قبلی	-8.4689
▁گون	-8.46933
▁شان	-8.46959
▁سریال	-8.46976
▁ترکیب	-8.46992
▁دار	-8.47015
▁شماری	-8.47071
▁۵۰	-8.47148
▁۱۳	-8.4734
▁لای	-8.47441
▁بتوان	-8.47617
▁نگهبان	-8.47662
▁غنی	-8.47666
▁کنید	-8.47674
▁۸	-8.47688
▁آتش	-8.47704
▁ملل	-8.47743
▁عامل	-8.47759
▁خون	-8.47762
▁محکوم	-8.48329
▁محدود	-8.48373
▁صحبت	-8.4839
▁درخواست	-8.48439
▁مارادونا	-8.48512
▁پل	-8.49016
▁خبرنگار	-8.49139
▁تجاری	-8.49208
▁تجرب	-8.49213
▁اجرا	-8.49464
▁شما	-8.4953
▁میزبان	-8.49593
▁امکان	-8.49732
▁مرغ	-8.49918
▁دوشنبه	-8.50031
▁محلی	-8.50132
▁واردات	-8.50187
▁د	-8.50235
▁تاکید	-8.50596
▁زیست	-8.50627
▁اسکار	-8.50651
▁تاریخی	-8.50686
▁سیاه	-8.50764
▁پایین	-8.5086
▁گذشت	-8.5095
▁سقوط	-8.51371
▁دلایل	-8.51381
▁چهارشنبه	-8.51399
▁طبق	-8.51467
▁هنری	-8.51564
▁اعدام	-8.52105
▁ان	-8.52185
وق	-8.52218
▁شاخص	-8.52309
رفع	-8.52348
▁صادر	-8.52427
▁سیتی	-8.52448
▁مواد	-8.52879
▁شاهد	-8.5294
▁علت	-8.5297
▁بودن	-8.52976
▁بنزین	-8.5308
▁فرهنگی	-8.53413
براز	-8.53454
▁فضای	-8.53586
▁مشترک	-8.5361
▁ناشی	-8.53631
▁ژان	-8.53762
▁کلی	-8.54063
▁سراسر	-8.54191
▁کارگران	-8.54877
▁اختیار	-8.55044
▁ترتیب	-8.55154
▁همیشه	-8.5518
▁پارسال	-8.55186
▁آوریل	-8.55218
▁گو	-8.55416
یا	-8.55505
۶	-8.55588
▁متر	-8.55767
▁کوتاه	-8.55936
▁هنر	-8.55989
▁تامین	-8.56049
▁خوانده	-8.56139
▁آورد	-8.56163
▁یکشنبه	-8.56273
▁حرفه	-8.56307
▁چپ	-8.56319
گر	-8.56399
▁کنترل	-8.56739
▁بیرون	-8.56791
▁ضرب	-8.56848
▁وین	-8.56926
▁مارس	-8.56952
▁۶۰	-8.56984
▁اولیه	-8.57102
▁زد	-8.57194
▁مسیر	-8.57197
▁دفاع	-8.57462
▁موارد	-8.57496
▁دقیقه	-8.57536
▁احتمالا	-8.5767
▁رنگ	-8.57684
دی	-8.57728
لق	-8.57756
▁۴۰	-8.5776
▁افتاد	-8.58072
▁واحد	-8.58158
▁توسعه	-8.58323
▁حذف	-8.58351
▁نویسنده	-8.58369
▁سمت	-8.58376
▁روابط	-8.58426
ایی	-8.58457
▁تهدید	-8.58949
پس	-8.58967
▁عمل	-8.59095
▁تقریبا	-8.59134
▁قوانین	-8.59144
▁مسئول	-8.59144
▁اقدامات	-8.5934
طور	-8.59574
▁اف	-8.59616
ق	-8.59651
▁دسترس	-8.59707
▁شجریان	-8.59936
▁نظیر	-8.59937
▁متفاوت	-8.59939
▁سلامت	-8.59968
▁نظام	-8.60007
▁بدن	-8.6004
▁جمعه	-8.60333
▁جز	-8.60553
▁درگیر	-8.60653
▁استرالیا	-8.60682
▁روبرو	-8.6072
▁خوزستان	-8.60757
▁انفجار	-8.60772
▁سوخت	-8.60804
▁نتایج	-8.60836
▁یونایتد	-8.60836
▁نخواه	-8.60842
▁بندی	-8.60865
▁سرعت	-8.60891
▁شهروندان	-8.60999
وز	-8.6119
▁تا	-8.61226
▁مناطق	-8.61588
▁آستان	-8.61603
▁۹۸	-8.61625
▁جهش	-8.61766
▁۱۴	-8.6182
▁بد	-8.61845
۷	-8.62169
▁امضا	-8.62258
▁حل	-8.62339
▁خصوصی	-8.62393
▁پروژه	-8.62416
▁ونزوئلا	-8.62422
▁کاملا	-8.62571
▁شاید	-8.62622
▁سنت	-8.62721
▁قصد	-8.62729
▁اخیرا	-8.63066
▁بگیرد	-8.63265
▁معروف	-8.63283
▁صفر	-8.63289
▁اوپک	-8.63348
▁نژاد	-8.63469
▁زاده	-8.64162
▁اطلاع	-8.64211
▁آماده	-8.64212
▁مصرف	-8.64273
▁علاو	-8.64293
▁تاکنون	-8.64367
▁فضایی	-8.64389
▁محمود	-8.64443
▁پور	-8.64682
▁اندازه	-8.64738
▁فرد	-8.64886
▁۲۰۲۱	-8.64962
▁احیا	-8.64964
▁ولایت	-8.64966
▁آرژانتین	-8.64975
▁جشنواره	-8.65009
▁۱۶	-8.65015
▁عباس	-8.65213
▁بیست	-8.65267
▁غرب	-8.65272
▁حد	-8.65433
▁فعالان	-8.65795
▁بارها	-8.65802
▁مرتبط	-8.65822
ع	-8.65826
▁سود	-8.66027
▁مهر	-8.66415
▁هواداران	-8.66521
▁پرواز	-8.66531
▁ندارند	-8.66693
▁تجارت	-8.66698
▁جدول	-8.66718
▁اتاق	-8.66725
▁عملیات	-8.66752
▁ماند	-8.66889
▁شمال	-8.67222
▁اختلاف	-8.67471
▁موفق	-8.67519
▁فهرست	-8.67584
امبر	-8.67821
▁۱۷	-8.67962
اساس	-8.6808
▁دارایی	-8.68082
▁کارگردان	-8.68106
▁پیشنهاد	-8.68325
▁مذاکر	-8.68333
▁مالیات	-8.68343
▁بخوانید	-8.68453
▁شکایت	-8.68481
▁رییس	-8.68505
▁کارگر	-8.68665
▁هوا	-8.69388
▁شناسا	-8.69419
▁تاج	-8.69668
▁مرز	-8.699
ام	-8.69926
▁ق	-8.69982
▁دهم	-8.7009
▁توییتر	-8.70386
حفظ	-8.70423
خانه	-8.70558
▁بزرگترین	-8.70601
▁دومین	-8.70747
▁برده	-8.70775
▁رسیدن	-8.70923
▁قلب	-8.71155
▁فوت	-8.71198
▁فدرر	-8.71327
▁کارخان	-8.71376
▁کالا	-8.71581
سی	-8.71631
▁هایش	-8.71888
عودی	-8.72228
▁قطر	-8.72451
▁زنده	-8.72498
▁ایالت	-8.72507
▁صفح	-8.72581
▁ملت	-8.72625
▁واکسین	-8.72999
▁مشابه	-8.73051
▁اداره	-8.73173
▁چیزی	-8.73226
▁مل	-8.73365
▁هی	-8.73634
▁پیام	-8.73893
اس	-8.73902
▁نقطه	-8.73936
▁فرصت	-8.73987
▁پاریس	-8.74005
▁چاپ	-8.74008
▁بهبود	-8.74093
▁حق	-8.74136
▁سنگین	-8.74226
اسیون	-8.74284
▁اعتراضات	-8.74289
▁یورو	-8.74291
▁واقع	-8.7463
▁من	-8.74814
▁اعمال	-8.74889
بی	-8.74894
▁نقاشی	-8.74917
▁کمیت	-8.75017
▁بازیگر	-8.75339
▁چیز	-8.75452
▁جمع	-8.75651
▁بریتانیایی	-8.75753
▁مجدد	-8.75848
▁مجوز	-8.75854
▁فساد	-8.7586
▁کشف	-8.75886
▁فرمانده	-8.75908
▁کنندگان	-8.76486
▁گفتگو	-8.7657
▁نگران	-8.76632
تر	-8.76755
▁افغان	-8.76786
▁حزب	-8.7679
▁موفقیت	-8.76852
▁سایت	-8.77067
ایران	-8.77089
▁۵۰۰	-8.77201
▁انگیز	-8.77298
▁تهی	-8.77329
▁کشورها	-8.77487
▁نظارت	-8.7777
▁سرطان	-8.77793
▁ایمن	-8.77881
نمایی	-8.77955
▁جنسی	-8.78186
دو	-8.78424
▁خالی	-8.78469
▁برخورد	-8.78699
▁باخت	-8.78702
▁مشهور	-8.78704
▁روزانه	-8.78713
▁گردد	-8.78769
▁رکود	-8.78786
▁توپ	-8.78794
▁نسل	-8.78846
▁هرات	-8.78897
▁مردان	-8.79002
▁خواننده	-8.79038
▁تغییرات	-8.79174
▁ما	-8.79263
▁کودک	-8.79268
▁هشت	-8.79343
▁قانونی	-8.79598
▁تابستان	-8.79622
▁مواجه	-8.7972
▁پنجم	-8.79757
▁خواهان	-8.79996
فورد	-8.80074
ح	-8.80188
▁رفتن	-8.80199
▁نهادهای	-8.802
▁تجمع	-8.80697
▁طبیعی	-8.80731
▁حوزه	-8.80733
▁کنون	-8.80761
▁حادثه	-8.80816
▁طلا	-8.80875
▁سریع	-8.80957
▁گروهی	-8.80981
▁گاه	-8.81017
▁علمی	-8.81441
▁حرف	-8.81467
▁نشد	-8.81679
▁رعایت	-8.81749
▁اینترنت	-8.81763
▁عدالت	-8.81764
▁عملکرد	-8.8179
▁منچستر	-8.81824
▁موافقت	-8.81849
▁بهار	-8.81972
▁روشن	-8.82012
ول	-8.8203
▁ستار	-8.82151
▁درست	-8.82455
▁رساند	-8.82651
▁رابطه	-8.82783
▁تصاویر	-8.82888
▁مغز	-8.82994
▁بیت	-8.83146
▁جنگل	-8.83157
▁صدای	-8.83192
▁یو	-8.83218
▁مت	-8.8323
محمد	-8.83533
مان	-8.83533
▁اس	-8.83557
▁خصوص	-8.83635
▁دختر	-8.83646
▁ک	-8.83815
▁جشن	-8.8384
▁نفتکش	-8.83881
▁امام	-8.83937
▁چلسی	-8.83961
▁پروازهای	-8.8411
▁مر	-8.84115
▁دوست	-8.84372
▁مه	-8.84452
▁میدان	-8.84477
▁پای	-8.84528
▁قضایی	-8.84549
عده	-8.84565
▁اضاف	-8.84825
▁مجبور	-8.84835
▁بایرن	-8.84848
▁کاخ	-8.84856
▁روش	-8.85307
▁آید	-8.85332
▁مهدی	-8.85383
▁مجموع	-8.85714
▁مقایس	-8.8589
▁پاسداران	-8.85916
ممنوعیت	-8.85983
▁بحث	-8.86013
علی	-8.86052
▁کیلومتر	-8.86088
می	-8.86283
▁دنیای	-8.86343
▁درواز	-8.86469
▁سعید	-8.86491
▁کاری	-8.86768
▁بیشتری	-8.86771
▁توضیح	-8.86827
▁اسپانیا	-8.86919
▁ژوئن	-8.86951
▁دچار	-8.86952
▁یابد	-8.86961
▁ارتش	-8.86971
▁مقررات	-8.86979
▁گذار	-8.8705
▁عمده	-8.8723
▁سوریه	-8.87238
▁ابتدا	-8.87301
▁دکتر	-8.87303
▁برسد	-8.87315
▁۱۰۰	-8.87325
▁۲۴	-8.87443
▁خواند	-8.87591
▁جدا	-8.87852
▁مد	-8.88045
▁کانال	-8.88054
▁پیشرفت	-8.88059
▁مجله	-8.88193
▁مانع	-8.88238
لی	-8.88284
▁کدام	-8.88344
▁نشری	-8.88517
▁بیکار	-8.88747
▁بال	-8.88787
▁مجازی	-8.88879
▁شعر	-8.89105
▁منتقل	-8.89113
▁معتقد	-8.89121
▁تاسیس	-8.89149
▁دانند	-8.89162
▁کوین	-8.89186
▁بهتر	-8.89259
▁پدر	-8.89278
بود	-8.89326
کنندگان	-8.8943
▁عبور	-8.89452
▁خودروساز	-8.89502
▁کارشناسان	-8.89545
▁ناز	-8.89988
▁نقاط	-8.90212
▁نقدینگی	-8.90213
▁سفیر	-8.90292
▁سخنران	-8.903
▁۲۳	-8.90463
▁آورده	-8.9061
▁۱۸	-8.90661
▁۲۸	-8.90712
▁صحنه	-8.90775
▁رضا	-8.90856
▁بازارهای	-8.90877
▁ریز	-8.90894
▁امیدوار	-8.90927
نجر	-8.90953
▁صدا	-8.91138
▁تی	-8.91148
▁مستند	-8.9119
▁رانند	-8.9125
▁تاز	-8.91413
▁تاتنهام	-8.91432
▁واقعی	-8.91454
▁امید	-8.91485
▁رمان	-8.91537
▁سوار	-8.91673
▁جوان	-8.91812
▁چه	-8.92111
▁مسکن	-8.92451
▁خاک	-8.92454
▁سفید	-8.92459
▁ارشد	-8.92473
▁پوند	-8.92495
▁گمرک	-8.92513
▁مادر	-8.92552
▁اظهارات	-8.92555
▁گر	-8.92743
▁گذاشت	-8.92962
▁فنی	-8.93089
▁هنرمند	-8.93144
▁پا	-8.93168
چند	-8.93279
۹	-8.93291
تبه	-8.93555
▁تورنمنت	-8.93583
▁پایتخت	-8.93583
▁مشغول	-8.93583
▁انگلستان	-8.93585
▁اوراق	-8.93609
▁افتاده	-8.93623
▁موجب	-8.93788
▁مدیریت	-8.93794
▁-	-8.93834
▁مثبت	-8.94125
▁ژاپن	-8.94136
▁حسین	-8.94187
وایل	-8.94402
▁بنز	-8.94535
▁تقوی	-8.94558
▁قطعی	-8.94581
▁تشخیص	-8.94733
▁پذیر	-8.9508
▁۲۱	-8.95192
▁منف	-8.95264
یست	-8.95365
▁عهد	-8.95439
▁حریف	-8.95448
بیشتر	-8.95604
▁دقیق	-8.95841
▁حداقل	-8.95895
▁تزریق	-8.95933
▁رفتار	-8.96044
غلب	-8.9605
▁بیمار	-8.96076
▁برداشت	-8.96161
▁رخ	-8.96919
▁دریا	-8.96928
ره	-8.96977
▁عرب	-8.97063
▁العاده	-8.97072
▁نشود	-8.97075
▁تاجیکستان	-8.97076
▁سرشناس	-8.97077
▁قتل	-8.97097
▁مادرید	-8.97113
▁سنگ	-8.97184
نیوم	-8.97279
▁اوت	-8.97355
▁پیشتر	-8.97752
▁دل	-8.97853
▁اورا	-8.97907
▁راست	-8.98223
▁وضع	-8.98232
▁وابست	-8.98263
▁ظرف	-8.98264
▁معتبر	-8.98271
▁فراهم	-8.98271
▁۱۳۹۹	-8.98292
▁مرداد	-8.98322
▁ساختمان	-8.98327
▁دبیر	-8.98349
▁اسطوره	-8.98359
▁دفتر	-8.98402
▁مخالفت	-8.98436
▁بن	-8.98548
▁زنی	-8.98602
▁سینمایی	-8.98635
▁دانشمندان	-8.98771
▁استاد	-8.98899
▁درآمدهای	-8.98945
▁چک	-8.99258
▁ساز	-8.99297
▁هوشمند	-8.99471
▁خورد	-8.99606
▁۹۰	-8.99618
▁بهمن	-8.99621
▁مدیران	-8.99669
▁لو	-8.9968
▁مک	-9.00272
▁برزیل	-9.00329
▁سوئیس	-9.00348
وال	-9.0049
▁پژوهش	-9.00559
▁معامل	-9.00566
▁محمو	-9.00609
▁نوبل	-9.00693
▁مکان	-9.00702
▁جایی	-9.00834
▁خودروهای	-9.01138
▁دارو	-9.01145
▁دین	-9.01251
من	-9.01313
▁حب	-9.01366
▁معنای	-9.0139
ستاره	-9.01407
▁بستر	-9.01586
▁فوریه	-9.01599
▁پ	-9.01888
▁اردیبهشت	-9.01946
یین	-9.0195
▁فیفا	-9.01978
▁جنجال	-9.01994
▁کاربران	-9.02071
▁وزن	-9.0219
▁دریایی	-9.02276
▁قربانی	-9.02377
▁هستیم	-9.02383
▁شرق	-9.02837
▁گرفتند	-9.02841
▁ماهه	-9.03012
▁قدم	-9.03131
▁دید	-9.03132
▁زاغری	-9.03171
▁خرداد	-9.03177
تا	-9.03204
▁چیست	-9.0321
▁جزئیات	-9.03211
▁گرم	-9.03345
شنبه	-9.03514
▁قدیمی	-9.03569
▁همسر	-9.03657
اوری	-9.03917
▁حمل	-9.03983
▁زود	-9.04001
پ	-9.04094
▁هاست	-9.04167
▁شاه	-9.04622
▁اجرایی	-9.04729
▁نوری	-9.0474
▁کارکنان	-9.04878
▁صدر	-9.05083
▁موجود	-9.05388
▁صعود	-9.05578
▁لحظ	-9.05675
▁گوش	-9.05723
▁زدن	-9.05935
▁نمو	-9.06033
دار	-9.061
▁کارهای	-9.06186
▁ضد	-9.06445
▁۹۹	-9.06604
▁ع	-9.06736
▁فارس	-9.0696
▁کنونی	-9.07031
▁هدایت	-9.0706
▁ظاهر	-9.07066
▁آهنگ	-9.07092
▁دریای	-9.07307
▁عق	-9.07307
▁مسافران	-9.07352
▁بهداشتی	-9.07688
ریمه	-9.07709
▁نداشته	-9.079
ود	-9.07943
▁مطالع	-9.08288
▁آموزش	-9.08316
▁موزه	-9.08342
▁مسدود	-9.08343
▁موقعیت	-9.08358
▁نوامبر	-9.08368
▁محبوب	-9.08388
▁معادل	-9.08394
▁نیویورک	-9.08394
▁رئال	-9.08395
▁تومانی	-9.08395
▁قسمت	-9.08411
▁نویس	-9.08517
▁مخالفان	-9.08654
▁قبلا	-9.08862
▁متع	-9.08916
▁مهاجم	-9.09209
▁غذا	-9.09326
▁نهایت	-9.09578
▁مستقیم	-9.0958
▁آبی	-9.0964
▁استقبال	-9.09667
▁مبلغ	-9.09677
▁آوری	-9.0969
▁علاقه	-9.09694
▁بحرین	-9.09719
▁رویترز	-9.09728
▁قضائیه	-9.09749
نقض	-9.09753
▁یکدیگر	-9.09782
▁چهل	-9.09971
▁۷۰	-9.1009
▁بنا	-9.10361
▁چندان	-9.10396
▁اصلاح	-9.10869
▁روایت	-9.10939
▁۳۰۰	-9.10952
▁دوچرخه	-9.11018
▁عجیب	-9.11021
▁پوست	-9.11022
▁آلبوم	-9.11028
▁دوربین	-9.11059
▁مدیرعامل	-9.11063
▁سینمای	-9.11115
پور	-9.11126
▁تحصیل	-9.11134
▁محمدرضا	-9.1116
▁داریم	-9.11162
▁امیر	-9.11172
▁فعلی	-9.11404
▁مهار	-9.11407
▁سکه	-9.11445
▁بیماران	-9.11539
▁۳۱	-9.11572
▁نور	-9.11693
▁فوری	-9.11743
ای	-9.11758
ید	-9.11889
▁اقیانوس	-9.12288
▁رونالدو	-9.12455
▁خدمات	-9.125
قیف	-9.12675
▁تخم	-9.12971
▁گستر	-9.12988
▁ست	-9.13014
▁اساسی	-9.13052
▁تیر	-9.13161
▁سرخ	-9.13223
▁کالاهای	-9.13298
▁خورشیدی	-9.13528
▁هست	-9.13595
▁آلمانی	-9.13616
▁آهن	-9.13646
▁صلح	-9.13777
▁مراجع	-9.13796
▁لباس	-9.138
▁تماس	-9.1381
نا	-9.13816
▁نادال	-9.13826
▁سفارت	-9.13877
▁ترس	-9.13902
▁رافائل	-9.13985
▁انگلیسی	-9.14091
▁متوسط	-9.14373
▁بنابر	-9.14585
▁مقامات	-9.14608
▁محصولات	-9.14709
▁۲۶	-9.14779
▁گران	-9.14953
▁نداشت	-9.15165
▁فرانسوی	-9.15214
▁مبتلایان	-9.15222
▁بازنشستگان	-9.15231
▁جمعی	-9.15252
▁خواهیم	-9.15259
▁تعدادی	-9.15283
▁ماموران	-9.15332
▁زندانی	-9.15361
▁گیرند	-9.15419
▁ناظر	-9.15471
▁عین	-9.15518
وس	-9.15545
▁۳۵	-9.15547
اب	-9.15572
تان	-9.15871
کس	-9.16034
▁فرزند	-9.161
▁غربی	-9.1614
▁ایم	-9.1618
داری	-9.1627
نین	-9.16423
۳	-9.16465
▁تخریب	-9.16698
▁جوایز	-9.16698
▁طالب	-9.16738
▁ساکن	-9.16744
▁معترضان	-9.16859
▁شخصیت	-9.16878
▁افزوده	-9.16889
▁علیرضا	-9.16964
▁برود	-9.17048
وی	-9.17185
وم	-9.173
▁دختران	-9.17329
▁مایک	-9.17589
▁دما	-9.17593
▁خورده	-9.17649
▁سعی	-9.17955
▁صنایع	-9.18063
▁ژوئیه	-9.18063
▁نحو	-9.18063
▁مونیخ	-9.18065
▁ارسال	-9.18067
▁ایستگاه	-9.18077
▁چالش	-9.181
▁مو	-9.18126
▁میلان	-9.18183
▁آل	-9.18382
سال	-9.185
▁سهمی	-9.18957
▁موتور	-9.19189
▁کشورش	-9.19292
▁تحویل	-9.19534
▁مجری	-9.19583
▁۲۰۱۷	-9.19588
▁ماده	-9.19643
▁معمولا	-9.19644
▁اوج	-9.19749
حسین	-9.19754
▁برقرار	-9.1976
▁تقاضا	-9.19966
▁زاد	-9.20256
شب	-9.20323
یابی	-9.20672
▁شخصی	-9.207
▁جدیدی	-9.20997
▁توقف	-9.21027
▁بازگشا	-9.2103
▁صبح	-9.21038
▁متعدد	-9.21042
▁واشنگتن	-9.21056
▁دانش	-9.21097
▁خدم	-9.21109
▁جوکوویچ	-9.21153
▁نارنجی	-9.21183
دولت	-9.21282
▁برگشت	-9.21292
▁پاکستان	-9.21436
▁صف	-9.21456
▁اصل	-9.2148
▁مارک	-9.21491
▁دشوار	-9.21565
توجه	-9.21715
▁مالک	-9.21725
▁پست	-9.21773
▁تقاضای	-9.2211
▁کارها	-9.22406
▁قالیباف	-9.22542
▁ویمبلدون	-9.22542
▁ثابت	-9.22542
▁اجاره	-9.22547
▁ذخ	-9.22549
▁نگهداری	-9.22552
▁آنلاین	-9.22554
▁سوپر	-9.22555
قدر	-9.22612
▁موقت	-9.22636
▁ادبیات	-9.22656
▁اخراج	-9.2267
▁تخت	-9.22715
▁راجر	-9.22823
▁بازرگانی	-9.22939
▁سلیمانی	-9.2296
▁خیابان	-9.23134
▁برمی	-9.23446
▁موشک	-9.23454
گرد	-9.2378
▁گ	-9.24037
▁بدهی	-9.24039
▁صاحب	-9.2408
▁بهادار	-9.24086
▁۱۳۹۸	-9.24087
هرگز	-9.24089
▁اخبار	-9.24092
▁قاچاق	-9.24111
▁کی	-9.24176
▁تصور	-9.24243
▁نویسندگان	-9.24249
▁هموار	-9.24383
را	-9.24437
▁ورزشکاران	-9.24463
▁تعهدات	-9.24764
▁آذر	-9.24765
▁۸۰	-9.24782
▁سند	-9.24855
▁فرمو	-9.24919
▁ملک	-9.25211
▁جذب	-9.25644
▁نتوانست	-9.25645
▁نجات	-9.25646
▁اکتبر	-9.25654
▁کنسرت	-9.25668
▁باور	-9.25683
▁خلق	-9.25686
▁خانگی	-9.25707
▁نگه	-9.25718
▁حاشیه	-9.25755
▁عادی	-9.25781
▁انجمن	-9.25796
▁کلوپ	-9.25801
▁لیون	-9.25887
▁غذای	-9.25888
سازمان	-9.25968
▁احساس	-9.26135
▁صوتی	-9.26142
▁اع	-9.2616
▁حیات	-9.26391
▁همچو	-9.26417
▁جراح	-9.26715
▁مربیان	-9.26716
یره	-9.2688
▁ارزی	-9.27041
▁توییت	-9.27082
▁حاصل	-9.27233
▁پلاس	-9.27262
▁تسلا	-9.27264
▁جایگاه	-9.27314
▁قاسم	-9.27344
▁حداکثر	-9.27345
وید	-9.27352
▁فردا	-9.27447
▁دارای	-9.27452
▁شیر	-9.27462
▁کافی	-9.27636
▁داند	-9.27765
▁شاعر	-9.27841
▁هنرمندان	-9.27873
▁ترانه	-9.27876
▁موسو	-9.2794
▁پرس	-9.27945
▁ض	-9.28083
▁دوستان	-9.28126
▁بلا	-9.28233
لان	-9.28313
▁حس	-9.28468
▁شهروند	-9.28508
▁اینستاگرام	-9.28528
▁کردم	-9.28651
▁پارک	-9.28782
▁لی	-9.28787
▁سپاهان	-9.28788
▁مالکی	-9.28797
▁تئاتر	-9.28843
▁اختصاص	-9.28843
▁مدعی	-9.28848
▁حفاظت	-9.28855
▁اهمیت	-9.28855
▁لوکس	-9.28875
▁فرهاد	-9.28962
رضا	-9.29036
▁هواپیما	-9.29037
▁تیراندازی	-9.29063
▁سخنان	-9.29202
وزارت	-9.29207
▁گفتند	-9.2946
▁شبانه	-9.29479
گری	-9.29621
رو	-9.29689
▁چرخ	-9.29702
▁ادبی	-9.29721
▁کن	-9.29808
▁باره	-9.2985
▁پدید	-9.29886
▁نوروز	-9.29886
▁زخمی	-9.29978
علوم	-9.30352
▁خوش	-9.30424
▁تعویق	-9.30482
▁طبیعت	-9.30482
▁معرض	-9.30482
▁مسلح	-9.30515
▁پاس	-9.30525
▁فایل	-9.30531
▁مجید	-9.30552
▁تلفن	-9.30618
▁طرفداران	-9.30651
اک	-9.30848
خانم	-9.30892
قانونی	-9.31036
▁رادیو	-9.31237
اسی	-9.31303
گ	-9.31318
مدید	-9.3137
▁بان	-9.31383
▁گیر	-9.31423
▁نشر	-9.31458
▁پالایشگاه	-9.3148
▁شمالی	-9.31505
شیدا	-9.3152
▁دام	-9.316
▁نگار	-9.31732
▁اید	-9.31824
▁کردیم	-9.32032
▁مشا	-9.32076
▁دیجیتال	-9.32149
▁ناگهان	-9.32149
▁مراکز	-9.32152
▁مدافع	-9.32152
▁آزار	-9.32171
▁مریخ	-9.32189
▁صرف	-9.32197
▁خیریه	-9.32207
▁سبک	-9.32226
مقام	-9.32443
ط	-9.32451
▁ماجرا	-9.32459
سون	-9.32523
▁دیدن	-9.32595
ستان	-9.3277
▁سهم	-9.32778
▁اشتباه	-9.32803
▁اسرائیلی	-9.32884
▁راهی	-9.3339
▁احتمالی	-9.3346
▁جه	-9.3347
▁۲۹	-9.33606
▁اصفهان	-9.33844
▁اجلاس	-9.33844
تنظیم	-9.33844
▁قبول	-9.33845
▁متولد	-9.33851
▁آسمان	-9.33884
لو	-9.33892
▁گام	-9.33926
▁مواردی	-9.33943
▁اتریش	-9.34086
▁زند	-9.34205
▁اتفاقات	-9.34288
▁واقعیت	-9.34338
▁سوزی	-9.34397
▁پژوهشگران	-9.34501
چ	-9.34747
▁بعدا	-9.34888
▁فرار	-9.3507
▁نماد	-9.35114
▁مناسب	-9.35168
▁کارشناس	-9.35188
▁فرا	-9.35435
▁عوامل	-9.35568
▁افتخار	-9.35568
▁مسائل	-9.35569
▁نوجوان	-9.3557
▁صلاحیت	-9.35592
▁سوال	-9.35603
▁اهل	-9.35628
▁قار	-9.35691
افسانه	-9.35696
▁دوز	-9.35747
▁مطابق	-9.35792
کش	-9.35852
▁دادستان	-9.35861
▁بیان	-9.35958
▁مسافر	-9.36227
▁پزشک	-9.36269
▁مرزی	-9.3641
▁تمامی	-9.3652
▁وگو	-9.36575
▁فرود	-9.36697
رسدس	-9.36744
دست	-9.37136
▁محروم	-9.37266
▁ارقام	-9.37322
▁کاپیتان	-9.37322
▁برجسته	-9.37323
▁جبران	-9.37323
▁عصر	-9.37338
▁حذفی	-9.37351
▁شهریور	-9.37363
▁پرتاب	-9.37367
▁ماموریت	-9.37376
پیش	-9.37382
▁ضمن	-9.37393
▁آلودگی	-9.3743
قیه	-9.37459
▁فوتبالیست	-9.37647
▁بعدی	-9.37723
▁داور	-9.37778
▁شرقی	-9.37816
رکت	-9.37888
▁استعفا	-9.38056
▁۴۲	-9.38173
▁درک	-9.38345
▁عبدال	-9.38684
▁متن	-9.38922
▁جذاب	-9.39048
نس	-9.39095
ضاع	-9.3911
▁تاخیر	-9.39111
وئل	-9.39119
▁بگیرند	-9.39139
▁نرم	-9.39145
▁محرم	-9.39149
▁بندر	-9.3952
▁عدد	-9.39647
▁۳۲	-9.39709
▁داشتن	-9.39759
▁ناسا	-9.39771
هفته	-9.39806
انجام	-9.40137
▁روزها	-9.40284
▁نهم	-9.40286
▁ابلاغ	-9.40435
▁سد	-9.40538
▁دستگیر	-9.40545
▁ورزشکار	-9.40557
▁نزدیکی	-9.40852
فسور	-9.4088
▁توانای	-9.40892
▁شاغل	-9.40926
▁کشاورز	-9.40926
▁هنرپیشه	-9.40927
▁خسارت	-9.40927
▁مراقب	-9.40928
▁حاکی	-9.40929
▁عید	-9.40948
▁حج	-9.4095
▁رسما	-9.40951
▁آرسنال	-9.40966
▁اوپ	-9.40975
▁حراج	-9.40991
▁سیما	-9.40998
▁ایسنا	-9.41009
▁جیمز	-9.41028
▁گذارد	-9.41072
▁کلاس	-9.41115
وثی	-9.41242
▁داروی	-9.41291
▁کارمندان	-9.41331
▁وام	-9.41401
▁آمیز	-9.41404
رئیس	-9.415
ما	-9.41584
▁زندانیان	-9.41585
جا	-9.41888
▁مخالف	-9.41951
باید	-9.41986
▁پن	-9.4204
▁فر	-9.42051
▁فضا	-9.42298
▁محسو	-9.42403
▁بهر	-9.42416
بط	-9.42418
▁الملل	-9.4249
▁توزیع	-9.42778
▁خشونت	-9.42778
▁توکیو	-9.42785
▁آمازون	-9.42791
▁گذرد	-9.42876
▁سای	-9.43093
▁مدرسه	-9.4312
▁تماشاگران	-9.43258
▁ایتالیایی	-9.43279
تیم	-9.43353
▁خاص	-9.43392
ئی	-9.43422
▁شیو	-9.43426
خبرگزا	-9.43434
هم	-9.43611
▁فردی	-9.43684
▁پرو	-9.44139
وع	-9.44215
▁دس	-9.44468
▁رویکرد	-9.44548
▁مشاهد	-9.4457
▁شصت	-9.44665
▁مشمول	-9.44675
▁باب	-9.44691
▁همتی	-9.44717
▁پروتکل	-9.44727
▁سیستان	-9.44771
▁مشاور	-9.44777
ساز	-9.44987
رنگ	-9.45033
▁برادر	-9.45175
▁رهبری	-9.45336
▁اکبر	-9.46576
▁سلطنت	-9.46588
▁رقیب	-9.46588
▁مشهد	-9.46588
▁اعتبار	-9.46588
▁مسئ	-9.46609
داد	-9.46613
▁هویت	-9.46628
▁چنان	-9.4663
▁پنجاه	-9.46644
▁ابراهیم	-9.46676
▁منتظر	-9.46727
▁جواد	-9.46803
▁انداز	-9.46827
غ	-9.46882
▁اندازی	-9.47
هر	-9.47086
▁خلی	-9.47112
▁ترجم	-9.47151
▁تست	-9.472
کل	-9.47242
▁درجه	-9.47298
ظ	-9.47301
▁تری	-9.47328
برای	-9.47381
▁نکرد	-9.47525
▁کلید	-9.47676
▁روانی	-9.47775
▁اسب	-9.47964
▁اطلاعی	-9.48036
▁سرنگون	-9.48549
▁تردد	-9.48549
ذیب	-9.48551
▁موضع	-9.48553
▁صراف	-9.48588
▁عرص	-9.48613
▁حکام	-9.48646
▁۲۰۱۵	-9.48648
▁آلود	-9.48656
▁آکادمی	-9.48666
▁شناسی	-9.48718
▁فروخته	-9.48721
▁رحمان	-9.48722
▁الدین	-9.48738
▁برآورد	-9.48742
▁توانسته	-9.48766
▁شغل	-9.4884
▁شاملو	-9.48847
▁خان	-9.48936
▁بچ	-9.49195
▁محققان	-9.49203
تمام	-9.49228
▁سامانه	-9.49253
▁هشتم	-9.49302
گزارش	-9.49307
▁پایه	-9.49383
▁بهای	-9.495
یر	-9.49573
▁حسینی	-9.4965
▁لس	-9.49732
▁افزود	-9.49769
▁پیوست	-9.49872
ث	-9.49925
▁اسکن	-9.50189
▁تماشاگر	-9.50194
▁پسر	-9.50371
ساوی	-9.50454
▁زا	-9.50475
▁اتومبیل	-9.50549
▁مصنوعی	-9.50549
▁دستمزد	-9.50552
▁الهام	-9.50562
▁فیزیک	-9.50589
▁فراموش	-9.50615
▁سرپرست	-9.50615
▁تفاوت	-9.50615
▁ایرنا	-9.50644
▁مسعود	-9.50676
▁آور	-9.50702
▁ریش	-9.50741
▁منتقدان	-9.5098
ایر	-9.51017
▁یخ	-9.51167
صد	-9.51347
کار	-9.5145
▁مس	-9.51477
▁سپ	-9.5183
▁فرستاده	-9.51958
مدال	-9.52068
اوی	-9.52133
▁نقاش	-9.52162
خراج	-9.52514
▁عمیق	-9.52531
▁محافظ	-9.52576
▁دعوت	-9.52589
▁اهواز	-9.5259
▁بلوچستان	-9.52593
▁ذر	-9.52596
▁نفس	-9.52604
▁تکرار	-9.52631
▁گلستان	-9.52671
▁واگذار	-9.52677
▁یمن	-9.52688
▁شهرستان	-9.52691
▁رانندگان	-9.52712
▁بازگرداند	-9.52744
▁حملات	-9.52789
▁ساده	-9.5294
▁خورشید	-9.53025
ض	-9.53117
ئو	-9.53295
▁شهرت	-9.53423
▁کسر	-9.53498
▁نداده	-9.53583
ماه	-9.536
▁حامل	-9.53671
▁گردشگری	-9.53689
▁دامن	-9.53935
▁نیستند	-9.54031
▁جلوی	-9.54199
سپت	-9.54277
▁بو	-9.54332
کن	-9.54377
▁دیوان	-9.544
▁آماد	-9.54418
▁آرام	-9.54455
▁عکاسی	-9.54521
▁شهرداری	-9.5453
▁عکاس	-9.54564
▁اطراف	-9.54673
▁بلینکن	-9.54673
▁نداریم	-9.54676
▁رونق	-9.54677
▁سراوان	-9.54678
▁۱۳۹۷	-9.54681
▁آنجلس	-9.54687
▁تأ	-9.54726
▁کادر	-9.54734
▁گواردیولا	-9.54742
▁پاک	-9.54746
▁تولد	-9.54747
گون	-9.54768
▁شوم	-9.54776
▁جامع	-9.54786
▁برخوردار	-9.54837
تصاب	-9.54844
▁مشتریان	-9.54878
▁کف	-9.54982
▁پزشکان	-9.55283
▁گرانی	-9.55389
▁چشمگیر	-9.55743
▁متحد	-9.56108
آزادسازی	-9.56238
▁بند	-9.56543
▁حالت	-9.56611
▁جودو	-9.56694
▁افزار	-9.56712
▁مبن	-9.56712
اپی	-9.5675
▁آکسفورد	-9.568
▁ازدواج	-9.568
▁اضطرار	-9.568
▁ژافره	-9.568
▁اسکاتلند	-9.56801
▁استانبول	-9.56805
▁پنهان	-9.56808
▁فعلا	-9.5681
▁خطرناک	-9.56814
▁قالب	-9.56815
▁پکن	-9.56822
▁جورج	-9.56854
▁وکیل	-9.56899
▁مسئولیت	-9.56951
▁سرکوب	-9.56999
▁خاتم	-9.57002
▁شبی	-9.57247
▁بدتر	-9.57266
▁همسرش	-9.5732
فدرا	-9.5732
▁داوطلبان	-9.57337
▁گری	-9.57396
▁کارت	-9.57454
▁کلیه	-9.57535
▁موثر	-9.57611
▁برداری	-9.5762
عهد	-9.57684
بار	-9.57737
▁حقوقی	-9.57808
▁نبوده	-9.57849
▁۳۴	-9.58042
حمل	-9.58053
دن	-9.58237
مه	-9.58468
آن	-9.58575
۰	-9.58593
▁دیپلما	-9.58732
▁تمرین	-9.58849
▁سرای	-9.58898
▁۴۰۰	-9.58974
▁تصادف	-9.58974
▁حوادث	-9.58974
▁کالیفرنیا	-9.58974
▁تعلیق	-9.58975
▁عمدتا	-9.58977
▁زمستان	-9.58978
▁بدهد	-9.5898
...	-9.58998
▁ثانی	-9.59002
▁مقصد	-9.59003
▁فرودگاه	-9.59004
▁ساحل	-9.59013
▁خفاش	-9.59018
▁فولاد	-9.59051
▁دقیقا	-9.59153
▁اختلال	-9.59176
▁اسکی	-9.59178
گین	-9.59244
▁اسپانیایی	-9.5931
▁نشدن	-9.59423
مند	-9.59715
▁ادار	-9.59742
▁کوه	-9.59786
▁نیازمند	-9.59851
▁نادر	-9.59977
▁هوش	-9.60099
جمع	-9.60403
▁ارزها	-9.60506
▁سخن	-9.60604
▁شک	-9.60661
▁معدن	-9.60818
▁هفتم	-9.61023
▁جانب	-9.61039
▁چارچوب	-9.61197
▁میراث	-9.61197
▁دانیم	-9.6123
▁یوونتوس	-9.61241
▁ناپذیر	-9.61251
▁پادشاه	-9.61271
▁انداخته	-9.61287
▁ساعات	-9.61295
▁گزین	-9.61335
▁۱۵۰	-9.61342
▁مدیرکل	-9.61343
▁چا	-9.61344
▁آواز	-9.61368
▁خرد	-9.61373
▁۹۷	-9.61417
▁هماهنگ	-9.61445
غول	-9.61497
▁برنت	-9.61502
▁ریال	-9.61572
▁مجاز	-9.61604
▁معمول	-9.6161
▁جاد	-9.61839
▁نامش	-9.61879
▁هیا	-9.61937
▁انتخاباتی	-9.62004
ناصر	-9.62153
دکتر	-9.62186
کو	-9.62431
حسن	-9.62628
لیک	-9.62698
۱۶	-9.62837
▁معن	-9.62909
▁میانه	-9.63076
▁انداخت	-9.63089
وه	-9.6316
رانی	-9.63239
▁مشاغل	-9.63469
▁جلب	-9.6347
▁صدرنشین	-9.63474
▁پارلمان	-9.63486
▁شفاف	-9.635
▁اطمینان	-9.63544
▁سوئد	-9.63546
▁خواب	-9.63587
▁پایگاه	-9.63594
▁تحولات	-9.63603
▁کانادا	-9.63647
▁خاوران	-9.63656
▁شناس	-9.63859
▁نامید	-9.63881
▁آشنا	-9.63928
▁نشین	-9.63948
▁آفریقا	-9.64043
ینگ	-9.64098
▁استاندار	-9.64316
▁مان	-9.64448
بعضی	-9.64516
▁ایستاده	-9.64576
▁پیگیری	-9.64769
رون	-9.64863
▁منع	-9.65223
جی	-9.65465
▁۴۵	-9.65613
▁اعتماد	-9.65795
▁بسکتبال	-9.65795
▁حکایت	-9.65795
▁عوارض	-9.65795
▁نطنز	-9.65795
▁بماند	-9.65795
▁تشویق	-9.65797
یکی	-9.65809
▁شگفت	-9.65812
▁متخصص	-9.65812
▁کلمبیا	-9.65812
▁عشق	-9.65842
▁محرومیت	-9.6587
▁نوسان	-9.65904
▁مستقل	-9.65933
اق	-9.66029
▁دسته	-9.66041
▁امیدواری	-9.66053
▁نمایندگی	-9.66187
▁ز	-9.66219
▁شانس	-9.6622
▁کیو	-9.66268
▁تب	-9.66287
▁سری	-9.66469
▁بودم	-9.66558
▁علم	-9.66569
▁محمدی	-9.66579
▁یافتن	-9.6663
▁نوروزی	-9.66899
همزمان	-9.66906
بنابر	-9.66931
بانک	-9.66934
▁بازرس	-9.66935
▁ابر	-9.66937
▁هرچ	-9.66973
▁راحت	-9.66997
واع	-9.67231
▁طلب	-9.67247
شورای	-9.67362
▁آفریقای	-9.67577
▁سفرهای	-9.67613
▁آمدن	-9.67619
▁کیلومتری	-9.67721
▁امضای	-9.67785
شدید	-9.67901
▁سرد	-9.68028
▁اظهار	-9.68048
▁تحلیل	-9.6806
▁دهنده	-9.68087
▁رویداد	-9.68115
▁۶۰۰	-9.68145
▁رویا	-9.68169
▁گرنداسلم	-9.68176
▁پرچم	-9.68176
▁ردیف	-9.68204
▁فیسبوک	-9.68224
▁خلاف	-9.68233
▁لحا	-9.68246
▁خطاب	-9.68263
▁لستر	-9.6831
▁باغ	-9.68335
▁دانشجویان	-9.68337
▁مهاجرت	-9.6834
▁نفوذ	-9.68349
▁کارزار	-9.68365
▁منظور	-9.68443
▁ویدیوی	-9.68466
▁پیچیده	-9.68501
▁مسافرت	-9.68528
▁۳۳	-9.6853
▁زدند	-9.68692
▁هلند	-9.68752
▁مذهبی	-9.68756
▁گوشت	-9.68774
▁نیرو	-9.68801
ویز	-9.68851
▁مطلب	-9.68924
▁آنتونی	-9.68935
▁بیستم	-9.68979
▁تماشای	-9.69126
▁جوانان	-9.69183
▁بابا	-9.69371
▁ژاپنی	-9.69431
اگر	-9.69449
▁شرکتهای	-9.69567
▁بنیاد	-9.69766
▁خاصی	-9.6989
▁سا	-9.69962
▁ضرور	-9.70532
▁درمانی	-9.7054
▁ژرمن	-9.70615
▁کهکشان	-9.70615
▁اولویت	-9.70616
▁تنفس	-9.70616
▁تجدید	-9.70618
▁کجا	-9.70623
▁خمینی	-9.70636
▁وسیع	-9.70642
▁آسان	-9.70655
▁مقدار	-9.70659
▁سانسور	-9.70663
▁شواهد	-9.70664
▁اورتون	-9.70671
▁گشایش	-9.70696
▁امارات	-9.70699
▁نامزدهای	-9.70704
▁پاییز	-9.70704
▁مدرن	-9.70709
▁ملایی	-9.70738
▁پوشش	-9.70794
▁فراز	-9.70813
▁اینتر	-9.70818
▁اسماعیل	-9.70856
لا	-9.71056
▁زودتر	-9.71137
کا	-9.71202
گفته	-9.7129
چی	-9.71293
▁درحالی	-9.71375
قرار	-9.71444
▁صادقی	-9.71749
▁ماجرای	-9.7183
▁ششم	-9.71851
▁عمر	-9.71903
▁آسیای	-9.71939
▁امر	-9.7226
▁پدرش	-9.72941
غم	-9.72976
▁ثبات	-9.73115
▁عبارت	-9.73115
▁زهرا	-9.73115
▁هتل	-9.73123
▁کربن	-9.73124
▁فیوری	-9.73125
▁روغن	-9.73133
▁علائم	-9.73134
▁اقامت	-9.73143
▁نسخ	-9.73144
▁مقدمات	-9.73169
▁رمز	-9.73169
▁بنیان	-9.73188
▁تجهیزات	-9.73198
▁بخت	-9.73228
▁مرجان	-9.73232
▁یادآور	-9.73295
▁قله	-9.73308
سا	-9.7331
▁مرور	-9.7337
است	-9.73723
▁قول	-9.7379
▁رویدادهای	-9.73833
▁قضاییه	-9.73834
جسم	-9.73928
نظر	-9.73931
▁لبنان	-9.74022
▁قطب	-9.74112
▁حامی	-9.7421
▁اقلیم	-9.74263
▁مالیاتی	-9.74268
▁بازیگران	-9.74356
الب	-9.74399
▁سپرد	-9.74489
▁پاری	-9.74589
▁جر	-9.74606
▁بردن	-9.74807
▁زنند	-9.74885
▁روان	-9.74973
▁خودروسازی	-9.7505
مون	-9.75236
▁مع	-9.75254
▁موافق	-9.75424
▁نصب	-9.75679
▁ازبکستان	-9.7568
▁گروسی	-9.75683
▁متوالی	-9.75693
▁اندونزی	-9.75698
▁خطوط	-9.75702
▁شناور	-9.75716
▁شویم	-9.75717
▁نبرد	-9.75729
▁دستورالعمل	-9.75732
▁پاپ	-9.75789
▁مخاطبان	-9.75791
▁امشب	-9.75829
▁خواهم	-9.75836
▁مجازات	-9.75838
▁ذو	-9.75913
▁فولک	-9.75914
▁جم	-9.76038
▁۲۷	-9.76048
▁آرامش	-9.7606
▁جک	-9.76158
▁پیوسته	-9.76171
▁ایست	-9.7622
وا	-9.76229
▁تعطیلات	-9.76362
▁ماندن	-9.76519
▁یاران	-9.76985
▁اکثر	-9.77005
سعید	-9.77026
مت	-9.77192
کته	-9.77293
شرکت	-9.77342
▁دان	-9.77418
▁قوی	-9.7752
▁کالاها	-9.77535
وخیم	-9.77617
▁باد	-9.77632
احل	-9.77916
▁اسدی	-9.78005
▁ژنتیکی	-9.78181
▁مار	-9.78189
▁مج	-9.78217
سبب	-9.78225
▁کال	-9.78289
▁تل	-9.78297
▁نباشد	-9.7831
▁برگزید	-9.78311
▁انتظامی	-9.78311
▁بگذارد	-9.78315
▁کانون	-9.78319
▁باشیم	-9.7833
▁غافلگیر	-9.7833
▁مثال	-9.78367
▁سرنوشت	-9.78376
▁کیفیت	-9.78409
▁تدریج	-9.78435
▁اسناد	-9.78511
▁اندک	-9.78569
▁واقعا	-9.7858
▁فرمان	-9.78583
آی	-9.78593
▁یونان	-9.7862
▁عملا	-9.78631
▁امکانات	-9.78773
▁اصلا	-9.78835
▁اتهامات	-9.78954
▁۱۹۸	-9.79043
▁سازند	-9.79049
▁شاهین	-9.79062
وف	-9.79156
زاده	-9.79307
▁صادرکنند	-9.79363
▁کریمی	-9.79393
▁برون	-9.79447
رگن	-9.79579
▁درون	-9.7969
بنا	-9.79773
فاصله	-9.801
سه	-9.80147
خالت	-9.80415
▁میر	-9.80566
▁مدار	-9.80654
▁وال	-9.80717
اد	-9.8086
▁قدر	-9.80861
▁عطر	-9.80869
▁۴۴	-9.80926
▁معاصر	-9.81013
▁تعریف	-9.81013
▁نیمکت	-9.81023
▁خطیب	-9.81043
▁زاهد	-9.81044
▁بوکس	-9.81056
▁دفاعی	-9.81059
▁هفتاد	-9.81067
▁فرگوسن	-9.81082
▁حقیقت	-9.81087
▁قیمتها	-9.81099
▁سقف	-9.81103
▁معلوم	-9.81141
▁اور	-9.81142
▁سهامداران	-9.81168
▁ایفا	-9.81241
▁محکومیت	-9.81247
▁دهیم	-9.8125
▁مادرش	-9.81498
اکان	-9.81593
▁مناسبت	-9.81617
▁درد	-9.8167
▁محصول	-9.81671
▁فاز	-9.81696
ولی	-9.81713
▁طلای	-9.82064
شویی	-9.82115
رسان	-9.82263
▁خوان	-9.82295
▁خیر	-9.82318
قیمت	-9.82514
▁صادق	-9.82533
وزیر	-9.82559
▁سنا	-9.82647
▁هو	-9.83035
▁زیبای	-9.83161
رت	-9.83165
▁ابتلای	-9.83533
وقت	-9.83561
▁تاجیک	-9.83571
▁کارمند	-9.83576
▁بازدید	-9.83589
▁سرود	-9.83612
▁دیگران	-9.83662
▁دائم	-9.8369
▁تائید	-9.83791
▁منافع	-9.83791
▁مورینیو	-9.83791
▁احترام	-9.83792
▁واگن	-9.83792
▁اماکن	-9.83795
▁تراکتور	-9.83812
▁فریاد	-9.83812
▁بهشت	-9.83813
▁فراتر	-9.83817
▁عاص	-9.83822
▁لمس	-9.83849
▁حیوانات	-9.83872
▁کاوشگر	-9.83884
▁جانشین	-9.83895
▁کنفرانس	-9.83928
▁نمایشگاه	-9.83954
لر	-9.84039
▁سالم	-9.84069
▁شیش	-9.84089
طفی	-9.84143
قابل	-9.84239
▁مساوی	-9.84327
▁جاسوس	-9.8448
ابت	-9.84488
▁زیرا	-9.84686
▁نت	-9.84781
▁گزارشگر	-9.84872
▁آر	-9.8488
▁نود	-9.84996
▁مسئولین	-9.85033
دان	-9.85126
رد	-9.85483
▁درخشان	-9.85559
▁اص	-9.85637
▁ذهن	-9.85673
▁برند	-9.85732
▁ارد	-9.85813
۲۲	-9.8594
▁دانشمند	-9.86213
▁نامداری	-9.86238
▁پژوهشگر	-9.86275
▁فراوان	-9.86308
▁اقدامی	-9.86399
▁شهرها	-9.86399
▁محاسب	-9.86528
رز	-9.86643
▁مشروط	-9.86648
▁هیئت	-9.86648
▁کیلوگرم	-9.86649
▁بامیان	-9.86651
▁بخار	-9.8666
▁یادداشت	-9.86666
▁هافبک	-9.86669
▁تعرف	-9.86676
احض	-9.86689
▁هشتاد	-9.86722
▁اولسان	-9.86751
▁وستهم	-9.86755
▁خودکشی	-9.86765
▁مدارس	-9.86765
▁جواب	-9.86767
▁کریستیان	-9.86795
▁دیپلماتیک	-9.86818
▁رحمانی	-9.86847
▁انگار	-9.86851
▁برندگان	-9.86858
▁تبار	-9.86862
▁تایسون	-9.86871
▁فرماندار	-9.86887
▁منشا	-9.86936
▁هاشمی	-9.86962
▁فقر	-9.87039
▁طیف	-9.87052
▁قطعه	-9.87208
▁فرم	-9.87213
دا	-9.87215
▁جنسیت	-9.87448
▁بردند	-9.87459
ص	-9.87468
▁بیمه	-9.87528
▁اتفاقی	-9.87771
۵۰	-9.87886
▁قد	-9.8795
▁امین	-9.88019
▁جزیر	-9.88132
آمریکا	-9.88143
▁۳۸	-9.88147
حدود	-9.8815
▁نمای	-9.88203
تن	-9.88207
▁والی	-9.88248
باقر	-9.88253
▁عظیم	-9.88363
▁نیمی	-9.88373
▁رها	-9.88413
▁تماشا	-9.88434
▁برکنار	-9.88439
▁اجباری	-9.88569
▁هجوم	-9.88592
▁ویژ	-9.88647
تون	-9.88651
▁خ	-9.88781
مندان	-9.8895
فت	-9.89013
داران	-9.89112
▁رهبران	-9.89398
▁عام	-9.89427
▁مغزی	-9.89427
▁خراسان	-9.89589
▁پتروشیمی	-9.89589
▁آفتاب	-9.8959
▁مسجد	-9.8959
▁جایگزین	-9.8959
▁سلاح	-9.89591
▁خاطره	-9.89599
▁شرط	-9.89606
▁نفع	-9.89608
▁جنبش	-9.89641
اجع	-9.89642
▁بلژیک	-9.89649
▁تبعیض	-9.89649
▁هیجان	-9.89653
▁بلخ	-9.89668
▁نژادپرست	-9.89698
▁فاش	-9.89711
▁غار	-9.89724
▁کرمان	-9.89743
▁مدنی	-9.89746
▁راستا	-9.89767
▁۴۸	-9.89791
▁گذر	-9.89924
▁محمدجواد	-9.90049
▁فرو	-9.9005
▁ضرر	-9.90087
▁شتاب	-9.90097
▁خریدار	-9.901
▁وایل	-9.90151
کسی	-9.90162
▁عادل	-9.90298
یو	-9.90422
نیک	-9.90466
▁توجهی	-9.90584
▁طلبان	-9.90825
▁شیری	-9.90936
▁گمان	-9.90978
▁دلاری	-9.9105
▁مقال	-9.91104
▁جی	-9.91121
دل	-9.91148
نر	-9.91165
▁جسم	-9.91248
▁۰	-9.91248
▁گرد	-9.91277
وات	-9.91389
ریم	-9.91473
▁آنک	-9.91475
▁عفو	-9.91567
▁آمارها	-9.91613
▁منج	-9.91805
▁۷۵	-9.91829
امروز	-9.91961
▁عاشق	-9.92029
▁کام	-9.92298
فرین	-9.9236
▁فکری	-9.92391
▁قر	-9.92556
▁قایق	-9.92568
▁مطمئن	-9.92568
▁موقع	-9.92585
▁آذربایجان	-9.9262
▁اقلام	-9.9262
▁غیرمستقیم	-9.9262
▁قلع	-9.9262
▁نساجی	-9.9262
▁پیراهن	-9.9262
▁پیامدهای	-9.92622
▁آشکار	-9.92623
▁ترجیح	-9.92623
▁دانمارک	-9.92623
▁گشت	-9.92627
▁گورستان	-9.92628
▁سلول	-9.92629
▁پرفروش	-9.92631
▁قادر	-9.92633
▁زرد	-9.92641
▁ناکام	-9.92644
سل	-9.92646
▁پرتغال	-9.92682
▁پلاستیک	-9.92688
▁آتی	-9.92706
▁جسد	-9.92768
▁علنی	-9.92774
▁خاورمیانه	-9.92796
▁حافظ	-9.92811
▁آموزشی	-9.92812
▁آرایش	-9.92841
▁تجا	-9.92974
▁خوانندگ	-9.93015
▁شنیده	-9.93023
▁پوشید	-9.93031
▁جدایی	-9.93092
▁غلام	-9.93095
▁سپر	-9.93356
▁بودیم	-9.93469
▁گرا	-9.93573
▁درهای	-9.9387
▁پهلوی	-9.9389
▁خست	-9.93907
▁انت	-9.93939
▁نان	-9.93985
▁برایش	-9.94061
▁تپ	-9.94073
▁باخته	-9.94116
▁خواه	-9.94153
فر	-9.9424
▁دیوار	-9.94285
▁وست	-9.94416
سخنگوی	-9.94464
أ	-9.94532
▁خشک	-9.94812
▁کیم	-9.94855
صاف	-9.94892
ویس	-9.94915
▁لب	-9.94929
▁تنگ	-9.94984
▁شنا	-9.95018
امی	-9.95045
قب	-9.95142
وند	-9.95149
پی	-9.95188
▁صالح	-9.95213
فق	-9.95508
▁قلم	-9.95735
▁بغداد	-9.95745
▁خلاص	-9.95746
▁جستجو	-9.95747
▁بدهند	-9.95756
▁آدم	-9.9576
▁تبریز	-9.95761
▁حساس	-9.95767
▁دایک	-9.95769
▁پادتن	-9.9577
▁برگزیت	-9.95808
▁تکمیل	-9.95808
▁شوک	-9.95848
▁میناوند	-9.95878
▁۵۷	-9.95896
▁ظاهرا	-9.95977
▁کنگره	-9.95987
▁توماس	-9.96015
▁اسم	-9.96083
▁آزمایشگاه	-9.96092
▁سوالات	-9.96135
▁تحول	-9.96152
▁نیک	-9.96162
طی	-9.96224
▁پرده	-9.96266
▁تحلیلگر	-9.96273
▁اوبر	-9.96616
کی	-9.96642
▁سالن	-9.96886
▁۲۵۰	-9.97035
▁آگاه	-9.97079
▁یازدهم	-9.97288
جان	-9.97309
▁دوام	-9.97338
اوش	-9.97401
ذ	-9.97506
افزایش	-9.97693
بیش	-9.97701
▁نظریه	-9.97772
▁راز	-9.97773
حال	-9.97852
▁پو	-9.97869
▁مسال	-9.97915
▁۳۷	-9.97968
▁داری	-9.9801
▁رقص	-9.98083
▁ارزان	-9.98506
▁معترض	-9.98522
▁خاتمی	-9.98664
▁روب	-9.98787
بهار	-9.98804
تو	-9.98864
بین	-9.98897
▁کلاسیک	-9.98918
▁الکترونیک	-9.9897
▁فرآیند	-9.9897
▁معیشت	-9.9897
▁لذت	-9.98971
عوض	-9.98971
▁سرقت	-9.98972
▁پانصد	-9.98972
▁گوناگون	-9.98973
▁غزنی	-9.98975
نادیده	-9.98981
▁وسایل	-9.98987
▁بوندس	-9.98995
▁لوئی	-9.98997
▁۲۰۱۰	-9.99027
▁اسلم	-9.99031
▁تاثیرگذار	-9.9904
▁بیاید	-9.99112
۲۰۱۲	-9.99126
▁شکاف	-9.99203
▁ادعای	-9.99244
▁لیدز	-9.9925
▁شورو	-9.99251
▁ط	-9.99263
۱۹	-9.99278
▁گرند	-9.99317
▁استادیوم	-9.99342
▁رسانی	-9.99383
▁نگرفته	-9.99594
▁اطل	-9.99742
▁الکس	-9.99748
▁قدس	-9.99878
▁امان	-9.9998
یده	-10.0022
▁رفتند	-10.003
▁نابودی	-10.0073
یژن	-10.0073
▁تج	-10.0094
▁اسلام	-10.0108
▁سان	-10.0123
▁وحش	-10.0128
▁فتح	-10.0137
بسیاری	-10.0139
سکی	-10.0142
مجموعه	-10.0148
▁اهدا	-10.0154
▁اوکراین	-10.0159
▁قوا	-10.0168
اقات	-10.0169
▁درحال	-10.0173
نام	-10.0178
▁همای	-10.0189
▁شهری	-10.0201
▁روح	-10.0202
▁گنج	-10.0203
▁تردید	-10.0217
▁داغ	-10.023
▁الحاق	-10.023
▁خداحافظ	-10.023
▁هالیوود	-10.023
▁والیبال	-10.0231
▁مستمر	-10.0231
▁صمت	-10.0231
▁عمق	-10.0232
▁برانگیخت	-10.0232
▁برانگیز	-10.0232
▁بخصوص	-10.0232
▁نماز	-10.0233
▁نیروگاه	-10.0233
▁حیدر	-10.0234
▁تقس	-10.0234
▁طبری	-10.0235
▁مسلمان	-10.0236
▁دیگو	-10.0236
▁مص	-10.0237
▁فایزر	-10.0237
▁شیراز	-10.0238
▁ببرد	-10.0238
▁صند	-10.024
▁ارشاد	-10.0241
▁سرزمین	-10.0242
▁باشید	-10.0242
▁نمایشگر	-10.0244
▁کشد	-10.0244
▁تمایل	-10.0245
▁همجنس	-10.0257
▁نداشتند	-10.0264
▁سیل	-10.0264
▁اردو	-10.0271
▁عادت	-10.0277
آ	-10.0294
▁پیک	-10.0295
▁دانستند	-10.0295
▁حمید	-10.0299
▁کپ	-10.0305
▁سران	-10.031
▁بازرسان	-10.0311
▁مطل	-10.0319
▁تور	-10.0332
▁۶۵	-10.0336
▁تس	-10.0336
رویی	-10.0339
▁شیرین	-10.0343
▁فرستاد	-10.0365
رس	-10.0367
خره	-10.0369
▁گذراند	-10.0382
▁خودم	-10.039
▁نرسیده	-10.0395
وار	-10.0419
▁ص	-10.0446
▁رسیدند	-10.0448
▁هنرها	-10.0449
▁خیابانی	-10.0452
برخ	-10.0456
▁ریه	-10.0487
▁سالها	-10.0493
▁سفارش	-10.0501
▁۱۹۹	-10.0512
▁باران	-10.0518
▁تبلیغات	-10.0526
▁منتقد	-10.053
▁طوری	-10.053
▁کلا	-10.0539
▁شایع	-10.0549
▁کریست	-10.055
سر	-10.0551
▁فیلمساز	-10.0551
▁عم	-10.0552
گل	-10.0556
کم	-10.0562
یل	-10.0563
▁بازنشست	-10.0566
▁آنفلوآنزا	-10.0575
▁سامسونگ	-10.0575
▁قاضی	-10.0575
▁همیشگی	-10.0575
▁دوپینگ	-10.0575
▁محاکمه	-10.0575
▁مترجم	-10.0576
▁سلمان	-10.0576
▁بوشهر	-10.0577
▁بکشد	-10.0577
▁فرونشست	-10.0578
▁زوج	-10.0579
▁بزند	-10.0579
▁مقاومت	-10.0579
▁بورل	-10.058
▁اهداف	-10.0581
▁عراقچی	-10.0581
▁هیوندای	-10.0582
▁قدرتمند	-10.0583
▁۳۹	-10.0584
▁مدارک	-10.0584
▁واژ	-10.0586
▁پرورش	-10.0586
▁منچستریونایتد	-10.0587
▁پپ	-10.0595
▁۴۳	-10.0598
داشت	-10.0602
▁روسا	-10.0602
▁۴۹	-10.0609
▁محتوای	-10.0613
▁محافظت	-10.0619
طئ	-10.0623
▁جنبه	-10.0628
▁گوشی	-10.0632
یسم	-10.0633
▁منته	-10.0633
▁جیب	-10.0641
▁مطهری	-10.0643
▁خوردن	-10.0649
▁موش	-10.0661
▁سراسری	-10.0664
▁دارم	-10.0668
▁موضوعات	-10.0678
جه	-10.0682
▁بهایی	-10.0684
▁باند	-10.0693
▁بینند	-10.0694
باران	-10.0696
▁آزمایی	-10.0698
پل	-10.0699
▁فرزندان	-10.0701
حتی	-10.0724
▁سیار	-10.0732
نت	-10.0735
پنج	-10.0745
ممکن	-10.0749
۱۸	-10.0763
اده	-10.0795
یخ	-10.0802
رسمی	-10.0807
▁ساک	-10.0809
▁بهتری	-10.082
▁پیشگیری	-10.082
▁۱۳۵	-10.0831
▁اگر	-10.0843
▁۷۳	-10.0849
گانه	-10.0856
▁بدی	-10.0858
لاک	-10.0867
▁ویدیو	-10.0875
نواک	-10.0885
انا	-10.0917
▁تبلیغ	-10.092
▁ناراحت	-10.0921
▁مطالب	-10.0924
▁استراماچونی	-10.0932
▁تسلیحات	-10.0932
▁تگزاس	-10.0932
▁موظف	-10.0932
▁نتانیاهو	-10.0932
▁فلوریدا	-10.0932
▁نکنید	-10.0932
▁بعید	-10.0932
▁ناحیه	-10.0932
▁نوبخت	-10.0933
▁فردوسی	-10.0933
▁یوفا	-10.0933
▁سانتی	-10.0933
▁تظاهرات	-10.0934
▁مطبوعات	-10.0934
▁تلخ	-10.0935
▁۱۹۸۶	-10.0935
▁مصدومیت	-10.0935
هزار	-10.0937
▁سبز	-10.094
▁بیلسا	-10.094
▁خشم	-10.0942
▁وبسایت	-10.0944
▁غریب	-10.0945
نوبت	-10.0946
▁برخلاف	-10.0946
▁برج	-10.0949
▁مکرون	-10.0952
▁پیمان	-10.0956
بورن	-10.0971
▁افتد	-10.0985
▁یکم	-10.0993
▁جرم	-10.1
▁حلق	-10.1032
تکلیف	-10.1034
▁خاطرات	-10.1037
▁بدر	-10.104
▁سوئیسی	-10.1051
▁کارش	-10.1053
▁سین	-10.1062
▁فل	-10.1079
▁۹۶	-10.1084
▁فان	-10.1105
بخش	-10.1108
▁کهن	-10.1111
▁توانم	-10.1112
▁افشا	-10.1116
▁پیست	-10.1116
▁خواستند	-10.1118
▁۵۶	-10.1151
▁اقلیمی	-10.1151
▁روس	-10.1161
شده	-10.1167
▁موشکی	-10.1168
خالص	-10.1172
آزمایی	-10.1173
طبق	-10.1175
فیلم	-10.1175
▁روسی	-10.1191
جونز	-10.1198
لت	-10.1201
▁شریفی	-10.1206
▁افکن	-10.122
غان	-10.122
▁مهاجر	-10.1231
اینها	-10.1231
ران	-10.1233
▁۱۲۰	-10.126
▁نقد	-10.1263
▁ادعا	-10.1268
▁درخت	-10.1275
▁عملی	-10.1293
وت	-10.1294
▁سرباز	-10.1295
▁مخفی	-10.1296
▁مرزها	-10.1296
▁عروس	-10.1298
▁پیوند	-10.1299
▁ببینید	-10.1303
▁تأثیر	-10.1303
▁رضوی	-10.1303
▁شمخانی	-10.1303
▁قاجار	-10.1303
▁موبایل	-10.1303
▁طوفان	-10.1303
▁تعامل	-10.1303
▁ثمر	-10.1303
▁ناامن	-10.1303
▁تروریسم	-10.1303
▁کامیون	-10.1303
▁همسان	-10.1303
نیم	-10.1305
▁ویلموتس	-10.1305
▁ماراتن	-10.1306
▁خوک	-10.1306
▁دموکرات	-10.131
▁اشتغال	-10.131
▁متاسف	-10.1312
▁خرج	-10.1318
▁گوگل	-10.1318
▁کش	-10.1323
▁گردشگران	-10.1325
▁عبدالله	-10.1329
▁۹۵	-10.133
▁معمار	-10.1333
▁کاردن	-10.1334
▁نقدی	-10.1336
▁اصلاحات	-10.1337
التی	-10.1349
کر	-10.1352
▁هستم	-10.1352
▁اختلافات	-10.1356
▁کاربر	-10.1361
▁جدال	-10.1362
بادی	-10.1364
▁پرسش	-10.1375
▁مرزهای	-10.1385
▁مبنای	-10.1388
▁بومی	-10.1394
ناز	-10.1399
▁نزد	-10.14
▁راستی	-10.1404
رعه	-10.1424
▁مهمتر	-10.144
▁کنگ	-10.1446
▁وسی	-10.1461
▁ایام	-10.1465
▁دراز	-10.1493
▁شل	-10.1494
▁یازده	-10.151
▁شه	-10.1516
شهر	-10.1521
خواهی	-10.1527
▁دف	-10.1528
یرت	-10.1529
▁راند	-10.1529
▁یاری	-10.154
▁ارا	-10.1542
ضعیف	-10.1556
استفاده	-10.156
پلیس	-10.156
▁مور	-10.156
افغانستان	-10.1561
پیشتر	-10.1562
▁گمانه	-10.1576
شمار	-10.1577
جو	-10.1609
وش	-10.1621
▁تکان	-10.1624
▁آم	-10.1631
یاس	-10.1639
بری	-10.1646
▁گیاه	-10.165
▁محقق	-10.1655
کاری	-10.1661
▁آباد	-10.1664
▁مای	-10.1666
▁ماهوار	-10.1669
▁تاکسی	-10.1681
▁شعار	-10.1685
▁الانبیا	-10.1687
▁تحمیل	-10.1687
▁غربالگری	-10.1687
▁پروتئین	-10.1687
خصیص	-10.1687
▁خوراک	-10.1687
▁عذر	-10.1687
▁پرافتخار	-10.1687
▁تعدیل	-10.1687
▁تلفیق	-10.1687
▁افتتاح	-10.1688
▁یمانی	-10.1688
▁پردازد	-10.1689
▁فیلتر	-10.1689
▁ارتفاع	-10.169
▁برانکو	-10.1691
▁ویلیام	-10.1692
▁تبعات	-10.1693
▁شکنج	-10.1694
▁تعهد	-10.1694
▁پرندگان	-10.1694
▁گردن	-10.1695
▁ویلیامز	-10.1696
▁گور	-10.17
▁منوچ	-10.17
▁ودیعه	-10.1702
▁مزار	-10.1704
▁سناتور	-10.1707
▁آورند	-10.171
▁ایلنا	-10.1711
▁سرنشینان	-10.1711
▁هنگ	-10.1718
▁وسط	-10.1719
▁ویران	-10.1721
کننده	-10.1725
▁لحظات	-10.1725
▁فرید	-10.1732
▁همیلتون	-10.1736
▁محسن	-10.1738
راحل	-10.174
راه	-10.1756
▁پرسید	-10.1757
▁ایرانیان	-10.1765
▁پذیرفته	-10.1769
▁صورتی	-10.177
▁اهدای	-10.1771
▁ترور	-10.1774
خیلی	-10.178
▁۵۲	-10.1786
زکی	-10.1788
▁فدرال	-10.1795
تیپ	-10.1804
▁استعداد	-10.1808
لک	-10.1809
میم	-10.1818
▁هجومی	-10.1838
▁ویدئویی	-10.1864
▁راس	-10.1868
▁تاک	-10.188
▁حضورش	-10.1883
▁عزاداری	-10.1888
▁کاسته	-10.1892
▁جین	-10.1902
هالی	-10.1908
داوم	-10.1911
▁تف	-10.1919
عبدال	-10.1937
۱۴	-10.1937
▁فروشگاه	-10.1952
محمود	-10.1959
آنها	-10.1971
▁تخیل	-10.1974
▁آرای	-10.1987
▁پرند	-10.2007
▁معمولی	-10.2009
▁گروگان	-10.202
▁پانزده	-10.2031
آوری	-10.2034
قه	-10.2035
▁لیگا	-10.2038
▁دنی	-10.2042
ویژه	-10.206
▁محدودیتهای	-10.2062
▁سلطان	-10.2081
التهاب	-10.2082
▁۹۱	-10.2082
▁تخلف	-10.2086
▁انقراض	-10.2087
▁دبلیو	-10.2087
▁مشورت	-10.2087
▁اعزام	-10.2087
▁بلاروس	-10.2087
▁لاریجانی	-10.2087
▁موانع	-10.2087
▁منحصر	-10.2087
▁لالیگا	-10.2087
▁تدوین	-10.2087
▁لهستان	-10.2088
▁فلوید	-10.2088
▁بدانیم	-10.2089
▁فسیل	-10.2089
▁نیوزیلند	-10.209
▁نسب	-10.2091
▁نقص	-10.2091
▁راهبرد	-10.2092
▁سلف	-10.2092
▁خاموش	-10.2092
▁وانت	-10.2093
▁تسهیلات	-10.2095
▁ازای	-10.2103
▁کارلوس	-10.2104
▁محاسبات	-10.2105
▁بلیت	-10.2105
▁آنقدر	-10.2109
▁کشند	-10.2109
▁صلاح	-10.2111
▁آهنگساز	-10.2112
راضی	-10.2114
▁ربط	-10.2119
▁کیلو	-10.2125
گروه	-10.2126
▁آرامکو	-10.2129
▁گذاشتن	-10.2137
▁داشتم	-10.2142
▁زیان	-10.2148
▁آوردند	-10.2157
▁عقید	-10.2163
▁خودروها	-10.2169
▁استرالیایی	-10.2169
▁بروند	-10.2169
▁عموم	-10.2173
▁منار	-10.2179
▁تمرکز	-10.2203
▁پرهی	-10.2209
▁خشکی	-10.221
▁اشک	-10.2222
نیا	-10.2241
اج	-10.2242
▁قاطع	-10.2244
لند	-10.2247
▁اندیش	-10.225
▁رویای	-10.2254
▁پروان	-10.2265
▁کاس	-10.2272
▁گرایان	-10.228
▁فرش	-10.2282
ناف	-10.2285
▁سیف	-10.2298
▁رغ	-10.2318
▁مادری	-10.2328
واد	-10.2328
▁دیر	-10.2331
▁وق	-10.2333
لیگ	-10.2363
▁امن	-10.2365
▁۵۵	-10.2374
▁جرد	-10.2376
▁گم	-10.2379
امسال	-10.2381
ابی	-10.2382
▁سیزدهم	-10.239
▁باستانی	-10.2396
اری	-10.242
▁۷۷	-10.2437
پرو	-10.2453
▁رنج	-10.2453
▁قص	-10.2453
▁کوچکتر	-10.2463
▁احت	-10.2467
▁شور	-10.247
ارغ	-10.2471
▁تاب	-10.2478
▁یکصد	-10.2482
▁اقلی	-10.2486
وپن	-10.2487
▁حیوان	-10.2492
▁ثروت	-10.2496
▁حاکم	-10.2498
▁شاخ	-10.2499
خیص	-10.2504
▁انفرادی	-10.2504
▁جلسات	-10.2504
▁مازندران	-10.2504
▁بازگردد	-10.2504
▁پارالمپیک	-10.2504
▁یهودی	-10.2504
▁دهقان	-10.2504
▁دقایق	-10.2504
▁زلزله	-10.2504
▁اکسیژن	-10.2504
▁کریکت	-10.2504
▁اسپرت	-10.2505
▁قریب	-10.2505
▁نکند	-10.2505
▁بختیار	-10.2505
▁تلگرام	-10.2505
▁مقیم	-10.2506
▁اپلیکیشن	-10.2506
▁پوش	-10.2506
▁رمزارز	-10.2507
▁زنگنه	-10.2507
▁متقاضی	-10.2507
▁میلیاردها	-10.2508
▁استرازنکا	-10.2508
▁متناسب	-10.2509
▁شخص	-10.2512
▁عفونت	-10.2512
▁ترسیم	-10.2515
▁تخلفات	-10.2517
▁دایناسور	-10.252
▁متشک	-10.252
▁کمرنگ	-10.2522
▁منتف	-10.2525
▁ژنتیک	-10.2525
▁مح	-10.2525
▁فقیر	-10.2531
▁آیین	-10.2531
▁نوید	-10.2533
ارد	-10.2533
وفر	-10.2535
▁مطالعات	-10.2544
▁ضرورت	-10.2549
▁دهک	-10.2552
▁عطرساز	-10.2555
▁کمال	-10.2555
▁جوانی	-10.2568
▁ویکتور	-10.2569
▁گریز	-10.2569
▁پیکر	-10.2572
▁رساندن	-10.2573
▁تروی	-10.2583
▁خانوارهای	-10.2584
▁آوردن	-10.2584
▁نمکی	-10.2586
ونگ	-10.2586
▁عبدی	-10.2587
▁بازماند	-10.2592
▁عمران	-10.2594
▁وزرا	-10.2597
▁تروریستی	-10.2604
▁زور	-10.2622
زم	-10.2626
▁شاهزاد	-10.2631
▁اصطلاح	-10.2637
▁خبرهای	-10.267
▁مادران	-10.2677
▁هاوس	-10.268
▁محور	-10.2729
▁موسوی	-10.2731
▁حیاتی	-10.2749
▁لاش	-10.2751
▁دستگیری	-10.2765
نده	-10.2795
▁احس	-10.2802
▁پارسی	-10.2806
عباس	-10.281
شاخص	-10.2811
▁عبوری	-10.2811
کدام	-10.2813
شدت	-10.2828
گذاری	-10.2828
▁۱۳۸	-10.2834
غال	-10.2866
▁همکاران	-10.2872
▁کول	-10.2874
وریا	-10.2874
رداد	-10.2891
ناد	-10.2892
▁فضانورد	-10.2895
▁آگ	-10.2907
▁داروهای	-10.2908
▁مستق	-10.2911
▁خوشحال	-10.2921
زیگ	-10.2936
▁شی	-10.2937
▁استخدام	-10.2939
▁استراحت	-10.2939
▁تدابیر	-10.2939
▁رستوران	-10.2939
▁فلسفه	-10.2939
▁محوطه	-10.2939
▁همسایه	-10.2939
▁ذکر	-10.2939
▁مدیترانه	-10.2939
▁عضلا	-10.2939
▁برساند	-10.2939
▁بنیانگذار	-10.2939
▁رابرت	-10.2939
▁طنز	-10.2939
▁تایلند	-10.2939
▁ونیز	-10.2939
▁سایپا	-10.2939
▁پیشتاز	-10.2939
▁انبوه	-10.294
▁نشت	-10.294
▁خلاقیت	-10.294
▁سرگرم	-10.2942
▁قرص	-10.2943
▁اشرف	-10.2944
▁فلز	-10.2944
▁رمزارزها	-10.2945
▁علامت	-10.2945
موند	-10.2948
▁تالاب	-10.2949
▁ناجی	-10.295
▁جانسون	-10.2953
▁منچسترسیتی	-10.2954
▁مداوم	-10.2957
▁ریاض	-10.2962
▁کیهان	-10.2963
▁صرفا	-10.2964
▁پایدار	-10.297
بو	-10.2975
▁خواهی	-10.2976
▁کاوا	-10.2981
▁استخر	-10.2987
▁دستیابی	-10.2988
▁شا	-10.2998
▁۷۲	-10.2998
▁خواندن	-10.3005
▁خریداران	-10.3008
▁تقویم	-10.3016
▁وب	-10.305
▁مبادل	-10.3055
▁آبادی	-10.3069
▁۱۳۷	-10.3078
۳۱	-10.3084
خیم	-10.3085
ستون	-10.3093
▁بازیگری	-10.3115
▁ادا	-10.3124
گو	-10.3155
▁مهمان	-10.316
لحق	-10.316
▁وقفه	-10.3166
سو	-10.3169
▁ویل	-10.3184
روی	-10.319
۳۰	-10.3197
▁بمب	-10.3198
▁۳۶	-10.3245
ایب	-10.3247
عنوان	-10.3266
رقابت	-10.3266
حالا	-10.3279
▁تحری	-10.328
▁کرو	-10.3283
▁آیند	-10.3295
▁آندر	-10.3299
▁رحم	-10.3304
▁ات	-10.3315
▁تابلوی	-10.3316
▁دود	-10.3321
▁اسد	-10.3353
▁مشتری	-10.3354
بون	-10.3356
▁داستانی	-10.3361
خته	-10.3371
▁ریخت	-10.3373
▁اظهارنظر	-10.3374
▁فیلیپ	-10.3376
▁ماهها	-10.3376
ناک	-10.3383
▁مقرر	-10.3389
▁سحر	-10.3389
▁اشتراک	-10.3393
▁امتحان	-10.3393
▁بنگلادش	-10.3393
▁تخصص	-10.3393
▁پرطرفدار	-10.3393
▁زیارت	-10.3393
▁سکونت	-10.3393
▁روزگار	-10.3393
▁سئوال	-10.3394
▁ثامن	-10.3394
▁تماشاچی	-10.3394
▁مفهوم	-10.3394
▁غیاب	-10.3395
▁مصون	-10.3396
▁اکتشاف	-10.3397
▁طرز	-10.3397
شار	-10.34
▁پلاک	-10.3401
▁نادرست	-10.3402
▁ابعاد	-10.3403
▁عروسک	-10.3403
▁بشار	-10.3403
▁سادات	-10.3406
▁کیانوش	-10.3409
ختم	-10.341
▁کشاند	-10.341
ظیف	-10.3413
▁جنایت	-10.3414
▁۱۹۷	-10.3415
▁تای	-10.3418
▁هندی	-10.3424
▁ولز	-10.3424
▁دانم	-10.3426
▁ایرلند	-10.3427
▁گردند	-10.3429
▁احساسات	-10.343
▁آبادان	-10.3448
▁۶۷	-10.345
▁سربازان	-10.345
مرث	-10.3454
▁اعضا	-10.346
یحی	-10.3469
▁گروگانگیر	-10.3472
▁کاست	-10.3472
▁تبلیغاتی	-10.3474
▁اصول	-10.3475
▁ون	-10.3476
▁قند	-10.3478
۲۵	-10.3484
▁نسبتا	-10.3485
▁لیس	-10.3491
▁قض	-10.3503
نک	-10.3506
شید	-10.351
▁کنف	-10.3526
▁خدا	-10.3528
ماهی	-10.3528
▁ظهر	-10.3539
▁بوک	-10.3543
سن	-10.3555
لینی	-10.3555
سیویر	-10.3563
▁جهانگیری	-10.3563
▁شدیدتر	-10.3572
▁نوی	-10.3574
▁فراری	-10.3583
▁سم	-10.3583
▁عزیزی	-10.3585
▁شهردار	-10.3596
▁بستن	-10.3604
▁اوست	-10.3604
▁سراغ	-10.3615
▁وقف	-10.3633
▁صحن	-10.3644
▁علیر	-10.365
▁۶۲	-10.3654
▁دهان	-10.3658
کتب	-10.3658
▁برقی	-10.3696
▁طلایی	-10.3699
▁یکسال	-10.3701
▁سام	-10.3703
▁آلن	-10.3726
تمرکز	-10.3732
▁بدل	-10.3739
دانشمندان	-10.3741
ظهر	-10.3745
▁ثروتمند	-10.3757
▁۴۶	-10.3765
▁ناو	-10.3767
▁انبار	-10.3767
دورو	-10.3769
سم	-10.3771
تاپ	-10.3773
▁تند	-10.3778
گه	-10.3778
اولین	-10.378
خارجه	-10.3784
▁تون	-10.3796
▁مرس	-10.3814
▁۸۰۰	-10.382
▁رزم	-10.383
▁سید	-10.383
▁مند	-10.3843
▁اخطار	-10.3856
▁مست	-10.3856
▁مون	-10.3857
▁جالب	-10.3861
▁پالایش	-10.3868
▁تحقیر	-10.387
▁تعقیب	-10.387
▁مایکروسافت	-10.387
▁مرخص	-10.387
▁وقایع	-10.387
▁تفریح	-10.387
▁صنف	-10.387
▁نوشیدن	-10.387
▁مقصر	-10.387
▁متاثر	-10.387
▁مرجع	-10.387
▁ربات	-10.387
▁بگویم	-10.387
▁۱۹۹۰	-10.3871
▁کابین	-10.3871
▁تقدی	-10.3871
▁خوشنام	-10.3871
▁ساویز	-10.3871
▁ترانزیت	-10.3871
▁مصاد	-10.3873
▁اعتیاد	-10.3873
▁بامداد	-10.3873
▁مهرماه	-10.3874
▁ببینند	-10.3874
وطن	-10.3874
دگی	-10.3876
▁عصب	-10.3877
▁صبر	-10.3877
▁شریک	-10.3878
▁۲۰۰۳	-10.3879
▁دیدگاه	-10.3879
▁ستایش	-10.388
▁آشفت	-10.388
▁ابوال	-10.388
▁نیوک	-10.3883
▁ستارگان	-10.3885
▁طرفدار	-10.3886
▁تفاهم	-10.3886
▁شاگردان	-10.3886
▁تیرماه	-10.3888
▁اسپوت	-10.3895
▁برلین	-10.3895
▁اح	-10.39
▁لیور	-10.3907
▁شکار	-10.3907
هنورد	-10.3917
▁وحید	-10.3917
▁رم	-10.3918
▁نوزدهم	-10.3919
▁نجف	-10.392
▁قراردادش	-10.3921
▁سینماها	-10.3921
وریس	-10.3925
▁پراکند	-10.3926
▁دقت	-10.3932
▁بهرام	-10.3934
▁توفیق	-10.3935
▁دونده	-10.3936
▁جبه	-10.3938
کول	-10.3939
▁فراگیر	-10.3952
▁ساختار	-10.3953
▁صعودی	-10.3954
▁تابلو	-10.3958
▁قوس	-10.3963
▁شعب	-10.3965
▁کلام	-10.397
▁قدمت	-10.3972
▁داروها	-10.3976
▁گلزن	-10.3979
▁گفتگوی	-10.3983
▁فلیک	-10.3991
▁جانور	-10.3995
▁انتقادها	-10.3995
▁نامزدها	-10.4008
▁کشیدن	-10.4015
▁ور	-10.4017
▁استعفای	-10.4024
▁رادیویی	-10.4027
▁برزیلی	-10.4036
▁خالص	-10.4042
▁شمارش	-10.4042
▁لا	-10.4051
▁برکناری	-10.406
▁ماهیگیر	-10.4066
▁پولی	-10.4082
اع	-10.4091
▁شمسی	-10.4094
▁نرسید	-10.4095
▁زانو	-10.4103
کمیت	-10.4106
▁ساختن	-10.4117
▁نداد	-10.4119
▁سل	-10.4119
▁شناسان	-10.4125
▁سیام	-10.4136
زن	-10.4144
▁شانه	-10.4195
▁حدی	-10.4196
▁آگاهی	-10.4198
▁تش	-10.4203
برگ	-10.4209
▁همگ	-10.421
▁کشت	-10.4219
استقلال	-10.4242
احمد	-10.4245
▁داوطلب	-10.4246
رق	-10.4253
آمیز	-10.4254
▁ماز	-10.4289
راب	-10.4302
▁روستای	-10.4305
▁ناصر	-10.4312
▁رصد	-10.4313
نوایی	-10.4321
▁اختلا	-10.4334
▁کشی	-10.4335
شاه	-10.4344
حقق	-10.4355
نو	-10.4361
▁مخصوص	-10.4365
▁مگا	-10.4366
▁تجلیل	-10.437
▁منتخب	-10.437
▁اعتقاد	-10.437
▁نکنند	-10.437
▁لزوم	-10.437
▁راموس	-10.437
مالاریا	-10.437
▁برگردد	-10.437
▁مفید	-10.437
▁حرم	-10.437
▁کنسول	-10.437
▁پاکبان	-10.437
▁مسایل	-10.437
▁بندرعباس	-10.4371
صوفی	-10.4371
▁پشتیبان	-10.4371
▁۱۳۹۶	-10.4371
وداع	-10.4372
▁مخدر	-10.4373
▁مخابرات	-10.4373
▁مسکونی	-10.4373
▁جمال	-10.4374
▁رتکلیف	-10.4374
▁آرامگاه	-10.4375
▁متعهد	-10.4375
▁منزل	-10.4376
▁کشتار	-10.4376
▁بزنند	-10.4377
▁دادسرا	-10.438
▁تسلیم	-10.438
▁مرگبار	-10.4382
▁نظم	-10.4386
▁شایعات	-10.4388
▁اذ	-10.4392
▁آموزان	-10.4392
▁روبروست	-10.4395
▁رضایت	-10.4396
▁غالب	-10.4399
▁علاقمندان	-10.44
▁پیوستن	-10.4401
تلاف	-10.4402
مل	-10.4403
▁زنج	-10.4403
▁خشکسالی	-10.4407
▁سگ	-10.4408
▁وجه	-10.4411
▁موجودات	-10.4419
▁آرا	-10.442
تیک	-10.4423
▁نیافت	-10.4429
▁توضیحات	-10.4429
▁گیاهان	-10.443
▁۵۹	-10.446
▁حداد	-10.4469
▁بوش	-10.4473
▁ایستاد	-10.4474
▁تاریک	-10.448
▁ویلا	-10.4481
▁افکار	-10.4481
▁اوکراینی	-10.4482
▁سرو	-10.4484
▁آمدند	-10.4485
▁وا	-10.4492
▁کشم	-10.4493
اتب	-10.4513
▁نامدار	-10.4524
▁صالحی	-10.4526
▁نیما	-10.4552
دوف	-10.4566
▁گرفتار	-10.4577
▁انیس	-10.4614
▁پیر	-10.4617
▁زیبا	-10.4641
مجانی	-10.4647
پر	-10.4651
▁گرگ	-10.4669
▁شاعران	-10.4696
▁آمریکاست	-10.4698
▁۱۹۴	-10.4702
▁مرا	-10.471
رشاد	-10.4713
▁۶۴	-10.4716
▁کاغذ	-10.4724
▁خارا	-10.474
وجود	-10.4753
بعد	-10.4763
لیورپول	-10.4768
خانواده	-10.4768
باشگاه	-10.4768
▁گال	-10.4768
زی	-10.4772
▁هوادار	-10.4778
شاید	-10.478
▁افکاری	-10.4787
▁۳۵۰	-10.4792
رتر	-10.4795
انکن	-10.4797
▁نژادی	-10.4798
یمز	-10.4834
ساب	-10.4834
▁مامور	-10.4856
حص	-10.4857
▁لاری	-10.4859
فون	-10.4867
▁ابزار	-10.4873
▁سون	-10.4876
مپ	-10.4878
▁صح	-10.4883
▁دردسر	-10.4884
▁دورت	-10.4885
▁۹۰۰	-10.4896
▁دشت	-10.4896
▁قزاق	-10.4896
▁اصرار	-10.4896
▁ابتکار	-10.4896
▁زریاب	-10.4896
▁شلوغ	-10.4896
▁سعد	-10.4896
▁شارژ	-10.4896
▁تضمین	-10.4896
▁شوهر	-10.4897
▁زغال	-10.4897
▁لنون	-10.4897
▁بوق	-10.4897
▁اکسید	-10.4897
▁بلوچ	-10.4897
▁غرق	-10.4898
▁مقطع	-10.4898
▁درآورد	-10.4898
▁مارچ	-10.4899
▁سردبیر	-10.4899
▁دانشکد	-10.49
▁کووید۱۹	-10.49
▁کلینیک	-10.49
▁استراتژیک	-10.4901
نظرسنجی	-10.4901
▁شیلی	-10.4902
▁همرسان	-10.4904
▁چراغ	-10.4905
▁۱۳۶	-10.4905
▁تکنولوژی	-10.4907
▁صحیح	-10.4907
▁خلو	-10.4907
▁موازی	-10.4909
▁ایرج	-10.491
فاد	-10.491
▁مبادلات	-10.4911
▁مارتین	-10.4914
▁خالق	-10.4916
▁اریک	-10.4918
▁اندازد	-10.492
▁سیاستمداران	-10.4921
▁دارید	-10.4922
▁روبرت	-10.4925
بند	-10.4939
▁دشمنان	-10.4939
▁پوشاند	-10.494
▁شدم	-10.4941
▁رایج	-10.4944
▁کاظم	-10.495
▁یور	-10.4951
اول	-10.4953
▁ظه	-10.4953
چین	-10.4956
▁خواهر	-10.496
▁درختان	-10.4962
دور	-10.4974
▁مهل	-10.4983
▁قش	-10.4996
بویایی	-10.5005
▁گزارشگران	-10.5006
▁واسط	-10.5022
▁آقا	-10.5024
▁حکمتی	-10.5024
▁اپرا	-10.5026
▁مرگش	-10.503
▁مرتب	-10.5032
▁تار	-10.5035
▁نوشتن	-10.5043
سیا	-10.5046
خت	-10.5055
جایی	-10.5062
وارد	-10.5064
▁گفتگوها	-10.5071
▁ضعیف	-10.508
وب	-10.5088
▁نول	-10.5088
▁مهاجمان	-10.5094
▁مسیحی	-10.5096
عداد	-10.5097
▁شریف	-10.5098
▁لوان	-10.5104
▁حریفان	-10.511
عادل	-10.5111
▁باستان	-10.5112
▁شر	-10.5122
اش	-10.5125
▁قم	-10.5188
لوت	-10.5219
▁مز	-10.5227
▁کو	-10.523
زار	-10.523
▁گلو	-10.5258
▁کتی	-10.5258
▁هلی	-10.526
▁راک	-10.5261
▁بل	-10.5286
باتری	-10.5288
▁گرای	-10.53
▁سکت	-10.5304
واسط	-10.5321
پژوهشگران	-10.5323
اخیرا	-10.5323
اتحاد	-10.5325
معاون	-10.5328
قدس	-10.5329
▁تحقیقی	-10.533
▁استاین	-10.533
مدت	-10.5343
▁کا	-10.5352
امیر	-10.5363
زمان	-10.5364
▁تثب	-10.5369
▁حو	-10.538
خ	-10.5381
▁الزام	-10.5383
برنامه	-10.5387
▁دشمن	-10.5406
▁بازارها	-10.542
کینگ	-10.5422
مهدی	-10.5426
▁شرمن	-10.5439
▁مکرر	-10.5439
▁مقدم	-10.5441
▁اما	-10.5442
سپاری	-10.5447
▁صدم	-10.5448
رنج	-10.5449
▁دژپسند	-10.5451
▁صداوسیما	-10.5451
▁ولسوال	-10.5451
▁کارداشیان	-10.5451
▁فروپاشی	-10.5451
▁دریابندری	-10.5451
▁شباهت	-10.5451
▁بگوییم	-10.5451
▁بیفتد	-10.5451
▁نشیب	-10.5451
▁دروغ	-10.5451
▁روشنفکر	-10.5452
▁خفیف	-10.5452
ضعف	-10.5452
▁آسمایی	-10.5452
شیبا	-10.5452
▁نزول	-10.5452
▁اوباما	-10.5452
▁آشوری	-10.5452
▁ناچار	-10.5452
▁مولوی	-10.5452
▁مداخل	-10.5453
▁جابجا	-10.5453
▁قطار	-10.5453
▁کوهستان	-10.5454
ژانس	-10.5454
▁بگیریم	-10.5454
▁اخلال	-10.5454
جوبی	-10.5455
▁توجیه	-10.5455
▁اردوگاه	-10.5456
▁تعبیر	-10.5457
▁هشتگ	-10.5457
▁وصل	-10.5457
هدیه	-10.546
▁اسحاق	-10.5463
▁توخل	-10.5463
▁بلومبرگ	-10.5463
▁ایراد	-10.5463
▁یکسان	-10.5463
▁ترکمن	-10.5465
▁چوب	-10.5466
تراشه	-10.5467
عکس	-10.5469
▁کمپین	-10.5471
▁سکوت	-10.5471
▁پناهجویان	-10.5479
▁مسکو	-10.548
▁بجا	-10.548
آبادی	-10.5482
▁کیست	-10.5488
▁بقایای	-10.5492
▁تعجب	-10.5493
زاک	-10.5494
▁تقابل	-10.5502
مر	-10.5504
▁نیو	-10.5508
▁وزارتخانه	-10.5508
▁نداشتن	-10.551
▁افشار	-10.5515
▁بافت	-10.5519
▁صفحات	-10.5528
▁فیلمبردار	-10.5539
▁پیرو	-10.5545
▁طب	-10.5552
▁تیل	-10.5556
▁فوریت	-10.5564
▁نمادهای	-10.5565
▁خار	-10.5567
▁پناهندگ	-10.5568
بهم	-10.5568
اطم	-10.557
▁همکارانش	-10.557
▁وحشی	-10.5581
▁واحدها	-10.5584
▁جزیی	-10.5587
▁گار	-10.5595
▁وار	-10.5599
▁خودران	-10.5601
یون	-10.561
▁تورمی	-10.5614
▁ثروتمندتر	-10.5619
▁حاجی	-10.5623
▁تالا	-10.5624
▁منطق	-10.5625
خاطر	-10.5627
▁زخم	-10.5628
▁غ	-10.563
▁یافتند	-10.5633
▁روستا	-10.5634
▁نورد	-10.5635
▁جاست	-10.5641
▁ناآرامی	-10.5642
▁نای	-10.5646
▁زم	-10.5646
▁سختگیر	-10.5649
▁پیشرو	-10.5654
گفت	-10.5659
▁اسپ	-10.5662
▁سیزده	-10.5665
▁محدودیتها	-10.569
▁پسرش	-10.5693
▁بها	-10.5695
▁برادرش	-10.57
▁تصمیمات	-10.5712
▁جعل	-10.572
▁بلوک	-10.5722
مارک	-10.5732
نش	-10.5737
▁۱۹۳	-10.5745
▁ران	-10.5757
▁کما	-10.576
بانی	-10.5771
▁پائی	-10.5794
▁شهیدی	-10.5814
اف	-10.582
رود	-10.5836
بع	-10.5837
▁تام	-10.5872
قات	-10.5874
صورت	-10.5883
▁ژن	-10.5886
▁بیل	-10.5889
▁۴۱	-10.5891
نز	-10.5905
▁خرابکار	-10.5911
محققان	-10.5911
شیوع	-10.5916
▁بلو	-10.5917
خواهید	-10.5923
دادگاه	-10.5924
روج	-10.593
زده	-10.5939
▁یار	-10.594
▁ماری	-10.5946
درصد	-10.5954
▁جن	-10.5963
▁ری	-10.5982
▁انگشت	-10.5986
▁تلف	-10.5997
▁فرج	-10.6016
▁منصو	-10.6018
۱۱	-10.6024
▁مشت	-10.6037
▁لبخند	-10.6038
غذی	-10.604
▁آغداشلو	-10.604
▁بدخشان	-10.604
▁اپیدمی	-10.604
▁معدود	-10.604
▁بروکسل	-10.604
▁خسارات	-10.604
▁تتلو	-10.604
▁تأیید	-10.604
▁خزر	-10.604
گراندپری	-10.604
▁آموزگار	-10.604
▁خیانت	-10.604
فلاتو	-10.604
▁کانسپت	-10.604
▁منفجر	-10.604
▁آرشیو	-10.6041
▁بمانند	-10.6042
▁دماوند	-10.6042
▁مدرک	-10.6042
▁۱۳۹۵	-10.6042
▁وفادار	-10.6042
▁ندارم	-10.6043
▁مواضع	-10.6044
▁ایرباس	-10.6044
▁زحمت	-10.6045
▁۲۰۳۰	-10.6047
▁ناشناخت	-10.6048
▁پرآ	-10.6048
▁ارزشمند	-10.6048
▁ژوز	-10.6048
▁تسلیت	-10.6048
▁خرند	-10.605
▁اضطراب	-10.6052
▁مرتضی	-10.6052
▁جاشوا	-10.6053
▁داریوش	-10.6053
▁خرسند	-10.6053
▁زیستگاه	-10.6057
▁شوید	-10.6058
▁اسپی	-10.6062
▁شاپو	-10.6063
عی	-10.6068
▁گرایش	-10.6075
▁شناسند	-10.6076
▁برنز	-10.6082
▁سارا	-10.6089
▁همینطور	-10.6089
▁بران	-10.6093
▁دیپلمات	-10.6109
▁دهندگان	-10.6109
▁جوز	-10.6109
▁مهاجران	-10.6114
▁خواندند	-10.6119
▁پرتر	-10.612
بازی	-10.6126
▁عقل	-10.6154
▁سفی	-10.6156
▁۵۳	-10.6173
▁لخت	-10.6175
▁مغاز	-10.6175
▁هواپیماهای	-10.6177
▁انتقادات	-10.6181
بل	-10.6185
▁میز	-10.6192
▁کوبا	-10.62
فن	-10.6208
▁نروژ	-10.6208
▁استودیو	-10.6209
▁نی	-10.6223
▁دیدارهای	-10.6226
▁مسیرهای	-10.6228
▁کین	-10.6228
▁اسکو	-10.6239
مص	-10.6248
▁قراردادهای	-10.625
▁گرمای	-10.6251
▁اجبار	-10.6261
▁جنس	-10.6269
▁ببر	-10.6276
▁مکانی	-10.6282
▁اعتراضی	-10.6285
▁ژ	-10.6292
▁برگ	-10.6294
▁پروازها	-10.6297
▁پال	-10.6298
ریک	-10.6302
▁کلان	-10.6304
▁دارا	-10.631
▁استون	-10.6321
▁پالایشگاهی	-10.6324
▁خال	-10.6326
▁گانه	-10.6356
▁عالمی	-10.6357
▁۱۵۰۰	-10.637
▁ناب	-10.6381
▁گزارشها	-10.6382
کره	-10.6382
▁غم	-10.6393
▁کامپیوتری	-10.6406
▁سیر	-10.6427
▁خانواد	-10.6427
▁کیا	-10.6441
اژ	-10.6463
وایی	-10.6471
مدیر	-10.6481
▁دخترش	-10.6488
▁۹۳	-10.6495
ایح	-10.6495
دیگر	-10.65
قص	-10.6507
▁فین	-10.6522
▁فروشند	-10.6534
آنتونی	-10.6535
حمید	-10.6536
ناظر	-10.6536
انتظار	-10.6537
صندوق	-10.6537
مراسم	-10.6537
مرکز	-10.6537
چرا	-10.6545
▁نظرات	-10.6548
▁پستی	-10.6551
▁دوازده	-10.6555
▁نس	-10.6563
مانده	-10.6566
▁نهاده	-10.6567
▁گلزنی	-10.6568
▁سرف	-10.6572
وری	-10.6579
▁لق	-10.6584
▁ایمان	-10.6585
شک	-10.6586
۶۰	-10.6596
جانب	-10.6608
▁کت	-10.6609
تکب	-10.6624
▁پیمانکار	-10.6625
▁۱۹۰	-10.6627
سئول	-10.663
▁ملا	-10.6633
وان	-10.6637
▁سلام	-10.6646
گبا	-10.6647
▁مستع	-10.665
▁معیار	-10.6655
▁اعتراف	-10.6656
▁مکزیک	-10.6657
▁مأمور	-10.6659
▁زبا	-10.6661
▁مختل	-10.6664
▁آتالانتا	-10.6665
▁تورنتو	-10.6665
▁مکتوب	-10.6665
▁کمبریج	-10.6665
▁بیاورد	-10.6665
▁ارکستر	-10.6665
▁امیرشاهی	-10.6665
▁معارف	-10.6665
▁یونسکو	-10.6665
▁رفاه	-10.6665
▁گشود	-10.6665
▁خیال	-10.6665
▁ببیند	-10.6665
▁مطلوب	-10.6665
▁اعصاب	-10.6665
▁فخر	-10.6667
▁ضدحمل	-10.6668
▁باشم	-10.6668
▁۱۹۴۰	-10.6669
▁لامبورگینی	-10.6669
▁کریسمس	-10.6669
▁بکشند	-10.6669
▁عقرب	-10.667
▁آغوش	-10.667
▁زودهنگام	-10.667
▁تکنیک	-10.667
▁۱۹۷۰	-10.667
▁پراید	-10.6671
▁بدانند	-10.6671
▁۱۴۰	-10.6672
▁دم	-10.6672
▁استراتژی	-10.6672
▁درس	-10.6676
▁بوکسور	-10.6676
▁یادبود	-10.6678
▁ترافیک	-10.6678
▁دعوا	-10.6678
▁محکم	-10.6678
▁رولینگ	-10.6679
انصراف	-10.668
▁خند	-10.6687
▁انتقادهای	-10.6689
▁۲۰۰۴	-10.6693
▁۸۲	-10.6695
▁۴۷	-10.6698
▁چهاردهم	-10.6698
▁گرمایش	-10.6699
▁اپل	-10.67
▁بولت	-10.6702
▁کرام	-10.671
▁جست	-10.6713
▁خران	-10.6714
دندان	-10.6715
▁گرسنگ	-10.6717
▁بزرگتر	-10.672
صخره	-10.6728
▁مردگان	-10.6728
▁فرانک	-10.6734
▁رفتارهای	-10.6734
▁مغ	-10.6738
▁نوار	-10.6741
▁الیز	-10.6745
▁اوین	-10.6746
▁سازد	-10.6748
▁پاتر	-10.6755
▁اشیا	-10.6761
▁روزمر	-10.6763
وله	-10.6764
▁بازخوان	-10.6764
▁ضربات	-10.6767
راتی	-10.6778
نشین	-10.6779
▁قرض	-10.678
▁شانزدهم	-10.6785
▁خوا	-10.6789
رکاب	-10.6802
ایدو	-10.6811
▁بورگ	-10.6812
▁شادی	-10.6817
▁فال	-10.6822
▁کردستان	-10.6831
اقد	-10.6844
▁مهندس	-10.6846
▁همانند	-10.6846
▁شیمی	-10.6862
▁ریزش	-10.6866
▁مقر	-10.6868
کسین	-10.6873
▁ناامید	-10.6874
▁۷۴	-10.6893
۱۵	-10.6894
▁شهید	-10.6914
▁منصور	-10.6923
▁۶۸	-10.6928
هام	-10.6929
▁ادب	-10.6929
▁ار	-10.6936
▁بشری	-10.6941
لم	-10.6948
▁انجامید	-10.6949
شیر	-10.6951
▁شبه	-10.6956
گیر	-10.6966
یویا	-10.6979
▁آفرین	-10.6985
ندگان	-10.7001
▁۱۳۹	-10.7002
۲۳	-10.7004
▁رس	-10.7018
▁دانشجویی	-10.7021
▁نمود	-10.7025
دترا	-10.703
تری	-10.7047
لای	-10.7053
لس	-10.7054
▁خطای	-10.7058
نصف	-10.7059
پای	-10.7064
▁برگشته	-10.7068
▁قطبی	-10.7069
۷۰	-10.707
رشو	-10.7075
▁منصوری	-10.7091
▁مالکان	-10.7107
صف	-10.7111
▁قف	-10.7112
▁بینیم	-10.7117
▁قومی	-10.713
▁برف	-10.7138
▁خریده	-10.7138
▁۱۷۶	-10.7138
کوبی	-10.7149
▁ماس	-10.7151
▁۵۴	-10.7185
سیلوا	-10.719
▁نیا	-10.7194
خواهد	-10.7195
منابع	-10.7203
فدرر	-10.7203
نمایندگان	-10.7205
علاو	-10.7205
هدف	-10.7208
علیرضا	-10.7209
دهنده	-10.7211
▁سطو	-10.7211
▁روستایی	-10.7223
▁۵۸	-10.7224
▁کوب	-10.7224
الکس	-10.7235
رهبر	-10.7236
▁درخش	-10.7243
رینگ	-10.7267
رخ	-10.7268
▁بارور	-10.7271
لپ	-10.7277
تاسف	-10.7286
▁اکس	-10.7298
▁۷۸	-10.7298
ساسی	-10.7301
▁خم	-10.7311
▁تیک	-10.7311
تیکو	-10.7312
▁خانوار	-10.7314
▁کمربند	-10.7318
▁دستاورد	-10.7319
اثبات	-10.7322
ابق	-10.7327
▁سامان	-10.7329
▁باورنکردنی	-10.7331
▁فزاینده	-10.7331
▁ناقض	-10.7331
▁واضح	-10.7331
▁وحدت	-10.7331
▁پیرامون	-10.7331
▁محترم	-10.7331
▁گلمکانی	-10.7331
▁مضاعف	-10.7331
▁بفتا	-10.7331
▁ورشکست	-10.7331
▁نیسان	-10.7331
▁دادگستری	-10.7331
▁عواقب	-10.7332
▁آویو	-10.7332
▁زیرساخت	-10.7332
▁سوگوار	-10.7332
▁آوازخوان	-10.7332
▁چرب	-10.7332
▁بگیرید	-10.7333
▁ویرجی	-10.7333
▁بپردازد	-10.7333
▁بگذارند	-10.7333
▁آشام	-10.7333
▁مصلحت	-10.7334
▁عارف	-10.7335
مانع	-10.7335
▁۱۹۸۰	-10.7335
▁پارس	-10.7336
▁احکام	-10.7336
▁ناتوان	-10.7336
▁سایبری	-10.7336
▁انستیتو	-10.7336
▁تلسکوپ	-10.7336
▁سنبل	-10.7336
▁اخلاق	-10.7337
▁بردارد	-10.7337
▁۱۹۹۸	-10.7337
▁رسول	-10.7338
▁الحسن	-10.7339
▁هستید	-10.7339
▁نارس	-10.7339
▁الکل	-10.734
مرگ	-10.734
▁پیچ	-10.7342
▁استونز	-10.7342
▁حاد	-10.7342
▁حساسیت	-10.7344
▁دستاوردهای	-10.7344
▁ضایع	-10.7345
▁ذی	-10.7346
▁پررنگ	-10.7348
▁حتما	-10.7348
کرد	-10.7348
فا	-10.7349
▁متنوع	-10.735
▁جهاد	-10.735
▁فیس	-10.7351
▁حباب	-10.7354
▁وجو	-10.7356
▁دهید	-10.7357
▁صفرها	-10.7362
▁نکات	-10.7365
▁سوئ	-10.7366
گن	-10.7367
▁آنتی	-10.7371
▁رانت	-10.7381
▁نکردند	-10.7382
مع	-10.7384
▁کیفر	-10.7385
▁ماریا	-10.7386
▁سانتریفیوژهای	-10.7387
▁روال	-10.7389
یسون	-10.7391
دخت	-10.7398
▁نوآور	-10.74
شتم	-10.7402
▁زنجان	-10.7403
▁فضانوردان	-10.7403
▁آرش	-10.7406
▁پاهای	-10.7411
طرف	-10.7418
اسل	-10.742
▁رساندند	-10.7427
سیتی	-10.7431
▁رضایی	-10.7436
▁بوئنو	-10.744
غه	-10.7461
▁رز	-10.7464
▁انتقالات	-10.747
یع	-10.7474
▁جاهای	-10.7478
▁داشتیم	-10.7482
▁پلی	-10.7492
▁کاریر	-10.7496
واک	-10.7509
عان	-10.7511
▁داو	-10.7513
برید	-10.7515
▁هل	-10.7519
▁کامپیوتر	-10.7524
شنگ	-10.7528
زنی	-10.7537
▁۹۴	-10.7538
▁اراد	-10.7541
▁جف	-10.7547
پا	-10.7556
▁پستان	-10.7568
▁تابو	-10.7571
▁مدتها	-10.7575
ایل	-10.7577
نزا	-10.7582
▁فیل	-10.7582
▁بنیادی	-10.7594
آمار	-10.7595
▁کیت	-10.7601
▁رنجر	-10.761
الله	-10.7614
▁بریت	-10.7615
▁صادراتی	-10.762
میر	-10.762
▁فرض	-10.7621
▁۱۹۵	-10.7622
یف	-10.7625
▁درخشانی	-10.7642
▁استیون	-10.7649
▁جلالی	-10.7649
▁آرزوی	-10.765
▁پار	-10.7666
▁بدین	-10.7678
▁کودتای	-10.768
▁بارداری	-10.7691
▁کارگردانان	-10.7696
▁بس	-10.7702
یچ	-10.7735
زیه	-10.7751
▁کوس	-10.7753
دین	-10.7783
بینی	-10.7783
۶۳	-10.7787
▁خر	-10.7788
وهان	-10.7793
رسون	-10.7804
▁عکسی	-10.782
▁مقا	-10.7831
▁منظر	-10.7839
سابقه	-10.7841
▁گرفتم	-10.7861
۲۰	-10.7866
ویل	-10.7879
▁تاریکی	-10.7899
▁هرکس	-10.79
گفتگو	-10.7902
ملو	-10.7903
▁رش	-10.7908
پاتی	-10.791
▁پرسی	-10.791
مارادونا	-10.7917
راجر	-10.7918
مجلس	-10.7918
تولید	-10.7918
اقتصاد	-10.792
کاهش	-10.792
نج	-10.7929
فعالان	-10.7929
اشا	-10.7932
وکی	-10.7934
▁بودا	-10.795
شته	-10.7957
۱۳	-10.7962
همه	-10.7975
گا	-10.7978
▁شاپ	-10.799
▁همتای	-10.7998
تنها	-10.7999
وازه	-10.8002
▁شنیدن	-10.8005
آخری	-10.8006
مایک	-10.8007
مار	-10.8007
▁برداشتن	-10.8007
▁سرنشین	-10.8012
▁گوگ	-10.8019
▁محا	-10.8022
▁بانکها	-10.8031
▁کولبر	-10.8034
ویچ	-10.8035
▁شاهکار	-10.8037
▁پناه	-10.8037
▁خراب	-10.804
هادی	-10.804
▁نویسندگ	-10.8041
زاب	-10.8043
▁مشکات	-10.8044
مکعب	-10.8044
▁اتوبوس	-10.8046
▁برآمد	-10.8046
▁بوچانی	-10.8046
▁تخفیف	-10.8046
▁جامائیکا	-10.8046
▁دگرگون	-10.8046
▁زاناردی	-10.8046
▁سرتاسر	-10.8046
▁غرامت	-10.8046
▁مشکوک	-10.8046
▁پلامر	-10.8046
▁ندانست	-10.8046
▁ببینیم	-10.8046
▁کادرفنی	-10.8046
▁وروورت	-10.8046
▁ثانوی	-10.8046
▁آسوشیتدپرس	-10.8046
▁آمبول	-10.8046
▁استعمار	-10.8046
▁بیروت	-10.8046
▁نوازنده	-10.8046
▁تبادل	-10.8046
▁توفان	-10.8046
▁کرمانشاه	-10.8046
▁تمدن	-10.8047
▁قبال	-10.8047
▁اعتنا	-10.8047
▁قائدی	-10.8047
▁پنگوئن	-10.8047
▁محض	-10.8047
▁رولز	-10.8047
▁گلایه	-10.8047
فینیتی	-10.8047
▁تبعید	-10.8047
▁سارس	-10.8047
▁عزم	-10.8048
▁ابهام	-10.8048
▁استفانو	-10.8048
▁تعمیر	-10.8049
▁سالیوان	-10.8049
▁معافیت	-10.805
▁طعم	-10.805
▁غیرنظامی	-10.8051
کیو	-10.8052
▁تندرو	-10.8053
▁مرکل	-10.8053
▁حاکمیت	-10.8056
▁سلطانی	-10.8057
▁شیع	-10.8057
▁تشری	-10.8058
▁ارگ	-10.8059
▁انصاریان	-10.8061
▁۱۹۶۰	-10.8063
▁پرستاران	-10.8063
▁گودال	-10.8064
▁تدری	-10.8065
▁۱۳۴	-10.8071
▁میهمان	-10.8076
▁آرمان	-10.8077
▁پویا	-10.8077
▁لاپورتا	-10.808
▁کاربرد	-10.8083
▁بالگرد	-10.8087
▁ادارات	-10.8089
▁حفر	-10.8089
▁میلیاردر	-10.809
▁مواقع	-10.8092
فصل	-10.8093
▁ماهشهر	-10.8093
▁کلور	-10.8094
▁کان	-10.8098
▁کانادایی	-10.81
▁مستقیما	-10.81
▁صریح	-10.81
نکور	-10.8102
انس	-10.8105
▁معوقه	-10.8111
▁پستاندار	-10.8113
▁کرج	-10.8115
▁ساترا	-10.8117
تنوع	-10.8118
▁عج	-10.8118
▁ریچارد	-10.8121
▁الی	-10.8123
▁رایزن	-10.8128
▁ندیده	-10.813
لوب	-10.8134
▁شرم	-10.8136
▁گیل	-10.814
▁گذاشتند	-10.814
▁دنیاست	-10.8143
▁اکبری	-10.8146
▁نکردن	-10.8151
حق	-10.8156
▁گازی	-10.8165
▁لیست	-10.8166
▁دوازدهم	-10.8179
▁پانزدهم	-10.8179
▁افتادن	-10.8181
هرانا	-10.8181
شد	-10.8182
۹۱	-10.8184
▁نمانده	-10.8192
▁نزدیکان	-10.8198
▁صدد	-10.8212
▁رخت	-10.8216
ناب	-10.8222
▁نرفت	-10.8223
▁قطعات	-10.8232
خبر	-10.8232
▁لوو	-10.8254
امضاکنندگان	-10.8256
▁الگوی	-10.8256
▁فضلی	-10.8257
لاله	-10.8257
▁بینید	-10.8258
▁چیزهای	-10.826
رشد	-10.8261
▁جنگند	-10.8269
کید	-10.8279
▁رسم	-10.8283
▁ایکس	-10.829
لور	-10.8296
▁اکر	-10.8303
خورده	-10.8306
▁ایر	-10.8314
▁ذهنی	-10.8314
باب	-10.8316
▁کنو	-10.8318
عارض	-10.8325
▁گرین	-10.835
▁معنا	-10.8357
▁زایی	-10.8358
▁فروشی	-10.836
▁صاف	-10.836
▁گردشگر	-10.8362
گاهی	-10.8363
▁افسر	-10.8377
اکثریت	-10.8402
▁میلاد	-10.8407
▁نیل	-10.8407
▁چار	-10.8415
▁نابود	-10.8426
شنا	-10.846
▁گذراندن	-10.8467
▁خوانی	-10.8472
▁رکوردهای	-10.8492
▁بلی	-10.8538
▁فردین	-10.8539
▁بهانه	-10.8563
ژه	-10.8566
شماری	-10.8582
▁عمو	-10.8586
چهار	-10.8587
▁انتها	-10.8591
▁شع	-10.8608
صره	-10.8639
شر	-10.8644
▁دربار	-10.867
تحول	-10.867
پذیر	-10.8671
▁شانزده	-10.8672
قرض	-10.8683
ویش	-10.8686
پرسپولیس	-10.8687
آغاز	-10.8687
واکنش	-10.8687
چلسی	-10.8688
گیل	-10.869
فرج	-10.8691
بست	-10.8719
ترا	-10.8723
▁نیاورد	-10.8723
سرعت	-10.8727
▁درام	-10.8728
▁دانشجوی	-10.8735
▁خودروی	-10.8748
ژی	-10.8752
▁۱۶۰	-10.8755
▁کوم	-10.8757
یلیون	-10.8757
▁۸۳	-10.8774
▁انوش	-10.8798
▁رخداد	-10.8799
▁پهپاد	-10.88
▁مشوق	-10.88
▁مکاتب	-10.8803
▁ژنو	-10.8804
▁فیروز	-10.8805
▁مخلو	-10.8805
▁مصدوم	-10.8809
▁وای	-10.8812
▁اسرار	-10.8815
دغدغه	-10.8815
▁آشپز	-10.8815
▁اتیوپی	-10.8815
▁تصاحب	-10.8815
▁خنثی	-10.8815
▁رستگار	-10.8815
▁شیکاگو	-10.8815
▁لاجورد	-10.8815
▁ملاحظ	-10.8815
▁رمضان	-10.8815
▁بوزمن	-10.8815
▁سانتیمتر	-10.8815
▁مسوول	-10.8815
▁معالج	-10.8815
▁جرایم	-10.8815
▁اختراع	-10.8815
▁مونتاژ	-10.8815
▁مینیاتور	-10.8815
▁خادم	-10.8815
▁ماندگار	-10.8815
▁مسموم	-10.8815
▁ارجاع	-10.8815
▁زائر	-10.8815
▁بازنگری	-10.8815
▁زهره	-10.8815
▁نعمت	-10.8815
▁خرچنگ	-10.8815
▁طارمی	-10.8815
▁ندهد	-10.8815
▁واریز	-10.8815
▁عثمان	-10.8815
▁فتاح	-10.8815
▁مسافت	-10.8816
▁مثلث	-10.8816
▁مکلف	-10.8816
▁خدایاری	-10.8816
▁کلاهبردار	-10.8816
▁یوگا	-10.8816
▁خرس	-10.8817
▁ژاک	-10.8817
▁احتیاط	-10.8817
▁کولمن	-10.8817
▁بهبهان	-10.8818
▁لرز	-10.8818
▁توریست	-10.8818
▁تبع	-10.8821
▁زیدان	-10.8821
▁آنفیلد	-10.8822
▁ناپدید	-10.8822
▁کانری	-10.8823
ستانگ	-10.8823
▁بوئین	-10.8823
▁فروغ	-10.8823
▁پالاس	-10.8824
▁اعطا	-10.8824
▁والدین	-10.8825
▁پایبند	-10.8825
▁ایا	-10.8826
▁نیکلا	-10.8826
▁قائم	-10.8827
▁هرمز	-10.883
▁مبالغ	-10.8831
▁ببرند	-10.8831
▁خوشبخت	-10.8831
▁سیارک	-10.8831
▁اقتصاددان	-10.8833
سلط	-10.8834
▁بازنشستگی	-10.8834
▁جغرافیای	-10.8834
▁نامگذاری	-10.8835
▁تیتر	-10.8836
▁شوش	-10.8838
▁امریکا	-10.8846
▁معاش	-10.885
▁حضرت	-10.8853
ینز	-10.8854
▁مبا	-10.8858
خوان	-10.8866
▁پیتر	-10.8867
▁برعکس	-10.8868
سوس	-10.8868
▁غفوری	-10.8868
▁شناسد	-10.8871
ابلو	-10.8874
▁رانندگی	-10.8875
▁عاشقانه	-10.888
▁هالپ	-10.888
پرها	-10.8881
▁شغلی	-10.8885
▁شام	-10.8886
▁مستندساز	-10.8887
▁خلیل	-10.8888
▁هجدهم	-10.8889
▁اعظم	-10.8894
▁سالیانه	-10.8898
▁نیش	-10.8899
▁گلوب	-10.8905
▁گذارند	-10.8906
▁رویس	-10.8907
▁باختند	-10.8913
احی	-10.8915
▁مال	-10.892
▁نداشتم	-10.8921
▁هکرها	-10.8926
▁مصل	-10.8932
▁ژو	-10.8939
کت	-10.894
▁نگر	-10.8954
▁یوو	-10.8967
▁یگان	-10.8977
▁بقای	-10.8978
۹۹	-10.8983
▁نوشتند	-10.8988
▁فول	-10.899
▁مضر	-10.899
▁هفدهم	-10.8994
سفر	-10.8995
▁۶۱	-10.901
مز	-10.9011
▁ریل	-10.9016
▁حفا	-10.9027
▁وظایف	-10.903
▁ابلاغی	-10.9032
رالله	-10.9036
▁پرت	-10.9053
▁بروم	-10.9055
مسی	-10.9065
پتون	-10.907
▁احمدشا	-10.9081
جن	-10.9109
▁تاکتیکی	-10.9115
یانت	-10.9122
▁گره	-10.9125
▁تم	-10.9137
▁دادم	-10.9147
▁درز	-10.9157
▁شجاع	-10.9171
رمد	-10.9193
▁نق	-10.9194
▁بون	-10.9196
▁همکار	-10.9208
زا	-10.9209
عشی	-10.9219
لف	-10.9223
▁دانشجو	-10.9225
▁کودتا	-10.9225
▁عالم	-10.9227
▁۵۱	-10.9232
تواند	-10.9244
لقی	-10.9249
▁ادوارد	-10.9251
بدا	-10.9269
▁مندان	-10.927
بالغ	-10.9274
▁درج	-10.9275
دم	-10.9275
▁دا	-10.9277
▁بگیر	-10.9282
▁کالای	-10.9296
▁نوین	-10.9296
▁تعهداتش	-10.9299
گراد	-10.9303
▁فای	-10.9306
ورا	-10.9306
▁جولی	-10.9311
لمپ	-10.9316
اگ	-10.9318
▁احساسی	-10.932
▁ردیاب	-10.9328
▁فرهنگیان	-10.9337
افت	-10.935
۴۶	-10.9352
▁میلو	-10.9355
▁عزیزان	-10.9406
۴۰	-10.9414
▁پاکستانی	-10.9425
▁گویی	-10.9447
لاق	-10.9455
خواست	-10.9461
▁آثارش	-10.9464
▁زو	-10.9467
▁اعما	-10.9475
برگزار	-10.9477
▁میرزا	-10.948
▁آشنای	-10.9481
▁میکل	-10.9481
▁قبر	-10.9504
▁۷۶	-10.9507
فشار	-10.9507
▁ریالی	-10.9511
سلیم	-10.9513
غلام	-10.9518
کانادا	-10.9519
محمدجواد	-10.9519
رافائل	-10.952
▁بارز	-10.952
(	-10.952
دونالد	-10.952
ویکتور	-10.952
تلاش	-10.9528
تهران	-10.9529
دام	-10.9532
صدایی	-10.9533
▁بله	-10.9533
جمعیت	-10.9538
▁قرمزها	-10.9546
مسئولان	-10.9551
کرونا	-10.9554
▁۸۵	-10.9556
▁کنیا	-10.9559
ویک	-10.9565
▁انتخابی	-10.9567
▁گفتگوهای	-10.9569
واقع	-10.9573
▁آندری	-10.9578
▁اد	-10.9586
کسر	-10.9588
▁متحدان	-10.9592
▁عرف	-10.9602
▁علاقمند	-10.9602
مادر	-10.9603
▁خشن	-10.9613
ادی	-10.9613
▁بور	-10.9618
▁گارد	-10.9628
▁سانتریفیوژ	-10.9628
▁پسرم	-10.9634
▁۱۷۰	-10.9635
گرا	-10.9637
▁بوفالو	-10.9638
▁اشکال	-10.964
▁تخل	-10.9643
▁غل	-10.9647
▁اقتدار	-10.9648
▁آلومینیوم	-10.9648
▁بفروشد	-10.9648
▁تفسیر	-10.9648
▁دانچیچ	-10.9648
▁مستاجر	-10.9648
▁مظنون	-10.9648
▁پومپئو	-10.9648
▁چرنکوف	-10.9648
خاذ	-10.9648
▁امواج	-10.9648
▁مصیبت	-10.9648
▁جاذبه	-10.9648
▁فطر	-10.9648
▁البرز	-10.9648
▁تکامل	-10.9648
▁گاگا	-10.9648
▁مرضیه	-10.9648
▁فحش	-10.9648
▁وحشتناک	-10.9648
▁هواشناسی	-10.9649
گشاد	-10.9649
▁نیجر	-10.9649
▁گیگز	-10.9649
▁الماس	-10.9649
▁فرسایش	-10.9649
▁آپارتمان	-10.9649
▁مجاهد	-10.9649
▁شرکا	-10.9649
▁عنصر	-10.9649
▁علوی	-10.965
▁جلد	-10.965
▁شفا	-10.965
▁منظم	-10.965
▁فشرد	-10.965
▁فرایند	-10.9651
▁علایم	-10.9651
▁تایتان	-10.9651
▁رژیم	-10.9652
▁گواهی	-10.9653
▁ویزا	-10.9653
▁وودز	-10.9654
▁پاسخگو	-10.9654
▁پیشکسوت	-10.9654
ائیل	-10.9654
▁ژیمناست	-10.9655
▁جونیور	-10.9655
▁گابریل	-10.9655
▁ایسلند	-10.9655
▁سازوکار	-10.9655
▁اشعار	-10.9655
▁ماشه	-10.9655
▁فجر	-10.9655
▁عسل	-10.9655
▁کارگزار	-10.9659
▁گرامی	-10.9659
▁کلمات	-10.9661
▁فلسطینیان	-10.9662
▁بزن	-10.9663
▁شناگر	-10.9665
▁کوپتر	-10.9666
▁مخصوصا	-10.9667
▁دایر	-10.9667
▁قید	-10.9668
رچند	-10.9668
قدرت	-10.9669
▁کدخدایی	-10.9669
▁شمایل	-10.967
▁جیپ	-10.967
▁شوت	-10.9673
▁زانوی	-10.9675
ئوری	-10.9678
▁نوزادان	-10.9679
شیپ	-10.968
▁ویدیوهای	-10.968
▁رامش	-10.968
▁شایست	-10.9682
▁روم	-10.9684
▁شهریار	-10.9685
▁اقبال	-10.9689
▁کارتو	-10.9691
▁تابعیت	-10.9691
نفتی	-10.9693
▁پارکر	-10.9696
▁یخی	-10.9699
▁گویم	-10.97
▁انداختند	-10.9701
▁فرزندش	-10.9701
▁افسران	-10.9703
▁رائو	-10.9708
لندر	-10.971
سخت	-10.9711
▁محرک	-10.9713
▁مغول	-10.9714
▁برجا	-10.972
▁مثل	-10.9724
▁سیمون	-10.9725
▁گردون	-10.9727
▁مهندسان	-10.9728
مو	-10.9732
▁گردش	-10.9732
▁ادعاهای	-10.9736
▁راکت	-10.9741
▁سکسک	-10.9747
بورد	-10.9749
▁هامر	-10.9752
▁رایان	-10.9754
▁دوش	-10.9755
▁فرق	-10.9765
دیس	-10.9772
▁قطعا	-10.9773
▁مصر	-10.9776
▁بشریت	-10.9778
▁نشدند	-10.9787
ادا	-10.9796
▁مزایای	-10.9797
اید	-10.9801
▁فابی	-10.9802
▁ایوان	-10.9805
▁لوکه	-10.9811
▁ادل	-10.9815
▁جعفری	-10.982
حلال	-10.9824
▁موجودی	-10.9834
▁معط	-10.9839
ملک	-10.9861
الت	-10.987
گت	-10.9872
یسی	-10.9877
▁لوکا	-10.9888
▁ماخ	-10.9905
ارتوم	-10.9909
ودی	-10.9913
وفون	-10.9917
▁اندام	-10.9925
▁درانی	-10.9925
▁دال	-10.9933
▁فق	-10.9934
▁ریو	-10.9934
زانه	-10.9948
▁کلیسای	-10.9955
▁طیب	-10.9983
۲۹	-10.9995
▁چی	-11.0001
۹۳	-11.0017
▁میلی	-11.0021
▁استخوان	-11.003
جل	-11.0032
▁۸۹	-11.0037
رح	-11.0038
▁اک	-11.0047
▁پاد	-11.0048
▁باقر	-11.0049
▁اسک	-11.0049
کسل	-11.0073
فع	-11.0079
▁ضر	-11.008
▁وگوهای	-11.008
▁کلم	-11.0085
▁درگذشته	-11.0091
خواه	-11.0091
▁سیم	-11.0096
▁جیل	-11.01
سوم	-11.0111
▁ویدئو	-11.0115
▁قان	-11.0117
▁استثنا	-11.012
▁آرزو	-11.0121
▁باختر	-11.0123
▁استادان	-11.0124
▁کوش	-11.013
▁جلال	-11.0134
▁کنی	-11.0144
▁شمس	-11.0145
▁لطف	-11.0148
▁سرش	-11.0153
▁دینی	-11.0153
▁جوش	-11.0177
▁۸۷	-11.0178
▁جنی	-11.019
▁خوار	-11.0201
۲۴	-11.0208
ستیک	-11.0209
ایتون	-11.0217
مد	-11.0222
▁بزرگان	-11.0234
▁اشت	-11.0239
▁رومانیا	-11.0242
▁وارن	-11.0244
نوش	-11.0246
خواهانه	-11.0247
▁برفی	-11.0254
لین	-11.0266
▁کمدی	-11.0279
▁بطر	-11.0283
▁جزای	-11.0297
ارت	-11.0297
▁۸۱	-11.0302
الیاس	-11.0323
لوله	-11.0331
▁استاندارد	-11.0335
▁فرخ	-11.0347
▁بازیار	-11.0352
▁خواستم	-11.0375
▁کروناست	-11.0385
▁سوری	-11.0387
▁ژی	-11.0387
▁بزو	-11.0387
▁خوانند	-11.0394
رگ	-11.0398
▁سیرو	-11.0398
▁بدوی	-11.0405
▁نظرهای	-11.0413
نقل	-11.0415
▁زدای	-11.0422
عادت	-11.0429
آلمان	-11.0429
روابط	-11.0429
مسابقات	-11.0429
بازار	-11.043
کارشناسان	-11.0431
دالله	-11.0432
▁گودا	-11.0434
انتخابات	-11.0435
هز	-11.0437
لاتین	-11.0439
پیروز	-11.0444
▁نادری	-11.0454
▁فور	-11.0454
روسیا	-11.0454
▁دن	-11.0458
نیروی	-11.046
شما	-11.0464
▁فو	-11.0468
آمریکایی	-11.0483
▁پیشگام	-11.0484
تشکر	-11.0507
▁دوج	-11.0511
مرز	-11.053
بخشی	-11.0531
صالح	-11.0531
▁حقیق	-11.0533
▁گفتن	-11.0536
روزنامه	-11.0538
حث	-11.0544
مسترد	-11.0548
حرفه	-11.0548
فیلد	-11.0551
ضاح	-11.0554
▁موزیک	-11.0555
▁ارمنستان	-11.0557
▁اسراییل	-11.0557
▁المستقبل	-11.0557
▁بالیوود	-11.0557
▁حرکات	-11.0557
▁ربیعی	-11.0557
▁لابراتوار	-11.0557
▁نصیب	-11.0557
▁پدافند	-11.0557
▁پولیتزر	-11.0557
▁ژئوپلیتیک	-11.0557
▁کرگدن	-11.0557
▁۱۹۶۶	-11.0557
▁تفکیک	-11.0557
▁سنگاپور	-11.0557
▁نامناسب	-11.0557
▁عروق	-11.0557
▁ویتنام	-11.0557
رطوب	-11.0557
▁سیگار	-11.0557
▁کبد	-11.0557
▁اشنویه	-11.0558
▁لامرد	-11.0558
▁متوفی	-11.0558
▁بسیج	-11.0558
▁تعاون	-11.0558
▁مظاهری	-11.0558
▁یخچال	-11.0558
▁بنتلی	-11.0558
▁فروزش	-11.0558
▁اسپورت	-11.0558
▁مسترز	-11.0558
▁شکارچی	-11.0559
▁قبیل	-11.0559
▁هوندا	-11.0559
▁ذات	-11.0559
▁انحصار	-11.0559
▁یادگار	-11.056
▁قاتل	-11.056
▁کارفرمایان	-11.056
▁داغستان	-11.056
ارتاک	-11.056
▁۱۹۶۷	-11.056
ئرنیک	-11.056
▁نارضای	-11.0561
▁محفظه	-11.0561
▁خردسال	-11.0562
▁غلط	-11.0562
▁دوستداران	-11.0562
▁منفرد	-11.0563
▁متکی	-11.0564
▁نوازندگان	-11.0564
▁تویوتا	-11.0564
▁فریب	-11.0564
▁کفتر	-11.0565
▁دبیرستان	-11.0565
▁هشتصد	-11.0565
▁شستا	-11.0566
▁خبرها	-11.0566
▁سانتو	-11.0567
▁حجاب	-11.0567
▁اذیت	-11.0568
▁ژنرا	-11.0569
▁مایع	-11.0569
▁ویدئوی	-11.057
▁باثبات	-11.057
▁حریر	-11.057
▁۶۳	-11.0571
ایف	-11.0573
▁ابهامات	-11.0573
جهان	-11.0574
▁مخفیانه	-11.0574
علت	-11.0575
▁معیارهای	-11.0576
▁آلزایمر	-11.0577
▁تعویض	-11.0577
▁زادگاهش	-11.0577
▁خرمشهر	-11.0577
رگس	-11.0577
▁رسن	-11.0579
▁نژادپرستانه	-11.0579
▁ندادن	-11.058
▁لیتر	-11.0582
▁داش	-11.0583
▁دیدیم	-11.0584
ائل	-11.0585
▁سازندگی	-11.0587
▁لاس	-11.0588
▁زنگ	-11.0589
▁رونالدینیو	-11.059
▁۲۰۰۶	-11.0591
▁قفس	-11.0593
▁خوشحالم	-11.0598
ائب	-11.0598
ذل	-11.06
▁مادی	-11.0601
تار	-11.0602
▁جفت	-11.0602
▁خلوت	-11.0603
▁رنو	-11.0603
▁خیز	-11.0603
▁بیورن	-11.0604
▁ساری	-11.0607
▁لیدی	-11.0608
▁عرفان	-11.0609
▁پذیرای	-11.0609
▁بوی	-11.0609
▁سینماگران	-11.061
▁گویا	-11.061
▁کشتن	-11.061
▁تمرینات	-11.0612
▁گردنبند	-11.0617
▁پناهجوی	-11.0617
جاد	-11.0617
▁گیلان	-11.0618
▁تیموری	-11.0619
▁نویسد	-11.0621
▁معتمدی	-11.0621
آقازاده	-11.0623
▁نهایتا	-11.0627
ونیست	-11.0631
▁فیلیپین	-11.0633
▁افق	-11.0635
▁اپراتورها	-11.0636
▁ممیز	-11.0642
▁نمایشنامه	-11.0645
▁پینگ	-11.0646
▁کثیر	-11.0652
▁شعبان	-11.0655
جیب	-11.0661
ارث	-11.0664
▁فضاپیمای	-11.0665
▁نیستم	-11.0667
▁کاوه	-11.067
▁سرمای	-11.067
▁اتل	-11.0672
یلی	-11.0672
سلسل	-11.0676
▁معاین	-11.0677
▁پیداست	-11.0678
ریت	-11.0683
▁مض	-11.0684
▁مایل	-11.069
▁معین	-11.0696
▁ماست	-11.0699
▁شوخی	-11.0705
▁کون	-11.0706
▁اختیارات	-11.0713
▁تاجیکان	-11.0717
▁میل	-11.0724
اط	-11.0733
غیب	-11.0735
▁ماندند	-11.0742
▁اینستاگرامش	-11.0744
وک	-11.0744
مزمن	-11.0747
باع	-11.0753
دلیل	-11.0754
▁سومو	-11.0764
▁حام	-11.0765
وویچ	-11.0768
▁عکاسان	-11.0771
▁امتیازات	-11.0772
▁بصر	-11.0776
▁دهلی	-11.078
▁روحی	-11.0797
▁سردار	-11.0808
واشی	-11.0811
▁خطرات	-11.0813
▁متحدانش	-11.0829
▁۱۳۳	-11.0836
ستگی	-11.0839
▁آزمو	-11.0843
▁رژ	-11.086
▁سوگ	-11.0864
▁برهم	-11.0874
▁هراس	-11.0876
▁چارل	-11.0885
▁بدنی	-11.0908
درفتار	-11.0912
▁شکستن	-11.0929
فرانسی	-11.0956
روح	-11.0997
▁۹۲	-11.0998
اراک	-11.1
آفرین	-11.1004
صول	-11.1028
ظه	-11.1031
▁تبر	-11.1042
▁راد	-11.1057
▁عل	-11.107
اسکو	-11.1073
سرین	-11.1097
▁پیگیر	-11.1118
فلیک	-11.1137
آر	-11.1138
▁تحرک	-11.1144
▁پهلو	-11.1144
▁تونس	-11.1151
▁وگوها	-11.1166
▁عزیز	-11.1166
برگر	-11.1168
▁پریش	-11.1174
کام	-11.1185
▁نگفت	-11.1187
وظ	-11.1188
▁عمد	-11.1197
▁مباد	-11.1197
▁بخشهای	-11.1206
▁شار	-11.1206
▁کج	-11.1213
خمین	-11.1219
▁توس	-11.1234
▁باردار	-11.1248
لیون	-11.1257
▁تندی	-11.1259
▁کریم	-11.1267
▁بوس	-11.1285
▁۶۵۰	-11.1301
▁کشمی	-11.1305
ژان	-11.1306
▁باریک	-11.1309
واز	-11.1319
▁اپرای	-11.1321
▁سرا	-11.1324
گوف	-11.1329
وح	-11.1333
▁سفرها	-11.1334
▁مادو	-11.1345
فتن	-11.1357
▁بفهم	-11.1363
لات	-11.1366
سیو	-11.1368
سکار	-11.1377
نصر	-11.1379
▁تیره	-11.1381
▁فرز	-11.1386
▁مق	-11.1392
▁۸۶	-11.1392
▁مغزش	-11.14
وتو	-11.14
برد	-11.1419
سوزی	-11.1421
همیلتون	-11.1427
ضرر	-11.1428
اسپانیا	-11.1429
تصاویر	-11.1429
دلال	-11.1429
جراح	-11.1429
اطلاعات	-11.1429
اعلام	-11.143
کارگران	-11.143
انتشار	-11.143
موسس	-11.143
اتریش	-11.143
ارزش	-11.1431
▁جند	-11.1431
تحقیقات	-11.1431
آژانس	-11.1432
اداره	-11.1433
کمتر	-11.1434
مطابق	-11.1435
▁۱۸۵	-11.1437
رایان	-11.1447
سایت	-11.1455
▁هول	-11.1463
موج	-11.1476
اکبر	-11.1478
ظن	-11.1478
اتل	-11.1479
▁مبد	-11.1483
وزرای	-11.1492
هکرها	-11.1492
▁سور	-11.1496
یبو	-11.1497
وزن	-11.1506
▁اله	-11.1508
سطی	-11.1513
زره	-11.1513
▁مخاطب	-11.1523
بینند	-11.1524
▁معلم	-11.1524
▁آموز	-11.1533
▁شهرک	-11.1535
اپ	-11.1537
▁صدایش	-11.1537
▁متغیر	-11.1544
▁کادی	-11.1553
▁کارفرما	-11.1555
▁جزئی	-11.1556
▁معاف	-11.1556
▁انیمیشن	-11.1557
▁ایوانکوویچ	-11.1557
▁رولزرویس	-11.1557
▁غیرمجاز	-11.1557
▁بلانشت	-11.1557
▁الاجل	-11.1557
▁جوامع	-11.1557
▁عتیق	-11.1557
▁فرستد	-11.1557
▁مستثن	-11.1557
▁کالبد	-11.1557
▁وگاس	-11.1557
▁انباشت	-11.1557
▁راهپیمایی	-11.1557
▁تعزیری	-11.1557
▁رئوف	-11.1557
▁فکاهی	-11.1557
▁ابرنواختر	-11.1557
▁خیام	-11.1557
▁توقع	-11.1558
▁خاشقچی	-11.1558
▁معاهد	-11.1558
▁آرتتا	-11.1558
▁بدهکار	-11.1558
▁ذیبخش	-11.1558
▁اتصال	-11.1558
▁سلتیک	-11.1558
▁طناب	-11.1558
گارت	-11.1558
▁سرماخورد	-11.1558
▁گریبان	-11.1558
▁ناشنا	-11.1558
▁محتوی	-11.1558
▁هیدرو	-11.1558
▁خویش	-11.1558
▁پردرآمد	-11.1558
▁رخشانه	-11.1559
▁حوض	-11.1559
▁نپال	-11.1559
▁جوی	-11.1559
▁مبارک	-11.1559
▁قدردان	-11.156
▁کوپا	-11.156
▁۱۹۷۳	-11.156
▁پیکولی	-11.156
▁بارچا	-11.156
▁کلارک	-11.156
▁روانشناس	-11.156
▁مراود	-11.156
▁بنشیند	-11.1561
▁بیافتد	-11.1561
▁برسند	-11.1561
▁خوست	-11.1561
▁مختاری	-11.1561
▁تصدی	-11.1561
▁حسرت	-11.1561
▁کالینز	-11.1561
▁مکمل	-11.1562
▁وادار	-11.1563
▁گردهم	-11.1563
ومبل	-11.1563
ائم	-11.1564
▁مبت	-11.1564
▁هجر	-11.1564
لانتی	-11.1565
▁متولی	-11.1565
▁مساحت	-11.1565
▁ناپولی	-11.1566
ارسل	-11.1567
▁رشید	-11.1568
▁عصبانی	-11.1569
▁کادیس	-11.1569
▁پابند	-11.157
▁دلتا	-11.1571
▁بکند	-11.1572
▁هاپک	-11.1572
▁فروشندگان	-11.1573
▁حریم	-11.1573
▁لحن	-11.1574
▁۱۳۰	-11.1575
▁سازندگان	-11.1577
▁شانگ	-11.1578
▁مزای	-11.1579
▁تلفات	-11.1579
▁کنزو	-11.158
▁گردید	-11.158
▁تهاجمی	-11.1583
▁نامجو	-11.1588
▁پینک	-11.1589
کانی	-11.159
▁سرشار	-11.159
▁بلک	-11.1591
▁شعارهای	-11.1593
▁مطالبات	-11.1594
▁سیبری	-11.1602
▁طاق	-11.1604
▁کانت	-11.1606
▁جنر	-11.1607
▁انگیزترین	-11.1608
▁نکو	-11.1608
▁صرب	-11.1609
▁گردانند	-11.1615
▁جنای	-11.1616
▁ناوگان	-11.1617
▁رحمت	-11.1618
▁سبد	-11.1622
▁شون	-11.1625
▁آلبر	-11.1628
▁همخوان	-11.1629
▁هیل	-11.163
▁اصلاحی	-11.163
▁یابند	-11.1632
▁فراور	-11.1633
▁ارگان	-11.1635
▁اشتباهات	-11.1636
▁پادمان	-11.1638
▁پیامک	-11.1638
▁وحشت	-11.1641
▁کرایس	-11.1643
شش	-11.1645
▁نخب	-11.1645
خور	-11.1648
▁گناه	-11.165
▁رایگان	-11.1653
▁یاوری	-11.1654
کمی	-11.1655
لیچ	-11.166
۶۱	-11.1671
▁هیولای	-11.1675
▁سازه	-11.1692
▁سهامدار	-11.1698
▁کامپیوترها	-11.1702
▁مسترد	-11.1707
بیشترین	-11.1717
▁سمی	-11.1719
▁موک	-11.1721
▁دیدم	-11.1728
▁آرزوهای	-11.1734
▁نمادی	-11.1739
▁سپید	-11.1741
▁بازده	-11.1742
بان	-11.1742
▁بانو	-11.1745
ازاد	-11.1758
اندر	-11.1768
پوچ	-11.177
▁محسوس	-11.1773
رایش	-11.1781
▁اصولگرای	-11.1783
▁سنگر	-11.1783
▁صمیمی	-11.1787
▁ادین	-11.179
▁نگارش	-11.1791
وخامت	-11.1798
▁پرتو	-11.1798
لقو	-11.1803
▁منه	-11.1812
▁امپراتوری	-11.1816
▁گریه	-11.1821
▁دخ	-11.183
اران	-11.1844
▁توب	-11.1845
رین	-11.1847
▁مینا	-11.1849
▁مرت	-11.1856
اتور	-11.1865
▁اینجا	-11.1866
▁معمای	-11.1875
باند	-11.1882
▁مول	-11.1885
صیل	-11.1886
▁درو	-11.1893
▁عط	-11.1902
▁دوگان	-11.1904
▁فرحی	-11.1911
▁درمی	-11.1916
▁پژو	-11.1919
نیچ	-11.1946
۱۷	-11.1952
▁نزدیکتر	-11.196
امین	-11.196
▁نوا	-11.1969
▁یکبار	-11.1983
▁فهمید	-11.1992
▁نیت	-11.2
ادل	-11.2004
گوئر	-11.201
▁عمدی	-11.2012
▁منح	-11.2015
رل	-11.2022
▁قوت	-11.2023
▁مدد	-11.2033
کین	-11.204
گذار	-11.2041
▁لن	-11.2051
تاج	-11.2072
▁میلیاردرها	-11.2073
▁ساع	-11.2073
زگی	-11.2076
ناس	-11.2102
▁رفتم	-11.2107
رده	-11.2112
▁ورا	-11.2125
▁تز	-11.2125
▁بازوی	-11.213
تعداد	-11.2137
ماری	-11.2144
گرفته	-11.2146
▁گوها	-11.2154
ایت	-11.218
پرسینگ	-11.2194
واره	-11.2194
▁یزد	-11.2199
▁آف	-11.2202
▁موت	-11.2208
▁قوم	-11.2212
▁گا	-11.2215
▁دول	-11.222
▁پسران	-11.2224
گذشت	-11.2226
▁میکروب	-11.2227
▁۸۸	-11.2233
▁عا	-11.2235
▁تاکتیک	-11.2244
▁قربان	-11.2257
▁لبنانی	-11.2258
▁اجتماع	-11.2259
رای	-11.226
یامک	-11.2267
▁مسیح	-11.2276
ولت	-11.23
سران	-11.2301
▁اصطلاحا	-11.2311
▁کلاه	-11.2332
▁کلو	-11.2338
رژ	-11.2348
▁سالمند	-11.2348
دفتر	-11.2348
▁مطلبی	-11.2363
▁رکوردها	-11.2366
رسیدن	-11.237
▁گرما	-11.2389
▁لک	-11.2392
مرد	-11.2395
فروش	-11.2395
▁سرما	-11.2419
اتیو	-11.2452
سخ	-11.2466
▁منک	-11.2479
▁۷۹	-11.2495
▁تشک	-11.2504
▁فورا	-11.2508
کارآمد	-11.2519
پرس	-11.252
▁بتا	-11.252
طبی	-11.2524
منازع	-11.2529
ظاهر	-11.2529
▁ایندی	-11.253
فظ	-11.2531
▁پذیرفت	-11.2532
▁پراکن	-11.2533
خوشایند	-11.2535
۲۸	-11.2536
شریف	-11.2539
منظور	-11.2539
برآورد	-11.2539
هماهنگ	-11.254
استرالیا	-11.254
رکورد	-11.254
مذاکرات	-11.254
چشم	-11.2542
ترکیه	-11.2546
داستان	-11.2549
نشست	-11.2553
بحث	-11.2554
▁۱۸۰	-11.2556
نتیج	-11.2558
عفون	-11.2569
لاند	-11.2572
نوردی	-11.2574
ساله	-11.2578
▁۳۲۰	-11.258
بورس	-11.258
جیک	-11.2592
▁ریاضی	-11.2593
▁نما	-11.2598
▁خانمان	-11.2609
تینو	-11.2609
کاوه	-11.2609
کان	-11.2617
▁کور	-11.2619
انزا	-11.2622
▁سیاستمدار	-11.2623
▁عزا	-11.2625
▁اق	-11.2636
▁سیا	-11.2644
جامع	-11.2649
ارل	-11.265
▁دراین	-11.2655
▁دستیار	-11.2656
▁تسهیل	-11.2656
ادین	-11.2658
▁سینماگر	-11.266
خون	-11.2663
▁جع	-11.2667
▁رفسنجان	-11.2668
▁آبراموویچ	-11.2668
▁الگوریتم	-11.2668
▁بلایندرز	-11.2668
▁بلغارستان	-11.2668
▁ضوابط	-11.2668
▁لومامبا	-11.2668
▁تلویح	-11.2668
▁سولشر	-11.2668
▁مائوریت	-11.2668
▁جهرمی	-11.2668
تصاعد	-11.2668
▁بذر	-11.2668
▁جواهر	-11.2668
▁مقتدر	-11.2668
▁برسانند	-11.2668
▁اسعد	-11.2668
▁طغیان	-11.2668
▁تضاد	-11.2669
▁بخرد	-11.2669
▁واجد	-11.2669
▁ارتقا	-11.2669
▁بگویند	-11.2669
▁گرافیک	-11.2669
▁استقراض	-11.2669
▁حرارت	-11.2669
▁برگردند	-11.2669
▁پاراگوئه	-11.2669
▁غیبت	-11.2669
▁فرنود	-11.2669
▁زاکانی	-11.2669
▁اصالت	-11.267
▁۱۳۹۰	-11.267
▁کلانتری	-11.267
▁لشگر	-11.267
▁بیولوژیک	-11.2671
▁آلایند	-11.2671
▁خشمگین	-11.2671
▁خلوتگر	-11.2671
یونان	-11.2671
ژورنال	-11.2673
▁کاشف	-11.2673
▁تنگنا	-11.2673
▁قرائت	-11.2673
▁کوهنورد	-11.2674
▁معلولیت	-11.2674
▁صید	-11.2674
▁گیتار	-11.2674
▁لگن	-11.2675
▁ونگر	-11.2675
▁پورتو	-11.2675
▁۱۹۲۰	-11.2676
اچو	-11.2677
▁بازتاب	-11.2677
▁سردرگم	-11.2677
▁تأسیس	-11.2677
▁نامشخص	-11.2678
▁کیلوولت	-11.2678
▁ریسک	-11.2678
▁برشمرد	-11.2679
▁۱۳۵۰	-11.268
▁جناح	-11.268
▁شکننده	-11.2682
▁ریاضیات	-11.2683
▁بغلان	-11.2683
▁درشت	-11.2684
▁آث	-11.2684
▁انکار	-11.2684
▁شیفت	-11.2687
▁همدان	-11.2689
▁اسمیت	-11.2689
▁بخواهد	-11.2691
▁پیرلو	-11.2695
▁اشخاص	-11.2695
▁ولد	-11.2696
▁شخصا	-11.2696
▁ترابی	-11.2696
▁اندرکاران	-11.2699
▁درخشید	-11.2699
بپرس	-11.2703
پوتین	-11.2703
▁مورل	-11.2703
▁اسل	-11.2705
پائولو	-11.2709
▁ثا	-11.2709
▁سرگردان	-11.271
زادگان	-11.271
▁گدار	-11.2711
▁بازنده	-11.2712
▁دوتار	-11.2713
▁کمپ	-11.2715
▁قاب	-11.2718
▁دانشگر	-11.272
همچن	-11.272
▁معلمان	-11.2721
▁استقامت	-11.2721
▁مشهورتر	-11.2722
تاب	-11.2723
▁استرس	-11.2724
▁عمیقا	-11.2725
▁القا	-11.2726
▁مصم	-11.2735
▁شوق	-11.2737
▁گردیم	-11.2739
▁کیمن	-11.2741
▁مسبب	-11.2742
رهای	-11.2743
▁متروکه	-11.2744
▁کلدی	-11.2744
▁انداختن	-11.2746
▁هرجا	-11.2749
▁مرادی	-11.2753
▁اقیانوسیه	-11.2754
▁حراست	-11.2755
▁پیشگامان	-11.276
تعارف	-11.2761
▁ول	-11.2764
راق	-11.2766
▁دادخواه	-11.2767
▁فلور	-11.2768
▁ننگ	-11.2768
درون	-11.277
سنگ	-11.2772
▁یاب	-11.2773
▁موهای	-11.2775
دامس	-11.2776
▁متخلفان	-11.2776
▁متص	-11.2776
چهل	-11.2779
▁کانل	-11.2786
▁کاران	-11.2786
خیر	-11.2788
▁مانند	-11.2793
▁درسی	-11.2798
▁مهمانان	-11.28
▁سیری	-11.28
نگا	-11.2806
ریگو	-11.2815
دانه	-11.2816
▁بیتل	-11.2817
ودم	-11.2823
▁کاتال	-11.2828
سام	-11.2836
▁منجم	-11.2845
▁۴۵۰	-11.2859
▁جراحت	-11.2868
▁تابستانی	-11.2871
▁عار	-11.2872
ارمی	-11.2882
▁هولم	-11.2884
▁برگردانده	-11.2885
▁دیسک	-11.2888
▁خد	-11.2895
▁حول	-11.2903
▁کیس	-11.2908
ازما	-11.2908
▁سفارشی	-11.2921
حصول	-11.2931
جیغ	-11.2941
▁مسافری	-11.2941
▁بم	-11.2948
تال	-11.295
▁اسکان	-11.2952
▁آموخت	-11.2954
▁بیو	-11.2956
وتی	-11.2958
وندی	-11.2959
▁رقبای	-11.2959
▁چای	-11.2965
▁کلر	-11.2972
▁معاد	-11.2972
▁حواس	-11.2973
▁کینگ	-11.2981
▁لندرو	-11.2989
ویر	-11.2997
▁گدا	-11.3001
▁هشدارها	-11.3009
▁تولیدکنند	-11.302
زیان	-11.3022
▁جراحان	-11.3023
▁غیربو	-11.3032
▁آز	-11.3035
▁بنیا	-11.3037
▁بناها	-11.3038
▁یوسی	-11.3038
▁قی	-11.3063
▁تص	-11.307
▁پاب	-11.3077
أی	-11.3083
▁منظره	-11.3083
سول	-11.3084
▁بدنش	-11.3092
خان	-11.3097
▁رج	-11.31
▁راستش	-11.3103
▁پاش	-11.3104
▁خریدن	-11.3106
▁هوادارانش	-11.3109
نگیز	-11.3124
روژ	-11.3125
مالا	-11.3126
▁جانش	-11.313
فرنو	-11.3139
▁علا	-11.3139
▁وگوی	-11.3144
▁مجا	-11.3154
۶۲	-11.3168
▁جوج	-11.317
▁متیو	-11.3176
دوغا	-11.3181
▁پرید	-11.3189
مپیون	-11.319
▁عظیمی	-11.3191
▁بوتا	-11.3209
▁جیمی	-11.3214
تانک	-11.3215
▁چال	-11.3218
▁نامم	-11.3226
▁لطفی	-11.3246
▁پروازهایش	-11.325
▁پرش	-11.3265
اقش	-11.3267
جر	-11.3276
اور	-11.3286
▁لوی	-11.3289
زلی	-11.3306
▁رامی	-11.3313
▁عزادار	-11.3314
پیر	-11.3319
▁گرانتر	-11.3327
▁اخ	-11.3331
▁محو	-11.334
▁خل	-11.336
آور	-11.3368
▁هریس	-11.3371
▁شکوفا	-11.3378
▁ریوی	-11.3388
▁الهی	-11.3398
▁قطرک	-11.3402
▁خاور	-11.3427
▁درآمده	-11.3431
کنیم	-11.3432
میشل	-11.3443
▁جور	-11.3449
▁اتکا	-11.345
ژ	-11.3457
▁درها	-11.3463
یانگ	-11.348
▁لوف	-11.3487
راست	-11.3491
▁دیوارها	-11.3492
▁ناآرام	-11.3498
▁راهنمای	-11.3499
اندی	-11.3501
▁کلیسا	-11.3503
سکانس	-11.3505
▁صوت	-11.3508
▁اجت	-11.3511
▁ناصری	-11.3513
▁فرح	-11.3514
▁شیب	-11.3514
▁رجب	-11.3518
▁قدیم	-11.3523
▁خوابی	-11.354
شایر	-11.3553
▁شورش	-11.3559
▁رپ	-11.3567
▁تپند	-11.3579
یاق	-11.3602
تصور	-11.3608
▁۲۰۲	-11.3612
▁بدان	-11.3616
ریس	-11.3624
واقعی	-11.3627
▁هفده	-11.3627
▁فشارها	-11.3634
▁چشمان	-11.3637
دوم	-11.3642
▁نگرفت	-11.3643
▁طل	-11.3644
سانس	-11.3659
▁جمج	-11.3671
کری	-11.3683
▁نماند	-11.3685
▁مدرس	-11.3686
کست	-11.3687
▁بینم	-11.3705
▁خطا	-11.3705
▁گز	-11.3705
بالا	-11.3707
▁یوآ	-11.3714
▁فهم	-11.3715
زمینی	-11.3717
ارو	-11.3723
▁الن	-11.3728
خوانی	-11.3731
▁ریگ	-11.3733
پزشک	-11.3735
▁توفیقی	-11.3741
فرگوس	-11.3751
▁اکا	-11.3757
▁سریعتر	-11.3769
طرح	-11.3776
مجتب	-11.3782
حصار	-11.3784
ریچارد	-11.3786
کاظم	-11.3787
آرامکو	-11.3788
یونایتد	-11.3789
اسماعیل	-11.3789
انجمن	-11.379
تاتنهام	-11.379
نتایج	-11.379
کلوپ	-11.379
ویروس	-11.3791
موسیقی	-11.3791
تحریم	-11.3791
تصویر	-11.3791
بازداشت	-11.3791
مشخص	-11.3791
ایتالیا	-11.3792
مورد	-11.3792
لستر	-11.3792
تحلیلگر	-11.3793
عکاس	-11.3795
علم	-11.3795
دادستان	-11.3796
خطر	-11.3799
چال	-11.3802
▁امری	-11.3804
کشته	-11.3804
قصد	-11.3806
درگذشت	-11.3808
گروهی	-11.3817
▁معاونان	-11.3817
ادیو	-11.3819
باخ	-11.383
▁رون	-11.3836
▁خو	-11.3841
آیا	-11.3849
▁فرانسیس	-11.385
هشدار	-11.3851
ائوس	-11.3856
▁۱۱۰	-11.3859
▁قائ	-11.3861
▁الس	-11.3863
▁معلول	-11.3865
▁فرزندانش	-11.3866
▁کیف	-11.3869
▁نوزاد	-11.3874
رف	-11.3874
▁شاگرد	-11.3876
▁سینو	-11.3888
۲۷	-11.3889
۵۸	-11.389
▁کوبید	-11.3891
ژهای	-11.3891
بیگ	-11.3895
انسان	-11.3899
نگرانی	-11.3901
وحید	-11.3903
▁آرسن	-11.3918
مغناطیس	-11.3918
▁احداث	-11.3918
▁اردکانیان	-11.3918
▁اوربیتر	-11.3918
▁اورشلیم	-11.3918
▁سمرقند	-11.3918
▁مستضعفان	-11.3918
▁پاختاکور	-11.3918
▁پلتفرم	-11.3918
▁کامبوج	-11.3918
▁کانگورو	-11.3918
▁گوسفند	-11.3918
▁اقتباس	-11.3918
▁بفروشند	-11.3918
▁کاسموس	-11.3918
▁مخرب	-11.3918
▁نکشید	-11.3918
▁نیابد	-11.3918
▁تقلب	-11.3918
▁امتداد	-11.3918
▁بسازد	-11.3918
▁ذوالنور	-11.3918
▁ابداع	-11.3918
▁رغبت	-11.3918
▁مذک	-11.3918
▁چابک	-11.3918
▁سیستماتیک	-11.3918
▁متمایز	-11.3918
▁موعد	-11.3919
▁عزت	-11.3919
▁ماراکانا	-11.3919
▁اسپایدر	-11.3919
▁سمنان	-11.3919
▁ژنشنگ	-11.3919
▁جاودان	-11.3919
▁نیچر	-11.3919
▁واگیر	-11.3919
▁سانتیگراد	-11.3919
▁کلروک	-11.3919
▁آنکارا	-11.3919
▁ندهند	-11.3919
▁ایلام	-11.392
▁قاعدتا	-11.392
▁مارسیال	-11.392
▁بدانید	-11.392
▁بنجام	-11.392
▁دعا	-11.392
▁هنگفت	-11.392
زیمبا	-11.392
▁پیانو	-11.3921
هالیفیلد	-11.3921
▁لشکر	-11.3921
▁شاهرود	-11.3921
▁راپینو	-11.3923
▁بگذارم	-11.3923
▁برایانت	-11.3924
▁بگوید	-11.3924
▁پرجمعیت	-11.3926
▁مکالمات	-11.3926
▁فرنگی	-11.3926
▁نورالله	-11.3927
▁پرشور	-11.3927
▁غر	-11.3927
▁مولف	-11.3927
▁ابولا	-11.3928
▁۱۹۹۵	-11.3928
▁گریگوریان	-11.3928
▁۷۵۲	-11.3928
▁الاکلنگ	-11.3929
▁قورباغه	-11.3929
▁سحرگاه	-11.3929
▁هوشیار	-11.393
▁شنوایی	-11.393
زیو	-11.3931
خضر	-11.3931
▁آرایشگاه	-11.3932
▁غرور	-11.3932
▁ورزند	-11.3932
▁لبخندها	-11.3932
لئوپا	-11.3932
▁سفیددره	-11.3933
▁تنیده	-11.3933
▁کنشگر	-11.3933
▁نورمحمد	-11.3933
▁ایرانایران	-11.3934
▁بزوس	-11.3935
▁مانور	-11.3935
▁پردازند	-11.3935
▁دورانگو	-11.3935
▁محف	-11.3936
▁انتصاب	-11.3937
▁رودکی	-11.3938
▁لط	-11.3939
▁لیبی	-11.394
▁پاسگاه	-11.394
▁آویز	-11.394
▁نزن	-11.394
▁سیدنی	-11.3941
▁آهست	-11.3942
▁وزار	-11.3944
▁جرج	-11.3944
▁اخترشناس	-11.3946
▁فرندز	-11.3946
▁بخواهید	-11.3946
▁ناقل	-11.3948
▁رکوردشکن	-11.395
▁پروست	-11.3952
▁اسید	-11.3952
▁ژنوم	-11.3953
▁گوییم	-11.3954
▁آندرس	-11.3955
▁خوشبین	-11.3957
▁آنگل	-11.3959
▁جذابیت	-11.3962
▁آرم	-11.3963
▁چاق	-11.3965
شقان	-11.3965
▁معلولان	-11.3966
میلیون	-11.3967
▁فهیم	-11.3967
▁سفت	-11.3968
▁قاعد	-11.3968
▁کوشید	-11.397
▁آتن	-11.3974
▁موریس	-11.3976
▁آسپر	-11.3976
▁دیاب	-11.3979
روند	-11.3981
دانف	-11.3982
▁ث	-11.3982
▁کلیپ	-11.3983
چر	-11.3986
▁دبی	-11.3988
▁گاو	-11.399
▁سادگی	-11.399
▁نبی	-11.3996
▁شکنی	-11.3997
▁بکار	-11.3997
سیما	-11.3998
▁مجت	-11.4001
▁تراک	-11.4003
▁سکوها	-11.4004
نسوخ	-11.4006
▁نامعلوم	-11.4008
▁کامیاب	-11.4008
▁عینک	-11.4009
▁فورب	-11.4009
▁یونسی	-11.4009
▁دانا	-11.4016
▁پیمانکاران	-11.4017
قبره	-11.4018
▁ابو	-11.4019
▁ساید	-11.4021
گرنه	-11.4026
جوزپ	-11.4027
▁داود	-11.4029
▁وض	-11.4037
▁اشع	-11.4038
▁بستگان	-11.4039
▁کجاست	-11.4045
خشنود	-11.4045
▁پوشان	-11.4047
وجیه	-11.405
جمه	-11.4051
لستون	-11.4053
▁فرشت	-11.4057
تناسب	-11.4059
▁بدنشان	-11.4068
▁کاشت	-11.407
نزل	-11.4074
▁جادوی	-11.4076
▁شن	-11.4079
▁کوچه	-11.4081
▁بالاست	-11.4084
▁تولی	-11.4086
ندرت	-11.4087
▁قانونگذار	-11.4094
مول	-11.4098
▁وود	-11.4098
▁افزودن	-11.4099
▁خدای	-11.4101
▁گزینش	-11.4111
▁مجتب	-11.4112
▁گرفتیم	-11.4113
▁برخاست	-11.4116
▁احتیا	-11.4122
▁دلال	-11.4124
▁دیدند	-11.4125
▁ساسانی	-11.4129
▁پیشنهادهای	-11.4133
▁چادر	-11.4136
▁پود	-11.4136
▁نایاب	-11.4139
بیح	-11.4139
هفتصد	-11.4143
▁پارچ	-11.4143
▁پسند	-11.4148
▁پیامبر	-11.4154
▁اجراهای	-11.4157
▁نفی	-11.416
▁سیب	-11.4168
▁زین	-11.4174
▁دیو	-11.418
نازنی	-11.4183
▁غرو	-11.4187
اصل	-11.4192
فته	-11.4202
سارت	-11.4203
▁کشیدند	-11.4205
▁مکس	-11.4207
▁زی	-11.421
باز	-11.4223
غدی	-11.4224
▁شدیم	-11.4226
▁دات	-11.4228
جویی	-11.4236
▁پردازی	-11.4242
▁چید	-11.425
▁برآورده	-11.4251
▁دانستن	-11.4253
▁نیکولا	-11.4255
▁ضیا	-11.4257
تورهای	-11.4263
▁اروپاست	-11.427
▁زودرس	-11.427
نمای	-11.4278
فرجام	-11.4279
▁پرز	-11.428
▁شکن	-11.4283
▁تهدیدهای	-11.4289
▁پالا	-11.4291
▁اوار	-11.4291
▁کورو	-11.4295
ونتی	-11.4301
قبل	-11.431
قو	-11.4325
▁شناختن	-11.4327
▁موسی	-11.4336
▁سنی	-11.4342
۸۹	-11.4343
رفران	-11.4351
لد	-11.4363
▁دیدگ	-11.4367
▁اشتها	-11.4378
▁رودر	-11.4385
صدا	-11.4385
▁بازدیدکنند	-11.4394
▁موری	-11.4401
دریچ	-11.4401
▁دسمو	-11.4408
▁لیز	-11.441
▁شنای	-11.4416
▁بایر	-11.4439
▁دانل	-11.444
▁۸۴	-11.4446
لون	-11.4451
▁محب	-11.4454
▁داروین	-11.4459
▁آو	-11.4476
▁کارل	-11.4487
طل	-11.4513
▁مگ	-11.4513
▁اینچ	-11.452
فرد	-11.452
▁آئ	-11.4525
اهید	-11.4546
▁خلا	-11.4548
تل	-11.4555
▁کیلی	-11.4558
▁ادوار	-11.4563
▁استثنای	-11.4564
▁عفون	-11.4574
▁والا	-11.4579
خط	-11.4582
نما	-11.4607
قای	-11.4613
هربان	-11.4621
▁دلم	-11.4621
▁باج	-11.4622
۱۰	-11.4623
▁افسرد	-11.4624
▁لاب	-11.4629
▁بیدار	-11.4634
▁لات	-11.4635
▁۶۹	-11.4644
تازه	-11.4645
▁پیت	-11.4649
▁کورت	-11.4651
▁رنگی	-11.4656
▁آنتو	-11.4657
زمه	-11.4671
▁مارکو	-11.4675
▁گوی	-11.4676
فرید	-11.4679
کمه	-11.471
فین	-11.4713
▁کمیاب	-11.4713
پورت	-11.4714
یاب	-11.4721
تاکنون	-11.4728
▁انسانها	-11.4733
ادت	-11.4739
▁ماتی	-11.4742
متن	-11.4774
ولا	-11.4777
▁ابی	-11.4801
میدان	-11.4806
▁معما	-11.4812
آباد	-11.4814
▁آذری	-11.4815
▁پشتو	-11.4824
▁مهندسی	-11.4826
دایی	-11.4834
▁نوک	-11.4838
ردن	-11.4858
▁تصویربردار	-11.4872
۴۲	-11.4888
کارولین	-11.4902
▁تقی	-11.4904
▁آمی	-11.491
▁حاج	-11.4912
▁هروی	-11.4917
یزه	-11.4929
بندی	-11.4929
کاب	-11.493
▁صحرا	-11.4941
نفر	-11.4942
ائو	-11.4946
بیز	-11.4949
▁بازگو	-11.4951
نوم	-11.4959
▁سلیمان	-11.496
▁بروی	-11.4969
سک	-11.4972
شدیدترین	-11.499
▁برآوردها	-11.4996
▁اون	-11.501
نیف	-11.5034
▁الگو	-11.5044
زبان	-11.5048
درهای	-11.5058
▁برگرداند	-11.5061
▁فضل	-11.5063
دیدار	-11.5066
▁بارش	-11.5075
▁مهیا	-11.5084
لخ	-11.5085
سالار	-11.5089
▁حدادی	-11.5089
گزار	-11.5097
قد	-11.5097
▁تح	-11.5104
▁پژ	-11.511
▁پناهند	-11.5111
یافته	-11.5114
▁کارهایش	-11.512
▁مجرم	-11.5133
▁مصرفی	-11.5139
▁بخشد	-11.5142
▁ولت	-11.5144
▁دقتی	-11.5153
لوس	-11.5156
▁سرور	-11.516
▁فقی	-11.5163
▁درآمدها	-11.5165
▁۲۶۰	-11.5168
▁لیپ	-11.517
▁پولها	-11.518
خصوص	-11.518
شبن	-11.5182
ولوژی	-11.5188
▁کاندیدا	-11.5191
▁کریس	-11.5196
مزد	-11.5203
آلود	-11.5208
طالب	-11.5208
بفرستید	-11.5209
فضل	-11.521
پرداخت	-11.5213
ماخ	-11.5216
توماس	-11.5217
الدین	-11.5217
لیدز	-11.5217
منتقدان	-11.5218
آذر	-11.5218
جوکوویچ	-11.5218
▁مشتاق	-11.5218
منچستر	-11.5218
تحصیل	-11.5218
حادثه	-11.5219
احتمال	-11.5219
هواداران	-11.5219
اعضای	-11.5219
عضو	-11.5219
شرایط	-11.5219
بریتانیا	-11.5219
حضور	-11.5219
تصمیم	-11.5219
نقاشی	-11.522
جایزه	-11.522
اوپک	-11.5221
مرغ	-11.5222
بزرگترین	-11.5222
عادی	-11.5222
نخست	-11.5223
خه	-11.5223
جواد	-11.5224
▁متخلف	-11.5224
اندن	-11.5225
سیزدهم	-11.5226
اعظم	-11.5227
سریع	-11.5227
کشتی	-11.5229
سنگر	-11.5231
صرف	-11.5231
▁پوشیدن	-11.5234
فرق	-11.5241
رحیم	-11.5242
عطا	-11.5271
▁کاش	-11.5284
پاش	-11.5285
عظم	-11.5328
هنگام	-11.5329
پولو	-11.533
مقامات	-11.5336
▁تقریب	-11.5338
▁زادگاه	-11.5339
▁مهد	-11.5343
ذائ	-11.5346
▁ارواح	-11.5347
▁انتقام	-11.5347
▁انقطاع	-11.5347
▁اویغور	-11.5347
▁عناوین	-11.5347
▁فیلسوف	-11.5347
▁مشروب	-11.5347
▁مقصود	-11.5347
▁نابسامان	-11.5347
▁تذکر	-11.5347
▁صراحت	-11.5347
▁تدفین	-11.5347
▁مصداق	-11.5347
▁بیانداز	-11.5347
▁صلیب	-11.5347
▁ناگزیر	-11.5347
▁کارائیب	-11.5347
▁تجدد	-11.5347
▁گدوت	-11.5347
▁بزاق	-11.5347
▁دفاتر	-11.5347
▁نجوا	-11.5347
▁غلیظ	-11.5347
▁مرموز	-11.5347
▁لغت	-11.5347
▁یادماندنی	-11.5347
▁ببینم	-11.5347
▁حاتمی	-11.5347
▁خودکفا	-11.5347
▁محتاط	-11.5347
▁فلاکت	-11.5347
▁فونینی	-11.5347
▁جلیل	-11.5347
▁پیمود	-11.5347
▁باکتری	-11.5347
▁ترشح	-11.5347
▁توازن	-11.5347
▁ماهرویان	-11.5347
▁اسرارآمیز	-11.5348
▁مبتکر	-11.5348
▁خاکستر	-11.5348
▁روانپزشک	-11.5348
▁قضاوت	-11.5348
▁نابرابر	-11.5348
▁کوپر	-11.5348
▁پابرجاست	-11.5349
▁دردناک	-11.5349
▁دشتکی	-11.5349
▁فورمن	-11.5349
▁مجادل	-11.5349
▁قبرستان	-11.5349
▁۱۹۶۸	-11.5349
▁ریورا	-11.535
▁عناب	-11.535
▁بکاهند	-11.535
ارومیه	-11.535
▁افزاید	-11.535
▁بخورد	-11.535
▁بسر	-11.5351
▁ساوت	-11.5351
▁روانچی	-11.5351
▁کولاک	-11.5352
▁خاندان	-11.5352
ژگان	-11.5352
▁سموم	-11.5352
▁ویلسون	-11.5352
▁شکوه	-11.5353
▁لوگو	-11.5353
▁واپس	-11.5354
یگز	-11.5354
▁مجاور	-11.5354
▁اجساد	-11.5354
▁ترقی	-11.5355
▁اجزا	-11.5355
▁تربیت	-11.5355
▁بریجز	-11.5355
▁ربای	-11.5355
▁ببریم	-11.5356
▁۱۳۶۰	-11.5356
▁تصرف	-11.5357
▁جملات	-11.5357
▁مردادماه	-11.5357
▁بهزاد	-11.5358
▁گهر	-11.5358
▁تجربیات	-11.5358
▁نورستان	-11.5359
▁نورماگومدوف	-11.5359
▁اسنپ	-11.5359
▁ناشر	-11.5359
▁درآید	-11.5359
▁عوا	-11.5359
گویان	-11.536
▁محاف	-11.536
▁امداد	-11.5361
▁استیو	-11.5362
▁ابول	-11.5363
▁داوود	-11.5364
▁عکسها	-11.5364
▁متغیرهای	-11.5366
▁نبو	-11.5367
▁متقابل	-11.5367
▁۱۷۳	-11.5367
▁کوید	-11.5367
حوال	-11.5368
▁سانتا	-11.5369
▁برویم	-11.5369
▁ترانس	-11.5369
▁برگردیم	-11.5369
▁نظرش	-11.5371
▁خانود	-11.5372
▁همسایگان	-11.5373
▁مأموریت	-11.5373
▁فلامینگوها	-11.5374
▁منقل	-11.5375
▁ماهیچه	-11.5377
رضی	-11.5377
▁نشدنی	-11.5378
▁بلید	-11.5379
▁مختصر	-11.5379
▁گیلبرت	-11.5379
▁بدهم	-11.538
مسابقه	-11.538
▁والتر	-11.5381
▁بگیرم	-11.5382
▁درآمدزا	-11.5384
▁ابزارهای	-11.5385
▁وات	-11.5386
▁دریانورد	-11.5386
▁زلا	-11.5388
▁ایستادند	-11.5389
بال	-11.539
▁بزرگسال	-11.5395
▁دردسرهای	-11.5396
▁سرخک	-11.5397
▁ربود	-11.5399
▁کشتند	-11.54
▁ربکا	-11.5401
▁گریخت	-11.5401
▁علیزاده	-11.5402
▁قامت	-11.5402
▁ازسر	-11.5402
▁حکیم	-11.5404
جم	-11.5408
▁کنسر	-11.5408
▁تردیدهای	-11.541
▁فک	-11.5412
▁موکل	-11.5414
جوان	-11.5416
حام	-11.5417
▁فاضل	-11.5418
▁رکس	-11.542
▁توسان	-11.5421
▁کارتون	-11.5425
یامده	-11.5426
▁دماغ	-11.5428
▁بیانسه	-11.5432
▁بازیافت	-11.5433
▁چرخید	-11.5434
▁ابدی	-11.5435
▁فروند	-11.5436
▁قصر	-11.5441
▁جنگی	-11.5442
رومن	-11.5443
داگ	-11.5444
▁لوح	-11.5447
▁ترسد	-11.5448
▁بنده	-11.545
رن	-11.5456
▁عطف	-11.5456
وژان	-11.5461
▁گذران	-11.5465
کوئین	-11.5465
▁یوت	-11.5466
بیست	-11.5467
▁بخوان	-11.5468
طاع	-11.5469
خن	-11.5469
▁لورک	-11.5472
وتا	-11.5475
▁شاکی	-11.5477
▁اثرگذار	-11.5479
▁بفرستید	-11.5486
▁پهنه	-11.5492
▁شکم	-11.5501
ماجرای	-11.5502
▁کد	-11.5503
جویان	-11.5505
▁سوییس	-11.5506
▁راوی	-11.5515
▁تورین	-11.5522
▁نوردی	-11.5525
▁آسا	-11.5528
برداری	-11.5529
تالی	-11.5529
▁ساعته	-11.553
▁حوال	-11.553
▁بخشید	-11.5532
قهرمانی	-11.5536
ئه	-11.5539
تعدد	-11.5542
▁سازهای	-11.5544
اتح	-11.5547
▁کارلو	-11.5549
نمی	-11.5554
▁آپ	-11.5555
▁وکلای	-11.5556
▁نصر	-11.5557
پولیس	-11.5557
ئین	-11.5563
▁هاروی	-11.5563
▁بگ	-11.5567
ریض	-11.5568
▁شست	-11.557
▁دایی	-11.5574
بیل	-11.5574
ترن	-11.5582
▁قوز	-11.5607
▁مایا	-11.561
کوس	-11.561
ریزی	-11.561
▁دزدی	-11.5612
معدنچی	-11.5615
نرخ	-11.5628
▁حجت	-11.563
▁درسال	-11.5643
▁سوت	-11.5648
▁گرجستانی	-11.5652
▁تشکیلات	-11.5652
▁چرخش	-11.5655
▁سردست	-11.5657
▁نیکل	-11.5661
کابو	-11.5664
▁سوزاند	-11.567
▁باربی	-11.5674
▁دیوانه	-11.5677
وتر	-11.5679
▁نیستیم	-11.5685
ینک	-11.5687
راماتیک	-11.569
لث	-11.5698
▁امیدهای	-11.5703
▁آس	-11.5718
▁هارد	-11.5722
▁کارتر	-11.5725
▁داران	-11.5734
امیدوارکننده	-11.5738
▁بخشیده	-11.5744
▁بکش	-11.5751
▁موتورها	-11.5751
نور	-11.5754
برده	-11.5756
▁بروید	-11.5756
▁نشستن	-11.5764
یدند	-11.5764
پانز	-11.5765
▁فتحی	-11.5781
▁دادیم	-11.5791
▁تاثیرات	-11.5793
نزو	-11.5801
▁ساختند	-11.5804
▁استعفاها	-11.5806
▁صحرای	-11.5808
▁ساد	-11.5815
بس	-11.5824
وستون	-11.5829
موتو	-11.583
▁۷۵۰	-11.5833
دال	-11.5837
هیچ	-11.5853
▁ساند	-11.5873
زیرو	-11.5882
▁سندر	-11.5884
▁رومانی	-11.5886
بوه	-11.5889
▁گیت	-11.593
آمارها	-11.5941
▁یابی	-11.5945
▁محصولاتش	-11.595
▁میکروبی	-11.5955
▁لیک	-11.5967
گرم	-11.5969
▁بگذاری	-11.597
▁اینست	-11.5982
▁سهیم	-11.5985
▁سنج	-11.5986
▁خوابیدن	-11.599
▁ریس	-11.6011
تفلی	-11.6021
اردو	-11.6024
میو	-11.6032
▁کیمی	-11.6058
وادا	-11.6061
انشهر	-11.6078
▁کارند	-11.6081
▁نب	-11.6096
لسک	-11.61
▁ارت	-11.611
زدی	-11.6111
▁سکان	-11.6112
▁بیم	-11.6128
▁موثری	-11.6132
۸۵	-11.6132
اپیش	-11.6146
▁ورز	-11.6155
▁اتری	-11.6179
▁شو	-11.619
سپاس	-11.6196
▁فشارهای	-11.6231
ائی	-11.6248
▁همب	-11.625
▁دارداین	-11.6252
▁چپگرا	-11.6255
▁خوشی	-11.6258
میلیا	-11.628
▁معا	-11.6283
▁دریاب	-11.6283
▁استرا	-11.6315
نیوز	-11.6331
نسک	-11.6333
▁فرضی	-11.6342
▁طر	-11.6344
▁قاطعان	-11.6347
چل	-11.6366
▁پیل	-11.6368
▁پذیری	-11.637
▁بدنم	-11.6377
▁بیگ	-11.6385
شوند	-11.6399
ناتان	-11.6405
▁رانگل	-11.6426
▁موس	-11.6438
بورگ	-11.6442
▁رویز	-11.6445
ساعد	-11.6447
رانگ	-11.6464
ملا	-11.6484
▁پرداز	-11.6511
▁سنجی	-11.6516
▁ملته	-11.6521
▁موم	-11.6525
ارک	-11.6535
▁پنس	-11.6537
خالف	-11.6537
▁گارس	-11.6542
۴۹	-11.6554
▁بازرگان	-11.6554
▁بلندپرواز	-11.6558
▁اغ	-11.6559
جک	-11.656
▁زر	-11.6561
سارا	-11.6571
▁غور	-11.6572
▁بایست	-11.6573
ریتز	-11.6577
▁رقبا	-11.6581
▁امپراتور	-11.6585
▁مذهب	-11.66
▁خف	-11.6602
▁درصدد	-11.6606
▁امیدی	-11.6608
▁تروریست	-11.661
▁محت	-11.6612
یتس	-11.6616
مجموع	-11.6643
▁رویدادها	-11.6646
الیز	-11.6647
باد	-11.6659
▁ریلی	-11.6665
گران	-11.6688
رژی	-11.6714
▁دکترا	-11.6719
▁اکرا	-11.672
فاصل	-11.6732
▁دویدن	-11.6737
▁برگزارکنند	-11.6737
ریوس	-11.6738
بن	-11.674
مهم	-11.6752
▁سوزان	-11.6753
▁۷۱	-11.6755
بیت	-11.6766
▁باخ	-11.6771
گاتی	-11.6782
انسون	-11.6796
▁ندا	-11.6799
▁مصا	-11.6802
مونت	-11.6805
▁پیچید	-11.6807
▁نهادها	-11.681
▁جنب	-11.6813
باره	-11.6814
عر	-11.6824
▁مساعد	-11.6829
جرد	-11.684
اسب	-11.6843
▁لندر	-11.6843
تامی	-11.6845
▁رن	-11.6851
صلاح	-11.6855
▁آرن	-11.6868
افتاده	-11.6868
خودرو	-11.6871
قبض	-11.6873
هوش	-11.6874
دبیر	-11.6875
غوری	-11.6876
کسیون	-11.6878
مسئول	-11.6879
نفوذ	-11.6879
▁فرستادن	-11.6882
کجاست	-11.6882
کثیر	-11.6883
خشکسالی	-11.6883
صریح	-11.6883
عزیز	-11.6883
مناسبت	-11.6884
کنگره	-11.6884
منتظر	-11.6885
تیراندازی	-11.6885
حداکثر	-11.6885
حاشیه	-11.6885
قاسم	-11.6885
سفارت	-11.6885
نژاد	-11.6885
فرهاد	-11.6886
بارسلونا	-11.6886
قرنطینه	-11.6886
کشورهای	-11.6886
جنوب	-11.6886
مستند	-11.6886
میلیارد	-11.6887
فرمانده	-11.6887
تجرب	-11.6887
سپاه	-11.6887
تایسون	-11.6888
پادمان	-11.6889
ابتدا	-11.6889
تنیس	-11.689
اسناد	-11.6892
۶۷	-11.6893
ادیوم	-11.6894
کتاب	-11.6896
آبی	-11.6898
۱۴۰۰	-11.69
▁آنا	-11.6901
الگو	-11.6902
محمدرضا	-11.6903
تعجب	-11.6906
گردون	-11.6908
لیگا	-11.6916
شعر	-11.6918
کریست	-11.6932
بندها	-11.6935
نمایند	-11.6937
▁بریم	-11.6937
▁دژ	-11.6939
▁بوم	-11.6954
▁اندرکار	-11.6967
▁۲۱۰	-11.6967
▁تق	-11.6969
راجع	-11.697
▁فراخوان	-11.6973
▁تسلی	-11.6982
کاسی	-11.6984
دختر	-11.6985
▁مافی	-11.6985
کلا	-11.6986
گوین	-11.699
افزون	-11.6992
سترازنکا	-11.6996
رگبار	-11.7
موث	-11.7003
▁مخابر	-11.7003
ستا	-11.7004
دنی	-11.701
▁الاجرا	-11.701
▁شمش	-11.7011
▁خاشق	-11.7013
لئوپولد	-11.7014
▁اختاپوس	-11.7014
▁اکسیدکربن	-11.7014
▁بفرستند	-11.7014
▁حناچی	-11.7014
▁دموکراسی	-11.7014
▁دگراندیش	-11.7014
▁رادیواکتیو	-11.7014
▁زاکربرگ	-11.7014
▁سخاوتمند	-11.7014
▁سرگذاشت	-11.7014
▁سزاوار	-11.7014
▁منسجم	-11.7014
▁منظوم	-11.7014
▁ناسازگار	-11.7014
▁نباشند	-11.7014
▁نیفتاد	-11.7014
▁هژمون	-11.7014
▁ژئوفیزیک	-11.7014
▁تمایز	-11.7014
▁سارقان	-11.7014
▁سیگنال	-11.7014
▁ضابط	-11.7014
▁غواص	-11.7014
▁موریکونه	-11.7014
▁کوواکس	-11.7014
▁۱۹۶۹	-11.7014
▁انسولین	-11.7014
▁تنگاتنگ	-11.7014
▁ظلم	-11.7014
▁متوازن	-11.7014
▁نگیرد	-11.7014
▁وسواس	-11.7014
▁انزوا	-11.7014
▁بازنگشت	-11.7014
▁بیاورند	-11.7014
▁مقادیر	-11.7014
▁رفیق	-11.7014
▁فرمانروای	-11.7014
▁جاپلقی	-11.7014
▁اوزیل	-11.7014
▁واعظ	-11.7014
▁موازات	-11.7014
▁سانتیاگو	-11.7014
یونیسف	-11.7014
▁اوزون	-11.7014
▁هکتار	-11.7014
▁میچام	-11.7014
▁پرسنل	-11.7014
شانت	-11.7014
▁تومور	-11.7014
▁ناخودآگاه	-11.7014
▁حصبه	-11.7014
▁کانتینر	-11.7014
▁ژرف	-11.7014
▁آزاردید	-11.7014
▁جگوار	-11.7014
▁آگوست	-11.7014
▁کبیری	-11.7014
▁دمکرا	-11.7014
▁پوینت	-11.7014
▁تکواندو	-11.7014
▁باچان	-11.7014
▁ازبک	-11.7014
▁تظاهرکنندگان	-11.7015
▁فرسود	-11.7015
▁بکنید	-11.7015
▁کوشنر	-11.7015
▁ارمجانی	-11.7015
رالزمان	-11.7015
▁همفکر	-11.7015
▁پدربزرگ	-11.7015
▁رفقا	-11.7015
▁تایوان	-11.7015
▁کفایت	-11.7015
▁حیثیت	-11.7015
▁صربستان	-11.7015
▁چرم	-11.7015
۱۹۶۵	-11.7015
▁هریرود	-11.7016
▁بخواب	-11.7016
▁شارپ	-11.7016
داعش	-11.7016
▁جرارد	-11.7016
▁خلاق	-11.7016
▁ظالمانه	-11.7017
▁بخواهند	-11.7017
▁شادگان	-11.7017
نتسب	-11.7017
▁دلنشین	-11.7017
▁مادام	-11.7017
▁هتلداران	-11.7018
▁شنویم	-11.7018
▁الاجراست	-11.7018
▁چسبن	-11.7018
▁تفکر	-11.7018
▁دوبلور	-11.7018
▁دامغان	-11.7018
▁آفرید	-11.7019
فراگ	-11.7019
▁فیصل	-11.7019
لگار	-11.7019
▁میشود	-11.702
▁هندرسون	-11.702
▁نابینا	-11.7021
▁لمب	-11.7021
▁ناچیز	-11.7021
▁رینت	-11.7021
▁بزنیم	-11.7021
▁ملوان	-11.7022
▁صفاری	-11.7022
▁سهمگین	-11.7022
▁امپرا	-11.7023
▁کریستی	-11.7023
▁فرسا	-11.7023
▁برگرداندن	-11.7023
تالیا	-11.7025
▁نخواست	-11.7025
▁نابویایی	-11.7026
دهم	-11.7026
▁شایان	-11.7026
▁هنک	-11.7026
▁ارج	-11.7026
▁۱۹۹۴	-11.7027
▁بایستند	-11.7027
▁نشوند	-11.7027
▁رباب	-11.7027
▁اسکورسیزی	-11.7028
▁عبدالسلام	-11.7028
▁قیصر	-11.7028
▁سرلشکر	-11.7028
▁نایتلی	-11.7029
▁اضافی	-11.703
▁عقاب	-11.703
▁راسخ	-11.703
▁مولد	-11.7031
▁ناشده	-11.7032
نشأ	-11.7033
▁آنجل	-11.7033
ترانه	-11.7034
▁چرن	-11.7035
▁مجرد	-11.7035
یوئیت	-11.7035
اطبا	-11.7036
▁بپذیر	-11.7036
▁آبراه	-11.7037
▁تحرکات	-11.7037
▁فونت	-11.7038
▁روزافزون	-11.7038
▁قمار	-11.704
▁کوک	-11.7042
▁مث	-11.7044
▁مهیب	-11.7044
▁انرو	-11.7045
▁بدویا	-11.7046
▁آغ	-11.7046
▁سمع	-11.7048
▁موسیقیدان	-11.7048
▁سیت	-11.705
▁سولو	-11.705
▁کمالی	-11.7053
▁بخواهی	-11.7054
▁گپ	-11.7055
▁بشنوید	-11.7055
▁روستاهای	-11.7055
▁توئیتر	-11.7059
▁فا	-11.7059
▁علام	-11.706
▁پرفسور	-11.706
▁پاشید	-11.7061
پو	-11.7061
▁بریج	-11.7063
▁یوهان	-11.7064
▁هک	-11.7065
▁ستیز	-11.7066
▁۱۸۸	-11.7066
▁سوفی	-11.7066
▁پان	-11.7066
▁ناسیونالیس	-11.7067
▁بکر	-11.7069
نتینو	-11.707
▁فراخواند	-11.7071
▁رابین	-11.7071
▁تاکسیران	-11.7072
▁تزار	-11.7073
گوگوش	-11.7073
دوران	-11.7073
لینگ	-11.7073
▁لوپ	-11.7075
▁بازنش	-11.7077
نال	-11.7078
▁سولار	-11.7081
▁صبا	-11.7084
▁تبل	-11.7087
▁شجاعت	-11.7088
▁کامران	-11.7089
▁متال	-11.7091
▁لینک	-11.7092
▁تعرض	-11.7093
▁بشردوست	-11.7093
▁درخشند	-11.7095
▁درمیان	-11.7098
ایش	-11.7099
فرانسه	-11.7099
▁کشورهاست	-11.7101
لاخ	-11.7101
▁انگل	-11.7105
▁دوندگان	-11.7105
انتینو	-11.7111
▁اتلان	-11.7113
▁یاسر	-11.7118
▁ورق	-11.7118
▁گوست	-11.7118
▁نایا	-11.712
▁پوستر	-11.712
▁بدهید	-11.7122
▁افزارهای	-11.7127
▁کلوز	-11.7129
▁اندازند	-11.7133
▁همتایان	-11.7134
اسکورت	-11.7135
▁زای	-11.7137
دخیل	-11.7139
▁پاسدار	-11.714
▁شنید	-11.7141
▁افزودند	-11.7141
خزن	-11.7144
▁قهری	-11.7144
هرزاد	-11.7146
▁کتک	-11.7146
کیا	-11.7149
▁سانچ	-11.7154
▁کوهن	-11.7157
▁یولیا	-11.7157
▁نیمروز	-11.7159
تراپ	-11.7159
ینچی	-11.716
جاست	-11.7161
▁مشتاقان	-11.717
سود	-11.7171
▁براه	-11.7172
▁باک	-11.7174
▁علما	-11.7177
▁جوانا	-11.7178
▁فیش	-11.718
وئر	-11.7181
پچو	-11.7184
فارم	-11.7184
▁دیا	-11.7187
▁کانتر	-11.7189
▁غذاهای	-11.7195
▁پرای	-11.7198
▁دوبل	-11.72
▁نیوز	-11.7205
▁افع	-11.7206
▁گراند	-11.7207
رزرو	-11.7211
ریکا	-11.7213
▁پژوهشهای	-11.7213
▁عاج	-11.7217
اثر	-11.7218
▁نجومی	-11.7224
▁بنکس	-11.7225
▁خسرو	-11.7226
▁نگذاشته	-11.7232
یلد	-11.7232
▁خوشایند	-11.7233
▁منازع	-11.7233
▁شعرهای	-11.7248
▁خوردند	-11.7252
▁تجمعات	-11.7254
▁آزادگان	-11.7261
▁آرین	-11.7267
سازند	-11.7268
▁نع	-11.7271
▁مجرمان	-11.7273
▁برگر	-11.728
باط	-11.7286
ائ	-11.73
▁تشوی	-11.7301
▁یاسم	-11.7301
▁سبی	-11.7302
▁کاسی	-11.731
▁کاتل	-11.7311
▁خصوصیات	-11.7313
▁اینف	-11.7314
▁استبا	-11.732
پانی	-11.7336
دوزی	-11.7351
▁۱۰۹	-11.7351
▁امیرم	-11.7353
▁نبودند	-11.736
▁عطا	-11.7366
▁کنش	-11.7369
▁سیمین	-11.7394
▁شالی	-11.7405
ریدار	-11.7412
▁افکند	-11.7441
داده	-11.7441
ونیا	-11.7462
▁ممی	-11.7473
▁بریتانیاست	-11.748
زیست	-11.7481
▁رادیوی	-11.7482
▁بازگشتند	-11.7495
▁بستند	-11.7506
▁کلت	-11.7515
▁خاوی	-11.7517
▁یادم	-11.752
▁جون	-11.752
▁ارو	-11.7521
▁زنیم	-11.7523
▁لوس	-11.7533
▁هندو	-11.7537
▁استوایی	-11.754
زیر	-11.754
تراز	-11.754
▁گرداند	-11.7557
▁مشخصات	-11.7557
▁مزد	-11.7564
بیه	-11.7572
▁فروشد	-11.76
▁تدا	-11.7603
▁اسلو	-11.7608
▁سکو	-11.7611
▁حکمت	-11.7614
▁رید	-11.7629
▁ارغ	-11.7631
▁منفور	-11.7664
▁خاوری	-11.7669
▁مولان	-11.767
▁۱۷۴	-11.7692
▁روزبه	-11.7696
▁بازیکنانش	-11.7696
ثر	-11.7697
▁نازل	-11.7703
▁آنهاست	-11.7704
▁میخ	-11.7709
اسنو	-11.7712
▁نیوت	-11.7713
▁یانگ	-11.7716
کرده	-11.7735
یتونا	-11.774
▁ماجراجو	-11.7745
▁همسران	-11.7745
▁درهم	-11.7755
حرف	-11.7762
▁مسیری	-11.7771
▁پرستار	-11.7798
▁دوسال	-11.7806
▁بایستی	-11.7808
▁اعم	-11.7814
وین	-11.7835
▁تحرکی	-11.7837
▁تونسی	-11.7844
▁شکوف	-11.7845
اطی	-11.7845
▁بیکاران	-11.7876
▁آلت	-11.7876
▁شرکتها	-11.7903
ورود	-11.7904
پدیده	-11.7905
۲۱	-11.7919
رمان	-11.7927
نسیم	-11.794
طف	-11.7947
ودن	-11.7948
▁لیلا	-11.7958
▁هیو	-11.7959
صل	-11.7968
باسی	-11.7969
امید	-11.7973
دگان	-11.7979
▁استوار	-11.7983
▁۱۸۹	-11.7985
وما	-11.7991
نسل	-11.8001
▁شجاعی	-11.8023
▁اشتباهی	-11.8039
▁بک	-11.8045
▁بنگا	-11.8049
▁لویی	-11.8055
▁محوری	-11.806
▁خوشنو	-11.8063
کافی	-11.8073
فرام	-11.8075
۳۶۰	-11.8077
ایان	-11.8079
▁جید	-11.8085
▁برنا	-11.8099
▁زنم	-11.8105
تد	-11.8111
اویر	-11.8117
شمال	-11.8131
▁نیلی	-11.8134
خو	-11.814
▁دلیلش	-11.8142
کردن	-11.8154
خانی	-11.8157
ارجه	-11.816
▁کلیو	-11.8165
▁غی	-11.8168
▁کات	-11.8174
عمل	-11.822
▁۱۲۵	-11.8228
۹۷	-11.8232
۳۳	-11.8273
بنیا	-11.8278
▁۱۳۲	-11.8287
▁توافقات	-11.8296
تقبل	-11.8296
▁نف	-11.8302
▁لوک	-11.8306
نشان	-11.8315
▁۶۶	-11.8333
پول	-11.8353
دفو	-11.8357
▁زیباتر	-11.8365
۸۰	-11.8367
▁پولهای	-11.837
کلیف	-11.8399
توت	-11.8399
▁سینا	-11.8408
غلو	-11.8416
شکر	-11.8436
ماجرا	-11.8441
یکون	-11.8444
قهرمان	-11.8446
▁محبو	-11.8454
▁فیلی	-11.8457
زر	-11.8471
بازد	-11.8472
▁اوکا	-11.8475
جام	-11.8482
وط	-11.85
▁شغلها	-11.8507
▁عبد	-11.8548
▁حسابدار	-11.8549
▁یوسف	-11.8559
▁هلندی	-11.857
۰۰۰	-11.8571
▁اصولگرا	-11.8584
▁بقا	-11.8587
گزا	-11.8589
ارکان	-11.8589
▁طاهر	-11.8591
نفت	-11.8595
▁نمک	-11.8597
▁مطهر	-11.8598
▁فعل	-11.8601
▁بعض	-11.8605
▁سخنگو	-11.8608
▁کاف	-11.8632
صله	-11.8639
▁دزد	-11.865
امد	-11.8652
▁نواخت	-11.8658
▁سرم	-11.8658
▁جعفر	-11.8666
▁فلم	-11.8691
▁بازو	-11.8697
▁چش	-11.8699
بول	-11.8699
رانر	-11.871
وپ	-11.8712
▁دوک	-11.8745
▁۱۰۲	-11.8749
سوی	-11.875
▁نگذاشت	-11.8754
▁لیم	-11.8757
کلاس	-11.8759
ورانه	-11.8765
رویز	-11.8773
▁گفتم	-11.8776
▁نامند	-11.878
▁مواج	-11.8781
▁بهرامی	-11.8794
▁ناک	-11.8797
▁نوزده	-11.8801
▁کوچ	-11.8806
▁ندید	-11.8809
گردانی	-11.881
▁سناریو	-11.8812
▁اسکا	-11.8818
ارگ	-11.8821
▁سلب	-11.8824
نوی	-11.8831
دوستان	-11.8832
سرجی	-11.8838
بازیکن	-11.8839
▁گوا	-11.8841
▁مبنا	-11.8842
▁نیافتن	-11.8845
▁اپراتور	-11.885
▁جیم	-11.8859
ریان	-11.8863
پوش	-11.8865
اعتراض	-11.8871
مکزیکو	-11.8872
انتخاب	-11.8873
▁جمل	-11.8873
▁دیپلم	-11.8878
بزرگ	-11.8878
آموز	-11.8879
زندگی	-11.8884
نژادپرست	-11.8884
اتهامات	-11.8885
ضرور	-11.8885
آکادمی	-11.8885
مسعود	-11.8885
پالایشگاه	-11.8885
اتفاقات	-11.8885
انچین	-11.8885
تخریب	-11.8885
جوایز	-11.8885
مطالع	-11.8885
قسمت	-11.8885
▁اصولی	-11.8885
جنجال	-11.8885
حذف	-11.8885
لحظ	-11.8886
فرصت	-11.8886
اسرائیل	-11.8886
صعود	-11.8886
جشنواره	-11.8886
گمرک	-11.8886
بحران	-11.8886
محدودیت	-11.8886
دانشگاه	-11.8886
آزادی	-11.8886
ترکیب	-11.8886
پاسخ	-11.8886
ساعت	-11.8886
آتش	-11.8886
بازدید	-11.8886
نزدیک	-11.8887
سبد	-11.8887
سیستم	-11.8887
▁مجل	-11.8887
واکسن	-11.8887
تاریخ	-11.8887
ایلنا	-11.8887
تابستان	-11.8887
درحالی	-11.8889
▁ایرلندی	-11.8889
رفت	-11.8891
حقوق	-11.8892
دقیق	-11.8892
قرارداد	-11.8893
▁کوئی	-11.8894
هموار	-11.8894
فیروز	-11.8894
یوآ	-11.89
رفتن	-11.89
بیماری	-11.8904
▁۳۳۰	-11.8904
دریایی	-11.8905
▁هوشی	-11.8909
▁اپ	-11.891
▁کاپ	-11.891
مرور	-11.8917
▁پترو	-11.8929
رییس	-11.8934
نتین	-11.8935
بازیکنان	-11.8935
لار	-11.8938
نوشت	-11.8938
صال	-11.8946
کیت	-11.8948
▁تفنگ	-11.8952
ربط	-11.8953
نمود	-11.8954
مشق	-11.8962
▁سوز	-11.8967
انیس	-11.8974
▁۲۹۰	-11.8978
▁سفیدپوست	-11.8978
وشن	-11.8981
▁۲۰۵	-11.8981
مردان	-11.8984
حکم	-11.8989
▁جولیا	-11.8989
▁کرای	-11.8989
▁مقاوم	-11.8991
▁گوهر	-11.8993
▁۲۵۰۰	-11.8994
واضع	-11.8997
نازل	-11.8997
▁ترفند	-11.8998
حبی	-11.8999
▁مکالم	-11.9001
سرع	-11.9001
وکارها	-11.9005
▁نگو	-11.9006
رگامو	-11.9008
▁رونالد	-11.9008
شابه	-11.9009
▁۲۴۰	-11.9012
▁الشع	-11.9014
▁تشعشع	-11.9014
▁آکسفام	-11.9014
▁اوزبیک	-11.9014
▁برافراشت	-11.9014
▁بیندازد	-11.9014
▁توفندها	-11.9014
▁دزفول	-11.9014
▁دگرباش	-11.9014
▁رامهرمز	-11.9014
▁زراعت	-11.9014
▁سوراخ	-11.9014
▁فستیوال	-11.9014
▁قزوین	-11.9014
▁مارگاریتا	-11.9014
▁مفاهیم	-11.9014
▁ننگرهار	-11.9014
▁کوکائین	-11.9014
▁اصغر	-11.9014
▁سولیوان	-11.9014
▁عنایت	-11.9014
▁متضاد	-11.9014
▁نباشید	-11.9014
▁نپذیرفت	-11.9014
▁هیدروژن	-11.9014
▁چسباند	-11.9014
▁اوقاف	-11.9014
▁بیندازند	-11.9014
▁زوایا	-11.9014
▁سیاهپوست	-11.9014
▁ناپایدار	-11.9014
▁۲۰۳۵	-11.9014
▁مردخای	-11.9014
▁بیضایی	-11.9014
▁لغز	-11.9014
▁پرتوافشانی	-11.9014
▁غزنوی	-11.9014
▁مطیع	-11.9014
▁مجارستان	-11.9014
▁نقیض	-11.9014
▁مقاطع	-11.9014
▁تراشید	-11.9014
▁فرهیخت	-11.9014
▁اتمسفر	-11.9014
▁ایرلاین	-11.9014
▁برنامک	-11.9014
▁پاستور	-11.9014
▁فاسد	-11.9014
▁زیراتمی	-11.9014
▁تجسس	-11.9014
▁سرامیک	-11.9014
▁بنکدارپور	-11.9014
▁لرزاند	-11.9014
▁بشود	-11.9014
▁نیکزاد	-11.9014
معجزه	-11.9014
▁گلیزر	-11.9014
▁فواید	-11.9014
▁یقین	-11.9014
▁عزل	-11.9014
▁گوارش	-11.9014
▁کابوس	-11.9014
▁آپوف	-11.9014
▁تسخیر	-11.9014
▁زشت	-11.9015
▁برنگرداند	-11.9015
▁آستین	-11.9015
▁دیزل	-11.9015
▁برنگشت	-11.9015
▁ندارید	-11.9015
▁جادوگر	-11.9015
▁تقلا	-11.9015
▁تمیز	-11.9015
▁خویشتن	-11.9015
▁شنوند	-11.9015
▁دروغگو	-11.9015
▁شادمان	-11.9015
▁مادربزرگ	-11.9015
▁مفسر	-11.9015
▁مالزی	-11.9016
▁الجز	-11.9016
۱۹۶۴	-11.9016
▁بلندپایه	-11.9016
▁غذاخور	-11.9016
حشمت	-11.9016
▁یدک	-11.9016
▁آوینی	-11.9016
▁سلیق	-11.9017
▁بمیرد	-11.9017
▁مغایر	-11.9017
▁چوپ	-11.9017
▁انصاری	-11.9017
▁هیوستون	-11.9017
▁دفع	-11.9017
▁سازگار	-11.9017
▁تخار	-11.9017
▁تربت	-11.9017
▁بیایند	-11.9017
▁شروط	-11.9017
▁ژائو	-11.9018
▁نیابت	-11.9018
▁شوشتر	-11.9018
▁مجزا	-11.9019
▁انعکاس	-11.9019
▁زهیر	-11.9019
▁تمجید	-11.9019
▁میدهد	-11.9019
▁آنچنان	-11.9019
انطب	-11.902
▁مشروعیت	-11.902
الاح	-11.902
▁مخوف	-11.902
▁نثر	-11.902
▁۱۹۷۹	-11.902
آنگولا	-11.9021
▁آسود	-11.9021
▁بپردازند	-11.9021
▁حشرات	-11.9021
▁عبادی	-11.9021
ناگلزم	-11.9022
▁صفوف	-11.9023
▁معصوم	-11.9024
وبیل	-11.9024
▁سرپوش	-11.9025
مختار	-11.9026
ولوو	-11.9026
▁دانید	-11.9027
▁هنکس	-11.9028
▁مجلات	-11.9029
▁کاسپی	-11.9029
▁جهنم	-11.9029
▁آموس	-11.9029
▁وانگ	-11.903
▁وجدان	-11.903
▁راجپوت	-11.9031
▁لافرته	-11.9031
▁خجالت	-11.9031
▁عذاب	-11.9031
▁عبدالرحم	-11.9031
▁بلاتکلیفی	-11.9032
▁ماوریک	-11.9032
▁خلبان	-11.9032
▁امپر	-11.9032
▁بخوانند	-11.9032
▁مالباخت	-11.9032
▁گوترش	-11.9032
▁بانکوک	-11.9033
▁دستمزدها	-11.9034
▁نوابی	-11.9034
▁معنادار	-11.9034
▁قبایل	-11.9035
▁چفرین	-11.9035
▁ستود	-11.9036
▁ذوال	-11.9036
▁خطاهای	-11.9037
وشو	-11.904
▁کاردوس	-11.904
▁بیگم	-11.904
▁چشید	-11.904
▁حض	-11.9041
▁هموطنان	-11.9041
▁چندرایان	-11.9042
ورلد	-11.9042
▁لاهه	-11.9043
اندز	-11.9043
▁دلسوز	-11.9044
خرید	-11.9044
▁درخشد	-11.9044
▁قلمرو	-11.9044
تعلل	-11.9046
▁غزل	-11.9046
▁رسیم	-11.9047
▁دادخواست	-11.9047
گوئه	-11.9047
▁خودمختار	-11.9048
متاز	-11.9049
▁اژدها	-11.905
▁لنز	-11.905
▁شیاد	-11.9051
▁تراژ	-11.9051
▁بدیع	-11.9054
پایان	-11.9056
▁پردازش	-11.9056
▁کمربندهای	-11.9057
مدیران	-11.9057
▁اجداد	-11.9057
▁شراب	-11.9058
▁نمودار	-11.9058
شکنی	-11.9059
▁اعترافات	-11.906
نیتو	-11.906
▁وارث	-11.9062
▁کوثر	-11.9062
▁اشکالات	-11.9063
▁فاکتور	-11.9064
▁پرکار	-11.9064
▁قارچ	-11.9068
▁توتال	-11.9068
▁وفا	-11.9068
ربین	-11.907
داشتن	-11.9071
▁شاهکارهای	-11.9072
▁ویرانگر	-11.9072
تص	-11.9072
▁بادام	-11.9073
▁دوید	-11.9074
▁اخطارهای	-11.9076
محسن	-11.9076
▁ماهیان	-11.9077
▁سرزن	-11.9077
▁زادروز	-11.9077
▁۱۱۹	-11.9077
▁فلزات	-11.908
▁زینب	-11.9081
▁حرا	-11.9081
▁آرنو	-11.9081
▁پارکور	-11.9082
▁ترکمان	-11.9084
▁زوم	-11.9085
▁وفن	-11.9085
▁نماید	-11.9087
▁ندادند	-11.9092
▁الکترودها	-11.9094
▁شمرد	-11.9095
▁پسا	-11.9095
▁۲۱۶	-11.9096
فورا	-11.9099
▁فوب	-11.9099
▁کورین	-11.91
▁۱۵۵	-11.9102
▁اکثرا	-11.9102
▁کریر	-11.9102
▁بزرگسالان	-11.9103
دلایل	-11.9105
▁کویت	-11.9107
▁محی	-11.9109
ینیو	-11.9111
▁حقوقدان	-11.9118
اسیرو	-11.9119
▁خالد	-11.9119
▁خطاط	-11.9121
▁افشاگر	-11.9123
▁میناری	-11.9123
▁کشیم	-11.9124
▁دیابت	-11.9124
▁هادرون	-11.9127
رات	-11.9128
▁ریختن	-11.9136
▁نیر	-11.9136
▁ایگ	-11.9137
اردی	-11.9138
▁اقسا	-11.9143
▁گذراندم	-11.9143
آما	-11.9148
تجمع	-11.9157
▁گراز	-11.9159
آفرینی	-11.9161
▁کولبران	-11.9162
▁لج	-11.9164
▁شرت	-11.9166
▁مشاهدات	-11.917
▁محص	-11.9171
▁سیاستگذار	-11.9176
▁یونه	-11.9179
▁مکزیکو	-11.9185
▁امضاکنند	-11.9185
▁کنگو	-11.9186
▁آورید	-11.9188
▁لیو	-11.9188
مانیا	-11.9191
▁بکت	-11.9192
پرستانه	-11.9197
▁خش	-11.9199
نجی	-11.9203
انریک	-11.9206
▁برگشتند	-11.9209
▁رخدادهای	-11.9209
▁تویی	-11.9211
▁آمری	-11.9213
▁سناریوها	-11.9219
▁مورفی	-11.9219
▁خا	-11.9222
▁بندهای	-11.9223
▁همهمه	-11.9227
▁دز	-11.9227
▁دوهزار	-11.9228
تمامی	-11.923
▁چهارده	-11.9233
▁پشتکار	-11.9239
▁ترسید	-11.9242
▁ابط	-11.9243
▁سخ	-11.9261
▁حوت	-11.9262
شکاف	-11.9267
▁آرت	-11.9272
فرانس	-11.9276
▁شرعی	-11.9281
▁نظ	-11.9282
ولز	-11.9283
چار	-11.9283
▁حک	-11.9289
▁خصوصا	-11.9289
▁اسما	-11.9291
وماگا	-11.9295
موت	-11.9302
ئیت	-11.9321
▁آلک	-11.9345
لسون	-11.9346
▁گاردن	-11.935
▁گنجان	-11.9353
صیر	-11.9361
▁تجسمی	-11.9382
▁ساچ	-11.9382
▁خودکار	-11.9397
خوش	-11.94
▁هیپ	-11.9407
▁عطار	-11.941
▁جسی	-11.9411
عود	-11.9412
وشیرو	-11.9416
▁لینگ	-11.9417
▁طبقات	-11.9419
▁بیگان	-11.9431
▁کلینت	-11.9434
▁نایت	-11.9434
▁وول	-11.9434
مینا	-11.9438
▁اورک	-11.9467
▁وتو	-11.9472
شوه	-11.9483
▁یوسفی	-11.949
بهترین	-11.9494
▁پارو	-11.9494
▁لوت	-11.9497
▁هایپر	-11.9499
▁همگان	-11.9514
زود	-11.9516
▁کیش	-11.9532
وانیم	-11.9534
ترک	-11.9539
ضب	-11.9541
▁دیرین	-11.9544
زاد	-11.9547
تقابل	-11.9562
پالا	-11.9562
▁غیرعم	-11.9576
▁گرون	-11.9585
▁زدم	-11.9591
▁بیک	-11.9592
شهرهای	-11.9596
▁بلندپروازی	-11.9599
۸۱	-11.9604
جیل	-11.9652
▁بدو	-11.9674
▁تایی	-11.9689
▁استرلی	-11.9695
نخ	-11.9701
▁اندرو	-11.9704
▁اورگ	-11.971
فهمد	-11.9713
▁تیز	-11.9721
▁دانستم	-11.9736
▁سودجو	-11.9782
▁بنام	-11.9782
▁غوری	-11.979
۴۴	-11.9791
۱۲	-11.9807
▁دوآ	-11.9809
ورس	-11.981
▁شورشی	-11.9822
▁رجبی	-11.9825
▁۱۳۸۶	-11.9827
لنگر	-11.9835
تعدادی	-11.9836
کسان	-11.9859
لیا	-11.9889
▁برپا	-11.9892
ونکو	-11.9893
هاب	-11.9895
▁گود	-11.9898
▁سروده	-11.991
▁فتو	-11.9912
تاد	-11.9916
▁دکترای	-11.9936
بوک	-11.9952
شاره	-11.9954
ردام	-11.9963
▁رازی	-11.9968
نویس	-11.9974
▁کوبی	-12.0025
▁کلک	-12.0031
سوری	-12.0032
سپی	-12.0036
▁نر	-12.005
ئوس	-12.0051
▁میزبانش	-12.0081
شدن	-12.0101
کوئ	-12.0104
▁فرودست	-12.0106
▁پوک	-12.0116
▁فاک	-12.0117
▁جهانبخ	-12.0122
یکایی	-12.0126
▁هرسال	-12.0129
▁صدایی	-12.0129
اوا	-12.013
▁ضمی	-12.0155
ذا	-12.0161
▁فیو	-12.0176
گور	-12.0182
ریو	-12.0183
فرود	-12.0187
راندن	-12.0192
▁گذاریم	-12.0207
ولین	-12.0217
▁مارین	-12.0223
▁مشروع	-12.0224
▁آمونی	-12.0226
▁جوری	-12.0228
▁احرا	-12.023
یکپا	-12.0235
اشک	-12.0249
روها	-12.0253
چنین	-12.0261
انح	-12.0275
پایه	-12.029
▁دلو	-12.0296
بندند	-12.0298
خاطره	-12.0334
اسکا	-12.0364
یتز	-12.0369
▁الف	-12.0389
▁بلیک	-12.041
فال	-12.0417
▁شدایران	-12.0426
اهی	-12.0434
▁فاکس	-12.0439
▁کاپل	-12.0444
▁سالروز	-12.0447
▁عس	-12.0465
▁۴۲۰	-12.0468
▁پرستاره	-12.0473
وفق	-12.0474
فاق	-12.0481
الین	-12.0486
▁اخت	-12.0497
ملی	-12.0542
روا	-12.0545
▁آش	-12.0552
▁سامانی	-12.0554
پار	-12.0558
▁ونت	-12.0558
▁بیند	-12.0563
▁چنگ	-12.0589
▁ولاد	-12.0596
▁کارکنانش	-12.0597
گردانده	-12.0604
▁ناامیدی	-12.0647
▁همپ	-12.0661
خوانده	-12.0672
وکس	-12.0696
▁۱۶۶	-12.0699
لیتو	-12.0703
▁نزده	-12.0709
▁اکو	-12.0716
ارض	-12.0719
▁ازد	-12.0729
وردی	-12.0748
▁هوم	-12.0757
▁نروژی	-12.0772
کات	-12.0772
پژوه	-12.0778
▁فره	-12.0803
الوح	-12.0813
▁العم	-12.0826
▁استودیوی	-12.0831
وست	-12.0842
جاسوسی	-12.0853
▁قضا	-12.0858
▁سرگرفت	-12.086
▁آموختن	-12.087
گرایی	-12.088
▁ناخ	-12.0882
رونا	-12.0886
▁متو	-12.0897
▁سفرش	-12.0946
▁گرجستان	-12.0973
ستراز	-12.0975
▁شوی	-12.0984
▁کلن	-12.0988
وسی	-12.0994
▁شاد	-12.0996
▁نتوا	-12.1012
▁کنارش	-12.1016
جات	-12.1021
▁جوانب	-12.1023
تامین	-12.1049
سیل	-12.1057
بریتی	-12.1058
▁نیرومند	-12.106
برو	-12.1063
نگاره	-12.1063
▁دستورها	-12.1064
رسید	-12.1065
گستر	-12.1067
▁کیک	-12.1069
▁دیواره	-12.1079
▁ساسان	-12.1079
▁شوخ	-12.1087
▁مزایا	-12.1116
باف	-12.1116
▁خانوارها	-12.1124
په	-12.1138
خارج	-12.1145
▁الم	-12.1147
▁وزر	-12.1152
عم	-12.1158
اونت	-12.1163
▁تجسم	-12.117
شاملو	-12.1171
دارا	-12.118
▁والن	-12.1183
ابن	-12.1184
کانس	-12.1185
هیج	-12.1186
▁هواپیماها	-12.1205
▁لیمو	-12.1205
▁پیشگیر	-12.1213
▁فاین	-12.1237
▁نخ	-12.1244
▁بویی	-12.1254
▁حیا	-12.1254
موسی	-12.1263
نتس	-12.1275
محل	-12.1276
▁فروخت	-12.1277
گارد	-12.128
▁چیزها	-12.1282
گذران	-12.1285
▁نجفی	-12.1286
▁پهن	-12.129
پینو	-12.129
▁معوق	-12.1292
کریس	-12.1295
▁چشمم	-12.13
رجان	-12.1304
▁رحیم	-12.1309
▁۴۸۰	-12.1314
▁مسیرها	-12.1324
ناوب	-12.1328
▁نتوان	-12.1332
فعال	-12.1342
اسپوت	-12.1347
انیو	-12.1352
▁منسو	-12.1357
ستحکم	-12.1359
▁هوگ	-12.136
▁۱۳۱	-12.1368
رویا	-12.1371
نهادهای	-12.1373
حکام	-12.1374
فاضل	-12.1376
بیانسه	-12.1377
گمش	-12.1377
تحرک	-12.138
نشدنی	-12.138
سنده	-12.1381
تابعیت	-12.1381
بیورن	-12.1381
صرب	-12.1381
لاپورتا	-12.1382
اقبال	-12.1382
روبرت	-12.1383
بالگرد	-12.1384
منتف	-12.1384
ادعا	-12.1384
خروج	-12.1385
ابراهیم	-12.1385
جسد	-12.1385
خاوران	-12.1385
سوئیس	-12.1385
رونالدو	-12.1385
برزیل	-12.1385
نیویورک	-12.1385
رویترز	-12.1385
رئال	-12.1385
اظهارات	-12.1386
نویسندگان	-12.1386
فضای	-12.1386
سفیر	-12.1386
سقوط	-12.1386
رکود	-12.1386
کودک	-12.1386
صنعت	-12.1386
حکومت	-12.1386
عملکرد	-12.1386
آزمایش	-12.1386
عربستان	-12.1386
حمایت	-12.1386
توافق	-12.1386
افراد	-12.1386
فیفا	-12.1387
جشن	-12.1387
خدم	-12.1387
جمهوری	-12.1388
پیکر	-12.1388
خواننده	-12.1388
چاپ	-12.1388
ماشین	-12.1388
علنی	-12.1389
مدیرکل	-12.1389
وضعیت	-12.1389
نوسان	-12.1389
▁فرن	-12.139
پرونده	-12.1391
خیز	-12.1391
کنفرانس	-12.1392
مالک	-12.1394
حساب	-12.1395
مکرون	-12.1395
جنسی	-12.1396
سناتور	-12.1396
▁آندریا	-12.1396
▁اپی	-12.1397
توییت	-12.1397
شستن	-12.1397
هجوم	-12.1398
پهن	-12.1398
اندرو	-12.1399
کیهان	-12.1399
سبک	-12.1399
خود	-12.14
ایرنا	-12.1402
جمله	-12.1403
جیمز	-12.1405
راکت	-12.1405
یناتور	-12.1406
فره	-12.1407
سیمون	-12.1408
گردیم	-12.1409
اقدام	-12.1411
▁قای	-12.1411
بدهی	-12.1411
حکمت	-12.1412
گرفتن	-12.1414
مدیریت	-12.1414
سنج	-12.1414
قبلا	-12.1416
گمان	-12.1418
درباره	-12.1418
ناسا	-12.1422
▁۱۲۶	-12.1424
مصرف	-12.1424
سورها	-12.1429
وکیل	-12.1431
رشا	-12.1431
میلان	-12.1433
هفتم	-12.1435
ناوگان	-12.1435
چو	-12.1436
وشکن	-12.1437
درخواست	-12.1438
▁کثی	-12.1445
سیاسی	-12.1446
▁اوب	-12.1448
سینما	-12.145
ورنتین	-12.1452
سیاست	-12.1453
ناتالی	-12.1453
▁گنا	-12.1454
▁مختص	-12.1455
▁انع	-12.1455
بولت	-12.1456
نقا	-12.1461
پپ	-12.1461
▁صیاد	-12.1461
حک	-12.1461
▁فلامینگو	-12.1463
دوست	-12.1465
اسکار	-12.1465
▁همسایگ	-12.1466
دستور	-12.1466
بنز	-12.1468
▁داینا	-12.1468
پوشان	-12.1469
قول	-12.1469
شنود	-12.147
دوج	-12.147
▁توئیت	-12.147
سوخت	-12.1471
یکصد	-12.1471
▁اط	-12.1471
احسا	-12.1479
باستان	-12.1481
شکست	-12.1484
طابق	-12.1484
▁شراف	-12.1485
کشف	-12.1486
▁زحم	-12.1488
▁قبای	-12.1493
گیرند	-12.1494
▁بحری	-12.1497
▁مطبوع	-12.1502
لگرام	-12.1505
لوح	-12.1505
نادر	-12.1509
▁وسای	-12.151
جنگ	-12.151
نقش	-12.1511
قیق	-12.1512
لوگ	-12.1513
تروئ	-12.1514
▁ابتذال	-12.1514
▁انقباض	-12.1514
▁اوگوپوگو	-12.1514
▁برگردانند	-12.1514
▁بشناسد	-12.1514
▁بورکینافاسو	-12.1514
▁تماشگر	-12.1514
▁تمسخر	-12.1514
▁خاستگاه	-12.1514
▁سوسیالیست	-12.1514
▁طنزپرداز	-12.1514
▁فانخیو	-12.1514
▁فلسفی	-12.1514
▁فیزیولوژی	-12.1514
▁متقلب	-12.1514
▁ناآشنا	-12.1514
▁هخامنشی	-12.1514
▁هنجار	-12.1514
▁پرسورینس	-12.1514
▁پرینسخرا	-12.1514
▁پورنوگرافی	-12.1514
▁اقوام	-12.1514
▁بشنوند	-12.1514
▁بفرستد	-12.1514
▁سوبرانا	-12.1514
▁فیزیوتراپ	-12.1514
▁شریعت	-12.1514
▁قیراط	-12.1514
▁مفسد	-12.1514
▁ناظمی	-12.1514
▁خویشاوند	-12.1514
▁مشهود	-12.1514
▁میکروسکوپ	-12.1514
▁هورمون	-12.1514
▁وسعت	-12.1514
▁کاریکاتور	-12.1514
▁شیطان	-12.1514
▁مغانلو	-12.1514
▁بپرسید	-12.1514
▁تشریفات	-12.1514
▁همجوار	-12.1514
▁حروف	-12.1514
الشهدا	-12.1514
▁برسانیم	-12.1514
▁شرمسار	-12.1514
▁معشوق	-12.1514
▁معضل	-12.1514
▁اساتید	-12.1514
▁وصیت	-12.1514
▁انحراف	-12.1514
▁نوترینو	-12.1514
▁فرستند	-12.1514
▁جوابگوی	-12.1514
▁تمهید	-12.1514
▁لوکزامبورگ	-12.1514
▁بگریز	-12.1514
▁فرخزاد	-12.1514
▁نزاع	-12.1514
▁مقبول	-12.1514
▁جانبازان	-12.1514
▁معبد	-12.1514
▁ارنست	-12.1514
▁بازگردم	-12.1514
▁گمپرت	-12.1514
▁بیفتند	-12.1514
▁نرساند	-12.1514
▁نخاع	-12.1514
▁پاندمی	-12.1514
▁بازدارند	-12.1514
▁مصادیق	-12.1514
صنوف	-12.1514
▁اولیانوف	-12.1514
▁پوسید	-12.1514
▁ناخدا	-12.1514
▁تدارک	-12.1514
▁سروصدا	-12.1514
▁گزاف	-12.1514
▁۵۳ساله	-12.1514
▁طلسم	-12.1514
▁فورهند	-12.1515
▁تعلیم	-12.1515
▁ارباب	-12.1515
▁سمنزا	-12.1515
▁بازوبند	-12.1515
▁هیلتون	-12.1515
▁حماس	-12.1515
▁موازن	-12.1515
▁المپی	-12.1515
▁آژیر	-12.1515
▁همینگوی	-12.1516
▁طومار	-12.1516
▁علیشاهی	-12.1516
▁بردارم	-12.1516
▁دیلن	-12.1516
▁الخروج	-12.1516
▁نوشتارها	-12.1516
▁فرمایش	-12.1517
▁اسکلت	-12.1517
▁فرازمینی	-12.1517
▁غمگین	-12.1517
▁بنرهای	-12.1518
▁صداقت	-12.1518
▁بسط	-12.1518
▁سوینتن	-12.1518
▁کوئینز	-12.1518
▁گمارد	-12.1518
▁سرسبز	-12.1519
▁الفبا	-12.1519
▁سیندمی	-12.152
▁فیض	-12.152
رپیچ	-12.152
▁آقاخان	-12.152
اسرای	-12.152
▁صدیق	-12.152
▁بنویسد	-12.152
▁خوشبو	-12.1521
▁فاضلاب	-12.1521
▁ماورا	-12.1521
▁کانتونا	-12.1521
▁مشکاتیان	-12.1521
اطع	-12.1521
▁نافرجام	-12.1522
▁ویسکانس	-12.1522
▁ونوس	-12.1522
▁محصور	-12.1522
▁افراز	-12.1522
▁بارکلی	-12.1523
▁ترفتال	-12.1524
▁نویدبخش	-12.1524
▁آتلانتا	-12.1524
▁تظاهر	-12.1524
▁آجر	-12.1524
▁قدیس	-12.1525
▁ستیزانه	-12.1525
▁سنجاب	-12.1525
▁۱۳۲۳	-12.1525
▁اوتیسم	-12.1525
▁منحنی	-12.1526
▁آتلانت	-12.1526
▁فدریک	-12.1526
▁معابد	-12.1526
▁تشابه	-12.1527
▁روباه	-12.1527
▁تنبل	-12.1528
▁دارالا	-12.1528
▁مرندی	-12.1528
▁دایم	-12.1528
طغ	-12.1528
▁گنبد	-12.1529
▁فاصل	-12.153
▁الاه	-12.153
▁۷۶۰	-12.1531
▁دفعات	-12.1532
▁ایرایی	-12.1532
▁گچ	-12.1532
▁۵۵۶	-12.1533
▁بامیه	-12.1533
▁طو	-12.1533
▁خرنامه	-12.1533
▁گیج	-12.1534
▁بازوهای	-12.1534
ارزپاشی	-12.1534
▁گاف	-12.1535
▁۱۹۴۴	-12.1535
▁رجیس	-12.1535
همکاری	-12.1535
▁همبازی	-12.1535
▁محک	-12.1535
دائی	-12.1537
▁هالووین	-12.1537
▁مرورگر	-12.1538
▁فرشید	-12.1538
▁مارلی	-12.1538
پوآ	-12.1539
▁کاترین	-12.1541
▁نبست	-12.1542
جماع	-12.1544
▁زالی	-12.1544
▁نحس	-12.1545
▁ارژن	-12.1545
▁لح	-12.1545
▁بوفالوران	-12.1546
▁مزیت	-12.1548
▁شهباز	-12.1548
▁بهائی	-12.1549
▁پرمخاط	-12.155
▁میانمار	-12.1551
نکات	-12.1551
▁مرج	-12.1551
▁۲۳۹	-12.1552
▁بنشین	-12.1553
▁تباه	-12.1553
▁قبرس	-12.1553
▁واژگان	-12.1554
▁وصدا	-12.1554
▁تابع	-12.1555
▁رافا	-12.1555
اشق	-12.1555
▁جویانه	-12.1556
▁۲۶۶	-12.1557
▁ویدئوهای	-12.1557
▁شوکور	-12.1558
▁بگو	-12.1559
▁دستفروش	-12.1559
▁کبود	-12.156
▁لرد	-12.1561
▁۱۹۱۸	-12.1562
▁مکاتبات	-12.1563
▁خوانید	-12.1566
▁وسائ	-12.1568
▁شاخک	-12.157
ولاتش	-12.157
صائی	-12.157
▁زیربنا	-12.157
پائی	-12.1573
▁ویسل	-12.1573
▁پرد	-12.1576
▁اوساکا	-12.1577
▁سندگرن	-12.158
▁قلی	-12.1581
▁پربار	-12.1581
لومین	-12.1585
صمد	-12.1585
▁مسلم	-12.1586
سگ	-12.1587
نگوی	-12.1589
▁زرتشتی	-12.159
▁نداشتیم	-12.1591
▁بدق	-12.1591
▁ناباور	-12.1595
▁ولای	-12.1596
▁فرآور	-12.1597
▁اسکات	-12.1597
▁مبل	-12.1598
▁منصف	-12.1598
▁حریفش	-12.1599
▁رسند	-12.16
▁شگرد	-12.1601
▁نظار	-12.1602
شهرت	-12.1607
▁توسل	-12.1607
بریز	-12.1607
یبریا	-12.1608
▁مستعد	-12.1613
▁چهارصد	-12.1614
▁۱۲۷	-12.1616
▁منکین	-12.1619
▁تناقض	-12.1619
▁بنفش	-12.1619
▁دائما	-12.1622
شواری	-12.163
▁نیافتاد	-12.163
▁فالک	-12.1631
▁نئ	-12.1632
▁بیدگ	-12.1633
▁پهنا	-12.1635
▁فض	-12.1635
▁پونت	-12.1636
▁محبت	-12.1637
▁ببخش	-12.1638
اردونا	-12.1639
روزهای	-12.1639
▁دستیاران	-12.164
حور	-12.164
▁کلاسیکو	-12.1642
▁پاور	-12.1642
▁درصورت	-12.1648
▁کتابخوان	-12.165
▁استانها	-12.1654
▁ترنس	-12.1655
▁معلومات	-12.1657
سترسیتی	-12.1657
حضرت	-12.166
▁چتر	-12.1661
▁اندیشید	-12.1661
▁یادمان	-12.1662
▁هرچیز	-12.1669
نعیم	-12.1669
جف	-12.1673
▁فلسطینی	-12.1676
▁ایدز	-12.1678
▁ساق	-12.1679
▁میکند	-12.1681
▁دالان	-12.1681
▁بکن	-12.1682
▁هولو	-12.1684
عاب	-12.1684
▁ازآن	-12.1685
▁کشمیر	-12.1685
سادگی	-12.1687
▁کساد	-12.1689
طلق	-12.1698
▁مورخ	-12.1699
▁ائ	-12.1701
الیف	-12.1703
▁شال	-12.1705
صدق	-12.1708
قاد	-12.1713
▁بوهای	-12.1715
▁سپهر	-12.1715
▁وایت	-12.1716
▁پرشک	-12.1721
▁بولد	-12.1721
▁درازا	-12.1723
▁نوپا	-12.1731
▁رویکردهای	-12.1731
▁برنج	-12.1731
▁راهکارهای	-12.1737
▁پدرو	-12.1737
دوگو	-12.1738
▁قبض	-12.1746
▁خفا	-12.1747
ریاست	-12.1748
▁پذیرد	-12.1751
مانند	-12.1753
▁ماجراهای	-12.1753
▁جودوکا	-12.1756
پدر	-12.1756
▁خب	-12.1758
▁جده	-12.1766
▁نشو	-12.177
▁آمو	-12.1773
▁لرزید	-12.1785
▁ترسند	-12.1787
▁جلوست	-12.1791
▁نیستید	-12.1796
▁گرو	-12.18
▁قمر	-12.1802
▁هیج	-12.1806
▁شکس	-12.1806
▁اولیان	-12.1809
▁اعت	-12.1811
ریحان	-12.1815
▁فرگوس	-12.1817
▁بفهمی	-12.1817
پرای	-12.1823
▁آبیار	-12.183
▁آمل	-12.1834
قویا	-12.1839
▁تعبی	-12.1844
کانا	-12.1845
▁نیاورده	-12.1847
▁نایم	-12.1852
▁فراوانش	-12.1858
▁چغا	-12.1858
▁لطیفی	-12.1862
خسار	-12.1863
▁شناسیم	-12.1865
▁پارکین	-12.1866
▁درسا	-12.1872
استان	-12.1875
تمایل	-12.1881
▁باشی	-12.1882
▁مستندهای	-12.1884
شیتز	-12.1889
▁بدهیم	-12.1901
▁جهاندار	-12.1905
▁آسم	-12.1942
عت	-12.1948
▁اظهارنظرهای	-12.195
▁سپه	-12.1959
مایه	-12.196
کلت	-12.1964
جز	-12.1967
▁زاها	-12.1979
▁اتفاقا	-12.1982
▁سکس	-12.1984
▁سلیم	-12.199
▁استدفتر	-12.1992
▁ترسم	-12.1999
▁رحیمی	-12.2002
جران	-12.2004
▁چاو	-12.2006
فشان	-12.2015
▁آوریم	-12.2019
▁افتادند	-12.2033
گذشته	-12.2049
▁پرور	-12.2052
▁راهکار	-12.2055
رلند	-12.2064
▁کالین	-12.2078
▁صفت	-12.208
چهارم	-12.2083
▁۶۳۰	-12.2101
▁رامین	-12.2117
▁جود	-12.2121
▁بایس	-12.2123
▁قبرها	-12.2126
▁دستورات	-12.213
▁رگی	-12.2147
▁طاهری	-12.2148
▁سیلوا	-12.2149
عات	-12.2168
▁بلندهای	-12.2176
کاران	-12.2178
▁یوآن	-12.219
▁پولدار	-12.2207
▁هرج	-12.221
▁شانز	-12.2213
▁پش	-12.2218
▁سکوی	-12.2222
گوید	-12.2235
▁ویچ	-12.2236
▁آلتر	-12.2245
▁نقاشان	-12.2245
▁شناختند	-12.2246
▁هاستل	-12.2253
▁دارن	-12.2257
گویید	-12.228
دنبال	-12.2285
▁نبودن	-12.2297
▁ویا	-12.23
شمول	-12.2305
ساتبی	-12.2308
▁فرزان	-12.2312
▁لع	-12.2313
▁بنت	-12.2316
▁استانداردها	-12.2325
ساطی	-12.2326
▁رقصیدن	-12.2333
زیا	-12.2344
▁اتم	-12.2345
شمن	-12.2346
▁محر	-12.2347
خر	-12.235
رجا	-12.2368
▁روئی	-12.2377
وارت	-12.239
استین	-12.2402
پات	-12.2424
▁پلات	-12.2425
▁آریا	-12.2435
▁هواپیماساز	-12.2441
۵۳	-12.2443
▁یادش	-12.2448
▁سازمانها	-12.2475
راد	-12.2475
العمل	-12.2487
▁آنف	-12.2493
لیو	-12.25
▁رسا	-12.2504
روید	-12.251
▁ویلر	-12.2512
شرف	-12.2515
نهاد	-12.2538
انستان	-12.2544
▁الری	-12.2547
▁ایرانسل	-12.2552
ناتور	-12.256
▁کتا	-12.257
▁چندسال	-12.257
▁هوک	-12.2577
▁پرداختند	-12.2578
▁انگیزش	-12.2582
▁کریستین	-12.2582
▁اتکای	-12.2599
▁ترساند	-12.2634
▁گوتنب	-12.2648
▁اوس	-12.2656
۳۲	-12.2662
▁عمرم	-12.2666
▁پارسا	-12.2695
تاکس	-12.2734
سید	-12.2747
▁کوری	-12.2763
▁نزدیکانش	-12.2772
توالی	-12.2783
شاپی	-12.2803
▁خرم	-12.2831
▁نانو	-12.2838
▁نفربر	-12.2843
ریتا	-12.2844
بلا	-12.2848
▁یونیو	-12.2857
▁یزدان	-12.2861
▁بلوم	-12.2863
فیک	-12.2881
۶۸	-12.2881
▁ایرانروزها	-12.2884
ایکون	-12.2901
اقت	-12.291
مایش	-12.2922
▁ماریان	-12.2924
آید	-12.2931
رپر	-12.2934
لیور	-12.2946
بدیل	-12.2949
▁غیرمت	-12.2949
▁سوپ	-12.2964
سارو	-12.301
اگون	-12.3017
▁وینس	-12.3035
حاملگی	-12.3046
رزم	-12.305
▁بخ	-12.3066
▁دلجو	-12.3076
▁غای	-12.3084
کمپ	-12.3097
جد	-12.3101
▁ماریو	-12.3137
▁سراغش	-12.3139
گوپ	-12.3146
▁دیگ	-12.315
▁ندار	-12.3164
▁آوا	-12.3165
ونومی	-12.3172
▁رف	-12.3177
عل	-12.3181
▁سوریا	-12.3218
▁لایک	-12.3287
▁حائ	-12.3303
▁گذرا	-12.331
مراه	-12.3324
▁مخ	-12.3329
حریف	-12.3376
ریا	-12.3385
▁سک	-12.3459
دئو	-12.3461
▁پیکا	-12.3469
▁یونی	-12.347
▁فران	-12.3491
▁ابرها	-12.3494
▁سرگرفتن	-12.3509
▁لاین	-12.3523
▁استانهای	-12.3525
▁خرو	-12.3538
کند	-12.3542
پال	-12.3566
▁جدیدتر	-12.3601
کریک	-12.3636
ئیز	-12.3659
▁بلن	-12.3694
نتر	-12.3699
اپار	-12.374
▁مقدا	-12.3742
پیس	-12.3745
کسوت	-12.3751
گسترد	-12.3751
سکین	-12.3769
▁۱۸۴	-12.3782
رید	-12.3829
وگو	-12.383
▁پک	-12.383
▁مضا	-12.3832
▁محصولش	-12.3837
▁وظایفش	-12.3845
▁استروئید	-12.3848
▁هلا	-12.39
▁کتابدار	-12.39
ارگردان	-12.39
سنا	-12.3916
رمو	-12.3925
ذب	-12.3942
▁اسپا	-12.3946
▁مراک	-12.3946
نورد	-12.3948
▁نرفتن	-12.3951
▁رکن	-12.396
▁ارتد	-12.3979
بوم	-12.399
دروس	-12.3992
رنوش	-12.4005
۱۴۶	-12.4005
▁اجسا	-12.403
▁صمیم	-12.4034
ناوند	-12.4037
▁گزی	-12.405
▁قا	-12.4054
گرانی	-12.4055
▁فار	-12.4093
▁مخاط	-12.4125
قاب	-12.4138
رتون	-12.4143
▁کارآمد	-12.4161
خلال	-12.4168
حافظه	-12.4169
▁فضاپیما	-12.417
▁حف	-12.4174
▁حواسش	-12.423
دینامی	-12.4247
▁میانج	-12.4253
▁خوابید	-12.4286
۴۳	-12.4288
▁آرزوها	-12.429
▁۱۵۲	-12.4303
بسیار	-12.4308
آقا	-12.4309
قانون	-12.431
▁متما	-12.4312
▁بسا	-12.4321
▁جنگیدن	-12.4336
▁۱۷۷	-12.4348
▁آلیس	-12.4366
▁لطیف	-12.4383
میزان	-12.4402
▁نجوم	-12.4403
▁شرع	-12.4403
▁پناهجو	-12.4423
▁هیولا	-12.4426
▁محتوا	-12.4435
▁اظهارنظرها	-12.4438
▁کنج	-12.4452
▁وکلا	-12.4453
استفان	-12.4454
▁فقرا	-12.4462
▁پریا	-12.4476
▁جس	-12.4477
▁هجده	-12.4497
▁۱۵۱	-12.4501
▁روبل	-12.4514
چیزی	-12.4514
قامت	-12.4521
▁هاشم	-12.4521
شناسی	-12.4539
▁نیروها	-12.4549
▁گرسن	-12.4562
زنان	-12.4574
لیدی	-12.458
▁نمادها	-12.4581
اویل	-12.4588
بورک	-12.459
فرمانی	-12.4597
▁هچ	-12.4605
عفو	-12.4605
▁قضائی	-12.4611
▁نارنج	-12.4612
▁مساو	-12.4615
▁تجار	-12.4622
▁آغازکرد	-12.4623
ضیا	-12.4625
دالر	-12.4632
▁جادو	-12.4646
▁امیدها	-12.4647
کستر	-12.465
▁تیفو	-12.465
فلورا	-12.4654
اغر	-12.4662
تماشاگر	-12.4666
ئ	-12.4668
▁هید	-12.4679
ذو	-12.4685
▁اسطور	-12.4694
درآمد	-12.4698
زارها	-12.47
▁متروک	-12.47
بنفش	-12.4702
تناقض	-12.4703
تفاوت	-12.4703
مسلم	-12.4703
▁الکترود	-12.4705
جعفر	-12.4708
معمول	-12.4709
تولد	-12.471
مجید	-12.471
خاص	-12.471
ربکا	-12.471
حجت	-12.4711
رجب	-12.4713
آلبر	-12.4713
رامش	-12.4714
رونالدینیو	-12.4714
پناه	-12.4716
خالق	-12.4717
تیرماه	-12.4717
تفاهم	-12.4717
عطرساز	-12.4717
مارتین	-12.4718
کیانوش	-12.4718
منچسترسیتی	-12.4718
غریب	-12.4718
ویلیام	-12.4718
منچستریونایتد	-12.4718
خودکشی	-12.4718
ثروت	-12.4718
کاوشگر	-12.4718
تجهیزات	-12.4718
منوچ	-12.4718
گشایش	-12.4718
تدریج	-12.4718
پادشاه	-12.4719
اختلال	-12.4719
فولاد	-12.4719
گواردیولا	-12.4719
کیفیت	-12.4719
سرپرست	-12.4719
اولسان	-12.4719
پروتکل	-12.4719
خیابان	-12.4719
حراج	-12.4719
وبسایت	-12.4719
مشاور	-12.4719
معترضان	-12.4719
مدیرعامل	-12.4719
بحرین	-12.4719
ساترا	-12.4719
تزریق	-12.4719
سرطان	-12.4719
صادرات	-12.4719
برخورد	-12.4719
المپیک	-12.4719
معروف	-12.4719
تهدید	-12.472
خبرنگار	-12.472
فساد	-12.472
واحد	-12.472
متوقف	-12.472
ساعات	-12.472
فراموش	-12.472
سرمربی	-12.472
موضوع	-12.472
ظریف	-12.472
اطمینان	-12.472
خورشید	-12.472
امنیتی	-12.472
عرص	-12.472
خالی	-12.472
تاسیس	-12.472
وستهم	-12.4721
عملیات	-12.4721
استاندار	-12.4721
ایسنا	-12.4721
پاییز	-12.4721
شکایت	-12.4721
برخلاف	-12.4721
۲۰۲۰	-12.4721
ورزش	-12.4721
پارسال	-12.4721
سریال	-12.4721
همیشه	-12.4721
جدول	-12.4722
مشکل	-12.4722
ورزشگاه	-12.4722
▁فرما	-12.4722
هدایت	-12.4722
پشت	-12.4723
حکیم	-12.4724
جلسه	-12.4725
شایست	-12.4725
انتقادات	-12.4725
امارات	-12.4726
فولک	-12.4726
چهارشنبه	-12.4727
پیدا	-12.4727
سقف	-12.4728
روحانی	-12.4728
جدال	-12.4729
فعالیت	-12.4729
معمولا	-12.473
کالا	-12.4731
سطح	-12.4732
نجیر	-12.4734
پایگاه	-12.4734
سولار	-12.4738
بودجه	-12.4741
دیوان	-12.4742
اصلاح	-12.4743
نتن	-12.4744
جزیی	-12.4744
▁تهدیدها	-12.4745
اعتراضات	-12.4745
ضمن	-12.4747
نادال	-12.4747
تعرض	-12.4749
خودروهای	-12.4751
چپ	-12.4751
چای	-12.4757
کولبر	-12.4759
نوروز	-12.476
▁لنگ	-12.476
▁الیو	-12.4761
نگام	-12.4764
ریزش	-12.4765
ارزها	-12.4769
حرکت	-12.4771
تماشاگران	-12.4772
امشب	-12.4773
نظار	-12.4774
▁داس	-12.4775
ورال	-12.4775
بازارهای	-12.4779
برداشت	-12.478
شاهد	-12.478
▁حسگر	-12.478
▁نط	-12.4783
ایمن	-12.4786
کریستین	-12.4791
بشر	-12.4794
▁نویسند	-12.4795
عبدالله	-12.4795
کوبا	-12.4798
ثمی	-12.4801
▁افزای	-12.481
▁بیوا	-12.481
▁بغل	-12.4812
لویی	-12.4813
کورا	-12.4818
▁بپرداز	-12.4826
▁آپار	-12.4826
▁اقام	-12.4829
دلار	-12.4832
پراتور	-12.4833
نشری	-12.4835
▁هموطن	-12.4835
▁محدو	-12.4839
▁ظالم	-12.484
ستاگرام	-12.4843
▁پابرجا	-12.4844
اراگوئه	-12.4846
▁ظر	-12.4846
▁طع	-12.4847
▁نشناخت	-12.4847
▁آلمادو	-12.4847
▁ابوظبی	-12.4847
▁ایزوتوپ	-12.4847
▁بتهوون	-12.4847
▁برنگردد	-12.4847
▁بپیوندد	-12.4847
▁تئودور	-12.4847
▁تمساح	-12.4847
▁سریلانکا	-12.4847
▁سولوویوف	-12.4847
▁شقاقی	-12.4847
▁عنکبوت	-12.4847
▁غوغای	-12.4847
▁مخترع	-12.4847
▁نباشیم	-12.4847
▁هورایزن	-12.4847
▁ژئوپلتیک	-12.4847
▁الاسلام	-12.4847
▁سبحانی	-12.4847
▁متذکر	-12.4847
▁مقتض	-12.4847
▁واکاندا	-12.4847
▁نیفتد	-12.4847
▁نیفتند	-12.4847
▁همقطاران	-12.4847
▁مدودف	-12.4847
▁مفرط	-12.4847
▁نردبان	-12.4847
▁پوآرو	-12.4847
▁اسپانسر	-12.4847
▁باشکوه	-12.4847
▁بورژوا	-12.4847
▁مزاح	-12.4847
▁مقننه	-12.4847
▁ابریشم	-12.4847
▁غفار	-12.4847
▁موثق	-12.4847
▁پلاکاردها	-12.4847
▁پورتلند	-12.4847
▁بمانید	-12.4847
▁صحافی	-12.4847
▁نافذ	-12.4847
مردم	-12.4847
▁گانگستر	-12.4847
▁ابطحی	-12.4847
▁شگرف	-12.4847
▁گسست	-12.4847
▁انسداد	-12.4847
▁دوقلو	-12.4847
▁انگاشت	-12.4847
▁روایات	-12.4847
▁هلیکوپتر	-12.4847
▁کمرشکن	-12.4847
▁لاوروف	-12.4847
▁ضامن	-12.4847
▁هامبورگ	-12.4847
▁اوکلاه	-12.4847
▁پولانسکی	-12.4847
▁ندوشن	-12.4847
▁سانفرانسیسکو	-12.4847
▁قاپید	-12.4847
▁برگکمپ	-12.4847
نامطلوب	-12.4847
▁کاذب	-12.4847
▁میگویند	-12.4847
▁واینالد	-12.4847
ناملموس	-12.4847
▁مانیتور	-12.4847
▁عبرت	-12.4847
▁باگز	-12.4847
▁سیدابراهیم	-12.4847
▁جماعت	-12.4847
▁خیاط	-12.4847
▁ارمنی	-12.4847
▁بیابد	-12.4847
▁نگرائو	-12.4848
▁اکولوژی	-12.4848
حرمسرا	-12.4848
▁کلسترو	-12.4848
▁خورند	-12.4848
▁حیفا	-12.4848
▁اهرم	-12.4848
▁رهنوش	-12.4848
▁سیلیکون	-12.4848
▁محتکر	-12.4848
▁متفکر	-12.4848
▁بیایید	-12.4848
▁بروکلی	-12.4848
▁فراهانی	-12.4848
▁غنای	-12.4848
▁آسایش	-12.4848
▁اسنوبرد	-12.4848
تکاپو	-12.4848
▁ستمگر	-12.4848
▁ایرانشناس	-12.4849
▁حکاک	-12.4849
▁معذ	-12.4849
▁رسوب	-12.4849
▁شکوهمند	-12.4849
▁دلهره	-12.4849
▁کانتون	-12.4849
▁منفعت	-12.4849
▁عمارت	-12.4849
▁اوباش	-12.4849
▁آسایشگاه	-12.4849
▁متهیا	-12.4849
▁تلاقی	-12.4849
▁همدلی	-12.4849
▁بیاییم	-12.485
▁ریتم	-12.485
▁اتوبان	-12.485
▁گاندو	-12.485
▁توکلی	-12.485
▁لاتکس	-12.485
▁مهدیخانی	-12.485
▁رادارها	-12.4851
▁الاغ	-12.4851
▁ووندر	-12.4851
▁رادیکا	-12.4851
▁ضدویروس	-12.4851
▁افراط	-12.4851
▁غص	-12.4851
مویرگی	-12.4852
▁هلمند	-12.4852
▁متعاقب	-12.4852
▁بنویس	-12.4853
▁پاکیزگی	-12.4853
▁کوونی	-12.4853
زامبی	-12.4853
▁بکاهد	-12.4853
▁آلفرد	-12.4853
▁فروزان	-12.4853
دخا	-12.4853
▁لومب	-12.4853
▁کربلا	-12.4854
▁تقلی	-12.4855
بلنک	-12.4855
▁بزنید	-12.4855
▁تعصب	-12.4855
▁الاصل	-12.4855
▁نگذشته	-12.4855
▁خص	-12.4855
قناع	-12.4856
▁سفال	-12.4856
▁پنهانکاری	-12.4856
▁دهشت	-12.4856
▁کاکس	-12.4856
▁۱۹۱۲	-12.4856
ویتز	-12.4856
▁ابله	-12.4857
▁نوازد	-12.4857
▁نیایش	-12.4857
▁۱۹۳۹	-12.4857
▁گوریل	-12.4858
▁بپیچ	-12.4858
▁گماشت	-12.4858
▁سرمست	-12.4858
▁متأسف	-12.4858
▁موزیکال	-12.4858
▁پرنفوذ	-12.4858
▁ولیحی	-12.4859
▁پاسداشت	-12.4859
▁افتضاح	-12.4859
▁دلیری	-12.486
▁۱۳۸۰	-12.486
▁آلبانی	-12.486
▁امیدورا	-12.486
▁معصومانه	-12.486
▁السلط	-12.4861
▁زمام	-12.4861
اثی	-12.4861
خاطرات	-12.4862
▁کوارت	-12.4862
▁بسپارد	-12.4863
▁جنون	-12.4864
▁۱۹۷۷	-12.4865
▁بصیر	-12.4865
▁کاونت	-12.4865
▁سوزد	-12.4866
▁بکنند	-12.4866
▁ونچ	-12.4866
▁۶۱۲	-12.4866
▁چون	-12.4867
▁خانلو	-12.4868
▁بنویسم	-12.4868
▁هیپستر	-12.4869
▁وکا	-12.4869
▁اغما	-12.4869
ائر	-12.487
▁بایستد	-12.4871
رگوت	-12.4871
طح	-12.4872
▁برچید	-12.4872
▁ملایم	-12.4873
▁همدم	-12.4874
▁نوگرا	-12.4874
▁ربع	-12.4874
▁لارن	-12.4874
هلن	-12.4875
▁حشر	-12.4876
واگذار	-12.4876
▁لاپ	-12.4876
▁چاقو	-12.4876
▁هورن	-12.4878
▁گرانبها	-12.4878
فرشی	-12.4878
پزشکان	-12.4878
▁طرد	-12.4879
▁عابران	-12.4879
▁نزند	-12.4879
امدا	-12.488
▁علفزارها	-12.4881
▁لوکالکان	-12.4881
▁گاسکوئین	-12.4881
▁براندا	-12.4882
▁لئو	-12.4882
▁گریختند	-12.4882
پنتا	-12.4883
▁زیباست	-12.4883
▁هنرپیشگ	-12.4883
▁رهن	-12.4884
▁اتومات	-12.4884
حاب	-12.4884
▁فتوا	-12.4885
▁برسیم	-12.4886
▁خواف	-12.4887
▁جوزا	-12.4888
عابد	-12.4888
▁توئی	-12.4888
▁نرود	-12.4889
▁کبری	-12.489
▁شرافت	-12.489
▁باغبان	-12.4892
▁جووان	-12.4892
▁مانورهای	-12.4892
▁کوو	-12.4893
▁تسایت	-12.4893
▁شنیدم	-12.4893
▁سالوادور	-12.4894
▁کراش	-12.4894
▁ترمز	-12.4895
▁نگرفتند	-12.4895
▁گابریلا	-12.4898
▁مخلوط	-12.4899
▁فراگرفت	-12.49
▁جانباخت	-12.49
▁جنایات	-12.4901
▁بیولوژی	-12.4902
▁هملت	-12.4902
ساخته	-12.4902
▁جبار	-12.4904
▁۲۲۰	-12.4904
▁شرو	-12.4905
▁شهرنشین	-12.4906
▁اسپری	-12.4908
▁خندد	-12.4909
▁پرگا	-12.4911
▁اکستر	-12.4912
▁۷۲۲	-12.4918
▁غز	-12.4918
▁پردازیم	-12.4918
▁کورن	-12.4918
زخ	-12.4919
▁آلپ	-12.492
▁مشوقهای	-12.492
▁پهپادهای	-12.492
▁ابزارک	-12.4921
▁صیادان	-12.4921
▁حدف	-12.4922
▁ژور	-12.4923
▁مافیا	-12.4923
▁برسید	-12.4923
▁تحص	-12.4923
▁مگنو	-12.4925
▁فرانس	-12.4926
▁دپ	-12.4927
اسفند	-12.493
▁مومن	-12.4932
تورباز	-12.4933
کشن	-12.4933
▁هدفمند	-12.4933
شرکتهای	-12.4934
▁نیکو	-12.4936
▁دایان	-12.4939
▁مفتو	-12.494
▁باربارا	-12.4941
▁قراردادها	-12.4942
▁شئو	-12.4942
▁سفیدپوستان	-12.4942
▁صر	-12.4945
▁ملامت	-12.4945
ماجد	-12.4947
میخ	-12.4952
▁جزیرو	-12.4952
اتاق	-12.4952
▁اپوز	-12.4954
▁گرکان	-12.4955
خراش	-12.4955
▁بوکا	-12.4956
نقی	-12.4956
▁لئون	-12.4958
▁ریاکاری	-12.4958
▁جالبند	-12.496
ابو	-12.4961
▁زبر	-12.4961
هاوس	-12.4962
▁پرماجرا	-12.4964
▁جرئ	-12.4966
▁نرسیدند	-12.4967
▁گیگاب	-12.4968
▁حسگرها	-12.497
▁تانس	-12.4972
▁پراوی	-12.4973
▁۲۴۸	-12.4976
قطع	-12.4978
▁دوتای	-12.498
▁دزدید	-12.4983
▁ریختند	-12.4983
▁میزند	-12.4984
پرت	-12.4988
▁ایستادن	-12.4988
▁نزدند	-12.4991
▁چول	-12.4992
▁نفیس	-12.4992
▁مطمئنا	-12.4992
▁پیوندند	-12.4993
حیط	-12.4995
▁درمانگاه	-12.4996
▁ناراحتند	-12.4998
▁مکید	-12.5003
▁نقدهای	-12.5004
▁شایعند	-12.5004
ارنوک	-12.5006
▁نرسیدن	-12.5008
▁مخد	-12.5011
▁فرمانیه	-12.502
▁نخل	-12.502
▁خوانیم	-12.5021
عاقب	-12.5022
غما	-12.5031
▁رایکو	-12.5033
▁رازهای	-12.5033
▁نورال	-12.5034
برمی	-12.5038
▁شنیدنش	-12.5042
▁گوتر	-12.5044
▁دمید	-12.5046
▁تض	-12.5046
▁بغ	-12.5051
▁زدیم	-12.5051
▁آوردیم	-12.5052
فاخر	-12.5056
▁زهی	-12.5064
پژوهش	-12.507
▁بدبین	-12.5077
مغان	-12.5078
بهبود	-12.5078
▁دفاعیات	-12.5087
زستان	-12.5088
▁مخا	-12.509
مداری	-12.5093
▁مقل	-12.5093
علیر	-12.5099
▁هلن	-12.5099
▁آندریاس	-12.51
▁فضاپیماها	-12.5104
▁عرا	-12.5104
▁میانسال	-12.5107
▁رک	-12.5108
▁مرک	-12.5115
▁تاخت	-12.5122
سوار	-12.5123
▁مشق	-12.5126
▁بقدر	-12.513
لاستیک	-12.5135
▁سونت	-12.5144
▁جوانتر	-12.5145
▁مخالفند	-12.5147
▁انریک	-12.515
فوت	-12.5151
ورسوی	-12.5155
جده	-12.5157
▁اتو	-12.516
▁آغازکرده	-12.5162
▁قرادادش	-12.5166
▁مونش	-12.517
▁کربی	-12.5174
▁روایتگر	-12.5175
ایرا	-12.5175
▁عصا	-12.5176
▁فیروزجا	-12.5177
▁مناسبات	-12.5181
▁پز	-12.5186
▁لژ	-12.5187
جهش	-12.519
مقا	-12.5193
وبل	-12.5195
▁انگشتان	-12.5202
گات	-12.5203
▁پیوستند	-12.5203
▁جولیان	-12.5204
لوژی	-12.5208
▁فوتو	-12.5209
▁حری	-12.5213
▁مظ	-12.5237
▁مندل	-12.5238
ناری	-12.5244
▁ایوب	-12.525
▁بخور	-12.5259
▁آتا	-12.5262
▁آلبا	-12.5263
▁انگیزد	-12.5266
▁پودر	-12.5271
▁بالدار	-12.5272
ترونیک	-12.5276
رستان	-12.5281
نیاز	-12.5288
▁نکردم	-12.5291
▁عاشقان	-12.53
نهام	-12.5301
▁مساعدت	-12.5303
▁نواز	-12.5304
▁متروی	-12.5308
▁لیند	-12.531
▁درنظر	-12.5314
اوج	-12.5315
کاوا	-12.5315
▁مدس	-12.5317
▁حصار	-12.5317
▁لوور	-12.5324
▁آدا	-12.5332
▁جهانگرد	-12.5334
▁بریز	-12.5336
▁الزاما	-12.5336
▁کیپ	-12.5346
▁برگشتن	-12.5349
درینو	-12.536
▁چکهای	-12.5367
▁نگارم	-12.5369
▁موید	-12.5373
▁مالدار	-12.5375
وندا	-12.5381
▁اندازیم	-12.5382
تژیک	-12.5385
مدان	-12.5394
▁تعار	-12.5399
کوش	-12.5404
▁مواجهند	-12.5415
▁فلین	-12.5433
▁بشوی	-12.5441
تلر	-12.5456
سپارد	-12.5467
▁موثرتر	-12.5471
▁روست	-12.5476
زاس	-12.5479
اگرا	-12.5486
▁دژها	-12.5514
▁هوادارن	-12.5518
▁چشمک	-12.5519
▁سالخورد	-12.5524
▁نیرومندتر	-12.5527
انتو	-12.5548
▁مونت	-12.5566
▁رادو	-12.5579
▁ناگ	-12.5579
▁صب	-12.5598
خرج	-12.5599
اچی	-12.5633
▁کالو	-12.5634
اشته	-12.5634
ردین	-12.5644
▁دیکش	-12.5645
عیار	-12.5646
▁بوستا	-12.5657
▁دومینو	-12.5667
▁کورس	-12.5676
▁فاخر	-12.57
تابو	-12.5701
آلات	-12.5702
گذرانند	-12.5715
ارزیا	-12.5715
وپول	-12.5719
نورلند	-12.5728
▁گذاشتم	-12.5744
▁فریم	-12.5745
اص	-12.5766
▁انبارها	-12.5772
▁خرابکاران	-12.5792
فاشی	-12.5805
فهیم	-12.5857
کاو	-12.5857
▁گردان	-12.586
شمرد	-12.5876
▁شارل	-12.5923
نگولی	-12.5928
▁نخوان	-12.5952
ورهم	-12.5954
▁کانا	-12.5962
▁راکل	-12.5995
کنت	-12.6046
لیز	-12.6063
ونتو	-12.6075
▁مجد	-12.6077
زندگان	-12.6088
انگلر	-12.6125
آمدتر	-12.6142
فیو	-12.6172
▁کردآ	-12.6191
گرفت	-12.62
▁السی	-12.6221
▁عزیزانم	-12.6232
▁برادرز	-12.6239
سرفصل	-12.6254
ساکو	-12.6298
ولادی	-12.6315
▁داکا	-12.6356
▁بیشمار	-12.637
▁عطش	-12.6432
نواز	-12.6441
پک	-12.6448
نواختر	-12.6474
▁طبل	-12.6496
مالیا	-12.6531
گرایان	-12.6563
▁لگو	-12.6605
ائز	-12.6691
▁مونو	-12.6706
گولد	-12.6709
نالد	-12.6716
انتری	-12.6794
▁همزی	-12.6794
انوس	-12.6803
▁بالاگ	-12.6813
▁الد	-12.6896
▁کوما	-12.6983
▁رزو	-12.6997
رهایش	-12.7004
یابند	-12.7034
۹۸۰	-12.704
چون	-12.7056
▁پشم	-12.7067
▁مسخ	-12.7128
اتریو	-12.7152
کرون	-12.7199
عاش	-12.7216
▁شاک	-12.7221
عبدالو	-12.7248
مترو	-12.7262
▁شلو	-12.7276
▁بدنساز	-12.7299
▁تجر	-12.7328
▁ویول	-12.7349
▁نوآ	-12.7352
ریکو	-12.7353
ناوال	-12.7411
▁اینج	-12.748
▁جوید	-12.7487
▁خرمش	-12.7516
شیو	-12.7595
الیات	-12.7624
رفتار	-12.7633
▁فهمیدن	-12.7635
▁واردکنند	-12.7649
میرز	-12.7675
تیلن	-12.7699
آنچ	-12.7708
▁بگذار	-12.7708
▁خیرخواه	-12.7742
راتو	-12.7793
▁دشوارتر	-12.7801
موم	-12.7967
▁افرا	-12.803
ومئ	-12.8043
یاهو	-12.8144
لولا	-12.8226
▁فراپا	-12.8398
▁نیکول	-12.8416
سرگ	-12.8422
وجه	-12.8456
خامت	-12.8485
ماگو	-12.8487
▁لورن	-12.8493
الف	-12.8506
▁بازدیدها	-12.8526
مونیک	-12.8573
▁نواختن	-12.8612
▁غیربورسی	-12.8629
▁خدایا	-12.8631
شتابند	-12.869
اغت	-12.8721
خواهند	-12.8753
▁مستن	-12.8757
▁کورم	-12.8793
بخت	-12.8807
ادزه	-12.8818
▁بوئن	-12.8882
▁ثق	-12.8894
عدد	-12.8945
گفتار	-12.9033
صاب	-12.9034
۸۰۰۰	-12.906
▁برخاستن	-12.9065
ژیک	-12.9077
▁یوشی	-12.9148
ماتیک	-12.915
تنبور	-12.9169
حتم	-12.9182
▁هادس	-12.9182
اشیا	-12.9204
رامین	-12.9289
ولونیا	-12.9301
▁عص	-12.9317
لینک	-12.9333
▁قراداد	-12.9347
جنسگرای	-12.9348
رزیدن	-12.935
▁بخو	-12.9377
▁فلسطین	-12.9386
▁راهکارها	-12.9402
▁مندو	-12.9409
الیس	-12.9411
نماها	-12.9414
▁معتمد	-12.9425
▁غفور	-12.9431
آگاهی	-12.9438
سکوت	-12.944
▁تیرانداز	-12.9441
ساخت	-12.9441
▁الکتریک	-12.9443
وینچ	-12.9446
آدام	-12.945
