{
  "src_word2id": {
    "<pad>": 0,
    "<s>": 1,
    "</s>": 2,
    "<unk>": 3,
    "ی": 4,
    ".": 5,
    "ه": 6,
    "▁است": 7,
    "▁می": 8,
    "▁": 9,
    "▁های": 10,
    "▁ایران": 11,
    "▁شده": 12,
    "،": 13,
    "▁سال": 14,
    "▁بود": 15,
    "▁یک": 16,
    "▁ها": 17,
    "▁شد": 18,
    "▁تصویر": 19,
    "ان": 20,
    "▁کرده": 21,
    "▁ای": 22,
    "▁کرد": 23,
    "منبع": 24,
    "▁بر": 25,
    "ین": 26,
    "▁شود": 27,
    "▁گفته": 28,
    "▁کند": 29,
    "▁خود": 30,
    "▁دو": 31,
    "ش": 32,
    "؛": 33,
    "▁کرونا": 34,
    "▁اند": 35,
    "ت": 36,
    "▁در": 37,
    "▁ماه": 38,
    "▁کشور": 39,
    "▁پیش": 40,
    "▁آمریکا": 41,
    "▁روز": 42,
    "▁گزارش": 43,
    "▁بی": 44,
    "▁فوتبال": 45,
    "▁دارد": 46,
    "▁دهد": 47,
    "▁تیم": 48,
    "م": 49,
    "▁بازی": 50,
    "▁کنند": 51,
    "▁کار": 52,
    "▁گفت": 53,
    "▁اعلام": 54,
    "▁و": 55,
    "▁ا": 56,
    "▁قرار": 57,
    "▁هزار": 58,
    "▁دیگر": 59,
    "▁شرکت": 60,
    "▁داده": 61,
    "▁دولت": 62,
    "▁دست": 63,
    "▁یا": 64,
    "▁م": 65,
    "▁رئیس": 66,
    "▁جهان": 67,
    "ن": 68,
    "▁سه": 69,
    "▁به": 70,
    "▁گذشته": 71,
    "▁با": 72,
    "▁بین": 73,
    "▁پس": 74,
    "▁خواهد": 75,
    "▁هر": 76,
    "در": 77,
    "▁آقای": 78,
    "▁بار": 79,
    "▁گوید": 80,
    "▁میلیون": 81,
    "▁درباره": 82,
    "▁درصد": 83,
    "▁لیگ": 84,
    "▁نفر": 85,
    "▁آنها": 86,
    "▁افزایش": 87,
    "▁تهران": 88,
    "ات": 89,
    "▁دلیل": 90,
    "▁افغانستان": 91,
    "▁چند": 92,
    "▁'": 93,
    "های": 94,
    "▁داد": 95,
    "'": 96,
    "ند": 97,
    "▁بعد": 98,
    "▁هفته": 99,
    "این": 100,
    "▁جدید": 101,
    "▁از": 102,
    "ب": 103,
    "▁خبر": 104,
    "▁حال": 105,
    "▁بوده": 106,
    "▁نفت": 107,
    "▁ویروس": 108,
    "▁یکی": 109,
    "▁دلار": 110,
    "س": 111,
    "▁ملی": 112,
    "▁همچن": 113,
    ":": 114,
    "▁قیمت": 115,
    "▁جهانی": 116,
    "▁بازار": 117,
    "▁سازمان": 118,
    "▁ترین": 119,
    "▁همه": 120,
    "ل": 121,
    "▁مورد": 122,
    "▁جمهوری": 123,
    "▁فیلم": 124,
    "▁نام": 125,
    "▁نمی": 126,
    "▁هستند": 127,
    "▁سر": 128,
    "▁برگزار": 129,
    "▁تولید": 130,
    "▁باید": 131,
    "▁گرفته": 132,
    "▁عنوان": 133,
    "▁نظر": 134,
    "▁ف": 135,
    "▁روی": 136,
    "▁امروز": 137,
    "▁بیشتر": 138,
    "▁چین": 139,
    "▁بیش": 140,
    "▁کاهش": 141,
    "▁کردند": 142,
    "ا": 143,
    "▁مجلس": 144,
    "▁داشت": 145,
    "▁وزیر": 146,
    "▁بودند": 147,
    "▁شب": 148,
    "▁شدن": 149,
    "▁اروپا": 150,
    "▁آغاز": 151,
    "▁نیست": 152,
    "▁سی": 153,
    "ز": 154,
    "▁علی": 155,
    "▁مقابل": 156,
    "▁ب": 157,
    "▁را": 158,
    "▁اخیر": 159,
    "▁وزارت": 160,
    "▁حدود": 161,
    "▁بزرگ": 162,
    "▁راه": 163,
    "▁بریتانیا": 164,
    "▁نشان": 165,
    "د": 166,
    "▁واکسن": 167,
    "▁ت": 168,
    "▁برنامه": 169,
    "▁اقتصادی": 170,
    "▁نیز": 171,
    "▁پایان": 172,
    "▁داشته": 173,
    "ر": 174,
    "▁زمان": 175,
    "▁حضور": 176,
    "▁باشگاه": 177,
    "▁زمین": 178,
    "▁شهر": 179,
    "▁آن": 180,
    "گی": 181,
    "به": 182,
    "▁باشد": 183,
    "▁بانک": 184,
    "▁کم": 185,
    "▁تر": 186,
    "▁اساس": 187,
    "▁گل": 188,
    "▁باز": 189,
    "▁اش": 190,
    "که": 191,
    "▁منتشر": 192,
    "▁صورت": 193,
    "▁اولین": 194,
    "▁توافق": 195,
    "▁اول": 196,
    "▁شیوع": 197,
    "▁انجام": 198,
    "▁تحریم": 199,
    "سیون": 200,
    "▁بخش": 201,
    "دامه": 202,
    "▁فصل": 203,
    "▁میان": 204,
    "▁استفاده": 205,
    "▁جمله": 206,
    "▁مردم": 207,
    "▁میلیارد": 208,
    "▁وجود": 209,
    "▁رسید": 210,
    "▁دی": 211,
    "▁دارند": 212,
    "▁شورا": 213,
    "▁ایرانی": 214,
    "▁شوند": 215,
    "؟": 216,
    "او": 217,
    "▁مسابقات": 218,
    "آقای": 219,
    "▁گیری": 220,
    "ری": 221,
    "▁زندگی": 222,
    "▁خواست": 223,
    "▁همین": 224,
    "▁گروه": 225,
    "له": 226,
    "▁تومان": 227,
    "▁مسابقه": 228,
    "▁المللی": 229,
    "▁مقام": 230,
    "▁چهار": 231,
    "▁حقوق": 232,
    "▁ارز": 233,
    "▁تمام": 234,
    "ار": 235,
    "▁ماشین": 236,
    "▁برتر": 237,
    "▁شدند": 238,
    "▁بسیاری": 239,
    "▁گرفت": 240,
    "▁تواند": 241,
    "و": 242,
    "▁وقت": 243,
    "▁آینده": 244,
    "▁نرخ": 245,
    "▁وضعیت": 246,
    "▁اسلامی": 247,
    "▁بیماری": 248,
    "▁تنها": 249,
    "▁شرایط": 250,
    "▁پنج": 251,
    "▁امسال": 252,
    "▁اقتصاد": 253,
    "▁زنان": 254,
    "▁جام": 255,
    "▁توان": 256,
    "▁هایی": 257,
    "▁وارد": 258,
    "▁هیچ": 259,
    "بدون": 260,
    "نه": 261,
    "▁حالی": 262,
    "ها": 263,
    "▁فعالیت": 264,
    "▁کشورهای": 265,
    "▁قبل": 266,
    "▁زیاد": 267,
    "▁مختلف": 268,
    "▁غیر": 269,
    "▁رسان": 270,
    "▁طرح": 271,
    "▁تصمیم": 272,
    "▁طور": 273,
    "▁۲۰": 274,
    "▁دوران": 275,
    "▁خانه": 276,
    "▁کردن": 277,
    "▁اجتماعی": 278,
    "▁منبع": 279,
    "عث": 280,
    "ف": 281,
    "رسی": 282,
    "▁محمد": 283,
    "▁پی": 284,
    "شان": 285,
    "▁روحانی": 286,
    "▁خارجه": 287,
    "▁ولی": 288,
    "▁نزدیک": 289,
    "▁تلاش": 290,
    "انه": 291,
    "▁نخست": 292,
    "▁قهرمان": 293,
    "▁نه": 294,
    "▁گویند": 295,
    "▁تغییر": 296,
    "▁افراد": 297,
    "▁خانواده": 298,
    "▁کمک": 299,
    "▁مهم": 300,
    "▁ساله": 301,
    "▁فروش": 302,
    "▁آخر": 303,
    "▁جان": 304,
    "یک": 305,
    "▁بسیار": 306,
    "قط": 307,
    "▁تازه": 308,
    "▁بورس": 309,
    "▁برای": 310,
    "▁انتخابات": 311,
    "▁دهه": 312,
    "▁مدت": 313,
    "▁کر": 314,
    "▁ریاست": 315,
    "▁حالا": 316,
    "▁تاریخ": 317,
    "▁دانشگاه": 318,
    "▁برخ": 319,
    "▁مرکزی": 320,
    "▁سوی": 321,
    "▁دوره": 322,
    "▁قهرمانی": 323,
    "▁اثر": 324,
    "▁اصلی": 325,
    "▁درگذشت": 326,
    "▁۱۹": 327,
    "▁منطقه": 328,
    "▁حت": 329,
    "▁زیر": 330,
    "▁دنیا": 331,
    "▁رسمی": 332,
    "▁سرمایه": 333,
    "▁برابر": 334,
    "▁جمهور": 335,
    "▁کنار": 336,
    "▁ن": 337,
    "▁دوم": 338,
    "▁همراه": 339,
    "▁اینک": 340,
    "▁رقابت": 341,
    "▁سفر": 342,
    "▁پول": 343,
    "بر": 344,
    "▁هسته": 345,
    "▁موسیقی": 346,
    "▁اطلاعات": 347,
    "▁بعضی": 348,
    "▁رسیده": 349,
    "▁پیدا": 350,
    "▁س": 351,
    "ثبت": 352,
    "▁که": 353,
    "▁آمریکایی": 354,
    "▁آمار": 355,
    "یت": 356,
    "ور": 357,
    "▁عکس": 358,
    "▁پرسپولیس": 359,
    "شروع": 360,
    "▁۱۰": 361,
    "با": 362,
    "▁خودرو": 363,
    "▁مرکز": 364,
    "▁میلادی": 365,
    "گان": 366,
    "▁زن": 367,
    "▁نقش": 368,
    "▁نتیج": 369,
    "▁پر": 370,
    "▁اشار": 371,
    "نامه": 372,
    "▁او": 373,
    "▁اعتراض": 374,
    "▁برجام": 375,
    "ترین": 376,
    "▁توجه": 377,
    "▁کشتی": 378,
    "▁یافته": 379,
    "ک": 380,
    "▁رشد": 381,
    "▁بودجه": 382,
    "▁۴": 383,
    "▁نشده": 384,
    "▁شکست": 385,
    "▁دنبال": 386,
    "▁کمتر": 387,
    "▁حاضر": 388,
    "▁آزاد": 389,
    "▁جایزه": 390,
    "▁ممکن": 391,
    "▁کل": 392,
    "▁دور": 393,
    "▁حمله": 394,
    "▁استان": 395,
    "▁آب": 396,
    "▁حمایت": 397,
    "▁سیاسی": 398,
    "▁همکاری": 399,
    "▁نوشته": 400,
    "▁سهام": 401,
    "▁دریافت": 402,
    "▁آلمان": 403,
    "▁بالا": 404,
    "▁شش": 405,
    "▁بازیکن": 406,
    "▁مراسم": 407,
    "▁مالی": 408,
    "▁رفت": 409,
    "▁واکنش": 410,
    "توسط": 411,
    "▁پرداخت": 412,
    "▁الله": 413,
    "▁بهترین": 414,
    "ست": 415,
    "▁ندارد": 416,
    "▁استقلال": 417,
    "▁بهداشت": 418,
    "▁۵": 419,
    "▁عراق": 420,
    "▁۲۰۲۰": 421,
    "▁هدف": 422,
    "▁کتاب": 423,
    "▁ساعت": 424,
    "▁سیاست": 425,
    "روز": 426,
    "▁هم": 427,
    "▁خام": 428,
    "▁رد": 429,
    "▁آژانس": 430,
    "▁فرانسه": 431,
    "▁فدرا": 432,
    "▁این": 433,
    "▁نامه": 434,
    "▁عرض": 435,
    "▁شنبه": 436,
    "▁صد": 437,
    "▁طی": 438,
    "▁ترکیه": 439,
    "▁نیمه": 440,
    "▁روند": 441,
    "اکنون": 442,
    "▁آی": 443,
    "▁مدیر": 444,
    "▁ده": 445,
    "▁ش": 446,
    "▁شمار": 447,
    "▁خبرگزا": 448,
    "▁خرید": 449,
    "ِ": 450,
    "▁رسد": 451,
    "▁عربستان": 452,
    "نی": 453,
    "▁ویژه": 454,
    "▁دیدار": 455,
    "▁انتشار": 456,
    "▁۲": 457,
    "▁آمده": 458,
    "▁پیروز": 459,
    "▁انرژی": 460,
    "▁چنین": 461,
    "▁دهند": 462,
    "▁جنوبی": 463,
    "▁سابق": 464,
    "▁قهرمانان": 465,
    "▁آ": 466,
    "▁سوم": 467,
    "▁کمی": 468,
    "▁موضوع": 469,
    ")": 470,
    "▁کنیم": 471,
    "▁گذاری": 472,
    "▁یافت": 473,
    "▁ترامپ": 474,
    "▁سازی": 475,
    "▁ام": 476,
    "▁نهایی": 477,
    "کسب": 478,
    "▁اج": 479,
    "▁مبارز": 480,
    "▁زبان": 481,
    "▁درآمد": 482,
    "▁اتحاد": 483,
    "▁رو": 484,
    "▁همان": 485,
    "▁میزان": 486,
    "▁هشدار": 487,
    "▁ایجاد": 488,
    "گیری": 489,
    "▁قابل": 490,
    "▁نیاز": 491,
    "از": 492,
    "▁قانون": 493,
    "▁تبدیل": 494,
    "▁خواهند": 495,
    "▁آزمایش": 496,
    "ازه": 497,
    "▁اجرای": 498,
    "▁ورزش": 499,
    "▁مذاکرات": 500,
    "▁جریان": 501,
    "▁(": 502,
    "▁نا": 503,
    "▁کشته": 504,
    "▁خارجی": 505,
    "▁مشخص": 506,
    "▁اقدام": 507,
    "▁متهم": 508,
    "▁عضو": 509,
    "▁حسن": 510,
    "▁پرونده": 511,
    "▁تاثیر": 512,
    "▁ساخت": 513,
    "▁بازیکنان": 514,
    "▁زده": 515,
    "▁ر": 516,
    "▁مرد": 517,
    "▁هفت": 518,
    "▁تایید": 519,
    "▁تلویزیون": 520,
    "▁مرگ": 521,
    "▁سپاه": 522,
    "▁تعطیل": 523,
    "▁بیمارستان": 524,
    "▁آسیا": 525,
    "▁مربوط": 526,
    "▁مدل": 527,
    "▁فاصله": 528,
    "▁روسیه": 529,
    "▁طریق": 530,
    "▁خارج": 531,
    "▁اسرائیل": 532,
    "▁احمد": 533,
    "▁۶": 534,
    "▁دیده": 535,
    "▁بازداشت": 536,
    "▁جلو": 537,
    "▁محل": 538,
    "▁صادرات": 539,
    "▁ارتباط": 540,
    "▁دولتی": 541,
    "▁رهبر": 542,
    "▁خاطر": 543,
    "▁سرمربی": 544,
    "▁چرا": 545,
    "▁ل": 546,
    "▁سو": 547,
    "▁رود": 548,
    "▁۳": 549,
    "▁خیل": 550,
    "▁سالگی": 551,
    "▁لیورپول": 552,
    "▁مجموعه": 553,
    "▁بازگشت": 554,
    "▁انگلیس": 555,
    "▁تنیس": 556,
    "▁بالای": 557,
    "▁انسان": 558,
    "▁نمایش": 559,
    "▁برد": 560,
    "▁نمایندگان": 561,
    "▁بیانی": 562,
    "▁نسبت": 563,
    "▁طرف": 564,
    "▁حکومت": 565,
    "▁تعداد": 566,
    "▁خط": 567,
    "نوز": 568,
    "▁اعضای": 569,
    "▁امنیت": 570,
    "▁اتمی": 571,
    "▁جو": 572,
    "۸": 573,
    "▁پلیس": 574,
    "▁دادگاه": 575,
    "▁۷": 576,
    "▁زمانی": 577,
    "▁دوبار": 578,
    "▁ابتلا": 579,
    "▁۳۰": 580,
    "▁نشست": 581,
    "▁انتخاب": 582,
    "▁معاون": 583,
    "▁تو": 584,
    "▁تع": 585,
    "▁سطح": 586,
    "▁قرنطینه": 587,
    "▁کامل": 588,
    "▁بست": 589,
    "▁طول": 590,
    "▁ساخته": 591,
    "▁جنگ": 592,
    "▁صنعت": 593,
    "▁کننده": 594,
    "▁محدودیت": 595,
    "▁کس": 596,
    "▁خطر": 597,
    "▁سخنگوی": 598,
    "▁کابل": 599,
    "▁پخ": 600,
    "▁تحت": 601,
    "▁خوب": 602,
    "▁عمومی": 603,
    "▁نیم": 604,
    "▁قرارداد": 605,
    "▁منابع": 606,
    "▁نظامی": 607,
    "▁لندن": 608,
    "▁لغو": 609,
    "▁زندان": 610,
    "▁انقلاب": 611,
    "▁۲۵": 612,
    "▁نگاه": 613,
    "۰۰": 614,
    "▁بشر": 615,
    "▁ارزش": 616,
    "▁حکم": 617,
    "▁نقل": 618,
    "▁کودکان": 619,
    "▁همزمان": 620,
    "▁سخت": 621,
    "▁توصی": 622,
    "▁ظریف": 623,
    "ج": 624,
    "▁ترک": 625,
    "▁آثار": 626,
    "▁شناخت": 627,
    "▁امنیتی": 628,
    "▁گسترده": 629,
    "▁بشک": 630,
    "▁جاری": 631,
    "▁پزشکی": 632,
    "▁۲۰۱": 633,
    "▁نمایند": 634,
    "▁۲۰۰": 635,
    "▁سابقه": 636,
    "▁ح": 637,
    "▁چ": 638,
    "▁روزهای": 639,
    "▁نگرانی": 640,
    "▁بخشی": 641,
    "▁نامزد": 642,
    "▁شدید": 643,
    "▁جلسه": 644,
    "چه": 645,
    "▁سن": 646,
    "▁امتیاز": 647,
    "▁گاز": 648,
    "▁مطرح": 649,
    "▁طراح": 650,
    "▁شکل": 651,
    "▁قطع": 652,
    "▁۹": 653,
    "▁انتظار": 654,
    "▁صندوق": 655,
    "▁تن": 656,
    "▁رای": 657,
    "▁المپیک": 658,
    "▁حرکت": 659,
    "▁رکورد": 660,
    "-": 661,
    "▁مرح": 662,
    "▁دادن": 663,
    "یم": 664,
    "▁توانست": 665,
    "▁چهر": 666,
    "▁ورود": 667,
    "▁۲۰۱۹": 668,
    "▁داستان": 669,
    "▁آیا": 670,
    "ازم": 671,
    "▁هز": 672,
    "▁برنده": 673,
    "▁تصوی": 674,
    "▁بایدن": 675,
    "▁ورزشی": 676,
    "▁عالی": 677,
    "اما": 678,
    "▁خودش": 679,
    "▁دیگری": 680,
    "▁ورزشگاه": 681,
    "▁باشند": 682,
    "▁دستگاه": 683,
    "▁جمعیت": 684,
    "▁رقم": 685,
    "▁آبان": 686,
    "▁افت": 687,
    "▁شدت": 688,
    "▁متوقف": 689,
    "▁۱۲": 690,
    "▁گرفتن": 691,
    "▁چشم": 692,
    "▁هوای": 693,
    "▁کووید": 694,
    "▁متحده": 695,
    "▁نکرده": 696,
    "▁نفتی": 697,
    "الات": 698,
    "▁چهارم": 699,
    "▁نوشت": 700,
    "▁ایتالیا": 701,
    "▁۱۴۰۰": 702,
    "▁برق": 703,
    "▁فشار": 704,
    "▁ارائه": 705,
    "▁معرف": 706,
    "▁ج": 707,
    "▁بحران": 708,
    "▁جا": 709,
    "▁قدرت": 710,
    "ده": 711,
    "ستاد": 712,
    "▁مشکلات": 713,
    "▁جای": 714,
    "▁قو": 715,
    "▁هواپیمای": 716,
    "▁شهرهای": 717,
    "▁امور": 718,
    "▁بلند": 719,
    "۴": 720,
    "▁انتقاد": 721,
    "▁داشتند": 722,
    "▁انتقال": 723,
    "▁مانده": 724,
    "▁نهاد": 725,
    "▁گیرد": 726,
    "▁موسس": 727,
    "▁پیشین": 728,
    "۵": 729,
    "▁فرهنگ": 730,
    "▁جدی": 731,
    "▁عد": 732,
    "▁فینال": 733,
    "▁مصاحبه": 734,
    "▁فعال": 735,
    "▁اتفاق": 736,
    "سازی": 737,
    "▁هنو": 738,
    "▁موج": 739,
    "▁نوع": 740,
    "▁دانست": 741,
    "▁تحقیقات": 742,
    "▁آمد": 743,
    "▁کشید": 744,
    "▁جنوب": 745,
    "▁کسان": 746,
    "▁گذاشته": 747,
    "▁سایر": 748,
    "▁فن": 749,
    "حه": 750,
    "▁وی": 751,
    "▁سینما": 752,
    "▁بینی": 753,
    "▁اروپایی": 754,
    "▁الکتریکی": 755,
    "▁بارسلونا": 756,
    "▁تک": 757,
    "ینه": 758,
    "▁بالاتر": 759,
    "نگ": 760,
    "▁آنچ": 761,
    "▁تورم": 762,
    "مین": 763,
    "▁مصوب": 764,
    "▁پاسخ": 765,
    "▁هنگام": 766,
    "▁آزادی": 767,
    "▁ال": 768,
    "▁نیروهای": 769,
    "▁دستور": 770,
    "▁رفته": 771,
    "▁قرن": 772,
    "▁جامعه": 773,
    "▁۱": 774,
    "▁مربی": 775,
    "▁مسی": 776,
    "ال": 777,
    "▁تشکیل": 778,
    "▁شامل": 779,
    "▁نو": 780,
    "▁حساب": 781,
    "▁مشکل": 782,
    "▁۱۵": 783,
    "▁داخل": 784,
    "▁چگون": 785,
    "▁هند": 786,
    "▁اتهام": 787,
    "▁محیط": 788,
    "▁داخلی": 789,
    "▁دادند": 790,
    "▁ه": 791,
    "▁درمان": 792,
    "ویه": 793,
    "▁باقی": 794,
    "▁طولانی": 795,
    "▁معاملات": 796,
    "▁نبود": 797,
    "▁فکر": 798,
    "▁یع": 799,
    "▁فروردین": 800,
    "▁فارسی": 801,
    "▁ماسک": 802,
    "▁ابتدای": 803,
    "▁۲۲": 804,
    "▁سیستم": 805,
    "▁۱۱": 806,
    "۲": 807,
    "ون": 808,
    "▁مسئولان": 809,
    "▁خانم": 810,
    "▁مبتلا": 811,
    "▁اسفند": 812,
    "▁احتمال": 813,
    "▁قرمز": 814,
    "اخر": 815,
    "▁ممنوع": 816,
    "▁آسیب": 817,
    "▁تحقیق": 818,
    "۱": 819,
    "▁روزنامه": 820,
    "▁نیروی": 821,
    "گاه": 822,
    "▁خروج": 823,
    "▁کنم": 824,
    "▁رشت": 825,
    "▁یاد": 826,
    "▁کوچک": 827,
    "▁دونالد": 828,
    "▁پشت": 829,
    "▁قبلی": 830,
    "▁گون": 831,
    "▁شان": 832,
    "▁سریال": 833,
    "▁ترکیب": 834,
    "▁دار": 835,
    "▁شماری": 836,
    "▁۵۰": 837,
    "▁۱۳": 838,
    "▁لای": 839,
    "▁بتوان": 840,
    "▁نگهبان": 841,
    "▁غنی": 842,
    "▁کنید": 843,
    "▁۸": 844,
    "▁آتش": 845,
    "▁ملل": 846,
    "▁عامل": 847,
    "▁خون": 848,
    "▁محکوم": 849,
    "▁محدود": 850,
    "▁صحبت": 851,
    "▁درخواست": 852,
    "▁مارادونا": 853,
    "▁پل": 854,
    "▁خبرنگار": 855,
    "▁تجاری": 856,
    "▁تجرب": 857,
    "▁اجرا": 858,
    "▁شما": 859,
    "▁میزبان": 860,
    "▁امکان": 861,
    "▁مرغ": 862,
    "▁دوشنبه": 863,
    "▁محلی": 864,
    "▁واردات": 865,
    "▁د": 866,
    "▁تاکید": 867,
    "▁زیست": 868,
    "▁اسکار": 869,
    "▁تاریخی": 870,
    "▁سیاه": 871,
    "▁پایین": 872,
    "▁گذشت": 873,
    "▁سقوط": 874,
    "▁دلایل": 875,
    "▁چهارشنبه": 876,
    "▁طبق": 877,
    "▁هنری": 878,
    "▁اعدام": 879,
    "▁ان": 880,
    "وق": 881,
    "▁شاخص": 882,
    "رفع": 883,
    "▁صادر": 884,
    "▁سیتی": 885,
    "▁مواد": 886,
    "▁شاهد": 887,
    "▁علت": 888,
    "▁بودن": 889,
    "▁بنزین": 890,
    "▁فرهنگی": 891,
    "براز": 892,
    "▁فضای": 893,
    "▁مشترک": 894,
    "▁ناشی": 895,
    "▁ژان": 896,
    "▁کلی": 897,
    "▁سراسر": 898,
    "▁کارگران": 899,
    "▁اختیار": 900,
    "▁ترتیب": 901,
    "▁همیشه": 902,
    "▁پارسال": 903,
    "▁آوریل": 904,
    "▁گو": 905,
    "یا": 906,
    "۶": 907,
    "▁متر": 908,
    "▁کوتاه": 909,
    "▁هنر": 910,
    "▁تامین": 911,
    "▁خوانده": 912,
    "▁آورد": 913,
    "▁یکشنبه": 914,
    "▁حرفه": 915,
    "▁چپ": 916,
    "گر": 917,
    "▁کنترل": 918,
    "▁بیرون": 919,
    "▁ضرب": 920,
    "▁وین": 921,
    "▁مارس": 922,
    "▁۶۰": 923,
    "▁اولیه": 924,
    "▁زد": 925,
    "▁مسیر": 926,
    "▁دفاع": 927,
    "▁موارد": 928,
    "▁دقیقه": 929,
    "▁احتمالا": 930,
    "▁رنگ": 931,
    "دی": 932,
    "لق": 933,
    "▁۴۰": 934,
    "▁افتاد": 935,
    "▁واحد": 936,
    "▁توسعه": 937,
    "▁حذف": 938,
    "▁نویسنده": 939,
    "▁سمت": 940,
    "▁روابط": 941,
    "ایی": 942,
    "▁تهدید": 943,
    "پس": 944,
    "▁عمل": 945,
    "▁تقریبا": 946,
    "▁قوانین": 947,
    "▁مسئول": 948,
    "▁اقدامات": 949,
    "طور": 950,
    "▁اف": 951,
    "ق": 952,
    "▁دسترس": 953,
    "▁شجریان": 954,
    "▁نظیر": 955,
    "▁متفاوت": 956,
    "▁سلامت": 957,
    "▁نظام": 958,
    "▁بدن": 959,
    "▁جمعه": 960,
    "▁جز": 961,
    "▁درگیر": 962,
    "▁استرالیا": 963,
    "▁روبرو": 964,
    "▁خوزستان": 965,
    "▁انفجار": 966,
    "▁سوخت": 967,
    "▁نتایج": 968,
    "▁یونایتد": 969,
    "▁نخواه": 970,
    "▁بندی": 971,
    "▁سرعت": 972,
    "▁شهروندان": 973,
    "وز": 974,
    "▁تا": 975,
    "▁مناطق": 976,
    "▁آستان": 977,
    "▁۹۸": 978,
    "▁جهش": 979,
    "▁۱۴": 980,
    "▁بد": 981,
    "۷": 982,
    "▁امضا": 983,
    "▁حل": 984,
    "▁خصوصی": 985,
    "▁پروژه": 986,
    "▁ونزوئلا": 987,
    "▁کاملا": 988,
    "▁شاید": 989,
    "▁سنت": 990,
    "▁قصد": 991,
    "▁اخیرا": 992,
    "▁بگیرد": 993,
    "▁معروف": 994,
    "▁صفر": 995,
    "▁اوپک": 996,
    "▁نژاد": 997,
    "▁زاده": 998,
    "▁اطلاع": 999,
    "▁آماده": 1000,
    "▁مصرف": 1001,
    "▁علاو": 1002,
    "▁تاکنون": 1003,
    "▁فضایی": 1004,
    "▁محمود": 1005,
    "▁پور": 1006,
    "▁اندازه": 1007,
    "▁فرد": 1008,
    "▁۲۰۲۱": 1009,
    "▁احیا": 1010,
    "▁ولایت": 1011,
    "▁آرژانتین": 1012,
    "▁جشنواره": 1013,
    "▁۱۶": 1014,
    "▁عباس": 1015,
    "▁بیست": 1016,
    "▁غرب": 1017,
    "▁حد": 1018,
    "▁فعالان": 1019,
    "▁بارها": 1020,
    "▁مرتبط": 1021,
    "ع": 1022,
    "▁سود": 1023,
    "▁مهر": 1024,
    "▁هواداران": 1025,
    "▁پرواز": 1026,
    "▁ندارند": 1027,
    "▁تجارت": 1028,
    "▁جدول": 1029,
    "▁اتاق": 1030,
    "▁عملیات": 1031,
    "▁ماند": 1032,
    "▁شمال": 1033,
    "▁اختلاف": 1034,
    "▁موفق": 1035,
    "▁فهرست": 1036,
    "امبر": 1037,
    "▁۱۷": 1038,
    "اساس": 1039,
    "▁دارایی": 1040,
    "▁کارگردان": 1041,
    "▁پیشنهاد": 1042,
    "▁مذاکر": 1043,
    "▁مالیات": 1044,
    "▁بخوانید": 1045,
    "▁شکایت": 1046,
    "▁رییس": 1047,
    "▁کارگر": 1048,
    "▁هوا": 1049,
    "▁شناسا": 1050,
    "▁تاج": 1051,
    "▁مرز": 1052,
    "ام": 1053,
    "▁ق": 1054,
    "▁دهم": 1055,
    "▁توییتر": 1056,
    "حفظ": 1057,
    "خانه": 1058,
    "▁بزرگترین": 1059,
    "▁دومین": 1060,
    "▁برده": 1061,
    "▁رسیدن": 1062,
    "▁قلب": 1063,
    "▁فوت": 1064,
    "▁فدرر": 1065,
    "▁کارخان": 1066,
    "▁کالا": 1067,
    "سی": 1068,
    "▁هایش": 1069,
    "عودی": 1070,
    "▁قطر": 1071,
    "▁زنده": 1072,
    "▁ایالت": 1073,
    "▁صفح": 1074,
    "▁ملت": 1075,
    "▁واکسین": 1076,
    "▁مشابه": 1077,
    "▁اداره": 1078,
    "▁چیزی": 1079,
    "▁مل": 1080,
    "▁هی": 1081,
    "▁پیام": 1082,
    "اس": 1083,
    "▁نقطه": 1084,
    "▁فرصت": 1085,
    "▁پاریس": 1086,
    "▁چاپ": 1087,
    "▁بهبود": 1088,
    "▁حق": 1089,
    "▁سنگین": 1090,
    "اسیون": 1091,
    "▁اعتراضات": 1092,
    "▁یورو": 1093,
    "▁واقع": 1094,
    "▁من": 1095,
    "▁اعمال": 1096,
    "بی": 1097,
    "▁نقاشی": 1098,
    "▁کمیت": 1099,
    "▁بازیگر": 1100,
    "▁چیز": 1101,
    "▁جمع": 1102,
    "▁بریتانیایی": 1103,
    "▁مجدد": 1104,
    "▁مجوز": 1105,
    "▁فساد": 1106,
    "▁کشف": 1107,
    "▁فرمانده": 1108,
    "▁کنندگان": 1109,
    "▁گفتگو": 1110,
    "▁نگران": 1111,
    "تر": 1112,
    "▁افغان": 1113,
    "▁حزب": 1114,
    "▁موفقیت": 1115,
    "▁سایت": 1116,
    "ایران": 1117,
    "▁۵۰۰": 1118,
    "▁انگیز": 1119,
    "▁تهی": 1120,
    "▁کشورها": 1121,
    "▁نظارت": 1122,
    "▁سرطان": 1123,
    "▁ایمن": 1124,
    "نمایی": 1125,
    "▁جنسی": 1126,
    "دو": 1127,
    "▁خالی": 1128,
    "▁برخورد": 1129,
    "▁باخت": 1130,
    "▁مشهور": 1131,
    "▁روزانه": 1132,
    "▁گردد": 1133,
    "▁رکود": 1134,
    "▁توپ": 1135,
    "▁نسل": 1136,
    "▁هرات": 1137,
    "▁مردان": 1138,
    "▁خواننده": 1139,
    "▁تغییرات": 1140,
    "▁ما": 1141,
    "▁کودک": 1142,
    "▁هشت": 1143,
    "▁قانونی": 1144,
    "▁تابستان": 1145,
    "▁مواجه": 1146,
    "▁پنجم": 1147,
    "▁خواهان": 1148,
    "فورد": 1149,
    "ح": 1150,
    "▁رفتن": 1151,
    "▁نهادهای": 1152,
    "▁تجمع": 1153,
    "▁طبیعی": 1154,
    "▁حوزه": 1155,
    "▁کنون": 1156,
    "▁حادثه": 1157,
    "▁طلا": 1158,
    "▁سریع": 1159,
    "▁گروهی": 1160,
    "▁گاه": 1161,
    "▁علمی": 1162,
    "▁حرف": 1163,
    "▁نشد": 1164,
    "▁رعایت": 1165,
    "▁اینترنت": 1166,
    "▁عدالت": 1167,
    "▁عملکرد": 1168,
    "▁منچستر": 1169,
    "▁موافقت": 1170,
    "▁بهار": 1171,
    "▁روشن": 1172,
    "ول": 1173,
    "▁ستار": 1174,
    "▁درست": 1175,
    "▁رساند": 1176,
    "▁رابطه": 1177,
    "▁تصاویر": 1178,
    "▁مغز": 1179,
    "▁بیت": 1180,
    "▁جنگل": 1181,
    "▁صدای": 1182,
    "▁یو": 1183,
    "▁مت": 1184,
    "محمد": 1185,
    "مان": 1186,
    "▁اس": 1187,
    "▁خصوص": 1188,
    "▁دختر": 1189,
    "▁ک": 1190,
    "▁جشن": 1191,
    "▁نفتکش": 1192,
    "▁امام": 1193,
    "▁چلسی": 1194,
    "▁پروازهای": 1195,
    "▁مر": 1196,
    "▁دوست": 1197,
    "▁مه": 1198,
    "▁میدان": 1199,
    "▁پای": 1200,
    "▁قضایی": 1201,
    "عده": 1202,
    "▁اضاف": 1203,
    "▁مجبور": 1204,
    "▁بایرن": 1205,
    "▁کاخ": 1206,
    "▁روش": 1207,
    "▁آید": 1208,
    "▁مهدی": 1209,
    "▁مجموع": 1210,
    "▁مقایس": 1211,
    "▁پاسداران": 1212,
    "ممنوعیت": 1213,
    "▁بحث": 1214,
    "علی": 1215,
    "▁کیلومتر": 1216,
    "می": 1217,
    "▁دنیای": 1218,
    "▁درواز": 1219,
    "▁سعید": 1220,
    "▁کاری": 1221,
    "▁بیشتری": 1222,
    "▁توضیح": 1223,
    "▁اسپانیا": 1224,
    "▁ژوئن": 1225,
    "▁دچار": 1226,
    "▁یابد": 1227,
    "▁ارتش": 1228,
    "▁مقررات": 1229,
    "▁گذار": 1230,
    "▁عمده": 1231,
    "▁سوریه": 1232,
    "▁ابتدا": 1233,
    "▁دکتر": 1234,
    "▁برسد": 1235,
    "▁۱۰۰": 1236,
    "▁۲۴": 1237,
    "▁خواند": 1238,
    "▁جدا": 1239,
    "▁مد": 1240,
    "▁کانال": 1241,
    "▁پیشرفت": 1242,
    "▁مجله": 1243,
    "▁مانع": 1244,
    "لی": 1245,
    "▁کدام": 1246,
    "▁نشری": 1247,
    "▁بیکار": 1248,
    "▁بال": 1249,
    "▁مجازی": 1250,
    "▁شعر": 1251,
    "▁منتقل": 1252,
    "▁معتقد": 1253,
    "▁تاسیس": 1254,
    "▁دانند": 1255,
    "▁کوین": 1256,
    "▁بهتر": 1257,
    "▁پدر": 1258,
    "بود": 1259,
    "کنندگان": 1260,
    "▁عبور": 1261,
    "▁خودروساز": 1262,
    "▁کارشناسان": 1263,
    "▁ناز": 1264,
    "▁نقاط": 1265,
    "▁نقدینگی": 1266,
    "▁سفیر": 1267,
    "▁سخنران": 1268,
    "▁۲۳": 1269,
    "▁آورده": 1270,
    "▁۱۸": 1271,
    "▁۲۸": 1272,
    "▁صحنه": 1273,
    "▁رضا": 1274,
    "▁بازارهای": 1275,
    "▁ریز": 1276,
    "▁امیدوار": 1277,
    "نجر": 1278,
    "▁صدا": 1279,
    "▁تی": 1280,
    "▁مستند": 1281,
    "▁رانند": 1282,
    "▁تاز": 1283,
    "▁تاتنهام": 1284,
    "▁واقعی": 1285,
    "▁امید": 1286,
    "▁رمان": 1287,
    "▁سوار": 1288,
    "▁جوان": 1289,
    "▁چه": 1290,
    "▁مسکن": 1291,
    "▁خاک": 1292,
    "▁سفید": 1293,
    "▁ارشد": 1294,
    "▁پوند": 1295,
    "▁گمرک": 1296,
    "▁مادر": 1297,
    "▁اظهارات": 1298,
    "▁گر": 1299,
    "▁گذاشت": 1300,
    "▁فنی": 1301,
    "▁هنرمند": 1302,
    "▁پا": 1303,
    "چند": 1304,
    "۹": 1305,
    "تبه": 1306,
    "▁تورنمنت": 1307,
    "▁پایتخت": 1308,
    "▁مشغول": 1309,
    "▁انگلستان": 1310,
    "▁اوراق": 1311,
    "▁افتاده": 1312,
    "▁موجب": 1313,
    "▁مدیریت": 1314,
    "▁-": 1315,
    "▁مثبت": 1316,
    "▁ژاپن": 1317,
    "▁حسین": 1318,
    "وایل": 1319,
    "▁بنز": 1320,
    "▁تقوی": 1321,
    "▁قطعی": 1322,
    "▁تشخیص": 1323,
    "▁پذیر": 1324,
    "▁۲۱": 1325,
    "▁منف": 1326,
    "یست": 1327,
    "▁عهد": 1328,
    "▁حریف": 1329,
    "بیشتر": 1330,
    "▁دقیق": 1331,
    "▁حداقل": 1332,
    "▁تزریق": 1333,
    "▁رفتار": 1334,
    "غلب": 1335,
    "▁بیمار": 1336,
    "▁برداشت": 1337,
    "▁رخ": 1338,
    "▁دریا": 1339,
    "ره": 1340,
    "▁عرب": 1341,
    "▁العاده": 1342,
    "▁نشود": 1343,
    "▁تاجیکستان": 1344,
    "▁سرشناس": 1345,
    "▁قتل": 1346,
    "▁مادرید": 1347,
    "▁سنگ": 1348,
    "نیوم": 1349,
    "▁اوت": 1350,
    "▁پیشتر": 1351,
    "▁دل": 1352,
    "▁اورا": 1353,
    "▁راست": 1354,
    "▁وضع": 1355,
    "▁وابست": 1356,
    "▁ظرف": 1357,
    "▁معتبر": 1358,
    "▁فراهم": 1359,
    "▁۱۳۹۹": 1360,
    "▁مرداد": 1361,
    "▁ساختمان": 1362,
    "▁دبیر": 1363,
    "▁اسطوره": 1364,
    "▁دفتر": 1365,
    "▁مخالفت": 1366,
    "▁بن": 1367,
    "▁زنی": 1368,
    "▁سینمایی": 1369,
    "▁دانشمندان": 1370,
    "▁استاد": 1371,
    "▁درآمدهای": 1372,
    "▁چک": 1373,
    "▁ساز": 1374,
    "▁هوشمند": 1375,
    "▁خورد": 1376,
    "▁۹۰": 1377,
    "▁بهمن": 1378,
    "▁مدیران": 1379,
    "▁لو": 1380,
    "▁مک": 1381,
    "▁برزیل": 1382,
    "▁سوئیس": 1383,
    "وال": 1384,
    "▁پژوهش": 1385,
    "▁معامل": 1386,
    "▁محمو": 1387,
    "▁نوبل": 1388,
    "▁مکان": 1389,
    "▁جایی": 1390,
    "▁خودروهای": 1391,
    "▁دارو": 1392,
    "▁دین": 1393,
    "من": 1394,
    "▁حب": 1395,
    "▁معنای": 1396,
    "ستاره": 1397,
    "▁بستر": 1398,
    "▁فوریه": 1399,
    "▁پ": 1400,
    "▁اردیبهشت": 1401,
    "یین": 1402,
    "▁فیفا": 1403,
    "▁جنجال": 1404,
    "▁کاربران": 1405,
    "▁وزن": 1406,
    "▁دریایی": 1407,
    "▁قربانی": 1408,
    "▁هستیم": 1409,
    "▁شرق": 1410,
    "▁گرفتند": 1411,
    "▁ماهه": 1412,
    "▁قدم": 1413,
    "▁دید": 1414,
    "▁زاغری": 1415,
    "▁خرداد": 1416,
    "تا": 1417,
    "▁چیست": 1418,
    "▁جزئیات": 1419,
    "▁گرم": 1420,
    "شنبه": 1421,
    "▁قدیمی": 1422,
    "▁همسر": 1423,
    "اوری": 1424,
    "▁حمل": 1425,
    "▁زود": 1426,
    "پ": 1427,
    "▁هاست": 1428,
    "▁شاه": 1429,
    "▁اجرایی": 1430,
    "▁نوری": 1431,
    "▁کارکنان": 1432,
    "▁صدر": 1433,
    "▁موجود": 1434,
    "▁صعود": 1435,
    "▁لحظ": 1436,
    "▁گوش": 1437,
    "▁زدن": 1438,
    "▁نمو": 1439,
    "دار": 1440,
    "▁کارهای": 1441,
    "▁ضد": 1442,
    "▁۹۹": 1443,
    "▁ع": 1444,
    "▁فارس": 1445,
    "▁کنونی": 1446,
    "▁هدایت": 1447,
    "▁ظاهر": 1448,
    "▁آهنگ": 1449,
    "▁دریای": 1450,
    "▁عق": 1451,
    "▁مسافران": 1452,
    "▁بهداشتی": 1453,
    "ریمه": 1454,
    "▁نداشته": 1455,
    "ود": 1456,
    "▁مطالع": 1457,
    "▁آموزش": 1458,
    "▁موزه": 1459,
    "▁مسدود": 1460,
    "▁موقعیت": 1461,
    "▁نوامبر": 1462,
    "▁محبوب": 1463,
    "▁معادل": 1464,
    "▁نیویورک": 1465,
    "▁رئال": 1466,
    "▁تومانی": 1467,
    "▁قسمت": 1468,
    "▁نویس": 1469,
    "▁مخالفان": 1470,
    "▁قبلا": 1471,
    "▁متع": 1472,
    "▁مهاجم": 1473,
    "▁غذا": 1474,
    "▁نهایت": 1475,
    "▁مستقیم": 1476,
    "▁آبی": 1477,
    "▁استقبال": 1478,
    "▁مبلغ": 1479,
    "▁آوری": 1480,
    "▁علاقه": 1481,
    "▁بحرین": 1482,
    "▁رویترز": 1483,
    "▁قضائیه": 1484,
    "نقض": 1485,
    "▁یکدیگر": 1486,
    "▁چهل": 1487,
    "▁۷۰": 1488,
    "▁بنا": 1489,
    "▁چندان": 1490,
    "▁اصلاح": 1491,
    "▁روایت": 1492,
    "▁۳۰۰": 1493,
    "▁دوچرخه": 1494,
    "▁عجیب": 1495,
    "▁پوست": 1496,
    "▁آلبوم": 1497,
    "▁دوربین": 1498,
    "▁مدیرعامل": 1499,
    "▁سینمای": 1500,
    "پور": 1501,
    "▁تحصیل": 1502,
    "▁محمدرضا": 1503,
    "▁داریم": 1504,
    "▁امیر": 1505,
    "▁فعلی": 1506,
    "▁مهار": 1507,
    "▁سکه": 1508,
    "▁بیماران": 1509,
    "▁۳۱": 1510,
    "▁نور": 1511,
    "▁فوری": 1512,
    "ای": 1513,
    "ید": 1514,
    "▁اقیانوس": 1515,
    "▁رونالدو": 1516,
    "▁خدمات": 1517,
    "قیف": 1518,
    "▁تخم": 1519,
    "▁گستر": 1520,
    "▁ست": 1521,
    "▁اساسی": 1522,
    "▁تیر": 1523,
    "▁سرخ": 1524,
    "▁کالاهای": 1525,
    "▁خورشیدی": 1526,
    "▁هست": 1527,
    "▁آلمانی": 1528,
    "▁آهن": 1529,
    "▁صلح": 1530,
    "▁مراجع": 1531,
    "▁لباس": 1532,
    "▁تماس": 1533,
    "نا": 1534,
    "▁نادال": 1535,
    "▁سفارت": 1536,
    "▁ترس": 1537,
    "▁رافائل": 1538,
    "▁انگلیسی": 1539,
    "▁متوسط": 1540,
    "▁بنابر": 1541,
    "▁مقامات": 1542,
    "▁محصولات": 1543,
    "▁۲۶": 1544,
    "▁گران": 1545,
    "▁نداشت": 1546,
    "▁فرانسوی": 1547,
    "▁مبتلایان": 1548,
    "▁بازنشستگان": 1549,
    "▁جمعی": 1550,
    "▁خواهیم": 1551,
    "▁تعدادی": 1552,
    "▁ماموران": 1553,
    "▁زندانی": 1554,
    "▁گیرند": 1555,
    "▁ناظر": 1556,
    "▁عین": 1557,
    "وس": 1558,
    "▁۳۵": 1559,
    "اب": 1560,
    "تان": 1561,
    "کس": 1562,
    "▁فرزند": 1563,
    "▁غربی": 1564,
    "▁ایم": 1565,
    "داری": 1566,
    "نین": 1567,
    "۳": 1568,
    "▁تخریب": 1569,
    "▁جوایز": 1570,
    "▁طالب": 1571,
    "▁ساکن": 1572,
    "▁معترضان": 1573,
    "▁شخصیت": 1574,
    "▁افزوده": 1575,
    "▁علیرضا": 1576,
    "▁برود": 1577,
    "وی": 1578,
    "وم": 1579,
    "▁دختران": 1580,
    "▁مایک": 1581,
    "▁دما": 1582,
    "▁خورده": 1583,
    "▁سعی": 1584,
    "▁صنایع": 1585,
    "▁ژوئیه": 1586,
    "▁نحو": 1587,
    "▁مونیخ": 1588,
    "▁ارسال": 1589,
    "▁ایستگاه": 1590,
    "▁چالش": 1591,
    "▁مو": 1592,
    "▁میلان": 1593,
    "▁آل": 1594,
    "سال": 1595,
    "▁سهمی": 1596,
    "▁موتور": 1597,
    "▁کشورش": 1598,
    "▁تحویل": 1599,
    "▁مجری": 1600,
    "▁۲۰۱۷": 1601,
    "▁ماده": 1602,
    "▁معمولا": 1603,
    "▁اوج": 1604,
    "حسین": 1605,
    "▁برقرار": 1606,
    "▁تقاضا": 1607,
    "▁زاد": 1608,
    "شب": 1609,
    "یابی": 1610,
    "▁شخصی": 1611,
    "▁جدیدی": 1612,
    "▁توقف": 1613,
    "▁بازگشا": 1614,
    "▁صبح": 1615,
    "▁متعدد": 1616,
    "▁واشنگتن": 1617,
    "▁دانش": 1618,
    "▁خدم": 1619,
    "▁جوکوویچ": 1620,
    "▁نارنجی": 1621,
    "دولت": 1622,
    "▁برگشت": 1623,
    "▁پاکستان": 1624,
    "▁صف": 1625,
    "▁اصل": 1626,
    "▁مارک": 1627,
    "▁دشوار": 1628,
    "توجه": 1629,
    "▁مالک": 1630,
    "▁پست": 1631,
    "▁تقاضای": 1632,
    "▁کارها": 1633,
    "▁قالیباف": 1634,
    "▁ویمبلدون": 1635,
    "▁ثابت": 1636,
    "▁اجاره": 1637,
    "▁ذخ": 1638,
    "▁نگهداری": 1639,
    "▁آنلاین": 1640,
    "▁سوپر": 1641,
    "قدر": 1642,
    "▁موقت": 1643,
    "▁ادبیات": 1644,
    "▁اخراج": 1645,
    "▁تخت": 1646,
    "▁راجر": 1647,
    "▁بازرگانی": 1648,
    "▁سلیمانی": 1649,
    "▁خیابان": 1650,
    "▁برمی": 1651,
    "▁موشک": 1652,
    "گرد": 1653,
    "▁گ": 1654,
    "▁بدهی": 1655,
    "▁صاحب": 1656,
    "▁بهادار": 1657,
    "▁۱۳۹۸": 1658,
    "هرگز": 1659,
    "▁اخبار": 1660,
    "▁قاچاق": 1661,
    "▁کی": 1662,
    "▁تصور": 1663,
    "▁نویسندگان": 1664,
    "▁هموار": 1665,
    "را": 1666,
    "▁ورزشکاران": 1667,
    "▁تعهدات": 1668,
    "▁آذر": 1669,
    "▁۸۰": 1670,
    "▁سند": 1671,
    "▁فرمو": 1672,
    "▁ملک": 1673,
    "▁جذب": 1674,
    "▁نتوانست": 1675,
    "▁نجات": 1676,
    "▁اکتبر": 1677,
    "▁کنسرت": 1678,
    "▁باور": 1679,
    "▁خلق": 1680,
    "▁خانگی": 1681,
    "▁نگه": 1682,
    "▁حاشیه": 1683,
    "▁عادی": 1684,
    "▁انجمن": 1685,
    "▁کلوپ": 1686,
    "▁لیون": 1687,
    "▁غذای": 1688,
    "سازمان": 1689,
    "▁احساس": 1690,
    "▁صوتی": 1691,
    "▁اع": 1692,
    "▁حیات": 1693,
    "▁همچو": 1694,
    "▁جراح": 1695,
    "▁مربیان": 1696,
    "یره": 1697,
    "▁ارزی": 1698,
    "▁توییت": 1699,
    "▁حاصل": 1700,
    "▁پلاس": 1701,
    "▁تسلا": 1702,
    "▁جایگاه": 1703,
    "▁قاسم": 1704,
    "▁حداکثر": 1705,
    "وید": 1706,
    "▁فردا": 1707,
    "▁دارای": 1708,
    "▁شیر": 1709,
    "▁کافی": 1710,
    "▁داند": 1711,
    "▁شاعر": 1712,
    "▁هنرمندان": 1713,
    "▁ترانه": 1714,
    "▁موسو": 1715,
    "▁پرس": 1716,
    "▁ض": 1717,
    "▁دوستان": 1718,
    "▁بلا": 1719,
    "لان": 1720,
    "▁حس": 1721,
    "▁شهروند": 1722,
    "▁اینستاگرام": 1723,
    "▁کردم": 1724,
    "▁پارک": 1725,
    "▁لی": 1726,
    "▁سپاهان": 1727,
    "▁مالکی": 1728,
    "▁تئاتر": 1729,
    "▁اختصاص": 1730,
    "▁مدعی": 1731,
    "▁حفاظت": 1732,
    "▁اهمیت": 1733,
    "▁لوکس": 1734,
    "▁فرهاد": 1735,
    "رضا": 1736,
    "▁هواپیما": 1737,
    "▁تیراندازی": 1738,
    "▁سخنان": 1739,
    "وزارت": 1740,
    "▁گفتند": 1741,
    "▁شبانه": 1742,
    "گری": 1743,
    "رو": 1744,
    "▁چرخ": 1745,
    "▁ادبی": 1746,
    "▁کن": 1747,
    "▁باره": 1748,
    "▁پدید": 1749,
    "▁نوروز": 1750,
    "▁زخمی": 1751,
    "علوم": 1752,
    "▁خوش": 1753,
    "▁تعویق": 1754,
    "▁طبیعت": 1755,
    "▁معرض": 1756,
    "▁مسلح": 1757,
    "▁پاس": 1758,
    "▁فایل": 1759,
    "▁مجید": 1760,
    "▁تلفن": 1761,
    "▁طرفداران": 1762,
    "اک": 1763,
    "خانم": 1764,
    "قانونی": 1765,
    "▁رادیو": 1766,
    "اسی": 1767,
    "گ": 1768,
    "مدید": 1769,
    "▁بان": 1770,
    "▁گیر": 1771,
    "▁نشر": 1772,
    "▁پالایشگاه": 1773,
    "▁شمالی": 1774,
    "شیدا": 1775,
    "▁دام": 1776,
    "▁نگار": 1777,
    "▁اید": 1778,
    "▁کردیم": 1779,
    "▁مشا": 1780,
    "▁دیجیتال": 1781,
    "▁ناگهان": 1782,
    "▁مراکز": 1783,
    "▁مدافع": 1784,
    "▁آزار": 1785,
    "▁مریخ": 1786,
    "▁صرف": 1787,
    "▁خیریه": 1788,
    "▁سبک": 1789,
    "مقام": 1790,
    "ط": 1791,
    "▁ماجرا": 1792,
    "سون": 1793,
    "▁دیدن": 1794,
    "ستان": 1795,
    "▁سهم": 1796,
    "▁اشتباه": 1797,
    "▁اسرائیلی": 1798,
    "▁راهی": 1799,
    "▁احتمالی": 1800,
    "▁جه": 1801,
    "▁۲۹": 1802,
    "▁اصفهان": 1803,
    "▁اجلاس": 1804,
    "تنظیم": 1805,
    "▁قبول": 1806,
    "▁متولد": 1807,
    "▁آسمان": 1808,
    "لو": 1809,
    "▁گام": 1810,
    "▁مواردی": 1811,
    "▁اتریش": 1812,
    "▁زند": 1813,
    "▁اتفاقات": 1814,
    "▁واقعیت": 1815,
    "▁سوزی": 1816,
    "▁پژوهشگران": 1817,
    "چ": 1818,
    "▁بعدا": 1819,
    "▁فرار": 1820,
    "▁نماد": 1821,
    "▁مناسب": 1822,
    "▁کارشناس": 1823,
    "▁فرا": 1824,
    "▁عوامل": 1825,
    "▁افتخار": 1826,
    "▁مسائل": 1827,
    "▁نوجوان": 1828,
    "▁صلاحیت": 1829,
    "▁سوال": 1830,
    "▁اهل": 1831,
    "▁قار": 1832,
    "افسانه": 1833,
    "▁دوز": 1834,
    "▁مطابق": 1835,
    "کش": 1836,
    "▁دادستان": 1837,
    "▁بیان": 1838,
    "▁مسافر": 1839,
    "▁پزشک": 1840,
    "▁مرزی": 1841,
    "▁تمامی": 1842,
    "▁وگو": 1843,
    "▁فرود": 1844,
    "رسدس": 1845,
    "دست": 1846,
    "▁محروم": 1847,
    "▁ارقام": 1848,
    "▁کاپیتان": 1849,
    "▁برجسته": 1850,
    "▁جبران": 1851,
    "▁عصر": 1852,
    "▁حذفی": 1853,
    "▁شهریور": 1854,
    "▁پرتاب": 1855,
    "▁ماموریت": 1856,
    "پیش": 1857,
    "▁ضمن": 1858,
    "▁آلودگی": 1859,
    "قیه": 1860,
    "▁فوتبالیست": 1861,
    "▁بعدی": 1862,
    "▁داور": 1863,
    "▁شرقی": 1864,
    "رکت": 1865,
    "▁استعفا": 1866,
    "▁۴۲": 1867,
    "▁درک": 1868,
    "▁عبدال": 1869,
    "▁متن": 1870,
    "▁جذاب": 1871,
    "نس": 1872,
    "ضاع": 1873,
    "▁تاخیر": 1874,
    "وئل": 1875,
    "▁بگیرند": 1876,
    "▁نرم": 1877,
    "▁محرم": 1878,
    "▁بندر": 1879,
    "▁عدد": 1880,
    "▁۳۲": 1881,
    "▁داشتن": 1882,
    "▁ناسا": 1883,
    "هفته": 1884,
    "انجام": 1885,
    "▁روزها": 1886,
    "▁نهم": 1887,
    "▁ابلاغ": 1888,
    "▁سد": 1889,
    "▁دستگیر": 1890,
    "▁ورزشکار": 1891,
    "▁نزدیکی": 1892,
    "فسور": 1893,
    "▁توانای": 1894,
    "▁شاغل": 1895,
    "▁کشاورز": 1896,
    "▁هنرپیشه": 1897,
    "▁خسارت": 1898,
    "▁مراقب": 1899,
    "▁حاکی": 1900,
    "▁عید": 1901,
    "▁حج": 1902,
    "▁رسما": 1903,
    "▁آرسنال": 1904,
    "▁اوپ": 1905,
    "▁حراج": 1906,
    "▁سیما": 1907,
    "▁ایسنا": 1908,
    "▁جیمز": 1909,
    "▁گذارد": 1910,
    "▁کلاس": 1911,
    "وثی": 1912,
    "▁داروی": 1913,
    "▁کارمندان": 1914,
    "▁وام": 1915,
    "▁آمیز": 1916,
    "رئیس": 1917,
    "ما": 1918,
    "▁زندانیان": 1919,
    "جا": 1920,
    "▁مخالف": 1921,
    "باید": 1922,
    "▁پن": 1923,
    "▁فر": 1924,
    "▁فضا": 1925,
    "▁محسو": 1926,
    "▁بهر": 1927,
    "بط": 1928,
    "▁الملل": 1929,
    "▁توزیع": 1930,
    "▁خشونت": 1931,
    "▁توکیو": 1932,
    "▁آمازون": 1933,
    "▁گذرد": 1934,
    "▁سای": 1935,
    "▁مدرسه": 1936,
    "▁تماشاگران": 1937,
    "▁ایتالیایی": 1938,
    "تیم": 1939,
    "▁خاص": 1940,
    "ئی": 1941,
    "▁شیو": 1942,
    "خبرگزا": 1943,
    "هم": 1944,
    "▁فردی": 1945,
    "▁پرو": 1946,
    "وع": 1947,
    "▁دس": 1948,
    "▁رویکرد": 1949,
    "▁مشاهد": 1950,
    "▁شصت": 1951,
    "▁مشمول": 1952,
    "▁باب": 1953,
    "▁همتی": 1954,
    "▁پروتکل": 1955,
    "▁سیستان": 1956,
    "▁مشاور": 1957,
    "ساز": 1958,
    "رنگ": 1959,
    "▁برادر": 1960,
    "▁رهبری": 1961,
    "▁اکبر": 1962,
    "▁سلطنت": 1963,
    "▁رقیب": 1964,
    "▁مشهد": 1965,
    "▁اعتبار": 1966,
    "▁مسئ": 1967,
    "داد": 1968,
    "▁هویت": 1969,
    "▁چنان": 1970,
    "▁پنجاه": 1971,
    "▁ابراهیم": 1972,
    "▁منتظر": 1973,
    "▁جواد": 1974,
    "▁انداز": 1975,
    "غ": 1976,
    "▁اندازی": 1977,
    "هر": 1978,
    "▁خلی": 1979,
    "▁ترجم": 1980,
    "▁تست": 1981,
    "کل": 1982,
    "▁درجه": 1983,
    "ظ": 1984,
    "▁تری": 1985,
    "برای": 1986,
    "▁نکرد": 1987,
    "▁کلید": 1988,
    "▁روانی": 1989,
    "▁اسب": 1990,
    "▁اطلاعی": 1991,
    "▁سرنگون": 1992,
    "▁تردد": 1993,
    "ذیب": 1994,
    "▁موضع": 1995,
    "▁صراف": 1996,
    "▁عرص": 1997,
    "▁حکام": 1998,
    "▁۲۰۱۵": 1999,
    "▁آلود": 2000,
    "▁آکادمی": 2001,
    "▁شناسی": 2002,
    "▁فروخته": 2003,
    "▁رحمان": 2004,
    "▁الدین": 2005,
    "▁برآورد": 2006,
    "▁توانسته": 2007,
    "▁شغل": 2008,
    "▁شاملو": 2009,
    "▁خان": 2010,
    "▁بچ": 2011,
    "▁محققان": 2012,
    "تمام": 2013,
    "▁سامانه": 2014,
    "▁هشتم": 2015,
    "گزارش": 2016,
    "▁پایه": 2017,
    "▁بهای": 2018,
    "یر": 2019,
    "▁حسینی": 2020,
    "▁لس": 2021,
    "▁افزود": 2022,
    "▁پیوست": 2023,
    "ث": 2024,
    "▁اسکن": 2025,
    "▁تماشاگر": 2026,
    "▁پسر": 2027,
    "ساوی": 2028,
    "▁زا": 2029,
    "▁اتومبیل": 2030,
    "▁مصنوعی": 2031,
    "▁دستمزد": 2032,
    "▁الهام": 2033,
    "▁فیزیک": 2034,
    "▁فراموش": 2035,
    "▁سرپرست": 2036,
    "▁تفاوت": 2037,
    "▁ایرنا": 2038,
    "▁مسعود": 2039,
    "▁آور": 2040,
    "▁ریش": 2041,
    "▁منتقدان": 2042,
    "ایر": 2043,
    "▁یخ": 2044,
    "صد": 2045,
    "کار": 2046,
    "▁مس": 2047,
    "▁سپ": 2048,
    "▁فرستاده": 2049,
    "مدال": 2050,
    "اوی": 2051,
    "▁نقاش": 2052,
    "خراج": 2053,
    "▁عمیق": 2054,
    "▁محافظ": 2055,
    "▁دعوت": 2056,
    "▁اهواز": 2057,
    "▁بلوچستان": 2058,
    "▁ذر": 2059,
    "▁نفس": 2060,
    "▁تکرار": 2061,
    "▁گلستان": 2062,
    "▁واگذار": 2063,
    "▁یمن": 2064,
    "▁شهرستان": 2065,
    "▁رانندگان": 2066,
    "▁بازگرداند": 2067,
    "▁حملات": 2068,
    "▁ساده": 2069,
    "▁خورشید": 2070,
    "ض": 2071,
    "ئو": 2072,
    "▁شهرت": 2073,
    "▁کسر": 2074,
    "▁نداده": 2075,
    "ماه": 2076,
    "▁حامل": 2077,
    "▁گردشگری": 2078,
    "▁دامن": 2079,
    "▁نیستند": 2080,
    "▁جلوی": 2081,
    "سپت": 2082,
    "▁بو": 2083,
    "کن": 2084,
    "▁دیوان": 2085,
    "▁آماد": 2086,
    "▁آرام": 2087,
    "▁عکاسی": 2088,
    "▁شهرداری": 2089,
    "▁عکاس": 2090,
    "▁اطراف": 2091,
    "▁بلینکن": 2092,
    "▁نداریم": 2093,
    "▁رونق": 2094,
    "▁سراوان": 2095,
    "▁۱۳۹۷": 2096,
    "▁آنجلس": 2097,
    "▁تأ": 2098,
    "▁کادر": 2099,
    "▁گواردیولا": 2100,
    "▁پاک": 2101,
    "▁تولد": 2102,
    "گون": 2103,
    "▁شوم": 2104,
    "▁جامع": 2105,
    "▁برخوردار": 2106,
    "تصاب": 2107,
    "▁مشتریان": 2108,
    "▁کف": 2109,
    "▁پزشکان": 2110,
    "▁گرانی": 2111,
    "▁چشمگیر": 2112,
    "▁متحد": 2113,
    "آزادسازی": 2114,
    "▁بند": 2115,
    "▁حالت": 2116,
    "▁جودو": 2117,
    "▁افزار": 2118,
    "▁مبن": 2119,
    "اپی": 2120,
    "▁آکسفورد": 2121,
    "▁ازدواج": 2122,
    "▁اضطرار": 2123,
    "▁ژافره": 2124,
    "▁اسکاتلند": 2125,
    "▁استانبول": 2126,
    "▁پنهان": 2127,
    "▁فعلا": 2128,
    "▁خطرناک": 2129,
    "▁قالب": 2130,
    "▁پکن": 2131,
    "▁جورج": 2132,
    "▁وکیل": 2133,
    "▁مسئولیت": 2134,
    "▁سرکوب": 2135,
    "▁خاتم": 2136,
    "▁شبی": 2137,
    "▁بدتر": 2138,
    "▁همسرش": 2139,
    "فدرا": 2140,
    "▁داوطلبان": 2141,
    "▁گری": 2142,
    "▁کارت": 2143,
    "▁کلیه": 2144,
    "▁موثر": 2145,
    "▁برداری": 2146,
    "عهد": 2147,
    "بار": 2148,
    "▁حقوقی": 2149,
    "▁نبوده": 2150,
    "▁۳۴": 2151,
    "حمل": 2152,
    "دن": 2153,
    "مه": 2154,
    "آن": 2155,
    "۰": 2156,
    "▁دیپلما": 2157,
    "▁تمرین": 2158,
    "▁سرای": 2159,
    "▁۴۰۰": 2160,
    "▁تصادف": 2161,
    "▁حوادث": 2162,
    "▁کالیفرنیا": 2163,
    "▁تعلیق": 2164,
    "▁عمدتا": 2165,
    "▁زمستان": 2166,
    "▁بدهد": 2167,
    "...": 2168,
    "▁ثانی": 2169,
    "▁مقصد": 2170,
    "▁فرودگاه": 2171,
    "▁ساحل": 2172,
    "▁خفاش": 2173,
    "▁فولاد": 2174,
    "▁دقیقا": 2175,
    "▁اختلال": 2176,
    "▁اسکی": 2177,
    "گین": 2178,
    "▁اسپانیایی": 2179,
    "▁نشدن": 2180,
    "مند": 2181,
    "▁ادار": 2182,
    "▁کوه": 2183,
    "▁نیازمند": 2184,
    "▁نادر": 2185,
    "▁هوش": 2186,
    "جمع": 2187,
    "▁ارزها": 2188,
    "▁سخن": 2189,
    "▁شک": 2190,
    "▁معدن": 2191,
    "▁هفتم": 2192,
    "▁جانب": 2193,
    "▁چارچوب": 2194,
    "▁میراث": 2195,
    "▁دانیم": 2196,
    "▁یوونتوس": 2197,
    "▁ناپذیر": 2198,
    "▁پادشاه": 2199,
    "▁انداخته": 2200,
    "▁ساعات": 2201,
    "▁گزین": 2202,
    "▁۱۵۰": 2203,
    "▁مدیرکل": 2204,
    "▁چا": 2205,
    "▁آواز": 2206,
    "▁خرد": 2207,
    "▁۹۷": 2208,
    "▁هماهنگ": 2209,
    "غول": 2210,
    "▁برنت": 2211,
    "▁ریال": 2212,
    "▁مجاز": 2213,
    "▁معمول": 2214,
    "▁جاد": 2215,
    "▁نامش": 2216,
    "▁هیا": 2217,
    "▁انتخاباتی": 2218,
    "ناصر": 2219,
    "دکتر": 2220,
    "کو": 2221,
    "حسن": 2222,
    "لیک": 2223,
    "۱۶": 2224,
    "▁معن": 2225,
    "▁میانه": 2226,
    "▁انداخت": 2227,
    "وه": 2228,
    "رانی": 2229,
    "▁مشاغل": 2230,
    "▁جلب": 2231,
    "▁صدرنشین": 2232,
    "▁پارلمان": 2233,
    "▁شفاف": 2234,
    "▁اطمینان": 2235,
    "▁سوئد": 2236,
    "▁خواب": 2237,
    "▁پایگاه": 2238,
    "▁تحولات": 2239,
    "▁کانادا": 2240,
    "▁خاوران": 2241,
    "▁شناس": 2242,
    "▁نامید": 2243,
    "▁آشنا": 2244,
    "▁نشین": 2245,
    "▁آفریقا": 2246,
    "ینگ": 2247,
    "▁استاندار": 2248,
    "▁مان": 2249,
    "بعضی": 2250,
    "▁ایستاده": 2251,
    "▁پیگیری": 2252,
    "رون": 2253,
    "▁منع": 2254,
    "جی": 2255,
    "▁۴۵": 2256,
    "▁اعتماد": 2257,
    "▁بسکتبال": 2258,
    "▁حکایت": 2259,
    "▁عوارض": 2260,
    "▁نطنز": 2261,
    "▁بماند": 2262,
    "▁تشویق": 2263,
    "یکی": 2264,
    "▁شگفت": 2265,
    "▁متخصص": 2266,
    "▁کلمبیا": 2267,
    "▁عشق": 2268,
    "▁محرومیت": 2269,
    "▁نوسان": 2270,
    "▁مستقل": 2271,
    "اق": 2272,
    "▁دسته": 2273,
    "▁امیدواری": 2274,
    "▁نمایندگی": 2275,
    "▁ز": 2276,
    "▁شانس": 2277,
    "▁کیو": 2278,
    "▁تب": 2279,
    "▁سری": 2280,
    "▁بودم": 2281,
    "▁علم": 2282,
    "▁محمدی": 2283,
    "▁یافتن": 2284,
    "▁نوروزی": 2285,
    "همزمان": 2286,
    "بنابر": 2287,
    "بانک": 2288,
    "▁بازرس": 2289,
    "▁ابر": 2290,
    "▁هرچ": 2291,
    "▁راحت": 2292,
    "واع": 2293,
    "▁طلب": 2294,
    "شورای": 2295,
    "▁آفریقای": 2296,
    "▁سفرهای": 2297,
    "▁آمدن": 2298,
    "▁کیلومتری": 2299,
    "▁امضای": 2300,
    "شدید": 2301,
    "▁سرد": 2302,
    "▁اظهار": 2303,
    "▁تحلیل": 2304,
    "▁دهنده": 2305,
    "▁رویداد": 2306,
    "▁۶۰۰": 2307,
    "▁رویا": 2308,
    "▁گرنداسلم": 2309,
    "▁پرچم": 2310,
    "▁ردیف": 2311,
    "▁فیسبوک": 2312,
    "▁خلاف": 2313,
    "▁لحا": 2314,
    "▁خطاب": 2315,
    "▁لستر": 2316,
    "▁باغ": 2317,
    "▁دانشجویان": 2318,
    "▁مهاجرت": 2319,
    "▁نفوذ": 2320,
    "▁کارزار": 2321,
    "▁منظور": 2322,
    "▁ویدیوی": 2323,
    "▁پیچیده": 2324,
    "▁مسافرت": 2325,
    "▁۳۳": 2326,
    "▁زدند": 2327,
    "▁هلند": 2328,
    "▁مذهبی": 2329,
    "▁گوشت": 2330,
    "▁نیرو": 2331,
    "ویز": 2332,
    "▁مطلب": 2333,
    "▁آنتونی": 2334,
    "▁بیستم": 2335,
    "▁تماشای": 2336,
    "▁جوانان": 2337,
    "▁بابا": 2338,
    "▁ژاپنی": 2339,
    "اگر": 2340,
    "▁شرکتهای": 2341,
    "▁بنیاد": 2342,
    "▁خاصی": 2343,
    "▁سا": 2344,
    "▁ضرور": 2345,
    "▁درمانی": 2346,
    "▁ژرمن": 2347,
    "▁کهکشان": 2348,
    "▁اولویت": 2349,
    "▁تنفس": 2350,
    "▁تجدید": 2351,
    "▁کجا": 2352,
    "▁خمینی": 2353,
    "▁وسیع": 2354,
    "▁آسان": 2355,
    "▁مقدار": 2356,
    "▁سانسور": 2357,
    "▁شواهد": 2358,
    "▁اورتون": 2359,
    "▁گشایش": 2360,
    "▁امارات": 2361,
    "▁نامزدهای": 2362,
    "▁پاییز": 2363,
    "▁مدرن": 2364,
    "▁ملایی": 2365,
    "▁پوشش": 2366,
    "▁فراز": 2367,
    "▁اینتر": 2368,
    "▁اسماعیل": 2369,
    "لا": 2370,
    "▁زودتر": 2371,
    "کا": 2372,
    "گفته": 2373,
    "چی": 2374,
    "▁درحالی": 2375,
    "قرار": 2376,
    "▁صادقی": 2377,
    "▁ماجرای": 2378,
    "▁ششم": 2379,
    "▁عمر": 2380,
    "▁آسیای": 2381,
    "▁امر": 2382,
    "▁پدرش": 2383,
    "غم": 2384,
    "▁ثبات": 2385,
    "▁عبارت": 2386,
    "▁زهرا": 2387,
    "▁هتل": 2388,
    "▁کربن": 2389,
    "▁فیوری": 2390,
    "▁روغن": 2391,
    "▁علائم": 2392,
    "▁اقامت": 2393,
    "▁نسخ": 2394,
    "▁مقدمات": 2395,
    "▁رمز": 2396,
    "▁بنیان": 2397,
    "▁تجهیزات": 2398,
    "▁بخت": 2399,
    "▁مرجان": 2400,
    "▁یادآور": 2401,
    "▁قله": 2402,
    "سا": 2403,
    "▁مرور": 2404,
    "است": 2405,
    "▁قول": 2406,
    "▁رویدادهای": 2407,
    "▁قضاییه": 2408,
    "جسم": 2409,
    "نظر": 2410,
    "▁لبنان": 2411,
    "▁قطب": 2412,
    "▁حامی": 2413,
    "▁اقلیم": 2414,
    "▁مالیاتی": 2415,
    "▁بازیگران": 2416,
    "الب": 2417,
    "▁سپرد": 2418,
    "▁پاری": 2419,
    "▁جر": 2420,
    "▁بردن": 2421,
    "▁زنند": 2422,
    "▁روان": 2423,
    "▁خودروسازی": 2424,
    "مون": 2425,
    "▁مع": 2426,
    "▁موافق": 2427,
    "▁نصب": 2428,
    "▁ازبکستان": 2429,
    "▁گروسی": 2430,
    "▁متوالی": 2431,
    "▁اندونزی": 2432,
    "▁خطوط": 2433,
    "▁شناور": 2434,
    "▁شویم": 2435,
    "▁نبرد": 2436,
    "▁دستورالعمل": 2437,
    "▁پاپ": 2438,
    "▁مخاطبان": 2439,
    "▁امشب": 2440,
    "▁خواهم": 2441,
    "▁مجازات": 2442,
    "▁ذو": 2443,
    "▁فولک": 2444,
    "▁جم": 2445,
    "▁۲۷": 2446,
    "▁آرامش": 2447,
    "▁جک": 2448,
    "▁پیوسته": 2449,
    "▁ایست": 2450,
    "وا": 2451,
    "▁تعطیلات": 2452,
    "▁ماندن": 2453,
    "▁یاران": 2454,
    "▁اکثر": 2455,
    "سعید": 2456,
    "مت": 2457,
    "کته": 2458,
    "شرکت": 2459,
    "▁دان": 2460,
    "▁قوی": 2461,
    "▁کالاها": 2462,
    "وخیم": 2463,
    "▁باد": 2464,
    "احل": 2465,
    "▁اسدی": 2466,
    "▁ژنتیکی": 2467,
    "▁مار": 2468,
    "▁مج": 2469,
    "سبب": 2470,
    "▁کال": 2471,
    "▁تل": 2472,
    "▁نباشد": 2473,
    "▁برگزید": 2474,
    "▁انتظامی": 2475,
    "▁بگذارد": 2476,
    "▁کانون": 2477,
    "▁باشیم": 2478,
    "▁غافلگیر": 2479,
    "▁مثال": 2480,
    "▁سرنوشت": 2481,
    "▁کیفیت": 2482,
    "▁تدریج": 2483,
    "▁اسناد": 2484,
    "▁اندک": 2485,
    "▁واقعا": 2486,
    "▁فرمان": 2487,
    "آی": 2488,
    "▁یونان": 2489,
    "▁عملا": 2490,
    "▁امکانات": 2491,
    "▁اصلا": 2492,
    "▁اتهامات": 2493,
    "▁۱۹۸": 2494,
    "▁سازند": 2495,
    "▁شاهین": 2496,
    "وف": 2497,
    "زاده": 2498,
    "▁صادرکنند": 2499,
    "▁کریمی": 2500,
    "▁برون": 2501,
    "رگن": 2502,
    "▁درون": 2503,
    "بنا": 2504,
    "فاصله": 2505,
    "سه": 2506,
    "خالت": 2507,
    "▁میر": 2508,
    "▁مدار": 2509,
    "▁وال": 2510,
    "اد": 2511,
    "▁قدر": 2512,
    "▁عطر": 2513,
    "▁۴۴": 2514,
    "▁معاصر": 2515,
    "▁تعریف": 2516,
    "▁نیمکت": 2517,
    "▁خطیب": 2518,
    "▁زاهد": 2519,
    "▁بوکس": 2520,
    "▁دفاعی": 2521,
    "▁هفتاد": 2522,
    "▁فرگوسن": 2523,
    "▁حقیقت": 2524,
    "▁قیمتها": 2525,
    "▁سقف": 2526,
    "▁معلوم": 2527,
    "▁اور": 2528,
    "▁سهامداران": 2529,
    "▁ایفا": 2530,
    "▁محکومیت": 2531,
    "▁دهیم": 2532,
    "▁مادرش": 2533,
    "اکان": 2534,
    "▁مناسبت": 2535,
    "▁درد": 2536,
    "▁محصول": 2537,
    "▁فاز": 2538,
    "ولی": 2539,
    "▁طلای": 2540,
    "شویی": 2541,
    "رسان": 2542,
    "▁خوان": 2543,
    "▁خیر": 2544,
    "قیمت": 2545,
    "▁صادق": 2546,
    "وزیر": 2547,
    "▁سنا": 2548,
    "▁هو": 2549,
    "▁زیبای": 2550,
    "رت": 2551,
    "▁ابتلای": 2552,
    "وقت": 2553,
    "▁تاجیک": 2554,
    "▁کارمند": 2555,
    "▁بازدید": 2556,
    "▁سرود": 2557,
    "▁دیگران": 2558,
    "▁دائم": 2559,
    "▁تائید": 2560,
    "▁منافع": 2561,
    "▁مورینیو": 2562,
    "▁احترام": 2563,
    "▁واگن": 2564,
    "▁اماکن": 2565,
    "▁تراکتور": 2566,
    "▁فریاد": 2567,
    "▁بهشت": 2568,
    "▁فراتر": 2569,
    "▁عاص": 2570,
    "▁لمس": 2571,
    "▁حیوانات": 2572,
    "▁کاوشگر": 2573,
    "▁جانشین": 2574,
    "▁کنفرانس": 2575,
    "▁نمایشگاه": 2576,
    "لر": 2577,
    "▁سالم": 2578,
    "▁شیش": 2579,
    "طفی": 2580,
    "قابل": 2581,
    "▁مساوی": 2582,
    "▁جاسوس": 2583,
    "ابت": 2584,
    "▁زیرا": 2585,
    "▁نت": 2586,
    "▁گزارشگر": 2587,
    "▁آر": 2588,
    "▁نود": 2589,
    "▁مسئولین": 2590,
    "دان": 2591,
    "رد": 2592,
    "▁درخشان": 2593,
    "▁اص": 2594,
    "▁ذهن": 2595,
    "▁برند": 2596,
    "▁ارد": 2597,
    "۲۲": 2598,
    "▁دانشمند": 2599,
    "▁نامداری": 2600,
    "▁پژوهشگر": 2601,
    "▁فراوان": 2602,
    "▁اقدامی": 2603,
    "▁شهرها": 2604,
    "▁محاسب": 2605,
    "رز": 2606,
    "▁مشروط": 2607,
    "▁هیئت": 2608,
    "▁کیلوگرم": 2609,
    "▁بامیان": 2610,
    "▁بخار": 2611,
    "▁یادداشت": 2612,
    "▁هافبک": 2613,
    "▁تعرف": 2614,
    "احض": 2615,
    "▁هشتاد": 2616,
    "▁اولسان": 2617,
    "▁وستهم": 2618,
    "▁خودکشی": 2619,
    "▁مدارس": 2620,
    "▁جواب": 2621,
    "▁کریستیان": 2622,
    "▁دیپلماتیک": 2623,
    "▁رحمانی": 2624,
    "▁انگار": 2625,
    "▁برندگان": 2626,
    "▁تبار": 2627,
    "▁تایسون": 2628,
    "▁فرماندار": 2629,
    "▁منشا": 2630,
    "▁هاشمی": 2631,
    "▁فقر": 2632,
    "▁طیف": 2633,
    "▁قطعه": 2634,
    "▁فرم": 2635,
    "دا": 2636,
    "▁جنسیت": 2637,
    "▁بردند": 2638,
    "ص": 2639,
    "▁بیمه": 2640,
    "▁اتفاقی": 2641,
    "۵۰": 2642,
    "▁قد": 2643,
    "▁امین": 2644,
    "▁جزیر": 2645,
    "آمریکا": 2646,
    "▁۳۸": 2647,
    "حدود": 2648,
    "▁نمای": 2649,
    "تن": 2650,
    "▁والی": 2651,
    "باقر": 2652,
    "▁عظیم": 2653,
    "▁نیمی": 2654,
    "▁رها": 2655,
    "▁تماشا": 2656,
    "▁برکنار": 2657,
    "▁اجباری": 2658,
    "▁هجوم": 2659,
    "▁ویژ": 2660,
    "تون": 2661,
    "▁خ": 2662,
    "مندان": 2663,
    "فت": 2664,
    "داران": 2665,
    "▁رهبران": 2666,
    "▁عام": 2667,
    "▁مغزی": 2668,
    "▁خراسان": 2669,
    "▁پتروشیمی": 2670,
    "▁آفتاب": 2671,
    "▁مسجد": 2672,
    "▁جایگزین": 2673,
    "▁سلاح": 2674,
    "▁خاطره": 2675,
    "▁شرط": 2676,
    "▁نفع": 2677,
    "▁جنبش": 2678,
    "اجع": 2679,
    "▁بلژیک": 2680,
    "▁تبعیض": 2681,
    "▁هیجان": 2682,
    "▁بلخ": 2683,
    "▁نژادپرست": 2684,
    "▁فاش": 2685,
    "▁غار": 2686,
    "▁کرمان": 2687,
    "▁مدنی": 2688,
    "▁راستا": 2689,
    "▁۴۸": 2690,
    "▁گذر": 2691,
    "▁محمدجواد": 2692,
    "▁فرو": 2693,
    "▁ضرر": 2694,
    "▁شتاب": 2695,
    "▁خریدار": 2696,
    "▁وایل": 2697,
    "کسی": 2698,
    "▁عادل": 2699,
    "یو": 2700,
    "نیک": 2701,
    "▁توجهی": 2702,
    "▁طلبان": 2703,
    "▁شیری": 2704,
    "▁گمان": 2705,
    "▁دلاری": 2706,
    "▁مقال": 2707,
    "▁جی": 2708,
    "دل": 2709,
    "نر": 2710,
    "▁جسم": 2711,
    "▁۰": 2712,
    "▁گرد": 2713,
    "وات": 2714,
    "ریم": 2715,
    "▁آنک": 2716,
    "▁عفو": 2717,
    "▁آمارها": 2718,
    "▁منج": 2719,
    "▁۷۵": 2720,
    "امروز": 2721,
    "▁عاشق": 2722,
    "▁کام": 2723,
    "فرین": 2724,
    "▁فکری": 2725,
    "▁قر": 2726,
    "▁قایق": 2727,
    "▁مطمئن": 2728,
    "▁موقع": 2729,
    "▁آذربایجان": 2730,
    "▁اقلام": 2731,
    "▁غیرمستقیم": 2732,
    "▁قلع": 2733,
    "▁نساجی": 2734,
    "▁پیراهن": 2735,
    "▁پیامدهای": 2736,
    "▁آشکار": 2737,
    "▁ترجیح": 2738,
    "▁دانمارک": 2739,
    "▁گشت": 2740,
    "▁گورستان": 2741,
    "▁سلول": 2742,
    "▁پرفروش": 2743,
    "▁قادر": 2744,
    "▁زرد": 2745,
    "▁ناکام": 2746,
    "سل": 2747,
    "▁پرتغال": 2748,
    "▁پلاستیک": 2749,
    "▁آتی": 2750,
    "▁جسد": 2751,
    "▁علنی": 2752,
    "▁خاورمیانه": 2753,
    "▁حافظ": 2754,
    "▁آموزشی": 2755,
    "▁آرایش": 2756,
    "▁تجا": 2757,
    "▁خوانندگ": 2758,
    "▁شنیده": 2759,
    "▁پوشید": 2760,
    "▁جدایی": 2761,
    "▁غلام": 2762,
    "▁سپر": 2763,
    "▁بودیم": 2764,
    "▁گرا": 2765,
    "▁درهای": 2766,
    "▁پهلوی": 2767,
    "▁خست": 2768,
    "▁انت": 2769,
    "▁نان": 2770,
    "▁برایش": 2771,
    "▁تپ": 2772,
    "▁باخته": 2773,
    "▁خواه": 2774,
    "فر": 2775,
    "▁دیوار": 2776,
    "▁وست": 2777,
    "سخنگوی": 2778,
    "أ": 2779,
    "▁خشک": 2780,
    "▁کیم": 2781,
    "صاف": 2782,
    "ویس": 2783,
    "▁لب": 2784,
    "▁تنگ": 2785,
    "▁شنا": 2786,
    "امی": 2787,
    "قب": 2788,
    "وند": 2789,
    "پی": 2790,
    "▁صالح": 2791,
    "فق": 2792,
    "▁قلم": 2793,
    "▁بغداد": 2794,
    "▁خلاص": 2795,
    "▁جستجو": 2796,
    "▁بدهند": 2797,
    "▁آدم": 2798,
    "▁تبریز": 2799,
    "▁حساس": 2800,
    "▁دایک": 2801,
    "▁پادتن": 2802,
    "▁برگزیت": 2803,
    "▁تکمیل": 2804,
    "▁شوک": 2805,
    "▁میناوند": 2806,
    "▁۵۷": 2807,
    "▁ظاهرا": 2808,
    "▁کنگره": 2809,
    "▁توماس": 2810,
    "▁اسم": 2811,
    "▁آزمایشگاه": 2812,
    "▁سوالات": 2813,
    "▁تحول": 2814,
    "▁نیک": 2815,
    "طی": 2816,
    "▁پرده": 2817,
    "▁تحلیلگر": 2818,
    "▁اوبر": 2819,
    "کی": 2820,
    "▁سالن": 2821,
    "▁۲۵۰": 2822,
    "▁آگاه": 2823,
    "▁یازدهم": 2824,
    "جان": 2825,
    "▁دوام": 2826,
    "اوش": 2827,
    "ذ": 2828,
    "افزایش": 2829,
    "بیش": 2830,
    "▁نظریه": 2831,
    "▁راز": 2832,
    "حال": 2833,
    "▁پو": 2834,
    "▁مسال": 2835,
    "▁۳۷": 2836,
    "▁داری": 2837,
    "▁رقص": 2838,
    "▁ارزان": 2839,
    "▁معترض": 2840,
    "▁خاتمی": 2841,
    "▁روب": 2842,
    "بهار": 2843,
    "تو": 2844,
    "بین": 2845,
    "▁کلاسیک": 2846,
    "▁الکترونیک": 2847,
    "▁فرآیند": 2848,
    "▁معیشت": 2849,
    "▁لذت": 2850,
    "عوض": 2851,
    "▁سرقت": 2852,
    "▁پانصد": 2853,
    "▁گوناگون": 2854,
    "▁غزنی": 2855,
    "نادیده": 2856,
    "▁وسایل": 2857,
    "▁بوندس": 2858,
    "▁لوئی": 2859,
    "▁۲۰۱۰": 2860,
    "▁اسلم": 2861,
    "▁تاثیرگذار": 2862,
    "▁بیاید": 2863,
    "۲۰۱۲": 2864,
    "▁شکاف": 2865,
    "▁ادعای": 2866,
    "▁لیدز": 2867,
    "▁شورو": 2868,
    "▁ط": 2869,
    "۱۹": 2870,
    "▁گرند": 2871,
    "▁استادیوم": 2872,
    "▁رسانی": 2873,
    "▁نگرفته": 2874,
    "▁اطل": 2875,
    "▁الکس": 2876,
    "▁قدس": 2877,
    "▁امان": 2878,
    "یده": 2879,
    "▁رفتند": 2880,
    "▁نابودی": 2881,
    "یژن": 2882,
    "▁تج": 2883,
    "▁اسلام": 2884,
    "▁سان": 2885,
    "▁وحش": 2886,
    "▁فتح": 2887,
    "بسیاری": 2888,
    "سکی": 2889,
    "مجموعه": 2890,
    "▁اهدا": 2891,
    "▁اوکراین": 2892,
    "▁قوا": 2893,
    "اقات": 2894,
    "▁درحال": 2895,
    "نام": 2896,
    "▁همای": 2897,
    "▁شهری": 2898,
    "▁روح": 2899,
    "▁گنج": 2900,
    "▁تردید": 2901,
    "▁داغ": 2902,
    "▁الحاق": 2903,
    "▁خداحافظ": 2904,
    "▁هالیوود": 2905,
    "▁والیبال": 2906,
    "▁مستمر": 2907,
    "▁صمت": 2908,
    "▁عمق": 2909,
    "▁برانگیخت": 2910,
    "▁برانگیز": 2911,
    "▁بخصوص": 2912,
    "▁نماز": 2913,
    "▁نیروگاه": 2914,
    "▁حیدر": 2915,
    "▁تقس": 2916,
    "▁طبری": 2917,
    "▁مسلمان": 2918,
    "▁دیگو": 2919,
    "▁مص": 2920,
    "▁فایزر": 2921,
    "▁شیراز": 2922,
    "▁ببرد": 2923,
    "▁صند": 2924,
    "▁ارشاد": 2925,
    "▁سرزمین": 2926,
    "▁باشید": 2927,
    "▁نمایشگر": 2928,
    "▁کشد": 2929,
    "▁تمایل": 2930,
    "▁همجنس": 2931,
    "▁نداشتند": 2932,
    "▁سیل": 2933,
    "▁اردو": 2934,
    "▁عادت": 2935,
    "آ": 2936,
    "▁پیک": 2937,
    "▁دانستند": 2938,
    "▁حمید": 2939,
    "▁کپ": 2940,
    "▁سران": 2941,
    "▁بازرسان": 2942,
    "▁مطل": 2943,
    "▁تور": 2944,
    "▁۶۵": 2945,
    "▁تس": 2946,
    "رویی": 2947,
    "▁شیرین": 2948,
    "▁فرستاد": 2949,
    "رس": 2950,
    "خره": 2951,
    "▁گذراند": 2952,
    "▁خودم": 2953,
    "▁نرسیده": 2954,
    "وار": 2955,
    "▁ص": 2956,
    "▁رسیدند": 2957,
    "▁هنرها": 2958,
    "▁خیابانی": 2959,
    "برخ": 2960,
    "▁ریه": 2961,
    "▁سالها": 2962,
    "▁سفارش": 2963,
    "▁۱۹۹": 2964,
    "▁باران": 2965,
    "▁تبلیغات": 2966,
    "▁منتقد": 2967,
    "▁طوری": 2968,
    "▁کلا": 2969,
    "▁شایع": 2970,
    "▁کریست": 2971,
    "سر": 2972,
    "▁فیلمساز": 2973,
    "▁عم": 2974,
    "گل": 2975,
    "کم": 2976,
    "یل": 2977,
    "▁بازنشست": 2978,
    "▁آنفلوآنزا": 2979,
    "▁سامسونگ": 2980,
    "▁قاضی": 2981,
    "▁همیشگی": 2982,
    "▁دوپینگ": 2983,
    "▁محاکمه": 2984,
    "▁مترجم": 2985,
    "▁سلمان": 2986,
    "▁بوشهر": 2987,
    "▁بکشد": 2988,
    "▁فرونشست": 2989,
    "▁زوج": 2990,
    "▁بزند": 2991,
    "▁مقاومت": 2992,
    "▁بورل": 2993,
    "▁اهداف": 2994,
    "▁عراقچی": 2995,
    "▁هیوندای": 2996,
    "▁قدرتمند": 2997,
    "▁۳۹": 2998,
    "▁مدارک": 2999,
    "▁واژ": 3000,
    "▁پرورش": 3001,
    "▁منچستریونایتد": 3002,
    "▁پپ": 3003,
    "▁۴۳": 3004,
    "داشت": 3005,
    "▁روسا": 3006,
    "▁۴۹": 3007,
    "▁محتوای": 3008,
    "▁محافظت": 3009,
    "طئ": 3010,
    "▁جنبه": 3011,
    "▁گوشی": 3012,
    "یسم": 3013,
    "▁منته": 3014,
    "▁جیب": 3015,
    "▁مطهری": 3016,
    "▁خوردن": 3017,
    "▁موش": 3018,
    "▁سراسری": 3019,
    "▁دارم": 3020,
    "▁موضوعات": 3021,
    "جه": 3022,
    "▁بهایی": 3023,
    "▁باند": 3024,
    "▁بینند": 3025,
    "باران": 3026,
    "▁آزمایی": 3027,
    "پل": 3028,
    "▁فرزندان": 3029,
    "حتی": 3030,
    "▁سیار": 3031,
    "نت": 3032,
    "پنج": 3033,
    "ممکن": 3034,
    "۱۸": 3035,
    "اده": 3036,
    "یخ": 3037,
    "رسمی": 3038,
    "▁ساک": 3039,
    "▁بهتری": 3040,
    "▁پیشگیری": 3041,
    "▁۱۳۵": 3042,
    "▁اگر": 3043,
    "▁۷۳": 3044,
    "گانه": 3045,
    "▁بدی": 3046,
    "لاک": 3047,
    "▁ویدیو": 3048,
    "نواک": 3049,
    "انا": 3050,
    "▁تبلیغ": 3051,
    "▁ناراحت": 3052,
    "▁مطالب": 3053,
    "▁استراماچونی": 3054,
    "▁تسلیحات": 3055,
    "▁تگزاس": 3056,
    "▁موظف": 3057,
    "▁نتانیاهو": 3058,
    "▁فلوریدا": 3059,
    "▁نکنید": 3060,
    "▁بعید": 3061,
    "▁ناحیه": 3062,
    "▁نوبخت": 3063,
    "▁فردوسی": 3064,
    "▁یوفا": 3065,
    "▁سانتی": 3066,
    "▁تظاهرات": 3067,
    "▁مطبوعات": 3068,
    "▁تلخ": 3069,
    "▁۱۹۸۶": 3070,
    "▁مصدومیت": 3071,
    "هزار": 3072,
    "▁سبز": 3073,
    "▁بیلسا": 3074,
    "▁خشم": 3075,
    "▁وبسایت": 3076,
    "▁غریب": 3077,
    "نوبت": 3078,
    "▁برخلاف": 3079,
    "▁برج": 3080,
    "▁مکرون": 3081,
    "▁پیمان": 3082,
    "بورن": 3083,
    "▁افتد": 3084,
    "▁یکم": 3085,
    "▁جرم": 3086,
    "▁حلق": 3087,
    "تکلیف": 3088,
    "▁خاطرات": 3089,
    "▁بدر": 3090,
    "▁سوئیسی": 3091,
    "▁کارش": 3092,
    "▁سین": 3093,
    "▁فل": 3094,
    "▁۹۶": 3095,
    "▁فان": 3096,
    "بخش": 3097,
    "▁کهن": 3098,
    "▁توانم": 3099,
    "▁افشا": 3100,
    "▁پیست": 3101,
    "▁خواستند": 3102,
    "▁۵۶": 3103,
    "▁اقلیمی": 3104,
    "▁روس": 3105,
    "شده": 3106,
    "▁موشکی": 3107,
    "خالص": 3108,
    "آزمایی": 3109,
    "طبق": 3110,
    "فیلم": 3111,
    "▁روسی": 3112,
    "جونز": 3113,
    "لت": 3114,
    "▁شریفی": 3115,
    "▁افکن": 3116,
    "غان": 3117,
    "▁مهاجر": 3118,
    "اینها": 3119,
    "ران": 3120,
    "▁۱۲۰": 3121,
    "▁نقد": 3122,
    "▁ادعا": 3123,
    "▁درخت": 3124,
    "▁عملی": 3125,
    "وت": 3126,
    "▁سرباز": 3127,
    "▁مخفی": 3128,
    "▁مرزها": 3129,
    "▁عروس": 3130,
    "▁پیوند": 3131,
    "▁ببینید": 3132,
    "▁تأثیر": 3133,
    "▁رضوی": 3134,
    "▁شمخانی": 3135,
    "▁قاجار": 3136,
    "▁موبایل": 3137,
    "▁طوفان": 3138,
    "▁تعامل": 3139,
    "▁ثمر": 3140,
    "▁ناامن": 3141,
    "▁تروریسم": 3142,
    "▁کامیون": 3143,
    "▁همسان": 3144,
    "نیم": 3145,
    "▁ویلموتس": 3146,
    "▁ماراتن": 3147,
    "▁خوک": 3148,
    "▁دموکرات": 3149,
    "▁اشتغال": 3150,
    "▁متاسف": 3151,
    "▁خرج": 3152,
    "▁گوگل": 3153,
    "▁کش": 3154,
    "▁گردشگران": 3155,
    "▁عبدالله": 3156,
    "▁۹۵": 3157,
    "▁معمار": 3158,
    "▁کاردن": 3159,
    "▁نقدی": 3160,
    "▁اصلاحات": 3161,
    "التی": 3162,
    "کر": 3163,
    "▁هستم": 3164,
    "▁اختلافات": 3165,
    "▁کاربر": 3166,
    "▁جدال": 3167,
    "بادی": 3168,
    "▁پرسش": 3169,
    "▁مرزهای": 3170,
    "▁مبنای": 3171,
    "▁بومی": 3172,
    "ناز": 3173,
    "▁نزد": 3174,
    "▁راستی": 3175,
    "رعه": 3176,
    "▁مهمتر": 3177,
    "▁کنگ": 3178,
    "▁وسی": 3179,
    "▁ایام": 3180,
    "▁دراز": 3181,
    "▁شل": 3182,
    "▁یازده": 3183,
    "▁شه": 3184,
    "شهر": 3185,
    "خواهی": 3186,
    "▁دف": 3187,
    "یرت": 3188,
    "▁راند": 3189,
    "▁یاری": 3190,
    "▁ارا": 3191,
    "ضعیف": 3192,
    "استفاده": 3193,
    "پلیس": 3194,
    "▁مور": 3195,
    "افغانستان": 3196,
    "پیشتر": 3197,
    "▁گمانه": 3198,
    "شمار": 3199,
    "جو": 3200,
    "وش": 3201,
    "▁تکان": 3202,
    "▁آم": 3203,
    "یاس": 3204,
    "بری": 3205,
    "▁گیاه": 3206,
    "▁محقق": 3207,
    "کاری": 3208,
    "▁آباد": 3209,
    "▁مای": 3210,
    "▁ماهوار": 3211,
    "▁تاکسی": 3212,
    "▁شعار": 3213,
    "▁الانبیا": 3214,
    "▁تحمیل": 3215,
    "▁غربالگری": 3216,
    "▁پروتئین": 3217,
    "خصیص": 3218,
    "▁خوراک": 3219,
    "▁عذر": 3220,
    "▁پرافتخار": 3221,
    "▁تعدیل": 3222,
    "▁تلفیق": 3223,
    "▁افتتاح": 3224,
    "▁یمانی": 3225,
    "▁پردازد": 3226,
    "▁فیلتر": 3227,
    "▁ارتفاع": 3228,
    "▁برانکو": 3229,
    "▁ویلیام": 3230,
    "▁تبعات": 3231,
    "▁شکنج": 3232,
    "▁تعهد": 3233,
    "▁پرندگان": 3234,
    "▁گردن": 3235,
    "▁ویلیامز": 3236,
    "▁گور": 3237,
    "▁منوچ": 3238,
    "▁ودیعه": 3239,
    "▁مزار": 3240,
    "▁سناتور": 3241,
    "▁آورند": 3242,
    "▁ایلنا": 3243,
    "▁سرنشینان": 3244,
    "▁هنگ": 3245,
    "▁وسط": 3246,
    "▁ویران": 3247,
    "کننده": 3248,
    "▁لحظات": 3249,
    "▁فرید": 3250,
    "▁همیلتون": 3251,
    "▁محسن": 3252,
    "راحل": 3253,
    "راه": 3254,
    "▁پرسید": 3255,
    "▁ایرانیان": 3256,
    "▁پذیرفته": 3257,
    "▁صورتی": 3258,
    "▁اهدای": 3259,
    "▁ترور": 3260,
    "خیلی": 3261,
    "▁۵۲": 3262,
    "زکی": 3263,
    "▁فدرال": 3264,
    "تیپ": 3265,
    "▁استعداد": 3266,
    "لک": 3267,
    "میم": 3268,
    "▁هجومی": 3269,
    "▁ویدئویی": 3270,
    "▁راس": 3271,
    "▁تاک": 3272,
    "▁حضورش": 3273,
    "▁عزاداری": 3274,
    "▁کاسته": 3275,
    "▁جین": 3276,
    "هالی": 3277,
    "داوم": 3278,
    "▁تف": 3279,
    "عبدال": 3280,
    "۱۴": 3281,
    "▁فروشگاه": 3282,
    "محمود": 3283,
    "آنها": 3284,
    "▁تخیل": 3285,
    "▁آرای": 3286,
    "▁پرند": 3287,
    "▁معمولی": 3288,
    "▁گروگان": 3289,
    "▁پانزده": 3290,
    "آوری": 3291,
    "قه": 3292,
    "▁لیگا": 3293,
    "▁دنی": 3294,
    "ویژه": 3295,
    "▁محدودیتهای": 3296,
    "▁سلطان": 3297,
    "التهاب": 3298,
    "▁۹۱": 3299,
    "▁تخلف": 3300,
    "▁انقراض": 3301,
    "▁دبلیو": 3302,
    "▁مشورت": 3303,
    "▁اعزام": 3304,
    "▁بلاروس": 3305,
    "▁لاریجانی": 3306,
    "▁موانع": 3307,
    "▁منحصر": 3308,
    "▁لالیگا": 3309,
    "▁تدوین": 3310,
    "▁لهستان": 3311,
    "▁فلوید": 3312,
    "▁بدانیم": 3313,
    "▁فسیل": 3314,
    "▁نیوزیلند": 3315,
    "▁نسب": 3316,
    "▁نقص": 3317,
    "▁راهبرد": 3318,
    "▁سلف": 3319,
    "▁خاموش": 3320,
    "▁وانت": 3321,
    "▁تسهیلات": 3322,
    "▁ازای": 3323,
    "▁کارلوس": 3324,
    "▁محاسبات": 3325,
    "▁بلیت": 3326,
    "▁آنقدر": 3327,
    "▁کشند": 3328,
    "▁صلاح": 3329,
    "▁آهنگساز": 3330,
    "راضی": 3331,
    "▁ربط": 3332,
    "▁کیلو": 3333,
    "گروه": 3334,
    "▁آرامکو": 3335,
    "▁گذاشتن": 3336,
    "▁داشتم": 3337,
    "▁زیان": 3338,
    "▁آوردند": 3339,
    "▁عقید": 3340,
    "▁خودروها": 3341,
    "▁استرالیایی": 3342,
    "▁بروند": 3343,
    "▁عموم": 3344,
    "▁منار": 3345,
    "▁تمرکز": 3346,
    "▁پرهی": 3347,
    "▁خشکی": 3348,
    "▁اشک": 3349,
    "نیا": 3350,
    "اج": 3351,
    "▁قاطع": 3352,
    "لند": 3353,
    "▁اندیش": 3354,
    "▁رویای": 3355,
    "▁پروان": 3356,
    "▁کاس": 3357,
    "▁گرایان": 3358,
    "▁فرش": 3359,
    "ناف": 3360,
    "▁سیف": 3361,
    "▁رغ": 3362,
    "▁مادری": 3363,
    "واد": 3364,
    "▁دیر": 3365,
    "▁وق": 3366,
    "لیگ": 3367,
    "▁امن": 3368,
    "▁۵۵": 3369,
    "▁جرد": 3370,
    "▁گم": 3371,
    "امسال": 3372,
    "ابی": 3373,
    "▁سیزدهم": 3374,
    "▁باستانی": 3375,
    "اری": 3376,
    "▁۷۷": 3377,
    "پرو": 3378,
    "▁رنج": 3379,
    "▁قص": 3380,
    "▁کوچکتر": 3381,
    "▁احت": 3382,
    "▁شور": 3383,
    "ارغ": 3384,
    "▁تاب": 3385,
    "▁یکصد": 3386,
    "▁اقلی": 3387,
    "وپن": 3388,
    "▁حیوان": 3389,
    "▁ثروت": 3390,
    "▁حاکم": 3391,
    "▁شاخ": 3392,
    "خیص": 3393,
    "▁انفرادی": 3394,
    "▁جلسات": 3395,
    "▁مازندران": 3396,
    "▁بازگردد": 3397,
    "▁پارالمپیک": 3398,
    "▁یهودی": 3399,
    "▁دهقان": 3400,
    "▁دقایق": 3401,
    "▁زلزله": 3402,
    "▁اکسیژن": 3403,
    "▁کریکت": 3404,
    "▁اسپرت": 3405,
    "▁قریب": 3406,
    "▁نکند": 3407,
    "▁بختیار": 3408,
    "▁تلگرام": 3409,
    "▁مقیم": 3410,
    "▁اپلیکیشن": 3411,
    "▁پوش": 3412,
    "▁رمزارز": 3413,
    "▁زنگنه": 3414,
    "▁متقاضی": 3415,
    "▁میلیاردها": 3416,
    "▁استرازنکا": 3417,
    "▁متناسب": 3418,
    "▁شخص": 3419,
    "▁عفونت": 3420,
    "▁ترسیم": 3421,
    "▁تخلفات": 3422,
    "▁دایناسور": 3423,
    "▁متشک": 3424,
    "▁کمرنگ": 3425,
    "▁منتف": 3426,
    "▁ژنتیک": 3427,
    "▁مح": 3428,
    "▁فقیر": 3429,
    "▁آیین": 3430,
    "▁نوید": 3431,
    "ارد": 3432,
    "وفر": 3433,
    "▁مطالعات": 3434,
    "▁ضرورت": 3435,
    "▁دهک": 3436,
    "▁عطرساز": 3437,
    "▁کمال": 3438,
    "▁جوانی": 3439,
    "▁ویکتور": 3440,
    "▁گریز": 3441,
    "▁پیکر": 3442,
    "▁رساندن": 3443,
    "▁تروی": 3444,
    "▁خانوارهای": 3445,
    "▁آوردن": 3446,
    "▁نمکی": 3447,
    "ونگ": 3448,
    "▁عبدی": 3449,
    "▁بازماند": 3450,
    "▁عمران": 3451,
    "▁وزرا": 3452,
    "▁تروریستی": 3453,
    "▁زور": 3454,
    "زم": 3455,
    "▁شاهزاد": 3456,
    "▁اصطلاح": 3457,
    "▁خبرهای": 3458,
    "▁مادران": 3459,
    "▁هاوس": 3460,
    "▁محور": 3461,
    "▁موسوی": 3462,
    "▁حیاتی": 3463,
    "▁لاش": 3464,
    "▁دستگیری": 3465,
    "نده": 3466,
    "▁احس": 3467,
    "▁پارسی": 3468,
    "عباس": 3469,
    "شاخص": 3470,
    "▁عبوری": 3471,
    "کدام": 3472,
    "شدت": 3473,
    "گذاری": 3474,
    "▁۱۳۸": 3475,
    "غال": 3476,
    "▁همکاران": 3477,
    "▁کول": 3478,
    "وریا": 3479,
    "رداد": 3480,
    "ناد": 3481,
    "▁فضانورد": 3482,
    "▁آگ": 3483,
    "▁داروهای": 3484,
    "▁مستق": 3485,
    "▁خوشحال": 3486,
    "زیگ": 3487,
    "▁شی": 3488,
    "▁استخدام": 3489,
    "▁استراحت": 3490,
    "▁تدابیر": 3491,
    "▁رستوران": 3492,
    "▁فلسفه": 3493,
    "▁محوطه": 3494,
    "▁همسایه": 3495,
    "▁ذکر": 3496,
    "▁مدیترانه": 3497,
    "▁عضلا": 3498,
    "▁برساند": 3499,
    "▁بنیانگذار": 3500,
    "▁رابرت": 3501,
    "▁طنز": 3502,
    "▁تایلند": 3503,
    "▁ونیز": 3504,
    "▁سایپا": 3505,
    "▁پیشتاز": 3506,
    "▁انبوه": 3507,
    "▁نشت": 3508,
    "▁خلاقیت": 3509,
    "▁سرگرم": 3510,
    "▁قرص": 3511,
    "▁اشرف": 3512,
    "▁فلز": 3513,
    "▁رمزارزها": 3514,
    "▁علامت": 3515,
    "موند": 3516,
    "▁تالاب": 3517,
    "▁ناجی": 3518,
    "▁جانسون": 3519,
    "▁منچسترسیتی": 3520,
    "▁مداوم": 3521,
    "▁ریاض": 3522,
    "▁کیهان": 3523,
    "▁صرفا": 3524,
    "▁پایدار": 3525,
    "بو": 3526,
    "▁خواهی": 3527,
    "▁کاوا": 3528,
    "▁استخر": 3529,
    "▁دستیابی": 3530,
    "▁شا": 3531,
    "▁۷۲": 3532,
    "▁خواندن": 3533,
    "▁خریداران": 3534,
    "▁تقویم": 3535,
    "▁وب": 3536,
    "▁مبادل": 3537,
    "▁آبادی": 3538,
    "▁۱۳۷": 3539,
    "۳۱": 3540,
    "خیم": 3541,
    "ستون": 3542,
    "▁بازیگری": 3543,
    "▁ادا": 3544,
    "گو": 3545,
    "▁مهمان": 3546,
    "لحق": 3547,
    "▁وقفه": 3548,
    "سو": 3549,
    "▁ویل": 3550,
    "روی": 3551,
    "۳۰": 3552,
    "▁بمب": 3553,
    "▁۳۶": 3554,
    "ایب": 3555,
    "عنوان": 3556,
    "رقابت": 3557,
    "حالا": 3558,
    "▁تحری": 3559,
    "▁کرو": 3560,
    "▁آیند": 3561,
    "▁آندر": 3562,
    "▁رحم": 3563,
    "▁ات": 3564,
    "▁تابلوی": 3565,
    "▁دود": 3566,
    "▁اسد": 3567,
    "▁مشتری": 3568,
    "بون": 3569,
    "▁داستانی": 3570,
    "خته": 3571,
    "▁ریخت": 3572,
    "▁اظهارنظر": 3573,
    "▁فیلیپ": 3574,
    "▁ماهها": 3575,
    "ناک": 3576,
    "▁مقرر": 3577,
    "▁سحر": 3578,
    "▁اشتراک": 3579,
    "▁امتحان": 3580,
    "▁بنگلادش": 3581,
    "▁تخصص": 3582,
    "▁پرطرفدار": 3583,
    "▁زیارت": 3584,
    "▁سکونت": 3585,
    "▁روزگار": 3586,
    "▁سئوال": 3587,
    "▁ثامن": 3588,
    "▁تماشاچی": 3589,
    "▁مفهوم": 3590,
    "▁غیاب": 3591,
    "▁مصون": 3592,
    "▁اکتشاف": 3593,
    "▁طرز": 3594,
    "شار": 3595,
    "▁پلاک": 3596,
    "▁نادرست": 3597,
    "▁ابعاد": 3598,
    "▁عروسک": 3599,
    "▁بشار": 3600,
    "▁سادات": 3601,
    "▁کیانوش": 3602,
    "ختم": 3603,
    "▁کشاند": 3604,
    "ظیف": 3605,
    "▁جنایت": 3606,
    "▁۱۹۷": 3607,
    "▁تای": 3608,
    "▁هندی": 3609,
    "▁ولز": 3610,
    "▁دانم": 3611,
    "▁ایرلند": 3612,
    "▁گردند": 3613,
    "▁احساسات": 3614,
    "▁آبادان": 3615,
    "▁۶۷": 3616,
    "▁سربازان": 3617,
    "مرث": 3618,
    "▁اعضا": 3619,
    "یحی": 3620,
    "▁گروگانگیر": 3621,
    "▁کاست": 3622,
    "▁تبلیغاتی": 3623,
    "▁اصول": 3624,
    "▁ون": 3625,
    "▁قند": 3626,
    "۲۵": 3627,
    "▁نسبتا": 3628,
    "▁لیس": 3629,
    "▁قض": 3630,
    "نک": 3631,
    "شید": 3632,
    "▁کنف": 3633,
    "▁خدا": 3634,
    "ماهی": 3635,
    "▁ظهر": 3636,
    "▁بوک": 3637,
    "سن": 3638,
    "لینی": 3639,
    "سیویر": 3640,
    "▁جهانگیری": 3641,
    "▁شدیدتر": 3642,
    "▁نوی": 3643,
    "▁فراری": 3644,
    "▁سم": 3645,
    "▁عزیزی": 3646,
    "▁شهردار": 3647,
    "▁بستن": 3648,
    "▁اوست": 3649,
    "▁سراغ": 3650,
    "▁وقف": 3651,
    "▁صحن": 3652,
    "▁علیر": 3653,
    "▁۶۲": 3654,
    "▁دهان": 3655,
    "کتب": 3656,
    "▁برقی": 3657,
    "▁طلایی": 3658,
    "▁یکسال": 3659,
    "▁سام": 3660,
    "▁آلن": 3661,
    "تمرکز": 3662,
    "▁بدل": 3663,
    "دانشمندان": 3664,
    "ظهر": 3665,
    "▁ثروتمند": 3666,
    "▁۴۶": 3667,
    "▁ناو": 3668,
    "▁انبار": 3669,
    "دورو": 3670,
    "سم": 3671,
    "تاپ": 3672,
    "▁تند": 3673,
    "گه": 3674,
    "اولین": 3675,
    "خارجه": 3676,
    "▁تون": 3677,
    "▁مرس": 3678,
    "▁۸۰۰": 3679,
    "▁رزم": 3680,
    "▁سید": 3681,
    "▁مند": 3682,
    "▁اخطار": 3683,
    "▁مست": 3684,
    "▁مون": 3685,
    "▁جالب": 3686,
    "▁پالایش": 3687,
    "▁تحقیر": 3688,
    "▁تعقیب": 3689,
    "▁مایکروسافت": 3690,
    "▁مرخص": 3691,
    "▁وقایع": 3692,
    "▁تفریح": 3693,
    "▁صنف": 3694,
    "▁نوشیدن": 3695,
    "▁مقصر": 3696,
    "▁متاثر": 3697,
    "▁مرجع": 3698,
    "▁ربات": 3699,
    "▁بگویم": 3700,
    "▁۱۹۹۰": 3701,
    "▁کابین": 3702,
    "▁تقدی": 3703,
    "▁خوشنام": 3704,
    "▁ساویز": 3705,
    "▁ترانزیت": 3706,
    "▁مصاد": 3707,
    "▁اعتیاد": 3708,
    "▁بامداد": 3709,
    "▁مهرماه": 3710,
    "▁ببینند": 3711,
    "وطن": 3712,
    "دگی": 3713,
    "▁عصب": 3714,
    "▁صبر": 3715,
    "▁شریک": 3716,
    "▁۲۰۰۳": 3717,
    "▁دیدگاه": 3718,
    "▁ستایش": 3719,
    "▁آشفت": 3720,
    "▁ابوال": 3721,
    "▁نیوک": 3722,
    "▁ستارگان": 3723,
    "▁طرفدار": 3724,
    "▁تفاهم": 3725,
    "▁شاگردان": 3726,
    "▁تیرماه": 3727,
    "▁اسپوت": 3728,
    "▁برلین": 3729,
    "▁اح": 3730,
    "▁لیور": 3731,
    "▁شکار": 3732,
    "هنورد": 3733,
    "▁وحید": 3734,
    "▁رم": 3735,
    "▁نوزدهم": 3736,
    "▁نجف": 3737,
    "▁قراردادش": 3738,
    "▁سینماها": 3739,
    "وریس": 3740,
    "▁پراکند": 3741,
    "▁دقت": 3742,
    "▁بهرام": 3743,
    "▁توفیق": 3744,
    "▁دونده": 3745,
    "▁جبه": 3746,
    "کول": 3747,
    "▁فراگیر": 3748,
    "▁ساختار": 3749,
    "▁صعودی": 3750,
    "▁تابلو": 3751,
    "▁قوس": 3752,
    "▁شعب": 3753,
    "▁کلام": 3754,
    "▁قدمت": 3755,
    "▁داروها": 3756,
    "▁گلزن": 3757,
    "▁گفتگوی": 3758,
    "▁فلیک": 3759,
    "▁جانور": 3760,
    "▁انتقادها": 3761,
    "▁نامزدها": 3762,
    "▁کشیدن": 3763,
    "▁ور": 3764,
    "▁استعفای": 3765,
    "▁رادیویی": 3766,
    "▁برزیلی": 3767,
    "▁خالص": 3768,
    "▁شمارش": 3769,
    "▁لا": 3770,
    "▁برکناری": 3771,
    "▁ماهیگیر": 3772,
    "▁پولی": 3773,
    "اع": 3774,
    "▁شمسی": 3775,
    "▁نرسید": 3776,
    "▁زانو": 3777,
    "کمیت": 3778,
    "▁ساختن": 3779,
    "▁نداد": 3780,
    "▁سل": 3781,
    "▁شناسان": 3782,
    "▁سیام": 3783,
    "زن": 3784,
    "▁شانه": 3785,
    "▁حدی": 3786,
    "▁آگاهی": 3787,
    "▁تش": 3788,
    "برگ": 3789,
    "▁همگ": 3790,
    "▁کشت": 3791,
    "استقلال": 3792,
    "احمد": 3793,
    "▁داوطلب": 3794,
    "رق": 3795,
    "آمیز": 3796,
    "▁ماز": 3797,
    "راب": 3798,
    "▁روستای": 3799,
    "▁ناصر": 3800,
    "▁رصد": 3801,
    "نوایی": 3802,
    "▁اختلا": 3803,
    "▁کشی": 3804,
    "شاه": 3805,
    "حقق": 3806,
    "نو": 3807,
    "▁مخصوص": 3808,
    "▁مگا": 3809,
    "▁تجلیل": 3810,
    "▁منتخب": 3811,
    "▁اعتقاد": 3812,
    "▁نکنند": 3813,
    "▁لزوم": 3814,
    "▁راموس": 3815,
    "مالاریا": 3816,
    "▁برگردد": 3817,
    "▁مفید": 3818,
    "▁حرم": 3819,
    "▁کنسول": 3820,
    "▁پاکبان": 3821,
    "▁مسایل": 3822,
    "▁بندرعباس": 3823,
    "صوفی": 3824,
    "▁پشتیبان": 3825,
    "▁۱۳۹۶": 3826,
    "وداع": 3827,
    "▁مخدر": 3828,
    "▁مخابرات": 3829,
    "▁مسکونی": 3830,
    "▁جمال": 3831,
    "▁رتکلیف": 3832,
    "▁آرامگاه": 3833,
    "▁متعهد": 3834,
    "▁منزل": 3835,
    "▁کشتار": 3836,
    "▁بزنند": 3837,
    "▁دادسرا": 3838,
    "▁تسلیم": 3839,
    "▁مرگبار": 3840,
    "▁نظم": 3841,
    "▁شایعات": 3842,
    "▁اذ": 3843,
    "▁آموزان": 3844,
    "▁روبروست": 3845,
    "▁رضایت": 3846,
    "▁غالب": 3847,
    "▁علاقمندان": 3848,
    "▁پیوستن": 3849,
    "تلاف": 3850,
    "مل": 3851,
    "▁زنج": 3852,
    "▁خشکسالی": 3853,
    "▁سگ": 3854,
    "▁وجه": 3855,
    "▁موجودات": 3856,
    "▁آرا": 3857,
    "تیک": 3858,
    "▁نیافت": 3859,
    "▁توضیحات": 3860,
    "▁گیاهان": 3861,
    "▁۵۹": 3862,
    "▁حداد": 3863,
    "▁بوش": 3864,
    "▁ایستاد": 3865,
    "▁تاریک": 3866,
    "▁ویلا": 3867,
    "▁افکار": 3868,
    "▁اوکراینی": 3869,
    "▁سرو": 3870,
    "▁آمدند": 3871,
    "▁وا": 3872,
    "▁کشم": 3873,
    "اتب": 3874,
    "▁نامدار": 3875,
    "▁صالحی": 3876,
    "▁نیما": 3877,
    "دوف": 3878,
    "▁گرفتار": 3879,
    "▁انیس": 3880,
    "▁پیر": 3881,
    "▁زیبا": 3882,
    "مجانی": 3883,
    "پر": 3884,
    "▁گرگ": 3885,
    "▁شاعران": 3886,
    "▁آمریکاست": 3887,
    "▁۱۹۴": 3888,
    "▁مرا": 3889,
    "رشاد": 3890,
    "▁۶۴": 3891,
    "▁کاغذ": 3892,
    "▁خارا": 3893,
    "وجود": 3894,
    "بعد": 3895,
    "لیورپول": 3896,
    "خانواده": 3897,
    "باشگاه": 3898,
    "▁گال": 3899,
    "زی": 3900,
    "▁هوادار": 3901,
    "شاید": 3902,
    "▁افکاری": 3903,
    "▁۳۵۰": 3904,
    "رتر": 3905,
    "انکن": 3906,
    "▁نژادی": 3907,
    "یمز": 3908,
    "ساب": 3909,
    "▁مامور": 3910,
    "حص": 3911,
    "▁لاری": 3912,
    "فون": 3913,
    "▁ابزار": 3914,
    "▁سون": 3915,
    "مپ": 3916,
    "▁صح": 3917,
    "▁دردسر": 3918,
    "▁دورت": 3919,
    "▁۹۰۰": 3920,
    "▁دشت": 3921,
    "▁قزاق": 3922,
    "▁اصرار": 3923,
    "▁ابتکار": 3924,
    "▁زریاب": 3925,
    "▁شلوغ": 3926,
    "▁سعد": 3927,
    "▁شارژ": 3928,
    "▁تضمین": 3929,
    "▁شوهر": 3930,
    "▁زغال": 3931,
    "▁لنون": 3932,
    "▁بوق": 3933,
    "▁اکسید": 3934,
    "▁بلوچ": 3935,
    "▁غرق": 3936,
    "▁مقطع": 3937,
    "▁درآورد": 3938,
    "▁مارچ": 3939,
    "▁سردبیر": 3940,
    "▁دانشکد": 3941,
    "▁کووید۱۹": 3942,
    "▁کلینیک": 3943,
    "▁استراتژیک": 3944,
    "نظرسنجی": 3945,
    "▁شیلی": 3946,
    "▁همرسان": 3947,
    "▁چراغ": 3948,
    "▁۱۳۶": 3949,
    "▁تکنولوژی": 3950,
    "▁صحیح": 3951,
    "▁خلو": 3952,
    "▁موازی": 3953,
    "▁ایرج": 3954,
    "فاد": 3955,
    "▁مبادلات": 3956,
    "▁مارتین": 3957,
    "▁خالق": 3958,
    "▁اریک": 3959,
    "▁اندازد": 3960,
    "▁سیاستمداران": 3961,
    "▁دارید": 3962,
    "▁روبرت": 3963,
    "بند": 3964,
    "▁دشمنان": 3965,
    "▁پوشاند": 3966,
    "▁شدم": 3967,
    "▁رایج": 3968,
    "▁کاظم": 3969,
    "▁یور": 3970,
    "اول": 3971,
    "▁ظه": 3972,
    "چین": 3973,
    "▁خواهر": 3974,
    "▁درختان": 3975,
    "دور": 3976,
    "▁مهل": 3977,
    "▁قش": 3978,
    "بویایی": 3979,
    "▁گزارشگران": 3980,
    "▁واسط": 3981,
    "▁آقا": 3982,
    "▁حکمتی": 3983,
    "▁اپرا": 3984,
    "▁مرگش": 3985,
    "▁مرتب": 3986,
    "▁تار": 3987,
    "▁نوشتن": 3988,
    "سیا": 3989,
    "خت": 3990,
    "جایی": 3991,
    "وارد": 3992,
    "▁گفتگوها": 3993,
    "▁ضعیف": 3994,
    "وب": 3995,
    "▁نول": 3996,
    "▁مهاجمان": 3997,
    "▁مسیحی": 3998,
    "عداد": 3999,
    "▁شریف": 4000,
    "▁لوان": 4001,
    "▁حریفان": 4002,
    "عادل": 4003,
    "▁باستان": 4004,
    "▁شر": 4005,
    "اش": 4006,
    "▁قم": 4007,
    "لوت": 4008,
    "▁مز": 4009,
    "▁کو": 4010,
    "زار": 4011,
    "▁گلو": 4012,
    "▁کتی": 4013,
    "▁هلی": 4014,
    "▁راک": 4015,
    "▁بل": 4016,
    "باتری": 4017,
    "▁گرای": 4018,
    "▁سکت": 4019,
    "واسط": 4020,
    "پژوهشگران": 4021,
    "اخیرا": 4022,
    "اتحاد": 4023,
    "معاون": 4024,
    "قدس": 4025,
    "▁تحقیقی": 4026,
    "▁استاین": 4027,
    "مدت": 4028,
    "▁کا": 4029,
    "امیر": 4030,
    "زمان": 4031,
    "▁تثب": 4032,
    "▁حو": 4033,
    "خ": 4034,
    "▁الزام": 4035,
    "برنامه": 4036,
    "▁دشمن": 4037,
    "▁بازارها": 4038,
    "کینگ": 4039,
    "مهدی": 4040,
    "▁شرمن": 4041,
    "▁مکرر": 4042,
    "▁مقدم": 4043,
    "▁اما": 4044,
    "سپاری": 4045,
    "▁صدم": 4046,
    "رنج": 4047,
    "▁دژپسند": 4048,
    "▁صداوسیما": 4049,
    "▁ولسوال": 4050,
    "▁کارداشیان": 4051,
    "▁فروپاشی": 4052,
    "▁دریابندری": 4053,
    "▁شباهت": 4054,
    "▁بگوییم": 4055,
    "▁بیفتد": 4056,
    "▁نشیب": 4057,
    "▁دروغ": 4058,
    "▁روشنفکر": 4059,
    "▁خفیف": 4060,
    "ضعف": 4061,
    "▁آسمایی": 4062,
    "شیبا": 4063,
    "▁نزول": 4064,
    "▁اوباما": 4065,
    "▁آشوری": 4066,
    "▁ناچار": 4067,
    "▁مولوی": 4068,
    "▁مداخل": 4069,
    "▁جابجا": 4070,
    "▁قطار": 4071,
    "▁کوهستان": 4072,
    "ژانس": 4073,
    "▁بگیریم": 4074,
    "▁اخلال": 4075,
    "جوبی": 4076,
    "▁توجیه": 4077,
    "▁اردوگاه": 4078,
    "▁تعبیر": 4079,
    "▁هشتگ": 4080,
    "▁وصل": 4081,
    "هدیه": 4082,
    "▁اسحاق": 4083,
    "▁توخل": 4084,
    "▁بلومبرگ": 4085,
    "▁ایراد": 4086,
    "▁یکسان": 4087,
    "▁ترکمن": 4088,
    "▁چوب": 4089,
    "تراشه": 4090,
    "عکس": 4091,
    "▁کمپین": 4092,
    "▁سکوت": 4093,
    "▁پناهجویان": 4094,
    "▁مسکو": 4095,
    "▁بجا": 4096,
    "آبادی": 4097,
    "▁کیست": 4098,
    "▁بقایای": 4099,
    "▁تعجب": 4100,
    "زاک": 4101,
    "▁تقابل": 4102,
    "مر": 4103,
    "▁نیو": 4104,
    "▁وزارتخانه": 4105,
    "▁نداشتن": 4106,
    "▁افشار": 4107,
    "▁بافت": 4108,
    "▁صفحات": 4109,
    "▁فیلمبردار": 4110,
    "▁پیرو": 4111,
    "▁طب": 4112,
    "▁تیل": 4113,
    "▁فوریت": 4114,
    "▁نمادهای": 4115,
    "▁خار": 4116,
    "▁پناهندگ": 4117,
    "بهم": 4118,
    "اطم": 4119,
    "▁همکارانش": 4120,
    "▁وحشی": 4121,
    "▁واحدها": 4122,
    "▁جزیی": 4123,
    "▁گار": 4124,
    "▁وار": 4125,
    "▁خودران": 4126,
    "یون": 4127,
    "▁تورمی": 4128,
    "▁ثروتمندتر": 4129,
    "▁حاجی": 4130,
    "▁تالا": 4131,
    "▁منطق": 4132,
    "خاطر": 4133,
    "▁زخم": 4134,
    "▁غ": 4135,
    "▁یافتند": 4136,
    "▁روستا": 4137,
    "▁نورد": 4138,
    "▁جاست": 4139,
    "▁ناآرامی": 4140,
    "▁نای": 4141,
    "▁زم": 4142,
    "▁سختگیر": 4143,
    "▁پیشرو": 4144,
    "گفت": 4145,
    "▁اسپ": 4146,
    "▁سیزده": 4147,
    "▁محدودیتها": 4148,
    "▁پسرش": 4149,
    "▁بها": 4150,
    "▁برادرش": 4151,
    "▁تصمیمات": 4152,
    "▁جعل": 4153,
    "▁بلوک": 4154,
    "مارک": 4155,
    "نش": 4156,
    "▁۱۹۳": 4157,
    "▁ران": 4158,
    "▁کما": 4159,
    "بانی": 4160,
    "▁پائی": 4161,
    "▁شهیدی": 4162,
    "اف": 4163,
    "رود": 4164,
    "بع": 4165,
    "▁تام": 4166,
    "قات": 4167,
    "صورت": 4168,
    "▁ژن": 4169,
    "▁بیل": 4170,
    "▁۴۱": 4171,
    "نز": 4172,
    "▁خرابکار": 4173,
    "محققان": 4174,
    "شیوع": 4175,
    "▁بلو": 4176,
    "خواهید": 4177,
    "دادگاه": 4178,
    "روج": 4179,
    "زده": 4180,
    "▁یار": 4181,
    "▁ماری": 4182,
    "درصد": 4183,
    "▁جن": 4184,
    "▁ری": 4185,
    "▁انگشت": 4186,
    "▁تلف": 4187,
    "▁فرج": 4188,
    "▁منصو": 4189,
    "۱۱": 4190,
    "▁مشت": 4191,
    "▁لبخند": 4192,
    "غذی": 4193,
    "▁آغداشلو": 4194,
    "▁بدخشان": 4195,
    "▁اپیدمی": 4196,
    "▁معدود": 4197,
    "▁بروکسل": 4198,
    "▁خسارات": 4199,
    "▁تتلو": 4200,
    "▁تأیید": 4201,
    "▁خزر": 4202,
    "گراندپری": 4203,
    "▁آموزگار": 4204,
    "▁خیانت": 4205,
    "فلاتو": 4206,
    "▁کانسپت": 4207,
    "▁منفجر": 4208,
    "▁آرشیو": 4209,
    "▁بمانند": 4210,
    "▁دماوند": 4211,
    "▁مدرک": 4212,
    "▁۱۳۹۵": 4213,
    "▁وفادار": 4214,
    "▁ندارم": 4215,
    "▁مواضع": 4216,
    "▁ایرباس": 4217,
    "▁زحمت": 4218,
    "▁۲۰۳۰": 4219,
    "▁ناشناخت": 4220,
    "▁پرآ": 4221,
    "▁ارزشمند": 4222,
    "▁ژوز": 4223,
    "▁تسلیت": 4224,
    "▁خرند": 4225,
    "▁اضطراب": 4226,
    "▁مرتضی": 4227,
    "▁جاشوا": 4228,
    "▁داریوش": 4229,
    "▁خرسند": 4230,
    "▁زیستگاه": 4231,
    "▁شوید": 4232,
    "▁اسپی": 4233,
    "▁شاپو": 4234,
    "عی": 4235,
    "▁گرایش": 4236,
    "▁شناسند": 4237,
    "▁برنز": 4238,
    "▁سارا": 4239,
    "▁همینطور": 4240,
    "▁بران": 4241,
    "▁دیپلمات": 4242,
    "▁دهندگان": 4243,
    "▁جوز": 4244,
    "▁مهاجران": 4245,
    "▁خواندند": 4246,
    "▁پرتر": 4247,
    "بازی": 4248,
    "▁عقل": 4249,
    "▁سفی": 4250,
    "▁۵۳": 4251,
    "▁لخت": 4252,
    "▁مغاز": 4253,
    "▁هواپیماهای": 4254,
    "▁انتقادات": 4255,
    "بل": 4256,
    "▁میز": 4257,
    "▁کوبا": 4258,
    "فن": 4259,
    "▁نروژ": 4260,
    "▁استودیو": 4261,
    "▁نی": 4262,
    "▁دیدارهای": 4263,
    "▁مسیرهای": 4264,
    "▁کین": 4265,
    "▁اسکو": 4266,
    "مص": 4267,
    "▁قراردادهای": 4268,
    "▁گرمای": 4269,
    "▁اجبار": 4270,
    "▁جنس": 4271,
    "▁ببر": 4272,
    "▁مکانی": 4273,
    "▁اعتراضی": 4274,
    "▁ژ": 4275,
    "▁برگ": 4276,
    "▁پروازها": 4277,
    "▁پال": 4278,
    "ریک": 4279,
    "▁کلان": 4280,
    "▁دارا": 4281,
    "▁استون": 4282,
    "▁پالایشگاهی": 4283,
    "▁خال": 4284,
    "▁گانه": 4285,
    "▁عالمی": 4286,
    "▁۱۵۰۰": 4287,
    "▁ناب": 4288,
    "▁گزارشها": 4289,
    "کره": 4290,
    "▁غم": 4291,
    "▁کامپیوتری": 4292,
    "▁سیر": 4293,
    "▁خانواد": 4294,
    "▁کیا": 4295,
    "اژ": 4296,
    "وایی": 4297,
    "مدیر": 4298,
    "▁دخترش": 4299,
    "▁۹۳": 4300,
    "ایح": 4301,
    "دیگر": 4302,
    "قص": 4303,
    "▁فین": 4304,
    "▁فروشند": 4305,
    "آنتونی": 4306,
    "حمید": 4307,
    "ناظر": 4308,
    "انتظار": 4309,
    "صندوق": 4310,
    "مراسم": 4311,
    "مرکز": 4312,
    "چرا": 4313,
    "▁نظرات": 4314,
    "▁پستی": 4315,
    "▁دوازده": 4316,
    "▁نس": 4317,
    "مانده": 4318,
    "▁نهاده": 4319,
    "▁گلزنی": 4320,
    "▁سرف": 4321,
    "وری": 4322,
    "▁لق": 4323,
    "▁ایمان": 4324,
    "شک": 4325,
    "۶۰": 4326,
    "جانب": 4327,
    "▁کت": 4328,
    "تکب": 4329,
    "▁پیمانکار": 4330,
    "▁۱۹۰": 4331,
    "سئول": 4332,
    "▁ملا": 4333,
    "وان": 4334,
    "▁سلام": 4335,
    "گبا": 4336,
    "▁مستع": 4337,
    "▁معیار": 4338,
    "▁اعتراف": 4339,
    "▁مکزیک": 4340,
    "▁مأمور": 4341,
    "▁زبا": 4342,
    "▁مختل": 4343,
    "▁آتالانتا": 4344,
    "▁تورنتو": 4345,
    "▁مکتوب": 4346,
    "▁کمبریج": 4347,
    "▁بیاورد": 4348,
    "▁ارکستر": 4349,
    "▁امیرشاهی": 4350,
    "▁معارف": 4351,
    "▁یونسکو": 4352,
    "▁رفاه": 4353,
    "▁گشود": 4354,
    "▁خیال": 4355,
    "▁ببیند": 4356,
    "▁مطلوب": 4357,
    "▁اعصاب": 4358,
    "▁فخر": 4359,
    "▁ضدحمل": 4360,
    "▁باشم": 4361,
    "▁۱۹۴۰": 4362,
    "▁لامبورگینی": 4363,
    "▁کریسمس": 4364,
    "▁بکشند": 4365,
    "▁عقرب": 4366,
    "▁آغوش": 4367,
    "▁زودهنگام": 4368,
    "▁تکنیک": 4369,
    "▁۱۹۷۰": 4370,
    "▁پراید": 4371,
    "▁بدانند": 4372,
    "▁۱۴۰": 4373,
    "▁دم": 4374,
    "▁استراتژی": 4375,
    "▁درس": 4376,
    "▁بوکسور": 4377,
    "▁یادبود": 4378,
    "▁ترافیک": 4379,
    "▁دعوا": 4380,
    "▁محکم": 4381,
    "▁رولینگ": 4382,
    "انصراف": 4383,
    "▁خند": 4384,
    "▁انتقادهای": 4385,
    "▁۲۰۰۴": 4386,
    "▁۸۲": 4387,
    "▁۴۷": 4388,
    "▁چهاردهم": 4389,
    "▁گرمایش": 4390,
    "▁اپل": 4391,
    "▁بولت": 4392,
    "▁کرام": 4393,
    "▁جست": 4394,
    "▁خران": 4395,
    "دندان": 4396,
    "▁گرسنگ": 4397,
    "▁بزرگتر": 4398,
    "صخره": 4399,
    "▁مردگان": 4400,
    "▁فرانک": 4401,
    "▁رفتارهای": 4402,
    "▁مغ": 4403,
    "▁نوار": 4404,
    "▁الیز": 4405,
    "▁اوین": 4406,
    "▁سازد": 4407,
    "▁پاتر": 4408,
    "▁اشیا": 4409,
    "▁روزمر": 4410,
    "وله": 4411,
    "▁بازخوان": 4412,
    "▁ضربات": 4413,
    "راتی": 4414,
    "نشین": 4415,
    "▁قرض": 4416,
    "▁شانزدهم": 4417,
    "▁خوا": 4418,
    "رکاب": 4419,
    "ایدو": 4420,
    "▁بورگ": 4421,
    "▁شادی": 4422,
    "▁فال": 4423,
    "▁کردستان": 4424,
    "اقد": 4425,
    "▁مهندس": 4426,
    "▁همانند": 4427,
    "▁شیمی": 4428,
    "▁ریزش": 4429,
    "▁مقر": 4430,
    "کسین": 4431,
    "▁ناامید": 4432,
    "▁۷۴": 4433,
    "۱۵": 4434,
    "▁شهید": 4435,
    "▁منصور": 4436,
    "▁۶۸": 4437,
    "هام": 4438,
    "▁ادب": 4439,
    "▁ار": 4440,
    "▁بشری": 4441,
    "لم": 4442,
    "▁انجامید": 4443,
    "شیر": 4444,
    "▁شبه": 4445,
    "گیر": 4446,
    "یویا": 4447,
    "▁آفرین": 4448,
    "ندگان": 4449,
    "▁۱۳۹": 4450,
    "۲۳": 4451,
    "▁رس": 4452,
    "▁دانشجویی": 4453,
    "▁نمود": 4454,
    "دترا": 4455,
    "تری": 4456,
    "لای": 4457,
    "لس": 4458,
    "▁خطای": 4459,
    "نصف": 4460,
    "پای": 4461,
    "▁برگشته": 4462,
    "▁قطبی": 4463,
    "۷۰": 4464,
    "رشو": 4465,
    "▁منصوری": 4466,
    "▁مالکان": 4467,
    "صف": 4468,
    "▁قف": 4469,
    "▁بینیم": 4470,
    "▁قومی": 4471,
    "▁برف": 4472,
    "▁خریده": 4473,
    "▁۱۷۶": 4474,
    "کوبی": 4475,
    "▁ماس": 4476,
    "▁۵۴": 4477,
    "سیلوا": 4478,
    "▁نیا": 4479,
    "خواهد": 4480,
    "منابع": 4481,
    "فدرر": 4482,
    "نمایندگان": 4483,
    "علاو": 4484,
    "هدف": 4485,
    "علیرضا": 4486,
    "دهنده": 4487,
    "▁سطو": 4488,
    "▁روستایی": 4489,
    "▁۵۸": 4490,
    "▁کوب": 4491,
    "الکس": 4492,
    "رهبر": 4493,
    "▁درخش": 4494,
    "رینگ": 4495,
    "رخ": 4496,
    "▁بارور": 4497,
    "لپ": 4498,
    "تاسف": 4499,
    "▁اکس": 4500,
    "▁۷۸": 4501,
    "ساسی": 4502,
    "▁خم": 4503,
    "▁تیک": 4504,
    "تیکو": 4505,
    "▁خانوار": 4506,
    "▁کمربند": 4507,
    "▁دستاورد": 4508,
    "اثبات": 4509,
    "ابق": 4510,
    "▁سامان": 4511,
    "▁باورنکردنی": 4512,
    "▁فزاینده": 4513,
    "▁ناقض": 4514,
    "▁واضح": 4515,
    "▁وحدت": 4516,
    "▁پیرامون": 4517,
    "▁محترم": 4518,
    "▁گلمکانی": 4519,
    "▁مضاعف": 4520,
    "▁بفتا": 4521,
    "▁ورشکست": 4522,
    "▁نیسان": 4523,
    "▁دادگستری": 4524,
    "▁عواقب": 4525,
    "▁آویو": 4526,
    "▁زیرساخت": 4527,
    "▁سوگوار": 4528,
    "▁آوازخوان": 4529,
    "▁چرب": 4530,
    "▁بگیرید": 4531,
    "▁ویرجی": 4532,
    "▁بپردازد": 4533,
    "▁بگذارند": 4534,
    "▁آشام": 4535,
    "▁مصلحت": 4536,
    "▁عارف": 4537,
    "مانع": 4538,
    "▁۱۹۸۰": 4539,
    "▁پارس": 4540,
    "▁احکام": 4541,
    "▁ناتوان": 4542,
    "▁سایبری": 4543,
    "▁انستیتو": 4544,
    "▁تلسکوپ": 4545,
    "▁سنبل": 4546,
    "▁اخلاق": 4547,
    "▁بردارد": 4548,
    "▁۱۹۹۸": 4549,
    "▁رسول": 4550,
    "▁الحسن": 4551,
    "▁هستید": 4552,
    "▁نارس": 4553,
    "▁الکل": 4554,
    "مرگ": 4555,
    "▁پیچ": 4556,
    "▁استونز": 4557,
    "▁حاد": 4558,
    "▁حساسیت": 4559,
    "▁دستاوردهای": 4560,
    "▁ضایع": 4561,
    "▁ذی": 4562,
    "▁پررنگ": 4563,
    "▁حتما": 4564,
    "کرد": 4565,
    "فا": 4566,
    "▁متنوع": 4567,
    "▁جهاد": 4568,
    "▁فیس": 4569,
    "▁حباب": 4570,
    "▁وجو": 4571,
    "▁دهید": 4572,
    "▁صفرها": 4573,
    "▁نکات": 4574,
    "▁سوئ": 4575,
    "گن": 4576,
    "▁آنتی": 4577,
    "▁رانت": 4578,
    "▁نکردند": 4579,
    "مع": 4580,
    "▁کیفر": 4581,
    "▁ماریا": 4582,
    "▁سانتریفیوژهای": 4583,
    "▁روال": 4584,
    "یسون": 4585,
    "دخت": 4586,
    "▁نوآور": 4587,
    "شتم": 4588,
    "▁زنجان": 4589,
    "▁فضانوردان": 4590,
    "▁آرش": 4591,
    "▁پاهای": 4592,
    "طرف": 4593,
    "اسل": 4594,
    "▁رساندند": 4595,
    "سیتی": 4596,
    "▁رضایی": 4597,
    "▁بوئنو": 4598,
    "غه": 4599,
    "▁رز": 4600,
    "▁انتقالات": 4601,
    "یع": 4602,
    "▁جاهای": 4603,
    "▁داشتیم": 4604,
    "▁پلی": 4605,
    "▁کاریر": 4606,
    "واک": 4607,
    "عان": 4608,
    "▁داو": 4609,
    "برید": 4610,
    "▁هل": 4611,
    "▁کامپیوتر": 4612,
    "شنگ": 4613,
    "زنی": 4614,
    "▁۹۴": 4615,
    "▁اراد": 4616,
    "▁جف": 4617,
    "پا": 4618,
    "▁پستان": 4619,
    "▁تابو": 4620,
    "▁مدتها": 4621,
    "ایل": 4622,
    "نزا": 4623,
    "▁فیل": 4624,
    "▁بنیادی": 4625,
    "آمار": 4626,
    "▁کیت": 4627,
    "▁رنجر": 4628,
    "الله": 4629,
    "▁بریت": 4630,
    "▁صادراتی": 4631,
    "میر": 4632,
    "▁فرض": 4633,
    "▁۱۹۵": 4634,
    "یف": 4635,
    "▁درخشانی": 4636,
    "▁استیون": 4637,
    "▁جلالی": 4638,
    "▁آرزوی": 4639,
    "▁پار": 4640,
    "▁بدین": 4641,
    "▁کودتای": 4642,
    "▁بارداری": 4643,
    "▁کارگردانان": 4644,
    "▁بس": 4645,
    "یچ": 4646,
    "زیه": 4647,
    "▁کوس": 4648,
    "دین": 4649,
    "بینی": 4650,
    "۶۳": 4651,
    "▁خر": 4652,
    "وهان": 4653,
    "رسون": 4654,
    "▁عکسی": 4655,
    "▁مقا": 4656,
    "▁منظر": 4657,
    "سابقه": 4658,
    "▁گرفتم": 4659,
    "۲۰": 4660,
    "ویل": 4661,
    "▁تاریکی": 4662,
    "▁هرکس": 4663,
    "گفتگو": 4664,
    "ملو": 4665,
    "▁رش": 4666,
    "پاتی": 4667,
    "▁پرسی": 4668,
    "مارادونا": 4669,
    "راجر": 4670,
    "مجلس": 4671,
    "تولید": 4672,
    "اقتصاد": 4673,
    "کاهش": 4674,
    "نج": 4675,
    "فعالان": 4676,
    "اشا": 4677,
    "وکی": 4678,
    "▁بودا": 4679,
    "شته": 4680,
    "۱۳": 4681,
    "همه": 4682,
    "گا": 4683,
    "▁شاپ": 4684,
    "▁همتای": 4685,
    "تنها": 4686,
    "وازه": 4687,
    "▁شنیدن": 4688,
    "آخری": 4689,
    "مایک": 4690,
    "مار": 4691,
    "▁برداشتن": 4692,
    "▁سرنشین": 4693,
    "▁گوگ": 4694,
    "▁محا": 4695,
    "▁بانکها": 4696,
    "▁کولبر": 4697,
    "ویچ": 4698,
    "▁شاهکار": 4699,
    "▁پناه": 4700,
    "▁خراب": 4701,
    "هادی": 4702,
    "▁نویسندگ": 4703,
    "زاب": 4704,
    "▁مشکات": 4705,
    "مکعب": 4706,
    "▁اتوبوس": 4707,
    "▁برآمد": 4708,
    "▁بوچانی": 4709,
    "▁تخفیف": 4710,
    "▁جامائیکا": 4711,
    "▁دگرگون": 4712,
    "▁زاناردی": 4713,
    "▁سرتاسر": 4714,
    "▁غرامت": 4715,
    "▁مشکوک": 4716,
    "▁پلامر": 4717,
    "▁ندانست": 4718,
    "▁ببینیم": 4719,
    "▁کادرفنی": 4720,
    "▁وروورت": 4721,
    "▁ثانوی": 4722,
    "▁آسوشیتدپرس": 4723,
    "▁آمبول": 4724,
    "▁استعمار": 4725,
    "▁بیروت": 4726,
    "▁نوازنده": 4727,
    "▁تبادل": 4728,
    "▁توفان": 4729,
    "▁کرمانشاه": 4730,
    "▁تمدن": 4731,
    "▁قبال": 4732,
    "▁اعتنا": 4733,
    "▁قائدی": 4734,
    "▁پنگوئن": 4735,
    "▁محض": 4736,
    "▁رولز": 4737,
    "▁گلایه": 4738,
    "فینیتی": 4739,
    "▁تبعید": 4740,
    "▁سارس": 4741,
    "▁عزم": 4742,
    "▁ابهام": 4743,
    "▁استفانو": 4744,
    "▁تعمیر": 4745,
    "▁سالیوان": 4746,
    "▁معافیت": 4747,
    "▁طعم": 4748,
    "▁غیرنظامی": 4749,
    "کیو": 4750,
    "▁تندرو": 4751,
    "▁مرکل": 4752,
    "▁حاکمیت": 4753,
    "▁سلطانی": 4754,
    "▁شیع": 4755,
    "▁تشری": 4756,
    "▁ارگ": 4757,
    "▁انصاریان": 4758,
    "▁۱۹۶۰": 4759,
    "▁پرستاران": 4760,
    "▁گودال": 4761,
    "▁تدری": 4762,
    "▁۱۳۴": 4763,
    "▁میهمان": 4764,
    "▁آرمان": 4765,
    "▁پویا": 4766,
    "▁لاپورتا": 4767,
    "▁کاربرد": 4768,
    "▁بالگرد": 4769,
    "▁ادارات": 4770,
    "▁حفر": 4771,
    "▁میلیاردر": 4772,
    "▁مواقع": 4773,
    "فصل": 4774,
    "▁ماهشهر": 4775,
    "▁کلور": 4776,
    "▁کان": 4777,
    "▁کانادایی": 4778,
    "▁مستقیما": 4779,
    "▁صریح": 4780,
    "نکور": 4781,
    "انس": 4782,
    "▁معوقه": 4783,
    "▁پستاندار": 4784,
    "▁کرج": 4785,
    "▁ساترا": 4786,
    "تنوع": 4787,
    "▁عج": 4788,
    "▁ریچارد": 4789,
    "▁الی": 4790,
    "▁رایزن": 4791,
    "▁ندیده": 4792,
    "لوب": 4793,
    "▁شرم": 4794,
    "▁گیل": 4795,
    "▁گذاشتند": 4796,
    "▁دنیاست": 4797,
    "▁اکبری": 4798,
    "▁نکردن": 4799,
    "حق": 4800,
    "▁گازی": 4801,
    "▁لیست": 4802,
    "▁دوازدهم": 4803,
    "▁پانزدهم": 4804,
    "▁افتادن": 4805,
    "هرانا": 4806,
    "شد": 4807,
    "۹۱": 4808,
    "▁نمانده": 4809,
    "▁نزدیکان": 4810,
    "▁صدد": 4811,
    "▁رخت": 4812,
    "ناب": 4813,
    "▁نرفت": 4814,
    "▁قطعات": 4815,
    "خبر": 4816,
    "▁لوو": 4817,
    "امضاکنندگان": 4818,
    "▁الگوی": 4819,
    "▁فضلی": 4820,
    "لاله": 4821,
    "▁بینید": 4822,
    "▁چیزهای": 4823,
    "رشد": 4824,
    "▁جنگند": 4825,
    "کید": 4826,
    "▁رسم": 4827,
    "▁ایکس": 4828,
    "لور": 4829,
    "▁اکر": 4830,
    "خورده": 4831,
    "▁ایر": 4832,
    "▁ذهنی": 4833,
    "باب": 4834,
    "▁کنو": 4835,
    "عارض": 4836,
    "▁گرین": 4837,
    "▁معنا": 4838,
    "▁زایی": 4839,
    "▁فروشی": 4840,
    "▁صاف": 4841,
    "▁گردشگر": 4842,
    "گاهی": 4843,
    "▁افسر": 4844,
    "اکثریت": 4845,
    "▁میلاد": 4846,
    "▁نیل": 4847,
    "▁چار": 4848,
    "▁نابود": 4849,
    "شنا": 4850,
    "▁گذراندن": 4851,
    "▁خوانی": 4852,
    "▁رکوردهای": 4853,
    "▁بلی": 4854,
    "▁فردین": 4855,
    "▁بهانه": 4856,
    "ژه": 4857,
    "شماری": 4858,
    "▁عمو": 4859,
    "چهار": 4860,
    "▁انتها": 4861,
    "▁شع": 4862,
    "صره": 4863,
    "شر": 4864,
    "▁دربار": 4865,
    "تحول": 4866,
    "پذیر": 4867,
    "▁شانزده": 4868,
    "قرض": 4869,
    "ویش": 4870,
    "پرسپولیس": 4871,
    "آغاز": 4872,
    "واکنش": 4873,
    "چلسی": 4874,
    "گیل": 4875,
    "فرج": 4876,
    "بست": 4877,
    "ترا": 4878,
    "▁نیاورد": 4879,
    "سرعت": 4880,
    "▁درام": 4881,
    "▁دانشجوی": 4882,
    "▁خودروی": 4883,
    "ژی": 4884,
    "▁۱۶۰": 4885,
    "▁کوم": 4886,
    "یلیون": 4887,
    "▁۸۳": 4888,
    "▁انوش": 4889,
    "▁رخداد": 4890,
    "▁پهپاد": 4891,
    "▁مشوق": 4892,
    "▁مکاتب": 4893,
    "▁ژنو": 4894,
    "▁فیروز": 4895,
    "▁مخلو": 4896,
    "▁مصدوم": 4897,
    "▁وای": 4898,
    "▁اسرار": 4899,
    "دغدغه": 4900,
    "▁آشپز": 4901,
    "▁اتیوپی": 4902,
    "▁تصاحب": 4903,
    "▁خنثی": 4904,
    "▁رستگار": 4905,
    "▁شیکاگو": 4906,
    "▁لاجورد": 4907,
    "▁ملاحظ": 4908,
    "▁رمضان": 4909,
    "▁بوزمن": 4910,
    "▁سانتیمتر": 4911,
    "▁مسوول": 4912,
    "▁معالج": 4913,
    "▁جرایم": 4914,
    "▁اختراع": 4915,
    "▁مونتاژ": 4916,
    "▁مینیاتور": 4917,
    "▁خادم": 4918,
    "▁ماندگار": 4919,
    "▁مسموم": 4920,
    "▁ارجاع": 4921,
    "▁زائر": 4922,
    "▁بازنگری": 4923,
    "▁زهره": 4924,
    "▁نعمت": 4925,
    "▁خرچنگ": 4926,
    "▁طارمی": 4927,
    "▁ندهد": 4928,
    "▁واریز": 4929,
    "▁عثمان": 4930,
    "▁فتاح": 4931,
    "▁مسافت": 4932,
    "▁مثلث": 4933,
    "▁مکلف": 4934,
    "▁خدایاری": 4935,
    "▁کلاهبردار": 4936,
    "▁یوگا": 4937,
    "▁خرس": 4938,
    "▁ژاک": 4939,
    "▁احتیاط": 4940,
    "▁کولمن": 4941,
    "▁بهبهان": 4942,
    "▁لرز": 4943,
    "▁توریست": 4944,
    "▁تبع": 4945,
    "▁زیدان": 4946,
    "▁آنفیلد": 4947,
    "▁ناپدید": 4948,
    "▁کانری": 4949,
    "ستانگ": 4950,
    "▁بوئین": 4951,
    "▁فروغ": 4952,
    "▁پالاس": 4953,
    "▁اعطا": 4954,
    "▁والدین": 4955,
    "▁پایبند": 4956,
    "▁ایا": 4957,
    "▁نیکلا": 4958,
    "▁قائم": 4959,
    "▁هرمز": 4960,
    "▁مبالغ": 4961,
    "▁ببرند": 4962,
    "▁خوشبخت": 4963,
    "▁سیارک": 4964,
    "▁اقتصاددان": 4965,
    "سلط": 4966,
    "▁بازنشستگی": 4967,
    "▁جغرافیای": 4968,
    "▁نامگذاری": 4969,
    "▁تیتر": 4970,
    "▁شوش": 4971,
    "▁امریکا": 4972,
    "▁معاش": 4973,
    "▁حضرت": 4974,
    "ینز": 4975,
    "▁مبا": 4976,
    "خوان": 4977,
    "▁پیتر": 4978,
    "▁برعکس": 4979,
    "سوس": 4980,
    "▁غفوری": 4981,
    "▁شناسد": 4982,
    "ابلو": 4983,
    "▁رانندگی": 4984,
    "▁عاشقانه": 4985,
    "▁هالپ": 4986,
    "پرها": 4987,
    "▁شغلی": 4988,
    "▁شام": 4989,
    "▁مستندساز": 4990,
    "▁خلیل": 4991,
    "▁هجدهم": 4992,
    "▁اعظم": 4993,
    "▁سالیانه": 4994,
    "▁نیش": 4995,
    "▁گلوب": 4996,
    "▁گذارند": 4997,
    "▁رویس": 4998,
    "▁باختند": 4999,
    "احی": 5000,
    "▁مال": 5001,
    "▁نداشتم": 5002,
    "▁هکرها": 5003,
    "▁مصل": 5004,
    "▁ژو": 5005,
    "کت": 5006,
    "▁نگر": 5007,
    "▁یوو": 5008,
    "▁یگان": 5009,
    "▁بقای": 5010,
    "۹۹": 5011,
    "▁نوشتند": 5012,
    "▁فول": 5013,
    "▁مضر": 5014,
    "▁هفدهم": 5015,
    "سفر": 5016,
    "▁۶۱": 5017,
    "مز": 5018,
    "▁ریل": 5019,
    "▁حفا": 5020,
    "▁وظایف": 5021,
    "▁ابلاغی": 5022,
    "رالله": 5023,
    "▁پرت": 5024,
    "▁بروم": 5025,
    "مسی": 5026,
    "پتون": 5027,
    "▁احمدشا": 5028,
    "جن": 5029,
    "▁تاکتیکی": 5030,
    "یانت": 5031,
    "▁گره": 5032,
    "▁تم": 5033,
    "▁دادم": 5034,
    "▁درز": 5035,
    "▁شجاع": 5036,
    "رمد": 5037,
    "▁نق": 5038,
    "▁بون": 5039,
    "▁همکار": 5040,
    "زا": 5041,
    "عشی": 5042,
    "لف": 5043,
    "▁دانشجو": 5044,
    "▁کودتا": 5045,
    "▁عالم": 5046,
    "▁۵۱": 5047,
    "تواند": 5048,
    "لقی": 5049,
    "▁ادوارد": 5050,
    "بدا": 5051,
    "▁مندان": 5052,
    "بالغ": 5053,
    "▁درج": 5054,
    "دم": 5055,
    "▁دا": 5056,
    "▁بگیر": 5057,
    "▁کالای": 5058,
    "▁نوین": 5059,
    "▁تعهداتش": 5060,
    "گراد": 5061,
    "▁فای": 5062,
    "ورا": 5063,
    "▁جولی": 5064,
    "لمپ": 5065,
    "اگ": 5066,
    "▁احساسی": 5067,
    "▁ردیاب": 5068,
    "▁فرهنگیان": 5069,
    "افت": 5070,
    "۴۶": 5071,
    "▁میلو": 5072,
    "▁عزیزان": 5073,
    "۴۰": 5074,
    "▁پاکستانی": 5075,
    "▁گویی": 5076,
    "لاق": 5077,
    "خواست": 5078,
    "▁آثارش": 5079,
    "▁زو": 5080,
    "▁اعما": 5081,
    "برگزار": 5082,
    "▁میرزا": 5083,
    "▁آشنای": 5084,
    "▁میکل": 5085,
    "▁قبر": 5086,
    "▁۷۶": 5087,
    "فشار": 5088,
    "▁ریالی": 5089,
    "سلیم": 5090,
    "غلام": 5091,
    "کانادا": 5092,
    "محمدجواد": 5093,
    "رافائل": 5094,
    "▁بارز": 5095,
    "(": 5096,
    "دونالد": 5097,
    "ویکتور": 5098,
    "تلاش": 5099,
    "تهران": 5100,
    "دام": 5101,
    "صدایی": 5102,
    "▁بله": 5103,
    "جمعیت": 5104,
    "▁قرمزها": 5105,
    "مسئولان": 5106,
    "کرونا": 5107,
    "▁۸۵": 5108,
    "▁کنیا": 5109,
    "ویک": 5110,
    "▁انتخابی": 5111,
    "▁گفتگوهای": 5112,
    "واقع": 5113,
    "▁آندری": 5114,
    "▁اد": 5115,
    "کسر": 5116,
    "▁متحدان": 5117,
    "▁عرف": 5118,
    "▁علاقمند": 5119,
    "مادر": 5120,
    "▁خشن": 5121,
    "ادی": 5122,
    "▁بور": 5123,
    "▁گارد": 5124,
    "▁سانتریفیوژ": 5125,
    "▁پسرم": 5126,
    "▁۱۷۰": 5127,
    "گرا": 5128,
    "▁بوفالو": 5129,
    "▁اشکال": 5130,
    "▁تخل": 5131,
    "▁غل": 5132,
    "▁اقتدار": 5133,
    "▁آلومینیوم": 5134,
    "▁بفروشد": 5135,
    "▁تفسیر": 5136,
    "▁دانچیچ": 5137,
    "▁مستاجر": 5138,
    "▁مظنون": 5139,
    "▁پومپئو": 5140,
    "▁چرنکوف": 5141,
    "خاذ": 5142,
    "▁امواج": 5143,
    "▁مصیبت": 5144,
    "▁جاذبه": 5145,
    "▁فطر": 5146,
    "▁البرز": 5147,
    "▁تکامل": 5148,
    "▁گاگا": 5149,
    "▁مرضیه": 5150,
    "▁فحش": 5151,
    "▁وحشتناک": 5152,
    "▁هواشناسی": 5153,
    "گشاد": 5154,
    "▁نیجر": 5155,
    "▁گیگز": 5156,
    "▁الماس": 5157,
    "▁فرسایش": 5158,
    "▁آپارتمان": 5159,
    "▁مجاهد": 5160,
    "▁شرکا": 5161,
    "▁عنصر": 5162,
    "▁علوی": 5163,
    "▁جلد": 5164,
    "▁شفا": 5165,
    "▁منظم": 5166,
    "▁فشرد": 5167,
    "▁فرایند": 5168,
    "▁علایم": 5169,
    "▁تایتان": 5170,
    "▁رژیم": 5171,
    "▁گواهی": 5172,
    "▁ویزا": 5173,
    "▁وودز": 5174,
    "▁پاسخگو": 5175,
    "▁پیشکسوت": 5176,
    "ائیل": 5177,
    "▁ژیمناست": 5178,
    "▁جونیور": 5179,
    "▁گابریل": 5180,
    "▁ایسلند": 5181,
    "▁سازوکار": 5182,
    "▁اشعار": 5183,
    "▁ماشه": 5184,
    "▁فجر": 5185,
    "▁عسل": 5186,
    "▁کارگزار": 5187,
    "▁گرامی": 5188,
    "▁کلمات": 5189,
    "▁فلسطینیان": 5190,
    "▁بزن": 5191,
    "▁شناگر": 5192,
    "▁کوپتر": 5193,
    "▁مخصوصا": 5194,
    "▁دایر": 5195,
    "▁قید": 5196,
    "رچند": 5197,
    "قدرت": 5198,
    "▁کدخدایی": 5199,
    "▁شمایل": 5200,
    "▁جیپ": 5201,
    "▁شوت": 5202,
    "▁زانوی": 5203,
    "ئوری": 5204,
    "▁نوزادان": 5205,
    "شیپ": 5206,
    "▁ویدیوهای": 5207,
    "▁رامش": 5208,
    "▁شایست": 5209,
    "▁روم": 5210,
    "▁شهریار": 5211,
    "▁اقبال": 5212,
    "▁کارتو": 5213,
    "▁تابعیت": 5214,
    "نفتی": 5215,
    "▁پارکر": 5216,
    "▁یخی": 5217,
    "▁گویم": 5218,
    "▁انداختند": 5219,
    "▁فرزندش": 5220,
    "▁افسران": 5221,
    "▁رائو": 5222,
    "لندر": 5223,
    "سخت": 5224,
    "▁محرک": 5225,
    "▁مغول": 5226,
    "▁برجا": 5227,
    "▁مثل": 5228,
    "▁سیمون": 5229,
    "▁گردون": 5230,
    "▁مهندسان": 5231,
    "مو": 5232,
    "▁گردش": 5233,
    "▁ادعاهای": 5234,
    "▁راکت": 5235,
    "▁سکسک": 5236,
    "بورد": 5237,
    "▁هامر": 5238,
    "▁رایان": 5239,
    "▁دوش": 5240,
    "▁فرق": 5241,
    "دیس": 5242,
    "▁قطعا": 5243,
    "▁مصر": 5244,
    "▁بشریت": 5245,
    "▁نشدند": 5246,
    "ادا": 5247,
    "▁مزایای": 5248,
    "اید": 5249,
    "▁فابی": 5250,
    "▁ایوان": 5251,
    "▁لوکه": 5252,
    "▁ادل": 5253,
    "▁جعفری": 5254,
    "حلال": 5255,
    "▁موجودی": 5256,
    "▁معط": 5257,
    "ملک": 5258,
    "الت": 5259,
    "گت": 5260,
    "یسی": 5261,
    "▁لوکا": 5262,
    "▁ماخ": 5263,
    "ارتوم": 5264,
    "ودی": 5265,
    "وفون": 5266,
    "▁اندام": 5267,
    "▁درانی": 5268,
    "▁دال": 5269,
    "▁فق": 5270,
    "▁ریو": 5271,
    "زانه": 5272,
    "▁کلیسای": 5273,
    "▁طیب": 5274,
    "۲۹": 5275,
    "▁چی": 5276,
    "۹۳": 5277,
    "▁میلی": 5278,
    "▁استخوان": 5279,
    "جل": 5280,
    "▁۸۹": 5281,
    "رح": 5282,
    "▁اک": 5283,
    "▁پاد": 5284,
    "▁باقر": 5285,
    "▁اسک": 5286,
    "کسل": 5287,
    "فع": 5288,
    "▁ضر": 5289,
    "▁وگوهای": 5290,
    "▁کلم": 5291,
    "▁درگذشته": 5292,
    "خواه": 5293,
    "▁سیم": 5294,
    "▁جیل": 5295,
    "سوم": 5296,
    "▁ویدئو": 5297,
    "▁قان": 5298,
    "▁استثنا": 5299,
    "▁آرزو": 5300,
    "▁باختر": 5301,
    "▁استادان": 5302,
    "▁کوش": 5303,
    "▁جلال": 5304,
    "▁کنی": 5305,
    "▁شمس": 5306,
    "▁لطف": 5307,
    "▁سرش": 5308,
    "▁دینی": 5309,
    "▁جوش": 5310,
    "▁۸۷": 5311,
    "▁جنی": 5312,
    "▁خوار": 5313,
    "۲۴": 5314,
    "ستیک": 5315,
    "ایتون": 5316,
    "مد": 5317,
    "▁بزرگان": 5318,
    "▁اشت": 5319,
    "▁رومانیا": 5320,
    "▁وارن": 5321,
    "نوش": 5322,
    "خواهانه": 5323,
    "▁برفی": 5324,
    "لین": 5325,
    "▁کمدی": 5326,
    "▁بطر": 5327,
    "▁جزای": 5328,
    "ارت": 5329,
    "▁۸۱": 5330,
    "الیاس": 5331,
    "لوله": 5332,
    "▁استاندارد": 5333,
    "▁فرخ": 5334,
    "▁بازیار": 5335,
    "▁خواستم": 5336,
    "▁کروناست": 5337,
    "▁سوری": 5338,
    "▁ژی": 5339,
    "▁بزو": 5340,
    "▁خوانند": 5341,
    "رگ": 5342,
    "▁سیرو": 5343,
    "▁بدوی": 5344,
    "▁نظرهای": 5345,
    "نقل": 5346,
    "▁زدای": 5347,
    "عادت": 5348,
    "آلمان": 5349,
    "روابط": 5350,
    "مسابقات": 5351,
    "بازار": 5352,
    "کارشناسان": 5353,
    "دالله": 5354,
    "▁گودا": 5355,
    "انتخابات": 5356,
    "هز": 5357,
    "لاتین": 5358,
    "پیروز": 5359,
    "▁نادری": 5360,
    "▁فور": 5361,
    "روسیا": 5362,
    "▁دن": 5363,
    "نیروی": 5364,
    "شما": 5365,
    "▁فو": 5366,
    "آمریکایی": 5367,
    "▁پیشگام": 5368,
    "تشکر": 5369,
    "▁دوج": 5370,
    "مرز": 5371,
    "بخشی": 5372,
    "صالح": 5373,
    "▁حقیق": 5374,
    "▁گفتن": 5375,
    "روزنامه": 5376,
    "حث": 5377,
    "مسترد": 5378,
    "حرفه": 5379,
    "فیلد": 5380,
    "ضاح": 5381,
    "▁موزیک": 5382,
    "▁ارمنستان": 5383,
    "▁اسراییل": 5384,
    "▁المستقبل": 5385,
    "▁بالیوود": 5386,
    "▁حرکات": 5387,
    "▁ربیعی": 5388,
    "▁لابراتوار": 5389,
    "▁نصیب": 5390,
    "▁پدافند": 5391,
    "▁پولیتزر": 5392,
    "▁ژئوپلیتیک": 5393,
    "▁کرگدن": 5394,
    "▁۱۹۶۶": 5395,
    "▁تفکیک": 5396,
    "▁سنگاپور": 5397,
    "▁نامناسب": 5398,
    "▁عروق": 5399,
    "▁ویتنام": 5400,
    "رطوب": 5401,
    "▁سیگار": 5402,
    "▁کبد": 5403,
    "▁اشنویه": 5404,
    "▁لامرد": 5405,
    "▁متوفی": 5406,
    "▁بسیج": 5407,
    "▁تعاون": 5408,
    "▁مظاهری": 5409,
    "▁یخچال": 5410,
    "▁بنتلی": 5411,
    "▁فروزش": 5412,
    "▁اسپورت": 5413,
    "▁مسترز": 5414,
    "▁شکارچی": 5415,
    "▁قبیل": 5416,
    "▁هوندا": 5417,
    "▁ذات": 5418,
    "▁انحصار": 5419,
    "▁یادگار": 5420,
    "▁قاتل": 5421,
    "▁کارفرمایان": 5422,
    "▁داغستان": 5423,
    "ارتاک": 5424,
    "▁۱۹۶۷": 5425,
    "ئرنیک": 5426,
    "▁نارضای": 5427,
    "▁محفظه": 5428,
    "▁خردسال": 5429,
    "▁غلط": 5430,
    "▁دوستداران": 5431,
    "▁منفرد": 5432,
    "▁متکی": 5433,
    "▁نوازندگان": 5434,
    "▁تویوتا": 5435,
    "▁فریب": 5436,
    "▁کفتر": 5437,
    "▁دبیرستان": 5438,
    "▁هشتصد": 5439,
    "▁شستا": 5440,
    "▁خبرها": 5441,
    "▁سانتو": 5442,
    "▁حجاب": 5443,
    "▁اذیت": 5444,
    "▁ژنرا": 5445,
    "▁مایع": 5446,
    "▁ویدئوی": 5447,
    "▁باثبات": 5448,
    "▁حریر": 5449,
    "▁۶۳": 5450,
    "ایف": 5451,
    "▁ابهامات": 5452,
    "جهان": 5453,
    "▁مخفیانه": 5454,
    "علت": 5455,
    "▁معیارهای": 5456,
    "▁آلزایمر": 5457,
    "▁تعویض": 5458,
    "▁زادگاهش": 5459,
    "▁خرمشهر": 5460,
    "رگس": 5461,
    "▁رسن": 5462,
    "▁نژادپرستانه": 5463,
    "▁ندادن": 5464,
    "▁لیتر": 5465,
    "▁داش": 5466,
    "▁دیدیم": 5467,
    "ائل": 5468,
    "▁سازندگی": 5469,
    "▁لاس": 5470,
    "▁زنگ": 5471,
    "▁رونالدینیو": 5472,
    "▁۲۰۰۶": 5473,
    "▁قفس": 5474,
    "▁خوشحالم": 5475,
    "ائب": 5476,
    "ذل": 5477,
    "▁مادی": 5478,
    "تار": 5479,
    "▁جفت": 5480,
    "▁خلوت": 5481,
    "▁رنو": 5482,
    "▁خیز": 5483,
    "▁بیورن": 5484,
    "▁ساری": 5485,
    "▁لیدی": 5486,
    "▁عرفان": 5487,
    "▁پذیرای": 5488,
    "▁بوی": 5489,
    "▁سینماگران": 5490,
    "▁گویا": 5491,
    "▁کشتن": 5492,
    "▁تمرینات": 5493,
    "▁گردنبند": 5494,
    "▁پناهجوی": 5495,
    "جاد": 5496,
    "▁گیلان": 5497,
    "▁تیموری": 5498,
    "▁نویسد": 5499,
    "▁معتمدی": 5500,
    "آقازاده": 5501,
    "▁نهایتا": 5502,
    "ونیست": 5503,
    "▁فیلیپین": 5504,
    "▁افق": 5505,
    "▁اپراتورها": 5506,
    "▁ممیز": 5507,
    "▁نمایشنامه": 5508,
    "▁پینگ": 5509,
    "▁کثیر": 5510,
    "▁شعبان": 5511,
    "جیب": 5512,
    "ارث": 5513,
    "▁فضاپیمای": 5514,
    "▁نیستم": 5515,
    "▁کاوه": 5516,
    "▁سرمای": 5517,
    "▁اتل": 5518,
    "یلی": 5519,
    "سلسل": 5520,
    "▁معاین": 5521,
    "▁پیداست": 5522,
    "ریت": 5523,
    "▁مض": 5524,
    "▁مایل": 5525,
    "▁معین": 5526,
    "▁ماست": 5527,
    "▁شوخی": 5528,
    "▁کون": 5529,
    "▁اختیارات": 5530,
    "▁تاجیکان": 5531,
    "▁میل": 5532,
    "اط": 5533,
    "غیب": 5534,
    "▁ماندند": 5535,
    "▁اینستاگرامش": 5536,
    "وک": 5537,
    "مزمن": 5538,
    "باع": 5539,
    "دلیل": 5540,
    "▁سومو": 5541,
    "▁حام": 5542,
    "وویچ": 5543,
    "▁عکاسان": 5544,
    "▁امتیازات": 5545,
    "▁بصر": 5546,
    "▁دهلی": 5547,
    "▁روحی": 5548,
    "▁سردار": 5549,
    "واشی": 5550,
    "▁خطرات": 5551,
    "▁متحدانش": 5552,
    "▁۱۳۳": 5553,
    "ستگی": 5554,
    "▁آزمو": 5555,
    "▁رژ": 5556,
    "▁سوگ": 5557,
    "▁برهم": 5558,
    "▁هراس": 5559,
    "▁چارل": 5560,
    "▁بدنی": 5561,
    "درفتار": 5562,
    "▁شکستن": 5563,
    "فرانسی": 5564,
    "روح": 5565,
    "▁۹۲": 5566,
    "اراک": 5567,
    "آفرین": 5568,
    "صول": 5569,
    "ظه": 5570,
    "▁تبر": 5571,
    "▁راد": 5572,
    "▁عل": 5573,
    "اسکو": 5574,
    "سرین": 5575,
    "▁پیگیر": 5576,
    "فلیک": 5577,
    "آر": 5578,
    "▁تحرک": 5579,
    "▁پهلو": 5580,
    "▁تونس": 5581,
    "▁وگوها": 5582,
    "▁عزیز": 5583,
    "برگر": 5584,
    "▁پریش": 5585,
    "کام": 5586,
    "▁نگفت": 5587,
    "وظ": 5588,
    "▁عمد": 5589,
    "▁مباد": 5590,
    "▁بخشهای": 5591,
    "▁شار": 5592,
    "▁کج": 5593,
    "خمین": 5594,
    "▁توس": 5595,
    "▁باردار": 5596,
    "لیون": 5597,
    "▁تندی": 5598,
    "▁کریم": 5599,
    "▁بوس": 5600,
    "▁۶۵۰": 5601,
    "▁کشمی": 5602,
    "ژان": 5603,
    "▁باریک": 5604,
    "واز": 5605,
    "▁اپرای": 5606,
    "▁سرا": 5607,
    "گوف": 5608,
    "وح": 5609,
    "▁سفرها": 5610,
    "▁مادو": 5611,
    "فتن": 5612,
    "▁بفهم": 5613,
    "لات": 5614,
    "سیو": 5615,
    "سکار": 5616,
    "نصر": 5617,
    "▁تیره": 5618,
    "▁فرز": 5619,
    "▁مق": 5620,
    "▁۸۶": 5621,
    "▁مغزش": 5622,
    "وتو": 5623,
    "برد": 5624,
    "سوزی": 5625,
    "همیلتون": 5626,
    "ضرر": 5627,
    "اسپانیا": 5628,
    "تصاویر": 5629,
    "دلال": 5630,
    "جراح": 5631,
    "اطلاعات": 5632,
    "اعلام": 5633,
    "کارگران": 5634,
    "انتشار": 5635,
    "موسس": 5636,
    "اتریش": 5637,
    "ارزش": 5638,
    "▁جند": 5639,
    "تحقیقات": 5640,
    "آژانس": 5641,
    "اداره": 5642,
    "کمتر": 5643,
    "مطابق": 5644,
    "▁۱۸۵": 5645,
    "رایان": 5646,
    "سایت": 5647,
    "▁هول": 5648,
    "موج": 5649,
    "اکبر": 5650,
    "ظن": 5651,
    "اتل": 5652,
    "▁مبد": 5653,
    "وزرای": 5654,
    "هکرها": 5655,
    "▁سور": 5656,
    "یبو": 5657,
    "وزن": 5658,
    "▁اله": 5659,
    "سطی": 5660,
    "زره": 5661,
    "▁مخاطب": 5662,
    "بینند": 5663,
    "▁معلم": 5664,
    "▁آموز": 5665,
    "▁شهرک": 5666,
    "اپ": 5667,
    "▁صدایش": 5668,
    "▁متغیر": 5669,
    "▁کادی": 5670,
    "▁کارفرما": 5671,
    "▁جزئی": 5672,
    "▁معاف": 5673,
    "▁انیمیشن": 5674,
    "▁ایوانکوویچ": 5675,
    "▁رولزرویس": 5676,
    "▁غیرمجاز": 5677,
    "▁بلانشت": 5678,
    "▁الاجل": 5679,
    "▁جوامع": 5680,
    "▁عتیق": 5681,
    "▁فرستد": 5682,
    "▁مستثن": 5683,
    "▁کالبد": 5684,
    "▁وگاس": 5685,
    "▁انباشت": 5686,
    "▁راهپیمایی": 5687,
    "▁تعزیری": 5688,
    "▁رئوف": 5689,
    "▁فکاهی": 5690,
    "▁ابرنواختر": 5691,
    "▁خیام": 5692,
    "▁توقع": 5693,
    "▁خاشقچی": 5694,
    "▁معاهد": 5695,
    "▁آرتتا": 5696,
    "▁بدهکار": 5697,
    "▁ذیبخش": 5698,
    "▁اتصال": 5699,
    "▁سلتیک": 5700,
    "▁طناب": 5701,
    "گارت": 5702,
    "▁سرماخورد": 5703,
    "▁گریبان": 5704,
    "▁ناشنا": 5705,
    "▁محتوی": 5706,
    "▁هیدرو": 5707,
    "▁خویش": 5708,
    "▁پردرآمد": 5709,
    "▁رخشانه": 5710,
    "▁حوض": 5711,
    "▁نپال": 5712,
    "▁جوی": 5713,
    "▁مبارک": 5714,
    "▁قدردان": 5715,
    "▁کوپا": 5716,
    "▁۱۹۷۳": 5717,
    "▁پیکولی": 5718,
    "▁بارچا": 5719,
    "▁کلارک": 5720,
    "▁روانشناس": 5721,
    "▁مراود": 5722,
    "▁بنشیند": 5723,
    "▁بیافتد": 5724,
    "▁برسند": 5725,
    "▁خوست": 5726,
    "▁مختاری": 5727,
    "▁تصدی": 5728,
    "▁حسرت": 5729,
    "▁کالینز": 5730,
    "▁مکمل": 5731,
    "▁وادار": 5732,
    "▁گردهم": 5733,
    "ومبل": 5734,
    "ائم": 5735,
    "▁مبت": 5736,
    "▁هجر": 5737,
    "لانتی": 5738,
    "▁متولی": 5739,
    "▁مساحت": 5740,
    "▁ناپولی": 5741,
    "ارسل": 5742,
    "▁رشید": 5743,
    "▁عصبانی": 5744,
    "▁کادیس": 5745,
    "▁پابند": 5746,
    "▁دلتا": 5747,
    "▁بکند": 5748,
    "▁هاپک": 5749,
    "▁فروشندگان": 5750,
    "▁حریم": 5751,
    "▁لحن": 5752,
    "▁۱۳۰": 5753,
    "▁سازندگان": 5754,
    "▁شانگ": 5755,
    "▁مزای": 5756,
    "▁تلفات": 5757,
    "▁کنزو": 5758,
    "▁گردید": 5759,
    "▁تهاجمی": 5760,
    "▁نامجو": 5761,
    "▁پینک": 5762,
    "کانی": 5763,
    "▁سرشار": 5764,
    "▁بلک": 5765,
    "▁شعارهای": 5766,
    "▁مطالبات": 5767,
    "▁سیبری": 5768,
    "▁طاق": 5769,
    "▁کانت": 5770,
    "▁جنر": 5771,
    "▁انگیزترین": 5772,
    "▁نکو": 5773,
    "▁صرب": 5774,
    "▁گردانند": 5775,
    "▁جنای": 5776,
    "▁ناوگان": 5777,
    "▁رحمت": 5778,
    "▁سبد": 5779,
    "▁شون": 5780,
    "▁آلبر": 5781,
    "▁همخوان": 5782,
    "▁هیل": 5783,
    "▁اصلاحی": 5784,
    "▁یابند": 5785,
    "▁فراور": 5786,
    "▁ارگان": 5787,
    "▁اشتباهات": 5788,
    "▁پادمان": 5789,
    "▁پیامک": 5790,
    "▁وحشت": 5791,
    "▁کرایس": 5792,
    "شش": 5793,
    "▁نخب": 5794,
    "خور": 5795,
    "▁گناه": 5796,
    "▁رایگان": 5797,
    "▁یاوری": 5798,
    "کمی": 5799,
    "لیچ": 5800,
    "۶۱": 5801,
    "▁هیولای": 5802,
    "▁سازه": 5803,
    "▁سهامدار": 5804,
    "▁کامپیوترها": 5805,
    "▁مسترد": 5806,
    "بیشترین": 5807,
    "▁سمی": 5808,
    "▁موک": 5809,
    "▁دیدم": 5810,
    "▁آرزوهای": 5811,
    "▁نمادی": 5812,
    "▁سپید": 5813,
    "▁بازده": 5814,
    "بان": 5815,
    "▁بانو": 5816,
    "ازاد": 5817,
    "اندر": 5818,
    "پوچ": 5819,
    "▁محسوس": 5820,
    "رایش": 5821,
    "▁اصولگرای": 5822,
    "▁سنگر": 5823,
    "▁صمیمی": 5824,
    "▁ادین": 5825,
    "▁نگارش": 5826,
    "وخامت": 5827,
    "▁پرتو": 5828,
    "لقو": 5829,
    "▁منه": 5830,
    "▁امپراتوری": 5831,
    "▁گریه": 5832,
    "▁دخ": 5833,
    "اران": 5834,
    "▁توب": 5835,
    "رین": 5836,
    "▁مینا": 5837,
    "▁مرت": 5838,
    "اتور": 5839,
    "▁اینجا": 5840,
    "▁معمای": 5841,
    "باند": 5842,
    "▁مول": 5843,
    "صیل": 5844,
    "▁درو": 5845,
    "▁عط": 5846,
    "▁دوگان": 5847,
    "▁فرحی": 5848,
    "▁درمی": 5849,
    "▁پژو": 5850,
    "نیچ": 5851,
    "۱۷": 5852,
    "▁نزدیکتر": 5853,
    "امین": 5854,
    "▁نوا": 5855,
    "▁یکبار": 5856,
    "▁فهمید": 5857,
    "▁نیت": 5858,
    "ادل": 5859,
    "گوئر": 5860,
    "▁عمدی": 5861,
    "▁منح": 5862,
    "رل": 5863,
    "▁قوت": 5864,
    "▁مدد": 5865,
    "کین": 5866,
    "گذار": 5867,
    "▁لن": 5868,
    "تاج": 5869,
    "▁میلیاردرها": 5870,
    "▁ساع": 5871,
    "زگی": 5872,
    "ناس": 5873,
    "▁رفتم": 5874,
    "رده": 5875,
    "▁ورا": 5876,
    "▁تز": 5877,
    "▁بازوی": 5878,
    "تعداد": 5879,
    "ماری": 5880,
    "گرفته": 5881,
    "▁گوها": 5882,
    "ایت": 5883,
    "پرسینگ": 5884,
    "واره": 5885,
    "▁یزد": 5886,
    "▁آف": 5887,
    "▁موت": 5888,
    "▁قوم": 5889,
    "▁گا": 5890,
    "▁دول": 5891,
    "▁پسران": 5892,
    "گذشت": 5893,
    "▁میکروب": 5894,
    "▁۸۸": 5895,
    "▁عا": 5896,
    "▁تاکتیک": 5897,
    "▁قربان": 5898,
    "▁لبنانی": 5899,
    "▁اجتماع": 5900,
    "رای": 5901,
    "یامک": 5902,
    "▁مسیح": 5903,
    "ولت": 5904,
    "سران": 5905,
    "▁اصطلاحا": 5906,
    "▁کلاه": 5907,
    "▁کلو": 5908,
    "رژ": 5909,
    "▁سالمند": 5910,
    "دفتر": 5911,
    "▁مطلبی": 5912,
    "▁رکوردها": 5913,
    "رسیدن": 5914,
    "▁گرما": 5915,
    "▁لک": 5916,
    "مرد": 5917,
    "فروش": 5918,
    "▁سرما": 5919,
    "اتیو": 5920,
    "سخ": 5921,
    "▁منک": 5922,
    "▁۷۹": 5923,
    "▁تشک": 5924,
    "▁فورا": 5925,
    "کارآمد": 5926,
    "پرس": 5927,
    "▁بتا": 5928,
    "طبی": 5929,
    "منازع": 5930,
    "ظاهر": 5931,
    "▁ایندی": 5932,
    "فظ": 5933,
    "▁پذیرفت": 5934,
    "▁پراکن": 5935,
    "خوشایند": 5936,
    "۲۸": 5937,
    "شریف": 5938,
    "منظور": 5939,
    "برآورد": 5940,
    "هماهنگ": 5941,
    "استرالیا": 5942,
    "رکورد": 5943,
    "مذاکرات": 5944,
    "چشم": 5945,
    "ترکیه": 5946,
    "داستان": 5947,
    "نشست": 5948,
    "بحث": 5949,
    "▁۱۸۰": 5950,
    "نتیج": 5951,
    "عفون": 5952,
    "لاند": 5953,
    "نوردی": 5954,
    "ساله": 5955,
    "▁۳۲۰": 5956,
    "بورس": 5957,
    "جیک": 5958,
    "▁ریاضی": 5959,
    "▁نما": 5960,
    "▁خانمان": 5961,
    "تینو": 5962,
    "کاوه": 5963,
    "کان": 5964,
    "▁کور": 5965,
    "انزا": 5966,
    "▁سیاستمدار": 5967,
    "▁عزا": 5968,
    "▁اق": 5969,
    "▁سیا": 5970,
    "جامع": 5971,
    "ارل": 5972,
    "▁دراین": 5973,
    "▁دستیار": 5974,
    "▁تسهیل": 5975,
    "ادین": 5976,
    "▁سینماگر": 5977,
    "خون": 5978,
    "▁جع": 5979,
    "▁رفسنجان": 5980,
    "▁آبراموویچ": 5981,
    "▁الگوریتم": 5982,
    "▁بلایندرز": 5983,
    "▁بلغارستان": 5984,
    "▁ضوابط": 5985,
    "▁لومامبا": 5986,
    "▁تلویح": 5987,
    "▁سولشر": 5988,
    "▁مائوریت": 5989,
    "▁جهرمی": 5990,
    "تصاعد": 5991,
    "▁بذر": 5992,
    "▁جواهر": 5993,
    "▁مقتدر": 5994,
    "▁برسانند": 5995,
    "▁اسعد": 5996,
    "▁طغیان": 5997,
    "▁تضاد": 5998,
    "▁بخرد": 5999,
    "▁واجد": 6000,
    "▁ارتقا": 6001,
    "▁بگویند": 6002,
    "▁گرافیک": 6003,
    "▁استقراض": 6004,
    "▁حرارت": 6005,
    "▁برگردند": 6006,
    "▁پاراگوئه": 6007,
    "▁غیبت": 6008,
    "▁فرنود": 6009,
    "▁زاکانی": 6010,
    "▁اصالت": 6011,
    "▁۱۳۹۰": 6012,
    "▁کلانتری": 6013,
    "▁لشگر": 6014,
    "▁بیولوژیک": 6015,
    "▁آلایند": 6016,
    "▁خشمگین": 6017,
    "▁خلوتگر": 6018,
    "یونان": 6019,
    "ژورنال": 6020,
    "▁کاشف": 6021,
    "▁تنگنا": 6022,
    "▁قرائت": 6023,
    "▁کوهنورد": 6024,
    "▁معلولیت": 6025,
    "▁صید": 6026,
    "▁گیتار": 6027,
    "▁لگن": 6028,
    "▁ونگر": 6029,
    "▁پورتو": 6030,
    "▁۱۹۲۰": 6031,
    "اچو": 6032,
    "▁بازتاب": 6033,
    "▁سردرگم": 6034,
    "▁تأسیس": 6035,
    "▁نامشخص": 6036,
    "▁کیلوولت": 6037,
    "▁ریسک": 6038,
    "▁برشمرد": 6039,
    "▁۱۳۵۰": 6040,
    "▁جناح": 6041,
    "▁شکننده": 6042,
    "▁ریاضیات": 6043,
    "▁بغلان": 6044,
    "▁درشت": 6045,
    "▁آث": 6046,
    "▁انکار": 6047,
    "▁شیفت": 6048,
    "▁همدان": 6049,
    "▁اسمیت": 6050,
    "▁بخواهد": 6051,
    "▁پیرلو": 6052,
    "▁اشخاص": 6053,
    "▁ولد": 6054,
    "▁شخصا": 6055,
    "▁ترابی": 6056,
    "▁اندرکاران": 6057,
    "▁درخشید": 6058,
    "بپرس": 6059,
    "پوتین": 6060,
    "▁مورل": 6061,
    "▁اسل": 6062,
    "پائولو": 6063,
    "▁ثا": 6064,
    "▁سرگردان": 6065,
    "زادگان": 6066,
    "▁گدار": 6067,
    "▁بازنده": 6068,
    "▁دوتار": 6069,
    "▁کمپ": 6070,
    "▁قاب": 6071,
    "▁دانشگر": 6072,
    "همچن": 6073,
    "▁معلمان": 6074,
    "▁استقامت": 6075,
    "▁مشهورتر": 6076,
    "تاب": 6077,
    "▁استرس": 6078,
    "▁عمیقا": 6079,
    "▁القا": 6080,
    "▁مصم": 6081,
    "▁شوق": 6082,
    "▁گردیم": 6083,
    "▁کیمن": 6084,
    "▁مسبب": 6085,
    "رهای": 6086,
    "▁متروکه": 6087,
    "▁کلدی": 6088,
    "▁انداختن": 6089,
    "▁هرجا": 6090,
    "▁مرادی": 6091,
    "▁اقیانوسیه": 6092,
    "▁حراست": 6093,
    "▁پیشگامان": 6094,
    "تعارف": 6095,
    "▁ول": 6096,
    "راق": 6097,
    "▁دادخواه": 6098,
    "▁فلور": 6099,
    "▁ننگ": 6100,
    "درون": 6101,
    "سنگ": 6102,
    "▁یاب": 6103,
    "▁موهای": 6104,
    "دامس": 6105,
    "▁متخلفان": 6106,
    "▁متص": 6107,
    "چهل": 6108,
    "▁کانل": 6109,
    "▁کاران": 6110,
    "خیر": 6111,
    "▁مانند": 6112,
    "▁درسی": 6113,
    "▁مهمانان": 6114,
    "▁سیری": 6115,
    "نگا": 6116,
    "ریگو": 6117,
    "دانه": 6118,
    "▁بیتل": 6119,
    "ودم": 6120,
    "▁کاتال": 6121,
    "سام": 6122,
    "▁منجم": 6123,
    "▁۴۵۰": 6124,
    "▁جراحت": 6125,
    "▁تابستانی": 6126,
    "▁عار": 6127,
    "ارمی": 6128,
    "▁هولم": 6129,
    "▁برگردانده": 6130,
    "▁دیسک": 6131,
    "▁خد": 6132,
    "▁حول": 6133,
    "▁کیس": 6134,
    "ازما": 6135,
    "▁سفارشی": 6136,
    "حصول": 6137,
    "جیغ": 6138,
    "▁مسافری": 6139,
    "▁بم": 6140,
    "تال": 6141,
    "▁اسکان": 6142,
    "▁آموخت": 6143,
    "▁بیو": 6144,
    "وتی": 6145,
    "وندی": 6146,
    "▁رقبای": 6147,
    "▁چای": 6148,
    "▁کلر": 6149,
    "▁معاد": 6150,
    "▁حواس": 6151,
    "▁کینگ": 6152,
    "▁لندرو": 6153,
    "ویر": 6154,
    "▁گدا": 6155,
    "▁هشدارها": 6156,
    "▁تولیدکنند": 6157,
    "زیان": 6158,
    "▁جراحان": 6159,
    "▁غیربو": 6160,
    "▁آز": 6161,
    "▁بنیا": 6162,
    "▁بناها": 6163,
    "▁یوسی": 6164,
    "▁قی": 6165,
    "▁تص": 6166,
    "▁پاب": 6167,
    "أی": 6168,
    "▁منظره": 6169,
    "سول": 6170,
    "▁بدنش": 6171,
    "خان": 6172,
    "▁رج": 6173,
    "▁راستش": 6174,
    "▁پاش": 6175,
    "▁خریدن": 6176,
    "▁هوادارانش": 6177,
    "نگیز": 6178,
    "روژ": 6179,
    "مالا": 6180,
    "▁جانش": 6181,
    "فرنو": 6182,
    "▁علا": 6183,
    "▁وگوی": 6184,
    "▁مجا": 6185,
    "۶۲": 6186,
    "▁جوج": 6187,
    "▁متیو": 6188,
    "دوغا": 6189,
    "▁پرید": 6190,
    "مپیون": 6191,
    "▁عظیمی": 6192,
    "▁بوتا": 6193,
    "▁جیمی": 6194,
    "تانک": 6195,
    "▁چال": 6196,
    "▁نامم": 6197,
    "▁لطفی": 6198,
    "▁پروازهایش": 6199,
    "▁پرش": 6200,
    "اقش": 6201,
    "جر": 6202,
    "اور": 6203,
    "▁لوی": 6204,
    "زلی": 6205,
    "▁رامی": 6206,
    "▁عزادار": 6207,
    "پیر": 6208,
    "▁گرانتر": 6209,
    "▁اخ": 6210,
    "▁محو": 6211,
    "▁خل": 6212,
    "آور": 6213,
    "▁هریس": 6214,
    "▁شکوفا": 6215,
    "▁ریوی": 6216,
    "▁الهی": 6217,
    "▁قطرک": 6218,
    "▁خاور": 6219,
    "▁درآمده": 6220,
    "کنیم": 6221,
    "میشل": 6222,
    "▁جور": 6223,
    "▁اتکا": 6224,
    "ژ": 6225,
    "▁درها": 6226,
    "یانگ": 6227,
    "▁لوف": 6228,
    "راست": 6229,
    "▁دیوارها": 6230,
    "▁ناآرام": 6231,
    "▁راهنمای": 6232,
    "اندی": 6233,
    "▁کلیسا": 6234,
    "سکانس": 6235,
    "▁صوت": 6236,
    "▁اجت": 6237,
    "▁ناصری": 6238,
    "▁فرح": 6239,
    "▁شیب": 6240,
    "▁رجب": 6241,
    "▁قدیم": 6242,
    "▁خوابی": 6243,
    "شایر": 6244,
    "▁شورش": 6245,
    "▁رپ": 6246,
    "▁تپند": 6247,
    "یاق": 6248,
    "تصور": 6249,
    "▁۲۰۲": 6250,
    "▁بدان": 6251,
    "ریس": 6252,
    "واقعی": 6253,
    "▁هفده": 6254,
    "▁فشارها": 6255,
    "▁چشمان": 6256,
    "دوم": 6257,
    "▁نگرفت": 6258,
    "▁طل": 6259,
    "سانس": 6260,
    "▁جمج": 6261,
    "کری": 6262,
    "▁نماند": 6263,
    "▁مدرس": 6264,
    "کست": 6265,
    "▁بینم": 6266,
    "▁خطا": 6267,
    "▁گز": 6268,
    "بالا": 6269,
    "▁یوآ": 6270,
    "▁فهم": 6271,
    "زمینی": 6272,
    "ارو": 6273,
    "▁الن": 6274,
    "خوانی": 6275,
    "▁ریگ": 6276,
    "پزشک": 6277,
    "▁توفیقی": 6278,
    "فرگوس": 6279,
    "▁اکا": 6280,
    "▁سریعتر": 6281,
    "طرح": 6282,
    "مجتب": 6283,
    "حصار": 6284,
    "ریچارد": 6285,
    "کاظم": 6286,
    "آرامکو": 6287,
    "یونایتد": 6288,
    "اسماعیل": 6289,
    "انجمن": 6290,
    "تاتنهام": 6291,
    "نتایج": 6292,
    "کلوپ": 6293,
    "ویروس": 6294,
    "موسیقی": 6295,
    "تحریم": 6296,
    "تصویر": 6297,
    "بازداشت": 6298,
    "مشخص": 6299,
    "ایتالیا": 6300,
    "مورد": 6301,
    "لستر": 6302,
    "تحلیلگر": 6303,
    "عکاس": 6304,
    "علم": 6305,
    "دادستان": 6306,
    "خطر": 6307,
    "چال": 6308,
    "▁امری": 6309,
    "کشته": 6310,
    "قصد": 6311,
    "درگذشت": 6312,
    "گروهی": 6313,
    "▁معاونان": 6314,
    "ادیو": 6315,
    "باخ": 6316,
    "▁رون": 6317,
    "▁خو": 6318,
    "آیا": 6319,
    "▁فرانسیس": 6320,
    "هشدار": 6321,
    "ائوس": 6322,
    "▁۱۱۰": 6323,
    "▁قائ": 6324,
    "▁الس": 6325,
    "▁معلول": 6326,
    "▁فرزندانش": 6327,
    "▁کیف": 6328,
    "▁نوزاد": 6329,
    "رف": 6330,
    "▁شاگرد": 6331,
    "▁سینو": 6332,
    "۲۷": 6333,
    "۵۸": 6334,
    "▁کوبید": 6335,
    "ژهای": 6336,
    "بیگ": 6337,
    "انسان": 6338,
    "نگرانی": 6339,
    "وحید": 6340,
    "▁آرسن": 6341,
    "مغناطیس": 6342,
    "▁احداث": 6343,
    "▁اردکانیان": 6344,
    "▁اوربیتر": 6345,
    "▁اورشلیم": 6346,
    "▁سمرقند": 6347,
    "▁مستضعفان": 6348,
    "▁پاختاکور": 6349,
    "▁پلتفرم": 6350,
    "▁کامبوج": 6351,
    "▁کانگورو": 6352,
    "▁گوسفند": 6353,
    "▁اقتباس": 6354,
    "▁بفروشند": 6355,
    "▁کاسموس": 6356,
    "▁مخرب": 6357,
    "▁نکشید": 6358,
    "▁نیابد": 6359,
    "▁تقلب": 6360,
    "▁امتداد": 6361,
    "▁بسازد": 6362,
    "▁ذوالنور": 6363,
    "▁ابداع": 6364,
    "▁رغبت": 6365,
    "▁مذک": 6366,
    "▁چابک": 6367,
    "▁سیستماتیک": 6368,
    "▁متمایز": 6369,
    "▁موعد": 6370,
    "▁عزت": 6371,
    "▁ماراکانا": 6372,
    "▁اسپایدر": 6373,
    "▁سمنان": 6374,
    "▁ژنشنگ": 6375,
    "▁جاودان": 6376,
    "▁نیچر": 6377,
    "▁واگیر": 6378,
    "▁سانتیگراد": 6379,
    "▁کلروک": 6380,
    "▁آنکارا": 6381,
    "▁ندهند": 6382,
    "▁ایلام": 6383,
    "▁قاعدتا": 6384,
    "▁مارسیال": 6385,
    "▁بدانید": 6386,
    "▁بنجام": 6387,
    "▁دعا": 6388,
    "▁هنگفت": 6389,
    "زیمبا": 6390,
    "▁پیانو": 6391,
    "هالیفیلد": 6392,
    "▁لشکر": 6393,
    "▁شاهرود": 6394,
    "▁راپینو": 6395,
    "▁بگذارم": 6396,
    "▁برایانت": 6397,
    "▁بگوید": 6398,
    "▁پرجمعیت": 6399,
    "▁مکالمات": 6400,
    "▁فرنگی": 6401,
    "▁نورالله": 6402,
    "▁پرشور": 6403,
    "▁غر": 6404,
    "▁مولف": 6405,
    "▁ابولا": 6406,
    "▁۱۹۹۵": 6407,
    "▁گریگوریان": 6408,
    "▁۷۵۲": 6409,
    "▁الاکلنگ": 6410,
    "▁قورباغه": 6411,
    "▁سحرگاه": 6412,
    "▁هوشیار": 6413,
    "▁شنوایی": 6414,
    "زیو": 6415,
    "خضر": 6416,
    "▁آرایشگاه": 6417,
    "▁غرور": 6418,
    "▁ورزند": 6419,
    "▁لبخندها": 6420,
    "لئوپا": 6421,
    "▁سفیددره": 6422,
    "▁تنیده": 6423,
    "▁کنشگر": 6424,
    "▁نورمحمد": 6425,
    "▁ایرانایران": 6426,
    "▁بزوس": 6427,
    "▁مانور": 6428,
    "▁پردازند": 6429,
    "▁دورانگو": 6430,
    "▁محف": 6431,
    "▁انتصاب": 6432,
    "▁رودکی": 6433,
    "▁لط": 6434,
    "▁لیبی": 6435,
    "▁پاسگاه": 6436,
    "▁آویز": 6437,
    "▁نزن": 6438,
    "▁سیدنی": 6439,
    "▁آهست": 6440,
    "▁وزار": 6441,
    "▁جرج": 6442,
    "▁اخترشناس": 6443,
    "▁فرندز": 6444,
    "▁بخواهید": 6445,
    "▁ناقل": 6446,
    "▁رکوردشکن": 6447,
    "▁پروست": 6448,
    "▁اسید": 6449,
    "▁ژنوم": 6450,
    "▁گوییم": 6451,
    "▁آندرس": 6452,
    "▁خوشبین": 6453,
    "▁آنگل": 6454,
    "▁جذابیت": 6455,
    "▁آرم": 6456,
    "▁چاق": 6457,
    "شقان": 6458,
    "▁معلولان": 6459,
    "میلیون": 6460,
    "▁فهیم": 6461,
    "▁سفت": 6462,
    "▁قاعد": 6463,
    "▁کوشید": 6464,
    "▁آتن": 6465,
    "▁موریس": 6466,
    "▁آسپر": 6467,
    "▁دیاب": 6468,
    "روند": 6469,
    "دانف": 6470,
    "▁ث": 6471,
    "▁کلیپ": 6472,
    "چر": 6473,
    "▁دبی": 6474,
    "▁گاو": 6475,
    "▁سادگی": 6476,
    "▁نبی": 6477,
    "▁شکنی": 6478,
    "▁بکار": 6479,
    "سیما": 6480,
    "▁مجت": 6481,
    "▁تراک": 6482,
    "▁سکوها": 6483,
    "نسوخ": 6484,
    "▁نامعلوم": 6485,
    "▁کامیاب": 6486,
    "▁عینک": 6487,
    "▁فورب": 6488,
    "▁یونسی": 6489,
    "▁دانا": 6490,
    "▁پیمانکاران": 6491,
    "قبره": 6492,
    "▁ابو": 6493,
    "▁ساید": 6494,
    "گرنه": 6495,
    "جوزپ": 6496,
    "▁داود": 6497,
    "▁وض": 6498,
    "▁اشع": 6499,
    "▁بستگان": 6500,
    "▁کجاست": 6501,
    "خشنود": 6502,
    "▁پوشان": 6503,
    "وجیه": 6504,
    "جمه": 6505,
    "لستون": 6506,
    "▁فرشت": 6507,
    "تناسب": 6508,
    "▁بدنشان": 6509,
    "▁کاشت": 6510,
    "نزل": 6511,
    "▁جادوی": 6512,
    "▁شن": 6513,
    "▁کوچه": 6514,
    "▁بالاست": 6515,
    "▁تولی": 6516,
    "ندرت": 6517,
    "▁قانونگذار": 6518,
    "مول": 6519,
    "▁وود": 6520,
    "▁افزودن": 6521,
    "▁خدای": 6522,
    "▁گزینش": 6523,
    "▁مجتب": 6524,
    "▁گرفتیم": 6525,
    "▁برخاست": 6526,
    "▁احتیا": 6527,
    "▁دلال": 6528,
    "▁دیدند": 6529,
    "▁ساسانی": 6530,
    "▁پیشنهادهای": 6531,
    "▁چادر": 6532,
    "▁پود": 6533,
    "▁نایاب": 6534,
    "بیح": 6535,
    "هفتصد": 6536,
    "▁پارچ": 6537,
    "▁پسند": 6538,
    "▁پیامبر": 6539,
    "▁اجراهای": 6540,
    "▁نفی": 6541,
    "▁سیب": 6542,
    "▁زین": 6543,
    "▁دیو": 6544,
    "نازنی": 6545,
    "▁غرو": 6546,
    "اصل": 6547,
    "فته": 6548,
    "سارت": 6549,
    "▁کشیدند": 6550,
    "▁مکس": 6551,
    "▁زی": 6552,
    "باز": 6553,
    "غدی": 6554,
    "▁شدیم": 6555,
    "▁دات": 6556,
    "جویی": 6557,
    "▁پردازی": 6558,
    "▁چید": 6559,
    "▁برآورده": 6560,
    "▁دانستن": 6561,
    "▁نیکولا": 6562,
    "▁ضیا": 6563,
    "تورهای": 6564,
    "▁اروپاست": 6565,
    "▁زودرس": 6566,
    "نمای": 6567,
    "فرجام": 6568,
    "▁پرز": 6569,
    "▁شکن": 6570,
    "▁تهدیدهای": 6571,
    "▁پالا": 6572,
    "▁اوار": 6573,
    "▁کورو": 6574,
    "ونتی": 6575,
    "قبل": 6576,
    "قو": 6577,
    "▁شناختن": 6578,
    "▁موسی": 6579,
    "▁سنی": 6580,
    "۸۹": 6581,
    "رفران": 6582,
    "لد": 6583,
    "▁دیدگ": 6584,
    "▁اشتها": 6585,
    "▁رودر": 6586,
    "صدا": 6587,
    "▁بازدیدکنند": 6588,
    "▁موری": 6589,
    "دریچ": 6590,
    "▁دسمو": 6591,
    "▁لیز": 6592,
    "▁شنای": 6593,
    "▁بایر": 6594,
    "▁دانل": 6595,
    "▁۸۴": 6596,
    "لون": 6597,
    "▁محب": 6598,
    "▁داروین": 6599,
    "▁آو": 6600,
    "▁کارل": 6601,
    "طل": 6602,
    "▁مگ": 6603,
    "▁اینچ": 6604,
    "فرد": 6605,
    "▁آئ": 6606,
    "اهید": 6607,
    "▁خلا": 6608,
    "تل": 6609,
    "▁کیلی": 6610,
    "▁ادوار": 6611,
    "▁استثنای": 6612,
    "▁عفون": 6613,
    "▁والا": 6614,
    "خط": 6615,
    "نما": 6616,
    "قای": 6617,
    "هربان": 6618,
    "▁دلم": 6619,
    "▁باج": 6620,
    "۱۰": 6621,
    "▁افسرد": 6622,
    "▁لاب": 6623,
    "▁بیدار": 6624,
    "▁لات": 6625,
    "▁۶۹": 6626,
    "تازه": 6627,
    "▁پیت": 6628,
    "▁کورت": 6629,
    "▁رنگی": 6630,
    "▁آنتو": 6631,
    "زمه": 6632,
    "▁مارکو": 6633,
    "▁گوی": 6634,
    "فرید": 6635,
    "کمه": 6636,
    "فین": 6637,
    "▁کمیاب": 6638,
    "پورت": 6639,
    "یاب": 6640,
    "تاکنون": 6641,
    "▁انسانها": 6642,
    "ادت": 6643,
    "▁ماتی": 6644,
    "متن": 6645,
    "ولا": 6646,
    "▁ابی": 6647,
    "میدان": 6648,
    "▁معما": 6649,
    "آباد": 6650,
    "▁آذری": 6651,
    "▁پشتو": 6652,
    "▁مهندسی": 6653,
    "دایی": 6654,
    "▁نوک": 6655,
    "ردن": 6656,
    "▁تصویربردار": 6657,
    "۴۲": 6658,
    "کارولین": 6659,
    "▁تقی": 6660,
    "▁آمی": 6661,
    "▁حاج": 6662,
    "▁هروی": 6663,
    "یزه": 6664,
    "بندی": 6665,
    "کاب": 6666,
    "▁صحرا": 6667,
    "نفر": 6668,
    "ائو": 6669,
    "بیز": 6670,
    "▁بازگو": 6671,
    "نوم": 6672,
    "▁سلیمان": 6673,
    "▁بروی": 6674,
    "سک": 6675,
    "شدیدترین": 6676,
    "▁برآوردها": 6677,
    "▁اون": 6678,
    "نیف": 6679,
    "▁الگو": 6680,
    "زبان": 6681,
    "درهای": 6682,
    "▁برگرداند": 6683,
    "▁فضل": 6684,
    "دیدار": 6685,
    "▁بارش": 6686,
    "▁مهیا": 6687,
    "لخ": 6688,
    "سالار": 6689,
    "▁حدادی": 6690,
    "گزار": 6691,
    "قد": 6692,
    "▁تح": 6693,
    "▁پژ": 6694,
    "▁پناهند": 6695,
    "یافته": 6696,
    "▁کارهایش": 6697,
    "▁مجرم": 6698,
    "▁مصرفی": 6699,
    "▁بخشد": 6700,
    "▁ولت": 6701,
    "▁دقتی": 6702,
    "لوس": 6703,
    "▁سرور": 6704,
    "▁فقی": 6705,
    "▁درآمدها": 6706,
    "▁۲۶۰": 6707,
    "▁لیپ": 6708,
    "▁پولها": 6709,
    "خصوص": 6710,
    "شبن": 6711,
    "ولوژی": 6712,
    "▁کاندیدا": 6713,
    "▁کریس": 6714,
    "مزد": 6715,
    "آلود": 6716,
    "طالب": 6717,
    "بفرستید": 6718,
    "فضل": 6719,
    "پرداخت": 6720,
    "ماخ": 6721,
    "توماس": 6722,
    "الدین": 6723,
    "لیدز": 6724,
    "منتقدان": 6725,
    "آذر": 6726,
    "جوکوویچ": 6727,
    "▁مشتاق": 6728,
    "منچستر": 6729,
    "تحصیل": 6730,
    "حادثه": 6731,
    "احتمال": 6732,
    "هواداران": 6733,
    "اعضای": 6734,
    "عضو": 6735,
    "شرایط": 6736,
    "بریتانیا": 6737,
    "حضور": 6738,
    "تصمیم": 6739,
    "نقاشی": 6740,
    "جایزه": 6741,
    "اوپک": 6742,
    "مرغ": 6743,
    "بزرگترین": 6744,
    "عادی": 6745,
    "نخست": 6746,
    "خه": 6747,
    "جواد": 6748,
    "▁متخلف": 6749,
    "اندن": 6750,
    "سیزدهم": 6751,
    "اعظم": 6752,
    "سریع": 6753,
    "کشتی": 6754,
    "سنگر": 6755,
    "صرف": 6756,
    "▁پوشیدن": 6757,
    "فرق": 6758,
    "رحیم": 6759,
    "عطا": 6760,
    "▁کاش": 6761,
    "پاش": 6762,
    "عظم": 6763,
    "هنگام": 6764,
    "پولو": 6765,
    "مقامات": 6766,
    "▁تقریب": 6767,
    "▁زادگاه": 6768,
    "▁مهد": 6769,
    "ذائ": 6770,
    "▁ارواح": 6771,
    "▁انتقام": 6772,
    "▁انقطاع": 6773,
    "▁اویغور": 6774,
    "▁عناوین": 6775,
    "▁فیلسوف": 6776,
    "▁مشروب": 6777,
    "▁مقصود": 6778,
    "▁نابسامان": 6779,
    "▁تذکر": 6780,
    "▁صراحت": 6781,
    "▁تدفین": 6782,
    "▁مصداق": 6783,
    "▁بیانداز": 6784,
    "▁صلیب": 6785,
    "▁ناگزیر": 6786,
    "▁کارائیب": 6787,
    "▁تجدد": 6788,
    "▁گدوت": 6789,
    "▁بزاق": 6790,
    "▁دفاتر": 6791,
    "▁نجوا": 6792,
    "▁غلیظ": 6793,
    "▁مرموز": 6794,
    "▁لغت": 6795,
    "▁یادماندنی": 6796,
    "▁ببینم": 6797,
    "▁حاتمی": 6798,
    "▁خودکفا": 6799,
    "▁محتاط": 6800,
    "▁فلاکت": 6801,
    "▁فونینی": 6802,
    "▁جلیل": 6803,
    "▁پیمود": 6804,
    "▁باکتری": 6805,
    "▁ترشح": 6806,
    "▁توازن": 6807,
    "▁ماهرویان": 6808,
    "▁اسرارآمیز": 6809,
    "▁مبتکر": 6810,
    "▁خاکستر": 6811,
    "▁روانپزشک": 6812,
    "▁قضاوت": 6813,
    "▁نابرابر": 6814,
    "▁کوپر": 6815,
    "▁پابرجاست": 6816,
    "▁دردناک": 6817,
    "▁دشتکی": 6818,
    "▁فورمن": 6819,
    "▁مجادل": 6820,
    "▁قبرستان": 6821,
    "▁۱۹۶۸": 6822,
    "▁ریورا": 6823,
    "▁عناب": 6824,
    "▁بکاهند": 6825,
    "ارومیه": 6826,
    "▁افزاید": 6827,
    "▁بخورد": 6828,
    "▁بسر": 6829,
    "▁ساوت": 6830,
    "▁روانچی": 6831,
    "▁کولاک": 6832,
    "▁خاندان": 6833,
    "ژگان": 6834,
    "▁سموم": 6835,
    "▁ویلسون": 6836,
    "▁شکوه": 6837,
    "▁لوگو": 6838,
    "▁واپس": 6839,
    "یگز": 6840,
    "▁مجاور": 6841,
    "▁اجساد": 6842,
    "▁ترقی": 6843,
    "▁اجزا": 6844,
    "▁تربیت": 6845,
    "▁بریجز": 6846,
    "▁ربای": 6847,
    "▁ببریم": 6848,
    "▁۱۳۶۰": 6849,
    "▁تصرف": 6850,
    "▁جملات": 6851,
    "▁مردادماه": 6852,
    "▁بهزاد": 6853,
    "▁گهر": 6854,
    "▁تجربیات": 6855,
    "▁نورستان": 6856,
    "▁نورماگومدوف": 6857,
    "▁اسنپ": 6858,
    "▁ناشر": 6859,
    "▁درآید": 6860,
    "▁عوا": 6861,
    "گویان": 6862,
    "▁محاف": 6863,
    "▁امداد": 6864,
    "▁استیو": 6865,
    "▁ابول": 6866,
    "▁داوود": 6867,
    "▁عکسها": 6868,
    "▁متغیرهای": 6869,
    "▁نبو": 6870,
    "▁متقابل": 6871,
    "▁۱۷۳": 6872,
    "▁کوید": 6873,
    "حوال": 6874,
    "▁سانتا": 6875,
    "▁برویم": 6876,
    "▁ترانس": 6877,
    "▁برگردیم": 6878,
    "▁نظرش": 6879,
    "▁خانود": 6880,
    "▁همسایگان": 6881,
    "▁مأموریت": 6882,
    "▁فلامینگوها": 6883,
    "▁منقل": 6884,
    "▁ماهیچه": 6885,
    "رضی": 6886,
    "▁نشدنی": 6887,
    "▁بلید": 6888,
    "▁مختصر": 6889,
    "▁گیلبرت": 6890,
    "▁بدهم": 6891,
    "مسابقه": 6892,
    "▁والتر": 6893,
    "▁بگیرم": 6894,
    "▁درآمدزا": 6895,
    "▁ابزارهای": 6896,
    "▁وات": 6897,
    "▁دریانورد": 6898,
    "▁زلا": 6899,
    "▁ایستادند": 6900,
    "بال": 6901,
    "▁بزرگسال": 6902,
    "▁دردسرهای": 6903,
    "▁سرخک": 6904,
    "▁ربود": 6905,
    "▁کشتند": 6906,
    "▁ربکا": 6907,
    "▁گریخت": 6908,
    "▁علیزاده": 6909,
    "▁قامت": 6910,
    "▁ازسر": 6911,
    "▁حکیم": 6912,
    "جم": 6913,
    "▁کنسر": 6914,
    "▁تردیدهای": 6915,
    "▁فک": 6916,
    "▁موکل": 6917,
    "جوان": 6918,
    "حام": 6919,
    "▁فاضل": 6920,
    "▁رکس": 6921,
    "▁توسان": 6922,
    "▁کارتون": 6923,
    "یامده": 6924,
    "▁دماغ": 6925,
    "▁بیانسه": 6926,
    "▁بازیافت": 6927,
    "▁چرخید": 6928,
    "▁ابدی": 6929,
    "▁فروند": 6930,
    "▁قصر": 6931,
    "▁جنگی": 6932,
    "رومن": 6933,
    "داگ": 6934,
    "▁لوح": 6935,
    "▁ترسد": 6936,
    "▁بنده": 6937,
    "رن": 6938,
    "▁عطف": 6939,
    "وژان": 6940,
    "▁گذران": 6941,
    "کوئین": 6942,
    "▁یوت": 6943,
    "بیست": 6944,
    "▁بخوان": 6945,
    "طاع": 6946,
    "خن": 6947,
    "▁لورک": 6948,
    "وتا": 6949,
    "▁شاکی": 6950,
    "▁اثرگذار": 6951,
    "▁بفرستید": 6952,
    "▁پهنه": 6953,
    "▁شکم": 6954,
    "ماجرای": 6955,
    "▁کد": 6956,
    "جویان": 6957,
    "▁سوییس": 6958,
    "▁راوی": 6959,
    "▁تورین": 6960,
    "▁نوردی": 6961,
    "▁آسا": 6962,
    "برداری": 6963,
    "تالی": 6964,
    "▁ساعته": 6965,
    "▁حوال": 6966,
    "▁بخشید": 6967,
    "قهرمانی": 6968,
    "ئه": 6969,
    "تعدد": 6970,
    "▁سازهای": 6971,
    "اتح": 6972,
    "▁کارلو": 6973,
    "نمی": 6974,
    "▁آپ": 6975,
    "▁وکلای": 6976,
    "▁نصر": 6977,
    "پولیس": 6978,
    "ئین": 6979,
    "▁هاروی": 6980,
    "▁بگ": 6981,
    "ریض": 6982,
    "▁شست": 6983,
    "▁دایی": 6984,
    "بیل": 6985,
    "ترن": 6986,
    "▁قوز": 6987,
    "▁مایا": 6988,
    "کوس": 6989,
    "ریزی": 6990,
    "▁دزدی": 6991,
    "معدنچی": 6992,
    "نرخ": 6993,
    "▁حجت": 6994,
    "▁درسال": 6995,
    "▁سوت": 6996,
    "▁گرجستانی": 6997,
    "▁تشکیلات": 6998,
    "▁چرخش": 6999,
    "▁سردست": 7000,
    "▁نیکل": 7001,
    "کابو": 7002,
    "▁سوزاند": 7003,
    "▁باربی": 7004,
    "▁دیوانه": 7005,
    "وتر": 7006,
    "▁نیستیم": 7007,
    "ینک": 7008,
    "راماتیک": 7009,
    "لث": 7010,
    "▁امیدهای": 7011,
    "▁آس": 7012,
    "▁هارد": 7013,
    "▁کارتر": 7014,
    "▁داران": 7015,
    "امیدوارکننده": 7016,
    "▁بخشیده": 7017,
    "▁بکش": 7018,
    "▁موتورها": 7019,
    "نور": 7020,
    "برده": 7021,
    "▁بروید": 7022,
    "▁نشستن": 7023,
    "یدند": 7024,
    "پانز": 7025,
    "▁فتحی": 7026,
    "▁دادیم": 7027,
    "▁تاثیرات": 7028,
    "نزو": 7029,
    "▁ساختند": 7030,
    "▁استعفاها": 7031,
    "▁صحرای": 7032,
    "▁ساد": 7033,
    "بس": 7034,
    "وستون": 7035,
    "موتو": 7036,
    "▁۷۵۰": 7037,
    "دال": 7038,
    "هیچ": 7039,
    "▁ساند": 7040,
    "زیرو": 7041,
    "▁سندر": 7042,
    "▁رومانی": 7043,
    "بوه": 7044,
    "▁گیت": 7045,
    "آمارها": 7046,
    "▁یابی": 7047,
    "▁محصولاتش": 7048,
    "▁میکروبی": 7049,
    "▁لیک": 7050,
    "گرم": 7051,
    "▁بگذاری": 7052,
    "▁اینست": 7053,
    "▁سهیم": 7054,
    "▁سنج": 7055,
    "▁خوابیدن": 7056,
    "▁ریس": 7057,
    "تفلی": 7058,
    "اردو": 7059,
    "میو": 7060,
    "▁کیمی": 7061,
    "وادا": 7062,
    "انشهر": 7063,
    "▁کارند": 7064,
    "▁نب": 7065,
    "لسک": 7066,
    "▁ارت": 7067,
    "زدی": 7068,
    "▁سکان": 7069,
    "▁بیم": 7070,
    "▁موثری": 7071,
    "۸۵": 7072,
    "اپیش": 7073,
    "▁ورز": 7074,
    "▁اتری": 7075,
    "▁شو": 7076,
    "سپاس": 7077,
    "▁فشارهای": 7078,
    "ائی": 7079,
    "▁همب": 7080,
    "▁دارداین": 7081,
    "▁چپگرا": 7082,
    "▁خوشی": 7083,
    "میلیا": 7084,
    "▁معا": 7085,
    "▁دریاب": 7086,
    "▁استرا": 7087,
    "نیوز": 7088,
    "نسک": 7089,
    "▁فرضی": 7090,
    "▁طر": 7091,
    "▁قاطعان": 7092,
    "چل": 7093,
    "▁پیل": 7094,
    "▁پذیری": 7095,
    "▁بدنم": 7096,
    "▁بیگ": 7097,
    "شوند": 7098,
    "ناتان": 7099,
    "▁رانگل": 7100,
    "▁موس": 7101,
    "بورگ": 7102,
    "▁رویز": 7103,
    "ساعد": 7104,
    "رانگ": 7105,
    "ملا": 7106,
    "▁پرداز": 7107,
    "▁سنجی": 7108,
    "▁ملته": 7109,
    "▁موم": 7110,
    "ارک": 7111,
    "▁پنس": 7112,
    "خالف": 7113,
    "▁گارس": 7114,
    "۴۹": 7115,
    "▁بازرگان": 7116,
    "▁بلندپرواز": 7117,
    "▁اغ": 7118,
    "جک": 7119,
    "▁زر": 7120,
    "سارا": 7121,
    "▁غور": 7122,
    "▁بایست": 7123,
    "ریتز": 7124,
    "▁رقبا": 7125,
    "▁امپراتور": 7126,
    "▁مذهب": 7127,
    "▁خف": 7128,
    "▁درصدد": 7129,
    "▁امیدی": 7130,
    "▁تروریست": 7131,
    "▁محت": 7132,
    "یتس": 7133,
    "مجموع": 7134,
    "▁رویدادها": 7135,
    "الیز": 7136,
    "باد": 7137,
    "▁ریلی": 7138,
    "گران": 7139,
    "رژی": 7140,
    "▁دکترا": 7141,
    "▁اکرا": 7142,
    "فاصل": 7143,
    "▁دویدن": 7144,
    "▁برگزارکنند": 7145,
    "ریوس": 7146,
    "بن": 7147,
    "مهم": 7148,
    "▁سوزان": 7149,
    "▁۷۱": 7150,
    "بیت": 7151,
    "▁باخ": 7152,
    "گاتی": 7153,
    "انسون": 7154,
    "▁ندا": 7155,
    "▁مصا": 7156,
    "مونت": 7157,
    "▁پیچید": 7158,
    "▁نهادها": 7159,
    "▁جنب": 7160,
    "باره": 7161,
    "عر": 7162,
    "▁مساعد": 7163,
    "جرد": 7164,
    "اسب": 7165,
    "▁لندر": 7166,
    "تامی": 7167,
    "▁رن": 7168,
    "صلاح": 7169,
    "▁آرن": 7170,
    "افتاده": 7171,
    "خودرو": 7172,
    "قبض": 7173,
    "هوش": 7174,
    "دبیر": 7175,
    "غوری": 7176,
    "کسیون": 7177,
    "مسئول": 7178,
    "نفوذ": 7179,
    "▁فرستادن": 7180,
    "کجاست": 7181,
    "کثیر": 7182,
    "خشکسالی": 7183,
    "صریح": 7184,
    "عزیز": 7185,
    "مناسبت": 7186,
    "کنگره": 7187,
    "منتظر": 7188,
    "تیراندازی": 7189,
    "حداکثر": 7190,
    "حاشیه": 7191,
    "قاسم": 7192,
    "سفارت": 7193,
    "نژاد": 7194,
    "فرهاد": 7195,
    "بارسلونا": 7196,
    "قرنطینه": 7197,
    "کشورهای": 7198,
    "جنوب": 7199,
    "مستند": 7200,
    "میلیارد": 7201,
    "فرمانده": 7202,
    "تجرب": 7203,
    "سپاه": 7204,
    "تایسون": 7205,
    "پادمان": 7206,
    "ابتدا": 7207,
    "تنیس": 7208,
    "اسناد": 7209,
    "۶۷": 7210,
    "ادیوم": 7211,
    "کتاب": 7212,
    "آبی": 7213,
    "۱۴۰۰": 7214,
    "▁آنا": 7215,
    "الگو": 7216,
    "محمدرضا": 7217,
    "تعجب": 7218,
    "گردون": 7219,
    "لیگا": 7220,
    "شعر": 7221,
    "کریست": 7222,
    "بندها": 7223,
    "نمایند": 7224,
    "▁بریم": 7225,
    "▁دژ": 7226,
    "▁بوم": 7227,
    "▁اندرکار": 7228,
    "▁۲۱۰": 7229,
    "▁تق": 7230,
    "راجع": 7231,
    "▁فراخوان": 7232,
    "▁تسلی": 7233,
    "کاسی": 7234,
    "دختر": 7235,
    "▁مافی": 7236,
    "کلا": 7237,
    "گوین": 7238,
    "افزون": 7239,
    "سترازنکا": 7240,
    "رگبار": 7241,
    "موث": 7242,
    "▁مخابر": 7243,
    "ستا": 7244,
    "دنی": 7245,
    "▁الاجرا": 7246,
    "▁شمش": 7247,
    "▁خاشق": 7248,
    "لئوپولد": 7249,
    "▁اختاپوس": 7250,
    "▁اکسیدکربن": 7251,
    "▁بفرستند": 7252,
    "▁حناچی": 7253,
    "▁دموکراسی": 7254,
    "▁دگراندیش": 7255,
    "▁رادیواکتیو": 7256,
    "▁زاکربرگ": 7257,
    "▁سخاوتمند": 7258,
    "▁سرگذاشت": 7259,
    "▁سزاوار": 7260,
    "▁منسجم": 7261,
    "▁منظوم": 7262,
    "▁ناسازگار": 7263,
    "▁نباشند": 7264,
    "▁نیفتاد": 7265,
    "▁هژمون": 7266,
    "▁ژئوفیزیک": 7267,
    "▁تمایز": 7268,
    "▁سارقان": 7269,
    "▁سیگنال": 7270,
    "▁ضابط": 7271,
    "▁غواص": 7272,
    "▁موریکونه": 7273,
    "▁کوواکس": 7274,
    "▁۱۹۶۹": 7275,
    "▁انسولین": 7276,
    "▁تنگاتنگ": 7277,
    "▁ظلم": 7278,
    "▁متوازن": 7279,
    "▁نگیرد": 7280,
    "▁وسواس": 7281,
    "▁انزوا": 7282,
    "▁بازنگشت": 7283,
    "▁بیاورند": 7284,
    "▁مقادیر": 7285,
    "▁رفیق": 7286,
    "▁فرمانروای": 7287,
    "▁جاپلقی": 7288,
    "▁اوزیل": 7289,
    "▁واعظ": 7290,
    "▁موازات": 7291,
    "▁سانتیاگو": 7292,
    "یونیسف": 7293,
    "▁اوزون": 7294,
    "▁هکتار": 7295,
    "▁میچام": 7296,
    "▁پرسنل": 7297,
    "شانت": 7298,
    "▁تومور": 7299,
    "▁ناخودآگاه": 7300,
    "▁حصبه": 7301,
    "▁کانتینر": 7302,
    "▁ژرف": 7303,
    "▁آزاردید": 7304,
    "▁جگوار": 7305,
    "▁آگوست": 7306,
    "▁کبیری": 7307,
    "▁دمکرا": 7308,
    "▁پوینت": 7309,
    "▁تکواندو": 7310,
    "▁باچان": 7311,
    "▁ازبک": 7312,
    "▁تظاهرکنندگان": 7313,
    "▁فرسود": 7314,
    "▁بکنید": 7315,
    "▁کوشنر": 7316,
    "▁ارمجانی": 7317,
    "رالزمان": 7318,
    "▁همفکر": 7319,
    "▁پدربزرگ": 7320,
    "▁رفقا": 7321,
    "▁تایوان": 7322,
    "▁کفایت": 7323,
    "▁حیثیت": 7324,
    "▁صربستان": 7325,
    "▁چرم": 7326,
    "۱۹۶۵": 7327,
    "▁هریرود": 7328,
    "▁بخواب": 7329,
    "▁شارپ": 7330,
    "داعش": 7331,
    "▁جرارد": 7332,
    "▁خلاق": 7333,
    "▁ظالمانه": 7334,
    "▁بخواهند": 7335,
    "▁شادگان": 7336,
    "نتسب": 7337,
    "▁دلنشین": 7338,
    "▁مادام": 7339,
    "▁هتلداران": 7340,
    "▁شنویم": 7341,
    "▁الاجراست": 7342,
    "▁چسبن": 7343,
    "▁تفکر": 7344,
    "▁دوبلور": 7345,
    "▁دامغان": 7346,
    "▁آفرید": 7347,
    "فراگ": 7348,
    "▁فیصل": 7349,
    "لگار": 7350,
    "▁میشود": 7351,
    "▁هندرسون": 7352,
    "▁نابینا": 7353,
    "▁لمب": 7354,
    "▁ناچیز": 7355,
    "▁رینت": 7356,
    "▁بزنیم": 7357,
    "▁ملوان": 7358,
    "▁صفاری": 7359,
    "▁سهمگین": 7360,
    "▁امپرا": 7361,
    "▁کریستی": 7362,
    "▁فرسا": 7363,
    "▁برگرداندن": 7364,
    "تالیا": 7365,
    "▁نخواست": 7366,
    "▁نابویایی": 7367,
    "دهم": 7368,
    "▁شایان": 7369,
    "▁هنک": 7370,
    "▁ارج": 7371,
    "▁۱۹۹۴": 7372,
    "▁بایستند": 7373,
    "▁نشوند": 7374,
    "▁رباب": 7375,
    "▁اسکورسیزی": 7376,
    "▁عبدالسلام": 7377,
    "▁قیصر": 7378,
    "▁سرلشکر": 7379,
    "▁نایتلی": 7380,
    "▁اضافی": 7381,
    "▁عقاب": 7382,
    "▁راسخ": 7383,
    "▁مولد": 7384,
    "▁ناشده": 7385,
    "نشأ": 7386,
    "▁آنجل": 7387,
    "ترانه": 7388,
    "▁چرن": 7389,
    "▁مجرد": 7390,
    "یوئیت": 7391,
    "اطبا": 7392,
    "▁بپذیر": 7393,
    "▁آبراه": 7394,
    "▁تحرکات": 7395,
    "▁فونت": 7396,
    "▁روزافزون": 7397,
    "▁قمار": 7398,
    "▁کوک": 7399,
    "▁مث": 7400,
    "▁مهیب": 7401,
    "▁انرو": 7402,
    "▁بدویا": 7403,
    "▁آغ": 7404,
    "▁سمع": 7405,
    "▁موسیقیدان": 7406,
    "▁سیت": 7407,
    "▁سولو": 7408,
    "▁کمالی": 7409,
    "▁بخواهی": 7410,
    "▁گپ": 7411,
    "▁بشنوید": 7412,
    "▁روستاهای": 7413,
    "▁توئیتر": 7414,
    "▁فا": 7415,
    "▁علام": 7416,
    "▁پرفسور": 7417,
    "▁پاشید": 7418,
    "پو": 7419,
    "▁بریج": 7420,
    "▁یوهان": 7421,
    "▁هک": 7422,
    "▁ستیز": 7423,
    "▁۱۸۸": 7424,
    "▁سوفی": 7425,
    "▁پان": 7426,
    "▁ناسیونالیس": 7427,
    "▁بکر": 7428,
    "نتینو": 7429,
    "▁فراخواند": 7430,
    "▁رابین": 7431,
    "▁تاکسیران": 7432,
    "▁تزار": 7433,
    "گوگوش": 7434,
    "دوران": 7435,
    "لینگ": 7436,
    "▁لوپ": 7437,
    "▁بازنش": 7438,
    "نال": 7439,
    "▁سولار": 7440,
    "▁صبا": 7441,
    "▁تبل": 7442,
    "▁شجاعت": 7443,
    "▁کامران": 7444,
    "▁متال": 7445,
    "▁لینک": 7446,
    "▁تعرض": 7447,
    "▁بشردوست": 7448,
    "▁درخشند": 7449,
    "▁درمیان": 7450,
    "ایش": 7451,
    "فرانسه": 7452,
    "▁کشورهاست": 7453,
    "لاخ": 7454,
    "▁انگل": 7455,
    "▁دوندگان": 7456,
    "انتینو": 7457,
    "▁اتلان": 7458,
    "▁یاسر": 7459,
    "▁ورق": 7460,
    "▁گوست": 7461,
    "▁نایا": 7462,
    "▁پوستر": 7463,
    "▁بدهید": 7464,
    "▁افزارهای": 7465,
    "▁کلوز": 7466,
    "▁اندازند": 7467,
    "▁همتایان": 7468,
    "اسکورت": 7469,
    "▁زای": 7470,
    "دخیل": 7471,
    "▁پاسدار": 7472,
    "▁شنید": 7473,
    "▁افزودند": 7474,
    "خزن": 7475,
    "▁قهری": 7476,
    "هرزاد": 7477,
    "▁کتک": 7478,
    "کیا": 7479,
    "▁سانچ": 7480,
    "▁کوهن": 7481,
    "▁یولیا": 7482,
    "▁نیمروز": 7483,
    "تراپ": 7484,
    "ینچی": 7485,
    "جاست": 7486,
    "▁مشتاقان": 7487,
    "سود": 7488,
    "▁براه": 7489,
    "▁باک": 7490,
    "▁علما": 7491,
    "▁جوانا": 7492,
    "▁فیش": 7493,
    "وئر": 7494,
    "پچو": 7495,
    "فارم": 7496,
    "▁دیا": 7497,
    "▁کانتر": 7498,
    "▁غذاهای": 7499,
    "▁پرای": 7500,
    "▁دوبل": 7501,
    "▁نیوز": 7502,
    "▁افع": 7503,
    "▁گراند": 7504,
    "رزرو": 7505,
    "ریکا": 7506,
    "▁پژوهشهای": 7507,
    "▁عاج": 7508,
    "اثر": 7509,
    "▁نجومی": 7510,
    "▁بنکس": 7511,
    "▁خسرو": 7512,
    "▁نگذاشته": 7513,
    "یلد": 7514,
    "▁خوشایند": 7515,
    "▁منازع": 7516,
    "▁شعرهای": 7517,
    "▁خوردند": 7518,
    "▁تجمعات": 7519,
    "▁آزادگان": 7520,
    "▁آرین": 7521,
    "سازند": 7522,
    "▁نع": 7523,
    "▁مجرمان": 7524,
    "▁برگر": 7525,
    "باط": 7526,
    "ائ": 7527,
    "▁تشوی": 7528,
    "▁یاسم": 7529,
    "▁سبی": 7530,
    "▁کاسی": 7531,
    "▁کاتل": 7532,
    "▁خصوصیات": 7533,
    "▁اینف": 7534,
    "▁استبا": 7535,
    "پانی": 7536,
    "دوزی": 7537,
    "▁۱۰۹": 7538,
    "▁امیرم": 7539,
    "▁نبودند": 7540,
    "▁عطا": 7541,
    "▁کنش": 7542,
    "▁سیمین": 7543,
    "▁شالی": 7544,
    "ریدار": 7545,
    "▁افکند": 7546,
    "داده": 7547,
    "ونیا": 7548,
    "▁ممی": 7549,
    "▁بریتانیاست": 7550,
    "زیست": 7551,
    "▁رادیوی": 7552,
    "▁بازگشتند": 7553,
    "▁بستند": 7554,
    "▁کلت": 7555,
    "▁خاوی": 7556,
    "▁یادم": 7557,
    "▁جون": 7558,
    "▁ارو": 7559,
    "▁زنیم": 7560,
    "▁لوس": 7561,
    "▁هندو": 7562,
    "▁استوایی": 7563,
    "زیر": 7564,
    "تراز": 7565,
    "▁گرداند": 7566,
    "▁مشخصات": 7567,
    "▁مزد": 7568,
    "بیه": 7569,
    "▁فروشد": 7570,
    "▁تدا": 7571,
    "▁اسلو": 7572,
    "▁سکو": 7573,
    "▁حکمت": 7574,
    "▁رید": 7575,
    "▁ارغ": 7576,
    "▁منفور": 7577,
    "▁خاوری": 7578,
    "▁مولان": 7579,
    "▁۱۷۴": 7580,
    "▁روزبه": 7581,
    "▁بازیکنانش": 7582,
    "ثر": 7583,
    "▁نازل": 7584,
    "▁آنهاست": 7585,
    "▁میخ": 7586,
    "اسنو": 7587,
    "▁نیوت": 7588,
    "▁یانگ": 7589,
    "کرده": 7590,
    "یتونا": 7591,
    "▁ماجراجو": 7592,
    "▁همسران": 7593,
    "▁درهم": 7594,
    "حرف": 7595,
    "▁مسیری": 7596,
    "▁پرستار": 7597,
    "▁دوسال": 7598,
    "▁بایستی": 7599,
    "▁اعم": 7600,
    "وین": 7601,
    "▁تحرکی": 7602,
    "▁تونسی": 7603,
    "▁شکوف": 7604,
    "اطی": 7605,
    "▁بیکاران": 7606,
    "▁آلت": 7607,
    "▁شرکتها": 7608,
    "ورود": 7609,
    "پدیده": 7610,
    "۲۱": 7611,
    "رمان": 7612,
    "نسیم": 7613,
    "طف": 7614,
    "ودن": 7615,
    "▁لیلا": 7616,
    "▁هیو": 7617,
    "صل": 7618,
    "باسی": 7619,
    "امید": 7620,
    "دگان": 7621,
    "▁استوار": 7622,
    "▁۱۸۹": 7623,
    "وما": 7624,
    "نسل": 7625,
    "▁شجاعی": 7626,
    "▁اشتباهی": 7627,
    "▁بک": 7628,
    "▁بنگا": 7629,
    "▁لویی": 7630,
    "▁محوری": 7631,
    "▁خوشنو": 7632,
    "کافی": 7633,
    "فرام": 7634,
    "۳۶۰": 7635,
    "ایان": 7636,
    "▁جید": 7637,
    "▁برنا": 7638,
    "▁زنم": 7639,
    "تد": 7640,
    "اویر": 7641,
    "شمال": 7642,
    "▁نیلی": 7643,
    "خو": 7644,
    "▁دلیلش": 7645,
    "کردن": 7646,
    "خانی": 7647,
    "ارجه": 7648,
    "▁کلیو": 7649,
    "▁غی": 7650,
    "▁کات": 7651,
    "عمل": 7652,
    "▁۱۲۵": 7653,
    "۹۷": 7654,
    "۳۳": 7655,
    "بنیا": 7656,
    "▁۱۳۲": 7657,
    "▁توافقات": 7658,
    "تقبل": 7659,
    "▁نف": 7660,
    "▁لوک": 7661,
    "نشان": 7662,
    "▁۶۶": 7663,
    "پول": 7664,
    "دفو": 7665,
    "▁زیباتر": 7666,
    "۸۰": 7667,
    "▁پولهای": 7668,
    "کلیف": 7669,
    "توت": 7670,
    "▁سینا": 7671,
    "غلو": 7672,
    "شکر": 7673,
    "ماجرا": 7674,
    "یکون": 7675,
    "قهرمان": 7676,
    "▁محبو": 7677,
    "▁فیلی": 7678,
    "زر": 7679,
    "بازد": 7680,
    "▁اوکا": 7681,
    "جام": 7682,
    "وط": 7683,
    "▁شغلها": 7684,
    "▁عبد": 7685,
    "▁حسابدار": 7686,
    "▁یوسف": 7687,
    "▁هلندی": 7688,
    "۰۰۰": 7689,
    "▁اصولگرا": 7690,
    "▁بقا": 7691,
    "گزا": 7692,
    "ارکان": 7693,
    "▁طاهر": 7694,
    "نفت": 7695,
    "▁نمک": 7696,
    "▁مطهر": 7697,
    "▁فعل": 7698,
    "▁بعض": 7699,
    "▁سخنگو": 7700,
    "▁کاف": 7701,
    "صله": 7702,
    "▁دزد": 7703,
    "امد": 7704,
    "▁نواخت": 7705,
    "▁سرم": 7706,
    "▁جعفر": 7707,
    "▁فلم": 7708,
    "▁بازو": 7709,
    "▁چش": 7710,
    "بول": 7711,
    "رانر": 7712,
    "وپ": 7713,
    "▁دوک": 7714,
    "▁۱۰۲": 7715,
    "سوی": 7716,
    "▁نگذاشت": 7717,
    "▁لیم": 7718,
    "کلاس": 7719,
    "ورانه": 7720,
    "رویز": 7721,
    "▁گفتم": 7722,
    "▁نامند": 7723,
    "▁مواج": 7724,
    "▁بهرامی": 7725,
    "▁ناک": 7726,
    "▁نوزده": 7727,
    "▁کوچ": 7728,
    "▁ندید": 7729,
    "گردانی": 7730,
    "▁سناریو": 7731,
    "▁اسکا": 7732,
    "ارگ": 7733,
    "▁سلب": 7734,
    "نوی": 7735,
    "دوستان": 7736,
    "سرجی": 7737,
    "بازیکن": 7738,
    "▁گوا": 7739,
    "▁مبنا": 7740,
    "▁نیافتن": 7741,
    "▁اپراتور": 7742,
    "▁جیم": 7743,
    "ریان": 7744,
    "پوش": 7745,
    "اعتراض": 7746,
    "مکزیکو": 7747,
    "انتخاب": 7748,
    "▁جمل": 7749,
    "▁دیپلم": 7750,
    "بزرگ": 7751,
    "آموز": 7752,
    "زندگی": 7753,
    "نژادپرست": 7754,
    "اتهامات": 7755,
    "ضرور": 7756,
    "آکادمی": 7757,
    "مسعود": 7758,
    "پالایشگاه": 7759,
    "اتفاقات": 7760,
    "انچین": 7761,
    "تخریب": 7762,
    "جوایز": 7763,
    "مطالع": 7764,
    "قسمت": 7765,
    "▁اصولی": 7766,
    "جنجال": 7767,
    "حذف": 7768,
    "لحظ": 7769,
    "فرصت": 7770,
    "اسرائیل": 7771,
    "صعود": 7772,
    "جشنواره": 7773,
    "گمرک": 7774,
    "بحران": 7775,
    "محدودیت": 7776,
    "دانشگاه": 7777,
    "آزادی": 7778,
    "ترکیب": 7779,
    "پاسخ": 7780,
    "ساعت": 7781,
    "آتش": 7782,
    "بازدید": 7783,
    "نزدیک": 7784,
    "سبد": 7785,
    "سیستم": 7786,
    "▁مجل": 7787,
    "واکسن": 7788,
    "تاریخ": 7789,
    "ایلنا": 7790,
    "تابستان": 7791,
    "درحالی": 7792,
    "▁ایرلندی": 7793,
    "رفت": 7794,
    "حقوق": 7795,
    "دقیق": 7796,
    "قرارداد": 7797,
    "▁کوئی": 7798,
    "هموار": 7799,
    "فیروز": 7800,
    "یوآ": 7801,
    "رفتن": 7802,
    "بیماری": 7803,
    "▁۳۳۰": 7804,
    "دریایی": 7805,
    "▁هوشی": 7806,
    "▁اپ": 7807,
    "▁کاپ": 7808,
    "مرور": 7809,
    "▁پترو": 7810,
    "رییس": 7811,
    "نتین": 7812,
    "بازیکنان": 7813,
    "لار": 7814,
    "نوشت": 7815,
    "صال": 7816,
    "کیت": 7817,
    "▁تفنگ": 7818,
    "ربط": 7819,
    "نمود": 7820,
    "مشق": 7821,
    "▁سوز": 7822,
    "انیس": 7823,
    "▁۲۹۰": 7824,
    "▁سفیدپوست": 7825,
    "وشن": 7826,
    "▁۲۰۵": 7827,
    "مردان": 7828,
    "حکم": 7829,
    "▁جولیا": 7830,
    "▁کرای": 7831,
    "▁مقاوم": 7832,
    "▁گوهر": 7833,
    "▁۲۵۰۰": 7834,
    "واضع": 7835,
    "نازل": 7836,
    "▁ترفند": 7837,
    "حبی": 7838,
    "▁مکالم": 7839,
    "سرع": 7840,
    "وکارها": 7841,
    "▁نگو": 7842,
    "رگامو": 7843,
    "▁رونالد": 7844,
    "شابه": 7845,
    "▁۲۴۰": 7846,
    "▁الشع": 7847,
    "▁تشعشع": 7848,
    "▁آکسفام": 7849,
    "▁اوزبیک": 7850,
    "▁برافراشت": 7851,
    "▁بیندازد": 7852,
    "▁توفندها": 7853,
    "▁دزفول": 7854,
    "▁دگرباش": 7855,
    "▁رامهرمز": 7856,
    "▁زراعت": 7857,
    "▁سوراخ": 7858,
    "▁فستیوال": 7859,
    "▁قزوین": 7860,
    "▁مارگاریتا": 7861,
    "▁مفاهیم": 7862,
    "▁ننگرهار": 7863,
    "▁کوکائین": 7864,
    "▁اصغر": 7865,
    "▁سولیوان": 7866,
    "▁عنایت": 7867,
    "▁متضاد": 7868,
    "▁نباشید": 7869,
    "▁نپذیرفت": 7870,
    "▁هیدروژن": 7871,
    "▁چسباند": 7872,
    "▁اوقاف": 7873,
    "▁بیندازند": 7874,
    "▁زوایا": 7875,
    "▁سیاهپوست": 7876,
    "▁ناپایدار": 7877,
    "▁۲۰۳۵": 7878,
    "▁مردخای": 7879,
    "▁بیضایی": 7880,
    "▁لغز": 7881,
    "▁پرتوافشانی": 7882,
    "▁غزنوی": 7883,
    "▁مطیع": 7884,
    "▁مجارستان": 7885,
    "▁نقیض": 7886,
    "▁مقاطع": 7887,
    "▁تراشید": 7888,
    "▁فرهیخت": 7889,
    "▁اتمسفر": 7890,
    "▁ایرلاین": 7891,
    "▁برنامک": 7892,
    "▁پاستور": 7893,
    "▁فاسد": 7894,
    "▁زیراتمی": 7895,
    "▁تجسس": 7896,
    "▁سرامیک": 7897,
    "▁بنکدارپور": 7898,
    "▁لرزاند": 7899,
    "▁بشود": 7900,
    "▁نیکزاد": 7901,
    "معجزه": 7902,
    "▁گلیزر": 7903,
    "▁فواید": 7904,
    "▁یقین": 7905,
    "▁عزل": 7906,
    "▁گوارش": 7907,
    "▁کابوس": 7908,
    "▁آپوف": 7909,
    "▁تسخیر": 7910,
    "▁زشت": 7911,
    "▁برنگرداند": 7912,
    "▁آستین": 7913,
    "▁دیزل": 7914,
    "▁برنگشت": 7915,
    "▁ندارید": 7916,
    "▁جادوگر": 7917,
    "▁تقلا": 7918,
    "▁تمیز": 7919,
    "▁خویشتن": 7920,
    "▁شنوند": 7921,
    "▁دروغگو": 7922,
    "▁شادمان": 7923,
    "▁مادربزرگ": 7924,
    "▁مفسر": 7925,
    "▁مالزی": 7926,
    "▁الجز": 7927,
    "۱۹۶۴": 7928,
    "▁بلندپایه": 7929,
    "▁غذاخور": 7930,
    "حشمت": 7931,
    "▁یدک": 7932,
    "▁آوینی": 7933,
    "▁سلیق": 7934,
    "▁بمیرد": 7935,
    "▁مغایر": 7936,
    "▁چوپ": 7937,
    "▁انصاری": 7938,
    "▁هیوستون": 7939,
    "▁دفع": 7940,
    "▁سازگار": 7941,
    "▁تخار": 7942,
    "▁تربت": 7943,
    "▁بیایند": 7944,
    "▁شروط": 7945,
    "▁ژائو": 7946,
    "▁نیابت": 7947,
    "▁شوشتر": 7948,
    "▁مجزا": 7949,
    "▁انعکاس": 7950,
    "▁زهیر": 7951,
    "▁تمجید": 7952,
    "▁میدهد": 7953,
    "▁آنچنان": 7954,
    "انطب": 7955,
    "▁مشروعیت": 7956,
    "الاح": 7957,
    "▁مخوف": 7958,
    "▁نثر": 7959,
    "▁۱۹۷۹": 7960,
    "آنگولا": 7961,
    "▁آسود": 7962,
    "▁بپردازند": 7963,
    "▁حشرات": 7964,
    "▁عبادی": 7965,
    "ناگلزم": 7966,
    "▁صفوف": 7967,
    "▁معصوم": 7968,
    "وبیل": 7969,
    "▁سرپوش": 7970,
    "مختار": 7971,
    "ولوو": 7972,
    "▁دانید": 7973,
    "▁هنکس": 7974,
    "▁مجلات": 7975,
    "▁کاسپی": 7976,
    "▁جهنم": 7977,
    "▁آموس": 7978,
    "▁وانگ": 7979,
    "▁وجدان": 7980,
    "▁راجپوت": 7981,
    "▁لافرته": 7982,
    "▁خجالت": 7983,
    "▁عذاب": 7984,
    "▁عبدالرحم": 7985,
    "▁بلاتکلیفی": 7986,
    "▁ماوریک": 7987,
    "▁خلبان": 7988,
    "▁امپر": 7989,
    "▁بخوانند": 7990,
    "▁مالباخت": 7991,
    "▁گوترش": 7992,
    "▁بانکوک": 7993,
    "▁دستمزدها": 7994,
    "▁نوابی": 7995,
    "▁معنادار": 7996,
    "▁قبایل": 7997,
    "▁چفرین": 7998,
    "▁ستود": 7999,
    "▁ذوال": 8000,
    "▁خطاهای": 8001,
    "وشو": 8002,
    "▁کاردوس": 8003,
    "▁بیگم": 8004,
    "▁چشید": 8005,
    "▁حض": 8006,
    "▁هموطنان": 8007,
    "▁چندرایان": 8008,
    "ورلد": 8009,
    "▁لاهه": 8010,
    "اندز": 8011,
    "▁دلسوز": 8012,
    "خرید": 8013,
    "▁درخشد": 8014,
    "▁قلمرو": 8015,
    "تعلل": 8016,
    "▁غزل": 8017,
    "▁رسیم": 8018,
    "▁دادخواست": 8019,
    "گوئه": 8020,
    "▁خودمختار": 8021,
    "متاز": 8022,
    "▁اژدها": 8023,
    "▁لنز": 8024,
    "▁شیاد": 8025,
    "▁تراژ": 8026,
    "▁بدیع": 8027,
    "پایان": 8028,
    "▁پردازش": 8029,
    "▁کمربندهای": 8030,
    "مدیران": 8031,
    "▁اجداد": 8032,
    "▁شراب": 8033,
    "▁نمودار": 8034,
    "شکنی": 8035,
    "▁اعترافات": 8036,
    "نیتو": 8037,
    "▁وارث": 8038,
    "▁کوثر": 8039,
    "▁اشکالات": 8040,
    "▁فاکتور": 8041,
    "▁پرکار": 8042,
    "▁قارچ": 8043,
    "▁توتال": 8044,
    "▁وفا": 8045,
    "ربین": 8046,
    "داشتن": 8047,
    "▁شاهکارهای": 8048,
    "▁ویرانگر": 8049,
    "تص": 8050,
    "▁بادام": 8051,
    "▁دوید": 8052,
    "▁اخطارهای": 8053,
    "محسن": 8054,
    "▁ماهیان": 8055,
    "▁سرزن": 8056,
    "▁زادروز": 8057,
    "▁۱۱۹": 8058,
    "▁فلزات": 8059,
    "▁زینب": 8060,
    "▁حرا": 8061,
    "▁آرنو": 8062,
    "▁پارکور": 8063,
    "▁ترکمان": 8064,
    "▁زوم": 8065,
    "▁وفن": 8066,
    "▁نماید": 8067,
    "▁ندادند": 8068,
    "▁الکترودها": 8069,
    "▁شمرد": 8070,
    "▁پسا": 8071,
    "▁۲۱۶": 8072,
    "فورا": 8073,
    "▁فوب": 8074,
    "▁کورین": 8075,
    "▁۱۵۵": 8076,
    "▁اکثرا": 8077,
    "▁کریر": 8078,
    "▁بزرگسالان": 8079,
    "دلایل": 8080,
    "▁کویت": 8081,
    "▁محی": 8082,
    "ینیو": 8083,
    "▁حقوقدان": 8084,
    "اسیرو": 8085,
    "▁خالد": 8086,
    "▁خطاط": 8087,
    "▁افشاگر": 8088,
    "▁میناری": 8089,
    "▁کشیم": 8090,
    "▁دیابت": 8091,
    "▁هادرون": 8092,
    "رات": 8093,
    "▁ریختن": 8094,
    "▁نیر": 8095,
    "▁ایگ": 8096,
    "اردی": 8097,
    "▁اقسا": 8098,
    "▁گذراندم": 8099,
    "آما": 8100,
    "تجمع": 8101,
    "▁گراز": 8102,
    "آفرینی": 8103,
    "▁کولبران": 8104,
    "▁لج": 8105,
    "▁شرت": 8106,
    "▁مشاهدات": 8107,
    "▁محص": 8108,
    "▁سیاستگذار": 8109,
    "▁یونه": 8110,
    "▁مکزیکو": 8111,
    "▁امضاکنند": 8112,
    "▁کنگو": 8113,
    "▁آورید": 8114,
    "▁لیو": 8115,
    "مانیا": 8116,
    "▁بکت": 8117,
    "پرستانه": 8118,
    "▁خش": 8119,
    "نجی": 8120,
    "انریک": 8121,
    "▁برگشتند": 8122,
    "▁رخدادهای": 8123,
    "▁تویی": 8124,
    "▁آمری": 8125,
    "▁سناریوها": 8126,
    "▁مورفی": 8127,
    "▁خا": 8128,
    "▁بندهای": 8129,
    "▁همهمه": 8130,
    "▁دز": 8131,
    "▁دوهزار": 8132,
    "تمامی": 8133,
    "▁چهارده": 8134,
    "▁پشتکار": 8135,
    "▁ترسید": 8136,
    "▁ابط": 8137,
    "▁سخ": 8138,
    "▁حوت": 8139,
    "شکاف": 8140,
    "▁آرت": 8141,
    "فرانس": 8142,
    "▁شرعی": 8143,
    "▁نظ": 8144,
    "ولز": 8145,
    "چار": 8146,
    "▁حک": 8147,
    "▁خصوصا": 8148,
    "▁اسما": 8149,
    "وماگا": 8150,
    "موت": 8151,
    "ئیت": 8152,
    "▁آلک": 8153,
    "لسون": 8154,
    "▁گاردن": 8155,
    "▁گنجان": 8156,
    "صیر": 8157,
    "▁تجسمی": 8158,
    "▁ساچ": 8159,
    "▁خودکار": 8160,
    "خوش": 8161,
    "▁هیپ": 8162,
    "▁عطار": 8163,
    "▁جسی": 8164,
    "عود": 8165,
    "وشیرو": 8166,
    "▁لینگ": 8167,
    "▁طبقات": 8168,
    "▁بیگان": 8169,
    "▁کلینت": 8170,
    "▁نایت": 8171,
    "▁وول": 8172,
    "مینا": 8173,
    "▁اورک": 8174,
    "▁وتو": 8175,
    "شوه": 8176,
    "▁یوسفی": 8177,
    "بهترین": 8178,
    "▁پارو": 8179,
    "▁لوت": 8180,
    "▁هایپر": 8181,
    "▁همگان": 8182,
    "زود": 8183,
    "▁کیش": 8184,
    "وانیم": 8185,
    "ترک": 8186,
    "ضب": 8187,
    "▁دیرین": 8188,
    "زاد": 8189,
    "تقابل": 8190,
    "پالا": 8191,
    "▁غیرعم": 8192,
    "▁گرون": 8193,
    "▁زدم": 8194,
    "▁بیک": 8195,
    "شهرهای": 8196,
    "▁بلندپروازی": 8197,
    "۸۱": 8198,
    "جیل": 8199,
    "▁بدو": 8200,
    "▁تایی": 8201,
    "▁استرلی": 8202,
    "نخ": 8203,
    "▁اندرو": 8204,
    "▁اورگ": 8205,
    "فهمد": 8206,
    "▁تیز": 8207,
    "▁دانستم": 8208,
    "▁سودجو": 8209,
    "▁بنام": 8210,
    "▁غوری": 8211,
    "۴۴": 8212,
    "۱۲": 8213,
    "▁دوآ": 8214,
    "ورس": 8215,
    "▁شورشی": 8216,
    "▁رجبی": 8217,
    "▁۱۳۸۶": 8218,
    "لنگر": 8219,
    "تعدادی": 8220,
    "کسان": 8221,
    "لیا": 8222,
    "▁برپا": 8223,
    "ونکو": 8224,
    "هاب": 8225,
    "▁گود": 8226,
    "▁سروده": 8227,
    "▁فتو": 8228,
    "تاد": 8229,
    "▁دکترای": 8230,
    "بوک": 8231,
    "شاره": 8232,
    "ردام": 8233,
    "▁رازی": 8234,
    "نویس": 8235,
    "▁کوبی": 8236,
    "▁کلک": 8237,
    "سوری": 8238,
    "سپی": 8239,
    "▁نر": 8240,
    "ئوس": 8241,
    "▁میزبانش": 8242,
    "شدن": 8243,
    "کوئ": 8244,
    "▁فرودست": 8245,
    "▁پوک": 8246,
    "▁فاک": 8247,
    "▁جهانبخ": 8248,
    "یکایی": 8249,
    "▁هرسال": 8250,
    "▁صدایی": 8251,
    "اوا": 8252,
    "▁ضمی": 8253,
    "ذا": 8254,
    "▁فیو": 8255,
    "گور": 8256,
    "ریو": 8257,
    "فرود": 8258,
    "راندن": 8259,
    "▁گذاریم": 8260,
    "ولین": 8261,
    "▁مارین": 8262,
    "▁مشروع": 8263,
    "▁آمونی": 8264,
    "▁جوری": 8265,
    "▁احرا": 8266,
    "یکپا": 8267,
    "اشک": 8268,
    "روها": 8269,
    "چنین": 8270,
    "انح": 8271,
    "پایه": 8272,
    "▁دلو": 8273,
    "بندند": 8274,
    "خاطره": 8275,
    "اسکا": 8276,
    "یتز": 8277,
    "▁الف": 8278,
    "▁بلیک": 8279,
    "فال": 8280,
    "▁شدایران": 8281,
    "اهی": 8282,
    "▁فاکس": 8283,
    "▁کاپل": 8284,
    "▁سالروز": 8285,
    "▁عس": 8286,
    "▁۴۲۰": 8287,
    "▁پرستاره": 8288,
    "وفق": 8289,
    "فاق": 8290,
    "الین": 8291,
    "▁اخت": 8292,
    "ملی": 8293,
    "روا": 8294,
    "▁آش": 8295,
    "▁سامانی": 8296,
    "پار": 8297,
    "▁ونت": 8298,
    "▁بیند": 8299,
    "▁چنگ": 8300,
    "▁ولاد": 8301,
    "▁کارکنانش": 8302,
    "گردانده": 8303,
    "▁ناامیدی": 8304,
    "▁همپ": 8305,
    "خوانده": 8306,
    "وکس": 8307,
    "▁۱۶۶": 8308,
    "لیتو": 8309,
    "▁نزده": 8310,
    "▁اکو": 8311,
    "ارض": 8312,
    "▁ازد": 8313,
    "وردی": 8314,
    "▁هوم": 8315,
    "▁نروژی": 8316,
    "کات": 8317,
    "پژوه": 8318,
    "▁فره": 8319,
    "الوح": 8320,
    "▁العم": 8321,
    "▁استودیوی": 8322,
    "وست": 8323,
    "جاسوسی": 8324,
    "▁قضا": 8325,
    "▁سرگرفت": 8326,
    "▁آموختن": 8327,
    "گرایی": 8328,
    "▁ناخ": 8329,
    "رونا": 8330,
    "▁متو": 8331,
    "▁سفرش": 8332,
    "▁گرجستان": 8333,
    "ستراز": 8334,
    "▁شوی": 8335,
    "▁کلن": 8336,
    "وسی": 8337,
    "▁شاد": 8338,
    "▁نتوا": 8339,
    "▁کنارش": 8340,
    "جات": 8341,
    "▁جوانب": 8342,
    "تامین": 8343,
    "سیل": 8344,
    "بریتی": 8345,
    "▁نیرومند": 8346,
    "برو": 8347,
    "نگاره": 8348,
    "▁دستورها": 8349,
    "رسید": 8350,
    "گستر": 8351,
    "▁کیک": 8352,
    "▁دیواره": 8353,
    "▁ساسان": 8354,
    "▁شوخ": 8355,
    "▁مزایا": 8356,
    "باف": 8357,
    "▁خانوارها": 8358,
    "په": 8359,
    "خارج": 8360,
    "▁الم": 8361,
    "▁وزر": 8362,
    "عم": 8363,
    "اونت": 8364,
    "▁تجسم": 8365,
    "شاملو": 8366,
    "دارا": 8367,
    "▁والن": 8368,
    "ابن": 8369,
    "کانس": 8370,
    "هیج": 8371,
    "▁هواپیماها": 8372,
    "▁لیمو": 8373,
    "▁پیشگیر": 8374,
    "▁فاین": 8375,
    "▁نخ": 8376,
    "▁بویی": 8377,
    "▁حیا": 8378,
    "موسی": 8379,
    "نتس": 8380,
    "محل": 8381,
    "▁فروخت": 8382,
    "گارد": 8383,
    "▁چیزها": 8384,
    "گذران": 8385,
    "▁نجفی": 8386,
    "▁پهن": 8387,
    "پینو": 8388,
    "▁معوق": 8389,
    "کریس": 8390,
    "▁چشمم": 8391,
    "رجان": 8392,
    "▁رحیم": 8393,
    "▁۴۸۰": 8394,
    "▁مسیرها": 8395,
    "ناوب": 8396,
    "▁نتوان": 8397,
    "فعال": 8398,
    "اسپوت": 8399,
    "انیو": 8400,
    "▁منسو": 8401,
    "ستحکم": 8402,
    "▁هوگ": 8403,
    "▁۱۳۱": 8404,
    "رویا": 8405,
    "نهادهای": 8406,
    "حکام": 8407,
    "فاضل": 8408,
    "بیانسه": 8409,
    "گمش": 8410,
    "تحرک": 8411,
    "نشدنی": 8412,
    "سنده": 8413,
    "تابعیت": 8414,
    "بیورن": 8415,
    "صرب": 8416,
    "لاپورتا": 8417,
    "اقبال": 8418,
    "روبرت": 8419,
    "بالگرد": 8420,
    "منتف": 8421,
    "ادعا": 8422,
    "خروج": 8423,
    "ابراهیم": 8424,
    "جسد": 8425,
    "خاوران": 8426,
    "سوئیس": 8427,
    "رونالدو": 8428,
    "برزیل": 8429,
    "نیویورک": 8430,
    "رویترز": 8431,
    "رئال": 8432,
    "اظهارات": 8433,
    "نویسندگان": 8434,
    "فضای": 8435,
    "سفیر": 8436,
    "سقوط": 8437,
    "رکود": 8438,
    "کودک": 8439,
    "صنعت": 8440,
    "حکومت": 8441,
    "عملکرد": 8442,
    "آزمایش": 8443,
    "عربستان": 8444,
    "حمایت": 8445,
    "توافق": 8446,
    "افراد": 8447,
    "فیفا": 8448,
    "جشن": 8449,
    "خدم": 8450,
    "جمهوری": 8451,
    "پیکر": 8452,
    "خواننده": 8453,
    "چاپ": 8454,
    "ماشین": 8455,
    "علنی": 8456,
    "مدیرکل": 8457,
    "وضعیت": 8458,
    "نوسان": 8459,
    "▁فرن": 8460,
    "پرونده": 8461,
    "خیز": 8462,
    "کنفرانس": 8463,
    "مالک": 8464,
    "حساب": 8465,
    "مکرون": 8466,
    "جنسی": 8467,
    "سناتور": 8468,
    "▁آندریا": 8469,
    "▁اپی": 8470,
    "توییت": 8471,
    "شستن": 8472,
    "هجوم": 8473,
    "پهن": 8474,
    "اندرو": 8475,
    "کیهان": 8476,
    "سبک": 8477,
    "خود": 8478,
    "ایرنا": 8479,
    "جمله": 8480,
    "جیمز": 8481,
    "راکت": 8482,
    "یناتور": 8483,
    "فره": 8484,
    "سیمون": 8485,
    "گردیم": 8486,
    "اقدام": 8487,
    "▁قای": 8488,
    "بدهی": 8489,
    "حکمت": 8490,
    "گرفتن": 8491,
    "مدیریت": 8492,
    "سنج": 8493,
    "قبلا": 8494,
    "گمان": 8495,
    "درباره": 8496,
    "ناسا": 8497,
    "▁۱۲۶": 8498,
    "مصرف": 8499,
    "سورها": 8500,
    "وکیل": 8501,
    "رشا": 8502,
    "میلان": 8503,
    "هفتم": 8504,
    "ناوگان": 8505,
    "چو": 8506,
    "وشکن": 8507,
    "درخواست": 8508,
    "▁کثی": 8509,
    "سیاسی": 8510,
    "▁اوب": 8511,
    "سینما": 8512,
    "ورنتین": 8513,
    "سیاست": 8514,
    "ناتالی": 8515,
    "▁گنا": 8516,
    "▁مختص": 8517,
    "▁انع": 8518,
    "بولت": 8519,
    "نقا": 8520,
    "پپ": 8521,
    "▁صیاد": 8522,
    "حک": 8523,
    "▁فلامینگو": 8524,
    "دوست": 8525,
    "اسکار": 8526,
    "▁همسایگ": 8527,
    "دستور": 8528,
    "بنز": 8529,
    "▁داینا": 8530,
    "پوشان": 8531,
    "قول": 8532,
    "شنود": 8533,
    "دوج": 8534,
    "▁توئیت": 8535,
    "سوخت": 8536,
    "یکصد": 8537,
    "▁اط": 8538,
    "احسا": 8539,
    "باستان": 8540,
    "شکست": 8541,
    "طابق": 8542,
    "▁شراف": 8543,
    "کشف": 8544,
    "▁زحم": 8545,
    "▁قبای": 8546,
    "گیرند": 8547,
    "▁بحری": 8548,
    "▁مطبوع": 8549,
    "لگرام": 8550,
    "لوح": 8551,
    "نادر": 8552,
    "▁وسای": 8553,
    "جنگ": 8554,
    "نقش": 8555,
    "قیق": 8556,
    "لوگ": 8557,
    "تروئ": 8558,
    "▁ابتذال": 8559,
    "▁انقباض": 8560,
    "▁اوگوپوگو": 8561,
    "▁برگردانند": 8562,
    "▁بشناسد": 8563,
    "▁بورکینافاسو": 8564,
    "▁تماشگر": 8565,
    "▁تمسخر": 8566,
    "▁خاستگاه": 8567,
    "▁سوسیالیست": 8568,
    "▁طنزپرداز": 8569,
    "▁فانخیو": 8570,
    "▁فلسفی": 8571,
    "▁فیزیولوژی": 8572,
    "▁متقلب": 8573,
    "▁ناآشنا": 8574,
    "▁هخامنشی": 8575,
    "▁هنجار": 8576,
    "▁پرسورینس": 8577,
    "▁پرینسخرا": 8578,
    "▁پورنوگرافی": 8579,
    "▁اقوام": 8580,
    "▁بشنوند": 8581,
    "▁بفرستد": 8582,
    "▁سوبرانا": 8583,
    "▁فیزیوتراپ": 8584,
    "▁شریعت": 8585,
    "▁قیراط": 8586,
    "▁مفسد": 8587,
    "▁ناظمی": 8588,
    "▁خویشاوند": 8589,
    "▁مشهود": 8590,
    "▁میکروسکوپ": 8591,
    "▁هورمون": 8592,
    "▁وسعت": 8593,
    "▁کاریکاتور": 8594,
    "▁شیطان": 8595,
    "▁مغانلو": 8596,
    "▁بپرسید": 8597,
    "▁تشریفات": 8598,
    "▁همجوار": 8599,
    "▁حروف": 8600,
    "الشهدا": 8601,
    "▁برسانیم": 8602,
    "▁شرمسار": 8603,
    "▁معشوق": 8604,
    "▁معضل": 8605,
    "▁اساتید": 8606,
    "▁وصیت": 8607,
    "▁انحراف": 8608,
    "▁نوترینو": 8609,
    "▁فرستند": 8610,
    "▁جوابگوی": 8611,
    "▁تمهید": 8612,
    "▁لوکزامبورگ": 8613,
    "▁بگریز": 8614,
    "▁فرخزاد": 8615,
    "▁نزاع": 8616,
    "▁مقبول": 8617,
    "▁جانبازان": 8618,
    "▁معبد": 8619,
    "▁ارنست": 8620,
    "▁بازگردم": 8621,
    "▁گمپرت": 8622,
    "▁بیفتند": 8623,
    "▁نرساند": 8624,
    "▁نخاع": 8625,
    "▁پاندمی": 8626,
    "▁بازدارند": 8627,
    "▁مصادیق": 8628,
    "صنوف": 8629,
    "▁اولیانوف": 8630,
    "▁پوسید": 8631,
    "▁ناخدا": 8632,
    "▁تدارک": 8633,
    "▁سروصدا": 8634,
    "▁گزاف": 8635,
    "▁۵۳ساله": 8636,
    "▁طلسم": 8637,
    "▁فورهند": 8638,
    "▁تعلیم": 8639,
    "▁ارباب": 8640,
    "▁سمنزا": 8641,
    "▁بازوبند": 8642,
    "▁هیلتون": 8643,
    "▁حماس": 8644,
    "▁موازن": 8645,
    "▁المپی": 8646,
    "▁آژیر": 8647,
    "▁همینگوی": 8648,
    "▁طومار": 8649,
    "▁علیشاهی": 8650,
    "▁بردارم": 8651,
    "▁دیلن": 8652,
    "▁الخروج": 8653,
    "▁نوشتارها": 8654,
    "▁فرمایش": 8655,
    "▁اسکلت": 8656,
    "▁فرازمینی": 8657,
    "▁غمگین": 8658,
    "▁بنرهای": 8659,
    "▁صداقت": 8660,
    "▁بسط": 8661,
    "▁سوینتن": 8662,
    "▁کوئینز": 8663,
    "▁گمارد": 8664,
    "▁سرسبز": 8665,
    "▁الفبا": 8666,
    "▁سیندمی": 8667,
    "▁فیض": 8668,
    "رپیچ": 8669,
    "▁آقاخان": 8670,
    "اسرای": 8671,
    "▁صدیق": 8672,
    "▁بنویسد": 8673,
    "▁خوشبو": 8674,
    "▁فاضلاب": 8675,
    "▁ماورا": 8676,
    "▁کانتونا": 8677,
    "▁مشکاتیان": 8678,
    "اطع": 8679,
    "▁نافرجام": 8680,
    "▁ویسکانس": 8681,
    "▁ونوس": 8682,
    "▁محصور": 8683,
    "▁افراز": 8684,
    "▁بارکلی": 8685,
    "▁ترفتال": 8686,
    "▁نویدبخش": 8687,
    "▁آتلانتا": 8688,
    "▁تظاهر": 8689,
    "▁آجر": 8690,
    "▁قدیس": 8691,
    "▁ستیزانه": 8692,
    "▁سنجاب": 8693,
    "▁۱۳۲۳": 8694,
    "▁اوتیسم": 8695,
    "▁منحنی": 8696,
    "▁آتلانت": 8697,
    "▁فدریک": 8698,
    "▁معابد": 8699,
    "▁تشابه": 8700,
    "▁روباه": 8701,
    "▁تنبل": 8702,
    "▁دارالا": 8703,
    "▁مرندی": 8704,
    "▁دایم": 8705,
    "طغ": 8706,
    "▁گنبد": 8707,
    "▁فاصل": 8708,
    "▁الاه": 8709,
    "▁۷۶۰": 8710,
    "▁دفعات": 8711,
    "▁ایرایی": 8712,
    "▁گچ": 8713,
    "▁۵۵۶": 8714,
    "▁بامیه": 8715,
    "▁طو": 8716,
    "▁خرنامه": 8717,
    "▁گیج": 8718,
    "▁بازوهای": 8719,
    "ارزپاشی": 8720,
    "▁گاف": 8721,
    "▁۱۹۴۴": 8722,
    "▁رجیس": 8723,
    "همکاری": 8724,
    "▁همبازی": 8725,
    "▁محک": 8726,
    "دائی": 8727,
    "▁هالووین": 8728,
    "▁مرورگر": 8729,
    "▁فرشید": 8730,
    "▁مارلی": 8731,
    "پوآ": 8732,
    "▁کاترین": 8733,
    "▁نبست": 8734,
    "جماع": 8735,
    "▁زالی": 8736,
    "▁نحس": 8737,
    "▁ارژن": 8738,
    "▁لح": 8739,
    "▁بوفالوران": 8740,
    "▁مزیت": 8741,
    "▁شهباز": 8742,
    "▁بهائی": 8743,
    "▁پرمخاط": 8744,
    "▁میانمار": 8745,
    "نکات": 8746,
    "▁مرج": 8747,
    "▁۲۳۹": 8748,
    "▁بنشین": 8749,
    "▁تباه": 8750,
    "▁قبرس": 8751,
    "▁واژگان": 8752,
    "▁وصدا": 8753,
    "▁تابع": 8754,
    "▁رافا": 8755,
    "اشق": 8756,
    "▁جویانه": 8757,
    "▁۲۶۶": 8758,
    "▁ویدئوهای": 8759,
    "▁شوکور": 8760,
    "▁بگو": 8761,
    "▁دستفروش": 8762,
    "▁کبود": 8763,
    "▁لرد": 8764,
    "▁۱۹۱۸": 8765,
    "▁مکاتبات": 8766,
    "▁خوانید": 8767,
    "▁وسائ": 8768,
    "▁شاخک": 8769,
    "ولاتش": 8770,
    "صائی": 8771,
    "▁زیربنا": 8772,
    "پائی": 8773,
    "▁ویسل": 8774,
    "▁پرد": 8775,
    "▁اوساکا": 8776,
    "▁سندگرن": 8777,
    "▁قلی": 8778,
    "▁پربار": 8779,
    "لومین": 8780,
    "صمد": 8781,
    "▁مسلم": 8782,
    "سگ": 8783,
    "نگوی": 8784,
    "▁زرتشتی": 8785,
    "▁نداشتیم": 8786,
    "▁بدق": 8787,
    "▁ناباور": 8788,
    "▁ولای": 8789,
    "▁فرآور": 8790,
    "▁اسکات": 8791,
    "▁مبل": 8792,
    "▁منصف": 8793,
    "▁حریفش": 8794,
    "▁رسند": 8795,
    "▁شگرد": 8796,
    "▁نظار": 8797,
    "شهرت": 8798,
    "▁توسل": 8799,
    "بریز": 8800,
    "یبریا": 8801,
    "▁مستعد": 8802,
    "▁چهارصد": 8803,
    "▁۱۲۷": 8804,
    "▁منکین": 8805,
    "▁تناقض": 8806,
    "▁بنفش": 8807,
    "▁دائما": 8808,
    "شواری": 8809,
    "▁نیافتاد": 8810,
    "▁فالک": 8811,
    "▁نئ": 8812,
    "▁بیدگ": 8813,
    "▁پهنا": 8814,
    "▁فض": 8815,
    "▁پونت": 8816,
    "▁محبت": 8817,
    "▁ببخش": 8818,
    "اردونا": 8819,
    "روزهای": 8820,
    "▁دستیاران": 8821,
    "حور": 8822,
    "▁کلاسیکو": 8823,
    "▁پاور": 8824,
    "▁درصورت": 8825,
    "▁کتابخوان": 8826,
    "▁استانها": 8827,
    "▁ترنس": 8828,
    "▁معلومات": 8829,
    "سترسیتی": 8830,
    "حضرت": 8831,
    "▁چتر": 8832,
    "▁اندیشید": 8833,
    "▁یادمان": 8834,
    "▁هرچیز": 8835,
    "نعیم": 8836,
    "جف": 8837,
    "▁فلسطینی": 8838,
    "▁ایدز": 8839,
    "▁ساق": 8840,
    "▁میکند": 8841,
    "▁دالان": 8842,
    "▁بکن": 8843,
    "▁هولو": 8844,
    "عاب": 8845,
    "▁ازآن": 8846,
    "▁کشمیر": 8847,
    "سادگی": 8848,
    "▁کساد": 8849,
    "طلق": 8850,
    "▁مورخ": 8851,
    "▁ائ": 8852,
    "الیف": 8853,
    "▁شال": 8854,
    "صدق": 8855,
    "قاد": 8856,
    "▁بوهای": 8857,
    "▁سپهر": 8858,
    "▁وایت": 8859,
    "▁پرشک": 8860,
    "▁بولد": 8861,
    "▁درازا": 8862,
    "▁نوپا": 8863,
    "▁رویکردهای": 8864,
    "▁برنج": 8865,
    "▁راهکارهای": 8866,
    "▁پدرو": 8867,
    "دوگو": 8868,
    "▁قبض": 8869,
    "▁خفا": 8870,
    "ریاست": 8871,
    "▁پذیرد": 8872,
    "مانند": 8873,
    "▁ماجراهای": 8874,
    "▁جودوکا": 8875,
    "پدر": 8876,
    "▁خب": 8877,
    "▁جده": 8878,
    "▁نشو": 8879,
    "▁آمو": 8880,
    "▁لرزید": 8881,
    "▁ترسند": 8882,
    "▁جلوست": 8883,
    "▁نیستید": 8884,
    "▁گرو": 8885,
    "▁قمر": 8886,
    "▁هیج": 8887,
    "▁شکس": 8888,
    "▁اولیان": 8889,
    "▁اعت": 8890,
    "ریحان": 8891,
    "▁فرگوس": 8892,
    "▁بفهمی": 8893,
    "پرای": 8894,
    "▁آبیار": 8895,
    "▁آمل": 8896,
    "قویا": 8897,
    "▁تعبی": 8898,
    "کانا": 8899,
    "▁نیاورده": 8900,
    "▁نایم": 8901,
    "▁فراوانش": 8902,
    "▁چغا": 8903,
    "▁لطیفی": 8904,
    "خسار": 8905,
    "▁شناسیم": 8906,
    "▁پارکین": 8907,
    "▁درسا": 8908,
    "استان": 8909,
    "تمایل": 8910,
    "▁باشی": 8911,
    "▁مستندهای": 8912,
    "شیتز": 8913,
    "▁بدهیم": 8914,
    "▁جهاندار": 8915,
    "▁آسم": 8916,
    "عت": 8917,
    "▁اظهارنظرهای": 8918,
    "▁سپه": 8919,
    "مایه": 8920,
    "کلت": 8921,
    "جز": 8922,
    "▁زاها": 8923,
    "▁اتفاقا": 8924,
    "▁سکس": 8925,
    "▁سلیم": 8926,
    "▁استدفتر": 8927,
    "▁ترسم": 8928,
    "▁رحیمی": 8929,
    "جران": 8930,
    "▁چاو": 8931,
    "فشان": 8932,
    "▁آوریم": 8933,
    "▁افتادند": 8934,
    "گذشته": 8935,
    "▁پرور": 8936,
    "▁راهکار": 8937,
    "رلند": 8938,
    "▁کالین": 8939,
    "▁صفت": 8940,
    "چهارم": 8941,
    "▁۶۳۰": 8942,
    "▁رامین": 8943,
    "▁جود": 8944,
    "▁بایس": 8945,
    "▁قبرها": 8946,
    "▁دستورات": 8947,
    "▁رگی": 8948,
    "▁طاهری": 8949,
    "▁سیلوا": 8950,
    "عات": 8951,
    "▁بلندهای": 8952,
    "کاران": 8953,
    "▁یوآن": 8954,
    "▁پولدار": 8955,
    "▁هرج": 8956,
    "▁شانز": 8957,
    "▁پش": 8958,
    "▁سکوی": 8959,
    "گوید": 8960,
    "▁ویچ": 8961,
    "▁آلتر": 8962,
    "▁نقاشان": 8963,
    "▁شناختند": 8964,
    "▁هاستل": 8965,
    "▁دارن": 8966,
    "گویید": 8967,
    "دنبال": 8968,
    "▁نبودن": 8969,
    "▁ویا": 8970,
    "شمول": 8971,
    "ساتبی": 8972,
    "▁فرزان": 8973,
    "▁لع": 8974,
    "▁بنت": 8975,
    "▁استانداردها": 8976,
    "ساطی": 8977,
    "▁رقصیدن": 8978,
    "زیا": 8979,
    "▁اتم": 8980,
    "شمن": 8981,
    "▁محر": 8982,
    "خر": 8983,
    "رجا": 8984,
    "▁روئی": 8985,
    "وارت": 8986,
    "استین": 8987,
    "پات": 8988,
    "▁پلات": 8989,
    "▁آریا": 8990,
    "▁هواپیماساز": 8991,
    "۵۳": 8992,
    "▁یادش": 8993,
    "▁سازمانها": 8994,
    "راد": 8995,
    "العمل": 8996,
    "▁آنف": 8997,
    "لیو": 8998,
    "▁رسا": 8999,
    "روید": 9000,
    "▁ویلر": 9001,
    "شرف": 9002,
    "نهاد": 9003,
    "انستان": 9004,
    "▁الری": 9005,
    "▁ایرانسل": 9006,
    "ناتور": 9007,
    "▁کتا": 9008,
    "▁چندسال": 9009,
    "▁هوک": 9010,
    "▁پرداختند": 9011,
    "▁انگیزش": 9012,
    "▁کریستین": 9013,
    "▁اتکای": 9014,
    "▁ترساند": 9015,
    "▁گوتنب": 9016,
    "▁اوس": 9017,
    "۳۲": 9018,
    "▁عمرم": 9019,
    "▁پارسا": 9020,
    "تاکس": 9021,
    "سید": 9022,
    "▁کوری": 9023,
    "▁نزدیکانش": 9024,
    "توالی": 9025,
    "شاپی": 9026,
    "▁خرم": 9027,
    "▁نانو": 9028,
    "▁نفربر": 9029,
    "ریتا": 9030,
    "بلا": 9031,
    "▁یونیو": 9032,
    "▁یزدان": 9033,
    "▁بلوم": 9034,
    "فیک": 9035,
    "۶۸": 9036,
    "▁ایرانروزها": 9037,
    "ایکون": 9038,
    "اقت": 9039,
    "مایش": 9040,
    "▁ماریان": 9041,
    "آید": 9042,
    "رپر": 9043,
    "لیور": 9044,
    "بدیل": 9045,
    "▁غیرمت": 9046,
    "▁سوپ": 9047,
    "سارو": 9048,
    "اگون": 9049,
    "▁وینس": 9050,
    "حاملگی": 9051,
    "رزم": 9052,
    "▁بخ": 9053,
    "▁دلجو": 9054,
    "▁غای": 9055,
    "کمپ": 9056,
    "جد": 9057,
    "▁ماریو": 9058,
    "▁سراغش": 9059,
    "گوپ": 9060,
    "▁دیگ": 9061,
    "▁ندار": 9062,
    "▁آوا": 9063,
    "ونومی": 9064,
    "▁رف": 9065,
    "عل": 9066,
    "▁سوریا": 9067,
    "▁لایک": 9068,
    "▁حائ": 9069,
    "▁گذرا": 9070,
    "مراه": 9071,
    "▁مخ": 9072,
    "حریف": 9073,
    "ریا": 9074,
    "▁سک": 9075,
    "دئو": 9076,
    "▁پیکا": 9077,
    "▁یونی": 9078,
    "▁فران": 9079,
    "▁ابرها": 9080,
    "▁سرگرفتن": 9081,
    "▁لاین": 9082,
    "▁استانهای": 9083,
    "▁خرو": 9084,
    "کند": 9085,
    "پال": 9086,
    "▁جدیدتر": 9087,
    "کریک": 9088,
    "ئیز": 9089,
    "▁بلن": 9090,
    "نتر": 9091,
    "اپار": 9092,
    "▁مقدا": 9093,
    "پیس": 9094,
    "کسوت": 9095,
    "گسترد": 9096,
    "سکین": 9097,
    "▁۱۸۴": 9098,
    "رید": 9099,
    "وگو": 9100,
    "▁پک": 9101,
    "▁مضا": 9102,
    "▁محصولش": 9103,
    "▁وظایفش": 9104,
    "▁استروئید": 9105,
    "▁هلا": 9106,
    "▁کتابدار": 9107,
    "ارگردان": 9108,
    "سنا": 9109,
    "رمو": 9110,
    "ذب": 9111,
    "▁اسپا": 9112,
    "▁مراک": 9113,
    "نورد": 9114,
    "▁نرفتن": 9115,
    "▁رکن": 9116,
    "▁ارتد": 9117,
    "بوم": 9118,
    "دروس": 9119,
    "رنوش": 9120,
    "۱۴۶": 9121,
    "▁اجسا": 9122,
    "▁صمیم": 9123,
    "ناوند": 9124,
    "▁گزی": 9125,
    "▁قا": 9126,
    "گرانی": 9127,
    "▁فار": 9128,
    "▁مخاط": 9129,
    "قاب": 9130,
    "رتون": 9131,
    "▁کارآمد": 9132,
    "خلال": 9133,
    "حافظه": 9134,
    "▁فضاپیما": 9135,
    "▁حف": 9136,
    "▁حواسش": 9137,
    "دینامی": 9138,
    "▁میانج": 9139,
    "▁خوابید": 9140,
    "۴۳": 9141,
    "▁آرزوها": 9142,
    "▁۱۵۲": 9143,
    "بسیار": 9144,
    "آقا": 9145,
    "قانون": 9146,
    "▁متما": 9147,
    "▁بسا": 9148,
    "▁جنگیدن": 9149,
    "▁۱۷۷": 9150,
    "▁آلیس": 9151,
    "▁لطیف": 9152,
    "میزان": 9153,
    "▁نجوم": 9154,
    "▁شرع": 9155,
    "▁پناهجو": 9156,
    "▁هیولا": 9157,
    "▁محتوا": 9158,
    "▁اظهارنظرها": 9159,
    "▁کنج": 9160,
    "▁وکلا": 9161,
    "استفان": 9162,
    "▁فقرا": 9163,
    "▁پریا": 9164,
    "▁جس": 9165,
    "▁هجده": 9166,
    "▁۱۵۱": 9167,
    "▁روبل": 9168,
    "چیزی": 9169,
    "قامت": 9170,
    "▁هاشم": 9171,
    "شناسی": 9172,
    "▁نیروها": 9173,
    "▁گرسن": 9174,
    "زنان": 9175,
    "لیدی": 9176,
    "▁نمادها": 9177,
    "اویل": 9178,
    "بورک": 9179,
    "فرمانی": 9180,
    "▁هچ": 9181,
    "عفو": 9182,
    "▁قضائی": 9183,
    "▁نارنج": 9184,
    "▁مساو": 9185,
    "▁تجار": 9186,
    "▁آغازکرد": 9187,
    "ضیا": 9188,
    "دالر": 9189,
    "▁جادو": 9190,
    "▁امیدها": 9191,
    "کستر": 9192,
    "▁تیفو": 9193,
    "فلورا": 9194,
    "اغر": 9195,
    "تماشاگر": 9196,
    "ئ": 9197,
    "▁هید": 9198,
    "ذو": 9199,
    "▁اسطور": 9200,
    "درآمد": 9201,
    "زارها": 9202,
    "▁متروک": 9203,
    "بنفش": 9204,
    "تناقض": 9205,
    "تفاوت": 9206,
    "مسلم": 9207,
    "▁الکترود": 9208,
    "جعفر": 9209,
    "معمول": 9210,
    "تولد": 9211,
    "مجید": 9212,
    "خاص": 9213,
    "ربکا": 9214,
    "حجت": 9215,
    "رجب": 9216,
    "آلبر": 9217,
    "رامش": 9218,
    "رونالدینیو": 9219,
    "پناه": 9220,
    "خالق": 9221,
    "تیرماه": 9222,
    "تفاهم": 9223,
    "عطرساز": 9224,
    "مارتین": 9225,
    "کیانوش": 9226,
    "منچسترسیتی": 9227,
    "غریب": 9228,
    "ویلیام": 9229,
    "منچستریونایتد": 9230,
    "خودکشی": 9231,
    "ثروت": 9232,
    "کاوشگر": 9233,
    "تجهیزات": 9234,
    "منوچ": 9235,
    "گشایش": 9236,
    "تدریج": 9237,
    "پادشاه": 9238,
    "اختلال": 9239,
    "فولاد": 9240,
    "گواردیولا": 9241,
    "کیفیت": 9242,
    "سرپرست": 9243,
    "اولسان": 9244,
    "پروتکل": 9245,
    "خیابان": 9246,
    "حراج": 9247,
    "وبسایت": 9248,
    "مشاور": 9249,
    "معترضان": 9250,
    "مدیرعامل": 9251,
    "بحرین": 9252,
    "ساترا": 9253,
    "تزریق": 9254,
    "سرطان": 9255,
    "صادرات": 9256,
    "برخورد": 9257,
    "المپیک": 9258,
    "معروف": 9259,
    "تهدید": 9260,
    "خبرنگار": 9261,
    "فساد": 9262,
    "واحد": 9263,
    "متوقف": 9264,
    "ساعات": 9265,
    "فراموش": 9266,
    "سرمربی": 9267,
    "موضوع": 9268,
    "ظریف": 9269,
    "اطمینان": 9270,
    "خورشید": 9271,
    "امنیتی": 9272,
    "عرص": 9273,
    "خالی": 9274,
    "تاسیس": 9275,
    "وستهم": 9276,
    "عملیات": 9277,
    "استاندار": 9278,
    "ایسنا": 9279,
    "پاییز": 9280,
    "شکایت": 9281,
    "برخلاف": 9282,
    "۲۰۲۰": 9283,
    "ورزش": 9284,
    "پارسال": 9285,
    "سریال": 9286,
    "همیشه": 9287,
    "جدول": 9288,
    "مشکل": 9289,
    "ورزشگاه": 9290,
    "▁فرما": 9291,
    "هدایت": 9292,
    "پشت": 9293,
    "حکیم": 9294,
    "جلسه": 9295,
    "شایست": 9296,
    "انتقادات": 9297,
    "امارات": 9298,
    "فولک": 9299,
    "چهارشنبه": 9300,
    "پیدا": 9301,
    "سقف": 9302,
    "روحانی": 9303,
    "جدال": 9304,
    "فعالیت": 9305,
    "معمولا": 9306,
    "کالا": 9307,
    "سطح": 9308,
    "نجیر": 9309,
    "پایگاه": 9310,
    "سولار": 9311,
    "بودجه": 9312,
    "دیوان": 9313,
    "اصلاح": 9314,
    "نتن": 9315,
    "جزیی": 9316,
    "▁تهدیدها": 9317,
    "اعتراضات": 9318,
    "ضمن": 9319,
    "نادال": 9320,
    "تعرض": 9321,
    "خودروهای": 9322,
    "چپ": 9323,
    "چای": 9324,
    "کولبر": 9325,
    "نوروز": 9326,
    "▁لنگ": 9327,
    "▁الیو": 9328,
    "نگام": 9329,
    "ریزش": 9330,
    "ارزها": 9331,
    "حرکت": 9332,
    "تماشاگران": 9333,
    "امشب": 9334,
    "نظار": 9335,
    "▁داس": 9336,
    "ورال": 9337,
    "بازارهای": 9338,
    "برداشت": 9339,
    "شاهد": 9340,
    "▁حسگر": 9341,
    "▁نط": 9342,
    "ایمن": 9343,
    "کریستین": 9344,
    "بشر": 9345,
    "▁نویسند": 9346,
    "عبدالله": 9347,
    "کوبا": 9348,
    "ثمی": 9349,
    "▁افزای": 9350,
    "▁بیوا": 9351,
    "▁بغل": 9352,
    "لویی": 9353,
    "کورا": 9354,
    "▁بپرداز": 9355,
    "▁آپار": 9356,
    "▁اقام": 9357,
    "دلار": 9358,
    "پراتور": 9359,
    "نشری": 9360,
    "▁هموطن": 9361,
    "▁محدو": 9362,
    "▁ظالم": 9363,
    "ستاگرام": 9364,
    "▁پابرجا": 9365,
    "اراگوئه": 9366,
    "▁ظر": 9367,
    "▁طع": 9368,
    "▁نشناخت": 9369,
    "▁آلمادو": 9370,
    "▁ابوظبی": 9371,
    "▁ایزوتوپ": 9372,
    "▁بتهوون": 9373,
    "▁برنگردد": 9374,
    "▁بپیوندد": 9375,
    "▁تئودور": 9376,
    "▁تمساح": 9377,
    "▁سریلانکا": 9378,
    "▁سولوویوف": 9379,
    "▁شقاقی": 9380,
    "▁عنکبوت": 9381,
    "▁غوغای": 9382,
    "▁مخترع": 9383,
    "▁نباشیم": 9384,
    "▁هورایزن": 9385,
    "▁ژئوپلتیک": 9386,
    "▁الاسلام": 9387,
    "▁سبحانی": 9388,
    "▁متذکر": 9389,
    "▁مقتض": 9390,
    "▁واکاندا": 9391,
    "▁نیفتد": 9392,
    "▁نیفتند": 9393,
    "▁همقطاران": 9394,
    "▁مدودف": 9395,
    "▁مفرط": 9396,
    "▁نردبان": 9397,
    "▁پوآرو": 9398,
    "▁اسپانسر": 9399,
    "▁باشکوه": 9400,
    "▁بورژوا": 9401,
    "▁مزاح": 9402,
    "▁مقننه": 9403,
    "▁ابریشم": 9404,
    "▁غفار": 9405,
    "▁موثق": 9406,
    "▁پلاکاردها": 9407,
    "▁پورتلند": 9408,
    "▁بمانید": 9409,
    "▁صحافی": 9410,
    "▁نافذ": 9411,
    "مردم": 9412,
    "▁گانگستر": 9413,
    "▁ابطحی": 9414,
    "▁شگرف": 9415,
    "▁گسست": 9416,
    "▁انسداد": 9417,
    "▁دوقلو": 9418,
    "▁انگاشت": 9419,
    "▁روایات": 9420,
    "▁هلیکوپتر": 9421,
    "▁کمرشکن": 9422,
    "▁لاوروف": 9423,
    "▁ضامن": 9424,
    "▁هامبورگ": 9425,
    "▁اوکلاه": 9426,
    "▁پولانسکی": 9427,
    "▁ندوشن": 9428,
    "▁سانفرانسیسکو": 9429,
    "▁قاپید": 9430,
    "▁برگکمپ": 9431,
    "نامطلوب": 9432,
    "▁کاذب": 9433,
    "▁میگویند": 9434,
    "▁واینالد": 9435,
    "ناملموس": 9436,
    "▁مانیتور": 9437,
    "▁عبرت": 9438,
    "▁باگز": 9439,
    "▁سیدابراهیم": 9440,
    "▁جماعت": 9441,
    "▁خیاط": 9442,
    "▁ارمنی": 9443,
    "▁بیابد": 9444,
    "▁نگرائو": 9445,
    "▁اکولوژی": 9446,
    "حرمسرا": 9447,
    "▁کلسترو": 9448,
    "▁خورند": 9449,
    "▁حیفا": 9450,
    "▁اهرم": 9451,
    "▁رهنوش": 9452,
    "▁سیلیکون": 9453,
    "▁محتکر": 9454,
    "▁متفکر": 9455,
    "▁بیایید": 9456,
    "▁بروکلی": 9457,
    "▁فراهانی": 9458,
    "▁غنای": 9459,
    "▁آسایش": 9460,
    "▁اسنوبرد": 9461,
    "تکاپو": 9462,
    "▁ستمگر": 9463,
    "▁ایرانشناس": 9464,
    "▁حکاک": 9465,
    "▁معذ": 9466,
    "▁رسوب": 9467,
    "▁شکوهمند": 9468,
    "▁دلهره": 9469,
    "▁کانتون": 9470,
    "▁منفعت": 9471,
    "▁عمارت": 9472,
    "▁اوباش": 9473,
    "▁آسایشگاه": 9474,
    "▁متهیا": 9475,
    "▁تلاقی": 9476,
    "▁همدلی": 9477,
    "▁بیاییم": 9478,
    "▁ریتم": 9479,
    "▁اتوبان": 9480,
    "▁گاندو": 9481,
    "▁توکلی": 9482,
    "▁لاتکس": 9483,
    "▁مهدیخانی": 9484,
    "▁رادارها": 9485,
    "▁الاغ": 9486,
    "▁ووندر": 9487,
    "▁رادیکا": 9488,
    "▁ضدویروس": 9489,
    "▁افراط": 9490,
    "▁غص": 9491,
    "مویرگی": 9492,
    "▁هلمند": 9493,
    "▁متعاقب": 9494,
    "▁بنویس": 9495,
    "▁پاکیزگی": 9496,
    "▁کوونی": 9497,
    "زامبی": 9498,
    "▁بکاهد": 9499,
    "▁آلفرد": 9500,
    "▁فروزان": 9501,
    "دخا": 9502,
    "▁لومب": 9503,
    "▁کربلا": 9504,
    "▁تقلی": 9505,
    "بلنک": 9506,
    "▁بزنید": 9507,
    "▁تعصب": 9508,
    "▁الاصل": 9509,
    "▁نگذشته": 9510,
    "▁خص": 9511,
    "قناع": 9512,
    "▁سفال": 9513,
    "▁پنهانکاری": 9514,
    "▁دهشت": 9515,
    "▁کاکس": 9516,
    "▁۱۹۱۲": 9517,
    "ویتز": 9518,
    "▁ابله": 9519,
    "▁نوازد": 9520,
    "▁نیایش": 9521,
    "▁۱۹۳۹": 9522,
    "▁گوریل": 9523,
    "▁بپیچ": 9524,
    "▁گماشت": 9525,
    "▁سرمست": 9526,
    "▁متأسف": 9527,
    "▁موزیکال": 9528,
    "▁پرنفوذ": 9529,
    "▁ولیحی": 9530,
    "▁پاسداشت": 9531,
    "▁افتضاح": 9532,
    "▁دلیری": 9533,
    "▁۱۳۸۰": 9534,
    "▁آلبانی": 9535,
    "▁امیدورا": 9536,
    "▁معصومانه": 9537,
    "▁السلط": 9538,
    "▁زمام": 9539,
    "اثی": 9540,
    "خاطرات": 9541,
    "▁کوارت": 9542,
    "▁بسپارد": 9543,
    "▁جنون": 9544,
    "▁۱۹۷۷": 9545,
    "▁بصیر": 9546,
    "▁کاونت": 9547,
    "▁سوزد": 9548,
    "▁بکنند": 9549,
    "▁ونچ": 9550,
    "▁۶۱۲": 9551,
    "▁چون": 9552,
    "▁خانلو": 9553,
    "▁بنویسم": 9554,
    "▁هیپستر": 9555,
    "▁وکا": 9556,
    "▁اغما": 9557,
    "ائر": 9558,
    "▁بایستد": 9559,
    "رگوت": 9560,
    "طح": 9561,
    "▁برچید": 9562,
    "▁ملایم": 9563,
    "▁همدم": 9564,
    "▁نوگرا": 9565,
    "▁ربع": 9566,
    "▁لارن": 9567,
    "هلن": 9568,
    "▁حشر": 9569,
    "واگذار": 9570,
    "▁لاپ": 9571,
    "▁چاقو": 9572,
    "▁هورن": 9573,
    "▁گرانبها": 9574,
    "فرشی": 9575,
    "پزشکان": 9576,
    "▁طرد": 9577,
    "▁عابران": 9578,
    "▁نزند": 9579,
    "امدا": 9580,
    "▁علفزارها": 9581,
    "▁لوکالکان": 9582,
    "▁گاسکوئین": 9583,
    "▁براندا": 9584,
    "▁لئو": 9585,
    "▁گریختند": 9586,
    "پنتا": 9587,
    "▁زیباست": 9588,
    "▁هنرپیشگ": 9589,
    "▁رهن": 9590,
    "▁اتومات": 9591,
    "حاب": 9592,
    "▁فتوا": 9593,
    "▁برسیم": 9594,
    "▁خواف": 9595,
    "▁جوزا": 9596,
    "عابد": 9597,
    "▁توئی": 9598,
    "▁نرود": 9599,
    "▁کبری": 9600,
    "▁شرافت": 9601,
    "▁باغبان": 9602,
    "▁جووان": 9603,
    "▁مانورهای": 9604,
    "▁کوو": 9605,
    "▁تسایت": 9606,
    "▁شنیدم": 9607,
    "▁سالوادور": 9608,
    "▁کراش": 9609,
    "▁ترمز": 9610,
    "▁نگرفتند": 9611,
    "▁گابریلا": 9612,
    "▁مخلوط": 9613,
    "▁فراگرفت": 9614,
    "▁جانباخت": 9615,
    "▁جنایات": 9616,
    "▁بیولوژی": 9617,
    "▁هملت": 9618,
    "ساخته": 9619,
    "▁جبار": 9620,
    "▁۲۲۰": 9621,
    "▁شرو": 9622,
    "▁شهرنشین": 9623,
    "▁اسپری": 9624,
    "▁خندد": 9625,
    "▁پرگا": 9626,
    "▁اکستر": 9627,
    "▁۷۲۲": 9628,
    "▁غز": 9629,
    "▁پردازیم": 9630,
    "▁کورن": 9631,
    "زخ": 9632,
    "▁آلپ": 9633,
    "▁مشوقهای": 9634,
    "▁پهپادهای": 9635,
    "▁ابزارک": 9636,
    "▁صیادان": 9637,
    "▁حدف": 9638,
    "▁ژور": 9639,
    "▁مافیا": 9640,
    "▁برسید": 9641,
    "▁تحص": 9642,
    "▁مگنو": 9643,
    "▁فرانس": 9644,
    "▁دپ": 9645,
    "اسفند": 9646,
    "▁مومن": 9647,
    "تورباز": 9648,
    "کشن": 9649,
    "▁هدفمند": 9650,
    "شرکتهای": 9651,
    "▁نیکو": 9652,
    "▁دایان": 9653,
    "▁مفتو": 9654,
    "▁باربارا": 9655,
    "▁قراردادها": 9656,
    "▁شئو": 9657,
    "▁سفیدپوستان": 9658,
    "▁صر": 9659,
    "▁ملامت": 9660,
    "ماجد": 9661,
    "میخ": 9662,
    "▁جزیرو": 9663,
    "اتاق": 9664,
    "▁اپوز": 9665,
    "▁گرکان": 9666,
    "خراش": 9667,
    "▁بوکا": 9668,
    "نقی": 9669,
    "▁لئون": 9670,
    "▁ریاکاری": 9671,
    "▁جالبند": 9672,
    "ابو": 9673,
    "▁زبر": 9674,
    "هاوس": 9675,
    "▁پرماجرا": 9676,
    "▁جرئ": 9677,
    "▁نرسیدند": 9678,
    "▁گیگاب": 9679,
    "▁حسگرها": 9680,
    "▁تانس": 9681,
    "▁پراوی": 9682,
    "▁۲۴۸": 9683,
    "قطع": 9684,
    "▁دوتای": 9685,
    "▁دزدید": 9686,
    "▁ریختند": 9687,
    "▁میزند": 9688,
    "پرت": 9689,
    "▁ایستادن": 9690,
    "▁نزدند": 9691,
    "▁چول": 9692,
    "▁نفیس": 9693,
    "▁مطمئنا": 9694,
    "▁پیوندند": 9695,
    "حیط": 9696,
    "▁درمانگاه": 9697,
    "▁ناراحتند": 9698,
    "▁مکید": 9699,
    "▁نقدهای": 9700,
    "▁شایعند": 9701,
    "ارنوک": 9702,
    "▁نرسیدن": 9703,
    "▁مخد": 9704,
    "▁فرمانیه": 9705,
    "▁نخل": 9706,
    "▁خوانیم": 9707,
    "عاقب": 9708,
    "غما": 9709,
    "▁رایکو": 9710,
    "▁رازهای": 9711,
    "▁نورال": 9712,
    "برمی": 9713,
    "▁شنیدنش": 9714,
    "▁گوتر": 9715,
    "▁دمید": 9716,
    "▁تض": 9717,
    "▁بغ": 9718,
    "▁زدیم": 9719,
    "▁آوردیم": 9720,
    "فاخر": 9721,
    "▁زهی": 9722,
    "پژوهش": 9723,
    "▁بدبین": 9724,
    "مغان": 9725,
    "بهبود": 9726,
    "▁دفاعیات": 9727,
    "زستان": 9728,
    "▁مخا": 9729,
    "مداری": 9730,
    "▁مقل": 9731,
    "علیر": 9732,
    "▁هلن": 9733,
    "▁آندریاس": 9734,
    "▁فضاپیماها": 9735,
    "▁عرا": 9736,
    "▁میانسال": 9737,
    "▁رک": 9738,
    "▁مرک": 9739,
    "▁تاخت": 9740,
    "سوار": 9741,
    "▁مشق": 9742,
    "▁بقدر": 9743,
    "لاستیک": 9744,
    "▁سونت": 9745,
    "▁جوانتر": 9746,
    "▁مخالفند": 9747,
    "▁انریک": 9748,
    "فوت": 9749,
    "ورسوی": 9750,
    "جده": 9751,
    "▁اتو": 9752,
    "▁آغازکرده": 9753,
    "▁قرادادش": 9754,
    "▁مونش": 9755,
    "▁کربی": 9756,
    "▁روایتگر": 9757,
    "ایرا": 9758,
    "▁عصا": 9759,
    "▁فیروزجا": 9760,
    "▁مناسبات": 9761,
    "▁پز": 9762,
    "▁لژ": 9763,
    "جهش": 9764,
    "مقا": 9765,
    "وبل": 9766,
    "▁انگشتان": 9767,
    "گات": 9768,
    "▁پیوستند": 9769,
    "▁جولیان": 9770,
    "لوژی": 9771,
    "▁فوتو": 9772,
    "▁حری": 9773,
    "▁مظ": 9774,
    "▁مندل": 9775,
    "ناری": 9776,
    "▁ایوب": 9777,
    "▁بخور": 9778,
    "▁آتا": 9779,
    "▁آلبا": 9780,
    "▁انگیزد": 9781,
    "▁پودر": 9782,
    "▁بالدار": 9783,
    "ترونیک": 9784,
    "رستان": 9785,
    "نیاز": 9786,
    "▁نکردم": 9787,
    "▁عاشقان": 9788,
    "نهام": 9789,
    "▁مساعدت": 9790,
    "▁نواز": 9791,
    "▁متروی": 9792,
    "▁لیند": 9793,
    "▁درنظر": 9794,
    "اوج": 9795,
    "کاوا": 9796,
    "▁مدس": 9797,
    "▁حصار": 9798,
    "▁لوور": 9799,
    "▁آدا": 9800,
    "▁جهانگرد": 9801,
    "▁بریز": 9802,
    "▁الزاما": 9803,
    "▁کیپ": 9804,
    "▁برگشتن": 9805,
    "درینو": 9806,
    "▁چکهای": 9807,
    "▁نگارم": 9808,
    "▁موید": 9809,
    "▁مالدار": 9810,
    "وندا": 9811,
    "▁اندازیم": 9812,
    "تژیک": 9813,
    "مدان": 9814,
    "▁تعار": 9815,
    "کوش": 9816,
    "▁مواجهند": 9817,
    "▁فلین": 9818,
    "▁بشوی": 9819,
    "تلر": 9820,
    "سپارد": 9821,
    "▁موثرتر": 9822,
    "▁روست": 9823,
    "زاس": 9824,
    "اگرا": 9825,
    "▁دژها": 9826,
    "▁هوادارن": 9827,
    "▁چشمک": 9828,
    "▁سالخورد": 9829,
    "▁نیرومندتر": 9830,
    "انتو": 9831,
    "▁مونت": 9832,
    "▁رادو": 9833,
    "▁ناگ": 9834,
    "▁صب": 9835,
    "خرج": 9836,
    "اچی": 9837,
    "▁کالو": 9838,
    "اشته": 9839,
    "ردین": 9840,
    "▁دیکش": 9841,
    "عیار": 9842,
    "▁بوستا": 9843,
    "▁دومینو": 9844,
    "▁کورس": 9845,
    "▁فاخر": 9846,
    "تابو": 9847,
    "آلات": 9848,
    "گذرانند": 9849,
    "ارزیا": 9850,
    "وپول": 9851,
    "نورلند": 9852,
    "▁گذاشتم": 9853,
    "▁فریم": 9854,
    "اص": 9855,
    "▁انبارها": 9856,
    "▁خرابکاران": 9857,
    "فاشی": 9858,
    "فهیم": 9859,
    "کاو": 9860,
    "▁گردان": 9861,
    "شمرد": 9862,
    "▁شارل": 9863,
    "نگولی": 9864,
    "▁نخوان": 9865,
    "ورهم": 9866,
    "▁کانا": 9867,
    "▁راکل": 9868,
    "کنت": 9869,
    "لیز": 9870,
    "ونتو": 9871,
    "▁مجد": 9872,
    "زندگان": 9873,
    "انگلر": 9874,
    "آمدتر": 9875,
    "فیو": 9876,
    "▁کردآ": 9877,
    "گرفت": 9878,
    "▁السی": 9879,
    "▁عزیزانم": 9880,
    "▁برادرز": 9881,
    "سرفصل": 9882,
    "ساکو": 9883,
    "ولادی": 9884,
    "▁داکا": 9885,
    "▁بیشمار": 9886,
    "▁عطش": 9887,
    "نواز": 9888,
    "پک": 9889,
    "نواختر": 9890,
    "▁طبل": 9891,
    "مالیا": 9892,
    "گرایان": 9893,
    "▁لگو": 9894,
    "ائز": 9895,
    "▁مونو": 9896,
    "گولد": 9897,
    "نالد": 9898,
    "انتری": 9899,
    "▁همزی": 9900,
    "انوس": 9901,
    "▁بالاگ": 9902,
    "▁الد": 9903,
    "▁کوما": 9904,
    "▁رزو": 9905,
    "رهایش": 9906,
    "یابند": 9907,
    "۹۸۰": 9908,
    "چون": 9909,
    "▁پشم": 9910,
    "▁مسخ": 9911,
    "اتریو": 9912,
    "کرون": 9913,
    "عاش": 9914,
    "▁شاک": 9915,
    "عبدالو": 9916,
    "مترو": 9917,
    "▁شلو": 9918,
    "▁بدنساز": 9919,
    "▁تجر": 9920,
    "▁ویول": 9921,
    "▁نوآ": 9922,
    "ریکو": 9923,
    "ناوال": 9924,
    "▁اینج": 9925,
    "▁جوید": 9926,
    "▁خرمش": 9927,
    "شیو": 9928,
    "الیات": 9929,
    "رفتار": 9930,
    "▁فهمیدن": 9931,
    "▁واردکنند": 9932,
    "میرز": 9933,
    "تیلن": 9934,
    "آنچ": 9935,
    "▁بگذار": 9936,
    "▁خیرخواه": 9937,
    "راتو": 9938,
    "▁دشوارتر": 9939,
    "موم": 9940,
    "▁افرا": 9941,
    "ومئ": 9942,
    "یاهو": 9943,
    "لولا": 9944,
    "▁فراپا": 9945,
    "▁نیکول": 9946,
    "سرگ": 9947,
    "وجه": 9948,
    "خامت": 9949,
    "ماگو": 9950,
    "▁لورن": 9951,
    "الف": 9952,
    "▁بازدیدها": 9953,
    "مونیک": 9954,
    "▁نواختن": 9955,
    "▁غیربورسی": 9956,
    "▁خدایا": 9957,
    "شتابند": 9958,
    "اغت": 9959,
    "خواهند": 9960,
    "▁مستن": 9961,
    "▁کورم": 9962,
    "بخت": 9963,
    "ادزه": 9964,
    "▁بوئن": 9965,
    "▁ثق": 9966,
    "عدد": 9967,
    "گفتار": 9968,
    "صاب": 9969,
    "۸۰۰۰": 9970,
    "▁برخاستن": 9971,
    "ژیک": 9972,
    "▁یوشی": 9973,
    "ماتیک": 9974,
    "تنبور": 9975,
    "حتم": 9976,
    "▁هادس": 9977,
    "اشیا": 9978,
    "رامین": 9979,
    "ولونیا": 9980,
    "▁عص": 9981,
    "لینک": 9982,
    "▁قراداد": 9983,
    "جنسگرای": 9984,
    "رزیدن": 9985,
    "▁بخو": 9986,
    "▁فلسطین": 9987,
    "▁راهکارها": 9988,
    "▁مندو": 9989,
    "الیس": 9990,
    "نماها": 9991,
    "▁معتمد": 9992,
    "▁غفور": 9993,
    "آگاهی": 9994,
    "سکوت": 9995,
    "▁تیرانداز": 9996,
    "ساخت": 9997,
    "▁الکتریک": 9998,
    "وینچ": 9999,
    "آدام": 10000,
    "▁رخدادها": 10001
  }
}