<unk>	0
<s>	0
</s>	0
ی	-3.38274
.	-3.43597
ه	-3.8566
▁است	-4.09716
▁	-4.15449
▁می	-4.19701
▁های	-4.6259
▁ایران	-4.68978
▁شده	-5.01578
،	-5.0729
▁سال	-5.17068
▁بود	-5.20561
▁یک	-5.22911
▁ها	-5.2585
▁شد	-5.28787
▁کرده	-5.40348
▁تصویر	-5.41174
▁ای	-5.4217
▁کرد	-5.49339
منبع	-5.58522
ان	-5.62013
▁شود	-5.65338
▁گفته	-5.7072
▁کند	-5.73942
▁بر	-5.74557
▁دو	-5.75714
▁خود	-5.78013
؛	-5.8022
▁اند	-5.88063
▁کرونا	-5.88936
▁در	-6.01021
ش	-6.03171
▁آمریکا	-6.05563
ن	-6.06066
▁پیش	-6.06228
▁کشور	-6.08897
▁گزارش	-6.09604
▁ماه	-6.11104
▁روز	-6.13315
ت	-6.16401
▁دیگر	-6.21329
▁دارد	-6.23823
▁فوتبال	-6.24155
▁بی	-6.25335
▁دهد	-6.26812
▁ا	-6.28299
▁تیم	-6.29712
▁گفت	-6.29863
▁بازی	-6.30439
▁کار	-6.33235
▁اعلام	-6.33821
▁کنند	-6.3662
▁قرار	-6.3732
▁م	-6.40205
▁و	-6.4021
▁شرکت	-6.40415
▁هزار	-6.42038
ین	-6.42693
▁داده	-6.433
▁دولت	-6.45089
▁با	-6.45749
▁یا	-6.45935
م	-6.46008
▁رئیس	-6.49524
▁گذشته	-6.49999
▁به	-6.50442
▁خواهد	-6.51146
▁سه	-6.51417
▁جهان	-6.52008
▁پس	-6.53771
▁بین	-6.5395
▁دست	-6.54062
▁آقای	-6.55223
▁گوید	-6.55505
▁هر	-6.61617
▁درصد	-6.65774
▁درباره	-6.66273
▁بار	-6.66322
در	-6.66923
▁تهران	-6.6731
ا	-6.6862
▁میلیون	-6.68745
▁دلیل	-6.68904
▁آنها	-6.69815
▁لیگ	-6.70188
▁افغانستان	-6.70308
▁افزایش	-6.71559
▁نفر	-6.72046
▁هفته	-6.73905
▁یکی	-6.74563
▁بوده	-6.75415
▁از	-6.76228
▁ب	-6.76292
این	-6.76707
'	-6.76885
▁داد	-6.77148
▁'	-6.77448
های	-6.77605
▁جدید	-6.77807
ر	-6.78023
▁بعد	-6.78526
▁چند	-6.78547
▁ملی	-6.80161
▁حال	-6.81896
▁جمهوری	-6.81964
:	-6.8214
▁خبر	-6.82428
▁نام	-6.83955
▁جهانی	-6.84112
▁فیلم	-6.84316
ند	-6.8464
▁نمی	-6.86002
▁ترین	-6.86596
▁همه	-6.8688
▁ویروس	-6.8723
▁هستند	-6.87917
▁ت	-6.88354
▁قیمت	-6.88422
▁برگزار	-6.89217
▁چین	-6.89491
▁باید	-6.89869
▁دلار	-6.90293
▁بازار	-6.90616
▁امروز	-6.90672
▁عنوان	-6.90729
▁مورد	-6.90838
▁نظر	-6.90881
▁سازمان	-6.91092
د	-6.9194
▁تولید	-6.92597
ب	-6.93093
▁گرفته	-6.93274
▁کردند	-6.93611
▁داشت	-6.94299
▁روی	-6.9468
▁علی	-6.95127
▁کاهش	-6.95826
▁نفت	-6.96524
▁بیش	-6.96628
▁شدن	-6.96669
▁نیست	-6.96815
▁وزیر	-6.97627
▁سر	-6.97903
ات	-6.98229
▁بریتانیا	-7.00579
▁آغاز	-7.01094
▁وزارت	-7.01522
▁مقابل	-7.0161
▁سی	-7.01858
▁بیشتر	-7.02142
▁اخیر	-7.02296
ل	-7.02548
▁نیز	-7.02613
▁شب	-7.02711
▁بودند	-7.04268
▁اروپا	-7.04656
▁حدود	-7.05527
▁بزرگ	-7.057
به	-7.05951
▁ایرانی	-7.06152
▁را	-7.07091
▁برنامه	-7.07567
▁اش	-7.07584
▁همچنین	-7.07777
▁داشته	-7.08107
▁باشگاه	-7.08482
▁نشان	-7.09186
▁مجلس	-7.09216
▁باشد	-7.10469
▁بانک	-7.10473
▁راه	-7.10586
▁قبل	-7.1063
▁حضور	-7.11084
▁پایان	-7.11328
▁زمان	-7.12322
▁ف	-7.1275
▁آن	-7.1378
ز	-7.138
▁تحریم	-7.13956
▁اقتصادی	-7.142
▁انجام	-7.14981
▁هایی	-7.15342
▁اولین	-7.15498
که	-7.15522
▁توافق	-7.15659
س	-7.17461
▁اساس	-7.1819
▁صورت	-7.18354
▁اول	-7.18521
ری	-7.1876
▁منتشر	-7.19726
▁تر	-7.20197
▁واکسن	-7.21804
▁شیوع	-7.21873
▁بخش	-7.2292
▁استفاده	-7.23207
▁باز	-7.23267
آقای	-7.23536
▁فصل	-7.24815
▁کم	-7.25338
▁جمله	-7.25424
▁میان	-7.25845
▁وجود	-7.26359
▁دارند	-7.26933
▁شهر	-7.27163
له	-7.27812
▁رسید	-7.2782
گی	-7.2822
؟	-7.28415
▁مسابقه	-7.28729
▁مردم	-7.28895
دامه	-7.28979
▁گل	-7.29394
▁س	-7.29866
▁زندگی	-7.3009
▁شوند	-7.30123
▁خواست	-7.30244
▁میلیارد	-7.31277
▁گروه	-7.32177
▁ماشین	-7.32557
▁المللی	-7.33341
▁چهار	-7.33605
▁مسابقات	-7.33993
او	-7.34664
▁زنان	-7.34753
و	-7.36598
▁همین	-7.37411
▁گیری	-7.37555
▁پنج	-7.38667
▁حالی	-7.39124
▁مقام	-7.39642
▁تنها	-7.39726
▁شدند	-7.39946
▁ن	-7.40864
▁حقوق	-7.41809
▁تواند	-7.41989
▁توان	-7.42229
▁وقت	-7.42318
▁تومان	-7.42675
▁امسال	-7.42917
▁گرفت	-7.4305
▁زیاد	-7.43263
▁تمام	-7.439
▁ارز	-7.43904
▁شرایط	-7.44585
▁اسلامی	-7.44597
▁برتر	-7.45087
▁ساله	-7.45339
▁وضعیت	-7.45381
▁آینده	-7.46541
عث	-7.46597
▁جام	-7.47742
▁کشورهای	-7.47835
▁بیماری	-7.48104
▁بسیاری	-7.48218
▁دوران	-7.48791
▁کردن	-7.48974
▁محمد	-7.49165
▁غیر	-7.49328
▁خارجه	-7.49381
انه	-7.49668
▁خانه	-7.49909
▁تلاش	-7.49997
▁فعالیت	-7.5004
▁۲۰	-7.50782
▁طور	-7.50816
▁هیچ	-7.50983
▁وارد	-7.51203
▁بسیار	-7.52137
▁تازه	-7.52167
▁گویند	-7.52474
▁ولی	-7.52655
▁تصمیم	-7.52968
▁نرخ	-7.52978
▁مدت	-7.53128
▁زمین	-7.53192
▁ریاست	-7.53294
▁ک	-7.53309
▁اقتصاد	-7.53664
▁ش	-7.53826
▁فروش	-7.54033
▁افراد	-7.54247
نه	-7.54739
بدون	-7.54859
▁نزدیک	-7.5489
▁رسان	-7.5506
▁انتخابات	-7.55077
▁مختلف	-7.55267
▁پی	-7.55506
▁اجتماعی	-7.55637
▁کمک	-7.55801
▁سوی	-7.56196
▁د	-7.56921
ایی	-7.56992
▁نخست	-7.57153
▁روحانی	-7.57595
▁اثر	-7.58786
▁خانواده	-7.58932
▁همراه	-7.59141
▁منطقه	-7.59222
▁قهرمان	-7.59527
▁تاریخ	-7.59667
▁تغییر	-7.5991
▁مرکزی	-7.59975
▁منبع	-7.60959
بر	-7.61042
▁ه	-7.61769
▁خودرو	-7.61897
شان	-7.61926
▁۱۹	-7.62007
▁مجموع	-7.62165
▁حالا	-7.62239
▁طرح	-7.62317
▁پول	-7.62318
▁نه	-7.62322
یت	-7.62625
▁جان	-7.63267
▁شروع	-7.63488
▁پیدا	-7.63711
▁اصلی	-7.63946
▁برابر	-7.64107
▁برجام	-7.64115
▁دهه	-7.64156
▁هسته	-7.6422
▁برای	-7.64324
▁کنار	-7.64448
▁مهم	-7.64611
ک	-7.64697
▁ر	-7.65199
▁درگذشت	-7.65238
قط	-7.66009
▁دوره	-7.66122
▁دوم	-7.66206
▁بورس	-7.66912
▁مرکز	-7.66957
▁موسیقی	-7.67047
▁پرسپولیس	-7.6739
▁پر	-7.67393
▁بررسی	-7.67435
▁آمریکایی	-7.67512
▁قهرمانی	-7.67864
▁بعضی	-7.68051
▁دی	-7.688
▁زن	-7.69032
▁میلادی	-7.70038
▁شکست	-7.70135
▁۴	-7.70361
▁نقش	-7.70376
▁اطلاعات	-7.70405
یک	-7.70445
ثبت	-7.70554
▁فدراسیون	-7.70581
▁جمهور	-7.7087
نامه	-7.71208
شورای	-7.71461
▁آمار	-7.71517
ار	-7.71554
▁رسیده	-7.71863
▁نوشته	-7.72126
▁۵	-7.72188
▁زیر	-7.7253
▁رسمی	-7.73039
▁سفر	-7.73078
▁برخ	-7.73285
▁سرمایه	-7.73435
▁یافته	-7.74
▁کمتر	-7.74085
▁عکس	-7.74147
▁اینک	-7.74892
▁رقابت	-7.74981
▁حمله	-7.75238
▁ممکن	-7.75271
یه	-7.75391
▁کر	-7.75397
▁نتیج	-7.7553
ق	-7.75566
ست	-7.75738
▁بهترین	-7.7574
▁همکاری	-7.7575
▁نشده	-7.76089
▁واکنش	-7.76279
ده	-7.76532
▁توجه	-7.77023
▁۱۰	-7.7723
▁عراق	-7.77616
▁مراسم	-7.78176
▁جایزه	-7.78429
▁حمایت	-7.78827
▁دنبال	-7.79128
▁استقلال	-7.79336
▁رشد	-7.79368
▁دنیا	-7.79454
▁رفت	-7.7974
▁کل	-7.79897
▁فرانسه	-7.79919
▁ساعت	-7.80089
▁پرداخت	-7.80115
▁۲	-7.80233
▁آب	-7.80384
▁آ	-7.80498
▁آژانس	-7.80724
▁آزاد	-7.81245
▁مالی	-7.81613
▁دانشگاه	-7.81693
▁کشتی	-7.81894
▁بالا	-7.82252
▁هم	-7.82539
ها	-7.82666
▁استان	-7.82689
▁دور	-7.82826
▁حاضر	-7.83213
▁که	-7.83359
▁رو	-7.83515
▁بازیکن	-7.83536
با	-7.84508
▁پرونده	-7.84812
▁شش	-7.84842
▁موضوع	-7.85101
▁سیاسی	-7.85163
▁الله	-7.8547
▁سابق	-7.85586
▁اعتراض	-7.85962
▁شنبه	-7.86064
▁کنیم	-7.86076
توسط	-7.8637
▁پ	-7.86419
▁ندارد	-7.86757
▁ترامپ	-7.87147
▁روند	-7.87197
▁خبرگزا	-7.87249
ترین	-7.87412
▁انتشار	-7.87645
▁ورزش	-7.87692
ِ	-7.88011
▁اشار	-7.88061
▁نیمه	-7.88144
▁مدیر	-7.88235
▁طی	-7.88399
▁او	-7.88453
گان	-7.88658
اکنون	-7.89289
▁رسد	-7.89327
▁ترکیه	-7.89441
▁جنوبی	-7.89457
▁عرض	-7.89612
▁موج	-7.90063
▁دریافت	-7.90705
▁قهرمانان	-7.90868
▁هدف	-7.90918
▁کتاب	-7.91223
▁زبان	-7.91249
▁انرژی	-7.91262
▁تعداد	-7.91675
گیری	-7.91754
▁آلمان	-7.92649
▁دهند	-7.92756
▁مذاکرات	-7.92869
از	-7.92897
▁آمده	-7.93343
▁۲۰۲۰	-7.93367
ای	-7.94002
▁آزمایش	-7.94388
▁اجرای	-7.94673
▁ویژه	-7.94713
▁اتحاد	-7.94776
▁متهم	-7.94788
حتی	-7.94902
▁مربوط	-7.95037
▁مبارز	-7.9509
▁سهام	-7.95093
▁چنین	-7.95674
▁دیدار	-7.95786
▁نهایی	-7.96285
▁پیروز	-7.96739
▁۶	-7.96741
▁عربستان	-7.96786
▁۳	-7.97332
▁سیاست	-7.97391
▁خواهند	-7.9753
▁خرید	-7.97742
▁اقدام	-7.9781
▁هشدار	-7.97818
▁سازی	-7.97934
▁این	-7.98047
▁تبدیل	-7.98096
▁تلویزیون	-7.98112
▁ج	-7.98176
▁شمار	-7.98523
▁هفت	-7.99031
می	-7.99273
▁گذاری	-7.99486
کسب	-7.9966
▁مرد	-8.00161
▁هند	-8.00239
▁ایجاد	-8.00353
▁تایید	-8.00506
▁جریان	-8.00539
▁درآمد	-8.00993
▁بهداشت	-8.01094
)	-8.01197
▁سرمربی	-8.01281
▁آسیا	-8.01307
▁لیورپول	-8.0132
▁خارجی	-8.01473
▁همان	-8.01791
▁صادرات	-8.01822
▁میزان	-8.01878
▁مرگ	-8.01977
▁ساخت	-8.02019
▁ح	-8.02096
▁دولتی	-8.02273
▁زده	-8.02465
▁محل	-8.02775
▁مشخص	-8.02859
▁نقل	-8.02898
▁دیده	-8.02996
▁کننده	-8.03314
▁خطر	-8.0333
▁انسان	-8.03354
▁امنیت	-8.03397
▁یافت	-8.03625
▁خام	-8.03697
یم	-8.0411
▁بازداشت	-8.04173
▁صد	-8.04618
▁ده	-8.04679
▁حسن	-8.0478
▁نیاز	-8.0483
▁قابل	-8.04878
▁انتخاب	-8.04903
▁زمینه	-8.05307
▁فاصله	-8.05421
▁مدل	-8.05714
▁جلو	-8.05787
▁انگلیس	-8.05864
▁کابل	-8.05984
▁زندان	-8.06066
▁رود	-8.06286
▁خط	-8.0642
▁خیل	-8.06426
▁بیمارستان	-8.06935
▁روسیه	-8.07184
▁بازیکنان	-8.07269
▁خارج	-8.07515
▁عضو	-8.07555
▁نسبت	-8.07617
▁رهبر	-8.07629
▁.	-8.07797
▁(	-8.08056
▁چرا	-8.08367
نوز	-8.08527
▁سو	-8.0879
▁سخت	-8.09157
▁آی	-8.09286
▁نا	-8.0986
▁طول	-8.09895
▁دقیق	-8.09914
▁خاطر	-8.09951
▁معاون	-8.1022
گاه	-8.10322
▁پلیس	-8.10324
▁لغو	-8.10403
▁جا	-8.11458
▁نمایش	-8.11895
▁کامل	-8.12176
▁محدودیت	-8.12234
▁قانون	-8.12444
▁زمانی	-8.12649
▁طرف	-8.12834
▁ارزش	-8.12994
▁برد	-8.13293
▁تاثیر	-8.13305
▁حکم	-8.13389
▁کشته	-8.13487
▁منابع	-8.13681
▁تعطیل	-8.13916
▁حکومت	-8.13994
▁تن	-8.14018
▁دادگاه	-8.14099
▁اتمی	-8.14195
▁سن	-8.14256
▁آثار	-8.14258
▁دوبار	-8.14391
▁لندن	-8.14519
▁شورا	-8.14554
▁رد	-8.14757
▁سپاه	-8.14785
▁آخری	-8.1479
▁سالگی	-8.14862
▁ساخته	-8.14909
▁شکل	-8.14923
▁امتیاز	-8.1493
ریق	-8.15037
▁تحت	-8.15076
▁بازگشت	-8.15162
▁شناخت	-8.15245
چه	-8.15696
▁ظریف	-8.16136
▁قرارداد	-8.16618
▁سطح	-8.16648
▁مطرح	-8.16653
▁نامزد	-8.16681
▁ابتلا	-8.16683
▁بالای	-8.17031
▁نگرانی	-8.17236
▁اعضای	-8.17406
▁سخنگوی	-8.17676
▁حرکت	-8.17772
▁قرنطینه	-8.17784
▁۳۰	-8.18
▁چ	-8.18003
▁ام	-8.18207
▁ارتباط	-8.18264
▁سوم	-8.18397
▁بودجه	-8.18439
▁نمایند	-8.18758
▁گاز	-8.19009
ون	-8.19013
▁نامه	-8.19045
▁بیانی	-8.19093
▁اسرائیل	-8.1912
▁برنده	-8.19263
▁پزشکی	-8.19264
▁رای	-8.19288
▁نگاه	-8.19435
روز	-8.19589
▁نشست	-8.1986
▁حد	-8.19923
▁تنیس	-8.20033
▁همزمان	-8.20155
▁مرح	-8.20234
▁تع	-8.2045
▁بخشی	-8.20519
▁امنیتی	-8.2071
▁جلس	-8.20814
▁آیا	-8.20846
▁عمومی	-8.20882
▁گسترده	-8.2111
▁جنگ	-8.21156
مین	-8.21205
▁عالی	-8.21213
▁۲۵	-8.21313
▁جو	-8.21329
▁روزهای	-8.21578
▁انقلاب	-8.21766
▁فکر	-8.21814
▁مصاحبه	-8.22188
▁داستان	-8.22342
▁انتقال	-8.22427
▁سابقه	-8.2265
▁ترک	-8.2285
▁صنعت	-8.23372
▁۱۳	-8.23562
▁۲۰۰	-8.23667
▁کمی	-8.23723
▁بایدن	-8.2391
ینه	-8.24235
▁متحده	-8.24385
▁خوب	-8.24509
ال	-8.24666
▁جاری	-8.24788
▁هوای	-8.2493
▁سینما	-8.25377
وی	-8.25413
▁اج	-8.25778
▁الکتریکی	-8.26233
▁متوقف	-8.26818
▁وی	-8.27171
▁۹	-8.27244
▁گرفتن	-8.2728
▁اروپایی	-8.2789
▁نفتی	-8.27977
نی	-8.28005
-	-8.28051
▁پاسخ	-8.28087
▁چشم	-8.28322
▁داخل	-8.28495
▁اتهام	-8.28495
▁فشار	-8.28516
▁برق	-8.28671
▁۲۰۱۹	-8.28737
▁نیروهای	-8.28754
▁سیستم	-8.28931
▁انتظار	-8.29116
اما	-8.29147
▁کووید	-8.29197
▁تو	-8.29277
▁نظامی	-8.29286
▁باشند	-8.29292
▁صندوق	-8.29344
▁امور	-8.29354
▁پیشین	-8.29363
▁بینی	-8.29472
▁۱	-8.29655
▁بست	-8.29666
▁طراح	-8.29857
▁قدرت	-8.30022
▁کودکان	-8.30053
ازه	-8.30078
▁دستگاه	-8.302
▁نکرده	-8.30312
▁فارسی	-8.30543
ستاره	-8.30608
▁افت	-8.30808
▁دادن	-8.3085
▁جای	-8.31033
▁حساب	-8.31086
▁فینال	-8.31108
▁نمایندگان	-8.31285
▁جدی	-8.31346
▁کشید	-8.31477
▁قطع	-8.31589
▁کسان	-8.31609
▁داشتند	-8.31652
▁المپیک	-8.31687
ور	-8.31779
▁دانست	-8.31906
▁خانم	-8.32033
▁بحران	-8.32337
وز	-8.32508
▁محکوم	-8.32828
▁مسئولان	-8.32867
▁معرف	-8.32952
▁۷	-8.33012
▁آزادی	-8.33243
ستاد	-8.33328
▁دستور	-8.3335
▁۱۵	-8.33831
▁جامعه	-8.34099
▁فرهنگ	-8.34178
▁خودش	-8.34213
▁انتقاد	-8.34277
▁توانست	-8.34473
▁گو	-8.34476
▁رکورد	-8.34542
▁رقم	-8.34897
▁ورود	-8.34916
▁نوع	-8.34931
▁ورزشی	-8.3508
▁تورم	-8.35116
▁بشر	-8.35124
▁اسفند	-8.35451
▁چگون	-8.35522
ج	-8.35806
▁۱۲	-8.36009
▁ورزشگاه	-8.36209
▁تاریخی	-8.36296
▁آنچ	-8.36326
الات	-8.36368
ره	-8.36573
▁مربی	-8.36625
▁فروردین	-8.36751
▁قرن	-8.36787
▁چهر	-8.36959
▁نیم	-8.37055
▁ارائه	-8.37407
▁کس	-8.37479
▁دوشنبه	-8.37584
▁چهارم	-8.3788
سی	-8.37896
▁بلند	-8.37961
▁رفته	-8.37987
▁کنترل	-8.38112
▁فن	-8.38125
▁شدید	-8.38158
▁تک	-8.38166
▁هز	-8.38387
▁مانده	-8.38556
▁ملل	-8.39024
▁شدت	-8.39084
▁سراسر	-8.39435
▁اس	-8.39599
▁نهاد	-8.39652
۸	-8.39758
▁گذاشته	-8.39826
▁آبان	-8.40027
▁پروژه	-8.40119
▁غنی	-8.40152
▁معاملات	-8.40162
▁اجرا	-8.40333
▁تحقیقات	-8.40429
▁احتمال	-8.40524
▁۱۴۰۰	-8.40905
▁داخلی	-8.40912
▁جنوب	-8.41041
▁دونالد	-8.41061
▁همچن	-8.41153
ف	-8.4116
▁نوشت	-8.41224
▁ایتالیا	-8.41619
▁گیرد	-8.41654
▁موسس	-8.41742
▁پشت	-8.41806
▁شامل	-8.42029
▁اتفاق	-8.42101
▁تجاری	-8.42303
▁محلی	-8.42374
▁مصوب	-8.42652
▁تشکیل	-8.42714
▁روزنامه	-8.42854
▁شاهد	-8.42977
▁فضای	-8.43129
ویه	-8.43592
▁ط	-8.44024
▁بازیگر	-8.44049
▁محیط	-8.44259
▁سیاه	-8.44383
▁هنگام	-8.44401
▁تحقیق	-8.44459
▁مبتلا	-8.44638
▁کارگران	-8.44794
▁آمد	-8.44862
▁ضرب	-8.45039
▁فعال	-8.4519
▁هنر	-8.45215
▁دار	-8.45404
▁فضایی	-8.45451
دی	-8.45596
▁اختیار	-8.45604
▁مشکل	-8.45647
▁ع	-8.4565
▁نیروی	-8.45743
▁مشکلات	-8.45764
▁کنید	-8.4578
▁نبود	-8.45851
▁آسیب	-8.46402
▁شکایت	-8.46498
▁عمل	-8.46681
▁شماری	-8.47041
▁طولانی	-8.47178
▁تصوی	-8.47245
▁بارسلونا	-8.47271
▁نو	-8.47682
▁بشک	-8.48016
▁۸	-8.48018
▁مارادونا	-8.48061
▁جمعیت	-8.48262
▁درمان	-8.48408
▁محدود	-8.48434
یین	-8.48584
▁ناشی	-8.48742
▁۵۰	-8.48756
▁فرهنگی	-8.48917
▁ابتدای	-8.49144
▁جمعه	-8.49229
▁مس	-8.49428
لی	-8.49486
▁تجرب	-8.49552
▁واردات	-8.49704
▁امکان	-8.49997
▁درخواست	-8.50143
▁سمت	-8.50206
▁قو	-8.50219
▁شما	-8.50336
▁سایر	-8.50358
▁مسی	-8.50723
▁باقی	-8.50972
▁هنری	-8.50994
▁دادند	-8.51073
▁بودن	-8.51271
▁دسترس	-8.51305
▁عامل	-8.51425
▁روبرو	-8.51507
▁اولیه	-8.51536
بی	-8.51627
▁اعدام	-8.51827
یعن	-8.51884
▁علت	-8.51936
▁مرغ	-8.51948
▁۲۲	-8.51967
▁سوخت	-8.52046
▁مرتبط	-8.52329
▁ممنوع	-8.5238
▁ماسک	-8.5243
▁هایش	-8.52468
▁تهدید	-8.52597
▁دفاع	-8.52914
پس	-8.53059
▁یاد	-8.53069
▁متفاوت	-8.53111
▁تقریبا	-8.53138
▁آورد	-8.5314
حفظ	-8.53171
▁لازم	-8.53172
▁۱۱	-8.53183
▁صفر	-8.53442
▁صحبت	-8.53474
▁احتمالا	-8.53663
▁کوچک	-8.53862
▁موارد	-8.5387
▁تاکید	-8.5388
▁اف	-8.54507
▁نظام	-8.54583
▁آخر	-8.54699
▁بگیرد	-8.54706
▁پارسال	-8.54717
▁سریال	-8.54771
▁ژان	-8.54789
▁۶۰	-8.55097
انی	-8.55236
▁ال	-8.5533
▁نگهبان	-8.55443
▁قوانین	-8.5547
▁ولایت	-8.55477
▁چهارشنبه	-8.5553
▁گذشت	-8.55585
▁قطر	-8.55798
▁یکشنبه	-8.55801
▁زد	-8.55816
▁۱۶	-8.55825
▁شان	-8.55883
▁علاو	-8.55944
▁ترتیب	-8.56234
▁توسعه	-8.56273
▁دلایل	-8.5642
▁قانونی	-8.56499
▁قصد	-8.56534
▁سرعت	-8.56574
▁کنم	-8.5671
۴	-8.56768
▁شهرهای	-8.56796
▁مشترک	-8.57449
▁بندی	-8.5751
▁حذف	-8.57879
▁فهرست	-8.57889
▁خروج	-8.57944
▁بتوان	-8.57968
▁مسیر	-8.58031
▁اقدامات	-8.58036
▁روابط	-8.58111
▁هوا	-8.58572
▁حل	-8.58652
▁شناس	-8.5872
▁مواد	-8.58737
▁احیا	-8.58741
▁ونزوئلا	-8.58854
▁شهروندان	-8.58904
▁کاملا	-8.59215
▁مسئول	-8.59226
▁خوانده	-8.59298
▁وین	-8.59303
▁احمد	-8.59364
سازی	-8.59505
▁سقوط	-8.59545
▁اخیرا	-8.59583
▁ترکیب	-8.59659
▁طبق	-8.59909
▁شاید	-8.59972
▁نژاد	-8.60136
▁تامین	-8.60403
▁کوتاه	-8.60408
▁مصرف	-8.60424
▁نتایج	-8.60476
▁امضا	-8.60566
▁واحد	-8.60577
▁پرواز	-8.61101
▁غرب	-8.61126
نگ	-8.6113
▁انفجار	-8.61184
▁سنت	-8.6123
▁گ	-8.61311
▁نقاشی	-8.61628
▁سیتی	-8.6184
▁اختلاف	-8.61985
▁برده	-8.62031
▁رییس	-8.62083
▁بیرون	-8.6211
▁جز	-8.62149
▁نسل	-8.62183
▁خون	-8.6261
▁۲۰۱	-8.62663
▁آستان	-8.6275
۲	-8.62843
▁نقطه	-8.6285
رفع	-8.62855
▁طر	-8.62881
▁پایین	-8.63021
▁قرمز	-8.63027
عده	-8.63109
▁پیشنهاد	-8.63153
▁پای	-8.63343
▁۱۴	-8.63449
▁حرفه	-8.63589
▁۴۰	-8.63651
▁نظیر	-8.6368
▁شجریان	-8.63688
▁مرز	-8.63915
▁بیشتری	-8.64099
▁کارگردان	-8.64151
▁صادر	-8.64253
▁بد	-8.6445
▁فرد	-8.6455
▁گون	-8.64603
▁نویسنده	-8.64609
▁صفح	-8.64757
▁آماده	-8.64849
▁شمال	-8.64861
▁یورو	-8.64915
▁کارخان	-8.65024
▁بدن	-8.65367
▁موفق	-8.65423
▁مارس	-8.65487
نمایی	-8.65504
▁کیلومتر	-8.65522
سیون	-8.65553
▁جشنواره	-8.6556
▁چلسی	-8.65645
اس	-8.6586
▁اندازه	-8.66057
۶	-8.66287
▁آوریل	-8.6641
▁اطلاع	-8.66485
▁اسکار	-8.66494
▁استرالیا	-8.66508
۵	-8.66516
▁جهش	-8.66539
▁افتاد	-8.66816
▁میزبان	-8.66904
مان	-8.67122
▁سلامت	-8.6713
▁بخوانید	-8.67179
▁آرژانتین	-8.67198
▁۲۰۲۱	-8.67224
▁ماند	-8.67254
▁همیشه	-8.67285
▁یونایتد	-8.6743
▁گفتگو	-8.6744
▁مجازی	-8.67472
▁شاخص	-8.6774
ید	-8.67812
▁فوت	-8.68029
▁متر	-8.68087
▁توصیف	-8.68091
▁زاده	-8.6813
▁ان	-8.68231
▁تا	-8.68294
خانه	-8.68514
▁رنگ	-8.68529
ام	-8.68544
▁تاکنون	-8.68544
▁۱۷	-8.68588
▁مردان	-8.68698
▁چپ	-8.69029
▁فرصت	-8.69041
▁تجارت	-8.69044
▁مالیات	-8.69169
▁قلب	-8.69202
▁رفتن	-8.69281
▁بزرگترین	-8.69364
▁درگیر	-8.69502
▁بریتانیایی	-8.6965
▁عباس	-8.69722
حه	-8.69818
▁عملیات	-8.70005
▁پاریس	-8.7002
ایران	-8.70037
یق	-8.70161
▁عد	-8.70231
▁محمود	-8.70292
▁هواپیمایی	-8.70525
▁آلود	-8.70764
براز	-8.70891
▁معروف	-8.70969
▁نگران	-8.7103
▁افغان	-8.71202
اساس	-8.71224
▁۱۸	-8.7134
▁هشت	-8.71399
▁روشن	-8.71401
▁۵۰۰	-8.71741
▁برسد	-8.71831
▁اوپک	-8.71889
▁علمی	-8.71896
▁مشهور	-8.71909
▁دومین	-8.71984
▁اعتراضات	-8.72005
▁نهادهای	-8.72099
▁کنندگان	-8.72233
▁طلا	-8.72242
▁سوار	-8.72523
▁مذاکر	-8.72615
▁اعمال	-8.72664
▁سنگین	-8.72885
▁چیزی	-8.73099
▁جمع	-8.73164
▁دارایی	-8.73255
▁سا	-8.73383
▁مجدد	-8.7359
▁نظارت	-8.73608
▁بارها	-8.73656
علی	-8.7367
▁خصوصی	-8.73882
▁پروازهای	-8.74121
▁ندارند	-8.74567
▁رعایت	-8.74571
▁مشابه	-8.74594
▁جدول	-8.74613
▁مقایس	-8.74615
▁آتش	-8.74622
▁اتاق	-8.74634
▁ماهه	-8.74708
▁واقع	-8.74726
▁لای	-8.74842
▁تاج	-8.74947
▁زنده	-8.75073
یی	-8.75128
▁روش	-8.75147
▁کاری	-8.75233
▁هرات	-8.75272
▁هنو	-8.75309
▁من	-8.7541
▁منتقل	-8.75508
▁مناطق	-8.75533
▁چاپ	-8.7564
▁حادثه	-8.75741
▁پیام	-8.75763
▁سایت	-8.75886
▁کالا	-8.76004
▁سریع	-8.76544
▁موفقیت	-8.76603
▁۹۸	-8.76657
ممنوعیت	-8.77098
▁گروهی	-8.77141
▁خواننده	-8.77142
مه	-8.7726
▁۹۰	-8.77303
▁ما	-8.77375
تی	-8.77563
▁کلی	-8.7762
▁سرطان	-8.77666
▁کاخ	-8.77691
▁بهبود	-8.77718
▁تاتنهام	-8.7776
▁مه	-8.77917
▁رسیدن	-8.77959
▁کدام	-8.78026
▁پژوهش	-8.78112
▁ملت	-8.78137
▁کشورها	-8.78209
ع	-8.78259
▁احمدی	-8.78558
▁مانع	-8.78682
▁عمده	-8.78684
▁پخ	-8.79036
▁توییتر	-8.79065
▁زیست	-8.79093
▁دکتر	-8.79099
▁اضاف	-8.79195
▁حق	-8.79233
▁تابستان	-8.79286
▁باخت	-8.79336
▁هواداران	-8.79462
▁حوزه	-8.79502
▁توپ	-8.79562
▁فعالان	-8.79598
▁عملکرد	-8.79615
▁سوریه	-8.79698
▁بال	-8.79741
▁بیست	-8.79743
یر	-8.79789
▁بهتر	-8.80282
▁مجوز	-8.80568
▁بنزین	-8.80605
▁انگیز	-8.80954
۰۰	-8.81034
▁صدای	-8.81194
اخر	-8.81264
اداره	-8.81347
▁خواند	-8.81498
▁کمیت	-8.81543
▁دوست	-8.8155
▁اینترنت	-8.81581
▁رکود	-8.81602
طور	-8.81741
▁امید	-8.81757
▁پور	-8.82158
▁کن	-8.82178
▁مل	-8.82342
▁ایمن	-8.82463
▁بالاتر	-8.82525
▁سنگ	-8.82663
▁منچستر	-8.82663
▁کشف	-8.82673
▁گمرک	-8.82702
▁۱۰۰	-8.82748
▁گر	-8.8296
▁آید	-8.83403
▁رابط	-8.83646
▁راست	-8.83666
▁پیشتر	-8.83736
▁سفیر	-8.83797
▁رشت	-8.84171
▁تهی	-8.84186
▁سفید	-8.84286
▁جنسی	-8.84335
▁ایالت	-8.84468
▁نقدینگی	-8.84603
▁تاجیکستان	-8.84607
▁فساد	-8.84662
▁مادرید	-8.84697
▁بحرین	-8.84712
▁انگلیسی	-8.84845
▁بحث	-8.84872
▁تصاویر	-8.84958
▁درست	-8.84962
▁۲۴	-8.84976
▁تغییرات	-8.85089
▁ل	-8.85103
▁دختر	-8.85535
▁خوزستان	-8.85671
▁دچار	-8.85672
▁حزب	-8.85687
▁صدا	-8.85702
▁نشد	-8.86044
بیشتر	-8.86502
▁خصوص	-8.86644
▁پایتخت	-8.8674
▁مقررات	-8.86756
▁مواجه	-8.86764
▁افتاده	-8.86815
▁ارتش	-8.86836
▁گردد	-8.86879
▁اظهارات	-8.86882
▁ق	-8.86973
▁مجله	-8.87033
▁فرمانده	-8.87081
▁گذاشت	-8.87159
▁دهم	-8.87195
▁کارگر	-8.87222
▁تی	-8.87229
وایل	-8.87302
▁خالی	-8.87597
▁خبرنگار	-8.87618
▁مستند	-8.87662
▁خودروساز	-8.87714
▁چه	-8.8777
▁برخورد	-8.87837
▁طبیعی	-8.8795
▁پوند	-8.88011
▁سینمایی	-8.88174
گر	-8.8845
▁رفتار	-8.88489
▁روان	-8.88579
▁برداشت	-8.88705
دو	-8.88717
▁چیز	-8.88875
▁پا	-8.88898
▁نقاط	-8.88923
▁مغز	-8.89039
▁جوان	-8.89358
▁مهر	-8.89365
▁مر	-8.89431
عودی	-8.89501
▁رانند	-8.89553
▁جایی	-8.89576
▁هنرمند	-8.89636
▁شرق	-8.89745
▁بازارهای	-8.89831
▁گذار	-8.89949
▁ارشد	-8.90123
▁۲۸	-8.90134
▁اسپانیا	-8.90187
▁قطعی	-8.90306
▁زدن	-8.90431
▁ز	-8.90474
▁خ	-8.90522
▁قضایی	-8.90801
▁محمو	-8.90819
▁عبور	-8.90977
▁مشغول	-8.90993
▁مجبور	-8.9116
تر	-8.9117
▁دریا	-8.91221
▁پدر	-8.91365
▁حت	-8.91389
▁پل	-8.91477
▁حرف	-8.91519
▁فدرر	-8.91726
▁فنی	-8.9173
▁روزانه	-8.92161
▁دنیای	-8.92169
▁جدیدی	-8.92251
کنندگان	-8.92254
▁قتل	-8.92366
▁هدایت	-8.92401
▁موافقت	-8.92439
▁قدیمی	-8.9249
▁سخنران	-8.92524
▁امیدوار	-8.92546
▁عهد	-8.92652
▁ابتدا	-8.92751
▁موجود	-8.92783
▁کارشناسان	-8.92965
▁پیوست	-8.93022
▁۲۳	-8.93064
مهدی	-8.93294
▁مثبت	-8.93297
▁سکه	-8.93307
▁اجرایی	-8.93425
▁زاغری	-8.93445
▁معتقد	-8.93488
▁دوچرخه	-8.93517
▁نفتکش	-8.9359
یا	-8.93998
▁آورده	-8.94178
▁حریف	-8.94365
▁زنی	-8.94474
▁توضیح	-8.94479
▁تشخیص	-8.94607
▁وابست	-8.94612
▁فارس	-8.94766
▁مرداد	-8.94786
▁رئال	-8.94876
▁صحنه	-8.95041
▁دین	-8.95169
▁شعر	-8.95294
▁کودک	-8.954
▁وزن	-8.95511
▁شاه	-8.95562
▁کنون	-8.95577
▁افزوده	-8.95602
▁هوشمند	-8.95786
▁۱۳۹۹	-8.95823
▁عدالت	-8.95826
▁تجمع	-8.95867
▁یابد	-8.95892
▁خاک	-8.96007
▁بیکار	-8.96169
▁دفتر	-8.96183
▁تقوی	-8.9638
▁رخ	-8.96491
▁-	-8.96665
▁انگلستان	-8.9698
▁ظرف	-8.96996
▁دوربین	-8.97016
▁ساختمان	-8.97119
▁فیفا	-8.97157
یات	-8.97209
▁رساند	-8.97334
▁مدیریت	-8.97392
▁حسین	-8.97419
▁فر	-8.97444
▁زندانی	-8.97567
▁آوری	-8.97607
۷	-8.97755
▁ارزی	-8.9778
▁مد	-8.97923
▁صعود	-8.98125
▁پنجم	-8.98177
▁پاسداران	-8.98208
▁دانند	-8.98422
▁دبیر	-8.98552
فورد	-8.98733
▁کشاورز	-8.98816
▁مستقیم	-8.99135
▁ظاهر	-8.9938
▁العاده	-8.99399
▁صبح	-8.99467
▁نشری	-8.99613
▁فوریه	-8.99648
▁پذیر	-8.99879
▁بنز	-8.99941
▁دختران	-8.99983
▁رضا	-9.00214
▁پیشرفت	-9.00319
۰	-9.00381
▁کشورش	-9.00479
▁پوست	-9.00556
▁بنا	-9.00617
▁فراهم	-9.00651
▁بو	-9.00702
▁بهمن	-9.00901
▁نور	-9.00982
▁شخصیت	-9.01014
▁۳۰۰	-9.01153
۹	-9.01283
▁واقعی	-9.01362
▁فو	-9.0171
▁ژاپن	-9.0177
▁بهار	-9.01836
▁معتبر	-9.01914
▁موقعیت	-9.01915
▁مدافع	-9.01926
▁استقبال	-9.01928
▁مدعی	-9.01983
▁لو	-9.02006
▁موزه	-9.02031
▁نخواه	-9.02166
▁سعید	-9.02179
محمد	-9.02332
▁اقیانوس	-9.02446
▁مقامات	-9.02518
▁مک	-9.02664
▁وضع	-9.02812
▁چک	-9.02879
صد	-9.03055
▁دارو	-9.03098
▁ژوئن	-9.03146
▁تز	-9.0315
▁تماس	-9.0329
تان	-9.03352
بود	-9.03408
ط	-9.03431
▁بهداشتی	-9.03676
▁بن	-9.03888
▁شخصی	-9.03925
۱	-9.04195
▁مت	-9.04511
▁خانگی	-9.04528
▁خورد	-9.04568
▁طالبان	-9.04602
▁آموزش	-9.04624
▁جنجال	-9.04667
▁مخالفت	-9.04721
▁سینمای	-9.04765
▁راهی	-9.048
▁فعلی	-9.04814
▁مسافران	-9.04867
▁صدر	-9.04986
▁امام	-9.05145
▁جنگل	-9.05311
▁مادر	-9.05582
▁مالک	-9.05695
▁زود	-9.05728
▁محصولات	-9.05777
▁اردیبهشت	-9.05809
▁معادل	-9.05827
▁درواز	-9.05835
▁چیست	-9.05837
▁روایت	-9.05847
▁حمل	-9.05864
▁کانال	-9.05865
▁فایل	-9.05871
▁کاربران	-9.05874
▁رمان	-9.05921
▁محمدرضا	-9.06024
▁سفارت	-9.06094
▁میدان	-9.06143
▁بیماران	-9.06222
یون	-9.06431
▁قبلا	-9.06606
شنبه	-9.06615
▁سود	-9.06736
▁دانشمندان	-9.06801
▁آلمانی	-9.06857
▁فرزند	-9.06969
▁تحویل	-9.07044
▁سرشناس	-9.07069
▁اوت	-9.07077
▁بایرن	-9.07107
▁عجیب	-9.07131
▁علاق	-9.07167
▁دید	-9.07193
▁رویترز	-9.07248
▁صوتی	-9.07285
دود	-9.07342
▁تلفن	-9.07392
▁تومانی	-9.07585
داری	-9.07607
▁عرب	-9.07732
▁ترانه	-9.07883
▁بیت	-9.07904
▁نوری	-9.07997
▁اصلاح	-9.08203
▁دل	-9.08362
▁توصی	-9.08362
▁هستیم	-9.08441
▁بدهی	-9.08472
▁نشود	-9.08495
▁جشن	-9.08503
▁خرداد	-9.08509
▁واکسین	-9.08515
▁دانش	-9.08614
▁پاکستان	-9.08628
▁قدم	-9.0877
▁بنابر	-9.08829
▁خواهیم	-9.08855
▁بیمار	-9.08974
▁لی	-9.092
▁کارهای	-9.09294
▁خواه	-9.09314
▁درآمدها	-9.09324
۳	-9.09425
▁گوش	-9.09602
خش	-9.09617
▁جدا	-9.0973
▁خدمات	-9.09783
▁مبتلایان	-9.0981
▁فرانسوی	-9.09815
▁مدیرعامل	-9.09819
▁اوراق	-9.09851
▁قسمت	-9.0995
کی	-9.10199
▁آرام	-9.10246
▁مهار	-9.10296
▁ساز	-9.10339
▁علیرضا	-9.10624
ازگی	-9.10847
▁کو	-9.109
▁۲۱	-9.11074
▁مبلغ	-9.11095
▁آلبوم	-9.1114
▁نشر	-9.11268
▁گیرند	-9.11394
▁سوئیس	-9.11417
▁مجید	-9.11502
▁نداشته	-9.11507
▁مجری	-9.11867
▁اوج	-9.11975
نقض	-9.12373
رد	-9.12427
▁حفاظت	-9.1249
▁جزئیات	-9.12542
▁خلق	-9.12561
▁معامل	-9.1257
سته	-9.12626
▁کنونی	-9.12708
▁ارسال	-9.12723
▁پالایشگاه	-9.12726
▁عادی	-9.12793
▁همسر	-9.12882
اوری	-9.12987
▁متوسط	-9.13439
▁برگشت	-9.13469
▁نهایت	-9.13618
▁سرخ	-9.1362
▁اینستاگرام	-9.13696
▁تورنمنت	-9.13896
▁نوامبر	-9.13958
▁سوپر	-9.13986
▁اسطوره	-9.14006
▁فرهاد	-9.14119
▁موقت	-9.14127
▁خورده	-9.14131
▁موتور	-9.14172
▁ایم	-9.14229
▁نویس	-9.14411
▁یو	-9.14636
▁آبی	-9.14653
▁برمی	-9.14669
الدین	-9.15031
▁جراح	-9.15154
▁۲۶	-9.15264
▁فوری	-9.15273
▁کنسرت	-9.15342
▁۲۰۱۷	-9.15353
▁رونالدو	-9.15375
▁دریایی	-9.1538
▁گرم	-9.15387
▁معرض	-9.15399
سال	-9.154
▁لحظ	-9.1542
▁نزدیکی	-9.15439
▁واشنگتن	-9.15456
▁اخراج	-9.15483
▁تخریب	-9.15497
▁ضد	-9.15545
▁جوایز	-9.15546
▁تقاضا	-9.15567
▁خورشیدی	-9.15604
▁متعل	-9.15735
▁نداشت	-9.15829
▁مهاجم	-9.15915
▁استاد	-9.15983
▁باره	-9.16141
▁مالکی	-9.16196
▁ضرور	-9.16519
▁سیستان	-9.16601
کسی	-9.16701
گاهی	-9.16751
▁کارکنان	-9.16755
▁لباس	-9.16821
▁عصر	-9.16916
▁داریم	-9.17055
▁مدیران	-9.17204
▁غذا	-9.17209
▁گستر	-9.17364
▁غذای	-9.1746
▁موشک	-9.17503
▁۳۵	-9.17608
▁منف	-9.17619
▁نگه	-9.17917
خانم	-9.18125
▁مسلح	-9.18298
▁نحو	-9.18305
▁صرف	-9.18375
▁هواپیما	-9.18388
▁امارات	-9.1843
▁۷۰	-9.18555
▁احساس	-9.18663
▁سوال	-9.18668
▁رافائل	-9.18714
▁ناظر	-9.18889
▁برزیل	-9.18918
▁کافی	-9.18945
▁معنای	-9.18969
▁مکان	-9.19081
▁گران	-9.19119
یروز	-9.19162
▁نتوانست	-9.19174
سازمان	-9.19184
▁تمامی	-9.1925
▁دریای	-9.19303
▁اشتباه	-9.19528
▁اکت	-9.19534
ول	-9.19726
▁مرزی	-9.19729
▁۱۳۹۸	-9.19739
▁بلوچستان	-9.1974
▁غربی	-9.19781
▁ایستگاه	-9.19857
▁۸۰	-9.1986
▁هاست	-9.19925
▁خودروهای	-9.19995
▁دیوان	-9.20018
▁معمولا	-9.20039
توجه	-9.20108
▁فوتبالیست	-9.20116
▁تصور	-9.20311
دولت	-9.20743
وزارت	-9.20807
اقل	-9.20884
غلب	-9.2104
▁محرم	-9.21077
▁کردم	-9.211
▁ویمبلدون	-9.21252
▁نوبل	-9.21287
▁قضائیه	-9.21374
▁نیویورک	-9.21391
▁ریز	-9.21395
▁معترضان	-9.21417
▁مطالع	-9.21438
▁جیمز	-9.21438
خواهد	-9.21503
▁چندان	-9.21514
▁نیرو	-9.21514
مقام	-9.2152
▁برقرار	-9.21526
▁سعی	-9.21673
▁آذر	-9.21725
▁تعهدات	-9.21743
ما	-9.21773
امبر	-9.21797
▁حسینی	-9.2183
▁کالاهای	-9.21893
▁زخمی	-9.21942
▁جمعی	-9.22058
▁توییت	-9.22163
▁گام	-9.22241
▁داند	-9.22362
▁تقاضای	-9.22571
فدراسیون	-9.22612
▁ژوئیه	-9.22787
▁صلح	-9.22795
▁فضا	-9.2282
گری	-9.22838
▁قاچاق	-9.22881
قب	-9.22884
▁ملک	-9.22977
گ	-9.22999
▁مشا	-9.23038
▁داشتن	-9.2341
است	-9.23777
▁آهنگ	-9.23918
▁پست	-9.23934
وق	-9.23972
ح	-9.24049
تبه	-9.2409
دار	-9.24133
▁مونیخ	-9.24349
▁حاصل	-9.24352
▁نگهداری	-9.24366
▁بهادار	-9.24377
▁آمازون	-9.24398
▁پرتاب	-9.24461
▁نادال	-9.24502
▁هموار	-9.24503
▁حاشیه	-9.24542
▁منج	-9.2469
▁انجمن	-9.2478
▁مخالفان	-9.24781
▁ماهی	-9.24936
▁خبرنگاران	-9.25019
برای	-9.25116
▁خیابان	-9.25121
▁فردا	-9.25169
▁شاعر	-9.25221
▁امیر	-9.25272
▁اع	-9.25285
▁اندازی	-9.25435
▁پژوهشگران	-9.25492
▁شهروند	-9.25692
▁دا	-9.2576
▁تعویق	-9.25936
رکت	-9.25961
▁لیون	-9.25973
▁اهمیت	-9.25985
▁مریخ	-9.26043
▁ادبیات	-9.26055
▁دیدن	-9.26085
▁هواپیمای	-9.26125
▁نمو	-9.26177
▁نویسندگان	-9.26184
خبرگزا	-9.26216
▁تیراندازی	-9.2626
▁یکدیگر	-9.26282
▁دشوار	-9.26306
▁۹۹	-9.26506
شب	-9.26523
▁حس	-9.26603
یابی	-9.26646
▁عین	-9.26749
▁مربیان	-9.26825
▁اساسی	-9.26867
▁بعدی	-9.26885
▁هست	-9.27062
▁برود	-9.27105
▁مو	-9.27314
▁متعدد	-9.27558
زه	-9.27563
▁کا	-9.27619
▁صلاحیت	-9.2762
▁برجسته	-9.27648
▁عوامل	-9.2766
▁حکام	-9.27683
وم	-9.27689
هرگز	-9.27722
▁گرفتند	-9.27752
لیک	-9.27776
▁توقف	-9.27815
▁مراجع	-9.27882
▁اکبر	-9.27945
▁ورزشکاران	-9.27965
▁واقعیت	-9.28343
هر	-9.28575
▁مناسب	-9.28813
▁تیر	-9.28899
▁احتمالی	-9.2899
▁اختصاص	-9.29189
▁ایسنا	-9.29314
▁خوش	-9.29449
▁افتخار	-9.29623
▁سپت	-9.29628
▁روزها	-9.29739
▁سند	-9.29786
▁سخنان	-9.29801
▁داروی	-9.29925
چند	-9.29978
▁اسرائیلی	-9.30072
قانونی	-9.30312
▁محبوب	-9.30553
ونه	-9.3076
کس	-9.30765
▁جذب	-9.30853
▁صنایع	-9.30854
▁سراوان	-9.30861
▁ثابت	-9.30904
▁دارای	-9.30927
▁چالش	-9.30931
▁آنلاین	-9.3096
▁پروتکل	-9.3101
▁ماموران	-9.31022
▁سلیمانی	-9.3104
اسی	-9.31086
▁آمیز	-9.31134
حسین	-9.31174
▁مواردی	-9.31204
▁مطابق	-9.31234
یکی	-9.3129
▁پزشک	-9.31437
▁بازرگانی	-9.31442
▁سیما	-9.31786
قیف	-9.31979
▁قاسم	-9.32038
▁ساکن	-9.32324
▁سلطنت	-9.3255
▁توکیو	-9.32551
▁بوکس	-9.32674
▁حاکی	-9.32693
▁رسما	-9.32723
رضا	-9.32806
▁کارمندان	-9.32921
▁کردیم	-9.3297
▁همتی	-9.3297
▁درجه	-9.33157
▁ریال	-9.33278
▁پرس	-9.33526
▁خدم	-9.33627
▁رقیب	-9.33659
قدر	-9.33675
▁حیات	-9.33675
▁کلاس	-9.33681
خواهان	-9.33705
▁استعفا	-9.33759
پ	-9.33844
▁چهل	-9.33869
نا	-9.33967
▁محروم	-9.3407
▁ض	-9.34078
▁لس	-9.34188
▁ایستاد	-9.34246
▁خشونت	-9.34272
▁قالیباف	-9.34275
ته	-9.34292
▁مسافر	-9.34321
▁اخبار	-9.34331
نده	-9.34359
▁مسئ	-9.34394
اسیون	-9.34486
▁تاسیسات	-9.34491
▁خشک	-9.34541
▁جایگاه	-9.34633
▁وکیل	-9.34688
▁بندر	-9.3483
▁عکاسی	-9.34831
▁پارک	-9.34924
▁راجر	-9.34952
▁۲۹	-9.35003
▁هنرمندان	-9.3502
▁۳۱	-9.35265
▁بازگرداند	-9.35265
▁گفتند	-9.3538
▁فردی	-9.35388
ظیم	-9.35396
▁شیو	-9.35418
▁آسمان	-9.35499
▁عبدال	-9.35576
▁آزار	-9.35647
▁خورشید	-9.35848
▁موسو	-9.35871
▁کارشناس	-9.35873
شیدا	-9.35987
▁ارقام	-9.36027
▁اجلاس	-9.3603
▁پلاس	-9.36077
▁فرودگاه	-9.36117
▁اهل	-9.36289
▁کشوری	-9.36333
▁گذارد	-9.36522
وس	-9.3657
▁قوی	-9.36584
▁سهم	-9.36787
▁پسر	-9.36824
▁جلوی	-9.37044
▁نامداری	-9.37115
بط	-9.37152
وئل	-9.3716
▁تری	-9.3717
▁ترس	-9.37302
▁اصل	-9.37403
▁زند	-9.37437
باید	-9.37633
هم	-9.37669
ود	-9.37726
علوم	-9.37771
▁توزیع	-9.37812
▁طبیعت	-9.37831
سه	-9.3793
▁سبک	-9.37998
▁گیر	-9.38032
▁یوونتوس	-9.38034
را	-9.38057
▁طرفداران	-9.38058
دست	-9.38088
▁جوکوویچ	-9.38149
▁مایک	-9.38202
▁پرو	-9.38271
▁ماجرا	-9.38337
▁مخالف	-9.38649
▁الملل	-9.38676
▁شناسی	-9.38832
▁زندانیان	-9.38879
▁جودو	-9.38984
سون	-9.39103
▁پنجاه	-9.39108
▁شناسا	-9.39213
▁بعدا	-9.39239
▁خان	-9.39315
▁متحد	-9.39409
▁عمیق	-9.39415
▁ماده	-9.39435
کره	-9.39473
من	-9.3959
▁اصفهان	-9.39631
▁اورا	-9.39631
▁دیجیتال	-9.39632
▁جبران	-9.39649
▁دعوت	-9.39656
▁تاخیر	-9.39679
▁شهریور	-9.39725
▁منتظر	-9.39806
▁ضمن	-9.39831
▁صراف	-9.39928
▁منتقدان	-9.4011
▁کلوپ	-9.40147
▁ناسا	-9.40171
▁آل	-9.40232
کن	-9.4024
▁ادبی	-9.40441
▁جواد	-9.40455
▁شهرت	-9.40522
▁دستمزد	-9.40547
▁میلان	-9.40966
▁محمدی	-9.41191
هایی	-9.41194
▁کارها	-9.41273
▁تحصیل	-9.41414
▁مراکز	-9.41481
▁کاپیتان	-9.41484
تا	-9.41497
▁آنجلس	-9.41511
▁تمدید	-9.41537
▁متولد	-9.41569
▁گذرد	-9.41633
▁حراج	-9.41656
▁حذفی	-9.41661
بس	-9.41671
انجام	-9.41682
▁وگو	-9.41789
▁زاد	-9.41842
▁صدو	-9.41908
▁اتریش	-9.41962
نیوم	-9.41999
▁مشاور	-9.42019
▁شرقی	-9.42102
▁آور	-9.42233
▁پاس	-9.42281
▁پایه	-9.42307
▁عدد	-9.42462
وع	-9.42508
▁فرستاده	-9.42509
ساوی	-9.42568
اب	-9.42655
تیم	-9.42795
▁نج	-9.42861
▁ورزشکار	-9.43233
▁تست	-9.4325
▁برادر	-9.43314
▁باور	-9.43334
رنگ	-9.43376
▁مسائل	-9.43377
▁مشمول	-9.43379
▁مقصد	-9.43459
▁لوکس	-9.43484
▁سرپرست	-9.43602
▁بستر	-9.43753
▁حقوقی	-9.43753
▁مراقب	-9.43761
▁خاص	-9.43786
یو	-9.43802
▁اتفاقات	-9.43888
▁نرم	-9.44057
▁گردشگری	-9.44078
▁بازرس	-9.4408
▁تسل	-9.44181
▁موثر	-9.44206
▁جه	-9.4426
▁صف	-9.44319
▁ارزها	-9.44465
▁ادار	-9.44484
▁فرار	-9.44661
▁رحمان	-9.44852
اد	-9.44948
کش	-9.44998
▁اسکن	-9.45057
▁گلستان	-9.45185
▁فرا	-9.45187
▁تمرین	-9.45209
▁اتومبیل	-9.45292
▁خسارت	-9.45294
▁سرنگون	-9.45294
▁۱۳۹۷	-9.45295
ضاع	-9.45313
▁هنرپیشه	-9.45327
▁رهبری	-9.45375
▁قبول	-9.45381
▁ثانی	-9.45402
▁مارک	-9.45409
▁فراموش	-9.45411
▁فیزیک	-9.45418
▁شمالی	-9.45452
▁فیسبوک	-9.45469
▁واگذار	-9.45489
▁همسرش	-9.4559
▁انتخاباتی	-9.45688
▁جسد	-9.457
...	-9.45851
▁هرچ	-9.46142
▁متن	-9.46207
▁قول	-9.46253
▁مجاز	-9.46678
▁برآورد	-9.46703
▁مج	-9.46822
▁چشمگیر	-9.46881
▁فرود	-9.47143
▁بقیه	-9.47262
▁آهن	-9.47323
▁میانه	-9.47368
▁ناپذیر	-9.47393
▁خیریه	-9.47408
گرد	-9.47546
▁۳۲	-9.47583
▁نقاش	-9.47583
▁هماهنگ	-9.47599
▁سامانه	-9.47684
▁کرونای	-9.47763
یست	-9.47808
▁شاملو	-9.47942
▁خلی	-9.48078
▁بلا	-9.48143
▁زمستان	-9.4833
▁محققان	-9.485
شته	-9.48578
جا	-9.4863
اره	-9.48698
▁سپاهان	-9.48756
▁بان	-9.48791
▁پدرش	-9.48851
▁گزین	-9.48968
▁نوروز	-9.48984
رئیس	-9.49246
▁اسکاتلند	-9.49254
▁تئاتر	-9.49282
▁میراث	-9.49303
▁تنفس	-9.49308
ران	-9.49417
▁تحولات	-9.4944
ابت	-9.4972
گفته	-9.49748
▁بنیاد	-9.49878
▁فرمو	-9.50008
▁جذاب	-9.50014
▁افزود	-9.50036
▁درک	-9.50276
همزمان	-9.50331
▁بخت	-9.50343
▁نهم	-9.50403
هفته	-9.50568
۱۶	-9.50879
▁انداز	-9.50974
▁آشنا	-9.51021
▁رویکرد	-9.51036
کار	-9.5112
لان	-9.51273
▁صدرنشین	-9.51318
▁اطمینان	-9.51353
▁شاغل	-9.51353
▁موضع	-9.51368
▁نارنجی	-9.514
▁ازدواج	-9.51416
▁آرسنال	-9.5142
▁۲۰۱۵	-9.51421
▁ساحل	-9.51441
▁ساعات	-9.51526
▁کانادا	-9.51692
▁تماشاگران	-9.51777
اری	-9.51784
خراج	-9.51866
▁عید	-9.51894
▁ابلاغ	-9.51907
▁سهمی	-9.51941
▁نداده	-9.51974
▁مشاهد	-9.52044
خمین	-9.52044
▁اوپ	-9.52062
▁چنان	-9.52154
فسور	-9.52382
▁جامع	-9.52402
ئو	-9.52433
ناصر	-9.5248
شویی	-9.52775
▁بالاتری	-9.5294
▁توانسته	-9.52974
▁دستگیر	-9.53013
▁حامل	-9.53298
▁نطنز	-9.53373
▁ناگهان	-9.53378
▁پنهان	-9.53378
▁مشهد	-9.53399
▁دامن	-9.5342
▁فعلا	-9.53424
▁بماند	-9.53436
▁رادیو	-9.53446
▁فیوری	-9.53483
▁مقدار	-9.53575
▁گرانی	-9.53637
▁همچو	-9.53762
▁باغ	-9.53816
یان	-9.53991
ماه	-9.54026
▁نفس	-9.54029
وثی	-9.54072
▁شبانه	-9.54181
رسدس	-9.54231
▁کوه	-9.5444
داد	-9.54581
▁پاپ	-9.54756
شاره	-9.54794
▁عق	-9.54877
▁صاحب	-9.5498
▁تخت	-9.55067
▁اسب	-9.55076
▁کی	-9.55163
۴۰۰	-9.55282
▁تکرار	-9.55385
▁عمدتا	-9.55503
▁تعلیق	-9.55519
▁الهام	-9.55525
▁رونق	-9.55535
▁بگیرند	-9.55556
▁دسامبر	-9.55569
▁کلیه	-9.55587
▁قربانیان	-9.55718
▁کمیس	-9.55759
▁سوئد	-9.55798
▁مشتریان	-9.55818
▁نیازمند	-9.55854
▁مسعود	-9.55864
۱۸	-9.55888
▁اسناد	-9.55976
▁امر	-9.56044
وه	-9.56249
▁جوانان	-9.56304
لو	-9.56471
▁درمانی	-9.56655
▁دما	-9.56762
گزارش	-9.5677
▁عکاس	-9.5678
▁دام	-9.57159
▁نیستند	-9.57219
▁گاه	-9.57246
▁نوجوان	-9.57259
▁خاصی	-9.57299
▁کارت	-9.5752
▁کالیفرنیا	-9.57525
▁اظهار	-9.57582
▁خاتمی	-9.5762
▁ناز	-9.57648
▁حداکثر	-9.57652
▁ژافره	-9.57674
▁نداریم	-9.57698
▁وق	-9.57733
▁انداخت	-9.57737
▁ذهن	-9.57775
▁فروخته	-9.57784
▁عرص	-9.57805
▁پادتن	-9.57808
▁آکادمی	-9.57809
▁حملات	-9.57834
▁ماموریت	-9.57857
۱۹	-9.5786
▁برخوردار	-9.57923
▁سرکوب	-9.57992
▁۲۷	-9.58007
▁تولد	-9.58009
▁ایتالیایی	-9.58073
ینگ	-9.58165
▁استاندار	-9.58179
▁اطراف	-9.58203
▁نبوده	-9.58225
▁محافظ	-9.58302
وید	-9.58335
▁هی	-9.58467
▁۳۳	-9.58481
▁مرور	-9.58663
▁دادستان	-9.5867
▁ساده	-9.58679
▁اجا	-9.58797
▁یمن	-9.58929
▁هشتم	-9.58997
▁۴۵	-9.59096
▁یافتن	-9.59187
▁یخ	-9.59387
▁انداخته	-9.59447
▁آفریقا	-9.59527
▁امیدواری	-9.5955
▁کیلومتری	-9.59606
▁لبنان	-9.59635
▁تماشاگر	-9.59677
▁محصول	-9.59854
▁خواب	-9.59875
▁تاسیس	-9.59893
▁ژرمن	-9.59899
▁اعتبار	-9.59905
▁نسخ	-9.59946
▁حیوانات	-9.59949
ندگان	-9.59974
▁محرومیت	-9.59975
▁دستورالعمل	-9.60037
▁شواهد	-9.60047
▁بازنشستگان	-9.60052
▁خمینی	-9.60055
▁جلب	-9.60079
▁مسئولیت	-9.60103
▁عمر	-9.60125
▁نادر	-9.60151
▁بدهد	-9.60152
▁هویت	-9.60177
▁پیچیده	-9.60223
▁تماشای	-9.60273
پیش	-9.60479
حسن	-9.60535
▁خاطره	-9.60578
اک	-9.60875
▁اضطرار	-9.60896
▁دسته	-9.60909
▁آمدن	-9.61068
ئی	-9.61299
▁ویژ	-9.61309
▁بند	-9.61327
غم	-9.61331
عهد	-9.61342
▁شرکتهای	-9.61615
▁مادرش	-9.61719
▁تصادف	-9.61894
نظر	-9.619
▁کارزار	-9.61901
▁کالاها	-9.61975
▁محسو	-9.62029
▁هیئت	-9.62166
▁اعتماد	-9.6217
▁مصنوعی	-9.62172
▁ایرنا	-9.62329
▁پادشاه	-9.62381
▁جواب	-9.6239
▁پن	-9.62438
ذیب	-9.62531
▁نفوذ	-9.62567
یل	-9.62728
▁گری	-9.6282
▁تعرف	-9.6285
▁داوطلبان	-9.62912
▁شانس	-9.62919
▁بازدید	-9.62976
▁هفتم	-9.62984
رده	-9.63026
▁دیوار	-9.63132
▁بیان	-9.6325
▁برداری	-9.63422
▁قطعه	-9.63554
بیشترین	-9.63817
▁شک	-9.64011
نازنی	-9.64041
رت	-9.6426
▁تخم	-9.64266
▁مسکو	-9.6432
یده	-9.64351
▁مطلب	-9.64448
▁اسکی	-9.64465
▁پاری	-9.64469
▁خطرناک	-9.64497
▁واگن	-9.64499
▁متوالی	-9.64505
▁قالب	-9.64513
▁خفاش	-9.64561
▁تبعیض	-9.64563
▁بردن	-9.64564
▁مستقل	-9.64627
▁مجسمه	-9.64635
▁شبی	-9.64654
▁کیفیت	-9.64676
▁دانیم	-9.64676
▁متخصص	-9.64715
▁ویدیوی	-9.64732
▁شفاف	-9.64755
▁خودکشی	-9.6476
▁پکن	-9.64775
▁زهرا	-9.64779
▁مدیرکل	-9.64846
▁کادر	-9.65104
▁ار	-9.65238
▁چرخ	-9.6524
▁مدار	-9.65247
▁دلاری	-9.65511
بانک	-9.65651
▁سخن	-9.65787
▁بازیگران	-9.65888
ریمه	-9.65951
▁اتفاقی	-9.6603
▁اطلاعی	-9.66088
▁گشت	-9.66175
▁حالت	-9.66176
▁۳۴	-9.6621
▁سفرهای	-9.66291
▁هن	-9.66345
▁سری	-9.66379
▁نکرد	-9.6649
جمع	-9.66546
▁شغل	-9.6664
▁مهد	-9.66799
▁نیمی	-9.66802
▁ماجرای	-9.66874
▁مورینیو	-9.66876
▁کیلوگرم	-9.66877
▁اندونزی	-9.66878
▁پرچم	-9.66879
▁تشویق	-9.66888
▁نصب	-9.66891
رز	-9.66914
▁تردد	-9.66928
▁تجدید	-9.66953
گانه	-9.6698
▁مسافرت	-9.6703
▁مجازات	-9.67041
▁رمز	-9.67096
▁دهیم	-9.67125
▁آر	-9.67182
▁مدرسه	-9.67277
▁تأ	-9.67311
ساز	-9.67473
▁مار	-9.6749
۱۴	-9.67524
▁طلای	-9.67815
▁دقیقا	-9.68215
▁گوشت	-9.68266
بعضی	-9.68359
▁پاک	-9.68375
وخیم	-9.68472
▁انتظا	-9.68545
بنابر	-9.68608
دکتر	-9.68684
▁درحال	-9.68684
رون	-9.68691
وقت	-9.68746
▁ترجم	-9.68812
▁مدرن	-9.6886
▁منع	-9.68878
یوم	-9.69049
▁نگار	-9.69096
▁معدن	-9.69191
قیمت	-9.6923
▁گرنداسلم	-9.69315
▁مشاغل	-9.69323
▁نیمکت	-9.69332
▁سلول	-9.69342
▁بگذارد	-9.69371
▁عشق	-9.69385
▁مقدمات	-9.69412
▁برگزید	-9.69424
▁اجاره	-9.69458
▁خلاف	-9.69521
▁امضای	-9.69529
▁هاشمی	-9.69538
▁فرم	-9.69571
▁لستر	-9.69582
▁ابر	-9.69631
▁مرجان	-9.69696
▁قلع	-9.69696
▁طلب	-9.69738
▁شاهین	-9.69741
آزادسازی	-9.69778
▁عبدالله	-9.69783
▁فراز	-9.69797
شرکت	-9.69901
▁نمایندگی	-9.69909
دان	-9.69913
▁تب	-9.70026
▁خودروسازی	-9.70278
▁جانب	-9.70289
▁عملا	-9.70417
▁آسان	-9.70449
▁دوز	-9.70697
کل	-9.70861
خالت	-9.70976
▁افزار	-9.71057
▁آنتونی	-9.71131
▁ابراهیم	-9.71173
▁مهمتری	-9.71173
▁فرمان	-9.71314
▁دوستان	-9.71335
وش	-9.71379
نس	-9.71411
▁کلید	-9.71538
نین	-9.71586
▁آکسفورد	-9.71814
▁گشایش	-9.71816
پی	-9.71823
▁وسیع	-9.71866
▁شصت	-9.71878
▁وام	-9.71882
▁خطوط	-9.71893
▁مالیاتی	-9.7191
▁وایلد	-9.71934
▁پوشش	-9.71941
▁اهواز	-9.71944
▁تجهیزات	-9.71966
▁شویم	-9.7205
▁وانت	-9.72052
▁شگفت	-9.721
▁محکومیت	-9.7215
▁دهنده	-9.72241
▁زودتر	-9.72463
زی	-9.72535
▁بازگش	-9.72604
▁رویا	-9.72616
▁بابا	-9.72616
▁نامش	-9.7267
▁پیگیری	-9.72715
▁مان	-9.72719
▁۴۲	-9.72768
▁زنند	-9.7277
رانی	-9.73067
▁درحالی	-9.7326
▁کجا	-9.73364
زاده	-9.73505
▁مسک	-9.73693
▁نامید	-9.73743
▁علم	-9.73745
▁دان	-9.73801
▁مبن	-9.73848
▁دائم	-9.7395
بار	-9.7397
▁پژوهشگر	-9.74101
شدید	-9.74202
▁جنسیت	-9.74331
▁چارچوب	-9.74376
▁بسکتبال	-9.74377
▁استانبول	-9.74381
▁سلاح	-9.74385
▁گروسی	-9.74405
▁علائم	-9.74453
▁گواردیولا	-9.74456
▁منافع	-9.74494
▁پرتغال	-9.74556
▁هتل	-9.74579
▁دانشجویان	-9.74608
▁اسپانیایی	-9.74626
▁یادآور	-9.74653
▁آرایش	-9.74696
▁تفاوت	-9.74866
▁زاهد	-9.74934
لند	-9.75204
▁دیپلما	-9.75223
▁اسماعیل	-9.75285
▁اجباری	-9.75343
▁تحول	-9.75421
▁طلبان	-9.75424
▁فقر	-9.75503
▁برنت	-9.75639
▁شیر	-9.75745
▁تل	-9.75752
ورت	-9.75766
▁آزمایشگاه	-9.75917
▁بردند	-9.76003
▁شهرداری	-9.76155
ستان	-9.76173
▁فق	-9.7629
▁اسلام	-9.76566
واع	-9.76629
▁معمول	-9.76816
▁جی	-9.76894
▁برج	-9.76898
▁لذت	-9.77001
▁غیرمستقیم	-9.77012
▁فولک	-9.77033
▁حقیقت	-9.77034
▁دیپلماتیک	-9.77049
▁باشیم	-9.77061
▁شهرستان	-9.77147
▁تالاب	-9.77171
▁شهرسازی	-9.77188
▁اقلیم	-9.77211
▁امکانات	-9.77379
▁فرو	-9.77449
▁بخار	-9.77511
▁روس	-9.77515
▁بیستم	-9.7755
بستری	-9.77601
▁ششم	-9.7773
▁پزشکان	-9.77804
▁پهلوی	-9.77846
▁واقعا	-9.77859
▁مناسبت	-9.77943
▁زدند	-9.77991
▁قضاییه	-9.78191
ادی	-9.78227
▁ایفا	-9.78258
یش	-9.78273
قابل	-9.78282
▁باری	-9.78369
▁نود	-9.7837
اپی	-9.78485
▁اسدی	-9.78529
تمام	-9.78774
▁۱۵۰	-9.78896
▁ذر	-9.79012
فت	-9.79029
▁ماندن	-9.79094
▁وحش	-9.7924
▁۶۵	-9.79371
لا	-9.79372
آزمایی	-9.79386
▁خرد	-9.79394
کته	-9.79421
▁سرد	-9.79421
ساله	-9.79443
▁قر	-9.79468
▁خوان	-9.79486
▁برون	-9.79499
▁ی	-9.79521
▁بودیم	-9.79551
▁ریش	-9.79673
▁بلینکن	-9.79709
▁مشروط	-9.79712
▁تبریز	-9.79759
▁عمق	-9.79777
▁خاتم	-9.79815
▁کانون	-9.79866
▁مسجد	-9.79886
▁نفع	-9.79901
▁جدایی	-9.79945
▁پاییز	-9.79956
▁سرنوشت	-9.79965
▁اولسان	-9.80032
جی	-9.80053
▁نوسان	-9.80076
▁صادق	-9.80101
▁سازنده	-9.80195
قرار	-9.80214
▁ناکام	-9.80274
▁بهای	-9.80275
▁منظور	-9.8032
▁حب	-9.80379
نجر	-9.8042
▁تایسون	-9.80474
▁هو	-9.80606
▁نابودی	-9.80631
کا	-9.80774
وند	-9.80957
غول	-9.81013
▁نشدن	-9.81042
▁جک	-9.81054
▁حلق	-9.81193
▁اقدامی	-9.81197
▁اختلال	-9.81214
▁اور	-9.81288
▁۷۰۰	-9.81635
▁تردید	-9.81665
▁شی	-9.81755
▁آم	-9.81789
▁هوش	-9.81806
▁قدر	-9.81892
▁رهبران	-9.81998
▁نامزدهای	-9.82047
خواهی	-9.8214
▁تماشا	-9.82157
▁آسیای	-9.82194
▁موافق	-9.82234
خ	-9.82253
▁ابتلای	-9.82275
▁۶۰۰	-9.82296
لاک	-9.82368
▁اصلا	-9.82391
▁اینتر	-9.82442
اگر	-9.82448
▁تسلیحات	-9.82487
▁الحاق	-9.82489
▁موقع	-9.82494
▁آشکار	-9.82507
▁نباشد	-9.82532
▁کلمبیا	-9.8257
▁جانشین	-9.82652
▁هیجان	-9.82679
▁ثبات	-9.82718
▁کاوشگر	-9.8274
▁بلژیک	-9.82741
▁معلوم	-9.8275
▁سوالات	-9.82756
▁مثال	-9.82758
پدیده	-9.82775
مجموع	-9.82887
▁دفاعی	-9.82976
▁مدنی	-9.82992
▁درخشان	-9.83016
ایر	-9.83025
▁هلند	-9.83043
▁اکثر	-9.83067
▁علنی	-9.83068
▁تجا	-9.83181
▁معاف	-9.83373
▁عذر	-9.83562
▁نماد	-9.83581
▁کیم	-9.83588
تصاب	-9.83728
▁چندی	-9.83819
▁رویدادها	-9.84027
امروز	-9.84154
آن	-9.84169
رو	-9.8424
یشه	-9.8433
▁طوری	-9.8442
▁شوک	-9.84436
▁اص	-9.84486
دگی	-9.84784
▁راحت	-9.84793
▁جری	-9.84797
▁تحلیل	-9.8501
▁آماد	-9.85188
▁عبارت	-9.85344
▁پیامدهای	-9.85351
▁اورتون	-9.85355
▁اماکن	-9.85357
▁آواز	-9.85419
▁نمایشگر	-9.85446
▁پرورش	-9.8546
▁اوران	-9.85497
حمل	-9.85502
▁سقف	-9.85521
▁بنیان	-9.85571
▁شتاب	-9.85572
▁بزند	-9.85573
▁بامیان	-9.856
▁برند	-9.85621
▁شرط	-9.85624
▁سپرده	-9.85645
▁امشب	-9.85735
▁خاوران	-9.8581
▁اقامت	-9.85835
▁داور	-9.85852
▁هیا	-9.85887
▁ردیف	-9.85896
▁زا	-9.85915
▁مذهبی	-9.85917
▁مخاطبان	-9.85918
▁همکاران	-9.86
▁فرماندار	-9.86054
▁هجوم	-9.861
▁نمای	-9.86134
▁نوروزی	-9.86157
▁نرسیده	-9.86214
لوله	-9.86346
▁صورتی	-9.86402
▁فروشگاه	-9.86794
▁خر	-9.87034
▁پو	-9.87049
▁حج	-9.87299
▁ست	-9.87389
▁۴۸	-9.87441
▁ذخ	-9.87586
▁گوشی	-9.87639
وزیر	-9.87766
▁سالن	-9.87788
▁۴۴	-9.8781
▁سرود	-9.87842
▁کارمند	-9.87929
چ	-9.87949
حدود	-9.88005
▁محاسب	-9.88155
سعید	-9.88162
▁تبلیغ	-9.88204
▁رضوی	-9.88282
▁حکایت	-9.88284
▁جستجو	-9.88285
▁همیشگی	-9.88285
▁جایگزین	-9.88285
▁استراماچونی	-9.88286
▁شورو	-9.88298
▁۲۰۱۱	-9.88349
▁قادر	-9.88398
▁ماراتن	-9.88435
▁خطاب	-9.88436
▁ژاپنی	-9.88542
▁فایزر	-9.88553
▁تکمیل	-9.88562
ریزی	-9.88661
▁انت	-9.88667
▁تعطیلات	-9.88729
▁محافظت	-9.88739
▁آذربایجان	-9.88748
▁ملایی	-9.88761
▁نمایشگاه	-9.88773
▁کریستیان	-9.88819
▁بلیت	-9.88828
▁بازرسان	-9.88852
▁جر	-9.8906
▁معن	-9.89123
▁برقی	-9.8914
▁صالح	-9.89267
▁اتهامات	-9.894
افسانه	-9.89407
▁۹۷	-9.89413
▁خواهم	-9.89478
▁عزیزی	-9.89491
▁طیف	-9.89741
اش	-9.89892
اند	-9.8993
ابی	-9.89983
▁کیو	-9.90003
▁نی	-9.90004
مت	-9.90098
▁درون	-9.90139
دن	-9.90155
▁گمان	-9.90363
سبب	-9.9038
▁۱۹۸	-9.90513
▁قیمتها	-9.90879
▁دانشمند	-9.90926
▁فیلیپ	-9.91144
▁حوادث	-9.91311
▁فرآیند	-9.91313
▁هالیوود	-9.91314
▁سایپا	-9.91316
▁تراکتور	-9.91321
▁جنبش	-9.91356
▁پارلمان	-9.91404
▁غافلگیر	-9.91419
▁قدرتمند	-9.91433
▁مطل	-9.91452
▁هیوندای	-9.91498
▁رانندگان	-9.91511
▁سبز	-9.91522
▁نژادپرست	-9.91528
▁بیاید	-9.91546
▁تدریج	-9.91549
ستون	-9.91551
▁خطیب	-9.91563
باره	-9.91584
▁سانسور	-9.91658
▁اپل	-9.91664
احل	-9.91665
▁شا	-9.9167
مون	-9.91932
▁بهشت	-9.9196
▁ری	-9.91987
فاصله	-9.92025
▁عادت	-9.92033
▁بلخ	-9.92078
▁فرستاد	-9.92209
▁تقس	-9.92306
▁باند	-9.92393
▁غلام	-9.92603
وری	-9.92704
طی	-9.92704
رچند	-9.92904
اجع	-9.92932
▁ژنتیکی	-9.93021
▁کارش	-9.93107
▁تپ	-9.93139
▁سالم	-9.93245
▁ص	-9.9326
▁والی	-9.93298
حال	-9.93339
▁یازده	-9.93493
▁نظریه	-9.93704
▁تبار	-9.94108
▁آموزشی	-9.94188
▁زیرا	-9.94294
۲۵	-9.94332
▁۳۹	-9.94388
▁اعزام	-9.94436
▁معاصر	-9.94437
▁آفتاب	-9.94438
▁یوفا	-9.94442
▁گورستان	-9.94443
رسمی	-9.94463
▁عراقچی	-9.94481
▁ویلیامز	-9.94501
▁هافبک	-9.94527
▁بدهند	-9.94558
▁فریاد	-9.94574
▁طبری	-9.94604
▁راموس	-9.94623
▁عفو	-9.94661
▁خاورمیانه	-9.9472
▁اندک	-9.94739
فر	-9.94739
▁حیدر	-9.94796
▁۹۶	-9.94837
▁شنا	-9.9485
▁عروس	-9.9489
▁وال	-9.94919
▁سوز	-9.94938
▁مطالب	-9.94947
▁دیگو	-9.94987
▁تمایل	-9.95012
▁آفریقای	-9.95158
▁دایک	-9.95223
▁بطور	-9.95283
▁۷۵	-9.95311
▁یونان	-9.9533
یلی	-9.95392
بری	-9.95441
▁ماهوار	-9.95499
آ	-9.95506
عه	-9.95561
▁رسیدند	-9.9561
ماهی	-9.95842
پور	-9.95962
▁توجهی	-9.96011
▁بودم	-9.96152
مدال	-9.96212
▁خریدار	-9.96212
بنا	-9.96281
▁فرزندان	-9.96447
نکه	-9.96464
▁کف	-9.96584
▁انگار	-9.9695
▁اسم	-9.97047
▁تبع	-9.97073
▁بهایی	-9.97093
▁آدم	-9.97389
باقر	-9.97394
▁وسط	-9.97425
۲۰۱۲	-9.97544
▁عوارض	-9.97661
▁قاجار	-9.97661
▁احترام	-9.97665
▁اقلام	-9.97668
▁تعریف	-9.97668
▁آگاه	-9.97668
▁فراوان	-9.9767
▁اولویت	-9.97678
▁یادداشت	-9.97693
▁فراتر	-9.97702
▁عاص	-9.97715
▁طوفان	-9.97749
▁ویلموتس	-9.97759
▁برانکو	-9.97763
▁منچسترسیتی	-9.97766
▁کنفرانس	-9.97783
▁کانری	-9.97783
▁سنا	-9.97835
▁راز	-9.97852
▁ادعا	-9.97854
▁شنیده	-9.97909
▁مع	-9.9791
▁لمس	-9.97919
▁معارف	-9.97923
▁نداشتند	-9.98105
▁داری	-9.98163
▁هستم	-9.98288
تری	-9.9831
دم	-9.98312
▁رسانی	-9.98344
▁ارزان	-9.98346
▁۳۸	-9.98376
▁تبلیغات	-9.98432
▁شهری	-9.98437
▁مسئولین	-9.98479
▁کش	-9.98822
وین	-9.98865
▁رحمانی	-9.98938
قل	-9.99032
▁فیل	-9.99284
▁محمدجواد	-9.99298
گین	-9.99516
▁اذ	-9.99633
تنش	-9.99783
▁گروگان	-9.99954
▁جزیر	-10
بورن	-10.0001
▁خوک	-10.0023
وال	-10.0029
کاری	-10.0035
۵۰	-10.0038
▁لب	-10.0061
▁مطمئن	-10.0074
تواند	-10.0086
▁دبلیو	-10.0099
▁گوناگون	-10.01
▁الکترونیک	-10.01
▁غزنی	-10.01
رویی	-10.0103
▁امان	-10.0105
▁ارشاد	-10.0105
▁هشتاد	-10.0107
▁باشید	-10.011
▁پلاستیک	-10.0111
▁مدارس	-10.0111
▁قایق	-10.0117
▁فرونشست	-10.012
▁عروسک	-10.012
ص	-10.0121
▁مدارک	-10.0124
طئ	-10.0131
▁برخلاف	-10.0133
▁مهاجرت	-10.0137
▁تعهد	-10.0144
▁عطر	-10.0145
▁۴۳	-10.0159
▁آرامش	-10.0159
▁عظیم	-10.0163
▁بهتری	-10.0164
▁قلم	-10.0178
▁کریمی	-10.0179
▁طلایی	-10.0179
رسی	-10.0183
▁اوکراین	-10.0191
▁مغزی	-10.0193
▁تس	-10.0214
▁مرا	-10.0225
▁عملی	-10.0228
▁خوردن	-10.0236
▁جم	-10.0237
ازم	-10.0238
▁قد	-10.024
▁فلیک	-10.0251
مند	-10.0255
▁شکاف	-10.0256
▁برانگیز	-10.0259
▁فا	-10.0265
چی	-10.0269
نادیده	-10.0272
داشت	-10.0274
▁شکار	-10.0278
تو	-10.0289
لت	-10.0291
▁قله	-10.0292
▁گذراند	-10.0296
خته	-10.0297
جه	-10.03
▁خیابانی	-10.0306
▁پیشگیری	-10.0311
▁خیر	-10.0312
▁حضورش	-10.0322
▁۹۵	-10.0329
▁آتی	-10.034
▁عام	-10.0342
▁رفتند	-10.0344
یف	-10.0361
ولی	-10.0367
▁بیمه	-10.0387
افغانستان	-10.0389
▁کلاسیک	-10.039
▁عادل	-10.0391
▁جورج	-10.0398
▁کسر	-10.0402
نوبت	-10.0405
▁مشتری	-10.0412
▁۳۷	-10.0414
▁افکن	-10.0417
ظ	-10.0424
▁منار	-10.0426
▁آیند	-10.0433
اولین	-10.0436
▁تگزاس	-10.0444
▁بغداد	-10.0444
▁موبایل	-10.0444
▁سامسونگ	-10.0444
▁خداحافظ	-10.0444
▁آنفلوآنزا	-10.0444
▁مازندران	-10.0445
▁تظاهرات	-10.0445
▁وسایل	-10.0447
▁مستمر	-10.0447
▁جانسون	-10.0451
▁۲۰۱۰	-10.0453
▁سرقت	-10.0454
▁روغن	-10.0454
▁زلزله	-10.0454
▁شیراز	-10.0458
▁امن	-10.0464
▁برگزیت	-10.0468
▁قاضی	-10.0469
▁انبار	-10.0469
▁هفتاد	-10.047
▁منشا	-10.0473
فق	-10.0478
پیشتر	-10.0481
▁پارسی	-10.0484
هزار	-10.0492
▁سپ	-10.0494
▁مکرون	-10.0494
▁حامی	-10.0495
▁اهدا	-10.0495
▁زیبایی	-10.0502
▁نگرفته	-10.0509
▁قدس	-10.0516
▁روح	-10.0518
▁نماز	-10.052
▁نشین	-10.052
▁سد	-10.0537
▁آمارها	-10.0544
▁ویدئویی	-10.0549
▁برایش	-10.0552
▁پتروش	-10.0564
▁ستار	-10.059
▁مقال	-10.0593
▁سلطان	-10.0593
ادورو	-10.0597
▁کمال	-10.0601
▁حساس	-10.061
لیگ	-10.0613
سیا	-10.0626
▁شوم	-10.0632
▁گرا	-10.0634
▁حمید	-10.0641
▁جن	-10.0662
▁سالها	-10.0673
▁تف	-10.0674
▁ضرر	-10.068
▁ایست	-10.0685
▁شعب	-10.0691
▁ویدیو	-10.0699
▁کشد	-10.07
▁آندر	-10.07
افزایش	-10.0701
دل	-10.0711
▁ضعیف	-10.0713
▁عاشق	-10.0717
▁ابزار	-10.073
▁کریست	-10.074
▁ادا	-10.0742
راحل	-10.075
▁نت	-10.0751
▁تاجیک	-10.0752
▁وست	-10.0758
▁تور	-10.0766
▁گزارشگر	-10.0767
▁محقق	-10.0773
سا	-10.0773
▁شعار	-10.0781
▁ادعای	-10.0787
اقات	-10.0789
▁شایع	-10.0791
▁چا	-10.0793
▁محدودیتهای	-10.0796
▁شمخانی	-10.0801
▁رستوران	-10.0801
▁موانع	-10.0801
▁دادگستری	-10.0801
▁ازبکستان	-10.0802
▁ببینید	-10.0802
▁مطبوعات	-10.0803
▁شکنجه	-10.0806
پنج	-10.0808
▁عفونت	-10.0809
▁کمرنگ	-10.0812
▁صمت	-10.0813
▁زوج	-10.0813
▁فرگوسن	-10.0817
▁مقاومت	-10.0817
▁ویران	-10.0819
▁سرزمین	-10.0821
▁بخصوص	-10.0822
▁نیک	-10.0823
▁اشرف	-10.0824
▁اسلم	-10.0827
پلیس	-10.0831
▁اختلافات	-10.0833
▁مکانی	-10.0839
▁خاطرات	-10.0841
▁وبسایت	-10.0845
▁توماس	-10.0848
یس	-10.0856
▁سانتی	-10.086
بسیاری	-10.0861
▁پیک	-10.0861
▁تاثیرگذار	-10.0862
▁مور	-10.0865
▁مساوی	-10.0866
▁صرفا	-10.0868
التی	-10.0868
▁۴۹	-10.0869
▁گرند	-10.0873
فرین	-10.0877
▁پذیرفته	-10.0881
▁جلسات	-10.0882
ض	-10.0886
▁ظاهرا	-10.0887
▁حا	-10.0894
آمریکا	-10.0894
▁فرش	-10.0894
▁برکنار	-10.0897
▁عزاداری	-10.0903
▁خودم	-10.0904
▁افشار	-10.0906
▁وظ	-10.0907
▁دراز	-10.0909
احض	-10.091
▁سلمان	-10.0921
خره	-10.0922
▁گذر	-10.0926
اکان	-10.0942
▁تنگ	-10.0942
▁شناور	-10.0944
▁آباد	-10.0947
▁منته	-10.0949
▁تاپ	-10.0963
▁جرم	-10.0965
▁شهرها	-10.0985
▁لوئی	-10.099
▁رویداد	-10.1005
نش	-10.1008
▁نم	-10.1013
▁درهای	-10.1043
▁بدتر	-10.1043
▁کام	-10.1046
▁یور	-10.1046
▁مزار	-10.1047
▁قاطع	-10.1049
غ	-10.1053
▁پرفروش	-10.1061
باران	-10.1085
▁غار	-10.1086
۳۱	-10.1094
▁اهدای	-10.1114
جم	-10.1118
▁۵۵	-10.1125
▁قار	-10.1131
▁منتقد	-10.1135
▁صادقی	-10.114
▁ذو	-10.1145
استفاده	-10.1153
▁پوشید	-10.1165
▁خلاص	-10.117
▁حیوان	-10.1171
▁اشک	-10.1171
▁منحصر	-10.1171
▁پروتئین	-10.1172
▁ترجیح	-10.1172
▁خوراک	-10.1172
▁معیشت	-10.1172
▁دقایق	-10.1174
▁مترجم	-10.1174
▁مخابرات	-10.1175
▁خادم	-10.1176
خیص	-10.1176
▁برساند	-10.1176
▁نقص	-10.1178
▁متناسب	-10.1178
▁اهداف	-10.1182
▁نیوزیلند	-10.1182
▁نکنید	-10.1185
▁کرمان	-10.1195
▁گردشگران	-10.1198
بو	-10.1207
▁روزگار	-10.1208
سخنگوی	-10.121
▁وا	-10.121
▁پدید	-10.1211
▁۰	-10.1214
▁کنگره	-10.1221
▁ولز	-10.1224
▁اضطراب	-10.1238
▁پپ	-10.1242
▁میلیاردها	-10.1246
▁دانم	-10.1247
▁تائ	-10.1251
▁داغ	-10.1253
▁پیمان	-10.1255
▁برندگان	-10.1257
▁سرباز	-10.1262
▁پیوستن	-10.1267
▁خشم	-10.1267
▁موضوعات	-10.1274
راضی	-10.1276
▁کنسول	-10.1278
▁کیلو	-10.128
▁گذاشتن	-10.1284
▁قدمت	-10.1291
▁میر	-10.1296
▁تابلو	-10.1302
▁محسن	-10.1307
▁انتقالات	-10.1311
▁تحلیلگر	-10.1311
▁گفتگوها	-10.1328
▁مهندس	-10.1329
▁دیر	-10.1331
▁۱۹۹	-10.1332
یفه	-10.1336
▁پرسید	-10.1342
کان	-10.1345
▁شیرین	-10.1357
▁ساختار	-10.1357
▁شور	-10.1361
وف	-10.1361
▁استخوان	-10.1363
بچه	-10.1368
▁راستا	-10.1371
▁قوا	-10.1372
▁راند	-10.1377
▁ایرانیان	-10.138
▁زیستی	-10.1381
▁دونده	-10.1384
▁جوانی	-10.1385
یب	-10.139
▁نقدی	-10.1396
جان	-10.1398
▁نشت	-10.1402
▁گمانه	-10.1422
▁پیوند	-10.143
وزی	-10.1433
تن	-10.1434
ذ	-10.1437
▁۶۷	-10.1439
▁موشکی	-10.1445
▁کرام	-10.1451
▁فان	-10.1451
سان	-10.1452
▁امین	-10.1452
▁باخته	-10.1461
شده	-10.1463
▁زیان	-10.148
▁مادری	-10.1487
▁پوری	-10.153
▁موش	-10.1536
▁شاخ	-10.1542
▁اقلیمی	-10.1548
▁انقراض	-10.1556
▁بنگلادش	-10.1556
▁نتانیاهو	-10.1556
▁غربالگری	-10.1556
▁بنیانگذار	-10.1557
▁فردوسی	-10.1557
▁کاربر	-10.1563
▁علامت	-10.1563
▁صادرکنندگان	-10.1563
▁ولسوال	-10.1567
▁مخفی	-10.1568
▁تلخ	-10.1573
▁معمولی	-10.1574
▁سران	-10.1575
▁مرخص	-10.1576
▁همسایه	-10.1578
▁گردن	-10.1586
▁منچستریونایتد	-10.1593
▁لحظات	-10.1593
▁موسوی	-10.1594
▁فولاد	-10.1594
▁یمانی	-10.1594
▁ناجی	-10.1597
شمار	-10.1598
▁ربط	-10.1599
▁افشا	-10.1604
▁نکند	-10.1605
▁شریک	-10.1605
▁سناتور	-10.1605
▁زرد	-10.1608
▁راهبرد	-10.1609
▁راس	-10.1616
▁صلاح	-10.1624
▁جنبه	-10.1628
▁دانستند	-10.163
▁آوردند	-10.164
▁ذخا	-10.164
▁عبوری	-10.1641
ضعیف	-10.1648
بین	-10.1655
▁فیلمساز	-10.166
▁آهنگساز	-10.1696
▁جسم	-10.1697
▁پان	-10.1709
شه	-10.1714
▁بروند	-10.1715
گروه	-10.1724
▁صند	-10.1733
▁تاب	-10.1739
▁نبرد	-10.1748
▁کوچکی	-10.1761
▁استعداد	-10.1765
شی	-10.1805
▁بدو	-10.1821
▁شاهزاد	-10.1827
▁خواندن	-10.1829
▁۷۷	-10.1831
▁کنگ	-10.1836
▁پانزده	-10.1837
▁جیب	-10.1855
امی	-10.1866
▁بعید	-10.1888
▁کشی	-10.1907
▁هجومی	-10.1909
▁ریه	-10.1925
مار	-10.1925
▁سینماها	-10.1934
جونز	-10.1934
▁خوا	-10.1939
▁متاسف	-10.1945
▁فرید	-10.195
▁گیاه	-10.1954
▁شطرنج	-10.1954
▁سئوال	-10.1954
▁کهکشان	-10.1954
▁ثامن	-10.1955
▁برانگیخت	-10.1956
▁پرافتخار	-10.1956
▁مصدومیت	-10.1958
▁خاموش	-10.1963
▁تخلف	-10.1963
▁مبادلات	-10.1966
▁ارتفاع	-10.1967
▁نادرست	-10.1967
▁قص	-10.1972
▁آنقدر	-10.1972
▁ذ	-10.1972
▁ترسیم	-10.1975
تغال	-10.198
▁دموکرات	-10.198
▁مطالعات	-10.198
▁ببرد	-10.198
رس	-10.1981
▁کربن	-10.1988
▁محتوای	-10.1989
▁موجودات	-10.1995
▁اوست	-10.2
▁آگ	-10.2004
▁فدرال	-10.2005
بیش	-10.2015
▁زانو	-10.2019
▁فلز	-10.2022
▁دادسرا	-10.2026
▁لیدز	-10.2028
عباس	-10.2028
▁بشار	-10.2031
الب	-10.2031
سکی	-10.2032
رگن	-10.2042
▁رحم	-10.2044
▁منوچ	-10.2047
خالص	-10.2068
▁مبادل	-10.2074
▁نیوک	-10.2082
ارد	-10.2087
▁جهاد	-10.2088
▁پستان	-10.2094
طبق	-10.2099
▁رها	-10.2104
▁خال	-10.2108
▁سفارش	-10.211
▁عموم	-10.2117
▁فراری	-10.2118
▁خوانندگ	-10.2131
▁هنگ	-10.2157
▁سرای	-10.2161
سم	-10.2162
عوض	-10.2168
▁شدم	-10.2176
▁متشک	-10.2187
▁ناصر	-10.2187
آی	-10.219
▁ثروتمند	-10.2192
▁یاری	-10.2234
▁درد	-10.2235
▁تاک	-10.2241
▁داوطلب	-10.225
اق	-10.2253
▁غ	-10.2255
هام	-10.2259
▁اوکراینی	-10.2269
▁بران	-10.2271
وان	-10.2277
▁تابلوی	-10.2281
▁تبلیغاتی	-10.2283
اع	-10.2288
▁مرزهای	-10.2295
برایتون	-10.2295
▁حدا	-10.2312
نیم	-10.2312
ناوند	-10.2342
بعد	-10.236
▁سای	-10.2363
▁تدابیر	-10.2371
▁نساجی	-10.2371
▁کانسپت	-10.2371
▁اکسیژن	-10.2371
▁پارالمپیک	-10.2371
▁رقص	-10.2371
▁والیبال	-10.2371
▁انبوه	-10.2372
▁بدانیم	-10.2374
▁آشوری	-10.2374
▁کریکت	-10.2374
▁واژه	-10.2376
▁باشگاهی	-10.2379
▁بوندس	-10.2385
▁دانمارک	-10.2385
▁خو	-10.2385
▁سهامداران	-10.2386
▁محاکمه	-10.239
▁چراغ	-10.2393
▁خبرهای	-10.2395
▁پیاده	-10.2395
▁دستیابی	-10.2397
▁تاز	-10.2401
▁آموزان	-10.2403
▁تسلیت	-10.2404
▁طنز	-10.241
ریم	-10.241
▁صبر	-10.2413
▁مقیم	-10.2418
▁تروریستی	-10.2427
امسال	-10.2433
استقلال	-10.2436
▁ویل	-10.2436
▁کشت	-10.2437
▁پرسش	-10.2438
احمد	-10.244
▁جمال	-10.2444
لیورپول	-10.2445
▁تج	-10.2446
▁وقفه	-10.2455
خارجه	-10.2458
▁روزه	-10.2459
▁خودران	-10.2463
▁جدال	-10.2465
▁کاسته	-10.2482
▁شخص	-10.2491
▁فراگیر	-10.2491
▁اردو	-10.2494
کر	-10.25
بخش	-10.2512
▁اپرا	-10.2513
▁لحا	-10.2513
پوری	-10.2517
▁کامیون	-10.2521
▁مش	-10.2521
▁فتح	-10.2554
▁هاوس	-10.2555
▁نقد	-10.2573
▁افتتاح	-10.2576
▁قطب	-10.26
▁بستن	-10.2604
▁اگر	-10.2613
▁سیا	-10.262
عبدال	-10.2626
▁فقیر	-10.2632
▁داشتم	-10.2634
▁دارم	-10.2648
کدام	-10.2654
▁۲۵۰	-10.2669
هالی	-10.2671
▁سان	-10.2683
جو	-10.2694
کم	-10.27
▁سوئیسی	-10.2722
▁بدر	-10.2732
▁استعفای	-10.2739
▁گفتگوی	-10.274
شد	-10.2761
▁استاین	-10.2767
تون	-10.2769
▁روستای	-10.2781
▁خرا	-10.2786
وات	-10.2786
سر	-10.2789
▁باب	-10.2798
▁امتحان	-10.2806
▁مدیترانه	-10.2806
▁اصرار	-10.2806
▁اطلس	-10.2807
▁تحمیل	-10.2807
▁بکشد	-10.2808
▁تاکتیک	-10.2809
▁۲۰۲۲	-10.281
▁رمزارزها	-10.2811
ویز	-10.2813
▁۲۰۰۳	-10.2815
▁شاگردان	-10.2821
عنوان	-10.2821
▁قرص	-10.2821
▁مرگبار	-10.2822
▁کارگزار	-10.2822
▁غریب	-10.2825
▁بازنشست	-10.2827
▁مسلمان	-10.2828
▁عصب	-10.283
▁کمپین	-10.2831
▁اصلاحات	-10.2836
▁ثروت	-10.2837
▁روسی	-10.2837
▁خرسند	-10.2838
▁ناامن	-10.2841
▁خرج	-10.2848
▁احت	-10.285
تکلیف	-10.286
▁ایلنا	-10.2861
▁۵۷	-10.2872
▁کیهان	-10.2874
▁۸۰۰	-10.2877
رقابت	-10.289
▁مبنای	-10.2893
روی	-10.2898
▁۱۲۰	-10.2898
▁سرا	-10.2911
▁پیکر	-10.2914
▁مح	-10.292
▁گریز	-10.2929
▁پراکند	-10.2933
دانشمندان	-10.2936
▁آزمایی	-10.2938
▁هامر	-10.2943
▁شریفی	-10.2944
اسل	-10.2944
▁اما	-10.2946
وب	-10.2947
▁نسب	-10.2959
▁تقویم	-10.2968
▁انتقادها	-10.2969
▁ویلا	-10.2973
ظهر	-10.2978
▁کهن	-10.2979
▁۷۳	-10.2991
التهاب	-10.2994
شهر	-10.3
▁وسی	-10.3007
▁باستانی	-10.3009
▁بریت	-10.301
▁پیرو	-10.3015
▁آوردن	-10.3016
▁باد	-10.3021
▁۵۶	-10.3027
▁پروان	-10.3052
▁کاظم	-10.3055
▁سم	-10.3067
▁شهردار	-10.3069
نز	-10.3077
واک	-10.3077
▁۵۲	-10.3088
▁نسبتا	-10.3092
▁تایلند	-10.3096
▁۱۳۷	-10.3104
▁رم	-10.3129
▁هنرها	-10.3144
▁بازماند	-10.3156
رهای	-10.3161
وت	-10.3176
▁بوش	-10.32
نام	-10.3222
آنها	-10.3231
مرکز	-10.3239
ث	-10.3245
وریس	-10.3249
فیلم	-10.3257
▁مخصوص	-10.3258
▁دروغ	-10.3259
▁دژپسند	-10.326
▁موظف	-10.326
▁محوطه	-10.326
▁منتخب	-10.326
▁لاریجانی	-10.326
▁استخدام	-10.326
▁هیأت	-10.326
▁ناحیه	-10.3261
▁نوبخت	-10.3261
▁بلاروس	-10.3261
▁بامداد	-10.3261
▁فلوید	-10.3261
▁خانوادگی	-10.3261
▁دهقان	-10.3261
▁پشتیبان	-10.3262
▁لهستان	-10.3262
▁خلاقیت	-10.3263
▁اپلیکیشن	-10.3264
▁کارلوس	-10.3265
▁بازگردد	-10.3267
▁عکسی	-10.3267
ژانس	-10.3268
▁مفهوم	-10.327
▁استراحت	-10.3271
▁ترانزیت	-10.3271
▁استراتژیک	-10.3273
▁زیبا	-10.3273
▁ابعاد	-10.3274
▁ثمر	-10.3274
▁محاسبات	-10.3281
▁رابرت	-10.3288
▁مارتین	-10.3289
▁بیروت	-10.3293
▁مقصر	-10.3294
▁وجه	-10.3297
▁برلین	-10.3297
▁علاقمندان	-10.3298
▁درخت	-10.33
▁دهان	-10.3301
▁جنایت	-10.3302
▁انصاریان	-10.3303
▁همسان	-10.3304
▁تفاهم	-10.331
▁اقلی	-10.3315
گن	-10.3315
▁خریداران	-10.3318
▁صنف	-10.3319
▁فتاح	-10.3319
▁خلو	-10.3327
▁اصطلاح	-10.3329
▁کاشی	-10.3345
▁وحید	-10.3357
▁نوید	-10.336
کو	-10.3377
▁رساندن	-10.3379
▁صعودی	-10.3382
▁شمسی	-10.3389
▁دوحه	-10.3391
وا	-10.3397
▁بومی	-10.3397
شاخص	-10.3405
▁گروگانگیر	-10.3406
چین	-10.3408
لف	-10.3408
▁یازدهم	-10.3412
نو	-10.3418
▁سیام	-10.3424
▁۹۰۰	-10.3442
داوم	-10.3451
▁کما	-10.3452
بویایی	-10.3464
▁سیل	-10.3466
▁ژنتیک	-10.3472
▁۴۶	-10.3474
▁حیاتی	-10.3475
▁مادران	-10.3475
▁نان	-10.3476
ارژ	-10.3479
پرس	-10.3481
▁اید	-10.3488
▁خا	-10.3488
رج	-10.349
▁عم	-10.3492
▁سراغ	-10.3494
راه	-10.3502
▁رویای	-10.3504
▁۷۲	-10.3506
▁بوک	-10.3517
▁دستگیری	-10.3528
پل	-10.355
▁گرد	-10.3555
رداد	-10.3558
▁داروهای	-10.3561
▁اسپ	-10.3576
▁روستا	-10.3577
▁روبرت	-10.3577
خی	-10.3579
اول	-10.359
▁استخر	-10.3592
▁آیین	-10.3596
وفر	-10.3608
▁آنک	-10.3634
▁برکناری	-10.3636
▁مهاجر	-10.3647
شدت	-10.3648
▁فضانورد	-10.365
۹۴	-10.3655
▁رصد	-10.3655
▁رغ	-10.366
یشب	-10.368
ویژه	-10.3693
▁اصول	-10.3704
▁۷۴	-10.3708
▁راستی	-10.3718
▁جین	-10.3724
▁شیری	-10.3731
▁بوشهر	-10.3731
▁وحدت	-10.3736
▁تأثیر	-10.3736
▁ارمنستان	-10.3737
▁ناچار	-10.3737
▁انفرادی	-10.3738
▁بگویم	-10.3738
▁مواضع	-10.3738
▁مهرماه	-10.3741
▁۱۹۸۶	-10.3741
▁متعهد	-10.3741
▁رولز	-10.3741
▁جالب	-10.3742
آوری	-10.3742
▁مختل	-10.3743
▁بروکسل	-10.3744
▁منزل	-10.3745
جاسوسی	-10.3746
▁اکتشاف	-10.3751
▁حجاب	-10.3751
▁متقاضی	-10.3751
▁حو	-10.3752
غال	-10.3752
▁زنجان	-10.3753
▁تیرماه	-10.3754
▁بختیار	-10.3754
فیلد	-10.3757
▁نکنند	-10.376
▁کشند	-10.376
▁قطار	-10.3761
▁نمکی	-10.3763
▁بورل	-10.377
▁صالحی	-10.3772
▁خودروی	-10.3772
▁خانوارهای	-10.3776
▁استادیوم	-10.3777
▁آورند	-10.3778
▁پیست	-10.3785
▁توضیحات	-10.379
▁وزارتخانه	-10.3791
▁سربازان	-10.3792
▁قریب	-10.3793
زن	-10.3796
▁گلف	-10.3805
▁عبدی	-10.3816
▁مامور	-10.3821
▁کشاند	-10.3823
▁حداکثری	-10.3832
کننده	-10.3835
رق	-10.3838
▁بدل	-10.3839
▁پوشاند	-10.3843
یحی	-10.3843
▁رادیویی	-10.3846
اسان	-10.3864
رسان	-10.3871
▁نکردن	-10.3881
معاون	-10.3882
▁همانند	-10.3889
▁نژادی	-10.3906
▁مرس	-10.391
▁ژوز	-10.3914
علیرضا	-10.3915
▁حریفان	-10.3918
▁۱۵۰۰	-10.3922
دادگاه	-10.3927
▁میل	-10.393
▁عقید	-10.393
▁اسپی	-10.3931
▁راک	-10.3935
▁شر	-10.3945
▁موازی	-10.3946
صوفی	-10.3947
سل	-10.3948
▁بزو	-10.3953
تقابل	-10.3959
▁گیل	-10.3963
▁انیس	-10.3964
▁جلالی	-10.3966
▁برادرش	-10.3967
▁رنو	-10.3969
▁مرزها	-10.3979
▁ایام	-10.398
▁بشری	-10.3983
▁پروازها	-10.3987
تاسف	-10.3988
▁اوبر	-10.3998
نت	-10.3998
▁نجف	-10.4002
نواک	-10.4002
▁گانه	-10.4005
▁نامدار	-10.4012
▁طرز	-10.4019
▁اختلا	-10.4023
▁پلی	-10.4029
مرث	-10.4032
آبادی	-10.4035
▁روستایی	-10.4041
غان	-10.4044
▁ایمان	-10.4044
لحق	-10.4053
▁ویلیام	-10.4059
▁سگ	-10.4078
▁۳۶	-10.4084
حص	-10.409
▁آرا	-10.4094
▁صحن	-10.4101
▁حاکم	-10.4102
▁نامزدها	-10.4105
▁رش	-10.411
▁قراردادش	-10.413
▁اح	-10.4146
▁رس	-10.415
▁حافظ	-10.4151
▁توانم	-10.4168
▁ساختن	-10.4173
محمود	-10.4178
▁یاران	-10.4184
▁اظهارنظر	-10.4205
▁اخطار	-10.4207
دا	-10.4218
صاف	-10.422
▁خوشحال	-10.4221
▁مایکروسافت	-10.4236
▁تعقیب	-10.4236
▁تعدیل	-10.424
▁ارزشمند	-10.4241
▁تماشاچی	-10.4242
▁نشیب	-10.4245
▁افکار	-10.4247
▁دانشکد	-10.4249
▁وصل	-10.4249
▁تخلفات	-10.4249
▁زیستگاه	-10.425
▁غیاب	-10.4252
▁رسم	-10.4252
▁بهر	-10.4253
▁پیمانکار	-10.4254
▁الحسن	-10.4256
▁فجر	-10.4256
▁غرق	-10.4258
برخ	-10.4258
▁رانندگی	-10.426
▁مداوم	-10.4263
▁آشفت	-10.4266
▁شایعات	-10.4266
▁همینطور	-10.4267
▁بلومبرگ	-10.4268
▁دیدگاه	-10.427
▁اوا	-10.4277
▁سرنشینان	-10.4281
▁مالاریا	-10.4283
▁آبادان	-10.4285
▁ناراحت	-10.4293
▁پایدار	-10.4293
▁گوگل	-10.4294
▁طرفدار	-10.4295
▁همیلتون	-10.43
▁ضربات	-10.4301
▁درختان	-10.4303
▁قربانی	-10.4306
▁استرالیایی	-10.4309
▁تعجب	-10.431
▁قوس	-10.4314
▁مقا	-10.4319
▁کاربرد	-10.4319
▁محور	-10.4321
۳۰	-10.4322
▁باران	-10.4325
▁همرسان	-10.4326
▁هواپیماهای	-10.4326
▁خشکسالی	-10.4332
گون	-10.4333
▁صفحات	-10.4334
۱۵	-10.4334
▁صاحبان	-10.434
هار	-10.4344
دون	-10.4351
اینها	-10.4362
▁مستق	-10.4368
▁آمدند	-10.4385
▁انتقادهای	-10.4386
▁آبادی	-10.4406
لک	-10.4422
▁سکونت	-10.443
▁تخصص	-10.4431
وطن	-10.4442
▁مون	-10.4444
▁افتد	-10.4444
▁جهانگیری	-10.4445
▁مسیحی	-10.445
بت	-10.4453
فاش	-10.4457
▁اسد	-10.4459
▁سازد	-10.446
▁مصطف	-10.446
کوبی	-10.446
▁سین	-10.4464
▁فاز	-10.4469
▁دپ	-10.4469
انصراف	-10.4475
▁واسط	-10.4476
▁کتی	-10.4476
ونگ	-10.4481
▁رنج	-10.4494
مانده	-10.451
وار	-10.4516
ایع	-10.4517
▁چیزهای	-10.4523
▁بهرام	-10.4523
تمرکز	-10.4528
▁لا	-10.4539
شاید	-10.4551
▁ترور	-10.4551
دیگر	-10.4556
▁یکسان	-10.4559
▁منتف	-10.456
▁تحقیقی	-10.4561
▁معمار	-10.4564
▁خودروها	-10.4585
یخ	-10.4592
▁تورمی	-10.4605
▁جعل	-10.4622
▁ملا	-10.4626
▁بنیادی	-10.4629
▁اوین	-10.4631
فن	-10.4636
▁برداشتن	-10.4643
▁شون	-10.4645
▁۱۳۵	-10.4655
امیر	-10.4656
▁سل	-10.4663
▁نزد	-10.4668
▁کلام	-10.4668
▁گوی	-10.4668
▁اعتراضی	-10.4675
▁تروی	-10.4683
▁ایر	-10.4685
▁شو	-10.4687
▁عضوی	-10.4703
ساب	-10.4711
▁بینیم	-10.4723
ازی	-10.4725
▁ازای	-10.4727
▁کاست	-10.473
▁آفریقایی	-10.473
▁موکو	-10.4735
▁مال	-10.4736
▁اندازد	-10.4748
▁گوگ	-10.4749
▁نوار	-10.4753
▁کیفر	-10.4759
▁دوام	-10.4759
▁لالیگا	-10.4763
▁لزوم	-10.4763
▁ناپدید	-10.4763
▁بلوچ	-10.4764
▁تفریح	-10.4764
▁اخلال	-10.4764
▁بکشند	-10.4764
▁بیفتد	-10.4764
▁خیانت	-10.4765
▁تلگرام	-10.4765
▁سایبری	-10.4765
▁بیاورد	-10.4765
▁۱۳۹۶	-10.4765
▁اسپرت	-10.4766
▁بهبهان	-10.4767
▁مکرر	-10.4767
▁۲۰۳۰	-10.4769
▁مبدا	-10.477
▁حاکمیت	-10.477
▁ذکر	-10.4772
▁فروپاشی	-10.4773
▁گرگ	-10.4776
▁مقرر	-10.4778
▁بیلسا	-10.4779
▁پردازد	-10.478
▁روب	-10.4782
▁انگشت	-10.4785
نظرسنجی	-10.4789
▁کشم	-10.4791
▁سرو	-10.4791
▁رضایت	-10.4792
پرو	-10.4794
▁شغلی	-10.4795
▁دایناسور	-10.4797
▁ضایع	-10.4799
واسط	-10.48
▁غالب	-10.4806
▁سالمندان	-10.4807
▁دیپلمات	-10.4808
وداع	-10.4809
▁شنیدن	-10.4809
▁بقایای	-10.4811
▁مهاجران	-10.4815
▁ابوال	-10.4815
▁روبروست	-10.4817
صورت	-10.482
▁بل	-10.4825
▁رنجر	-10.4827
▁کارگروه	-10.4829
▁کابین	-10.483
▁ابهام	-10.4839
▁شناسند	-10.485
▁کلود	-10.4854
ي	-10.4855
▁۹۱	-10.4858
▁رویس	-10.4863
▁مگا	-10.4878
▁تخیل	-10.4879
▁ناآرامی	-10.489
▁پورتو	-10.4895
▁حکمتی	-10.4913
▁خواهی	-10.4916
کاب	-10.4918
▁حرم	-10.4919
▁کردستان	-10.4929
▁دستک	-10.493
مراسم	-10.4933
▁آگاهی	-10.4939
▁ایرلند	-10.4945
▁سپر	-10.4946
▁ریچارد	-10.4949
خر	-10.4952
▁دوازده	-10.4954
▁معترض	-10.4955
▁شبه	-10.4956
زا	-10.4966
▁آلن	-10.4973
▁کال	-10.4974
▁صح	-10.4977
▁ارد	-10.498
یره	-10.4981
▁پیشرفته	-10.4993
▁کلا	-10.4997
▁۶۸	-10.4998
▁تقدی	-10.5001
▁یافتند	-10.5001
ناف	-10.5002
الله	-10.5003
▁حدی	-10.502
▁تمرکز	-10.5029
▁اعضا	-10.503
▁اخلاق	-10.5034
▁جنس	-10.5035
زمان	-10.5048
▁داروها	-10.5056
▁وب	-10.5058
▁کوچکتر	-10.506
۱۳	-10.5067
▁نیا	-10.5071
▁جلال	-10.5083
▁ویزا	-10.5086
تیکو	-10.5086
▁بمب	-10.5092
شار	-10.5096
▁دقت	-10.5102
▁نظم	-10.5107
▁منطق	-10.5112
لاتین	-10.5113
▁الزام	-10.5133
وریا	-10.5133
▁فیلتر	-10.5139
تب	-10.5146
پر	-10.5155
حل	-10.5164
▁زور	-10.5187
حافظه	-10.5198
▁صفرها	-10.5199
▁درآورد	-10.5217
▁باستان	-10.5218
▁دربار	-10.5219
▁گشود	-10.5245
تلاف	-10.5247
▁بدی	-10.525
▁کشیدن	-10.5251
الی	-10.5262
▁علیر	-10.5272
▁ظهر	-10.5275
▁ناب	-10.5278
▁برگشته	-10.5281
▁فرانک	-10.5281
▁۵۹	-10.5286
▁بافت	-10.5293
▁مایل	-10.5293
نم	-10.5303
▁شانه	-10.5315
▁الانبیا	-10.5318
▁چرنکوف	-10.5318
▁کارداشیان	-10.5318
▁دریابندری	-10.5318
▁فلوریدا	-10.5318
خصیص	-10.5319
▁قزاقستان	-10.5319
▁ابتکار	-10.5319
▁شوماخر	-10.5319
▁تغذیه	-10.532
▁داغستان	-10.5321
▁آسمایی	-10.5321
▁مرجع	-10.5321
▁۱۳۹۵	-10.5321
▁کلینیک	-10.5321
▁سردبیر	-10.5322
▁مجاهد	-10.5322
▁بگیرید	-10.5323
▁برگردد	-10.5326
▁لبخند	-10.5328
▁رتکلیف	-10.5331
▁ببیند	-10.5332
▁مخدر	-10.5332
▁مزرعه	-10.5333
▁یادبود	-10.5333
▁عنکبوت	-10.5335
▁خسارات	-10.5335
▁معلول	-10.5336
▁۲۰۰۴	-10.5336
▁سرویس	-10.5339
▁استرازنکا	-10.5341
▁رمزارز	-10.5346
▁دشمنان	-10.5347
▁ستایش	-10.5351
▁دستاوردهای	-10.5352
▁یکصد	-10.5352
▁تاکسی	-10.5353
▁محبوبیت	-10.5358
▁سکوت	-10.5369
صخره	-10.5369
▁لیگا	-10.537
▁نیش	-10.5376
▁رسول	-10.5381
▁پیرلو	-10.5389
▁زبا	-10.539
▁مطهری	-10.539
درصد	-10.5394
▁کاردن	-10.5397
▁شوید	-10.5401
اده	-10.5407
▁سیزدهم	-10.5413
▁تعامل	-10.5413
فی	-10.5424
▁توریست	-10.5426
ریک	-10.5433
▁گرفتار	-10.5454
▁نمادهای	-10.5464
▁چوب	-10.5468
▁دف	-10.5471
▁گردند	-10.5477
رات	-10.5483
▁دعوا	-10.5484
▁الیز	-10.5486
▁صادرکنند	-10.5492
▁انتقادات	-10.5496
▁۳۵۰	-10.5504
▁منصور	-10.5507
هز	-10.5523
▁گرمای	-10.5532
▁استودیو	-10.5541
▁دهک	-10.5546
▁آفرین	-10.5555
▁هرگ	-10.5556
▁پسرش	-10.5558
▁گلزنی	-10.556
▁فین	-10.5571
▁ابرا	-10.5572
محققان	-10.5572
پژوهشگران	-10.5577
▁مهمان	-10.5585
▁شوهر	-10.559
▁لح	-10.5595
کینگ	-10.5598
▁گرایان	-10.5599
▁هوادار	-10.56
▁ون	-10.5606
▁افکاری	-10.5616
حمید	-10.5627
▁کت	-10.5629
▁حداد	-10.5635
▁خدا	-10.5647
▁اشیا	-10.5652
▁ریاض	-10.5657
هدف	-10.5666
▁قطبی	-10.5669
▁لوا	-10.5669
▁شهیدی	-10.5671
▁نرسید	-10.5693
خیم	-10.5702
باز	-10.5705
▁افسر	-10.5707
▁شرمن	-10.5709
▁برزیلی	-10.5709
▁انوش	-10.5719
▁سید	-10.572
زیگ	-10.572
▁مرغدار	-10.5721
▁مصون	-10.574
▁ترکمن	-10.5746
مرگ	-10.575
▁کارگردانان	-10.5751
▁نداد	-10.5756
▁قم	-10.5776
▁مغ	-10.5777
▁بدنی	-10.5783
▁درس	-10.5785
گذاری	-10.5786
دور	-10.5789
▁شدیدتر	-10.5797
▁پوش	-10.5799
زار	-10.581
برگ	-10.5867
▁گنج	-10.5868
▁سرنشین	-10.5878
▁سحر	-10.5895
▁مأمور	-10.5898
▁جاسوس	-10.5902
▁وحشی	-10.5903
▁پرطرفدار	-10.5907
▁مشکوک	-10.5907
▁بفروشد	-10.5907
▁آموزگار	-10.5907
▁تعزیری	-10.5908
▁سوگوار	-10.5908
▁تتلو	-10.5908
▁خوشنام	-10.5909
▁آوازخوان	-10.5909
▁بپردازد	-10.591
▁بگوییم	-10.591
▁مطلوب	-10.591
▁ببینند	-10.5911
▁۱۹۹۰	-10.5911
▁زیارت	-10.5912
▁ستارگان	-10.5912
▁معدود	-10.5913
▁بزنند	-10.5914
▁عل	-10.5917
بدترین	-10.5918
▁ندارم	-10.5918
▁خزر	-10.5919
▁مرگش	-10.592
▁حساسیت	-10.592
▁تندرو	-10.5922
▁مظاهری	-10.5924
▁سرتیپ	-10.5924
▁سیگار	-10.5924
▁استراتژی	-10.5925
ردن	-10.5926
▁زنگنه	-10.5928
▁نورد	-10.593
▁پراید	-10.5931
▁ات	-10.5934
▁صحیح	-10.5937
▁سیزده	-10.5942
▁توخل	-10.5943
▁احساسات	-10.5943
▁سومی	-10.5947
▁خرند	-10.5954
▁دهندگان	-10.5955
تل	-10.5956
▁مقدم	-10.596
▁سیاستمداران	-10.596
▁پیشرو	-10.5963
▁محکم	-10.5965
▁اموا	-10.5967
▁رئیسی	-10.5967
▁تعادل	-10.5968
▁نکات	-10.5973
▁معاین	-10.5975
▁گرسنگ	-10.5976
▁بانکها	-10.5978
▁جف	-10.5982
اقد	-10.5985
▁آرامکو	-10.5986
▁دهید	-10.5986
انس	-10.5988
وستهم	-10.6002
▁دارید	-10.6007
یمی	-10.6009
▁تنوع	-10.6009
▁پارس	-10.6009
▁کشتار	-10.6011
▁فضلی	-10.6019
باشگاه	-10.6027
▁بینند	-10.6029
▁اعتیاد	-10.6034
زکی	-10.6036
▁نداشتن	-10.604
▁بازارها	-10.6042
▁گزارشگران	-10.6043
▁حاجی	-10.6044
▁خیال	-10.6046
▁ناو	-10.6055
▁تش	-10.6058
دوین	-10.606
▁شیمی	-10.6063
▁یکسال	-10.6072
▁عالمی	-10.6085
▁شه	-10.6086
▁داشتیم	-10.6088
تنها	-10.609
گه	-10.6096
▁پولی	-10.6097
▁سرگرمی	-10.6098
▁روزی	-10.6098
▁ویکتور	-10.61
▁آمریکاست	-10.6102
▁تصمیمات	-10.6104
▁شیلی	-10.6109
▁هل	-10.611
▁روسا	-10.6114
▁روزمر	-10.6134
▁اسک	-10.6139
ایت	-10.614
وزرای	-10.615
▁بارداری	-10.6152
لات	-10.6152
▁سامان	-10.6157
▁ماریا	-10.6159
سکن	-10.6163
▁قرض	-10.6163
اتحاد	-10.6177
▁لحن	-10.6178
حالا	-10.6182
▁بس	-10.6188
گل	-10.6189
فدرر	-10.6198
▁ثروتمندتر	-10.6199
▁استون	-10.6216
محمدجواد	-10.6217
▁الکس	-10.6218
▁بازگشا	-10.6219
یع	-10.6222
▁آقا	-10.6223
روزنامه	-10.6227
پینگ	-10.6239
▁درخش	-10.6241
▁ماری	-10.6249
▁ناامید	-10.6261
▁زخم	-10.6262
▁دخترش	-10.6267
▁ربات	-10.6268
سو	-10.6293
▁تعل	-10.6299
▁ادب	-10.6329
▁تعهداتش	-10.634
▁بلوک	-10.6343
اوی	-10.6344
وپن	-10.6345
▁نیما	-10.6345
▁تلف	-10.6351
کمیت	-10.6354
▁سیار	-10.6365
لق	-10.6372
روج	-10.6372
مصطف	-10.6372
▁سلطانی	-10.6375
▁۵۸	-10.6375
ممکن	-10.6412
▁خل	-10.6415
ندی	-10.6417
عارف	-10.643
منه	-10.643
▁۱۳۶	-10.643
وایی	-10.6434
▁گلزن	-10.6436
عکس	-10.644
سلا	-10.6452
▁ور	-10.6453
دهنده	-10.6455
▁مالکان	-10.6464
▁گم	-10.647
تولید	-10.6482
▁دردسر	-10.6488
▁خرابکار	-10.6497
چهار	-10.6499
رین	-10.6507
رای	-10.6511
▁الکل	-10.6523
▁رزم	-10.6529
▁شاهکار	-10.653
▁قائدی	-10.6532
▁مکتوب	-10.6532
▁جاشوا	-10.6532
▁تروریسم	-10.6532
▁اشتراک	-10.6532
▁تضمین	-10.6532
▁مصلحت	-10.6532
▁اعتراف	-10.6532
▁شباهت	-10.6532
▁ببینیم	-10.6533
▁کولمن	-10.6533
▁متاثر	-10.6533
▁کالبد	-10.6533
▁زیرساخت	-10.6533
▁منفجر	-10.6533
▁مفید	-10.6535
▁بفتا	-10.6536
▁فلج	-10.6536
▁بگیریم	-10.6537
وکسین	-10.6537
▁۱۹۹۸	-10.6537
▁پایبند	-10.6542
▁مسایل	-10.6544
▁حباب	-10.6544
▁مداخل	-10.6544
▁توجیه	-10.6547
▁ارکستر	-10.6549
▁سون	-10.6549
▁طارمی	-10.6549
▁کریسمس	-10.6549
▁لامبورگینی	-10.6549
▁ودیعه	-10.6549
▁توفان	-10.655
بهار	-10.6551
▁پلاک	-10.6551
▁گرایش	-10.6552
▁فرایند	-10.6553
▁مسافت	-10.6553
▁تسهیلات	-10.6555
▁بوکسور	-10.6557
▁تعبیر	-10.6557
▁خرس	-10.6557
▁فلسفه	-10.6558
▁رفاه	-10.6559
▁فسیل	-10.656
▁متنوع	-10.6563
جایی	-10.6563
▁گرمایش	-10.6563
▁ناتوان	-10.6564
▁کمدی	-10.6568
▁نزول	-10.6569
▁مرتضی	-10.6569
▁عقرب	-10.6571
▁مرتب	-10.6572
▁مغاز	-10.6572
ژان	-10.6572
▁۴۷	-10.6575
کرد	-10.6579
سئول	-10.6579
▁سالیوان	-10.6582
▁گیاهان	-10.6596
▁اعطا	-10.6598
▁قاعد	-10.6602
▁بنکسی	-10.6606
▁قاب	-10.6608
▁املا	-10.6611
▁عطرساز	-10.6611
▁داریوش	-10.6611
شماری	-10.6613
▁نهاده	-10.6614
▁گذارند	-10.6614
نصف	-10.6616
آمیز	-10.6622
▁پاهای	-10.6622
▁فیس	-10.6627
▁کوهن	-10.6642
▁برنز	-10.6644
▁کمربند	-10.6644
خاطر	-10.665
بازار	-10.6656
▁لیور	-10.6663
▁قطعات	-10.6667
▁برتری	-10.668
اج	-10.6682
گیر	-10.6682
▁مستقیما	-10.6692
▁نوجوانان	-10.6693
▁معیار	-10.6698
▁دهلی	-10.6698
اف	-10.6699
▁پناهندگ	-10.6699
▁ردیاب	-10.6701
▁صاف	-10.6707
گرفته	-10.6722
وجود	-10.6727
▁هکرها	-10.6729
▁سالان	-10.6734
ایح	-10.6742
ختم	-10.6755
▁استثنا	-10.6764
▁کامپیوتری	-10.677
▁تبادل	-10.6778
موند	-10.6784
▁قند	-10.6789
تحول	-10.6816
فاد	-10.6817
▁رت	-10.6817
▁غم	-10.6818
▁ورشکست	-10.682
▁ژو	-10.6821
▁شاعران	-10.6844
چرا	-10.6845
▁ظه	-10.6846
کت	-10.6848
جیب	-10.6848
▁سام	-10.6866
فعالان	-10.6869
▁میلیاردر	-10.687
▁جبه	-10.6883
▁سعد	-10.6902
عشی	-10.6907
ودی	-10.6909
▁نق	-10.6911
نوردی	-10.6912
ناز	-10.6918
▁پرت	-10.6927
▁مهاجمان	-10.6928
▁خطی	-10.6931
▁گزارشها	-10.6932
▁قومی	-10.6933
خت	-10.694
▁روال	-10.6942
فرج	-10.6954
▁کاغذ	-10.6955
▁تحرک	-10.6959
▁ارگ	-10.6962
▁وار	-10.6965
▁محدودیتها	-10.6967
▁مقطع	-10.6976
▁مند	-10.698
▁شهریار	-10.6988
وله	-10.7
▁نخ	-10.7005
▁اد	-10.7007
▁ثان	-10.701
عی	-10.7017
آمار	-10.7023
▁ناشنا	-10.7034
▁نوازند	-10.7046
تراشه	-10.705
▁شناسان	-10.7054
▁اتل	-10.7055
▁نوزدهم	-10.7063
▁نوآور	-10.7074
قرض	-10.7079
سانه	-10.7082
شاه	-10.7089
▁انگل	-10.7096
غه	-10.7097
فصل	-10.7131
▁خار	-10.7133
▁جزای	-10.7141
▁تثب	-10.7146
▁سفی	-10.7148
▁دستاورد	-10.7158
▁سکت	-10.716
اتی	-10.7162
▁تغییری	-10.7165
۴۰	-10.7168
وفس	-10.717
سایه	-10.7188
▁مصدوم	-10.7193
▁مغناطیس	-10.7198
▁رمضان	-10.7198
▁یونسکو	-10.7198
▁امیرشاهی	-10.7198
▁ترسناک	-10.7198
▁گلمکانی	-10.7199
▁مشکات	-10.7199
▁فروزش	-10.7199
▁مثلث	-10.72
▁اعصاب	-10.7201
▁تلفیق	-10.7202
▁خواهر	-10.7202
▁خفیف	-10.7202
▁زغال	-10.7204
▁تکامل	-10.7205
▁آشام	-10.7206
▁کوهستان	-10.7208
▁اسرار	-10.7209
▁هرمز	-10.721
▁غفوری	-10.7212
▁پررنگ	-10.7213
▁بازنشستگی	-10.7215
▁تلسکوپ	-10.7217
▁جابجا	-10.7218
▁غیرنظامی	-10.7218
▁تالار	-10.7219
▁غلط	-10.7219
▁هشتگ	-10.722
▁جناح	-10.722
▁گلایه	-10.7221
رطوب	-10.7223
▁تحصیلات	-10.7227
▁مدرک	-10.7234
▁پناهجویان	-10.7237
▁تکنولوژی	-10.7238
▁مردگان	-10.7244
▁گودال	-10.7251
▁سانتریفیوژهای	-10.7256
وکی	-10.7272
▁دوج	-10.7278
▁ماهشهر	-10.7282
▁جمشید	-10.7283
▁سنبل	-10.7284
▁بردارد	-10.7291
▁الگوی	-10.7299
▁قبال	-10.73
لوغ	-10.7317
▁استیون	-10.7318
برید	-10.7322
▁برف	-10.7327
▁چی	-10.733
قات	-10.7334
▁۷۸	-10.7335
▁لاری	-10.7336
۲۰	-10.7339
▁مزایای	-10.734
گیل	-10.7344
مل	-10.7347
تقاد	-10.7357
▁درج	-10.7369
گفت	-10.7373
▁سوا	-10.7379
▁ماندگار	-10.7381
▁بدین	-10.7383
پتون	-10.7389
مع	-10.7395
▁تاریک	-10.74
▁آرزوها	-10.7405
سفر	-10.7407
▁پرهی	-10.7409
▁شمایل	-10.741
▁نزدیکان	-10.7411
▁کودتای	-10.7417
مجلس	-10.7422
شیوع	-10.7428
▁شادی	-10.7429
▁شاپو	-10.7431
بینی	-10.7433
ایدو	-10.7433
آخری	-10.7439
▁پیری	-10.7439
▁تسلی	-10.7442
▁مسیرهای	-10.7447
مول	-10.7448
لور	-10.7455
▁بها	-10.7467
▁خطای	-10.7469
▁شناسد	-10.7471
پای	-10.7472
▁کاوه	-10.7472
بازی	-10.7482
▁زو	-10.749
مدیر	-10.7491
▁شانزدهم	-10.7493
▁حواس	-10.7493
آژانس	-10.7501
▁یوو	-10.7505
▁کمتری	-10.7509
▁دم	-10.7518
▁پیراهن	-10.7525
▁دیدارهای	-10.7525
منابع	-10.7532
▁سوری	-10.7532
ناد	-10.7536
▁ذهنی	-10.7547
دونالد	-10.755
▁تحری	-10.7555
مسئولان	-10.7567
▁کالای	-10.7577
▁رویه	-10.7581
▁نوشتن	-10.7583
▁پرسی	-10.7587
سرعت	-10.7593
قه	-10.7595
▁آثارش	-10.7595
اخیرا	-10.7596
خان	-10.7602
▁بناها	-10.7605
سن	-10.7616
▁میرزا	-10.7626
شکل	-10.7635
▁پار	-10.7637
دین	-10.7641
▁تایم	-10.7644
▁دیوی	-10.7648
▁اجبار	-10.7658
▁برگ	-10.7659
▁۱۹۰	-10.7667
▁خالق	-10.7676
▁مهل	-10.7685
خبر	-10.7686
زانه	-10.7687
▁شعبان	-10.7688
▁فرج	-10.7688
▁عمران	-10.769
▁اپرای	-10.7698
▁آما	-10.771
▁ابلاغی	-10.7715
▁درآمده	-10.7715
علاو	-10.7716
▁ته	-10.7717
خواست	-10.7726
▁منصوری	-10.7728
مایک	-10.773
▁نک	-10.7754
سلیم	-10.7766
▁رکوردهای	-10.7771
▁بزرگتر	-10.7783
▁کرو	-10.7783
سیم	-10.7795
▁پاکستانی	-10.7802
رینگ	-10.7816
▁صدد	-10.7831
سپری	-10.7832
▁پهپاد	-10.7838
▁۶۲	-10.7839
یچ	-10.784
▁کنی	-10.7847
عداد	-10.786
سب	-10.787
▁نظرهای	-10.7872
▁شام	-10.7874
▁نوزاد	-10.7877
احی	-10.7879
جانی	-10.7886
▁تعمیر	-10.7894
▁همجنس	-10.7911
▁المستقبل	-10.7913
▁آبراموویچ	-10.7913
▁آغداشلو	-10.7913
▁واضح	-10.7913
▁باورنکردنی	-10.7913
▁دگرگون	-10.7913
▁رولزرویس	-10.7913
▁زریاب	-10.7913
▁ویتنام	-10.7913
▁وروورت	-10.7913
▁تأیید	-10.7913
▁پلامر	-10.7913
▁سنگاپور	-10.7913
▁حرکات	-10.7913
▁روشنفکر	-10.7913
▁پوتین	-10.7914
▁بندرعباس	-10.7914
▁قائل	-10.7914
▁راپینو	-10.7914
▁معالج	-10.7915
▁یخچال	-10.7915
▁تایتان	-10.7916
▁هالپ	-10.7916
▁تکنیک	-10.7917
▁فرق	-10.7917
▁محترم	-10.7917
▁پنگوئن	-10.7917
▁احتیاط	-10.7918
▁ساویز	-10.7918
▁خستگی	-10.7919
ولان	-10.792
▁۱۹۴۰	-10.792
▁احکام	-10.7921
▁بمانند	-10.7923
▁بدانند	-10.7926
▁ناقض	-10.7927
ضعف	-10.7928
▁آغوش	-10.7931
▁نامگذاری	-10.7933
▁مرکل	-10.7934
▁پناه	-10.7936
▁اثبات	-10.7939
▁نیسان	-10.7943
▁هشتصد	-10.7945
▁گرفتم	-10.7945
▁اک	-10.7946
▁سارس	-10.7946
▁نژادپرستانه	-10.7948
▁گواهی	-10.795
▁نارس	-10.7951
▁کانادایی	-10.7952
بالغ	-10.7953
▁انحصار	-10.7954
▁ندهد	-10.7959
▁قبرس	-10.7959
▁پستاندار	-10.7963
▁ندانست	-10.7965
▁سیبری	-10.7965
▁وقف	-10.7965
▁شوخی	-10.7967
وخامت	-10.7968
▁جانور	-10.797
▁آرمان	-10.7972
▁لیس	-10.7974
▁محض	-10.7977
▁جزییات	-10.7979
▁مایع	-10.799
▁عزم	-10.7991
لین	-10.7993
▁ایراد	-10.7998
▁گلوب	-10.7999
▁والدین	-10.8002
▁پیتر	-10.8005
▁باختند	-10.8006
▁امی	-10.8012
▁انداختن	-10.8012
▁لاپورتا	-10.8014
▁ادعاهای	-10.8017
▁جلد	-10.8021
▁حضرت	-10.8022
▁تیک	-10.8023
▁جوش	-10.8023
▁چهاردهم	-10.8023
▁نشانی	-10.803
▁اغل	-10.8031
ناشناس	-10.8036
جمه	-10.8039
▁رایزن	-10.8048
▁خواندند	-10.8053
▁دنیاست	-10.8079
سابقه	-10.8084
▁دیو	-10.8086
▁لرز	-10.8088
نوش	-10.8098
▁پرد	-10.8102
▁انجامید	-10.8106
▁لوو	-10.8112
تعدادی	-10.8113
▁اندیش	-10.8116
▁تابعیت	-10.8117
▁زهر	-10.8126
▁بوئنو	-10.813
▁مقر	-10.8141
ارتاک	-10.8142
▁اکس	-10.8156
باتری	-10.8164
▁فرض	-10.8165
▁گور	-10.8171
▁نامی	-10.8176
▁تاریکی	-10.8179
راتی	-10.8191
▁فی	-10.8203
▁دورت	-10.8204
▁خوانی	-10.8211
▁فیلمبردار	-10.8216
▁اریک	-10.8223
▁امو	-10.8224
▁برایم	-10.823
▁بلی	-10.8231
▁۵۳	-10.8233
▁ندید	-10.8239
▁نرفت	-10.8244
▁یکبار	-10.8247
▁رومانی	-10.8253
▁۸۲	-10.8255
▁جیل	-10.8272
لندر	-10.828
▁لیست	-10.8286
لاشه	-10.8289
فلات	-10.8295
مپ	-10.8297
▁ماهها	-10.8303
▁لخت	-10.8303
▁۶۱	-10.8304
سلسل	-10.8319
▁فردین	-10.8341
▁خریده	-10.8346
▁ریخت	-10.8346
آنتونی	-10.8348
▁گردشگر	-10.835
میم	-10.8353
▁کامپیوتر	-10.8359
▁ویدئو	-10.837
▁پرتر	-10.8373
ایش	-10.8375
▁گذراندن	-10.838
▁کروناست	-10.8389
ناظر	-10.839
شا	-10.8394
▁هلی	-10.8396
▁اعما	-10.8399
▁قب	-10.8401
▁تند	-10.841
▁سرب	-10.8427
▁منصو	-10.843
قص	-10.8432
خورده	-10.8433
▁۷۶	-10.8434
▁ارا	-10.8438
یسم	-10.8443
▁مهندسی	-10.8447
▁ایا	-10.8457
تیک	-10.8469
▁آنتی	-10.8472
▁تابو	-10.8478
▁احسا	-10.8484
لاق	-10.8489
▁قض	-10.8489
برنامه	-10.8493
▁ویرجی	-10.8497
رشد	-10.8506
▁کاس	-10.8507
۷۰	-10.8523
خیره	-10.8525
▁نویی	-10.8534
▁استرس	-10.8538
۲۸	-10.8549
▁ول	-10.8554
لقی	-10.8567
▁شوت	-10.8571
▁کاریر	-10.8581
وازه	-10.8599
▁همتای	-10.86
▁۴۱	-10.8603
پا	-10.861
▁درخشانی	-10.8613
فا	-10.8623
▁معنا	-10.8631
ائیل	-10.8641
کید	-10.8644
سوم	-10.865
▁سوئ	-10.8652
▁سانتریفیوژ	-10.8656
نفتی	-10.8656
اظ	-10.8658
▁آتالانتا	-10.8682
▁پوچتینو	-10.8682
▁کامبوج	-10.8682
▁اتیوپی	-10.8682
▁خنثی	-10.8682
▁مونتاژ	-10.8682
▁وحشتناک	-10.8682
▁اپیدمی	-10.8682
▁تورنتو	-10.8682
▁ربیعی	-10.8682
▁تفسیر	-10.8682
▁امتداد	-10.8682
▁آسوشیتد	-10.8682
▁بازنگری	-10.8683
▁متغیر	-10.8683
▁دماوند	-10.8683
▁بوزمن	-10.8683
▁هواشناسی	-10.8683
▁نامناسب	-10.8684
▁مسموم	-10.8684
▁مولوی	-10.8685
▁پیشکسوت	-10.8685
▁ریورا	-10.8686
زم	-10.8686
▁امواج	-10.8686
جیمزباند	-10.8688
ولت	-10.8689
▁قفس	-10.869
▁حسرت	-10.869
▁پالاس	-10.8692
▁مخفیانه	-10.8695
▁نعمت	-10.8695
▁ببرند	-10.8696
▁دارا	-10.8696
▁دبیرستان	-10.8698
▁آرشیو	-10.8698
▁ترافیک	-10.87
▁ونیز	-10.8703
▁زودهنگام	-10.8703
▁صراحت	-10.8706
▁فروغ	-10.8707
▁بیل	-10.8714
▁گناه	-10.8714
بپرس	-10.8714
▁تمرینات	-10.8717
▁نیجر	-10.872
▁گرامی	-10.8721
▁گردش	-10.8722
▁ضدحمل	-10.8723
▁ایرباس	-10.8727
▁خوشبخت	-10.8727
▁آلزایمر	-10.8728
▁شع	-10.873
▁فیلیپین	-10.8732
▁جیپ	-10.8734
▁عرفان	-10.8735
▁ماشه	-10.874
▁۱۳۴	-10.8742
▁برعکس	-10.8744
▁غیبت	-10.8753
▁سرمای	-10.8759
▁عضلا	-10.8765
▁مواقع	-10.8775
▁عقل	-10.8779
▁رضایی	-10.8781
▁خوانند	-10.8783
▁جنگی	-10.8783
▁نکردند	-10.8785
▁عا	-10.8789
▁بالگرد	-10.8792
▁کوی	-10.8794
پوتن	-10.8797
▁سرش	-10.8797
۲۴	-10.8802
▁فال	-10.8802
▁ماز	-10.8809
▁لوکا	-10.8811
ازما	-10.8811
▁خلیل	-10.8814
▁معاش	-10.8822
▁عرف	-10.8823
▁مخلو	-10.8825
▁شمس	-10.8829
▁فضانوردان	-10.8833
▁اکبری	-10.8834
مکعب	-10.8837
تلاش	-10.8837
▁اپراتورها	-10.8843
▁نس	-10.8856
▁سیمون	-10.8858
▁حی	-10.8873
▁۱۹۷	-10.8875
دترا	-10.8879
▁درآمدزا	-10.8882
گو	-10.8889
▁آس	-10.8891
▁رخت	-10.8892
▁خطرات	-10.8895
▁نماند	-10.8916
▁دوستانش	-10.8918
بل	-10.8921
پذیر	-10.8937
همچنین	-10.8948
ریان	-10.8953
فون	-10.8959
دالله	-10.8959
▁همچ	-10.8976
اداری	-10.8981
▁جوز	-10.8984
▁افتادن	-10.8985
انتخابات	-10.8987
▁همکار	-10.8987
دام	-10.8998
▁۸۶	-10.9
▁شهید	-10.902
▁عزیز	-10.9027
قی	-10.9029
▁۹۳	-10.9031
وارد	-10.9036
▁عط	-10.9038
▁اتکا	-10.9044
خانواده	-10.9044
▁۱۳۰	-10.9069
▁جنر	-10.9076
اقتصاد	-10.9078
▁۱۳۸	-10.9078
▁هفدهم	-10.9084
▁سیم	-10.9084
تکب	-10.9087
▁۱۷۶	-10.9093
آمریکایی	-10.9094
چرخه	-10.9101
▁تدری	-10.9103
▁تهدیدهای	-10.9105
▁تبعید	-10.9105
▁استاندارد	-10.9107
بته	-10.911
▁برجا	-10.9114
▁بازوی	-10.9119
▁رایان	-10.9123
انتظار	-10.9128
نمایندگان	-10.9129
▁آندری	-10.9131
▁سیر	-10.9135
▁ژ	-10.9136
▁جست	-10.914
▁نیافت	-10.9145
▁کیست	-10.9156
(	-10.9158
▁شانزده	-10.916
حق	-10.9166
کارشناسان	-10.9167
▁۸۹	-10.9181
غلام	-10.9189
▁سفارشی	-10.9192
رخی	-10.9203
▁۸۸	-10.9204
کرونا	-10.9213
مندان	-10.9215
▁بازرگان	-10.9221
نک	-10.9224
▁دوازدهم	-10.924
تصاویر	-10.925
▁پهلو	-10.925
▁سرگرم	-10.9252
قبل	-10.9257
▁نروژ	-10.9264
▁آنهاست	-10.9265
▁رف	-10.9269
▁تونس	-10.927
▁ذی	-10.927
حرفه	-10.9272
باب	-10.9284
▁جنگند	-10.9287
▁عالم	-10.929
▁رخداد	-10.9295
▁نابود	-10.9298
▁جاست	-10.9301
▁قرمزها	-10.9305
▁پائی	-10.9308
▁پنجش	-10.932
اله	-10.9323
خواهند	-10.9324
▁پاد	-10.9327
▁باردار	-10.933
▁میکروب	-10.9334
▁شریف	-10.9339
نگاران	-10.9342
▁مدتها	-10.9346
أ	-10.9349
▁گردانند	-10.935
طرف	-10.9358
حریم	-10.9359
▁تندی	-10.9368
▁چشمان	-10.9373
۹۱	-10.9382
▁گره	-10.9386
۲۳	-10.9398
داستان	-10.94
زادگان	-10.9406
▁احمدشا	-10.9412
▁سیف	-10.9426
حقق	-10.9429
شنگ	-10.9431
راجر	-10.9435
▁وگوی	-10.9436
▁فرخ	-10.9438
▁تق	-10.9438
▁۶۴	-10.9444
▁گفتگوهای	-10.9475
▁علاقمند	-10.9476
▁دشمن	-10.9476
▁تار	-10.9481
▁ماهیگیر	-10.9489
▁متحدان	-10.949
شت	-10.949
▁مکزیک	-10.9492
▁بوفالو	-10.9494
نشینی	-10.9499
هدیه	-10.9499
وح	-10.95
▁ژنو	-10.9504
موث	-10.9508
▁معل	-10.9509
▁رستگار	-10.9515
▁شیکاگو	-10.9515
▁ضوابط	-10.9515
▁فزاینده	-10.9515
▁مستضعفان	-10.9515
▁مائوریتس	-10.9515
▁ایوانکوویچ	-10.9515
▁صداوسیما	-10.9515
▁مظنون	-10.9515
▁کالدرون	-10.9515
▁سرتاسر	-10.9515
▁دانچیچ	-10.9515
▁وجو	-10.9515
▁دردناک	-10.9515
▁لاجورد	-10.9515
▁خاشق	-10.9515
▁تزئین	-10.9515
▁زائر	-10.9516
▁سرماخورد	-10.9516
▁بنتلی	-10.9516
▁مسوول	-10.9516
▁متمایز	-10.9516
▁گیگز	-10.9516
▁فرسایش	-10.9517
▁حرارت	-10.9517
▁قائم	-10.9517
▁سانتیمتر	-10.9517
▁بشردوستانه	-10.9518
گراندپری	-10.9518
▁وودز	-10.9518
▁خشن	-10.9519
▁جاهای	-10.9519
▁محفظه	-10.9521
▁شکارچی	-10.9522
▁طناب	-10.9523
▁تشری	-10.9524
▁وفادار	-10.9524
▁مکتب	-10.9525
▁پیشتاز	-10.9526
▁بخرد	-10.9526
▁اشکال	-10.9527
▁اشعار	-10.9527
▁انباشت	-10.9528
▁گابریل	-10.9528
▁عسل	-10.9529
▁ریل	-10.953
رالله	-10.953
▁موکل	-10.9533
▁پناهجوی	-10.9534
▁انستیتو	-10.9536
▁ژیمناست	-10.9537
▁هوندا	-10.9537
▁فریب	-10.9538
▁تصاحب	-10.954
▁نیکل	-10.9541
▁برسند	-10.9542
بون	-10.9545
▁ندادن	-10.9546
▁علایم	-10.9553
▁متروکه	-10.9553
▁پاتر	-10.9555
▁میز	-10.9555
▁هیچکس	-10.9557
▁چاب	-10.9557
بالاحصار	-10.9564
▁شجاع	-10.9567
▁نوزادان	-10.9572
▁دورانگو	-10.9574
خاذ	-10.9575
▁شستا	-10.9577
▁معوقه	-10.9582
▁نمایشنامه	-10.9583
▁نوا	-10.9583
▁اقبال	-10.9584
یرت	-10.9588
▁مب	-10.9589
ویل	-10.9594
▁انداختند	-10.9596
▁درگذشته	-10.96
▁دندان	-10.9601
نر	-10.9602
▁مق	-10.9606
▁تحقیر	-10.9608
▁بازخوان	-10.9609
▁رایج	-10.9615
▁مغول	-10.962
▁کتک	-10.9621
▁صده	-10.9622
▁رامش	-10.9622
▁مصا	-10.9625
▁اشت	-10.9629
▁برگردانده	-10.963
▁مثل	-10.9631
▁دشت	-10.9632
ستین	-10.9636
▁چرب	-10.9636
نوعی	-10.9639
▁اقیانوسیه	-10.9643
▁ادوارد	-10.9645
▁بشریت	-10.9645
▁زنگ	-10.9654
▁کوب	-10.9657
▁بقای	-10.9659
مانع	-10.966
▁رفتارهای	-10.9662
▁وکلای	-10.9664
▁پارکر	-10.9666
▁اسپورت	-10.9669
▁بوئ	-10.9671
▁پژو	-10.9675
▁نویسد	-10.9677
۲۹	-10.9689
▁گردون	-10.9695
▁پردرآمد	-10.9699
▁میهمان	-10.9699
مد	-10.97
▁اعظم	-10.9702
▁ریخته	-10.9705
وهان	-10.9706
▁کین	-10.9711
▁آشنای	-10.9713
▁خودس	-10.9718
▁فیروز	-10.9726
▁راکت	-10.9726
▁پریش	-10.9728
▁گنجی	-10.9733
▁ظ	-10.9739
▁تیموری	-10.9741
▁کلان	-10.9747
زاب	-10.9747
▁بورگ	-10.975
▁غر	-10.9753
▁اچ	-10.9759
▁آرزوی	-10.9759
▁۸۵	-10.9764
▁یادمان	-10.9774
▁۱۹۶	-10.9775
▁کنیا	-10.9775
لینی	-10.978
رفه	-10.978
▁انتها	-10.9801
▁طب	-10.9803
▁ساک	-10.9803
ندان	-10.9806
▁کول	-10.981
▁کیا	-10.9811
▁رنگی	-10.9814
▁مانند	-10.9821
▁مست	-10.9822
قو	-10.9829
▁پیچ	-10.9835
▁یگان	-10.9837
▁بصر	-10.9837
▁خالقی	-10.9839
▁یخی	-10.9847
▁سطو	-10.9855
▁سارا	-10.9856
▁صدم	-10.9857
مسابقات	-10.9889
▁زای	-10.9891
▁پذیرای	-10.9898
▁بلو	-10.9899
▁برآمد	-10.9905
بیه	-10.9909
بانی	-10.9913
▁ایکس	-10.9919
▁لوکه	-10.9934
▁تحریمها	-10.9941
پرسپولیس	-10.9949
▁ولد	-10.9952
مدت	-10.9962
صف	-10.9962
نوی	-10.9962
▁۱۹۴	-10.9979
تور	-10.998
▁یکم	-10.999
مذاکرات	-10.9992
صالح	-10.9993
▁کپی	-11.0001
▁موهای	-11.0013
سیویر	-11.0023
مسی	-11.0027
جل	-11.0027
اعضای	-11.0027
▁مسافری	-11.0046
کارگران	-11.0048
هنورد	-11.0048
وازم	-11.0056
روابط	-11.0059
فه	-11.0062
خامن	-11.0067
بورس	-11.0069
سیتی	-11.0073
▁داوری	-11.0079
دفتر	-11.0081
▁نای	-11.0082
مال	-11.0082
▁موجودی	-11.0084
۲۰۰	-11.0085
تاکس	-11.0091
▁برفی	-11.0091
▁پرآ	-11.0093
اسماعیل	-11.0094
▁ضر	-11.0095
همه	-11.0098
موسس	-11.0099
▁۱۶۰	-11.0101
رافائل	-11.0103
ریچارد	-11.0107
ارت	-11.0112
رگ	-11.012
▁توفیق	-11.0127
▁مسیح	-11.013
▁رسن	-11.0143
▁۱۸۰	-11.0144
زده	-11.0145
▁عمو	-11.0152
▁ریس	-11.0153
اران	-11.0169
▁خالص	-11.0171
۶۳	-11.0171
▁نمادی	-11.0177
زاد	-11.018
▁وظایف	-11.0183
▁۱۹۶۰	-11.0195
نیروی	-11.0199
نشین	-11.0207
▁معیارها	-11.0208
مارک	-11.0222
▁کمپ	-11.0237
شش	-11.0242
۱۷	-11.0248
▁عزیزان	-11.0264
▁مخ	-11.0265
▁تیره	-11.0279
▁ژن	-11.0293
ژیم	-11.0303
▁۱۹۵	-11.0305
لوب	-11.0308
فته	-11.0308
▁هلندی	-11.0324
▁دادم	-11.0326
▁گریه	-11.0331
گشایی	-11.0347
▁سختگیر	-11.0348
صدایی	-11.0358
ریس	-11.0359
اکثریت	-11.0362
▁سیاستمدار	-11.0368
ژه	-11.0377
▁میکل	-11.0382
▁دستیار	-11.0386
▁مشوق	-11.0386
▁سازه	-11.0393
▁سالی	-11.0395
▁قراردادهای	-11.04
▁نیو	-11.0401
یوان	-11.0409
▁پالایش	-11.0415
▁خانوار	-11.0419
غیب	-11.0422
▁الگوریتم	-11.0424
▁اوربیتر	-11.0424
▁جاپلقی	-11.0424
▁رفسنجان	-11.0424
▁زاناردی	-11.0424
▁لابراتوار	-11.0424
▁پدافند	-11.0424
▁ژئوپلیتیک	-11.0424
▁ملاحظ	-11.0424
▁پیرامون	-11.0424
▁کرگدن	-11.0424
▁بالیوود	-11.0424
▁مصداق	-11.0424
▁کادرفنی	-11.0424
▁آرتتا	-11.0425
▁نوشیدن	-11.0425
▁تخفیف	-11.0425
▁آشپز	-11.0425
▁اتصال	-11.0425
▁وگاس	-11.0426
▁تفکیک	-11.0426
▁مرضیه	-11.0427
▁واریز	-11.0427
▁ارتقا	-11.0427
▁سلتیک	-11.0428
زمینی	-11.0428
▁استقراض	-11.0428
▁کفتر	-11.0428
▁طعم	-11.0428
▁یوگا	-11.0429
▁الاجل	-11.0429
▁خدایاری	-11.0429
▁قارچ	-11.0429
▁آمبول	-11.0431
▁۱۹۷۰	-11.0432
▁تربیت	-11.0432
▁نوازندگان	-11.0434
▁فطر	-11.0434
▁کلمات	-11.0434
▁ثا	-11.0434
▁گردنبند	-11.0435
▁مکمل	-11.0435
▁زیدان	-11.0438
▁عروق	-11.0439
بومی	-11.044
▁کوبید	-11.044
ویچ	-11.044
▁تهاجمی	-11.0441
▁کلانتری	-11.0443
جوبی	-11.0444
▁شناگر	-11.0444
▁باریک	-11.0444
▁قسط	-11.0445
▁مبالغ	-11.0446
▁جونیور	-11.0448
▁تویوتا	-11.0448
▁بتهوون	-11.0448
▁پرستاران	-11.0449
▁هروی	-11.045
▁کیلوولت	-11.045
▁معتمدی	-11.0451
واره	-11.0451
نگیز	-11.0451
▁فروشی	-11.0452
▁۲۰۰۶	-11.0453
▁منکر	-11.0461
▁۱۳۹	-11.0462
▁متکی	-11.0464
▁منظم	-11.0464
▁تصدی	-11.0467
گرا	-11.047
▁گوییم	-11.047
▁ویدئوی	-11.0471
▁شکستن	-11.0472
▁مخصوصا	-11.0484
وانند	-11.0491
▁تورین	-11.0497
▁پیشگامان	-11.0499
▁اعتنا	-11.05
▁خبرها	-11.0504
▁افسران	-11.0508
▁رونالدینیو	-11.0508
▁صریح	-11.0509
▁اله	-11.051
هره	-11.0515
▁مستندساز	-11.0516
▁اختیارات	-11.0529
▁اين	-11.0534
▁محتوی	-11.0536
▁نهفته	-11.0542
▁لبنانی	-11.0545
▁اقتصاددان	-11.0545
▁انگیزترین	-11.0546
▁برنگشت	-11.0553
▁نگارش	-11.0554
▁سالیانه	-11.0555
▁اشتباهات	-11.0556
مای	-11.0557
جیره	-11.0557
▁بازیار	-11.0565
▁پهن	-11.0566
بریتی	-11.0569
لیون	-11.0574
▁فشرد	-11.0574
دال	-11.0574
▁گزینش	-11.0578
دنی	-11.058
▁لق	-11.0581
▁بولت	-11.0583
▁روحی	-11.0583
▁نداشتم	-11.0586
▁لاش	-11.0587
▁باقر	-11.0588
رک	-11.0589
▁شعارهای	-11.0594
▁امپراتوری	-11.0598
▁درشت	-11.0598
▁ویدیوهای	-11.0604
▁امتیازات	-11.0606
▁گرفتیم	-11.0609
▁بدنش	-11.0615
▁دانشگاهی	-11.0616
▁گذاشتند	-11.0617
▁پروازهایش	-11.0618
▁بگیر	-11.0621
▁معین	-11.0624
▁حاد	-11.0624
▁بله	-11.0628
▁حتما	-11.0632
▁مض	-11.0636
نشان	-11.0641
اوش	-11.0648
▁کاران	-11.0649
▁۱۹۳	-11.0659
▁نشدند	-11.0659
▁علوی	-11.0666
▁قا	-11.0682
عارض	-11.0688
▁دانشجویی	-11.0695
لمپ	-11.0699
▁اسکو	-11.0705
▁باختری	-11.0705
▁کرج	-11.071
▁ریو	-11.0712
تهران	-11.0716
▁معاهد	-11.0728
▁پیامک	-11.0731
▁درو	-11.0732
▁دیدم	-11.0733
▁خراب	-11.0738
▁جولیان	-11.074
▁گویم	-11.0742
▁عکاسان	-11.0747
بریتانیا	-11.0748
▁رامی	-11.0748
طرح	-11.0753
۹۹	-11.0758
مر	-11.0761
▁درانی	-11.0768
▁کشمی	-11.0769
جاد	-11.0769
▁حام	-11.0778
▁تیل	-11.0779
کاهش	-11.0781
▁۵۴	-11.0781
▁عمدی	-11.0783
نجیره	-11.0783
▁فروشند	-11.079
▁پانزدهم	-11.079
▁فخر	-11.0804
▁استدر	-11.0821
▁فار	-11.0823
▁مشت	-11.0836
حضور	-11.0851
▁رنگین	-11.0851
▁ساعته	-11.0863
▁محرک	-11.0863
ارغ	-11.0874
▁کاندیدا	-11.0882
▁شیع	-11.0885
▁اعت	-11.0899
▁اصولگرای	-11.0904
▁درز	-11.0905
▁آموخت	-11.0907
خودرو	-11.0912
▁محسوس	-11.0916
▁گودا	-11.0917
▁نیازها	-11.0919
▁دوش	-11.0926
▁بوی	-11.0928
▁زم	-11.0929
▁لن	-11.0931
▁لاس	-11.0932
▁کینگ	-11.0936
▁افتتاحی	-11.0938
▁فرهنگیان	-11.0949
دلال	-11.0949
▁برهم	-11.095
▁سلام	-11.0953
▁خوابی	-11.0959
واکنش	-11.0965
▁دویچ	-11.0966
نها	-11.0973
▁نظرات	-11.0973
▁جانش	-11.0975
▁کارفرمای	-11.0982
انتشار	-11.0985
▁شیفت	-11.0988
▁روزبه	-11.0988
▁فتحی	-11.0994
۴۶	-11.1012
خواهید	-11.1013
داشته	-11.1017
تحقیقات	-11.1033
مارادونا	-11.1036
سانی	-11.1038
نج	-11.1051
تاتنهام	-11.1058
▁هراس	-11.1064
▁دلال	-11.1072
راب	-11.1074
▁مجرم	-11.1077
▁گا	-11.1087
▁احساسی	-11.1093
بفرستید	-11.1097
▁اوبا	-11.11
▁کودتا	-11.11
ونی	-11.1101
گوف	-11.1103
ابلو	-11.1104
▁قش	-11.1108
ویکتور	-11.1111
▁فول	-11.1111
▁کرمانشاه	-11.1114
▁عواقب	-11.1115
▁آمریکای	-11.1119
▁پال	-11.1128
▁توس	-11.1135
داران	-11.1142
▁بهانه	-11.1143
▁هرکس	-11.1149
خواه	-11.1149
▁پراکن	-11.1163
▁کمیاب	-11.1163
▁۸۳	-11.1164
آیا	-11.1164
سپاری	-11.117
خوانی	-11.1171
زنی	-11.1172
لس	-11.1172
لینگ	-11.1175
رتب	-11.1192
▁رکوردها	-11.1199
▁تصویربردار	-11.1201
▁الم	-11.1206
▁ریوی	-11.1213
▁نف	-11.1214
ایب	-11.1231
▁لوی	-11.1235
رسیدن	-11.1235
▁مشهورتر	-11.1243
نان	-11.1248
▁لوک	-11.1249
▁مصاد	-11.1251
▁ابو	-11.1262
▁تیتر	-11.1264
برد	-11.1266
▁زانوی	-11.1281
افت	-11.1286
▁ناصری	-11.1288
بورد	-11.1293
▁مندان	-11.1302
▁دول	-11.1304
▁ارت	-11.1306
▁هما	-11.1313
▁عمد	-11.1316
وانی	-11.1319
هرابی	-11.132
مایه	-11.1327
▁راهنمای	-11.1332
▁بارز	-11.1336
انکن	-11.1337
▁۱۷۰	-11.1341
▁بینید	-11.1351
فروش	-11.1354
عفون	-11.1356
دیده	-11.1367
▁فهم	-11.138
▁طاق	-11.138
▁دوری	-11.1385
ستگی	-11.1388
▁زی	-11.1394
ریت	-11.1395
▁فرانسیس	-11.14
▁تسهیل	-11.1417
▁جزئی	-11.1423
▁کدخدایی	-11.1424
▁ابرنواختر	-11.1424
▁مناقش	-11.1424
▁پولیتزر	-11.1424
▁زاکانی	-11.1425
▁تضاد	-11.1425
▁اسراییل	-11.1425
▁خاشقچی	-11.1425
ژورنال	-11.1425
▁ترشح	-11.1425
▁جهرمی	-11.1425
▁یهودی	-11.1426
▁اقتدار	-11.1426
▁۱۹۷۳	-11.1426
▁پابند	-11.1426
▁بسازد	-11.1427
▁پاکبان	-11.1427
▁متوفی	-11.1427
▁تعاون	-11.1428
▁پیکولی	-11.1428
▁کلارک	-11.1428
▁مستعار	-11.1428
▁بدهکار	-11.1429
ضاح	-11.143
▁همر	-11.1431
▁نصیب	-11.1432
▁محصولاتش	-11.1432
▁عقاب	-11.1433
▁بگذارند	-11.1433
▁اکسید	-11.1435
▁یوسف	-11.1435
▁فلسطینیان	-11.1438
▁دوستداران	-11.1438
▁تمدن	-11.1438
▁مأموریت	-11.1439
▁عصبانی	-11.1439
▁مادی	-11.1439
▁اردوگاه	-11.1439
▁روانشناس	-11.144
▁تلویح	-11.1443
▁لامرد	-11.1444
▁تلفات	-11.1445
▁حاتمی	-11.1446
▁مسترز	-11.1447
▁نابسامان	-11.145
▁رخشانه	-11.1452
▁خیام	-11.1452
▁مطالبات	-11.1452
▁بگویند	-11.1452
▁پیر	-11.1454
▁آرایشگاه	-11.1456
▁سولو	-11.1457
▁استفانو	-11.1459
جر	-11.1463
▁شکننده	-11.1466
▁دیابت	-11.1468
▁اندرکاران	-11.1471
آفرین	-11.1473
▁هستید	-11.1476
▁منظر	-11.1476
▁خلوت	-11.1476
▁نیمروز	-11.1478
▁بذر	-11.1479
▁مسترد	-11.1481
▁تعویض	-11.1483
▁آرای	-11.1484
▁پوشان	-11.1484
▁بنجام	-11.1485
▁پردازند	-11.1488
▁کنزو	-11.1494
جام	-11.1496
▁کثیر	-11.1499
هی	-11.15
▁آرش	-11.1502
شاپی	-11.1503
▁کشتند	-11.1506
▁شانگ	-11.1512
دخت	-11.1517
▁اینجا	-11.1524
▁۱۳۹۰	-11.1526
▁رابین	-11.1528
دوست	-11.153
▁نگر	-11.1533
▁خارا	-11.1534
▁نشانگر	-11.1535
دات	-11.1536
دگان	-11.1537
▁نادری	-11.1537
▁طل	-11.1539
▁بهزاد	-11.1547
نتی	-11.1549
▁ذات	-11.155
▁پادمان	-11.1552
▁قبر	-11.1553
وظ	-11.1554
بخشی	-11.1558
▁نیکلا	-11.1559
همین	-11.156
▁جنای	-11.1565
گرنه	-11.1566
▁هجدهم	-11.1578
▁اسحاق	-11.158
مور	-11.1581
▁اصلاحی	-11.1584
▁جعفری	-11.1584
▁گرانتر	-11.1596
▁یار	-11.16
▁صمیمی	-11.1604
ظه	-11.1606
▁آلایند	-11.1618
▁یاوری	-11.1629
ستند	-11.1633
▁شایست	-11.1647
جانب	-11.1649
▁سلف	-11.1651
▁پسند	-11.1657
شیپ	-11.1658
▁سوگ	-11.1659
جهان	-11.1662
▁معا	-11.1671
▁واحدها	-11.1672
کند	-11.1678
▁نوشتند	-11.168
▁فضاپیمای	-11.1682
▁آو	-11.1684
▁شفا	-11.1685
▁صبا	-11.1688
▁معاد	-11.1689
▁متحدانش	-11.1695
▁پیداست	-11.1695
لوت	-11.1698
▁یزد	-11.1699
▁موس	-11.1699
▁دانشگر	-11.1705
▁ماندند	-11.1706
یقه	-11.1711
صول	-11.1712
▁سرما	-11.1719
خط	-11.1725
▁نیستیم	-11.1732
کری	-11.1732
▁وارن	-11.1733
▁کلیسای	-11.1739
▁تای	-11.1747
نسوخ	-11.1759
▁جراحت	-11.1762
شما	-11.1763
میلیون	-11.1764
رگس	-11.1765
هکرها	-11.1776
▁بادی	-11.178
رف	-11.1784
▁تابستانی	-11.179
اوران	-11.1791
▁رشید	-11.1792
▁مبارک	-11.1796
▁خوست	-11.1803
▁همخوان	-11.1814
▁رز	-11.1818
▁مقد	-11.1819
▁پرتو	-11.1824
علت	-11.1831
ائم	-11.1832
▁دادیم	-11.184
یسی	-11.186
کست	-11.186
▁تخل	-11.1866
آغاز	-11.1868
▁محا	-11.1882
▁کلاه	-11.1883
▁بانو	-11.1888
▁قطعا	-11.1903
▁بازجوی	-11.1904
▁قاسمی	-11.1912
▁گاو	-11.1921
روح	-11.1923
۶۰	-11.1924
دلیل	-11.1925
▁شرم	-11.1927
▁وگوهای	-11.1932
باط	-11.1941
▁اکرا	-11.1944
واقع	-11.1946
بهم	-11.1946
▁گویی	-11.1976
▁مبا	-11.1982
▁آدام	-11.1984
▁افق	-11.1987
▁کرای	-11.1993
گا	-11.1995
ستیک	-11.2011
په	-11.2024
▁پردازی	-11.2028
▁تام	-11.204
اطلاعات	-11.204
جک	-11.205
▁۲۰۲	-11.2054
▁کویت	-11.2056
کمتر	-11.2061
بررسی	-11.2061
▁مینیاتور	-11.2063
▁فنل	-11.2072
آلمان	-11.2076
▁گرای	-11.2096
▁جاد	-11.21
ترکیه	-11.2103
دربند	-11.2119
▁نیاورد	-11.2121
صندوق	-11.2125
▁مضر	-11.2126
▁استثنای	-11.2127
گارت	-11.2128
رها	-11.2129
▁دایر	-11.213
یونایتد	-11.2133
▁پینگ	-11.2135
▁کلم	-11.2137
▁اخ	-11.2147
پیروز	-11.215
چلسی	-11.2163
▁تح	-11.2165
▁کشتن	-11.2169
یکه	-11.2173
▁پرند	-11.2174
اه	-11.2176
تجرب	-11.2176
سفارت	-11.218
▁کور	-11.2182
نقاشی	-11.2183
▁بانان	-11.2186
▁رفتم	-11.2187
سایت	-11.2191
انجمن	-11.2195
ورا	-11.2197
کلوپ	-11.2199
فرگوس	-11.22
▁مصر	-11.2203
▁ببر	-11.2206
تایسون	-11.2207
▁پژ	-11.2207
فضل	-11.2219
افشاری	-11.2222
ایگاه	-11.2232
▁وگوها	-11.2238
رم	-11.2239
تابعیت	-11.2242
▁صدایش	-11.2256
▁میلی	-11.2257
نشست	-11.2257
کاوه	-11.2258
▁ترا	-11.2261
▁ناآرام	-11.2266
هرانا	-11.2269
قدرت	-11.2271
▁شل	-11.2275
▁۱۱۰	-11.2278
▁گرما	-11.2287
▁جنی	-11.2293
▁فرستد	-11.2306
منی	-11.2326
سری	-11.2331
سلر	-11.2337
لال	-11.2345
▁نامم	-11.2346
▁ملته	-11.2347
نرخ	-11.235
خشان	-11.2352
▁شهرک	-11.2352
▁رائو	-11.2356
۴۹	-11.2357
▁دبی	-11.2358
▁اصطلاحا	-11.2363
ناب	-11.2365
▁کیف	-11.2365
▁دانشجوی	-11.2366
▁ران	-11.2368
وفون	-11.2371
▁ناک	-11.2375
▁متخلف	-11.2378
▁دستی	-11.2385
۱۱	-11.2388
پول	-11.2389
ورهای	-11.2407
وندی	-11.2412
▁سف	-11.2425
▁داش	-11.2427
▁مدرس	-11.243
اندن	-11.2431
▁گارد	-11.2436
▁مسیری	-11.2445
امت	-11.2452
کنون	-11.2453
▁نمازی	-11.2463
انش	-11.247
▁اندرکار	-11.2486
▁سپید	-11.2487
درفتار	-11.2487
دلان	-11.2491
▁مای	-11.2498
▁متیو	-11.2504
▁بور	-11.2505
▁پناهند	-11.2515
مرز	-11.2516
▁ویروسی	-11.2516
▁محتاط	-11.2535
▁بلایندرز	-11.2535
▁لومامبا	-11.2535
▁پاختاکور	-11.2535
▁آلومینیوم	-11.2535
▁کمونیست	-11.2535
▁اقوام	-11.2535
▁مقتدر	-11.2535
▁مضاعف	-11.2536
▁تجدد	-11.2536
▁غیرمجاز	-11.2536
▁النصر	-11.2536
▁کانتینر	-11.2536
▁برشمرد	-11.2536
▁هلمند	-11.2536
▁اسپایدر	-11.2536
▁ذیبخش	-11.2536
▁برسانند	-11.2537
▁فحش	-11.2537
▁خلوتگر	-11.2537
▁پاراگوئه	-11.2537
▁نیچر	-11.2538
▁کفایت	-11.2538
▁فورمن	-11.2538
▁شیرجه	-11.2539
▁آنکارا	-11.2539
▁فرنود	-11.2539
▁بیافتد	-11.254
تصاعد	-11.254
▁رولینگ	-11.254
▁واگیر	-11.254
▁نارضای	-11.2541
▁باثبات	-11.2541
▁بغلان	-11.2542
▁جرارد	-11.2542
▁خردسال	-11.2543
▁ماس	-11.2544
▁قرائت	-11.2546
يم	-11.2547
▁بیولوژیک	-11.2547
▁قوم	-11.2548
▁ايران	-11.2548
▁تنگنا	-11.2548
▁۱۳۵۰	-11.2548
▁ابولا	-11.2548
▁آهسته	-11.2549
▁لگن	-11.255
نجی	-11.2551
نیا	-11.2551
▁پاسگاه	-11.2551
▁زادگاهش	-11.2553
▁تبریک	-11.2554
▁نپال	-11.2555
▁انصاری	-11.2558
▁ندهند	-11.2559
▁خلاق	-11.256
▁گسل	-11.256
▁رکوردشکن	-11.2562
▁لشگر	-11.2563
▁سردرگم	-11.2563
▁منفرد	-11.2564
▁قبیل	-11.2565
▁محب	-11.2566
▁کوپتر	-11.2566
▁۲۰۰۱	-11.2566
▁اقامتگاه	-11.2568
موسیقی	-11.2568
▁سیدنی	-11.257
▁نامجو	-11.2571
▁سرشار	-11.2571
▁اخترشناس	-11.2572
▁۱۹۸۰	-11.2572
ادا	-11.2575
▁موعد	-11.2577
▁جغرافیای	-11.2583
▁ماهیچه	-11.2585
▁خوشحالم	-11.2588
ين	-11.2596
▁فیروزجا	-11.2596
▁استقامت	-11.2597
▁فستیوال	-11.2601
▁هولم	-11.2605
▁مورل	-11.2605
▁گدار	-11.2615
▁بیم	-11.2616
▁کانل	-11.2618
▁جولی	-11.2626
▁مطلبی	-11.263
▁ابزارهای	-11.2631
نفر	-11.2631
▁پروست	-11.2632
▁حکیم	-11.2633
تم	-11.2633
▁آف	-11.2636
رشاد	-11.2638
▁آموز	-11.2647
▁کریم	-11.2648
▁لندرو	-11.2648
شیبا	-11.2649
یج	-11.265
▁سولار	-11.2652
▁پذیری	-11.2655
▁چرخش	-11.2656
▁سرگردان	-11.2658
ژ	-11.2663
▁سهراب	-11.2664
۴۲	-11.2666
انا	-11.2668
▁دلتا	-11.2668
فع	-11.267
خانقا	-11.2674
▁نگرفت	-11.2676
▁هامون	-11.2685
▁آنا	-11.2691
▁متولی	-11.2696
▁کیمن	-11.2699
▁بروم	-11.27
تصویر	-11.27
کیو	-11.2705
تاب	-11.2707
▁مراود	-11.2711
▁منظره	-11.2714
▁افش	-11.2716
▁ساسانی	-11.2716
▁ژنرا	-11.272
ینی	-11.2721
▁متخلفان	-11.2729
▁باشم	-11.2729
▁کلدی	-11.2733
▁عمیقا	-11.2739
▁وحشت	-11.2746
▁دوندگان	-11.2746
▁هیولای	-11.275
▁احتیا	-11.2751
▁فای	-11.2752
▁سریعتر	-11.2758
ایل	-11.2759
گبا	-11.2763
▁کریس	-11.2763
الکس	-11.2763
▁تون	-11.277
▁گرمی	-11.2773
خوان	-11.2775
▁وزرا	-11.2776
▁کشیدند	-11.2778
▁آزمو	-11.2781
▁گردید	-11.2782
▁درمی	-11.2784
کام	-11.2788
▁تص	-11.2798
یز	-11.2799
▁جد	-11.2801
▁مباد	-11.2802
▁مصم	-11.2804
یژن	-11.2806
▁نهایتا	-11.2809
▁اثرگذار	-11.2811
▁ساترا	-11.2819
▁آپ	-11.2819
▁جواهر	-11.2826
▁ازسر	-11.2827
▁کج	-11.2832
رح	-11.2846
▁درخشید	-11.2861
▁نایاب	-11.2861
▁جفت	-11.2865
راق	-11.2879
▁هرجا	-11.2879
هین	-11.2886
▁رانت	-11.2887
لفظ	-11.2895
▁نخب	-11.2897
▁خیز	-11.2899
چر	-11.29
کلاهبرداری	-11.29
ویک	-11.2905
▁سبد	-11.2909
▁دیدند	-11.2913
▁شکستگی	-11.2915
▁بیدار	-11.2916
▁ناقل	-11.2926
رش	-11.2938
▁۱۸۵	-11.2939
لم	-11.2956
سخ	-11.2964
▁بازگو	-11.2972
▁بخواهد	-11.2976
▁محدودی	-11.2983
▁توانی	-11.2992
ویروس	-11.2993
روازه	-11.2999
▁امیرم	-11.2999
جیغ	-11.3001
▁اوب	-11.3006
▁چاق	-11.3006
▁ساید	-11.3008
▁لیتر	-11.3012
▁بالی	-11.3014
تورهای	-11.3021
▁ساع	-11.3026
▁خد	-11.3027
زمن	-11.3036
رتر	-11.3044
نکور	-11.3047
▁کارفرما	-11.3054
▁هادی	-11.3055
لتی	-11.3056
▁طرفی	-11.3056
▁گویا	-11.306
زیر	-11.306
▁خم	-11.3061
▁قل	-11.3063
رخ	-11.3065
ومپ	-11.3083
▁ترانس	-11.3094
ائ	-11.3104
هادی	-11.3106
گفتگو	-11.3107
ير	-11.311
▁مسال	-11.3111
▁دنی	-11.3112
▁بتوانی	-11.3113
جاع	-11.3122
▁سرور	-11.3125
▁ایال	-11.3126
حض	-11.3139
▁په	-11.3147
اکبر	-11.3147
▁دوگان	-11.3162
برداری	-11.3171
یگر	-11.3181
▁دایی	-11.3193
▁اتم	-11.3195
شتم	-11.3195
ژهای	-11.3202
جن	-11.3203
▁فوریت	-11.3205
شدیدترین	-11.3205
تصمیم	-11.3214
نیوز	-11.3217
رفتن	-11.3218
▁گردهم	-11.3225
▁بارش	-11.3226
▁مسا	-11.3226
▁مینا	-11.3232
▁خب	-11.3234
▁ترکی	-11.3236
▁رجب	-11.3244
▁آبهای	-11.3245
مو	-11.3246
۳۹	-11.326
▁جیم	-11.3265
برگزار	-11.3266
▁بنیا	-11.3289
▁دود	-11.329
▁مص	-11.3302
نخست	-11.3307
لانتی	-11.3317
▁بزرگان	-11.3335
▁نوین	-11.3337
شو	-11.3339
جیک	-11.3343
نجا	-11.3344
▁گز	-11.3345
مانیا	-11.3346
▁تدو	-11.3354
تخصصی	-11.3355
۲۲	-11.3357
▁اینج	-11.3358
ظاهر	-11.3362
اید	-11.3363
▁پرز	-11.3363
▁ایرلندی	-11.3364
فتن	-11.3366
▁سنگر	-11.3369
▁نزدیکتر	-11.3376
▁سروده	-11.3377
ارزش	-11.3382
▁حر	-11.3391
جمعیت	-11.3401
حادثه	-11.3406
مشخص	-11.3407
▁پرید	-11.3408
▁مغزش	-11.3414
▁خاور	-11.3417
▁اجتماع	-11.3417
▁بخشید	-11.3417
▁کلاهبردار	-11.3419
▁۱۴۰	-11.342
▁صدایی	-11.3428
▁مارچ	-11.3432
▁عزادار	-11.3434
قدس	-11.3435
کوم	-11.3439
جراح	-11.3444
اسپانیا	-11.3445
کانادا	-11.3445
▁تراز	-11.3448
رهبر	-11.3454
منازع	-11.3462
اتریش	-11.3465
▁۶۳	-11.3468
وحید	-11.3469
▁خریدن	-11.3473
وکیل	-11.3482
هشدار	-11.3483
ارث	-11.3488
▁استعمار	-11.3488
لستر	-11.349
▁یادگار	-11.3492
▁کولبر	-11.3493
بحث	-11.3506
شنا	-11.3507
▁وث	-11.3512
▁بزن	-11.3513
▁فرضی	-11.3519
▁قربان	-11.352
موج	-11.352
دادستان	-11.3526
عادت	-11.3528
▁دانشجو	-11.3537
انت	-11.3542
پزشکی	-11.3546
ملا	-11.3556
▁ناراحتی	-11.356
تازه	-11.3573
ترانه	-11.3575
جای	-11.3577
▁زک	-11.3588
▁دادخواه	-11.3606
▁فرح	-11.3607
جامع	-11.361
▁جرد	-11.3611
نزا	-11.3611
▁آوی	-11.3614
نتیج	-11.3614
▁وای	-11.3617
▁سازان	-11.3618
▁مشتاق	-11.362
کرده	-11.3627
زیان	-11.3628
▁عظیمی	-11.3636
▁کارتو	-11.3653
کور	-11.3663
طبی	-11.3665
دوستانه	-11.3669
▁پولها	-11.3671
▁۵۱	-11.3672
▁نر	-11.3677
یایی	-11.3682
حث	-11.3683
▁نیل	-11.3686
▁کارل	-11.3689
▁پیشگام	-11.3696
بادی	-11.3705
فیروز	-11.3715
اسکو	-11.372
▁کوش	-11.3724
لث	-11.3726
▁پذیرفت	-11.3736
▁مقاوم	-11.3738
▁اعدا	-11.3739
▁فلور	-11.3744
▁اصالت	-11.3747
▁شدیم	-11.3748
▁تحق	-11.3754
وئرنیک	-11.3755
▁ابداع	-11.3761
گشاد	-11.3765
▁تجلی	-11.377
دیمیر	-11.3772
▁منجم	-11.3778
وده	-11.3779
▁آکسفام	-11.3785
▁ماسویدال	-11.3785
▁کانگورو	-11.3785
▁جامائیکا	-11.3785
▁راهپیمایی	-11.3785
▁مصیبت	-11.3785
▁هامبورگ	-11.3785
▁تدفین	-11.3785
▁سولشر	-11.3785
▁دموکراسی	-11.3785
▁اردکانیان	-11.3785
▁ناگزیر	-11.3785
▁طغیان	-11.3786
▁تأسیس	-11.3786
▁دفاتر	-11.3786
▁ژنشنگ	-11.3786
▁تذکر	-11.3786
▁کلروک	-11.3786
▁باکتری	-11.3786
▁گاگا	-11.3786
▁عنصر	-11.3787
▁واجد	-11.3788
▁کمبریج	-11.3788
▁بدانید	-11.3788
▁آپارتمان	-11.3788
▁۱۹۷۹	-11.3788
اهی	-11.3788
▁بیاورند	-11.3788
▁بفروشند	-11.3789
جویی	-11.3789
۸۵	-11.3789
▁الاجراست	-11.379
▁برگردیم	-11.379
▁بنشیند	-11.3791
▁گیتار	-11.3791
▁کاشف	-11.3792
▁پرجمعیت	-11.3792
▁گریگوریان	-11.3793
▁تبلت	-11.3793
▁نورالله	-11.3794
▁فرنگی	-11.3794
▁۷۵۲	-11.3794
▁آسپر	-11.3796
▁برگردند	-11.3796
▁مختاری	-11.3798
▁پابرجاست	-11.3798
▁معلولیت	-11.3799
▁نیابد	-11.38
صاب	-11.38
▁رفیق	-11.38
▁لبخندها	-11.38
▁جانباخت	-11.3801
▁اجساد	-11.3802
▁سازوکارهای	-11.3802
▁۱۹۹۴	-11.3803
▁۷۵۰	-11.3805
زیمبا	-11.3807
▁آث	-11.3807
کاراکاس	-11.3808
▁تشک	-11.3808
▁برویم	-11.3809
▁بخواهید	-11.381
▁حوض	-11.3811
▁معلم	-11.3812
▁برایانت	-11.3812
دغدغه	-11.3813
▁اسنپ	-11.3815
▁۴۵۰	-11.3816
▁الاکلنگ	-11.3816
▁مساحت	-11.3817
▁مستثن	-11.3817
تاج	-11.3819
▁سفیددره	-11.382
▁گرافیک	-11.3821
▁مخاطب	-11.3821
▁امیدوارکننده	-11.3821
▁بازتاب	-11.3822
▁داوود	-11.3822
▁ناچیز	-11.3822
▁نجوا	-11.3823
▁پستی	-11.3824
▁مشروب	-11.3828
▁نورمحمد	-11.3828
▁تنیده	-11.3829
▁یوآ	-11.383
بیست	-11.3834
▁علیزاده	-11.3834
▁آویز	-11.3836
میشل	-11.384
▁هاپک	-11.3842
واز	-11.3843
۲۷	-11.3845
رانه	-11.3845
▁عزت	-11.3845
▁ملکشا	-11.3845
▁پارکور	-11.3847
نوان	-11.3849
۵۷	-11.385
ملی	-11.385
▁نوی	-11.3851
جوزپ	-11.3852
▁گردیم	-11.3852
▁برگزارکنند	-11.3854
▁موریس	-11.3858
▁فرندز	-11.3859
▁ماوریک	-11.3859
▁فهیم	-11.3859
▁کیانوش	-11.386
▁خرمشهر	-11.386
▁افزاید	-11.3862
▁مسبب	-11.3862
▁پسران	-11.3866
▁عاشقانه	-11.3867
▁صیاد	-11.3869
▁محاف	-11.3871
▁ادارات	-11.3872
▁چادر	-11.3876
۵۸	-11.388
▁ارژن	-11.3881
▁رژه	-11.3885
▁سازندگی	-11.3885
▁بدنشان	-11.3892
▁موسیقیدان	-11.3892
▁خوشبین	-11.3893
▁جرج	-11.3898
▁توئیتر	-11.3903
▁اندازند	-11.3905
▁انکار	-11.391
▁کامپیوترها	-11.3914
▁وض	-11.3915
▁چارل	-11.3917
▁شرک	-11.3919
▁کامیاب	-11.3922
▁هوشیاری	-11.3922
▁فورا	-11.3924
▁سادگی	-11.3925
▁کلیپ	-11.3926
▁نامشخص	-11.3926
▁تناقض	-11.393
▁ناوگان	-11.3933
▁بدخ	-11.3937
▁تولیدکنند	-11.3937
۶۱	-11.3938
▁ساوت	-11.3943
یتا	-11.3956
▁شرع	-11.3966
▁تجمعات	-11.3967
حصول	-11.3967
▁منقل	-11.3969
▁نایا	-11.3972
▁بخشهای	-11.3976
۱۹۶۵	-11.3988
▁پینک	-11.3994
▁افول	-11.3994
▁بقا	-11.3996
▁پرشور	-11.4007
پک	-11.4009
شکاف	-11.4019
▁کوبا	-11.4019
دانف	-11.402
▁بازیافت	-11.4022
▁ماخ	-11.4024
▁ارج	-11.4025
شدن	-11.4026
▁بازنده	-11.4029
▁لطفی	-11.4033
اعلام	-11.4037
ملو	-11.4044
لسون	-11.4046
▁توق	-11.4049
ابق	-11.4052
▁توقع	-11.4055
▁کوس	-11.4069
مهربان	-11.4069
▁گرجستانی	-11.407
▁القا	-11.4072
▁راب	-11.4076
▁تخ	-11.4078
سعود	-11.408
خواهیم	-11.4086
▁هانز	-11.4094
ساسی	-11.4099
▁اینچ	-11.4105
▁هوادارانش	-11.4108
▁نیافته	-11.4111
راد	-11.4126
چل	-11.4126
▁جراحان	-11.4128
▁سهامدار	-11.4129
تناسب	-11.4135
▁همگان	-11.4152
ومبل	-11.4153
يد	-11.4156
▁مولان	-11.4159
افتاده	-11.4161
▁نیوز	-11.4163
▁غل	-11.4166
جد	-11.4172
▁درصدد	-11.4183
وویچ	-11.4186
▁دنیل	-11.4189
▁بیگ	-11.4202
▁خدای	-11.4207
▁منک	-11.4207
▁شکوف	-11.4212
▁بپذیر	-11.4213
دند	-11.4222
▁نمود	-11.4225
▁نما	-11.4227
اپ	-11.4229
▁پاسخگوی	-11.423
▁شکن	-11.4231
▁معمای	-11.4231
لبرز	-11.4237
فو	-11.4238
▁برخاست	-11.4243
▁حول	-11.4243
یافته	-11.4244
▁سنی	-11.4247
صره	-11.4249
▁تئو	-11.4254
▁الس	-11.4262
▁نیکولا	-11.4262
وجیه	-11.4263
▁وادار	-11.4268
▁راد	-11.4271
نقل	-11.4271
▁اط	-11.4271
زاری	-11.4273
رنج	-11.4274
▁جوی	-11.4276
رن	-11.428
ریا	-11.4282
▁معما	-11.4286
▁داروین	-11.4286
داده	-11.4293
▁نب	-11.4293
▁پارچ	-11.4296
▁کاف	-11.4299
▁۸۷	-11.4315
▁غرو	-11.4319
▁دفع	-11.4319
يت	-11.4335
باع	-11.4336
▁عج	-11.4336
▁۲۵۰۰	-11.4338
▁گازها	-11.4344
▁خالد	-11.4346
۶۷	-11.435
▁محف	-11.4359
سنگ	-11.4366
▁ناشر	-11.4366
▁ماتی	-11.4368
ابل	-11.4375
▁قان	-11.4375
ستانگ	-11.4376
▁ریاضی	-11.4379
ستر	-11.4382
▁بجا	-11.4385
بیل	-11.4386
▁بارور	-11.4391
▁خلا	-11.4392
ترا	-11.4393
فرانس	-11.441
▁فرزندانش	-11.4416
▁کری	-11.442
▁دقتی	-11.4435
▁کبد	-11.4438
خیل	-11.4449
▁حفا	-11.4459
جلیل	-11.4463
▁فوتبالی	-11.4468
فرجام	-11.4471
▁وزار	-11.4473
▁اروپاست	-11.4474
▁بهرامی	-11.4478
▁بنده	-11.4485
▁هفده	-11.4488
▁فهمید	-11.4489
دوغا	-11.4499
تحریم	-11.4499
▁اصولگرا	-11.4504
نیچ	-11.451
پزشک	-11.4512
▁بریتانیاست	-11.4515
پیر	-11.4517
ئه	-11.4519
▁دراین	-11.4522
▁جون	-11.4525
▁مبت	-11.4528
سوس	-11.4532
▁مارکو	-11.4536
کافی	-11.4554
▁مردن	-11.4554
▁فورب	-11.4563
۹۳	-11.4571
گوئر	-11.4573
عان	-11.4573
▁رسی	-11.4581
رمان	-11.4582
ردی	-11.4591
▁شوق	-11.4597
شروع	-11.4602
▁اجراهای	-11.4604
▁ریختن	-11.4606
▁بدوی	-11.4611
▁اسل	-11.4612
تعداد	-11.4613
پرداخت	-11.4614
فلیک	-11.4615
۳۷	-11.4618
▁نهادی	-11.4623
▁گذاریم	-11.4626
امین	-11.4626
خوف	-11.4626
▁پالا	-11.4626
الت	-11.4631
▁بفهم	-11.4634
دوستان	-11.464
▁پنا	-11.4644
نیف	-11.465
شوند	-11.4651
بور	-11.4657
درگذشت	-11.466
امه	-11.466
زیه	-11.4667
▁ژی	-11.4683
جایزه	-11.4684
▁رپ	-11.4699
زو	-11.47
ایشگاه	-11.4701
▁کاد	-11.4705
بازداشت	-11.4724
جویان	-11.4735
▁دزدی	-11.4735
▁مکس	-11.4737
▁انقلابی	-11.4742
فره	-11.4744
▁قاتل	-11.4745
صیل	-11.4746
▁ماست	-11.4753
دایی	-11.4758
▁بز	-11.4759
▁آوا	-11.4763
قصد	-11.4775
▁اب	-11.4776
طری	-11.4782
وجه	-11.4785
رکورد	-11.4788
▁همگ	-11.4798
▁موت	-11.4802
▁سیلی	-11.4808
نتایج	-11.4809
هنگام	-11.4812
▁گلو	-11.4812
اطم	-11.4812
فرانسه	-11.4814
تنیس	-11.4815
دیدار	-11.4815
بزرگترین	-11.4816
ظن	-11.4816
▁کورو	-11.4826
سرطان	-11.4826
▁تولی	-11.4828
سک	-11.4841
مجتب	-11.4847
خون	-11.4853
آذر	-11.4854
سکانس	-11.4858
▁صحرا	-11.4859
▁ایوان	-11.4861
دلایل	-11.4865
مطابق	-11.4869
▁بون	-11.4871
منظور	-11.4875
▁میلاد	-11.4877
▁سکان	-11.4878
▁ولا	-11.4879
رومن	-11.488
آلود	-11.4882
اسناد	-11.4883
کجاست	-11.4887
▁هشدارهای	-11.4902
واد	-11.4904
جیل	-11.4905
تحلیلگر	-11.4908
▁پیگیر	-11.4908
▁کلیسا	-11.4921
تین	-11.4923
نقش	-11.4923
مقامات	-11.4924
▁شاپ	-11.4931
اشی	-11.4932
▁۸۱	-11.4937
▁افزودن	-11.4938
▁خبرگ	-11.4946
▁حاج	-11.4947
نمایند	-11.4948
▁الع	-11.4951
▁صوت	-11.4954
ایه	-11.4959
اردو	-11.4963
ربی	-11.4965
▁چای	-11.4969
▁امپراتور	-11.4974
▁کلر	-11.4975
بن	-11.4975
باد	-11.4977
▁برگرداند	-11.4984
▁جوا	-11.4993
▁چال	-11.4997
▁لطف	-11.5004
اعظم	-11.5006
▁۹۲	-11.5009
لیدی	-11.5012
▁گلی	-11.5023
ولین	-11.5029
▁۲۹۰	-11.5031
ضرر	-11.5033
▁غور	-11.5035
یاپی	-11.5043
ونز	-11.5045
یخته	-11.5052
خوشایند	-11.506
راحتی	-11.5071
نگرانی	-11.5077
گران	-11.5084
میدان	-11.5085
▁نازل	-11.5088
▁برا	-11.5096
▁ابهاما	-11.5097
▁کوهنورد	-11.5105
ندر	-11.5107
حام	-11.5107
نولد	-11.5111
▁اجت	-11.5121
▁پیچید	-11.5127
ندرسون	-11.5128
مرد	-11.5135
▁فک	-11.514
میته	-11.5149
▁موسی	-11.5167
▁شاگرد	-11.5168
▁مرت	-11.517
شر	-11.5176
▁سفرها	-11.5185
▁درسی	-11.5185
▁تقریب	-11.5187
▁داگ	-11.5194
▁درها	-11.52
▁چمپیون	-11.5214
▁احداث	-11.5214
▁انیمیشن	-11.5214
▁سزاوار	-11.5214
▁فیلسوف	-11.5214
▁قورباغه	-11.5214
▁انقطاع	-11.5214
▁بیندازند	-11.5214
▁محتمل	-11.5214
▁سیگنال	-11.5214
▁غلیظ	-11.5214
▁سانتیگراد	-11.5214
▁اولیانوف	-11.5214
▁بلغارستان	-11.5214
▁اختراع	-11.5214
▁ضابط	-11.5214
▁جگوار	-11.5214
▁اسرارآمیز	-11.5214
▁سمفونی	-11.5214
▁آرم	-11.5214
▁انزوا	-11.5214
▁قزاق	-11.5214
▁قتالی	-11.5215
▁سیستماتیک	-11.5215
▁اینفانتی	-11.5215
▁هریرود	-11.5215
▁لشکر	-11.5215
▁وسواس	-11.5215
▁بریجز	-11.5215
▁هیدرو	-11.5216
▁جاودان	-11.5216
▁پرایس	-11.5216
▁طلسم	-11.5216
▁فرناند	-11.5216
▁متصل	-11.5216
▁رغبت	-11.5217
▁پدربزرگ	-11.5217
▁۱۹۶۶	-11.5219
▁نابرابر	-11.5219
▁فاسد	-11.5219
▁شکنی	-11.522
▁سرسخت	-11.522
▁هنجار	-11.5221
▁۱۹۶۷	-11.5223
▁صلیب	-11.5223
▁سازگار	-11.5224
▁مالزی	-11.5224
▁بسیج	-11.5225
▁۱۹۹۵	-11.5225
▁مراکش	-11.5227
▁ندارید	-11.5227
▁زحمت	-11.5228
▁ببریم	-11.5229
▁مردادماه	-11.523
▁بزاق	-11.523
▁فیصل	-11.5231
▁مخرب	-11.5231
▁سوت	-11.5231
▁فرسود	-11.5231
▁انتصاب	-11.5232
لر	-11.5233
▁۱۹۲۰	-11.5233
▁دیرتر	-11.5234
▁بگذارم	-11.5236
▁بخورد	-11.5237
▁نبو	-11.524
▁مجلات	-11.524
یکا	-11.5241
▁طبع	-11.5241
▁فلزات	-11.5244
▁برونته	-11.5244
▁یقین	-11.5245
▁کیت	-11.5246
▁کاسپی	-11.5246
▁دماغ	-11.5247
▁هک	-11.525
ارک	-11.525
▁معنادار	-11.5252
▁خاندان	-11.5253
▁همسایگان	-11.5253
▁۱۹۶۸	-11.5258
▁قدردان	-11.5258
▁فلامینگوها	-11.5261
▁۱۳۲	-11.5263
▁ژنوم	-11.5264
ماری	-11.5264
▁دس	-11.5266
▁جرا	-11.5268
زود	-11.5269
▁توبین	-11.5271
▁رول	-11.5272
▁پردازش	-11.5273
▁نورستان	-11.5273
▁معلومات	-11.5274
سیزدهم	-11.5274
▁رودکی	-11.5276
▁نامعلوم	-11.5281
▁خویش	-11.5282
▁دیدیم	-11.5284
▁دیوانه	-11.5284
▁بورات	-11.5284
پو	-11.5287
▁فل	-11.5288
▁منظوم	-11.5292
ارل	-11.5292
▁زادگاه	-11.5297
سام	-11.5301
▁درام	-11.5301
▁دریانورد	-11.5305
▁بزرگسالان	-11.5305
▁مطلق	-11.5306
▁نگذاشته	-11.5307
▁ترقی	-11.5308
▁اشخاص	-11.5309
سپی	-11.5311
▁سرخک	-11.5312
▁مانور	-11.5313
پائولو	-11.5316
عضو	-11.5317
برآورد	-11.5322
▁یاسر	-11.5326
بک	-11.5327
▁سیاهپوست	-11.5327
وادا	-11.5327
▁تشوی	-11.5328
▁یابند	-11.5331
▁بیورن	-11.5334
▁صرب	-11.5334
▁باختر	-11.5337
▁سینماگران	-11.5337
▁رخدادهای	-11.5341
▁اسکان	-11.5346
شم	-11.535
▁ثور	-11.5351
▁توتال	-11.5351
بند	-11.5364
تفرق	-11.5368
▁ولت	-11.5369
▁شخصا	-11.537
▁فضل	-11.5371
▁مهمانان	-11.5373
رود	-11.5378
▁خانمان	-11.5378
کشته	-11.5379
خیر	-11.5379
▁لیبی	-11.538
▁توسان	-11.5382
▁تایی	-11.5387
کوس	-11.5388
▁اکثرا	-11.5388
▁خند	-11.5389
چال	-11.5392
▁مادام	-11.5392
▁پیمود	-11.5402
شوه	-11.5402
▁نویسندگ	-11.5404
▁گرینو	-11.5406
▁پاسدار	-11.5425
▁جادوی	-11.5426
▁خفا	-11.5427
▁برن	-11.5431
▁غرور	-11.5431
▁رقبای	-11.5432
نسون	-11.5438
▁فاضل	-11.544
▁ماهنام	-11.5444
▁هریس	-11.5445
▁کوشید	-11.5446
رونا	-11.5449
هور	-11.5451
▁قبض	-11.5452
▁وات	-11.5455
▁۶۹	-11.5458
ضب	-11.5458
▁عطف	-11.5458
▁دیرو	-11.5458
▁شنای	-11.5459
▁کارلو	-11.5466
▁عثمانی	-11.5467
▁رساندند	-11.5467
دینگ	-11.5473
ادات	-11.548
▁تشکیلات	-11.5481
▁سانچ	-11.5488
حرف	-11.5489
▁پهنه	-11.549
▁جع	-11.5492
▁ترسد	-11.5494
گاوا	-11.5495
▁محو	-11.5496
▁لط	-11.5496
▁سناریوها	-11.5497
▁قانونگذار	-11.5509
فین	-11.5515
▁پوک	-11.5517
▁سرگرفت	-11.5521
ولا	-11.5521
▁خطا	-11.5522
▁بدهید	-11.5526
اطی	-11.5532
▁استیو	-11.5538
▁مری	-11.5556
۲۱	-11.5559
▁بروید	-11.5561
کسیون	-11.5562
پولو	-11.5563
▁توبی	-11.5569
لیس	-11.557
یامک	-11.5575
▁اولی	-11.5577
▁کوید	-11.5578
لاب	-11.5582
▁خوشی	-11.5584
▁نبودند	-11.5584
▁عاج	-11.5584
▁مجادل	-11.5594
▁بری	-11.5594
▁نش	-11.5594
▁جس	-11.5597
نترل	-11.5602
▁مجرمان	-11.5605
▁مشخصات	-11.5609
▁کجاست	-11.5611
▁سانتو	-11.5614
▁۴۲۰	-11.5626
ویش	-11.563
▁شم	-11.5632
▁نخواست	-11.5637
تشکر	-11.5638
بنی	-11.5642
▁اولیو	-11.5642
▁جور	-11.5653
هدی	-11.5654
▁قید	-11.566
▁اق	-11.5664
▁بکند	-11.5667
▁شمارش	-11.5671
رسون	-11.5671
▁۱۷۳	-11.5676
وژه	-11.5687
▁صحرای	-11.5691
▁ضیا	-11.5692
▁گرو	-11.5695
▁سوییس	-11.5695
▁تبر	-11.5697
▁حریر	-11.5699
کنیم	-11.5699
أی	-11.5703
▁بفرستید	-11.5712
▁توفیقی	-11.5712
▁بچ	-11.5715
▁بالاست	-11.5724
▁موسسا	-11.5732
وارتر	-11.5734
ملک	-11.5735
زای	-11.5737
▁پیامبر	-11.575
اط	-11.575
ویر	-11.5787
▁فابی	-11.5796
لای	-11.5813
حاملگی	-11.5816
▁سنجی	-11.5817
بایی	-11.5827
▁بسر	-11.5835
▁گال	-11.5854
▁دیف	-11.5854
▁رانگل	-11.5855
▁فضاپیما	-11.5855
برده	-11.5858
▁آنگل	-11.586
▁پرداز	-11.5861
شون	-11.5865
نگا	-11.5869
قبره	-11.5879
▁زنیم	-11.5883
▁عکسها	-11.5885
▁پری	-11.5888
▁حکمت	-11.5888
▁پوستر	-11.5889
کسل	-11.5894
▁روم	-11.5897
روند	-11.5901
▁لیو	-11.5901
▁دن	-11.5906
وران	-11.5912
عادی	-11.5916
سلط	-11.5916
▁خران	-11.5919
پاش	-11.592
▁رجبی	-11.5924
▁شعرهای	-11.5959
▁ارگان	-11.596
▁نوآوران	-11.596
عمل	-11.5963
▁امیدهای	-11.5964
▁آرزو	-11.5965
کول	-11.5966
▁ربای	-11.5968
▁نتوان	-11.5978
▁گوهر	-11.5981
▁فراخواند	-11.5981
آنچ	-11.5982
▁یانگ	-11.5987
قهرمان	-11.5989
▁کارتون	-11.6008
کمی	-11.6017
▁کشاورزان	-11.6023
غلو	-11.6026
▁میدهد	-11.6027
گذار	-11.6029
▁فشارهای	-11.6038
خالف	-11.6042
وتی	-11.6048
▁لال	-11.6049
▁پویا	-11.606
وط	-11.6061
وپ	-11.6065
راک	-11.6067
ائوس	-11.607
▁بخشد	-11.6071
اثر	-11.6073
منستان	-11.6081
۴۴	-11.6083
توازن	-11.6084
▁تم	-11.6094
▁سازهای	-11.6098
اکس	-11.6102
▁توافقات	-11.6106
▁آرت	-11.6118
۸۸	-11.6119
گذشت	-11.6122
▁هرج	-11.6122
مورد	-11.6128
پن	-11.6133
▁انس	-11.6135
▁شدایران	-11.6138
▁پیشنهادهای	-11.6142
▁..	-11.6146
▁آلت	-11.6156
ماشین	-11.6159
ولکس	-11.6165
▁امریکا	-11.617
▁تولیدش	-11.6172
▁رون	-11.6184
▁بیگان	-11.6186
▁سنج	-11.6191
سیلوا	-11.6193
حقیقی	-11.6196
شرایط	-11.6201
▁نزده	-11.6204
▁مزای	-11.6215
نگاره	-11.622
▁جذابی	-11.622
▁سندی	-11.6225
امید	-11.6235
▁بم	-11.6244
▁اسپا	-11.6245
رفت	-11.6253
▁رحمت	-11.6254
وستون	-11.6257
ماجرا	-11.6263
▁لوح	-11.6267
پاتی	-11.6272
▁شناختن	-11.6277
▁رویت	-11.6278
▁زلا	-11.6279
▁مذک	-11.6286
نیک	-11.6286
شن	-11.6292
دانشگاه	-11.6301
ومین	-11.6303
نوایی	-11.6304
▁افرا	-11.6311
▁اشتها	-11.6318
یسون	-11.6318
رایت	-11.632
ستا	-11.6329
▁سفرش	-11.6332
▁هیل	-11.6334
رگیری	-11.6335
▁هرد	-11.6335
مزد	-11.6337
همکاری	-11.6346
رچه	-11.6348
▁شاد	-11.6356
▁جود	-11.6358
نور	-11.6361
کشتی	-11.637
▁اجزا	-11.6376
▁ارو	-11.6382
▁سهیم	-11.6384
▁فرز	-11.6386
مين	-11.6387
انیه	-11.6392
▁پوشیدن	-11.6393
۰۵	-11.6396
▁بازه	-11.64
▁کانت	-11.6402
الیاس	-11.6403
ینز	-11.6405
▁کارهایش	-11.6413
▁پاسخگو	-11.6416
▁ریگ	-11.642
عدی	-11.6422
دوران	-11.6424
نیس	-11.6426
بارسلونا	-11.6427
▁ساری	-11.6429
عت	-11.6431
ایتالیا	-11.6433
▁پرش	-11.6436
جنوب	-11.6446
▁ممیز	-11.6448
۱۴۰۰	-11.645
استرالیا	-11.6458
جواد	-11.6459
دمای	-11.6466
راجع	-11.6469
هواداران	-11.647
▁علا	-11.6472
▁توا	-11.6476
گمرک	-11.6482
▁سونا	-11.6485
تابستان	-11.6487
بیگ	-11.6487
▁پلک	-11.6493
▁گیم	-11.6494
جنجال	-11.6498
▁سنگی	-11.6502
▁گرجستان	-11.6506
سریع	-11.6507
شعر	-11.6509
مدیریت	-11.6512
جوکوویچ	-11.6516
▁ماریان	-11.6519
▁دعا	-11.6528
رغ	-11.6529
ندرت	-11.6531
حضا	-11.6533
▁اپراتور	-11.6538
قهرمانی	-11.6541
نفوذ	-11.6543
جسد	-11.6547
خشکسالی	-11.6552
محمدرضا	-11.6552
کاخ	-11.6556
▁بلخی	-11.6559
هماهنگ	-11.6566
▁مذهب	-11.6571
لیدز	-11.6574
▁اکرم	-11.6574
اذب	-11.6579
▁سیلا	-11.6584
▁گوف	-11.6589
نگی	-11.66
▁ژاک	-11.6616
▁منسو	-11.6627
▁۸۴	-11.6628
لیسب	-11.6636
▁۲۶۰	-11.6647
واقعی	-11.665
▁۳۲۰	-11.665
غوری	-11.6651
کریست	-11.6655
▁فقی	-11.6657
شنوی	-11.6657
▁درهم	-11.6657
فرانسی	-11.6663
▁رادیوی	-11.6679
گزار	-11.6716
صرف	-11.6719
▁۷۱	-11.6723
▁هوشی	-11.6729
▁نانو	-11.6731
نتینو	-11.6737
▁همسران	-11.6748
▁توئیت	-11.6749
▁سانتا	-11.675
▁لوف	-11.6761
پانز	-11.6763
سنگر	-11.678
ئوری	-11.6791
رحیم	-11.6793
▁شورش	-11.6794
▁فراور	-11.68
▁جنب	-11.6801
▁سپه	-11.6804
مرغ	-11.6805
هان	-11.6821
رزرو	-11.6823
رسید	-11.6824
▁یاسم	-11.6826
ماجرای	-11.6826
نتسب	-11.6838
کادی	-11.6841
خور	-11.6845
▁بینم	-11.6851
▁مکاتب	-11.6855
▁تفنگ	-11.6857
▁سازوکار	-11.6858
دوج	-11.6859
▁مخابر	-11.6867
سانس	-11.6875
آبی	-11.6878
▁اختاپوس	-11.6881
▁زاکربرگ	-11.6881
▁ژئوفیزیک	-11.6881
▁حناچی	-11.6881
▁ناسازگار	-11.6881
▁پلتفرم	-11.6881
▁موریکونه	-11.6881
▁هژمون	-11.6881
▁لاوروف	-11.6881
▁ناپایدار	-11.6881
▁سارقان	-11.6881
▁بیرمنگ	-11.6881
▁عناوین	-11.6881
▁مصائب	-11.6881
لئوپولد	-11.6881
▁التحصیل	-11.6881
▁ناخودآگاه	-11.6881
▁اقتباس	-11.6881
▁انسولین	-11.6881
▁ماراکانا	-11.6881
▁ایرلاین	-11.6881
▁باچان	-11.6881
▁حیثیت	-11.6881
▁دوبلور	-11.6881
▁خشمگین	-11.6882
▁کوشنر	-11.6882
▁هتلداران	-11.6882
▁لاتکس	-11.6882
▁قضاوت	-11.6882
▁نافرجام	-11.6882
▁بفرستند	-11.6882
▁فرهیخت	-11.6882
▁میچام	-11.6882
▁مقصود	-11.6882
▁کواچ	-11.6882
▁تدارک	-11.6882
▁مبتکر	-11.6883
▁گریبان	-11.6883
▁نزاع	-11.6883
▁مشروعیت	-11.6883
فيلم	-11.6883
▁کومله	-11.6883
▁ارباب	-11.6883
▁مقادیر	-11.6884
▁موازات	-11.6884
▁شنویم	-11.6884
▁احوال	-11.6884
▁سهمگین	-11.6884
زیرو	-11.6884
▁بپردازند	-11.6885
▁دیزل	-11.6885
▁مارسیال	-11.6885
▁صفوف	-11.6886
▁زیراتمی	-11.6886
▁پوینت	-11.6887
▁سعیدپور	-11.6887
راندوم	-11.6888
▁عالیشاه	-11.6889
▁زوایا	-11.6889
▁نابویایی	-11.6889
▁مقیاس	-11.6889
▁دمکرات	-11.689
▁شلوار	-11.6891
▁بزنیم	-11.6892
▁متضاد	-11.6892
▁برآوردها	-11.6893
▁قبرستان	-11.6893
▁مولف	-11.6894
▁۱۳۶۰	-11.6894
▁متوازن	-11.6894
▁عضلانی	-11.6896
ائل	-11.6896
▁خودمختار	-11.6898
▁ضمیر	-11.6898
▁بایستند	-11.6899
▁امری	-11.69
▁ریاضیات	-11.6901
▁تمیز	-11.6901
▁تومور	-11.6902
▁تقلب	-11.6902
محسن	-11.6903
▁ناسیونالیس	-11.6903
▁لوگو	-11.6905
▁هیپی	-11.6905
میزان	-11.6905
▁جاسک	-11.6907
▁برگرداندن	-11.6908
▁نیفتاد	-11.6909
▁تحرکات	-11.691
▁اشکالات	-11.6911
▁جیمی	-11.6912
▁پرستون	-11.6914
▁نوب	-11.6918
▁ونوس	-11.6918
اراک	-11.6918
▁قمار	-11.6919
▁خطاهای	-11.6921
▁ایسلند	-11.6922
▁عبدالسلام	-11.6922
▁نایتلی	-11.6923
▁ازبک	-11.6924
▁رینت	-11.6925
▁تصرف	-11.6925
رزمی	-11.6927
▁دادخواست	-11.6928
▁رستم	-11.693
▁تعمیرات	-11.693
صنوف	-11.693
▁آگوست	-11.6933
▁اتلان	-11.6934
▁نشوند	-11.6935
▁بگیرم	-11.6935
▁اجداد	-11.694
سارت	-11.6941
مانی	-11.6942
ورد	-11.6944
▁کبیری	-11.6945
▁اهرم	-11.695
▁کریگ	-11.6951
▁پیانو	-11.6955
▁شرکا	-11.6959
فینیتی	-11.6961
▁مناسبات	-11.6966
▁زودرس	-11.6967
▁خاکستر	-11.6968
▁نشدنی	-11.6968
▁فرستند	-11.6969
▁وفا	-11.6972
▁آنتوان	-11.6974
عادل	-11.6974
▁کرونازده	-11.6976
داعش	-11.6981
لسک	-11.6982
▁مگ	-11.6985
سوی	-11.6987
▁برنا	-11.6993
▁ایلام	-11.6993
▁اسکات	-11.6993
▁متقابل	-11.6997
▁اورگ	-11.7
▁شاهکارهای	-11.7004
▁گرگور	-11.7008
▁زشت	-11.7008
▁نظ	-11.7009
▁روستاهای	-11.7014
حلال	-11.7016
▁خوابیدن	-11.7019
گوگوش	-11.7021
▁زالی	-11.7024
▁وکارها	-11.7026
▁دژ	-11.7027
▁چابک	-11.7027
▁انو	-11.7028
▁عینی	-11.7033
ژیل	-11.7038
▁حشر	-11.7041
▁عناب	-11.7043
ثه	-11.7054
▁تعلیم	-11.7054
▁ورزند	-11.7057
▁شمش	-11.7057
▁همد	-11.7061
▁بهت	-11.7061
۳۲	-11.7066
معدنچی	-11.7067
▁کولاک	-11.7069
▁اسمیت	-11.7077
▁نازک	-11.708
▁یوآن	-11.7085
▁بوم	-11.7086
▁دانا	-11.7087
▁موازن	-11.7087
▁رازهای	-11.7088
▁بزرگسال	-11.7089
▁غذاهای	-11.7093
یح	-11.7097
لیه	-11.7099
▁مورف	-11.71
یاس	-11.7104
▁مشتاقان	-11.7111
▁درمیان	-11.7111
▁نوشتارها	-11.7113
▁۱۳۳	-11.7117
▁منفور	-11.7119
▁چشید	-11.712
▁کشورهاست	-11.7126
یزه	-11.7126
انگ	-11.7128
▁اظهارنظرهای	-11.7129
▁رباب	-11.7132
هاب	-11.7135
▁اسلو	-11.7141
▁آش	-11.7142
▁مهیب	-11.7142
▁جورجی	-11.7149
▁کوچه	-11.7149
انک	-11.7151
تاکنون	-11.7152
▁سینماگر	-11.7154
▁بیانداز	-11.7154
ادین	-11.7158
▁عز	-11.7158
وسی	-11.7159
گرایی	-11.7162
▁کامران	-11.7162
▁کورت	-11.7162
خن	-11.7172
پچو	-11.7178
▁۱۷۴	-11.7179
▁مرادی	-11.7181
▁رسا	-11.7181
▁بدویا	-11.7183
گت	-11.7192
▁اینستاگرامش	-11.7199
▁دیوارهای	-11.7204
▁بت	-11.7208
زبان	-11.7212
وبیل	-11.7215
▁آرین	-11.7218
▁یادم	-11.7221
▁ورق	-11.7222
▁زینب	-11.7223
شکنی	-11.7224
▁رویکردهای	-11.7224
▁فروند	-11.7228
راست	-11.7232
▁انتقا	-11.7234
▁جلیل	-11.7235
▁بدهیم	-11.7241
کفای	-11.7245
نشینان	-11.7255
▁سموم	-11.7255
▁حجت	-11.7256
▁گلد	-11.7257
▁خطری	-11.7265
داشتن	-11.7267
صله	-11.7269
دوزی	-11.7278
۹۷	-11.728
سالار	-11.7281
▁دارداین	-11.7288
بع	-11.7289
▁لندر	-11.7293
اسکورت	-11.73
▁بلک	-11.7305
ولوو	-11.7313
یتز	-11.7321
▁میهن	-11.7331
نمی	-11.7336
۳۳	-11.7337
▁اضافی	-11.7338
قاد	-11.7339
▁عینک	-11.734
▁بازدیدکنند	-11.7341
۷۷	-11.7341
▁کیل	-11.7341
هایش	-11.7344
۳۶۰	-11.7353
اچو	-11.7357
▁مراد	-11.736
▁کوبی	-11.7362
ونته	-11.7363
▁میلیچ	-11.7364
▁آرمی	-11.7365
آر	-11.7374
یوئیت	-11.7377
▁فونت	-11.7385
طم	-11.739
▁مشاه	-11.7391
یونان	-11.7393
▁مهمتر	-11.7396
▁زیباتر	-11.7397
نفت	-11.7406
▁منازع	-11.7406
▁عفون	-11.7413
شک	-11.7426
▁رسند	-11.743
گروهی	-11.7433
۸۹	-11.7434
جیان	-11.744
▁حیا	-11.7445
▁خودکار	-11.7446
آلبرت	-11.745
نزل	-11.7451
زیو	-11.7452
▁بگذاری	-11.746
ناس	-11.7467
اکی	-11.7473
▁محوری	-11.7474
▁ستا	-11.7492
▁خاوری	-11.7497
اتیو	-11.7497
پره	-11.7498
▁چهارده	-11.7499
یدن	-11.7506
▁کنارش	-11.7507
جسمی	-11.7507
▁شروط	-11.7513
بجای	-11.7518
علم	-11.7527
▁سکو	-11.753
مک	-11.7536
▁مستندهای	-11.7545
زمه	-11.7546
▁منامه	-11.755
▁امداد	-11.7551
▁شن	-11.7553
زدی	-11.7556
مس	-11.7562
▁کلاین	-11.7578
▁شار	-11.7584
▁چنگ	-11.7586
▁تقلا	-11.7586
▁رایانه	-11.7588
▁قی	-11.7595
استین	-11.7596
ائب	-11.7597
▁روبات	-11.7599
▁خانود	-11.7599
آباد	-11.7599
پژوه	-11.7599
▁دخ	-11.7604
▁الزاما	-11.7606
▁یونه	-11.7611
▁قبا	-11.762
▁سیرو	-11.7625
۷۵	-11.7626
یانت	-11.7631
▁سرگذاشت	-11.7632
▁زوم	-11.7632
▁نظرش	-11.7634
کلی	-11.7634
گز	-11.7641
▁رویاهای	-11.7648
▁سوپ	-11.7653
▁غوری	-11.7653
▁بخشیده	-11.7654
▁مینیاتوری	-11.7657
▁فرسا	-11.7658
▁قهر	-11.7659
▁گرین	-11.7663
▁موزی	-11.7664
▁دانستن	-11.7665
▁اقام	-11.7673
▁وول	-11.7679
عظم	-11.7682
ستی	-11.7689
▁مهیا	-11.7694
دهم	-11.7695
▁جوج	-11.77
▁تشی	-11.7726
سید	-11.7736
▁خوشنو	-11.7741
ئید	-11.7742
چنین	-11.7744
▁نیامد	-11.7747
▁نیت	-11.7749
▁مث	-11.7762
مگان	-11.777
▁برآورده	-11.7773
راماتیک	-11.7781
▁نکو	-11.7782
جمهوری	-11.7785
▁هستی	-11.7794
▁نیستم	-11.7797
وگو	-11.7804
شور	-11.781
▁استوایی	-11.7811
آور	-11.7814
▁۶۶	-11.7816
یکون	-11.7821
اشار	-11.7834
▁بودا	-11.7834
تیو	-11.7841
▁استعفاها	-11.785
▁اتری	-11.7856
▁چش	-11.7874
اسب	-11.7878
▁کلینت	-11.7879
فل	-11.7882
▁اصولی	-11.7884
▁عطار	-11.7885
▁شالی	-11.7885
▁دلش	-11.7891
▁لنگ	-11.7892
مانه	-11.7894
زد	-11.7897
▁مجت	-11.7898
بزرگ	-11.7898
نجره	-11.7902
▁عاملی	-11.7918
▁باگ	-11.792
گرفتن	-11.792
وثر	-11.7922
تاد	-11.7929
آمارها	-11.7929
▁باربی	-11.7932
وست	-11.7935
▁ذهنش	-11.7939
بوه	-11.7948
▁تقی	-11.795
▁زیبای	-11.7955
▁چتر	-11.7966
سیاس	-11.7969
توافق	-11.797
ذل	-11.7973
▁فیش	-11.7975
▁منت	-11.7976
چشم	-11.7984
لد	-11.7986
▁دیپلم	-11.7995
بالا	-11.7997
▁الکسا	-11.8004
▁دوید	-11.8005
فرشی	-11.8011
▁وود	-11.8022
کلیف	-11.8024
ارش	-11.8028
زندگی	-11.8036
▁آئ	-11.8036
کاران	-11.8038
ومی	-11.8044
▁فری	-11.8047
تمایل	-11.8054
▁رومانیا	-11.8065
▁الن	-11.8068
▁پرستار	-11.8089
فشار	-11.809
▁بگو	-11.8099
ویی	-11.8109
ماخ	-11.811
تمامی	-11.8119
▁بدنم	-11.8122
ولوژی	-11.8125
وضعیت	-11.8127
▁شارل	-11.814
مسابقه	-11.8142
دترین	-11.8143
فان	-11.8153
▁سپرد	-11.8169
نگین	-11.8173
ترک	-11.8174
کشورهای	-11.8178
ادگی	-11.8181
▁کوری	-11.8188
اقت	-11.8189
▁۱۰۹	-11.8192
▁حم	-11.8203
▁صداها	-11.8209
▁شناورها	-11.8211
▁عر	-11.8211
▁فعالیتش	-11.8214
▁تان	-11.8215
عیار	-11.8219
▁شیرینی	-11.8225
▁مول	-11.8237
حداکثر	-11.8239
▁قوت	-11.8242
حمایت	-11.8248
حکم	-11.8249
▁فور	-11.8253
مانس	-11.8266
▁بریم	-11.8266
انیس	-11.8266
ساعت	-11.8267
موضوع	-11.827
▁حوا	-11.8272
▁لیلا	-11.8288
▁ننگ	-11.8289
نویس	-11.829
فمن	-11.8291
▁والا	-11.8293
▁کاوا	-11.8297
۲۰۲۰	-11.8304
▁وزیری	-11.8305
انتخاب	-11.8309
▁برپا	-11.8314
▁لویی	-11.8316
اور	-11.8317
کاظم	-11.8317
▁شجاعی	-11.8319
کانس	-11.8329
محدودیت	-11.8333
▁حسابدار	-11.8334
کارآمد	-11.8341
مز	-11.835
عکاس	-11.8356
قد	-11.8356
▁مساعد	-11.8359
▁ورز	-11.8359
دانه	-11.8363
▁شست	-11.8372
ورای	-11.8378
صنعت	-11.8382
پاسخ	-11.8383
▁آشو	-11.8387
زاق	-11.8388
صلاح	-11.839
خطر	-11.839
رژ	-11.839
دقیق	-11.8408
شکایت	-11.8413
یلو	-11.8418
۹۶	-11.8425
جشنواره	-11.8429
نژاد	-11.8435
▁فراخوان	-11.8435
حذف	-11.844
گردانی	-11.8442
▁پسرم	-11.8444
بهترین	-11.8449
عملکرد	-11.8452
منچستر	-11.8454
فکر	-11.8461
اوپک	-11.8461
جوان	-11.8463
فرمانده	-11.8464
▁حالش	-11.8465
▁موری	-11.8467
▁فعل	-11.8467
دبیر	-11.8471
لیات	-11.8477
پالایشگاه	-11.848
▁گار	-11.8482
رویترز	-11.8482
قسمت	-11.849
مالک	-11.8491
جوایز	-11.8493
ارا	-11.8493
فیفا	-11.8493
فرهاد	-11.8497
مطالع	-11.8498
فات	-11.8501
▁کمربندها	-11.8505
منتقدان	-11.8505
بان	-11.851
قاسم	-11.8513
▁۲۱۰	-11.8514
لحظ	-11.8514
▁انسانها	-11.8519
فاصل	-11.8523
بازارهای	-11.8524
سیستم	-11.8532
مناسبت	-11.8534
▁عثمان	-11.8534
اضطراب	-11.8539
دنبال	-11.8547
اتهامات	-11.8547
▁هیولا	-11.8549
کران	-11.855
عبدالله	-11.8552
فاضل	-11.8554
▁شرت	-11.8556
هجوم	-11.8556
تانک	-11.8558
قای	-11.856
اسحاق	-11.8561
سمانی	-11.8565
▁بش	-11.8568
قبض	-11.8569
▁باخ	-11.8572
مستند	-11.8573
▁رشدی	-11.8575
آزادی	-11.8575
خوش	-11.859
▁متو	-11.859
▁بلندپرواز	-11.8596
دختر	-11.8596
▁مزایا	-11.8596
ربکا	-11.8598
تعجب	-11.8599
▁حف	-11.8607
▁ادوار	-11.8609
▁کنو	-11.8611
▁مطهر	-11.8611
▁نمادها	-11.8623
▁مصو	-11.8625
رفته	-11.8631
علنی	-11.8632
پالا	-11.8633
دریایی	-11.8633
▁تراک	-11.8644
اژ	-11.8644
▁جعفر	-11.8657
ورانه	-11.8659
▁احتمالات	-11.8659
دید	-11.8667
دنیل	-11.8667
۱۰	-11.8672
پرده	-11.8679
▁ثب	-11.8682
زنان	-11.8683
شقان	-11.8691
درحالی	-11.8693
بورگ	-11.8698
جله	-11.87
والی	-11.87
میلان	-11.8703
▁قضائی	-11.8703
شود	-11.8705
▁یون	-11.8711
▁جمل	-11.8719
▁مواج	-11.8727
اشا	-11.8727
▁معوق	-11.8731
شریف	-11.8739
عات	-11.8746
لگار	-11.8751
۳۰۰	-11.8751
ریدار	-11.8758
بازدید	-11.876
سبز	-11.8762
الگو	-11.8768
▁اسا	-11.877
بندی	-11.8775
▁نیلی	-11.8776
انتقالات	-11.8781
مادر	-11.8785
ارسل	-11.8787
▁لک	-11.879
فاهی	-11.8791
▁سفره	-11.8805
▁باش	-11.8806
▁سینو	-11.8814
دیه	-11.8818
▁استادان	-11.882
▁موفقی	-11.8822
▁قدیم	-11.8828
▁سیری	-11.8849
فرد	-11.8851
▁واژگ	-11.8853
وص	-11.8856
رگبار	-11.8866
ویژ	-11.8867
▁مکالم	-11.887
تال	-11.8872
▁هجر	-11.8877
▁ابتذال	-11.8881
▁اسکورسیزی	-11.8881
▁بنکدارپور	-11.8881
▁تشعشع	-11.8881
▁سخاوتمند	-11.8881
▁ناپلئون	-11.8881
▁انحراف	-11.8881
▁برافراشت	-11.8881
▁کوکائین	-11.8881
▁میزورام	-11.8881
▁پرتوافشانی	-11.8881
▁اوزبیک	-11.8881
▁رادیواکتیو	-11.8881
▁اتوبوس	-11.8881
▁میکروسکوپ	-11.8881
▁مارگاریتا	-11.8881
▁بلانشت	-11.8881
▁کاریکاتور	-11.8881
▁هیدروژن	-11.8881
▁وبلاگ	-11.8881
▁بیندازد	-11.8881
▁عنابستانی	-11.8881
▁غزنوی	-11.8881
▁تنگاتنگ	-11.8881
▁بولونیا	-11.8881
▁پغمان	-11.8881
خجالت	-11.8881
▁فرمانروای	-11.8881
▁مجارستان	-11.8881
یونیسف	-11.8881
▁بپرسید	-11.8881
▁نکونام	-11.8881
▁سولیوان	-11.8881
▁اصغر	-11.8881
▁بیانجامد	-11.8881
▁مفاهیم	-11.8881
▁فلاکت	-11.8881
▁سرلشکر	-11.8881
▁وسعت	-11.8881
▁غمگین	-11.8882
▁جادوگر	-11.8882
▁سیرجان	-11.8882
▁ذوالنور	-11.8882
▁تظاهرکنندگان	-11.8882
▁حصبه	-11.8882
▁فونینی	-11.8882
▁هیوستون	-11.8882
▁سرامیک	-11.8882
▁چندرایان	-11.8882
▁فکاهی	-11.8883
▁گنبد	-11.8883
▁باشکوه	-11.8883
▁تکواندو	-11.8883
▁بکاهند	-11.8883
▁گلیزر	-11.8883
▁بلندپایه	-11.8883
▁صربستان	-11.8883
▁دشتکی	-11.8884
▁ظالمانه	-11.8884
▁منفعت	-11.8884
▁مادربزرگ	-11.8885
▁تمایز	-11.8885
▁بمیرد	-11.8885
▁دلسوز	-11.8885
رث	-11.8886
▁تجسس	-11.8887
▁حشرات	-11.8887
▁گوریل	-11.8887
▁کارائیب	-11.8888
▁قرآن	-11.8888
▁کابلی	-11.8888
▁بیضایی	-11.8888
▁گوترش	-11.8888
▁نکشید	-11.8889
▁روانچی	-11.8889
حضرت	-11.889
ماگال	-11.889
▁همفکر	-11.889
▁۲۰۳۵	-11.889
▁بکشم	-11.889
▁صفاری	-11.8891
▁حروف	-11.8891
▁مغایر	-11.8892
▁مکالمات	-11.8893
▁نباشند	-11.8894
ناگلزم	-11.8895
▁آوینی	-11.8896
برگر	-11.8897
▁تمجید	-11.8898
▁توفندها	-11.8898
▁هادرون	-11.89
▁رونالد	-11.8902
وینچ	-11.8902
▁خویشتن	-11.8903
▁امپرا	-11.8903
▁عبدالرحم	-11.8905
▁لاهه	-11.8906
▁لاستیک	-11.8906
▁پترولی	-11.8907
▁لیبر	-11.8908
▁بارچا	-11.891
▁بیایند	-11.891
▁کاردوس	-11.8911
▁سفیدپوستان	-11.8912
▁بهائی	-11.8913
▁هندرسون	-11.8915
▁آندریا	-11.8916
▁هنگفت	-11.8918
تک	-11.8918
▁بارکلی	-11.8918
▁زادروز	-11.892
▁زیباست	-11.8921
▁احصا	-11.8921
▁فشارها	-11.8922
▁ژرف	-11.8923
▁اتومات	-11.8923
▁کابوس	-11.8923
▁لرزاند	-11.8926
▁آبراه	-11.8927
▁هنکس	-11.8928
▁ملموس	-11.8928
▁قیصر	-11.8929
▁راجپوت	-11.893
▁سرپوش	-11.893
▁لافرته	-11.893
▁هافکین	-11.893
▁قعر	-11.893
▁مجزا	-11.8932
▁خلبان	-11.8932
▁مستعد	-11.8932
▁آپوف	-11.8936
▁آتلانت	-11.8936
بق	-11.894
▁فاکس	-11.894
▁صفا	-11.894
▁خورند	-11.8941
▁گاردن	-11.8941
صریح	-11.8942
هموار	-11.8944
▁ویرانگر	-11.8944
▁قلمرو	-11.895
ارکان	-11.8952
رگذشت	-11.8954
▁آستین	-11.8954
▁دلنشین	-11.8956
پولیس	-11.8958
ونتی	-11.8963
▁پرتلا	-11.8964
▁مشهود	-11.8965
▁راسخ	-11.8967
بیح	-11.8968
▁شکوه	-11.8969
بازد	-11.8974
▁ادینبور	-11.8975
▁پشتو	-11.8977
▁مرج	-11.8978
▁پرفسور	-11.8979
▁دانید	-11.8982
▁بلاتکلیفی	-11.8982
▁بستگان	-11.8983
▁لطیفی	-11.8984
▁کوواکس	-11.8985
▁یادش	-11.8985
▁چاو	-11.8986
▁چسباند	-11.8986
نندگان	-11.8986
روس	-11.8989
▁کروات	-11.8994
عطوف	-11.8995
زین	-11.8995
آقازاده	-11.8999
▁نزن	-11.9001
حور	-11.9004
▁گیلبرت	-11.9004
▁بشنوید	-11.9007
▁اخطارهای	-11.9008
چهل	-11.9008
▁لنز	-11.9009
▁سلیق	-11.9009
▁ندادند	-11.9012
▁افشاگر	-11.9012
▁متاسفم	-11.9012
▁کورین	-11.9012
ورلد	-11.9012
▁تعرض	-11.9014
همگی	-11.9016
▁درخشد	-11.9016
▁ویدئوهای	-11.9016
▁شاکی	-11.9021
▁بدیع	-11.9022
▁ناشده	-11.9023
خانی	-11.9023
▁الجز	-11.9027
▁ترکمان	-11.9031
گزا	-11.9032
▁کلور	-11.9032
▁توانمند	-11.9032
▁بنام	-11.9037
▁مولد	-11.9037
▁ایستادند	-11.9039
▁دزد	-11.9044
▁چغا	-11.9045
▁نجومی	-11.9046
نچی	-11.9047
▁ویولن	-11.9047
▁سکوها	-11.9056
▁بگ	-11.9057
▁خطاط	-11.9057
نفی	-11.9058
▁یوهان	-11.9061
▁شنوند	-11.9062
گوئه	-11.9063
▁زین	-11.9064
▁مجلل	-11.9067
لکس	-11.9076
▁مجاور	-11.9077
▁گیج	-11.9078
▁هجدهمی	-11.9085
▁شمع	-11.9086
زر	-11.9088
جری	-11.909
▁مختصر	-11.9091
▁لغ	-11.9094
▁کاترین	-11.9103
▁نوک	-11.9105
▁آز	-11.911
لژی	-11.9111
▁حسگرها	-11.9114
۱۹۶۴	-11.9114
▁مزد	-11.9116
▁یزدان	-11.912
▁بگوید	-11.9121
ژی	-11.9125
▁اژدها	-11.9126
▁وانگ	-11.9132
▁تجسمی	-11.9134
▁کنسر	-11.9137
▁چرخید	-11.9141
خشنود	-11.9149
▁فرستادن	-11.9149
فری	-11.915
اپور	-11.9151
خزن	-11.9152
▁دکترا	-11.9153
رایم	-11.9158
▁مجا	-11.9164
▁افزارهای	-11.9167
▁حریری	-11.9168
▁راهکارهای	-11.9168
▁مواجهند	-11.9169
▁گذران	-11.9173
نزو	-11.9173
▁ربکا	-11.9175
▁بلندپروازی	-11.9176
گردانده	-11.9185
عطا	-11.9189
پایه	-11.9189
۸۴	-11.919
▁وتو	-11.9197
▁رکس	-11.9206
▁۷۶۰	-11.9209
▁افشاری	-11.9209
سترسیتی	-11.9216
▁کاتل	-11.9218
ادل	-11.922
▁مطمئنا	-11.9224
▁لینک	-11.9225
وزن	-11.923
▁بایست	-11.9236
▁یوسی	-11.924
▁برنج	-11.9244
کردن	-11.9257
▁گراز	-11.9259
شیتز	-11.9261
شاملو	-11.9268
ئیت	-11.9268
دستان	-11.9277
▁پاور	-11.9279
▁متال	-11.9288
▁کلک	-11.9288
▁حک	-11.929
▁ث	-11.9294
یوآ	-11.9294
خونی	-11.9294
سبد	-11.9299
▁خوشایند	-11.9305
▁فرحی	-11.9307
▁رج	-11.9307
بدی	-11.9307
▁تیز	-11.931
▁۱۸۸	-11.9312
▁تهدیدات	-11.9312
▁دوهزار	-11.9313
پوستان	-11.9316
يا	-11.932
نگاه	-11.9323
نسل	-11.9332
ریحان	-11.9347
۹۵	-11.9351
غما	-11.9352
▁بارتو	-11.9356
متن	-11.9358
▁گاردی	-11.9359
▁کلن	-11.9359
نای	-11.9364
▁کوپر	-11.9367
▁گاف	-11.9369
▁خصوصیات	-11.9369
یاب	-11.937
▁الک	-11.9375
▁اغ	-11.9381
نمود	-11.9383
▁سالروز	-11.9389
▁آورم	-11.9391
▁عطا	-11.9392
▁اقسا	-11.9395
بد	-11.9397
▁لارن	-11.9397
▁شجاعت	-11.9405
▁نتوا	-11.9407
طل	-11.9407
▁جوانا	-11.9408
رام	-11.9408
▁نبردها	-11.9414
جاست	-11.9419
▁سیمین	-11.942
▁اشا	-11.9425
راندن	-11.9429
▁کان	-11.9429
▁مسن	-11.9432
▁ازد	-11.9443
۹۰	-11.9447
▁سوزاند	-11.9448
▁استر	-11.9449
▁تاثیرات	-11.945
▁تاجیکان	-11.9452
ودم	-11.9454
▁نصی	-11.9457
واشی	-11.9459
سپاس	-11.9461
بینند	-11.9469
الوح	-11.9472
▁گی	-11.9474
▁شایان	-11.9483
لون	-11.9483
▁سالمند	-11.9486
▁بازگشتند	-11.9495
▁چرن	-11.9526
▁بیکاران	-11.9531
▁یابی	-11.9545
ویا	-11.9548
الیز	-11.9548
▁کریستین	-11.9556
شایر	-11.9557
▁موز	-11.9558
▁الف	-11.956
▁میرود	-11.9563
▁بستگ	-11.9563
یلیون	-11.9571
تار	-11.9574
▁رسیم	-11.9597
انسون	-11.96
▁تونسی	-11.9603
▁بایستی	-11.961
لاخ	-11.9611
یدی	-11.9619
▁کلیت	-11.962
▁تردیدهای	-11.962
▁بایر	-11.9625
▁دویدن	-11.963
▁گفتم	-11.9632
میان	-11.9638
▁ترمی	-11.9639
▁فاطم	-11.9643
۶۲	-11.9646
وض	-11.9649
▁ورای	-11.9649
▁تعبی	-11.965
وکس	-11.9653
▁گفتن	-11.9661
▁نروژی	-11.9664
▁مجتب	-11.9666
▁ساندر	-11.9669
▁لات	-11.9671
▁۱۳۱	-11.9678
▁تراشید	-11.9691
▁مهن	-11.9702
رساز	-11.9705
▁کیپ	-11.9715
لیت	-11.9716
ئوس	-11.9725
▁بشود	-11.9729
▁نزدیکانش	-11.9737
▁خونی	-11.9738
▁چار	-11.974
فروشی	-11.9741
▁شوراها	-11.976
مری	-11.9762
جلس	-11.9763
▁لوور	-11.9763
بله	-11.9766
▁اوکا	-11.9768
▁رقیبان	-11.9769
ائو	-11.9777
▁هایپر	-11.978
رعه	-11.9783
رگامو	-11.9783
▁آفرید	-11.9796
وود	-11.9798
▁نایت	-11.9801
▁تحرکی	-11.9809
▁ساختند	-11.981
▁نصر	-11.9814
▁بلوم	-11.9815
هکرهای	-11.9821
اتل	-11.9821
تراپ	-11.9822
▁مبتلای	-11.9826
پارد	-11.983
بست	-11.9834
▁استوار	-11.9835
▁دولتها	-11.9838
▁گوها	-11.9842
شیر	-11.9842
▁بستند	-11.9849
▁جودوکا	-11.9858
یوید	-11.9861
▁گوستا	-11.987
اشک	-11.9874
نشأ	-11.9874
خو	-11.9875
▁جنگید	-11.9876
▁سکوی	-11.9878
انند	-11.9884
▁زید	-11.9893
▁چسبی	-11.9895
لاند	-11.9902
▁دیاب	-11.9909
خاطره	-11.9922
▁تخار	-11.9923
رعلی	-11.9927
▁بندهای	-11.9927
▁شکستند	-11.9932
▁توسل	-11.9932
▁مارین	-11.9949
▁کیس	-11.9956
▁نپذیرفت	-11.9962
▁افع	-11.9965
قیاس	-11.9967
▁هاروی	-11.9975
▁نوپا	-11.9995
امک	-11.9998
ادیو	-12
▁سکس	-12.0001
گستر	-12.0006
▁بکت	-12.0006
سیما	-12.0016
گذشته	-12.0022
موش	-12.0036
▁همپ	-12.0038
هرزاد	-12.0039
مهم	-12.0045
▁بوهای	-12.0049
تامی	-12.0052
▁جانباز	-12.0055
▁لنو	-12.0058
تعلل	-12.0069
▁تراژ	-12.0071
▁ایرانایران	-12.0093
جماع	-12.0094
▁روا	-12.0098
▁درخشند	-12.0103
اتنگ	-12.0106
ارجه	-12.0109
لنگ	-12.011
▁نشستن	-12.0115
▁کاو	-12.0123
▁سردست	-12.0127
اسیرو	-12.0128
▁ند	-12.0129
▁ایل	-12.0131
▁نجفی	-12.0135
▁چکهای	-12.0135
▁لوپ	-12.0138
رگاه	-12.0138
▁کارآمد	-12.0142
▁لرد	-12.0148
▁استرا	-12.0158
فعال	-12.016
الف	-12.0163
▁عار	-12.0167
نبه	-12.0169
▁محی	-12.017
▁نبودن	-12.017
سلطان	-12.0171
▁آموختن	-12.0174
▁السی	-12.0181
▁راوی	-12.0184
▁موتورها	-12.0192
سنج	-12.0196
خل	-12.0204
اعت	-12.0227
▁کاسی	-12.0231
▁ترسید	-12.0241
▁مخاط	-12.0245
▁۷۹	-12.0252
▁شاهدان	-12.0255
درنا	-12.0263
▁سخ	-12.0271
▁استف	-12.0274
مکن	-12.0275
▁پیا	-12.0276
صدا	-12.0289
▁دیرین	-12.0293
گوین	-12.0294
ارز	-12.0296
کنی	-12.0303
▁صحبتها	-12.0307
ذره	-12.031
▁نیاورده	-12.0312
▁اسکا	-12.0313
▁ستود	-12.0314
پایان	-12.0318
اقدام	-12.0325
رال	-12.0327
▁سوخته	-12.0327
حریف	-12.0331
جف	-12.034
تروئ	-12.0355
زلی	-12.0358
▁خش	-12.0369
رودی	-12.0378
▁زنم	-12.0381
▁بلندهای	-12.039
پاری	-12.0392
▁دیسک	-12.0394
۴۵	-12.0423
تالیا	-12.0429
▁هوک	-12.043
▁مشخصا	-12.0433
▁کیان	-12.0436
▁امضاکنند	-12.0437
صال	-12.0452
▁داوی	-12.0472
نادر	-12.048
▁کریر	-12.0487
حقوق	-12.0495
▁نیاب	-12.0496
▁حوال	-12.0496
یلان	-12.0502
▁قمر	-12.0502
اجرای	-12.0506
فعالیت	-12.0509
▁آتن	-12.052
رمند	-12.0532
افراد	-12.0538
مردم	-12.0556
▁لوس	-12.0556
میلیا	-12.0558
▁چرم	-12.0561
▁شیوا	-12.0563
▁تلا	-12.0565
▁گنجان	-12.0567
▁۱۲۶	-12.0569
▁نابینا	-12.0572
مختار	-12.0577
خارج	-12.0577
بیماری	-12.0578
باف	-12.0585
▁نگفت	-12.0586
ازاد	-12.0587
▁۱۲۵	-12.0601
برابر	-12.0618
پولی	-12.062
▁هرسال	-12.062
گراد	-12.0622
یکپا	-12.0622
زهای	-12.0627
شناسی	-12.0638
۳۵	-12.0644
بریز	-12.0647
▁عزا	-12.0649
دس	-12.065
ادعا	-12.065
▁تپند	-12.065
اعتراض	-12.0665
یناتور	-12.0667
پرونده	-12.0674
▁الی	-12.0676
اتح	-12.0679
▁نیرومند	-12.0683
▁دلخو	-12.0683
مداری	-12.0687
ناسا	-12.0689
بنیا	-12.069
▁العم	-12.0694
سارا	-12.0701
یلیچ	-12.0704
آزمایش	-12.0709
عد	-12.0721
ورس	-12.0729
فای	-12.073
درآمد	-12.0733
صادرات	-12.0736
کتاب	-12.0737
▁سرزن	-12.0737
▁لیم	-12.074
▁بده	-12.074
▁بیند	-12.0743
▁کردید	-12.0753
▁قامت	-12.0757
تز	-12.0759
اهید	-12.0765
گویی	-12.0767
▁هجده	-12.0768
سپاه	-12.0773
قرنطینه	-12.0776
▁لئو	-12.0779
▁رادو	-12.0779
ابتدا	-12.0782
قرارداد	-12.0782
اسرائیل	-12.0783
کسان	-12.0788
مشق	-12.0794
▁سیریا	-12.0797
قطع	-12.0797
روزهای	-12.0797
▁ناخوا	-12.0798
▁شغلها	-12.08
لیل	-12.0804
شکست	-12.0811
▁پترو	-12.0813
نقدر	-12.0813
▁همسری	-12.0814
ذب	-12.0822
نسک	-12.0826
مسئول	-12.0827
چاق	-12.0832
▁کوما	-12.0834
احتمال	-12.0836
▁فلم	-12.0839
حمدرضا	-12.085
▁حض	-12.0851
▁اکل	-12.0854
سین	-12.0856
▁روبین	-12.0857
ئل	-12.086
طوری	-12.086
▁مزارش	-12.086
ناتالی	-12.0863
▁اسید	-12.0868
نهادهای	-12.0869
دستور	-12.0876
▁سناریو	-12.0879
▁آسا	-12.0882
خبرنگار	-12.0884
خروج	-12.0886
ترکیب	-12.0887
▁آرن	-12.0899
جنگ	-12.0901
فضای	-12.0902
▁بک	-12.0905
رانگ	-12.0916
▁دروغگو	-12.0917
▁هیچگ	-12.0924
کاملا	-12.0929
چاپ	-12.0934
مصرف	-12.0935
▁تحر	-12.0939
▁بیک	-12.094
▁نوزده	-12.0941
▁اراد	-12.0945
خواننده	-12.0945
۸۶	-12.0949
صعود	-12.095
یمه	-12.0957
روبرت	-12.0957
هیچ	-12.0962
▁سخنگو	-12.0966
برزیل	-12.0967
تخریب	-12.0968
رئال	-12.0969
طالبان	-12.0972
موارد	-12.0972
▁ماهان	-12.0974
رکود	-12.0974
حاشیه	-12.0978
نویسندگان	-12.0981
صادف	-12.0984
تیراندازی	-12.0984
یوونتوس	-12.0985
پوش	-12.0989
سرپرست	-12.099
امارات	-12.0991
مردان	-12.0991
اتفاقات	-12.0994
خوانده	-12.1001
کشف	-12.1001
جیمز	-12.1002
مدیرکل	-12.1009
مشاور	-12.101
غدی	-12.1012
تس	-12.1015
▁جولیا	-12.102
خاوران	-12.1024
وانیم	-12.103
وبسایت	-12.103
کنگره	-12.1032
▁اندرو	-12.1032
سناتور	-12.1033
لاپورتا	-12.1034
ربین	-12.1034
همیلتون	-12.1039
توماس	-12.1039
واقعیت	-12.1039
آرامکو	-12.1041
▁ماهرویان	-12.1042
جمشید	-12.1043
ورود	-12.1043
پیرلو	-12.1044
یتس	-12.1045
لماس	-12.1048
فش	-12.1054
▁جویا	-12.1055
سازنده	-12.1055
ایلنا	-12.1058
▁چهارمی	-12.1058
دیو	-12.1063
داریوش	-12.1067
▁علام	-12.107
بدهی	-12.107
پادمان	-12.1074
متاز	-12.1075
بالگرد	-12.1076
▁سوزان	-12.1076
آلات	-12.1077
▁آسم	-12.1077
سوخت	-12.1078
▁امپر	-12.108
قوی	-12.1081
▁لاین	-12.1081
تفاهم	-12.1084
▁۳۸۰	-12.109
منتظر	-12.1091
امشب	-12.1092
▁کوتاهتر	-12.1095
▁گپ	-12.1099
ختی	-12.1103
صمد	-12.1103
▁کمالی	-12.1104
▁تجسم	-12.1105
▁دلیلش	-12.1111
نوسان	-12.1113
رییس	-12.1115
▁هوشیار	-12.1118
▁مختص	-12.1119
▁طاه	-12.1119
وبی	-12.112
مدیران	-12.1121
▁سوکا	-12.1126
▁ناگ	-12.1127
▁آرنو	-12.1127
ناوگان	-12.1128
▁چسبن	-12.1129
مسعود	-12.1132
▁بنین	-12.1133
▁ساسان	-12.1134
هنه	-12.1135
قبلا	-12.1137
▁سویی	-12.1137
پینو	-12.1145
▁کاپل	-12.1146
▁ساد	-12.1146
حکمت	-12.1146
سوری	-12.1149
وشن	-12.1154
مرح	-12.1155
باخ	-12.1158
مکرون	-12.1162
▁سرم	-12.1165
گمش	-12.1165
▁سلیمان	-12.1166
▁تروریست	-12.1167
مرور	-12.117
تقی	-12.1171
▁شیب	-12.1172
مش	-12.1179
صیر	-12.1185
وتو	-12.1188
▁بازنگشت	-12.1188
تناقض	-12.1189
لباخت	-12.1191
کیهان	-12.1203
یار	-12.1203
▁شیاد	-12.1204
پروم	-12.1205
فیک	-12.1211
▁بدان	-12.1212
الج	-12.1214
شهرت	-12.1215
شاهزاد	-12.1216
صرب	-12.1224
تصور	-12.1228
سکار	-12.1228
▁بهم	-12.1237
وقی	-12.1238
الا	-12.1241
▁برو	-12.1243
زاک	-12.1244
▁همدان	-12.1252
حی	-12.1261
گاتی	-12.1267
▁اوار	-12.1269
کشی	-12.1273
▁هموطن	-12.1274
▁بوس	-12.1275
▁عبد	-12.128
▁بازگرد	-12.1283
ائی	-12.1287
▁طو	-12.1292
▁فلامینگو	-12.1294
قول	-12.1297
ریکا	-12.1309
اسکار	-12.1312
سترازنکا	-12.1321
▁الگو	-12.1321
▁همسایگ	-12.1324
موتو	-12.1326
▁فض	-12.1335
ریوس	-12.1335
▁غواص	-12.1336
متری	-12.1336
▁ترفند	-12.1343
▁ژا	-12.1344
طابق	-12.1347
▁پابرجا	-12.1354
تایی	-12.1355
▁محک	-12.1358
▁جوری	-12.1358
دوره	-12.1359
▁مطبوع	-12.1368
▁زحم	-12.1371
▁تظاهر	-12.1373
▁بگذار	-12.1374
ایان	-12.138
▁اورشلیم	-12.1381
▁اوگوپوگو	-12.1381
▁ولاسکز	-12.1381
▁پورنوگرافی	-12.1381
▁ترائوره	-12.1381
▁تمسخر	-12.1381
▁فیزیولوژی	-12.1381
▁ننگرهار	-12.1381
▁متعاقب	-12.1381
▁بشنوند	-12.1381
▁منسجم	-12.1381
▁اوقاف	-12.1381
▁اکونومی	-12.1381
▁ضرغام	-12.1381
▁خویشاوند	-12.1381
▁غیاث	-12.1381
▁پرسورینس	-12.1381
▁قیراط	-12.1381
▁فانخیو	-12.1381
▁شرمسار	-12.1381
▁گوسفند	-12.1381
▁کاسموس	-12.1381
▁محتکر	-12.1381
▁همجوار	-12.1381
▁خاستگاه	-12.1381
▁سمنزا	-12.1381
▁الارض	-12.1381
معجزه	-12.1381
▁گلاسگو	-12.1381
▁نوترینو	-12.1381
▁سیلیکون	-12.1381
▁صحافی	-12.1381
▁فرخزاد	-12.1381
▁گدوت	-12.1381
▁سوراخ	-12.1381
▁متقلب	-12.1382
▁نقیض	-12.1382
▁ستیزانه	-12.1382
▁گمپرت	-12.1382
▁تشابه	-12.1383
▁تسخیر	-12.1383
▁روزافزون	-12.1383
▁فورهند	-12.1383
▁انهدام	-12.1383
▁تمهید	-12.1383
▁برسانیم	-12.1383
▁آژیر	-12.1383
▁مکوندی	-12.1383
▁کربلا	-12.1384
ریه	-12.1384
▁کالینز	-12.1384
▁دامغان	-12.1384
▁مترمکعب	-12.1384
▁جماعت	-12.1384
▁برلیناله	-12.1384
▁ناخشنود	-12.1385
▁پاندمی	-12.1385
▁عنایت	-12.1385
▁خمیس	-12.1385
▁مقاطع	-12.1385
▁ویسکانس	-12.1385
▁بفرستد	-12.1386
▁الفبا	-12.1386
▁سرمنشا	-12.1386
▁فرازمینی	-12.1386
▁فروزان	-12.1386
هالیفیلد	-12.1387
▁اوصاف	-12.1387
▁فراهانی	-12.1388
▁کلکسیون	-12.1388
▁علیشاهی	-12.1388
▁هیلتون	-12.1388
▁ارنست	-12.1389
ندگرن	-12.1389
▁ببینم	-12.139
▁الاجرا	-12.139
▁ویلسون	-12.1391
▁منحنی	-12.1391
▁مشکاتیان	-12.1391
▁کوئینز	-12.1392
▁بیاییم	-12.1393
آنگولا	-12.1393
▁سیندمی	-12.1393
▁فاضلاب	-12.1393
▁لرزید	-12.1393
▁نویدبخش	-12.1393
▁درآید	-12.1393
▁بسپارد	-12.1394
▁مرموز	-12.1394
▁۱۳۸۶	-12.1394
▁آرسن	-12.1394
▁فواید	-12.1395
▁۶۱۲	-12.1395
▁مولایی	-12.1396
▁پرسنل	-12.1396
▁شیطان	-12.1396
▁سنجاب	-12.1397
▁همینگوی	-12.1398
مونت	-12.1398
▁معابد	-12.1399
▁برنگرداند	-12.1399
▁۵۵۶	-12.14
▁ناظمی	-12.14
▁شئون	-12.14
▁عبادی	-12.1402
▁کالینگ	-12.1403
▁بخوانند	-12.1403
▁بانکوک	-12.1403
▁دلهره	-12.1403
▁سفیدپوست	-12.1404
ارزپاشی	-12.1404
▁بیفتند	-12.1406
▁مزیت	-12.1406
▁۲۴۰	-12.1407
▁حصار	-12.1407
۸۱	-12.1407
▁طومار	-12.1408
▁ایرویز	-12.141
▁نگیرد	-12.141
▁دره	-12.1412
▁وارث	-12.1412
▁منکین	-12.1413
▁وجدان	-12.1413
▁اسکلت	-12.1414
▁۶۳۰	-12.1414
▁جنایات	-12.1415
▁نشناخت	-12.1416
▁ریتم	-12.1416
▁ذوال	-12.1417
▁ابول	-12.1417
▁زراعت	-12.1417
ادیوم	-12.1417
▁پیشگیر	-12.1418
شکی	-12.1418
▁ونچ	-12.1419
▁رویز	-12.1422
▁ملوان	-12.1424
لیگا	-12.1425
▁زیربنا	-12.1429
▁رافا	-12.1429
ري	-12.143
▁بازدارند	-12.143
▁مرندی	-12.143
▁آنچنان	-12.143
▁بگریز	-12.1431
▁مطیعی	-12.1431
▁۲۳۹	-12.1434
▁بیولوژی	-12.1435
▁معصوم	-12.1435
▁نیکو	-12.1435
▁جملات	-12.1435
▁جویانه	-12.1441
▁نگو	-12.1444
▁بوفالوران	-12.1452
▁آغا	-12.1452
▁سحرگاه	-12.1453
▁تایوان	-12.1454
▁خونبار	-12.1454
ساتبی	-12.1455
▁بازوهای	-12.1455
▁صداقت	-12.1456
تورم	-12.1457
حک	-12.1458
بیب	-12.1459
کای	-12.1462
▁مذا	-12.1463
▁۱۵۵	-12.1466
▁پرداختن	-12.1466
▁هولو	-12.1467
ستراح	-12.1467
▁شوش	-12.1468
▁مته	-12.1468
▁معلمان	-12.1469
▁بازکنند	-12.1471
▁هشدارها	-12.1471
▁الاه	-12.1474
▁ایدز	-12.1474
▁۱۲۲	-12.1474
▁ونگر	-12.1474
تاگون	-12.148
▁شهباز	-12.1482
▁افراط	-12.1483
▁فلسطینی	-12.1483
▁طاهر	-12.1485
▁۲۴۸	-12.1485
▁پوسترهای	-12.1486
▁الگوهای	-12.1486
▁درمانگاه	-12.1489
شانت	-12.1491
▁آندریاس	-12.1492
نعیم	-12.1493
▁خرابکارانه	-12.1494
▁معترضین	-12.1499
▁کاتال	-12.1499
▁تنبل	-12.1499
▁نرود	-12.1501
▁پاشیده	-12.1501
▁بامیه	-12.1505
فال	-12.1507
▁ربع	-12.1507
▁ماجراجوی	-12.1509
▁هموطنان	-12.151
▁راهکار	-12.1511
▁نگذاشت	-12.1511
▁شنیدنش	-12.1512
▁غفاری	-12.1512
ارتوم	-12.1512
▁مبنا	-12.1513
▁نیوت	-12.1513
▁انعکاس	-12.1513
▁الاصل	-12.1514
▁گرافی	-12.1515
▁فتو	-12.1515
روث	-12.1516
مانند	-12.1518
۵۳	-12.1519
▁رحیمی	-12.152
▁ازآن	-12.1523
▁کوچ	-12.1523
سانسور	-12.1526
▁قبایل	-12.1526
▁نثر	-12.1527
▁فالک	-12.1535
زیستی	-12.1536
▁داستا	-12.1542
▁یاب	-12.1544
▁چهارصد	-12.1549
▁سندگرن	-12.1555
سیاست	-12.1558
▁خوابگاه	-12.1558
▁گذراندم	-12.1559
▁حکمی	-12.1559
▁بعض	-12.1559
غی	-12.1566
▁آری	-12.1566
رگز	-12.1572
▁واپس	-12.1575
▁گول	-12.1576
▁دیوارنگار	-12.1579
▁پالیس	-12.158
وکسل	-12.158
▁قضا	-12.1585
▁فراوانش	-12.1585
ئیه	-12.1587
▁کارولین	-12.1588
۳۸	-12.1597
▁جوزا	-12.1599
▁میانجی	-12.16
▁نگا	-12.1603
▁هزارتومان	-12.1606
سرین	-12.1608
▁نرسیدن	-12.1609
پهن	-12.1612
▁برسیم	-12.1615
وردی	-12.1622
▁محرومند	-12.1622
خنده	-12.1622
▁تختی	-12.1623
▁فوتسی	-12.1624
▁ترسند	-12.1625
یلند	-12.1628
▁بخواهند	-12.1629
رل	-12.1629
▁وینفر	-12.163
▁مخالفند	-12.1632
رسانی	-12.1632
▁محبت	-12.1636
▁لم	-12.164
جاز	-12.1643
میخ	-12.1643
▁سبزی	-12.1646
▁دریاب	-12.1647
▁بنفش	-12.1648
▁ساچ	-12.1648
ارنوک	-12.1648
▁پي	-12.165
▁چریک	-12.1652
▁شاخک	-12.1654
▁فیو	-12.1655
▁دالان	-12.1662
▁دردسرهای	-12.1664
▁فرشید	-12.1671
▁هنرپیشگ	-12.168
▁فیض	-12.1682
▁دلا	-12.1687
▁غذاخور	-12.1695
▁وو	-12.1695
۶۸	-12.1695
▁شهنا	-12.1699
▁درصورت	-12.17
▁یدک	-12.1702
▁لایک	-12.1707
▁ویر	-12.1707
▁نها	-12.1709
▁اوتار	-12.1711
▁والتر	-12.1718
قایق	-12.1718
▁مرمر	-12.1719
▁طلاق	-12.172
وتیو	-12.1721
▁برگشتند	-12.1721
▁ایفل	-12.1721
دوف	-12.1723
عاش	-12.1727
نون	-12.1728
▁صمد	-12.173
▁سوفی	-12.1735
▁غزل	-12.1735
یانگ	-12.174
▁بدهم	-12.1741
▁زاها	-12.1747
▁لول	-12.1755
میلیارد	-12.1755
▁تسا	-12.1759
یرو	-12.1766
▁خاطراتی	-12.1766
▁کتابخوان	-12.1767
▁۱۲۸	-12.1778
▁گزی	-12.1781
لوگ	-12.1787
هشت	-12.1787
فلورای	-12.1791
▁آغ	-12.1801
▁جوانب	-12.1807
چشمه	-12.1811
▁نامند	-12.1815
▁نبردی	-12.1821
▁سیلوا	-12.1829
▁جهاندار	-12.1831
سایر	-12.1833
▁پرمخاط	-12.1839
▁افکند	-12.1848
ادام	-12.1849
▁آمری	-12.1855
▁کشمیر	-12.1856
اتب	-12.1856
ریف	-12.1857
تعدد	-12.1858
▁کارند	-12.1858
▁بادام	-12.1861
اکبری	-12.1863
جمعه	-12.1864
ایسل	-12.1866
▁نبرده	-12.1867
ماگو	-12.1869
▁آلب	-12.1869
▁کوئین	-12.1869
الیف	-12.1875
▁چون	-12.1882
▁ابد	-12.1882
▁شنید	-12.1884
▁طبقات	-12.1887
▁دستیاران	-12.1905
▁تلک	-12.1906
▁والن	-12.1929
فشان	-12.193
▁ماجراهای	-12.193
یویا	-12.1932
▁کلاسیکو	-12.1933
▁ویسل	-12.1935
▁دیگ	-12.1937
▁السلط	-12.1945
▁وسای	-12.1949
▁لیز	-12.195
▁ترسم	-12.1956
احسا	-12.1958
▁بازو	-12.1961
صل	-12.1963
▁سیستانی	-12.1964
▁آسود	-12.1964
اسنو	-12.1964
▁اون	-12.1966
ایف	-12.1967
▁چپگرای	-12.1972
دلی	-12.1984
▁انگ	-12.1985
▁افتادند	-12.1985
▁انرو	-12.1986
نازل	-12.1986
▁کریستی	-12.1992
▁رودر	-12.2003
▁خوردند	-12.2006
▁تحریر	-12.201
▁استبر	-12.2011
هلن	-12.2015
▁بکنند	-12.2019
سالگی	-12.2021
کیت	-12.2023
هفتم	-12.2024
مثبت	-12.2035
▁همای	-12.2039
ادت	-12.2048
▁تاس	-12.2068
ارو	-12.2068
سود	-12.2072
▁ارغ	-12.2073
▁۱۱۹	-12.2073
▁نفی	-12.208
سورها	-12.2083
▁استعماری	-12.2088
یری	-12.2093
نشری	-12.2095
▁رک	-12.2099
ایده	-12.2099
▁آغازکرد	-12.2101
واضع	-12.2102
▁انگیزش	-12.2104
ولاتش	-12.2108
▁کارول	-12.2109
چفرین	-12.2111
▁میکردند	-12.2115
▁فرگوس	-12.2115
رویا	-12.2117
يان	-12.2124
دارا	-12.2125
▁شیعی	-12.2135
▁وظایفش	-12.2136
▁کشیم	-12.2152
▁راهور	-12.2163
▁حاکمان	-12.2168
▁نیستید	-12.2171
▁بیکارشد	-12.2173
▁پذیرد	-12.2174
▁مگنو	-12.2182
▁اندیشی	-12.2183
▁نشدم	-12.2195
چار	-12.2196
▁شناختند	-12.2198
دخیل	-12.2206
▁مستع	-12.2211
تینگ	-12.2215
▁آنف	-12.2217
ستانه	-12.2238
ریاک	-12.2245
ناک	-12.2267
▁ائ	-12.227
سای	-12.2271
ارپنت	-12.2279
چندی	-12.2282
▁آین	-12.2283
▁سودی	-12.2284
یشان	-12.2287
چندان	-12.23
▁نحس	-12.2305
وشیرو	-12.2311
▁رزو	-12.2311
▁سیت	-12.2313
▁دوک	-12.2314
▁ایرانسل	-12.2315
▁ناخ	-12.233
رجی	-12.2331
▁مفتو	-12.2345
▁ادین	-12.2355
ینس	-12.2361
▁کاش	-12.2362
غا	-12.2373
▁آورید	-12.2379
اردونا	-12.2391
▁ني	-12.2402
▁بروی	-12.2407
▁پژوهشهای	-12.2408
▁مدد	-12.2418
▁عی	-12.2421
ننده	-12.2443
▁آمونی	-12.2448
▁کوپا	-12.2452
▁خسر	-12.2453
▁آسمانی	-12.2457
دوم	-12.2465
▁تویی	-12.2468
الیزا	-12.2468
▁پولدار	-12.247
▁برچید	-12.2475
▁بلید	-12.2479
۴۳	-12.248
سوار	-12.2481
▁اکر	-12.2482
خدم	-12.2483
نگو	-12.2484
▁جهانبخ	-12.2505
ورال	-12.2509
▁اپی	-12.2521
▁کساد	-12.2527
▁قوز	-12.2533
هانسی	-12.2534
▁سواد	-12.2542
▁ایندی	-12.2543
▁شورشی	-12.2545
يش	-12.2551
عود	-12.2563
▁خوار	-12.2563
ندگی	-12.2564
تحرک	-12.2564
▁استیل	-12.2564
گوید	-12.2569
▁دوور	-12.2575
ندنی	-12.2577
سد	-12.2584
▁آبه	-12.2592
رع	-12.2592
رخه	-12.26
▁فرودست	-12.2604
▁سازندگ	-12.2623
▁تامی	-12.2628
▁غیرب	-12.2632
▁کورس	-12.2633
▁حقیق	-12.2634
تناب	-12.2638
▁۱۸۹	-12.2639
▁شمرد	-12.2647
▁فرجی	-12.2648
سلی	-12.2649
رندگان	-12.2651
ارگ	-12.2654
▁کانا	-12.2668
▁پرستاره	-12.2669
تعادل	-12.267
▁جووان	-12.2671
▁نرفتن	-12.2675
انح	-12.2677
▁نگ	-12.2677
▁شهریاری	-12.2686
▁ثق	-12.269
وئر	-12.2692
روسازی	-12.2697
▁درسا	-12.2705
▁یولیا	-12.2705
ورهم	-12.272
دهی	-12.2727
▁استکه	-12.273
خود	-12.2732
▁بخ	-12.2733
درباره	-12.2733
انستان	-12.2742
▁برازند	-12.2743
▁وایت	-12.2749
▁لاب	-12.2752
▁مگو	-12.2782
▁پاش	-12.2792
▁بدنساز	-12.2811
۸۲	-12.2812
طغ	-12.2818
▁شیرها	-12.2828
▁ببری	-12.283
▁سب	-12.2833
▁شرکتها	-12.2838
جران	-12.2848
عکسی	-12.2855
▁منه	-12.2864
هند	-12.2868
یدند	-12.2877
باسی	-12.2893
اپیش	-12.29
▁آلم	-12.29
انو	-12.2904
▁گله	-12.2905
▁نفربر	-12.2909
▁بفهمی	-12.291
تضی	-12.2913
هیه	-12.292
▁بلیک	-12.2923
▁بازنش	-12.2924
یوتی	-12.2926
▁دزدید	-12.2934
کولی	-12.2935
انزلی	-12.2942
▁سینا	-12.2955
▁الو	-12.2959
منت	-12.2963
رژی	-12.2967
▁منو	-12.2971
▁نقاشان	-12.2972
لار	-12.2978
نوا	-12.2981
۱۰۰	-12.2995
▁کرددر	-12.2998
▁والد	-12.2999
ینا	-12.3001
▁پیکا	-12.3001
قانون	-12.3003
کسوت	-12.3014
ارشی	-12.3019
نگل	-12.3024
ذخا	-12.3032
فرید	-12.3036
پرت	-12.3043
▁دستمزدها	-12.3046
یران	-12.305
▁بویی	-12.3062
پرستانه	-12.3062
انده	-12.3073
پات	-12.3075
▁فهمیدن	-12.3076
▁سیب	-12.308
▁شرو	-12.3085
منان	-12.3093
▁وز	-12.31
وک	-12.31
یامده	-12.3101
▁تنه	-12.3104
▁تدا	-12.3105
یلد	-12.3112
جدید	-12.3121
▁سلیم	-12.3123
ریکو	-12.313
▁دهی	-12.3133
▁دلم	-12.3135
دلار	-12.3141
▁خی	-12.3145
▁اوس	-12.3148
▁دوسال	-12.3157
▁کامر	-12.3159
▁گوا	-12.3174
▁اتکای	-12.318
داره	-12.3182
▁افغانی	-12.3187
طع	-12.3195
▁اروپای	-12.3195
ونا	-12.3198
دوش	-12.3208
▁دلجو	-12.3212
اندرو	-12.3218
شواری	-12.3219
درهای	-12.3222
▁چهلم	-12.3224
▁غیرمت	-12.3233
دروس	-12.3244
لائو	-12.3249
▁دیواره	-12.326
▁داران	-12.3261
▁منح	-12.3266
راکت	-12.3268
پورت	-12.3277
▁اوجی	-12.3279
اح	-12.3289
▁پخت	-12.3294
هیج	-12.3301
▁نواخت	-12.3301
ناتان	-12.331
▁کون	-12.3316
▁چیپ	-12.3341
ضیا	-12.3346
ریعت	-12.3361
محل	-12.3364
تاریخ	-12.3373
▁بمان	-12.3385
▁دستش	-12.3395
▁اندروز	-12.3398
▁موثرتر	-12.3398
▁کیش	-12.3403
▁طلبی	-12.3403
اشته	-12.3406
▁پشتکار	-12.3406
▁استانداردها	-12.3408
▁فوب	-12.3414
ارق	-12.3423
سیل	-12.3433
دولتی	-12.3443
حا	-12.3445
▁آبیار	-12.3446
گور	-12.3451
بول	-12.3479
رآمیز	-12.3486
▁پود	-12.3486
یغ	-12.3492
▁محبو	-12.3506
جمله	-12.351
▁آلیس	-12.3512
تقبل	-12.3517
رول	-12.3522
ذاب	-12.3523
▁مارسل	-12.3536
▁داو	-12.3545
▁نیکول	-12.3561
▁دیپ	-12.3566
▁افزا	-12.3567
▁استودیوی	-12.358
▁براه	-12.3582
▁کارم	-12.3597
نوم	-12.36
لاس	-12.3626
▁نهی	-12.363
۳۴	-12.3642
پیدا	-12.3644
اتور	-12.3653
▁؛	-12.3659
نچ	-12.3665
ابراهیم	-12.3672
▁افزو	-12.3677
نیت	-12.3679
▁حقوقدان	-12.3681
تعارف	-12.3682
انچین	-12.3684
روحانی	-12.3686
ورز	-12.3686
▁پرور	-12.3687
راث	-12.3688
تونی	-12.3692
تغییر	-12.3694
▁خائ	-12.3704
▁گود	-12.3713
رتاک	-12.3715
يران	-12.3721
ریاست	-12.3723
نند	-12.3725
اینک	-12.3731
▁بکار	-12.3735
کمه	-12.3739
قاب	-12.3742
ثر	-12.3742
▁نات	-12.3743
▁برایت	-12.3748
خصوص	-12.3769
لومین	-12.3784
گوش	-12.379
دخای	-12.3792
کاسی	-12.3812
کمک	-12.3816
چگون	-12.3819
▁حرا	-12.3824
امد	-12.3827
ورسوی	-12.3833
چون	-12.3835
▁هوم	-12.3841
دیر	-12.3859
راز	-12.386
تعارض	-12.386
تحریر	-12.3863
▁آسایش	-12.3869
فولک	-12.3869
زمانی	-12.3887
تفاوت	-12.3892
▁زبانه	-12.3893
▁رودخ	-12.3894
▁ونزوئلای	-12.3902
▁مارکی	-12.3917
▁رویاها	-12.3923
▁غرا	-12.3926
نمای	-12.393
کلاس	-12.3933
▁خص	-12.3934
▁ایت	-12.3941
▁۱۹۲	-12.3945
▁رزمند	-12.3957
▁علما	-12.396
بازیکنان	-12.3978
ئیل	-12.3979
▁بدق	-12.4
آثار	-12.4014
صراف	-12.4016
مصاحبه	-12.4021
▁اجسا	-12.4024
ظریف	-12.4026
ندا	-12.4028
واح	-12.403
نار	-12.4035
ورو	-12.4036
▁چر	-12.4037
▁عوا	-12.4037
مهندس	-12.4037
اصل	-12.4046
▁کپ	-12.405
▁فران	-12.4055
حرکت	-12.406
چو	-12.4067
ورزشگاه	-12.4067
▁دشوارتر	-12.4067
فینال	-12.4068
۸۰۰	-12.4071
▁پارسا	-12.4072
۰۱	-12.4074
قا	-12.4075
طول	-12.4087
▁ولای	-12.4088
حساب	-12.409
بحران	-12.41
▁سک	-12.4102
باخت	-12.4107
راژ	-12.4109
اتهام	-12.4113
▁مبد	-12.4113
▁نیفت	-12.4114
▁ره	-12.4124
قامت	-12.4126
▁انع	-12.4127
اعدام	-12.4139
صحبت	-12.4143
▁چپگرا	-12.4144
▁مدا	-12.4151
اختلاف	-12.4157
▁پرگا	-12.4158
سقوط	-12.4159
▁اصلان	-12.4165
روسیه	-12.4167
▁بخواهی	-12.4167
سریال	-12.4168
عملیات	-12.4169
▁بایس	-12.417
مجید	-12.4175
سیاسی	-12.4179
اعتراضات	-12.4179
فرصت	-12.418
رمانی	-12.4184
▁پاها	-12.4192
▁فرزان	-12.4195
واحد	-12.4198
▁پوستش	-12.4199
▁رقبا	-12.42
▁رسیدم	-12.4201
اظهارات	-12.4201
همیشه	-12.4202
بحرین	-12.4204
بندند	-12.4209
تغییرات	-12.4212
▁صن	-12.4214
برخورد	-12.4214
▁کوئ	-12.4216
▁پارو	-12.4217
سفیر	-12.4227
خودروساز	-12.4229
قدم	-12.423
▁درسال	-12.4235
▁پنس	-12.424
سترون	-12.4242
هدایت	-12.4242
نصر	-12.4244
▁دلو	-12.4247
شهرهای	-12.425
واشنگتن	-12.4251
▁بازیها	-12.4259
▁۱۸۴	-12.426
نیویورک	-12.426
چپ	-12.426
توییت	-12.4261
نگران	-12.4264
اتاق	-12.4272
پروتکل	-12.4274
تگان	-12.4279
جنگل	-12.428
تاسیسات	-12.428
▁تجار	-12.4281
تول	-12.4283
خیابان	-12.4284
عصر	-12.4285
▁استروئید	-12.4286
معمولا	-12.4287
▁بخواب	-12.4287
فیسبوک	-12.4292
داگ	-12.4293
کین	-12.4296
▁بریز	-12.4296
ساخته	-12.4296
▁هیو	-12.4296
نادال	-12.4296
اسکا	-12.4297
▁نیروها	-12.43
یاد	-12.4303
اختلال	-12.4307
حراج	-12.431
پادشاه	-12.431
کانال	-12.4311
خودکشی	-12.4313
▁نویسند	-12.4315
خودروهای	-12.4317
خبرنگاران	-12.4317
▁نائ	-12.4318
متخصص	-12.432
نژادپرست	-12.4322
سرنوشت	-12.4326
▁۲۰۵	-12.4326
وئیس	-12.4326
یوس	-12.4328
ساعات	-12.4329
بلژیک	-12.433
▁بارس	-12.4332
کاوشگر	-12.4333
اولسان	-12.4334
فایزر	-12.4334
▁گرداند	-12.4337
تکمیل	-12.4338
منچستریونایتد	-12.4342
برخلاف	-12.4347
فولاد	-12.4348
▁بازیکنانش	-12.4349
▁حسگر	-12.4353
▁۱۵۱	-12.4355
فتاح	-12.4356
▁فرمین	-12.4356
▁برجست	-12.4359
حجت	-12.4361
ویلیام	-12.4361
بنفش	-12.4362
الشهدا	-12.4362
مالاریا	-12.4363
ثروت	-12.4364
معمول	-12.4364
انتقادات	-12.4365
▁آلک	-12.4367
کلیسای	-12.4372
رونالدینیو	-12.4373
جزییات	-12.4374
کریستین	-12.4375
بنکسی	-12.4376
▁مگن	-12.4377
توتال	-12.4377
دانی	-12.4379
سولار	-12.438
کوئین	-12.438
▁هورمون	-12.4381
سپاهان	-12.4381
وکلای	-12.4381
▁واعظ	-12.4381
رامش	-12.4382
پشت	-12.4383
رنجر	-12.4385
▁صعودش	-12.4387
تماس	-12.4388
ورش	-12.4393
▁تیرانداز	-12.4395
▁قراداد	-12.4396
ضراب	-12.4398
پنجاه	-12.4399
سینگ	-12.44
▁ضم	-12.4402
▁جهنم	-12.4406
▁وکلا	-12.4407
کسر	-12.4411
▁بنزم	-12.4413
رفتار	-12.4413
▁محتوا	-12.4416
▁پناهجو	-12.442
▁سلب	-12.4425
کریس	-12.4427
لازم	-12.4428
▁گرسن	-12.4434
فورا	-12.4435
▁محر	-12.4435
طالب	-12.4436
▁نیافتن	-12.4438
▁ماهر	-12.4439
▁اظهارنظرها	-12.4442
▁۲۰۷	-12.4442
شناخت	-12.4443
▁نجوم	-12.4448
گمانه	-12.445
▁۳۳۰	-12.445
جنسی	-12.445
▁خاکس	-12.4455
▁حریفش	-12.4457
لز	-12.446
نکو	-12.4461
لپ	-12.4462
▁آذ	-12.4463
▁۴۸۰	-12.4464
▁کاپ	-12.4473
اقبال	-12.4478
تابلوی	-12.448
غیبت	-12.448
تجمع	-12.4482
شیده	-12.4485
متیو	-12.449
ارگردان	-12.4492
جهش	-12.4494
▁عدل	-12.4499
عاب	-12.4505
▁واکسنی	-12.4508
▁چیزها	-12.4508
▁بنی	-12.4509
▁گلوی	-12.4513
دومین	-12.4514
اين	-12.4514
▁جادو	-12.4517
▁قبرها	-12.4518
▁قف	-12.4519
ازهای	-12.4521
آموز	-12.4525
سنا	-12.4527
الان	-12.4533
دیوان	-12.4534
نیاز	-12.4535
ضرور	-12.4536
▁خرم	-12.4542
▁محاکم	-12.4544
شرط	-12.4547
▁دخترشا	-12.4552
▁فلسف	-12.4559
▁هواپیماها	-12.4562
▁تابع	-12.4564
▁چید	-12.4566
زلزل	-12.4566
▁جهانگیر	-12.4566
▁اخت	-12.4567
۶۵	-12.457
▁خسرو	-12.4571
برمی	-12.4575
شرکتهای	-12.4577
▁ناخوش	-12.4591
خاطرات	-12.4593
کات	-12.4594
▁شوخ	-12.4599
▁کلیو	-12.46
▁صمیم	-12.4608
اگ	-12.4609
▁مورفی	-12.4612
▁دومی	-12.4622
▁آشتی	-12.4622
رابی	-12.4629
ژوز	-12.4632
▁فروخت	-12.4633
▁لوب	-12.4634
رصدخان	-12.464
ایم	-12.4648
آشنای	-12.4653
▁فرشت	-12.4653
▁شراب	-12.4655
▁ندا	-12.4659
ضمن	-12.4659
مسترد	-12.4665
▁پذیرفتن	-12.4669
نشدنی	-12.4672
یکصد	-12.4673
همراه	-12.4673
منتف	-12.4675
▁کانتون	-12.4687
آمده	-12.4692
اصله	-12.4698
لع	-12.47
▁مونت	-12.4704
ستراز	-12.4705
▁مارکان	-12.4705
▁لین	-12.4707
اراگوئه	-12.4707
▁ظالم	-12.4707
▁آزاری	-12.4708
▁راین	-12.4708
▁ابوظبی	-12.4714
▁الکترومغناطیس	-12.4714
▁ایزوتوپ	-12.4714
▁تمساح	-12.4714
▁سریلانکا	-12.4714
▁سوسیالیست	-12.4714
▁سولوویوف	-12.4714
▁مرتضوی	-12.4714
▁پوآرو	-12.4714
▁ژئوپلتیک	-12.4714
▁کداخدایی	-12.4714
▁شقاقی	-12.4714
▁هخامنشی	-12.4714
▁بیندازید	-12.4714
▁بوچانی	-12.4714
▁بپیوندد	-12.4714
▁دگرباش	-12.4714
▁وبیتکو	-12.4714
▁اکسیدکربن	-12.4714
▁معشوق	-12.4714
▁واکاندا	-12.4714
▁متذکر	-12.4714
▁سانتیاگو	-12.4714
▁سانفرانسیسکو	-12.4714
▁هولدینگ	-12.4714
▁طنزپرداز	-12.4714
▁ابطحی	-12.4714
▁العالم	-12.4714
▁مقننه	-12.4714
▁مدودف	-12.4714
▁پورتلند	-12.4714
▁برنگردد	-12.4714
ناملموس	-12.4715
▁شکوهمند	-12.4715
▁نذری	-12.4715
▁پولانسکی	-12.4715
▁چهارچوب	-12.4715
▁نگرائو	-12.4715
▁اسنوبرد	-12.4715
▁یکپارچ	-12.4716
▁جوانبخت	-12.4716
▁معضل	-12.4716
▁هکتار	-12.4716
▁سربگیرند	-12.4716
تفلی	-12.4716
▁اتوبان	-12.4716
▁۱۰۲	-12.4716
▁بااستعداد	-12.4717
▁الشع	-12.4717
▁اوتیسم	-12.4717
▁نباشید	-12.4717
▁بیاموز	-12.4717
▁پاکیزگی	-12.4717
▁اساتید	-12.4717
▁نباشیم	-12.4718
▁برگردانند	-12.4718
▁۵۳ساله	-12.4718
▁ببخشد	-12.4719
▁غیرعمد	-12.4719
▁الخروج	-12.4719
▁مرزبندی	-12.472
▁عاقبت	-12.472
حرمسرا	-12.472
▁ندوشن	-12.472
▁ووندر	-12.472
▁بمانید	-12.472
مسلم	-12.4721
▁ستمگر	-12.4721
▁مسیرها	-12.4721
▁فیروزکو	-12.4721
▁قراردادها	-12.4721
▁فرازمند	-12.4722
▁افتضاح	-12.4722
▁مصادیق	-12.4722
▁ظلم	-12.4722
▁گرانبهای	-12.4722
▁بشناسد	-12.4723
۸۷	-12.4723
▁بکاهد	-12.4723
▁آلفرد	-12.4724
▁حیفا	-12.4724
▁پردیس	-12.4724
▁بکشاند	-12.4725
▁شگرف	-12.4725
مویرگی	-12.4725
▁درنوردید	-12.4725
▁جانورشناس	-12.4726
▁سیاستگذار	-12.4726
▁آنالیز	-12.4726
▁غیرمعمول	-12.4727
▁بازگردیم	-12.4727
▁دستگیرزاده	-12.4727
▁پرنفوذ	-12.4727
▁استانهای	-12.4727
▁گاندو	-12.4728
▁۱۳۸۰	-12.4728
▁اسطور	-12.4728
▁گریختند	-12.4728
▁کلسترو	-12.4728
▁۱۹۱۲	-12.4728
▁بصیر	-12.4729
مثال	-12.4729
▁پنهانکاری	-12.473
▁سردادند	-12.473
▁تلاقی	-12.473
یال	-12.4731
▁بزنید	-12.4731
▁پاسداشت	-12.4732
▁مین	-12.4732
▁ابلهان	-12.4733
▁خوشبو	-12.4734
▁نوازد	-12.4735
▁عمارت	-12.4736
▁عابران	-12.4737
▁توکلی	-12.4737
▁بنویس	-12.4738
▁متهیا	-12.4738
نیتو	-12.4738
▁شادگان	-12.4738
▁ارمنی	-12.4739
▁بیابند	-12.4739
▁فرمایش	-12.4739
▁کذب	-12.474
▁بندپی	-12.474
▁کوئیک	-12.4741
▁شادمان	-12.4742
▁بروکلی	-12.4742
▁اپوز	-12.4742
▁الاغ	-12.4742
▁مقبول	-12.4742
▁بردارم	-12.4743
▁عبرت	-12.4744
▁المپی	-12.4745
▁وولف	-12.4746
▁بنگال	-12.4747
▁خودخواهانه	-12.4748
▁واداشته	-12.4748
▁۱۹۳۹	-12.4748
▁سروصدا	-12.475
▁هاشم	-12.475
نکات	-12.475
▁استمفورد	-12.4752
▁موثق	-12.4753
▁پرالتهاب	-12.4753
▁جل	-12.4754
▁جداسازی	-12.4755
▁بایستد	-12.4755
▁نکنم	-12.4757
▁حماسی	-12.476
باستان	-12.476
▁جوابگوی	-12.4761
▁ولیحی	-12.4762
▁خرمش	-12.4763
▁شنیدم	-12.4763
▁گریخت	-12.4763
▁تحقی	-12.4764
▁سرمست	-12.4765
▁باغبان	-12.4765
▁بکنید	-12.4768
▁تعصب	-12.4769
▁شدنش	-12.4769
▁خیاط	-12.477
▁۲۶۶	-12.4771
▁کولون	-12.4771
▁پراوی	-12.4772
▁مکاتبات	-12.4772
▁ترفندهای	-12.4773
▁دهشت	-12.4773
روژن	-12.4774
▁گیگاب	-12.4775
▁اغما	-12.4776
▁متروک	-12.4776
▁برگر	-12.4777
▁آپارت	-12.478
▁ملایم	-12.4782
▁ماسا	-12.4783
▁همب	-12.4789
شمالی	-12.4792
▁متفکر	-12.4797
نگر	-12.4797
▁نومید	-12.4797
▁امدادگر	-12.48
بال	-12.4801
▁هالووین	-12.4802
▁گزاف	-12.4804
▁استبا	-12.4804
▁نامطلوب	-12.4804
▁ولگردها	-12.4804
▁نوگرا	-12.4804
▁مگاصیص	-12.4804
▁لوکالکان	-12.4805
▁گاسکوئین	-12.4805
ئرنیک	-12.4806
▁عذ	-12.4806
▁۱۷۵	-12.4806
▁کیار	-12.4809
▁ژائو	-12.4813
حکیم	-12.4815
▁رجیس	-12.4815
▁منشور	-12.4816
رخوری	-12.4818
▁همدلی	-12.4819
▁مکزیکو	-12.482
پوشانی	-12.4824
▁ناراحتند	-12.4829
▁جالبند	-12.4829
هشتم	-12.483
ویتز	-12.483
سطح	-12.4831
▁ترمز	-12.4832
▁خیری	-12.4833
اندر	-12.4833
▁آموس	-12.4834
▁الکترودهای	-12.4836
نظار	-12.4838
▁گازی	-12.4843
▁زرتشتی	-12.4844
▁کوکو	-12.4845
یستی	-12.4847
زامبی	-12.4855
▁کاوش	-12.4856
▁فدریک	-12.4856
زبور	-12.4856
▁نداشتیم	-12.4864
اوج	-12.4864
▁تسایت	-12.4864
▁بلوغ	-12.4865
▁هملت	-12.4866
▁شایعند	-12.4871
سرگ	-12.4873
▁کاونت	-12.4876
▁گابریلا	-12.4876
▁گذرا	-12.4877
▁رادارها	-12.4878
خیو	-12.4882
▁ادیان	-12.4883
منوچ	-12.4889
▁مشوقهای	-12.4889
▁جزیرو	-12.4889
▁اکولوژی	-12.4892
▁خطرهای	-12.4892
▁تحص	-12.4895
▁یوس	-12.4898
▁پیوندند	-12.4906
▁برچی	-12.4906
▁فاین	-12.4906
▁دلیری	-12.491
نیو	-12.4912
▁مشروع	-12.4914
▁پرماجرا	-12.4916
▁رباتیک	-12.4916
▁ندادم	-12.4917
▁میناری	-12.492
کمیس	-12.4922
کریک	-12.4926
▁نمودار	-12.493
▁درگذشتمحمد	-12.493
▁خدایا	-12.4933
▁تماشگر	-12.4941
▁باربارا	-12.4941
▁درانتخابات	-12.4943
▁محصور	-12.4944
زیچ	-12.4949
ونیک	-12.4949
▁آجر	-12.495
▁ریلی	-12.4954
▁لغز	-12.4955
▁تربت	-12.4956
▁دفاعیات	-12.4958
شگران	-12.4958
یگز	-12.4958
▁کارکنانش	-12.4961
▁فاصل	-12.4962
▁لودو	-12.4962
▁دوقلوها	-12.4965
▁برادرز	-12.4967
شمال	-12.4971
▁آزاردید	-12.4979
▁سرکو	-12.4979
▁معبد	-12.4982
▁گیت	-12.4988
▁فقرا	-12.4991
▁بازنگشته	-12.4992
هوش	-12.4992
▁آوردیم	-12.4992
درمانی	-12.4993
▁ترها	-12.5
▁طالب	-12.5004
▁حدف	-12.5009
▁آق	-12.501
▁گرکان	-12.502
▁شکس	-12.5021
▁آیر	-12.5022
اگرا	-12.5025
خه	-12.5025
سپورت	-12.5032
قطعی	-12.5032
نیمه	-12.5035
توری	-12.5036
▁نگارم	-12.5041
▁آزادگان	-12.5044
اطبا	-12.5046
▁مکید	-12.5046
▁ریاکار	-12.5046
وانا	-12.5047
▁قرادادش	-12.5053
▁راهیاب	-12.5055
کنند	-12.5056
تژیک	-12.5061
▁برایان	-12.5064
▁لگو	-12.5066
تورباز	-12.5067
▁اکستر	-12.5068
اسرای	-12.507
▁جدیدش	-12.5071
▁نوشتاری	-12.5073
▁کاکس	-12.5074
سند	-12.5077
برا	-12.5078
▁فراگرفت	-12.5078
کوش	-12.5078
▁پسندید	-12.5081
تعی	-12.5084
امدا	-12.5088
نهاده	-12.5089
▁خسروی	-12.5091
▁شکا	-12.5092
بلنک	-12.5094
ذا	-12.5096
هنگ	-12.5097
▁فتوا	-12.5099
۶۰۰	-12.511
یگ	-12.5113
▁آدمی	-12.5114
▁کوهنوردان	-12.5116
▁پائیز	-12.5124
▁سپاس	-12.5128
▁نشاند	-12.513
ایکون	-12.513
▁جنون	-12.5131
▁فرمانیه	-12.5133
بنز	-12.5143
انجیر	-12.5145
▁مرزبان	-12.5148
زارها	-12.515
هاوس	-12.5153
ماتیک	-12.5154
▁آلتر	-12.5157
▁بلندق	-12.5159
▁دیسکی	-12.5159
▁گلشی	-12.516
کانا	-12.5163
▁دری	-12.5165
▁چرخاند	-12.5173
▁نقدهای	-12.5177
باند	-12.5178
وقف	-12.5182
▁مورخ	-12.5185
▁هارد	-12.5186
▁هرچیز	-12.519
▁مسیریاب	-12.5192
▁همتایان	-12.5194
▁سمی	-12.5196
ستن	-12.5198
خواند	-12.5199
▁ابزارک	-12.5203
▁قدیس	-12.5216
اکت	-12.5219
▁شگرد	-12.5222
▁ژر	-12.524
▁صاحبش	-12.524
فوت	-12.5241
یاق	-12.5251
▁لاپ	-12.5252
▁محم	-12.5264
استار	-12.5266
سمن	-12.5269
▁کثی	-12.5275
رضی	-12.5276
ماد	-12.5278
▁هلن	-12.5286
▁ملامت	-12.5295
▁حوز	-12.5297
▁قضای	-12.5301
نورلند	-12.5303
کشور	-12.5307
▁یونس	-12.5307
▁بگویی	-12.5308
▁ارتد	-12.531
دیوم	-12.5316
عزیز	-12.5319
۷۲	-12.5324
۷۱۰	-12.5329
▁پرکار	-12.5332
▁نوآ	-12.5336
▁باگز	-12.5337
اسا	-12.5338
زره	-12.5342
▁آمیزش	-12.5346
▁کنگو	-12.5346
▁بردیم	-12.5349
بوک	-12.5351
پار	-12.5355
۱۴۶	-12.5365
▁تازیان	-12.5367
▁فاخر	-12.5374
▁پیشا	-12.5386
▁حوت	-12.5389
روا	-12.5398
▁طاهری	-12.5401
غام	-12.5402
صالحی	-12.5404
▁شودبا	-12.5406
▁چاند	-12.5407
▁استانها	-12.5409
▁عاشقان	-12.5415
نال	-12.5418
▁نشرات	-12.5427
▁دروغگوی	-12.5428
▁بیدگ	-12.5428
▁رفتیم	-12.5431
▁کلوز	-12.5434
▁دارن	-12.5436
تکه	-12.5436
روسیا	-12.5438
زش	-12.5438
▁وک	-12.5443
▁درایو	-12.5443
آم	-12.5446
لوی	-12.5447
▁آسو	-12.545
پیک	-12.5452
رایش	-12.5458
▁نوارها	-12.546
▁ربود	-12.5461
▁ایستادن	-12.5467
▁بوها	-12.5468
برت	-12.547
توم	-12.5472
لخت	-12.5475
کلاسی	-12.5478
▁چول	-12.5484
▁هیج	-12.5489
▁کراش	-12.549
▁فرمانی	-12.5491
ربه	-12.5497
▁پوسید	-12.55
گار	-12.5502
عذر	-12.5509
▁افراز	-12.5512
گیرند	-12.5513
واری	-12.5517
نیز	-12.5519
▁خبرس	-12.5521
▁مامن	-12.5524
▁وجوه	-12.5524
ریز	-12.5528
فوتبال	-12.5535
یزی	-12.554
▁تصو	-12.5541
▁اجراست	-12.5541
لیتو	-12.5545
ژن	-12.5547
▁مدرنی	-12.555
شایست	-12.5551
▁کارن	-12.5551
۷۸	-12.5553
▁کارکرد	-12.5577
▁پیوستند	-12.5584
نتس	-12.5587
▁پوشا	-12.5588
▁خاو	-12.5593
حالی	-12.56
▁بای	-12.5601
▁دربر	-12.5601
▁انف	-12.5604
ینگز	-12.5614
▁اینگ	-12.5617
▁فردای	-12.5619
کوف	-12.5624
دندان	-12.5625
مینا	-12.5625
افزون	-12.5628
▁اندازیم	-12.563
▁آزم	-12.5633
▁کیلی	-12.5634
▁آنتو	-12.5641
قت	-12.5642
▁افزای	-12.5648
▁یادگاری	-12.5654
محمدی	-12.5655
▁میامی	-12.5663
▁بنت	-12.5665
▁لیک	-12.5665
قطر	-12.5665
▁کولبری	-12.567
اوبر	-12.5671
انسان	-12.5675
▁شوی	-12.5675
▁روست	-12.5684
▁میانسال	-12.5687
▁آنجل	-12.5698
▁مرم	-12.5707
▁نفیس	-12.5711
تاجر	-12.5711
وفق	-12.5714
عابد	-12.5721
▁اینست	-12.5725
▁غلا	-12.5728
حاب	-12.5729
گنجی	-12.573
▁سپین	-12.5736
▁فره	-12.5743
وتنبرگ	-12.5753
▁شغلش	-12.5758
نوری	-12.576
▁پودر	-12.5781
قطب	-12.5784
▁نیرومندتر	-12.5787
▁نطق	-12.5789
▁سرن	-12.5797
▁بالدار	-12.58
عرض	-12.5803
روژان	-12.5804
کیا	-12.5805
▁منجی	-12.5807
▁لارو	-12.5809
۳۹۰	-12.5809
نواختر	-12.5823
سپ	-12.5826
نالد	-12.5829
بشار	-12.5837
▁برسید	-12.5837
▁شدبا	-12.5838
▁بلندگو	-12.584
▁بوکا	-12.5843
رسیویر	-12.5845
تد	-12.5845
▁سور	-12.5848
▁فروشد	-12.5848
▁نپرداخت	-12.5855
▁برگشتن	-12.586
ارآفرین	-12.5861
▁گرون	-12.5867
▁پرشک	-12.5869
▁ساق	-12.5873
اربی	-12.5881
خضر	-12.5889
▁دخترم	-12.589
لوژی	-12.5898
▁افسرد	-12.5898
وگند	-12.5904
▁وایل	-12.5916
▁لبن	-12.5916
رنوش	-12.5917
▁برت	-12.5919
نسان	-12.5926
▁همهمه	-12.5926
راج	-12.5932
▁بقدر	-12.5934
زندگان	-12.5948
تیپ	-12.5948
شانس	-12.595
مایش	-12.5954
▁حسی	-12.5968
رمت	-12.5972
حسا	-12.5974
عل	-12.5979
▁انگیزد	-12.5986
▁محص	-12.5986
▁انگلی	-12.5992
الش	-12.6006
▁برآن	-12.6014
شمن	-12.6014
▁کشو	-12.602
▁رن	-12.6023
▁میکروبی	-12.6025
ظاهری	-12.6025
متر	-12.6026
▁سالفورد	-12.6029
▁میزند	-12.6032
▁آمو	-12.6034
▁بلن	-12.6035
▁سالخورد	-12.6038
دری	-12.6042
▁آهنگی	-12.6044
▁مینیا	-12.6054
▁خف	-12.6058
رسد	-12.606
زستان	-12.6069
▁آسیاب	-12.6071
زمین	-12.6072
▁شبان	-12.6076
▁یونیو	-12.6078
▁کوو	-12.6084
بیانی	-12.6085
▁ویرجین	-12.6088
حقوقدانان	-12.609
▁سفال	-12.6097
▁پیل	-12.6102
▁ایوب	-12.6115
کرون	-12.612
کستر	-12.6121
▁هیپستره	-12.6128
ناپس	-12.613
▁دانستم	-12.6132
▁هری	-12.6138
ینک	-12.6139
ناوب	-12.6144
سماع	-12.6144
▁مساعدت	-12.6146
یدا	-12.6156
▁بلندتر	-12.617
▁دستورات	-12.6174
▁تراش	-12.6176
▁آوریم	-12.6177
▁دیکش	-12.6177
فرنو	-12.6183
▁نمودن	-12.6192
ورگان	-12.6197
▁دات	-12.6212
تفکر	-12.6212
▁ماهیان	-12.6212
▁سفیدش	-12.6214
▁فضاپیماها	-12.6215
▁کیفی	-12.6215
▁لیر	-12.6227
اتری	-12.6236
▁نخوان	-12.6238
▁تایلندی	-12.6239
دورا	-12.6242
▁دوب	-12.6242
▁اشع	-12.6245
رشنا	-12.6249
▁هچ	-12.6251
گرمی	-12.6254
استان	-12.626
▁دق	-12.6262
▁نوزدهمی	-12.6266
یمن	-12.6279
اندا	-12.6279
چهارم	-12.628
سقف	-12.6282
▁اپ	-12.6294
▁آلو	-12.6299
▁فرام	-12.63
مالا	-12.6305
باری	-12.6314
▁نواختن	-12.6318
▁میلو	-12.6319
▁ناف	-12.6323
▁فلین	-12.6329
▁تنی	-12.6337
خرج	-12.6337
▁پاتری	-12.6339
ودن	-12.6341
چای	-12.6341
▁ناکار	-12.6342
▁مزا	-12.6366
مغان	-12.6369
▁معت	-12.6403
رید	-12.6408
ترونیک	-12.6412
▁رادیکا	-12.6429
فور	-12.6429
وژان	-12.6437
▁هنک	-12.6449
چسبند	-12.6455
▁پریا	-12.6465
▁دوجا	-12.6467
▁مستن	-12.6482
لزم	-12.6506
▁شهیر	-12.6506
رجا	-12.6507
▁سط	-12.6508
▁وصدا	-12.6515
یژه	-12.6516
لیو	-12.6524
ارمی	-12.6533
ادبی	-12.6537
نگار	-12.6541
▁زیرپا	-12.6541
▁نظار	-12.6542
بای	-12.6543
▁پرداختند	-12.6546
دآور	-12.6555
▁پاکس	-12.657
پسون	-12.657
اطل	-12.6574
تي	-12.6577
▁تریل	-12.6581
طب	-12.6582
▁پاشید	-12.6596
▁پارکین	-12.6597
▁شدمحمد	-12.6599
قاعد	-12.6601
▁کریک	-12.6602
▁نورال	-12.6607
ترینگ	-12.661
▁افتند	-12.6611
▁نیمرخ	-12.6612
▁اقیانوسی	-12.6613
سمعی	-12.6615
ایمن	-12.6618
▁مذاکراتش	-12.6626
▁گارا	-12.6636
▁کانتی	-12.6637
▁پولاد	-12.6641
دای	-12.6644
▁سوک	-12.6644
ماجد	-12.6645
▁مرک	-12.6655
بیت	-12.6657
۸۰	-12.6669
انگیزترین	-12.6671
عدد	-12.6675
سادگی	-12.6678
▁سول	-12.6695
▁ستد	-12.6697
وسط	-12.6698
اویر	-12.6699
▁بازم	-12.6716
▁روپر	-12.6717
▁کنش	-12.6723
▁لمب	-12.6727
▁داود	-12.673
همان	-12.6739
▁فون	-12.6739
▁آپار	-12.674
▁نامت	-12.6741
▁محبوبش	-12.6769
▁زدم	-12.6771
▁کمرش	-12.6772
▁شانز	-12.6778
وپان	-12.6802
متعارف	-12.6808
▁حقوقش	-12.6809
تح	-12.6819
بدن	-12.6832
استیل	-12.6841
پیشین	-12.6843
▁لج	-12.6862
اگون	-12.6867
▁آمر	-12.6869
اعی	-12.6878
▁خز	-12.6878
▁مشق	-12.6901
گرم	-12.6914
▁هوادارن	-12.6921
والد	-12.6926
آمد	-12.6933
هو	-12.6935
▁افکارش	-12.6941
▁زب	-12.6944
یافت	-12.6952
▁اطلا	-12.6956
▁سراغش	-12.6957
صلی	-12.6961
▁نماید	-12.6963
▁متروی	-12.6971
یابد	-12.6976
۳۱۴	-12.6977
یابان	-12.6979
▁اورک	-12.698
▁کرونایش	-12.6983
لاشی	-12.6986
قضی	-12.6993
نل	-12.6993
وحه	-12.6995
فاج	-12.6999
دپای	-12.7003
شهری	-12.7004
غر	-12.7012
▁بیوا	-12.7015
ردین	-12.7019
▁ي	-12.7021
▁پروپا	-12.7023
▁بلاف	-12.7024
لوگر	-12.7027
افق	-12.7044
▁تقو	-12.7047
▁هانس	-12.7049
الیس	-12.7051
بدیل	-12.7052
▁دایان	-12.7057
ساکن	-12.7057
اندی	-12.7058
▁تبعیدی	-12.7069
مریکایی	-12.7073
گرفت	-12.7077
▁تقلی	-12.7081
▁مثا	-12.7087
نتین	-12.709
نوپ	-12.7094
اچ	-12.7106
وستا	-12.7132
بسیار	-12.7151
▁خندد	-12.7152
۵۱	-12.7156
هفت	-12.7156
▁جوانتر	-12.716
▁فلی	-12.7166
سرع	-12.7167
شتر	-12.7167
وناک	-12.7171
یمون	-12.7178
لایه	-12.718
▁اض	-12.7186
گردها	-12.7188
▁هوی	-12.7193
▁کوک	-12.7193
۱۲	-12.7215
دوگا	-12.7217
▁متما	-12.7239
یعی	-12.7245
مایند	-12.7248
عمر	-12.7249
▁نامد	-12.7251
صفر	-12.7256
اجر	-12.7257
انع	-12.7257
▁سرز	-12.7261
▁بازدیدها	-12.7279
▁صل	-12.7282
دالر	-12.7283
▁احم	-12.7283
رهنگ	-12.7286
وث	-12.7293
▁اعم	-12.7293
▁هارو	-12.7305
▁آخ	-12.7306
▁واز	-12.7307
انطب	-12.7313
چهر	-12.7316
پشتکاری	-12.7329
دهد	-12.7329
▁نبات	-12.733
درومن	-12.733
آب	-12.7332
ینکی	-12.7336
▁متوس	-12.7344
▁جاس	-12.7345
بوده	-12.7359
دول	-12.737
▁چت	-12.7373
▁دلی	-12.7385
مق	-12.7401
▁وینگ	-12.7404
▁اتو	-12.7428
▁دلت	-12.7445
▁بردی	-12.7463
▁مساو	-12.7465
أت	-12.7474
رگوت	-12.7474
▁یوور	-12.7478
نداشته	-12.7491
اننده	-12.7492
▁بوات	-12.7497
▁آلبر	-12.7505
ساندر	-12.7511
▁۲۰۶	-12.7512
▁صوفی	-12.7515
نگوی	-12.7517
▁درب	-12.7524
کشن	-12.7528
لوف	-12.754
▁موک	-12.7542
رسا	-12.7553
▁سیو	-12.7562
▁همس	-12.7582
حده	-12.7583
خواهانه	-12.7599
نورد	-12.7606
▁لیپ	-12.761
نسی	-12.7638
۶۲۰	-12.7642
▁چیزور	-12.7643
▁ابط	-12.7652
ربط	-12.7658
▁واردکنند	-12.7665
گارد	-12.767
خشک	-12.7671
میسی	-12.7679
انیو	-12.7681
اروس	-12.7684
▁ایرانروزها	-12.7688
مقابل	-12.769
عامل	-12.7693
عن	-12.7694
امگاه	-12.7695
▁آت	-12.7713
▁چشمک	-12.7727
▁نشا	-12.773
هاج	-12.7732
▁بوتا	-12.7733
افه	-12.7735
▁۱۵سال	-12.7737
▁اندروی	-12.7737
▁هیپستر	-12.7758
▁رایک	-12.7768
▁عس	-12.7794
▁قبای	-12.7823
چک	-12.7825
مج	-12.7825
▁زمام	-12.7828
▁زمانه	-12.7833
▁بازاری	-12.7841
▁شدگ	-12.7844
▁فرما	-12.7845
رنا	-12.7847
نتو	-12.7854
▁شدشه	-12.7866
▁استعدادی	-12.7868
توان	-12.7879
▁بطر	-12.7887
▁دیدگ	-12.7887
▁دادرس	-12.789
موت	-12.7895
▁امروزی	-12.7897
▁ایمیل	-12.7898
ساعد	-12.7912
ونت	-12.792
▁زیرین	-12.7924
▁باج	-12.7925
▁گفتار	-12.7928
ورده	-12.7929
▁۱۷۷	-12.7949
یژ	-12.7955
▁باشی	-12.7957
▁قصر	-12.7959
▁۱۲۷	-12.7966
تکین	-12.7976
دینامیک	-12.7981
رب	-12.7986
▁فلا	-12.7989
▁گیران	-12.7993
▁میلک	-12.8001
نزدیک	-12.8016
▁کنسولی	-12.8019
▁رهنو	-12.8023
وخته	-12.8024
۵۵	-12.8032
یکایی	-12.8036
کاظمی	-12.8042
ومئ	-12.8055
نست	-12.8059
▁مالدار	-12.8067
وارت	-12.807
▁وزر	-12.808
دیبه	-12.8086
▁ریتر	-12.809
نتر	-12.8095
▁سلمانی	-12.8101
زمایش	-12.8106
صدای	-12.8111
ئون	-12.8114
▁وج	-12.8123
فائ	-12.8124
▁رکن	-12.813
آقا	-12.8132
تحقیق	-12.8136
▁بسا	-12.8139
روها	-12.8145
▁امرال	-12.8146
چلو	-12.8147
کنار	-12.8147
ویو	-12.8147
▁مي	-12.815
گلدار	-12.8152
آینده	-12.8162
توت	-12.8168
▁میشی	-12.8169
پرش	-12.819
▁شکوفا	-12.8192
▁محمدحس	-12.8193
اردی	-12.8205
ولیوی	-12.8208
کیه	-12.8216
کانی	-12.822
ناعت	-12.8222
▁رادار	-12.8225
عفو	-12.8226
▁بره	-12.8226
▁یکجا	-12.8231
▁مط	-12.8244
رونالدو	-12.8246
۹۸	-12.8254
دها	-12.8254
اخته	-12.8255
▁بوئن	-12.8262
نسیون	-12.8271
▁نیاوردن	-12.8271
ولز	-12.8274
جدی	-12.8279
ولتی	-12.828
▁امیلی	-12.8286
ینیو	-12.8296
چیزی	-12.83
نگولی	-12.8306
دریچ	-12.8313
▁کارآ	-12.8313
▁مصل	-12.832
ابو	-12.8321
▁جنگلی	-12.834
▁اقتصادها	-12.8365
▁آریا	-12.837
سینما	-12.8371
میه	-12.8378
میلادی	-12.8378
▁کمکها	-12.8382
لقو	-12.8383
▁فوتو	-12.8387
۳۶	-12.8388
نهاد	-12.8388
▁خس	-12.8402
ساخت	-12.8405
▁ریا	-12.8405
▁یکصدم	-12.8414
شیری	-12.8419
▁بلای	-12.8429
▁ایرا	-12.8434
مدار	-12.8435
▁غی	-12.8435
سخت	-12.8435
بازیکن	-12.8446
▁دژها	-12.8452
▁تجر	-12.8455
▁قه	-12.8456
▁لوین	-12.8479
▁هول	-12.8487
▁ویچ	-12.8487
نهایی	-12.8489
ماند	-12.8498
داخل	-12.8507
▁غد	-12.8508
حسی	-12.851
▁ورزید	-12.8518
▁جدیدتر	-12.8528
رزاده	-12.8531
تلر	-12.8538
▁ادل	-12.8545
▁فیزیوتراپ	-12.8548
ترامپ	-12.8562
▁ماد	-12.8578
دریافت	-12.858
مالی	-12.8584
روژ	-12.8584
▁گردان	-12.8587
تلویزیون	-12.8589
عربستان	-12.8591
▁بالاگ	-12.86
روم	-12.8604
ابات	-12.861
هرام	-12.8614
ستقر	-12.8615
مربوط	-12.8617
ریتا	-12.8619
شرف	-12.8633
سرمربی	-12.8642
▁۱۰۵	-12.8645
▁حمایتها	-12.8646
رنس	-12.8649
نگه	-12.8651
▁عصا	-12.8654
▁زینبی	-12.8657
آیی	-12.8661
▁نیایش	-12.8667
هاپ	-12.867
متهم	-12.8672
▁دکترها	-12.8672
شاهد	-12.8677
چنان	-12.868
مبارز	-12.8689
▁اطرافش	-12.8689
تایید	-12.8693
حمله	-12.8712
▁کارتونی	-12.8713
وسازی	-12.8714
▁ناهم	-12.8721
خلاقی	-12.8733
ورتینگ	-12.8735
آگاهی	-12.8739
انتقال	-12.875
تنی	-12.8755
المپیک	-12.8758
وئی	-12.8759
▁آذربایجانی	-12.8762
▁تاجر	-12.8764
▁چندسال	-12.8765
یروس	-12.8768
خرید	-12.877
نامزد	-12.8771
▁بیاوری	-12.8774
▁تراشی	-12.8778
۶۹	-12.8779
درس	-12.8787
دمان	-12.8788
وما	-12.8795
▁کرون	-12.88
ضی	-12.8803
انرژی	-12.8806
بودجه	-12.8808
▁مبه	-12.8809
▁غو	-12.8812
نمایش	-12.8816
▁ترو	-12.8818
یور	-12.8818
نیروهای	-12.8824
وضع	-12.8827
گسترده	-12.8827
▁بوستا	-12.8832
گرایان	-12.8836
▁دز	-12.8841
هیز	-12.8842
▁سازند	-12.8846
▁ردیفی	-12.8852
طین	-12.8853
متوقف	-12.8856
▁کد	-12.8856
گورک	-12.8859
وای	-12.8873
ارسال	-12.8877
▁مدلی	-12.8877
▁نگرفتن	-12.8888
▁شهره	-12.8889
▁دکترای	-12.889
روسا	-12.8893
معاملات	-12.8893
لوئی	-12.89
گلستان	-12.8903
ترن	-12.8904
ایا	-12.891
▁آنتون	-12.891
▁۱۱۴	-12.8917
▁کنددر	-12.8938
درینو	-12.8939
۲۶	-12.8942
کنترل	-12.8942
ومان	-12.8944
چهارشنبه	-12.8947
تهدید	-12.8957
پارسال	-12.8959
▁لیند	-12.896
▁آزمود	-12.896
▁راهبر	-12.8963
شهروندان	-12.8964
تولد	-12.8967
پرداز	-12.8969
واردات	-12.8972
کوچک	-12.8975
دانش	-12.8975
فهرست	-12.898
وارس	-12.8981
▁تاخت	-12.8983
▁ایگ	-12.8983
▁۳۵۰۰	-12.8984
کارگردان	-12.8985
لوم	-12.8985
انفجار	-12.8987
پزی	-12.8988
پوشان	-12.8992
خورشید	-12.8992
سور	-12.8998
پرواز	-12.8998
▁نظران	-12.9004
امنیتی	-12.901
درخواست	-12.9014
ماسک	-12.902
تجارت	-12.9024
معروف	-12.903
۲۰۲۱	-12.9034
لمبار	-12.9034
فسر	-12.9035
▁دریاها	-12.9044
کالا	-12.9056
حکام	-12.906
پاریس	-12.9063
بریتانیایی	-12.9065
اخ	-12.9069
رقم	-12.9071
گذارد	-12.9074
جدول	-12.9076
توییتر	-12.9077
سپر	-12.9079
آتش	-12.9086
برنده	-12.909
▁خزا	-12.9091
طبیعی	-12.9092
مجوز	-12.9097
سکوت	-12.9099
▁راهکارها	-12.9099
فساد	-12.91
انزا	-12.9104
برداشت	-12.9105
رند	-12.9107
جشن	-12.9107
کودک	-12.9112
نفتکش	-12.9113
▁سالگ	-12.9113
مواجه	-12.9118
اکثر	-12.9121
▁آرل	-12.9121
▁موسیق	-12.9128
اردیبهشت	-12.913
کلاغ	-12.913
شتابند	-12.9132
برسد	-12.9132
▁انرژ	-12.9134
مدیرعامل	-12.9135
اوت	-12.9136
خلاف	-12.9147
یکشنبه	-12.915
صبح	-12.9155
ملامت	-12.9156
▁کامی	-12.9168
ایستگاه	-12.9175
انتری	-12.918
▁استخوانی	-12.918
عجیب	-12.9181
اوراق	-12.9181
مجله	-12.9182
قاچاق	-12.9183
فیل	-12.9184
عوامل	-12.9188
پرتاب	-12.919
وفن	-12.9192
آنلاین	-12.9193
معمار	-12.9201
جامعه	-12.9202
▁الکتریک	-12.9203
فیزیک	-12.9207
▁فراو	-12.9208
فوریه	-12.921
فرانسوی	-12.9212
شعار	-12.9213
جز	-12.9216
عکاسی	-12.9216
روایت	-12.922
فراموش	-12.9222
جنر	-12.9224
اصلاح	-12.9224
ورزشکار	-12.9225
انجی	-12.9229
تماشاگر	-12.9229
ایسنا	-12.923
آرسنال	-12.9232
ازدواج	-12.9236
▁درآم	-12.9237
بازنشستگان	-12.9237
دستورالعمل	-12.9237
ناپذیر	-12.924
ماموریت	-12.9241
آکادمی	-12.9243
آدام	-12.9244
▁همجنسگرا	-12.9244
قاضی	-12.9246
سرکوب	-12.9246
پادتن	-12.9248
دسازی	-12.9251
▁ایرانشناس	-12.9256
انگر	-12.9257
مجسمه	-12.9259
تجهیزات	-12.9262
معامل	-12.9262
مرجان	-12.9262
تماشاگران	-12.9264
ورگ	-12.9266
اینترنت	-12.9267
تحولات	-12.9269
استفن	-12.927
پرتغال	-12.9272
ویایی	-12.9273
قتل	-12.9274
سوال	-12.9274
کیفیت	-12.9274
کریستیان	-12.9276
▁گزارشش	-12.9279
ارتی	-12.9283
▁محدو	-12.9285
خاورمیانه	-12.9286
▁کالیفرنیای	-12.9287
هیوندای	-12.9287
صادق	-12.9288
پاییز	-12.9288
غیر	-12.9289
تالاب	-12.9291
▁مختا	-12.9292
تدریج	-12.9295
شهرداری	-12.9295
جواب	-12.9295
فرونشست	-12.9296
عرص	-12.9297
پیوند	-12.9299
پانزده	-12.93
تماشای	-12.9302
نمایندگی	-12.9304
فروشگاه	-12.9304
مجری	-12.9306
لب	-12.9309
موکورمایکوزیس	-12.9312
مریخ	-12.9314
نچه	-12.9315
بازرسان	-12.9316
▁پائول	-12.9316
تروف	-12.9317
ذهن	-12.9317
پائیز	-12.932
حشمت	-12.9321
لینک	-12.9322
خانوارهای	-12.9324
راموس	-12.9325
وشه	-12.9326
▁حائ	-12.9328
مادرش	-12.9329
بلومبرگ	-12.9331
جنایت	-12.9331
▁مضا	-12.9332
شواهد	-12.9332
▁مسجدی	-12.9334
دایناسور	-12.9335
▁درآو	-12.9336
بیروت	-12.9337
کبیر	-12.9339
دموکرات	-12.934
مارتین	-12.9341
دیوار	-12.9341
نوروز	-12.9343
گوگل	-12.9343
▁روبا	-12.9344
▁آنه	-12.9344
عطرساز	-12.9344
کاغذ	-12.9345
تقوی	-12.9346
تکنولوژی	-12.9347
رمزارز	-12.9348
طاهر	-12.9349
مرتضی	-12.9349
چهاردهم	-12.935
انصاریان	-12.935
استراتژی	-12.935
عقرب	-12.9351
آلزایمر	-12.9352
توخل	-12.9354
محبت	-12.9354
باربارا	-12.9356
خوشبخت	-12.9356
مبنای	-12.9356
وانه	-12.9358
ایرباس	-12.9359
کوئ	-12.936
تعویض	-12.9361
▁قدی	-12.9361
گابریل	-12.9362
فستیوال	-12.9362
بشنوید	-12.9362
گیلبرت	-12.9363
دیوارنگار	-12.9363
گشای	-12.9364
خرمشهر	-12.9364
کیانوش	-12.9365
اشخاص	-12.9365
سوزاند	-12.9366
بلخ	-12.9366
فرندز	-12.9367
ماوریک	-12.9367
▁نست	-12.9367
بایدن	-12.9368
لوکا	-12.937
شهریار	-12.937
پژوهش	-12.9372
ماهشهر	-12.9372
انحصار	-12.9374
استودیوی	-12.9376
▁سينما	-12.9377
ساترا	-12.9379
▁قزوین	-12.9379
جلسات	-12.9382
سندگرن	-12.9383
عالی	-12.9384
ارتش	-12.9385
ابتدای	-12.9385
مطمئنا	-12.9388
▁بازجو	-12.9389
روش	-12.9389
ریختن	-12.9389
▁پتر	-12.939
جرد	-12.939
منشا	-12.9392
توگراف	-12.9394
▁سانتریفیوژها	-12.9394
حبو	-12.9395
▁لومب	-12.9397
جدال	-12.9399
آلن	-12.9399
صحیح	-12.94
ابهام	-12.9401
همسایه	-12.9402
▁فلسطین	-12.9403
امع	-12.9403
رابرت	-12.9404
کوبا	-12.9407
قبرس	-12.9408
آرمی	-12.9413
کنزو	-12.9415
جعفر	-12.9416
دادسرا	-12.9416
بریج	-12.9417
سسه	-12.942
▁بارکین	-12.942
▁نارنج	-12.9421
تراپی	-12.9422
زیاد	-12.9423
فشارها	-12.9423
یچه	-12.9424
پناه	-12.9425
مسلح	-12.9426
▁غفار	-12.9426
▁نخاع	-12.943
▁بلاتکلیف	-12.9431
اقتصاددان	-12.9432
حاف	-12.9433
معاش	-12.9435
▁بازگردان	-12.9437
نمادهای	-12.9439
▁ملیت	-12.944
فرض	-12.9444
شکوف	-12.9445
▁روئی	-12.9446
بلی	-12.9447
اکولوژی	-12.9449
کارلو	-12.945
▁مخف	-12.945
▁الط	-12.9451
زوئ	-12.9451
نرهای	-12.9453
تاریخی	-12.9462
▁رخدادها	-12.9463
استعفای	-12.9467
جیپ	-12.9467
پیکر	-12.9474
پرای	-12.9476
صید	-12.9478
پیشه	-12.9478
آمدن	-12.9479
نیایی	-12.9481
مدارگ	-12.9483
سروده	-12.9486
مفس	-12.9491
▁مدس	-12.9492
▁۱۰۷	-12.9493
▁افزارها	-12.9495
▁ارس	-12.9502
پیشرفته	-12.9503
ائونی	-12.9509
سمی	-12.951
▁روبل	-12.9511
رهبران	-12.9511
نجف	-12.9512
باقی	-12.9515
ضایع	-12.9517
پپ	-12.9521
▁نئ	-12.9523
ناو	-12.9525
گردند	-12.9526
▁دوشان	-12.9531
گردون	-12.9533
▁خاورمیان	-12.9534
▁هیب	-12.9535
▁امیدها	-12.9536
فرخ	-12.9539
▁نرساند	-12.9546
امضای	-12.9547
▁استرلی	-12.9547
▁ودیع	-12.9547
▁عت	-12.955
خالی	-12.9554
▁مشو	-12.9554
لطف	-12.9561
سیماس	-12.9563
اخترشناس	-12.9566
▁تهرا	-12.9568
▁مسلما	-12.9568
▁لطیف	-12.957
جور	-12.957
▁ریچ	-12.957
منافع	-12.957
ماراتن	-12.9571
طفی	-12.9571
بهبود	-12.9571
▁جنگجو	-12.9572
نهم	-12.9574
ارتر	-12.9575
متولی	-12.9576
▁جمهو	-12.9576
▁ترانزی	-12.9577
نزدیکان	-12.9578
هنری	-12.9578
▁افسا	-12.9587
صبا	-12.9594
عزیزی	-12.9595
خرجش	-12.96
دستگیری	-12.9601
راس	-12.9603
▁بقایا	-12.9605
ابوال	-12.9606
مگ	-12.9607
▁هراتی	-12.961
گذراند	-12.9612
مثل	-12.9613
ملیتی	-12.9619
کتر	-12.9629
▁گیگا	-12.963
اتین	-12.9631
اچی	-12.9632
درخت	-12.9632
▁آنگو	-12.9634
خاص	-12.9634
پارات	-12.9636
امور	-12.9648
گلوب	-12.9655
▁دیوارها	-12.9656
▁اپلیکیش	-12.9658
خب	-12.966
ستایش	-12.9661
یادی	-12.9661
▁الکترود	-12.9665
سینمای	-12.9667
فاو	-12.967
▁اعل	-12.9671
کارزار	-12.968
واجه	-12.9685
▁غافل	-12.9686
وشش	-12.9687
تمن	-12.969
▁سع	-12.9691
▁الاجر	-12.9696
وبل	-12.97
▁۱۲۱	-12.9702
غرب	-12.9705
پارتمان	-12.9706
▁کندبا	-12.9708
▁بپرداز	-12.971
موزگار	-12.971
▁نورا	-12.9714
▁جوکووی	-12.9714
▁پاخاسته	-12.9714
▁بورکینافاسو	-12.9714
ورتیکواستروئیدها	-12.9714
▁بولگاکف	-12.9714
▁تارانتینو	-12.9714
▁ثلاثه	-12.9714
▁جوردیزج	-12.9714
▁دگراندیش	-12.9714
▁رآکتور	-12.9714
▁معافيتها	-12.9714
▁میهایلوویچ	-12.9714
▁نیشیکوری	-12.9714
▁هوآیفنگ	-12.9714
▁گالاپاگوس	-12.9714
▁یوکوکورا	-12.9714
▁لیاخوف	-12.9714
▁اورنیتودیر	-12.9714
▁دزفول	-12.9714
▁دیکتاتور	-12.9714
▁رامهرمز	-12.9714
▁قنبرزاده	-12.9714
▁فراماسون	-12.9714
▁نويسند	-12.9714
▁هادیانفر	-12.9714
▁حوتاسفند	-12.9714
▁فخرالدینی	-12.9714
▁هلیکوپتر	-12.9714
▁پرینسخرا	-12.9714
▁مددکاران	-12.9714
▁هنجارشکن	-12.9714
▁شرافتمند	-12.9714
▁مالوچی	-12.9714
▁بورژوا	-12.9714
▁بلفاست	-12.9714
▁واچارا	-12.9714
▁رنگارنگ	-12.9714
▁پیکارجوی	-12.9714
▁اوکلاه	-12.9714
▁میکروفون	-12.9714
▁تکنسین	-12.9714
▁بازيگر	-12.9714
▁رادیوتلسکوپ	-12.9714
▁فمینیست	-12.9714
▁مفاسد	-12.9714
▁وسکات	-12.9714
▁گودرزی	-12.9715
▁دایموند	-12.9715
▁هورایزن	-12.9715
▁رهنمود	-12.9715
▁بلموندو	-12.9715
▁واچینگ	-12.9715
▁سوريه	-12.9715
▁عریض	-12.9715
▁آجرلو	-12.9715
▁فلفل	-12.9715
ستاگرام	-12.9716
▁عواطف	-12.9716
▁خونسرد	-12.9716
▁عبادت	-12.9716
▁سمنگان	-12.9716
▁ابریشم	-12.9716
▁انتقلات	-12.9716
▁عقوبت	-12.9716
▁نگذارند	-12.9717
▁بغض	-12.9717
▁تئودور	-12.9717
▁سوینتن	-12.9717
ندیس	-12.9717
▁قدرناشناس	-12.9717
▁باواریا	-12.9718
▁ریزتراشه	-12.9719
▁هایپریون	-12.9719
▁خرگوش	-12.972
▁پلاکاردهایی	-12.972
▁وآمدها	-12.972
▁ابرقهرمانی	-12.972
▁بازوبند	-12.9721
▁واتسون	-12.9721
▁پرچالش	-12.9721
▁ورزیدند	-12.9721
▁صابری	-12.9721
رچ	-12.9721
▁آسانژ	-12.9721
▁الشعرای	-12.9721
▁گنجایش	-12.9721
▁بزهکار	-12.9721
▁واقف	-12.9722
▁۱۷۴۷	-12.9723
▁وصیت	-12.9723
▁کلمبو	-12.9723
▁نورالهی	-12.9724
▁غرابت	-12.9724
▁بدردنخور	-12.9724
▁لامپ	-12.9724
فتارها	-12.9725
▁بسازند	-12.9726
▁شوشتر	-12.9726
ویس	-12.9726
ديگر	-12.9726
▁پرستو	-12.9727
انصاری	-12.9727
▁بالادستی	-12.9727
▁پرستویی	-12.9728
رافی	-12.9728
▁بنشینند	-12.9728
▁شراف	-12.973
▁ضدویروس	-12.9731
▁قاپید	-12.9732
▁معصومانه	-12.9732
▁بشوید	-12.9733
▁سمینار	-12.9733
▁گندم	-12.9735
▁ببندد	-12.9736
▁اردیب	-12.9736
▁بشناسیم	-12.9736
▁ناخدا	-12.9737
▁نشیمن	-12.9737
▁جرو	-12.9737
مب	-12.9738
▁زوکر	-12.9738
سکان	-12.9738
بروکس	-12.9739
▁فرایدی	-12.9739
هنر	-12.974
▁نرفتیم	-12.974
▁کلارین	-12.974
▁سالوادور	-12.974
▁برمودا	-12.974
▁نترس	-12.9742
شاد	-12.9742
▁الاح	-12.9742
باکرگی	-12.9742
▁جوبیل	-12.9743
▁تایماز	-12.9743
▁اوتاوا	-12.9743
▁کلودیون	-12.9744
▁غیردقیق	-12.9744
▁موریسون	-12.9745
▁۱۳۵۵	-12.9746
▁۱۳۲۳	-12.9748
▁ومعرف	-12.9748
▁بولیوی	-12.9748
▁شیمیدان	-12.975
فذ	-12.975
انگیخت	-12.975
▁هواخواهان	-12.9751
▁بغل	-12.9752
▁تویتت	-12.9752
▁فراقانونی	-12.9752
ژگان	-12.9752
تیاگو	-12.9752
▁بیایید	-12.9753
▁یوکو	-12.9753
شکر	-12.9754
▁رقابتها	-12.9755
بارور	-12.9755
▁برآید	-12.9755
کون	-12.9755
یورو	-12.9756
▁وروو	-12.9756
▁انجیل	-12.9757
▁نامتناسب	-12.9758
يگ	-12.9758
▁بنویسد	-12.9761
▁لنکش	-12.9763
▁رعیت	-12.9763
دونا	-12.9763
▁اوتنز	-12.9763
رعب	-12.9766
▁۷۲۲	-12.9766
▁تکریم	-12.9766
▁بیولو	-12.9768
▁بنویسم	-12.9769
▁قرائ	-12.9769
▁رازگشای	-12.9769
▁کسوف	-12.9769
ریتانی	-12.9769
▁شنوایی	-12.977
▁دیلن	-12.977
▁کواکس	-12.9771
▁آلابا	-12.9772
▁بگذری	-12.9772
یندازیم	-12.9774
▁خانلو	-12.9774
▁پورنو	-12.9775
▁روایات	-12.9775
▁نامهربان	-12.9776
▁کانتونا	-12.9776
بیورن	-12.9776
وهنورد	-12.9777
▁روسکو	-12.9777
سوخته	-12.9778
▁خاورشناس	-12.9778
▁زردشت	-12.9779
▁مرغوب	-12.9782
▁داینا	-12.9782
▁بازگردند	-12.9783
شگفت	-12.9783
▁ناتو	-12.9786
▁شمشیر	-12.9788
سبک	-12.9789
▁خندند	-12.9791
وتنز	-12.9791
مترو	-12.9791
▁داوو	-12.9793
ونس	-12.9794
▁کتا	-12.9794
داخته	-12.9795
▁رهنوش	-12.9797
▁۴۱۰	-12.9798
عطف	-12.98
▁آناتول	-12.9801
پشمک	-12.9801
خمری	-12.9802
▁لوکوم	-12.9803
دخواهانه	-12.9804
۰۹	-12.9805
▁لنفو	-12.9806
▁همدستان	-12.9806
وستان	-12.9807
عمیق	-12.9808
▁بخوان	-12.981
جمعی	-12.9811
▁دال	-12.9813
دوبندها	-12.9815
ستشوی	-12.9816
▁متأ	-12.9817
▁غواصان	-12.9817
▁سنسور	-12.9819
فرانک	-12.9821
بوت	-12.9822
▁مانو	-12.9823
کمپ	-12.9824
▁حکاک	-12.9825
▁ندانستند	-12.9826
▁اکشن	-12.9826
زاي	-12.9828
▁سرآمد	-12.9829
بولت	-12.983
استیون	-12.983
غور	-12.9832
▁ابداعات	-12.9832
▁تفنگدار	-12.9833
پیانیست	-12.9841
▁درآمدن	-12.9846
بساط	-12.9848
▁عنف	-12.9849
▁گشاید	-12.9849
▁نع	-12.9849
▁یورکش	-12.9851
▁سانتر	-12.9853
▁بسازم	-12.9859
▁رخشان	-12.986
ردبان	-12.986
▁اسفن	-12.986
▁خواباند	-12.9862
دسیمون	-12.9863
رزیدن	-12.9866
فرانسیسکو	-12.9866
▁تکاپو	-12.9867
▁میزنند	-12.9871
▁لافت	-12.9874
حاک	-12.9874
▁مخلوط	-12.9875
▁پوشاندند	-12.9876
▁تهدیدها	-12.9878
▁آدمکها	-12.9879
▁اختر	-12.9879
▁کوچکتری	-12.9886
▁متح	-12.9886
▁نگرفتم	-12.9888
▁بپیچ	-12.9888
بکار	-12.989
کلت	-12.9891
▁فلام	-12.9893
▁جاه	-12.9894
غذی	-12.9897
اینتس	-12.9897
انندگان	-12.9897
▁فروتن	-12.9897
▁گلگیر	-12.9901
▁برگرداندند	-12.9901
▁مترو	-12.9903
▁نکردیم	-12.9904
▁اصالتا	-12.9905
▁باارزش	-12.9905
جوانی	-12.9905
▁واتس	-12.9905
▁کورتون	-12.9907
غات	-12.9907
روف	-12.9912
پزشکان	-12.9912
▁ریپل	-12.9913
غذیه	-12.9917
پان	-12.9921
▁مونتری	-12.9922
یای	-12.9922
▁رفتارش	-12.9925
▁استنلی	-12.9925
▁تهاتر	-12.9929
آندر	-12.9931
▁نهادها	-12.9933
▁بیندیش	-12.9934
▁چمبر	-12.9934
▁مانورهای	-12.9941
▁نرسد	-12.9941
▁کولبران	-12.9944
کوویچ	-12.9946
▁بشناسی	-12.9946
▁فریبکار	-12.9948
▁متکب	-12.9953
▁رقصیدن	-12.9953
▁اوباش	-12.9954
▁گریگوری	-12.9955
▁پاندا	-12.9955
مام	-12.9958
▁گماشت	-12.9959
افیای	-12.9961
▁روده	-12.9962
▁بولد	-12.9963
▁بکاه	-12.9964
▁خرابکاران	-12.9965
▁صب	-12.9966
شیا	-12.9966
▁نرسانده	-12.9969
▁ناباور	-12.9972
▁بندها	-12.9976
لبی	-12.998
▁آشتیان	-12.9981
▁شتابزد	-12.9988
▁استعدادیاب	-12.9989
▁راهگشا	-12.9989
▁وکا	-12.9991
▁گسست	-12.9992
▁درگذشتگ	-12.9992
▁نرسیدند	-12.9993
▁فنر	-12.9993
دلیلش	-12.9994
نتخاباتی	-12.9995
▁ایز	-12.9995
گردانیم	-12.9999
▁بسپار	-13.0001
▁رساندیم	-13.0002
▁ژائ	-13.0003
▁موکور	-13.0003
▁گچ	-13.0005
▁سرگی	-13.0012
تص	-13.0012
▁کسا	-13.0016
لئون	-13.0024
رابط	-13.0026
▁فغان	-13.0027
▁مسخ	-13.0028
کثیر	-13.0031
ایرا	-13.0038
▁نخاعی	-13.004
کستان	-13.0041
اتمی	-13.0043
▁تحم	-13.0043
وگرافی	-13.0044
ردام	-13.0047
▁آنتیگو	-13.0047
مینی	-13.0048
▁حادتر	-13.0048
بنوی	-13.0058
▁آلپ	-13.0059
▁قزوینی	-13.006
▁سينمای	-13.0062
▁مأ	-13.0064
▁شنود	-13.0067
▁اولیان	-13.0069
ضطر	-13.0072
پانی	-13.0073
▁متنفری	-13.0074
ساس	-13.0082
▁بساط	-13.0082
▁غیرع	-13.0083
▁شارپ	-13.0083
وادور	-13.0086
▁خرنامه	-13.0091
▁بروک	-13.0095
▁رهن	-13.0097
▁سوزد	-13.0099
▁میچ	-13.0099
▁تبرهای	-13.01
▁ناراحتم	-13.0101
▁مقالات	-13.0103
▁اینترف	-13.0103
▁سپی	-13.0105
یزلی	-13.0106
▁کبیر	-13.0107
موسی	-13.0107
شعب	-13.0108
▁بحری	-13.0109
▁غربال	-13.011
یاط	-13.0114
برج	-13.012
▁یورک	-13.012
چینگ	-13.0121
▁گوتر	-13.0122
▁حشمت	-13.0124
▁موکورمایکوزیس	-13.0132
▁شبستری	-13.0135
▁واژگان	-13.014
▁وجد	-13.0142
▁غیرم	-13.0146
▁تابعی	-13.0149
واگذار	-13.0149
▁آرشی	-13.0149
لیپین	-13.0152
دونده	-13.0154
▁اثرها	-13.0186
▁بردارند	-13.0188
▁فرستادند	-13.0189
▁غنای	-13.019
▁خیرخواه	-13.0193
▁بخوانی	-13.0197
سیاه	-13.0199
▁گردآمد	-13.0202
پراتور	-13.0202
▁اکسی	-13.0203
مساعد	-13.0209
▁برخوردارند	-13.021
▁گردو	-13.0211
▁قایقران	-13.0212
آخر	-13.0212
▁یلدا	-13.0212
▁مارات	-13.0218
▁همجنسگرای	-13.0223
قایی	-13.0225
▁اندبا	-13.0226
رسیتی	-13.0231
▁توما	-13.0235
▁کتابها	-13.0243
رایزن	-13.0245
▁بارکی	-13.025
▁الاسلام	-13.0251
امبو	-13.0254
▁گمارد	-13.0256
ئویی	-13.0266
▁لارس	-13.0268
▁پویش	-13.0268
▁زدیم	-13.0269
▁تکراری	-13.0272
▁واعظی	-13.0282
▁عبدالح	-13.0283
▁هورمونی	-13.0283
▁وسکو	-13.0283
▁مارلو	-13.0288
▁نمک	-13.0289
▁جهنمی	-13.0289
▁پاکیز	-13.029
سترش	-13.0292
▁گندی	-13.0294
▁زیور	-13.0295
۷۰۰	-13.0297
هده	-13.0299
خوانید	-13.0307
سیمون	-13.0311
▁الشهدا	-13.0315
تحقیقی	-13.0319
▁اوستر	-13.0327
▁فرانس	-13.033
▁والنتین	-13.033
▁هلا	-13.0331
▁سودده	-13.0331
اهواز	-13.0335
▁آبخو	-13.0335
فاق	-13.0347
▁هورن	-13.0359
مولان	-13.0362
▁کوچی	-13.0363
بهر	-13.0365
▁داستانها	-13.0369
▁لانک	-13.037
رصد	-13.0387
ارزیا	-13.0391
▁بولدو	-13.0392
▁درآمدش	-13.0399
▁نیس	-13.0401
وهای	-13.0408
▁چنار	-13.041
ورانگو	-13.0411
▁گواه	-13.042
فیف	-13.0421
▁سلامتش	-13.0421
▁آوازم	-13.0424
▁مارگار	-13.0425
۷۴	-13.0431
حرم	-13.0431
▁اندی	-13.0433
سوا	-13.0441
ناکا	-13.0441
مبا	-13.0445
▁کولا	-13.0446
خسار	-13.045
استروئیدها	-13.0453
▁داکا	-13.0454
▁جنگیم	-13.0462
▁نزند	-13.0462
▁کاشت	-13.0463
یاهو	-13.0464
▁اسکندر	-13.0464
▁گردآ	-13.0465
▁گذا	-13.0469
▁منصف	-13.047
▁میشود	-13.0473
▁سرگ	-13.0476
تراژ	-13.0478
▁جانک	-13.0481
رمو	-13.0481
بلک	-13.0482
یناوی	-13.0486
▁موندی	-13.049
الکسا	-13.0493
▁استادکار	-13.0497
▁دمش	-13.0498
الیات	-13.0498
▁پهپادهای	-13.0499
مرک	-13.0501
▁مقدا	-13.0502
▁رحیم	-13.0504
گوی	-13.051
▁صدیق	-13.0517
▁دستبند	-13.0522
انگلر	-13.0526
بورک	-13.0527
مشاهی	-13.0532
بناب	-13.0533
ناور	-13.0535
▁تغییرهای	-13.054
▁متش	-13.0545
امرویل	-13.0553
تهام	-13.0562
▁کارآگاه	-13.0568
▁فابیان	-13.0574
▁غیرقا	-13.0579
▁آژا	-13.0579
ریخت	-13.0592
▁بسط	-13.0593
▁عص	-13.0595
غازه	-13.0596
▁معای	-13.0602
▁مستر	-13.0604
▁ژست	-13.0605
خاش	-13.0609
▁چانگ	-13.0609
بعه	-13.0613
▁نترسید	-13.0613
▁بریزب	-13.062
راپ	-13.0623
▁مخت	-13.063
نکس	-13.063
ودزاده	-13.063
▁آفریدندم	-13.0634
زیک	-13.0634
▁میکند	-13.0636
سرخ	-13.0639
▁کالیفرنیایی	-13.0639
▁درآور	-13.0643
ابه	-13.0654
▁پالی	-13.0656
دافع	-13.0658
روسکوپ	-13.0663
▁استادی	-13.0665
▁ساختیم	-13.0675
▁فرانکن	-13.068
▁گالا	-13.0691
▁بوردو	-13.0696
شین	-13.0699
ابراهیمی	-13.0699
خری	-13.07
▁باک	-13.0702
▁آزمایند	-13.0703
▁امروزش	-13.0707
فهیم	-13.0707
رسیده	-13.0711
▁اعلامی	-13.0711
▁مشغولند	-13.0715
موفق	-13.0722
▁هاینر	-13.0728
▁برداریم	-13.073
تلاق	-13.0735
گذران	-13.0752
▁کشا	-13.0757
پنها	-13.0766
▁پربار	-13.0769
▁هیکل	-13.0772
▁براندا	-13.0781
چیان	-13.0785
▁مظ	-13.0789
▁هدفم	-13.0802
یمز	-13.0813
راکتور	-13.0817
▁معتر	-13.0823
▁برخوردند	-13.083
ورگین	-13.0832
شکات	-13.0833
۴۷	-13.0835
▁نکردم	-13.0836
فاخر	-13.0844
پسند	-13.0847
دحال	-13.0847
خیز	-13.0852
▁گرانت	-13.0853
▁چم	-13.0857
▁سرلش	-13.0857
▁همزی	-13.0866
▁تعزی	-13.0872
مرا	-13.0876
▁خواندم	-13.0878
لود	-13.0879
سترد	-13.0889
▁دائما	-13.0892
انشان	-13.0893
یرویز	-13.0896
یرا	-13.0907
▁گسترد	-13.092
تمع	-13.0923
▁بنشین	-13.0923
▁بدبین	-13.0931
▁استوای	-13.0953
▁پاي	-13.0956
نتال	-13.096
▁اکرمی	-13.096
▁غز	-13.0969
خار	-13.0974
▁آریز	-13.0975
میچ	-13.0989
باوری	-13.0993
▁بام	-13.0995
رپر	-13.0996
ریدلی	-13.0997
▁اسپری	-13.1004
ارم	-13.1006
ئن	-13.102
مارس	-13.1021
▁توریس	-13.1022
▁فیزیوتراپی	-13.1028
▁بوق	-13.1033
فراز	-13.1034
▁اسپان	-13.1042
بردن	-13.1044
▁بیو	-13.1051
▁عن	-13.1057
▁مالت	-13.1062
گزین	-13.1066
کوتا	-13.1071
▁کود	-13.1073
▁رکسا	-13.1085
تف	-13.1085
میانه	-13.1096
▁بول	-13.1097
▁مکث	-13.1104
یکس	-13.1106
دائی	-13.1106
یوهان	-13.1107
▁خاط	-13.1108
▁اسپو	-13.1108
▁نکاست	-13.1112
اریو	-13.1112
قان	-13.1119
۹۳۹	-13.1124
▁اشتری	-13.1128
▁هندو	-13.1131
۹۱۲	-13.1131
▁بندند	-13.1144
▁میا	-13.1144
▁فراه	-13.1151
پرسینگ	-13.1157
شناس	-13.116
▁گلستانک	-13.116
▁حماس	-13.1184
▁امیل	-13.1193
بعیدی	-13.1215
اتریو	-13.1215
یسه	-13.1219
امدهای	-13.1223
ستم	-13.1225
▁سبیل	-13.1226
▁بازن	-13.1231
▁منا	-13.1233
العمل	-13.1233
ازار	-13.1234
▁همدست	-13.1237
خامت	-13.1242
بوش	-13.1244
ئولی	-13.1245
▁تندر	-13.1249
▁رسوب	-13.125
▁قوان	-13.125
دستی	-13.1253
ایرانی	-13.1255
رستان	-13.1257
خوار	-13.1261
نشاهی	-13.1262
توپ	-13.1265
هامر	-13.1268
ظره	-13.1268
▁رسو	-13.1279
ورنال	-13.1287
اطع	-13.1289
جاب	-13.1301
بندها	-13.1311
ادر	-13.1318
▁استکمی	-13.132
پسر	-13.1326
▁ناکا	-13.1329
پذیری	-13.1331
▁زیا	-13.1348
▁خفت	-13.1352
▁پژوه	-13.1367
وواک	-13.1367
▁ردی	-13.1372
غیان	-13.1373
یما	-13.1374
▁کورن	-13.1374
رسانده	-13.1375
زیا	-13.1376
▁ویز	-13.1377
▁دیپل	-13.1397
الک	-13.141
تحری	-13.1412
رویش	-13.142
▁خانو	-13.1423
دهای	-13.1427
▁جبر	-13.1429
درمیان	-13.1432
لمن	-13.1436
یابانی	-13.1437
تاق	-13.1443
لیان	-13.1445
منوعیت	-13.1459
▁اندمحمد	-13.1464
▁گزار	-13.1467
ونتو	-13.1467
▁شف	-13.1475
▁قای	-13.1478
▁گلها	-13.148
ئین	-13.1481
▁نوش	-13.1485
ریش	-13.151
▁درهایش	-13.1511
▁ستیز	-13.1523
ستانی	-13.1531
گمان	-13.1534
رار	-13.1535
▁جنگیدن	-13.1537
ورن	-13.1537
▁نوده	-13.1538
▁عطری	-13.1539
▁جیو	-13.1544
▁گراند	-13.1553
افی	-13.1553
▁نقط	-13.1562
▁فریم	-13.1567
▁استراز	-13.157
▁چسب	-13.157
امو	-13.1584
عبدالو	-13.1584
▁حسابش	-13.1585
▁اندر	-13.1598
▁دریابا	-13.1603
▁اورن	-13.1606
▁الان	-13.1607
روان	-13.1617
ریال	-13.1619
قدیم	-13.1619
شمول	-13.1619
اتکلیف	-13.1623
دوستد	-13.1637
▁بارد	-13.1643
صی	-13.1646
بارون	-13.1649
▁صر	-13.1654
▁عب	-13.1661
▁متاب	-13.1669
تیس	-13.1672
عفر	-13.1673
نوس	-13.1679
رتون	-13.1682
اطب	-13.1701
▁باورهای	-13.1702
▁البد	-13.1703
تروسپ	-13.1707
▁گان	-13.1709
ویت	-13.171
یکن	-13.1711
▁پین	-13.1727
رزی	-13.1749
۲۶۰	-13.176
طه	-13.1762
ارسیا	-13.1771
ايش	-13.1788
▁نداری	-13.1789
لیف	-13.1801
۹۶۰	-13.1806
▁پاراد	-13.1811
اهد	-13.1822
▁بشویی	-13.1828
یاری	-13.1829
موتورها	-13.1839
▁نابینای	-13.1842
فتند	-13.1844
▁عواقبی	-13.1846
میتسو	-13.1852
▁صدرا	-13.1856
▁کرمانشاهی	-13.1857
▁رسیدیم	-13.1859
▁پلات	-13.1869
▁پرفروشی	-13.1877
▁حری	-13.188
▁بزرگتری	-13.1885
▁حدود۲	-13.1888
▁ننوشت	-13.1891
▁گارس	-13.1893
▁خودت	-13.1893
▁نبی	-13.1894
زان	-13.1896
▁صور	-13.1906
یلتون	-13.1908
▁صو	-13.1922
برون	-13.193
▁موم	-13.1936
▁ناخو	-13.1956
▁زال	-13.1958
▁بگری	-13.1961
▁نظرها	-13.1962
رکنا	-13.1963
▁نخرید	-13.1967
▁گنجه	-13.1977
افشانی	-13.1978
▁گردم	-13.1984
▁اتفاقا	-13.1986
نتن	-13.199
بیلی	-13.1994
رض	-13.1995
مایی	-13.1996
▁صنو	-13.2016
اروج	-13.2017
▁مفس	-13.2019
موثر	-13.202
▁ماتیس	-13.2031
شیروان	-13.2032
▁رامین	-13.2039
ودور	-13.2045
▁لع	-13.2053
▁دورا	-13.2057
ساط	-13.2057
مکار	-13.2061
▁انتقالش	-13.2078
▁تورس	-13.2085
سیام	-13.2085
▁تول	-13.2086
جین	-13.2092
▁ماندم	-13.2094
لخ	-13.2115
▁وسائ	-13.2115
مداران	-13.2123
▁تیمور	-13.2123
▁فرزندانم	-13.2127
والدی	-13.2127
بودن	-13.2129
تش	-13.2134
▁شال	-13.2135
▁اکو	-13.2137
▁عاشورا	-13.214
طنت	-13.2146
عبور	-13.2148
مکانی	-13.2151
▁پشتی	-13.216
▁قاتلی	-13.2161
فرت	-13.2175
لوح	-13.2184
رماخ	-13.2185
▁بط	-13.2188
▁نقوی	-13.2202
پال	-13.2207
▁اورت	-13.221
▁ایش	-13.2216
....	-13.2224
۹۲	-13.2241
▁دیری	-13.2257
شیاری	-13.2268
▁نشو	-13.2268
رهام	-13.2277
مارکان	-13.229
▁برسم	-13.2292
تپل	-13.2295
▁معر	-13.23
انچی	-13.2317
▁درازا	-13.2327
زاس	-13.2332
اگان	-13.2344
▁خرو	-13.2345
▁مومن	-13.2355
▁بمیر	-13.2358
فیو	-13.2371
نظم	-13.2374
نیما	-13.2375
کولبر	-13.238
انگشت	-13.2386
یوه	-13.2387
▁شیپ	-13.2388
▁امپ	-13.2393
یکسا	-13.2398
غدار	-13.2401
▁صنا	-13.2407
▁هیک	-13.241
ضا	-13.2414
▁بشمر	-13.242
▁کنت	-13.2424
▁آیوا	-13.2426
تعرض	-13.2431
▁دوبل	-13.2432
▁مرب	-13.2441
▁نط	-13.2458
ستردا	-13.2462
زیست	-13.2466
▁هید	-13.2475
▁پوم	-13.2477
ماس	-13.2477
انسه	-13.2486
یسک	-13.2496
▁تاریکتر	-13.2498
▁الد	-13.2508
یپ	-13.2509
ارج	-13.251
برو	-13.2511
عبدالم	-13.2511
▁گیریم	-13.2514
راکسی	-13.2516
آمدی	-13.2518
اص	-13.2522
عم	-13.2554
کاس	-13.2562
▁شعبا	-13.2564
خلق	-13.2573
▁پش	-13.2573
▁پلت	-13.2573
▁ویرا	-13.2593
جباری	-13.2598
کرز	-13.2605
▁نص	-13.2609
عب	-13.262
▁هال	-13.2627
ریو	-13.2631
▁باردو	-13.2633
دعوا	-13.264
زرد	-13.2642
آدریا	-13.2645
ستاده	-13.2653
گردیده	-13.2665
▁سمع	-13.2675
▁دینامی	-13.2678
ابا	-13.2685
▁چشمم	-13.2699
▁پیوندان	-13.27
▁رژ	-13.2703
فرا	-13.2704
▁صیا	-13.2707
فرمانی	-13.2708
چا	-13.2724
سیس	-13.2735
لیا	-13.2743
پائی	-13.2764
سولا	-13.2766
▁هنرش	-13.2777
وتر	-13.2781
دگار	-13.2787
وزه	-13.2803
▁آک	-13.2809
دیوی	-13.2811
▁گنا	-13.2817
گد	-13.2821
روشی	-13.2827
گير	-13.2832
یتون	-13.2834
▁خور	-13.2845
▁کاغذها	-13.2853
طیب	-13.2854
▁دوخت	-13.2867
هد	-13.2869
جریان	-13.2869
▁ویلیامس	-13.287
▁الری	-13.2875
▁منش	-13.2878
▁فد	-13.2888
جانا	-13.2901
▁رباتی	-13.2919
ازن	-13.2944
تلف	-13.2944
دلب	-13.2952
روری	-13.2954
▁فشا	-13.2955
▁مشک	-13.2977
سط	-13.2988
▁خست	-13.2997
▁موید	-13.2999
▁جوید	-13.2999
رنو	-13.301
▁سطل	-13.3011
▁گلاس	-13.302
لیخ	-13.3025
▁ویلی	-13.3028
کلر	-13.3039
تنبور	-13.3044
قیق	-13.3045
ترود	-13.3045
▁عادلا	-13.3045
ورها	-13.3046
تهم	-13.3055
▁سرل	-13.3062
▁پانز	-13.3067
یعت	-13.3078
▁برانداز	-13.3082
امن	-13.3094
امر	-13.3107
نکا	-13.3108
رقیق	-13.311
شخصی	-13.3123
▁لور	-13.3128
زارهای	-13.3133
▁رق	-13.314
▁پاشی	-13.3158
▁بخو	-13.3172
▁دهن	-13.318
▁ناامیدی	-13.318
موم	-13.3188
اتم	-13.3195
اسیو	-13.32
علام	-13.3202
▁همنوا	-13.3207
وتا	-13.3217
سپیر	-13.3224
کایین	-13.3242
▁گردهما	-13.3245
لن	-13.3258
معی	-13.3261
▁مونو	-13.3262
▁گیلا	-13.3262
رمیم	-13.327
▁پنجاهم	-13.3277
▁فص	-13.3282
۸۳	-13.3344
اسک	-13.3353
سپارد	-13.3376
▁میزبانان	-13.3378
اکا	-13.3388
▁في	-13.341
▁نامیدن	-13.3426
▁مشترکا	-13.3432
روت	-13.3438
قض	-13.3443
پروف	-13.346
تئو	-13.3475
؟'	-13.3481
گاس	-13.3486
▁موقر	-13.3493
▁هامحمد	-13.3511
▁بوت	-13.3513
▁بدتری	-13.3517
یکل	-13.353
دهه	-13.3551
▁محمودی	-13.3575
سگ	-13.3577
▁استخرا	-13.3581
▁دانل	-13.3582
▁ونت	-13.3583
صور	-13.3598
شعا	-13.3604
ژیر	-13.3604
تأ	-13.3612
یتو	-13.3619
▁نول	-13.3621
اپیما	-13.3628
پیس	-13.3632
▁صع	-13.3641
میر	-13.3642
دیک	-13.3643
گاو	-13.3643
▁تباه	-13.3656
بستگ	-13.3657
یض	-13.3663
روزی	-13.3668
▁صفی	-13.3686
اشق	-13.3689
مردی	-13.3691
▁فینل	-13.3694
۴۸	-13.3702
▁بورسی	-13.3702
گلیسم	-13.3704
▁غای	-13.3707
▁کاستل	-13.3713
سف	-13.3723
▁درگذشتند	-13.3723
▁واحده	-13.3725
روفی	-13.3739
▁کمپا	-13.3744
▁برع	-13.3767
گوئ	-13.3768
یگان	-13.378
ارهای	-13.3785
▁میلانی	-13.381
▁سروک	-13.3815
▁میتوان	-13.3822
آئو	-13.3831
الگرد	-13.3835
▁معترضی	-13.384
▁آرس	-13.3843
▁تبعی	-13.3858
▁عبدالر	-13.386
▁کاندید	-13.3862
یتی	-13.3881
▁۱۸۷	-13.3884
ورنتین	-13.3898
▁پیراهنش	-13.3903
▁صی	-13.391
▁عجم	-13.3912
حوال	-13.3915
پری	-13.3921
▁عبدالو	-13.3934
▁گذاشتد	-13.394
▁اسلون	-13.3942
▁کلاسها	-13.3949
▁۱۷۸	-13.3949
یابند	-13.3952
▁مدی	-13.396
ودرو	-13.3962
شبی	-13.3968
▁بونو	-13.397
▁سرخورد	-13.3972
موزی	-13.3975
▁همت	-13.3978
▁کازو	-13.399
دوی	-13.3992
▁ناتالی	-13.3993
ذیر	-13.3995
▁اعلا	-13.4
▁گیرا	-13.4036
▁بغ	-13.4046
▁گلش	-13.4047
میرز	-13.4056
▁آنی	-13.4061
شهره	-13.4061
▁راکل	-13.4062
▁پاشیدن	-13.407
۵۴	-13.4104
لول	-13.4111
قناع	-13.413
ریستو	-13.4131
▁بي	-13.4132
نگت	-13.4143
گام	-13.4148
▁آیزا	-13.4151
▁انج	-13.4153
اسم	-13.4166
▁لیورپولی	-13.417
انزی	-13.4181
وساز	-13.4204
لویی	-13.4228
▁مبل	-13.4241
کلا	-13.4241
قیقه	-13.4245
▁بوین	-13.4254
▁بازد	-13.4275
اعات	-13.4289
▁ساس	-13.4305
عاده	-13.4307
داش	-13.4317
کاک	-13.4325
درکلان	-13.4357
فراغ	-13.4372
▁نخود	-13.4381
ونما	-13.4385
یارا	-13.4393
برند	-13.4396
▁واسک	-13.4399
▁هاس	-13.4403
فرام	-13.4405
امان	-13.4411
▁پره	-13.4416
▁داغتر	-13.4422
تامین	-13.4436
ریچه	-13.4443
▁ژس	-13.4444
ضیه	-13.4446
▁حما	-13.4451
هت	-13.4465
ذر	-13.4466
سیدن	-13.447
▁رابی	-13.4475
▁حساسی	-13.4477
▁آیلی	-13.4495
وروف	-13.45
صاص	-13.4503
اماتیک	-13.4514
لیزا	-13.4553
▁سپاری	-13.4561
درت	-13.4567
▁آمل	-13.4567
رشدی	-13.4577
▁آیو	-13.4578
▁پاکن	-13.4581
▁میخ	-13.4587
ایز	-13.4599
▁اوسا	-13.4601
دارد	-13.4623
اتوار	-13.4632
▁استشما	-13.4644
▁درعی	-13.4644
الیا	-13.4659
ستمز	-13.4675
▁آنج	-13.4683
▁گزارشهای	-13.4683
▁کوپ	-13.4696
پیچ	-13.4713
لام	-13.4727
▁تعار	-13.4728
ولو	-13.4736
▁رادیک	-13.4737
تابو	-13.4747
وشند	-13.4748
شستن	-13.4752
▁یافتم	-13.4757
یکت	-13.4757
▁ارگانی	-13.4762
دش	-13.4768
ردیف	-13.4772
▁ایرانمقام	-13.4789
لنگر	-13.4791
پیمای	-13.4797
بودند	-13.48
شکاران	-13.4802
▁شودبر	-13.4807
▁اینه	-13.4811
تخم	-13.4826
▁رئیسان	-13.4839
زاوی	-13.4859
▁سکونتش	-13.4863
جهانی	-13.4869
عط	-13.4877
هستند	-13.4885
▁اینت	-13.4886
▁وسو	-13.4903
▁بیفت	-13.4904
▁ایما	-13.4905
▁دوی	-13.4908
ماندند	-13.4937
▁بپوشان	-13.4943
رائ	-13.4946
▁برگز	-13.4946
▁غری	-13.4947
▁جش	-13.4953
تبر	-13.4955
کتور	-13.4958
یچی	-13.4979
ئ	-13.5002
یرس	-13.5008
▁پاشو	-13.5009
▁سرورها	-13.501
نزی	-13.502
ژیک	-13.5021
۰۲	-13.5024
▁رسیدنددو	-13.503
داند	-13.5033
هیجان	-13.5052
▁ایستو	-13.5055
زگی	-13.5065
ارگری	-13.5087
▁سمن	-13.5104
▁استلا	-13.5111
کورت	-13.5115
▁مینگ	-13.5136
▁ِ	-13.5149
بهشت	-13.5154
▁منص	-13.5156
▁پز	-13.5158
سینا	-13.5163
معه	-13.5171
خریدند	-13.5178
فیر	-13.518
فتی	-13.518
اکمل	-13.5205
تحق	-13.5217
▁کامیونی	-13.5223
▁جول	-13.5223
بیا	-13.5237
وهش	-13.5245
▁تفر	-13.5249
گش	-13.5255
▁گیرم	-13.5277
▁موی	-13.5283
نوار	-13.5303
قدان	-13.5309
ماز	-13.5309
▁مرده	-13.532
▁و۲	-13.5328
▁فاطمی	-13.5338
اخلاق	-13.5352
▁گردی	-13.5352
▁ضخ	-13.5354
لودی	-13.5363
▁حامله	-13.5371
▁ضرو	-13.5378
▁اکسپو	-13.538
▁هانت	-13.5383
▁چکی	-13.5392
بهانه	-13.5393
سات	-13.541
ندن	-13.5414
وپول	-13.5415
ریگو	-13.5419
▁افز	-13.5436
▁وزرش	-13.5439
▁مادو	-13.546
اي	-13.5466
رنامه	-13.547
حد	-13.5473
قتی	-13.5498
▁بازگشتن	-13.5498
گانی	-13.5501
▁معال	-13.5527
▁ویو	-13.5531
زل	-13.555
اذ	-13.5551
واس	-13.5553
رخواهی	-13.5554
ستره	-13.5557
برم	-13.5563
رایتون	-13.5571
دئو	-13.5574
▁یولی	-13.5576
▁عبداله	-13.558
دیکت	-13.5586
تمان	-13.5588
▁ماکرو	-13.559
اشبور	-13.5596
▁پلن	-13.5597
ولد	-13.5604
▁ببند	-13.5608
▁ووت	-13.5608
دبی	-13.5616
▁فروشگاهها	-13.5629
▁کران	-13.5652
▁پوشی	-13.5663
۰۳	-13.5669
نخ	-13.5671
ابن	-13.5679
نقا	-13.569
▁خودد	-13.5697
یلمن	-13.57
▁زندگ	-13.5705
نقیب	-13.5725
▁دوروت	-13.5727
واکسن	-13.5733
هب	-13.5742
وبه	-13.5753
یانه	-13.5756
▁متع	-13.5757
سائل	-13.577
رلند	-13.577
آما	-13.5785
ضم	-13.5792
ومه	-13.5799
خوب	-13.5806
کف	-13.5844
دقت	-13.5845
▁کیک	-13.5849
وبار	-13.5865
رستی	-13.5866
▁باکر	-13.5873
رپ	-13.5878
دیل	-13.5891
زبال	-13.5891
▁فرس	-13.5908
گویند	-13.5908
فیت	-13.591
▁کجاها	-13.5918
خورند	-13.5918
رخواست	-13.5918
▁تد	-13.592
انتانا	-13.5927
آزمو	-13.5929
قر	-13.5931
دیتر	-13.5933
▁ظاهرش	-13.5933
یانی	-13.5935
حیط	-13.5943
مچ	-13.595
۵۲	-13.5953
▁شکای	-13.596
اغت	-13.5962
▁لیری	-13.5974
اورز	-13.5976
▁نابی	-13.5983
▁کالی	-13.5993
ونومی	-13.5996
درست	-13.5996
لوکه	-13.6003
سازان	-13.6006
درم	-13.6013
▁ادوا	-13.6019
▁جفا	-13.6023
▁دربست	-13.603
گسترد	-13.6032
المللی	-13.6035
▁آلف	-13.6046
درو	-13.605
▁نزدی	-13.6052
▁مز	-13.6053
ونای	-13.606
وبا	-13.6069
دیس	-13.6072
▁جما	-13.6075
پولیتیک	-13.6082
▁سوزن	-13.6083
نموده	-13.6083
کیف	-13.6101
▁بازها	-13.6105
▁هرز	-13.6109
▁کاره	-13.614
نزمن	-13.6141
▁مرو	-13.6144
▁برگذار	-13.6144
نواز	-13.6155
▁جاندار	-13.6162
▁ماندگارتر	-13.6167
تومان	-13.6172
اتان	-13.6194
روهای	-13.62
▁سروی	-13.6223
ئیس	-13.626
▁مخا	-13.6263
بلو	-13.6268
وزش	-13.6282
رمی	-13.6287
▁دینا	-13.6289
زخ	-13.6297
▁فراخواندن	-13.63
نویسم	-13.6311
▁زوا	-13.6316
▁مفت	-13.6318
وشی	-13.6334
طن	-13.6339
نجش	-13.6349
تاکو	-13.6373
▁هرت	-13.6385
وآلا	-13.6397
▁نکنی	-13.6398
یچک	-13.6424
ائر	-13.6425
▁کفا	-13.643
باق	-13.6432
▁متب	-13.6432
مگر	-13.6438
دارانش	-13.6439
▁چل	-13.6449
زاز	-13.6457
▁هاستل	-13.647
▁دارال	-13.6474
▁رویش	-13.6476
▁وینس	-13.6491
یرانی	-13.6502
▁سلا	-13.652
چیچ	-13.6523
▁طبا	-13.6539
▁مناز	-13.654
فرش	-13.6541
▁بساز	-13.6543
حوم	-13.6549
▁زنج	-13.6549
▁هکر	-13.6558
▁بوداها	-13.6564
توما	-13.6567
▁مم	-13.657
▁هردو	-13.6571
▁جمج	-13.6573
لمینگ	-13.6574
تنه	-13.6576
خصوصا	-13.6576
مزه	-13.6578
▁مجل	-13.6582
تجا	-13.6584
▁رید	-13.6591
ناتی	-13.6592
جب	-13.6594
ریح	-13.6602
اوا	-13.6607
الم	-13.6619
▁آنگ	-13.6622
یوشیت	-13.6627
▁۲۱۸	-13.6628
عین	-13.6649
▁ناتی	-13.6658
▁لیل	-13.666
گات	-13.6661
گردانان	-13.6662
گردی	-13.6668
اتوری	-13.668
▁سالیان	-13.6682
▁میلیاردی	-13.6684
آزاد	-13.67
مرو	-13.6705
رطرف	-13.671
فونی	-13.6725
▁آسای	-13.6743
نگون	-13.6744
زند	-13.675
بنت	-13.675
رینیو	-13.6758
بریت	-13.6769
نکن	-13.679
▁ماموری	-13.6798
اندیشد	-13.6805
▁ندار	-13.6836
لدین	-13.6838
▁نیمو	-13.6843
▁ضمی	-13.6859
اینس	-13.6861
مبل	-13.687
قویا	-13.6876
جست	-13.6887
نبع	-13.6895
▁استیک	-13.6902
▁غا	-13.6909
بخت	-13.6927
جار	-13.6947
نطور	-13.6958
یترات	-13.6964
▁اسکور	-13.6964
شاهی	-13.6965
▁جاپ	-13.6966
نسه	-13.6966
▁حمی	-13.6967
منصف	-13.6973
▁کلو	-13.6973
کوت	-13.6976
توقف	-13.6978
اوند	-13.6991
▁پراند	-13.7013
زما	-13.702
▁خودستا	-13.7026
سالت	-13.704
▁زیرو	-13.704
گوت	-13.7048
انیا	-13.705
دامس	-13.7059
▁مطم	-13.706
وایز	-13.7062
کنت	-13.7101
▁ورا	-13.7107
ترو	-13.711
زمی	-13.7111
میرا	-13.7116
دلفی	-13.7118
▁پاکی	-13.7121
سپهر	-13.7132
▁برخاستن	-13.7146
لدی	-13.7153
▁برید	-13.7156
▁کولی	-13.7166
▁متهما	-13.7174
راتو	-13.7178
▁اقامتش	-13.7189
▁ارم	-13.7194
▁نواز	-13.7201
▁شدیدتری	-13.7204
۵۰۰	-13.7223
کارت	-13.7227
▁الا	-13.7227
▁رنجی	-13.7234
همسر	-13.7243
هوا	-13.725
عراق	-13.7254
ضو	-13.7269
▁پاترو	-13.7274
▁حرفهای	-13.7275
▁دریابی	-13.7278
▁ترد	-13.7281
▁قلو	-13.7283
خواهر	-13.7285
اتفاق	-13.729
ندتر	-13.729
▁شدندم	-13.7307
وج	-13.7307
▁اندبر	-13.7311
▁درخشیدن	-13.7316
▁کارا	-13.7325
▁کوار	-13.7327
برتو	-13.7339
▁اندازهای	-13.7347
▁معاند	-13.735
برجام	-13.736
ربا	-13.7368
▁پرسیو	-13.7378
▁روشها	-13.7385
اپل	-13.7391
جاری	-13.7401
▁پستو	-13.7405
▁مخاطبانم	-13.7424
▁شاهر	-13.7432
▁ولو	-13.7449
▁جها	-13.7469
ورزش	-13.7471
▁چرخد	-13.7473
▁درامد	-13.7477
شای	-13.75
۹۵۳	-13.7523
▁میکرو	-13.7523
نتونیو	-13.7524
▁بخور	-13.7526
لینز	-13.7529
▁پارکها	-13.7536
▁موع	-13.7545
▁نگذشت	-13.7563
▁سمپ	-13.7566
▁مائو	-13.757
▁متض	-13.7575
تبدیل	-13.7575
مید	-13.7578
رزهای	-13.7579
مکس	-13.7613
فغانستان	-13.7627
خلال	-13.7629
پاس	-13.7633
نکرده	-13.7657
یجی	-13.767
نظام	-13.7675
چن	-13.7683
شیو	-13.7697
لوز	-13.7701
رجمه	-13.7712
▁پدی	-13.7715
رکو	-13.7719
▁نظری	-13.7732
سهام	-13.7767
شید	-13.7784
کنشی	-13.7794
▁سرایی	-13.7804
بازگشت	-13.7808
مالیات	-13.7811
تعطیل	-13.7811
پاپ	-13.7813
حکومت	-13.7819
▁لام	-13.7821
▁روزن	-13.7826
یتسی	-13.7838
ارتباط	-13.7841
واکسین	-13.7843
کابل	-13.7846
▁سالار	-13.7852
▁تزار	-13.7856
▁لبر	-13.7867
اوست	-13.7869
▁تاثیرگذارتر	-13.787
▁میکر	-13.7877
▁پد	-13.7891
لمان	-13.7892
انقلاب	-13.7896
سفی	-13.7906
ثی	-13.7912
▁پروس	-13.7928
▁هام	-13.7931
لغو	-13.7938
▁تریک	-13.794
اهت	-13.7962
▁تعذی	-13.7964
ارس	-13.7978
کنان	-13.7983
جلو	-13.7994
توالی	-13.7999
قریب	-13.8011
▁همکاریها	-13.8023
▁هنرست	-13.8027
مود	-13.8028
ایفا	-13.8029
بوتی	-13.8037
کودکان	-13.804
کووید	-13.8043
▁هد	-13.8046
▁،	-13.806
ژدهای	-13.8063
▁انگی	-13.8074
دستگاه	-13.8078
لابی	-13.8088
▁۱۴۵	-13.8091
▁تقد	-13.8109
فرهنگ	-13.8114
کثی	-13.8118
تطاب	-13.8118
ازندگان	-13.8137
وانگ	-13.8143
یفتن	-13.8156
سراسر	-13.8158
پروژه	-13.8167
غای	-13.818
رشید	-13.8184
▁پائ	-13.8191
▁میک	-13.8199
اختیار	-13.8229
شتی	-13.8236
وچی	-13.8252
اشیان	-13.8255
جانبدار	-13.8257
▁پاین	-13.8257
▁۱۶۶	-13.8261
شامل	-13.8264
فارسی	-13.827
▁گروهها	-13.8274
رساند	-13.8275
مبتلا	-13.8276
درمان	-13.8279
تقریبا	-13.8285
رویس	-13.8306
▁جمهوریخواه	-13.8313
قوانین	-13.8316
▁الگ	-13.8318
ونزوئلا	-13.8322
آبان	-13.8334
▁مفص	-13.8342
توسعه	-13.8348
ندسی	-13.8354
احتمالا	-13.8364
مارت	-13.8365
▁کلین	-13.8365
مصوب	-13.8379
گردد	-13.8387
▁۱۵۲	-13.8387
آرزو	-13.8388
آرژانتین	-13.8389
بگیرد	-13.8393
▁مسابق	-13.8402
خواهم	-13.8407
ولایت	-13.8408
نیه	-13.8408
هواپیما	-13.8417
آموزند	-13.842
بشر	-13.842
استمز	-13.8427
▁جده	-13.8429
▁برادرها	-13.8432
▁عرا	-13.8439
کاه	-13.8445
حت	-13.8445
پرا	-13.8452
رامت	-13.8453
الین	-13.8465
▁گوتنب	-13.8467
مذاکر	-13.847
اسف	-13.8477
سکول	-13.848
خوا	-13.8482
▁سانت	-13.8484
پروازهای	-13.8489
▁ملانی	-13.8493
کوتاه	-13.8501
ارات	-13.851
افغان	-13.8512
یفرانس	-13.8519
▁شیل	-13.8522
بلیت	-13.8525
رعایت	-13.8525
مناطق	-13.8529
موفقیت	-13.8531
فارس	-13.8534
قوم	-13.8536
مقایس	-13.8541
▁رین	-13.8543
نرم	-13.8548
بیرون	-13.8552
واتی	-13.8556
کتیو	-13.8561
یعه	-13.8578
درحال	-13.8579
کوب	-13.8579
اضی	-13.8588
▁مجر	-13.8589
▁آمی	-13.8595
هنرمند	-13.8609
آوریل	-13.8611
▁نورها	-13.8611
اشتن	-13.8627
کنم	-13.8629
امیدوار	-13.863
▁آدا	-13.8637
▁زاه	-13.8648
عمده	-13.865
موافقت	-13.865
۳۷۹	-13.8651
خراش	-13.8651
ناقل	-13.8665
ساختمان	-13.8671
سخنران	-13.8671
▁سرودها	-13.8672
خا	-13.8674
سعی	-13.8677
معتقد	-13.8689
کشاورز	-13.8692
هاست	-13.8693
پارل	-13.8699
اقیانوس	-13.8702
▁فیور	-13.8706
▁ابت	-13.8706
سیامن	-13.8707
بالای	-13.8707
عدالت	-13.8708
سرا	-13.8711
اولیه	-13.8713
صحنه	-13.8719
۱۳۹۹	-13.8722
تصوی	-13.873
افزوده	-13.8734
▁غیرت	-13.874
پاکستان	-13.8742
▁بدود	-13.8743
مخالفت	-13.8747
مدافع	-13.8758
تحلیل	-13.8761
محیط	-13.8762
▁فیلترکنند	-13.8768
نظامی	-13.8769
حزب	-13.8776
فرزند	-13.8777
▁شفی	-13.8779
بایرن	-13.8781
جزئیات	-13.8782
آموزش	-13.8782
هایم	-13.8783
آلبوم	-13.8791
▁دوقلو	-13.8797
اسطوره	-13.88
باغ	-13.8802
ژو	-13.8802
مشکل	-13.8803
متد	-13.8803
کارکنان	-13.8803
اروی	-13.8807
صادر	-13.8811
▁واری	-13.8812
هرات	-13.882
معترضان	-13.8824
نوامبر	-13.8831
▁بکش	-13.8832
اینستاگرام	-13.8832
آش	-13.8836
سوئیس	-13.884
ربات	-13.8844
آنا	-13.8847
سوپر	-13.8849
آمازون	-13.8853
مقا	-13.8857
▁دیگرش	-13.8859
۷۶	-13.8863
▁آست	-13.8873
دختران	-13.8878
ادبیات	-13.8882
میل	-13.8882
رنیک	-13.8889
'.	-13.8889
درال	-13.8892
آهنگ	-13.8895
زخمی	-13.8896
متعل	-13.8898
موشک	-13.89
▁منط	-13.8903
اهمیت	-13.8904
يرو	-13.8905
فرودگاه	-13.8906
پیچی	-13.8906
شاعر	-13.8907
چالش	-13.8907
▁مدع	-13.8911
▁تفت	-13.8911
ماموران	-13.8912
سخنان	-13.8916
جنس	-13.8917
سپت	-13.8921
آسمان	-13.8925
فلور	-13.8933
سلمان	-13.8934
دارایی	-13.8937
استاندار	-13.8938
اقلان	-13.8941
صلاحیت	-13.8941
واپسی	-13.8942
اخبار	-13.8944
دستمزد	-13.8945
تابلو	-13.8948
یتسو	-13.8949
شهریور	-13.895
ثابت	-13.895
سپار	-13.8956
هنرمندان	-13.8964
فایل	-13.8965
چشمگیر	-13.8968
شیره	-13.897
تمدید	-13.8974
غاز	-13.898
قربانیان	-13.8989
شکار	-13.899
اطمینان	-13.899
رقیب	-13.8996
زمستان	-13.8997
خواب	-13.8999
محمو	-13.9
مسئ	-13.9006
▁بازند	-13.9009
▁نوشتار	-13.9009
تخلف	-13.9009
سلان	-13.9011
یدمن	-13.9015
حب	-13.9017
▁بردم	-13.9018
تکرار	-13.9022
دسامبر	-13.9022
ژیو	-13.9023
داوطلبان	-13.9023
▁باورها	-13.9026
۲۰۱۵	-13.9029
سوئد	-13.9033
فشاری	-13.9033
متولد	-13.9034
عملی	-13.9035
تاسیس	-13.9036
▁علیا	-13.9038
قبول	-13.9039
▁گریگور	-13.9039
▁بهنا	-13.9048
رنت	-13.9048
▁بارسلون	-13.9049
تقاضای	-13.905
نروژ	-13.9051
تبعیض	-13.9051
▁پت	-13.9053
مجازات	-13.9054
گواردیولا	-13.9056
خرداد	-13.9057
دانشجویان	-13.9057
قتصاد	-13.9061
▁شنوی	-13.9063
مدرسه	-13.9068
مرداد	-13.907
▁جغرافیا	-13.9071
یافتند	-13.9071
شفاف	-13.9072
یگانی	-13.9073
▁اه	-13.9076
گردید	-13.9078
محکومیت	-13.9079
علائم	-13.9086
▁نشاندن	-13.9086
▁شدیک	-13.9089
اتو	-13.9091
خطوط	-13.9093
دیف	-13.9094
▁جوه	-13.9099
کلمبیا	-13.9099
▁نخوا	-13.91
امکانات	-13.91
▁مف	-13.9101
▁مفا	-13.9105
▁زر	-13.9106
اکم	-13.9114
لبه	-13.9115
▁خانواد	-13.9116
پیتا	-13.9116
پارلمان	-13.912
نابودی	-13.9122
عشق	-13.9122
غافلگیر	-13.9124
قدرتمند	-13.9127
پیچیده	-13.9128
شصت	-13.9128
منچسترسیتی	-13.913
هیار	-13.9131
موقع	-13.9135
برادر	-13.9137
▁۱۰۵۰	-13.9139
پرورش	-13.9139
نابی	-13.9141
ویلموتس	-13.9141
سکا	-13.9141
پلاستیک	-13.9146
هافبک	-13.9146
برانکو	-13.915
▁راهنما	-13.9151
حس	-13.9152
کنفرانس	-13.9155
اوکراین	-13.9157
تروریست	-13.9158
▁چسبان	-13.9159
عروسک	-13.9162
ازد	-13.9167
▁ذهنم	-13.9173
انگلیسی	-13.9174
نیوزیلند	-13.9175
برگزیت	-13.9176
ژنرا	-13.9177
اثبات	-13.9181
مطمئن	-13.9183
سرزمین	-13.9183
مذهبی	-13.9189
▁زرتشت	-13.919
روغن	-13.9191
▁ناش	-13.9192
▁شعارها	-13.9194
فریاد	-13.9195
فراگیر	-13.9196
کربن	-13.92
نتوس	-13.92
فرار	-13.9202
ارتفاع	-13.9203
هما	-13.9209
فردا	-13.9212
نوجوان	-13.9214
دانمارک	-13.9215
علاقمندان	-13.9215
دلجو	-13.9218
بوندس	-13.922
ولسوال	-13.9221
۱۵۰	-13.9232
▁فرآور	-13.9233
یچل	-13.9235
متقاضی	-13.9238
[...]
