{
  "src_word2id": {
    "<pad>": 0,
    "<s>": 1,
    "</s>": 2,
    "<unk>": 3,
    "ی": 4,
    ".": 5,
    "ه": 6,
    "▁است": 7,
    "▁": 8,
    "▁می": 9,
    "▁های": 10,
    "▁ایران": 11,
    "▁شده": 12,
    "،": 13,
    "▁سال": 14,
    "▁بود": 15,
    "▁یک": 16,
    "▁ها": 17,
    "▁شد": 18,
    "▁کرده": 19,
    "▁تصویر": 20,
    "▁ای": 21,
    "▁کرد": 22,
    "منبع": 23,
    "ان": 24,
    "▁شود": 25,
    "▁گفته": 26,
    "▁کند": 27,
    "▁بر": 28,
    "▁دو": 29,
    "▁خود": 30,
    "؛": 31,
    "▁اند": 32,
    "▁کرونا": 33,
    "▁در": 34,
    "ش": 35,
    "▁آمریکا": 36,
    "ن": 37,
    "▁پیش": 38,
    "▁کشور": 39,
    "▁گزارش": 40,
    "▁ماه": 41,
    "▁روز": 42,
    "ت": 43,
    "▁دیگر": 44,
    "▁دارد": 45,
    "▁فوتبال": 46,
    "▁بی": 47,
    "▁دهد": 48,
    "▁ا": 49,
    "▁تیم": 50,
    "▁گفت": 51,
    "▁بازی": 52,
    "▁کار": 53,
    "▁اعلام": 54,
    "▁کنند": 55,
    "▁قرار": 56,
    "▁م": 57,
    "▁و": 58,
    "▁شرکت": 59,
    "▁هزار": 60,
    "ین": 61,
    "▁داده": 62,
    "▁دولت": 63,
    "▁با": 64,
    "▁یا": 65,
    "م": 66,
    "▁رئیس": 67,
    "▁گذشته": 68,
    "▁به": 69,
    "▁خواهد": 70,
    "▁سه": 71,
    "▁جهان": 72,
    "▁پس": 73,
    "▁بین": 74,
    "▁دست": 75,
    "▁آقای": 76,
    "▁گوید": 77,
    "▁هر": 78,
    "▁درصد": 79,
    "▁درباره": 80,
    "▁بار": 81,
    "در": 82,
    "▁تهران": 83,
    "ا": 84,
    "▁میلیون": 85,
    "▁دلیل": 86,
    "▁آنها": 87,
    "▁لیگ": 88,
    "▁افغانستان": 89,
    "▁افزایش": 90,
    "▁نفر": 91,
    "▁هفته": 92,
    "▁یکی": 93,
    "▁بوده": 94,
    "▁از": 95,
    "▁ب": 96,
    "این": 97,
    "'": 98,
    "▁داد": 99,
    "▁'": 100,
    "های": 101,
    "▁جدید": 102,
    "ر": 103,
    "▁بعد": 104,
    "▁چند": 105,
    "▁ملی": 106,
    "▁حال": 107,
    "▁جمهوری": 108,
    ":": 109,
    "▁خبر": 110,
    "▁نام": 111,
    "▁جهانی": 112,
    "▁فیلم": 113,
    "ند": 114,
    "▁نمی": 115,
    "▁ترین": 116,
    "▁همه": 117,
    "▁ویروس": 118,
    "▁هستند": 119,
    "▁ت": 120,
    "▁قیمت": 121,
    "▁برگزار": 122,
    "▁چین": 123,
    "▁باید": 124,
    "▁دلار": 125,
    "▁بازار": 126,
    "▁امروز": 127,
    "▁عنوان": 128,
    "▁مورد": 129,
    "▁نظر": 130,
    "▁سازمان": 131,
    "د": 132,
    "▁تولید": 133,
    "ب": 134,
    "▁گرفته": 135,
    "▁کردند": 136,
    "▁داشت": 137,
    "▁روی": 138,
    "▁علی": 139,
    "▁کاهش": 140,
    "▁نفت": 141,
    "▁بیش": 142,
    "▁شدن": 143,
    "▁نیست": 144,
    "▁وزیر": 145,
    "▁سر": 146,
    "ات": 147,
    "▁بریتانیا": 148,
    "▁آغاز": 149,
    "▁وزارت": 150,
    "▁مقابل": 151,
    "▁سی": 152,
    "▁بیشتر": 153,
    "▁اخیر": 154,
    "ل": 155,
    "▁نیز": 156,
    "▁شب": 157,
    "▁بودند": 158,
    "▁اروپا": 159,
    "▁حدود": 160,
    "▁بزرگ": 161,
    "به": 162,
    "▁ایرانی": 163,
    "▁را": 164,
    "▁برنامه": 165,
    "▁اش": 166,
    "▁همچنین": 167,
    "▁داشته": 168,
    "▁باشگاه": 169,
    "▁نشان": 170,
    "▁مجلس": 171,
    "▁باشد": 172,
    "▁بانک": 173,
    "▁راه": 174,
    "▁قبل": 175,
    "▁حضور": 176,
    "▁پایان": 177,
    "▁زمان": 178,
    "▁ف": 179,
    "▁آن": 180,
    "ز": 181,
    "▁تحریم": 182,
    "▁اقتصادی": 183,
    "▁انجام": 184,
    "▁هایی": 185,
    "▁اولین": 186,
    "که": 187,
    "▁توافق": 188,
    "س": 189,
    "▁اساس": 190,
    "▁صورت": 191,
    "▁اول": 192,
    "ری": 193,
    "▁منتشر": 194,
    "▁تر": 195,
    "▁واکسن": 196,
    "▁شیوع": 197,
    "▁بخش": 198,
    "▁استفاده": 199,
    "▁باز": 200,
    "آقای": 201,
    "▁فصل": 202,
    "▁کم": 203,
    "▁جمله": 204,
    "▁میان": 205,
    "▁وجود": 206,
    "▁دارند": 207,
    "▁شهر": 208,
    "له": 209,
    "▁رسید": 210,
    "گی": 211,
    "؟": 212,
    "▁مسابقه": 213,
    "▁مردم": 214,
    "دامه": 215,
    "▁گل": 216,
    "▁س": 217,
    "▁زندگی": 218,
    "▁شوند": 219,
    "▁خواست": 220,
    "▁میلیارد": 221,
    "▁گروه": 222,
    "▁ماشین": 223,
    "▁المللی": 224,
    "▁چهار": 225,
    "▁مسابقات": 226,
    "او": 227,
    "▁زنان": 228,
    "و": 229,
    "▁همین": 230,
    "▁گیری": 231,
    "▁پنج": 232,
    "▁حالی": 233,
    "▁مقام": 234,
    "▁تنها": 235,
    "▁شدند": 236,
    "▁ن": 237,
    "▁حقوق": 238,
    "▁تواند": 239,
    "▁توان": 240,
    "▁وقت": 241,
    "▁تومان": 242,
    "▁امسال": 243,
    "▁گرفت": 244,
    "▁زیاد": 245,
    "▁تمام": 246,
    "▁ارز": 247,
    "▁شرایط": 248,
    "▁اسلامی": 249,
    "▁برتر": 250,
    "▁ساله": 251,
    "▁وضعیت": 252,
    "▁آینده": 253,
    "عث": 254,
    "▁جام": 255,
    "▁کشورهای": 256,
    "▁بیماری": 257,
    "▁بسیاری": 258,
    "▁دوران": 259,
    "▁کردن": 260,
    "▁محمد": 261,
    "▁غیر": 262,
    "▁خارجه": 263,
    "انه": 264,
    "▁خانه": 265,
    "▁تلاش": 266,
    "▁فعالیت": 267,
    "▁۲۰": 268,
    "▁طور": 269,
    "▁هیچ": 270,
    "▁وارد": 271,
    "▁بسیار": 272,
    "▁تازه": 273,
    "▁گویند": 274,
    "▁ولی": 275,
    "▁تصمیم": 276,
    "▁نرخ": 277,
    "▁مدت": 278,
    "▁زمین": 279,
    "▁ریاست": 280,
    "▁ک": 281,
    "▁اقتصاد": 282,
    "▁ش": 283,
    "▁فروش": 284,
    "▁افراد": 285,
    "نه": 286,
    "بدون": 287,
    "▁نزدیک": 288,
    "▁رسان": 289,
    "▁انتخابات": 290,
    "▁مختلف": 291,
    "▁پی": 292,
    "▁اجتماعی": 293,
    "▁کمک": 294,
    "▁سوی": 295,
    "▁د": 296,
    "ایی": 297,
    "▁نخست": 298,
    "▁روحانی": 299,
    "▁اثر": 300,
    "▁خانواده": 301,
    "▁همراه": 302,
    "▁منطقه": 303,
    "▁قهرمان": 304,
    "▁تاریخ": 305,
    "▁تغییر": 306,
    "▁مرکزی": 307,
    "▁منبع": 308,
    "بر": 309,
    "▁ه": 310,
    "▁خودرو": 311,
    "شان": 312,
    "▁۱۹": 313,
    "▁مجموع": 314,
    "▁حالا": 315,
    "▁طرح": 316,
    "▁پول": 317,
    "▁نه": 318,
    "یت": 319,
    "▁جان": 320,
    "▁شروع": 321,
    "▁پیدا": 322,
    "▁اصلی": 323,
    "▁برابر": 324,
    "▁برجام": 325,
    "▁دهه": 326,
    "▁هسته": 327,
    "▁برای": 328,
    "▁کنار": 329,
    "▁مهم": 330,
    "ک": 331,
    "▁ر": 332,
    "▁درگذشت": 333,
    "قط": 334,
    "▁دوره": 335,
    "▁دوم": 336,
    "▁بورس": 337,
    "▁مرکز": 338,
    "▁موسیقی": 339,
    "▁پرسپولیس": 340,
    "▁پر": 341,
    "▁بررسی": 342,
    "▁آمریکایی": 343,
    "▁قهرمانی": 344,
    "▁بعضی": 345,
    "▁دی": 346,
    "▁زن": 347,
    "▁میلادی": 348,
    "▁شکست": 349,
    "▁۴": 350,
    "▁نقش": 351,
    "▁اطلاعات": 352,
    "یک": 353,
    "ثبت": 354,
    "▁فدراسیون": 355,
    "▁جمهور": 356,
    "نامه": 357,
    "شورای": 358,
    "▁آمار": 359,
    "ار": 360,
    "▁رسیده": 361,
    "▁نوشته": 362,
    "▁۵": 363,
    "▁زیر": 364,
    "▁رسمی": 365,
    "▁سفر": 366,
    "▁برخ": 367,
    "▁سرمایه": 368,
    "▁یافته": 369,
    "▁کمتر": 370,
    "▁عکس": 371,
    "▁اینک": 372,
    "▁رقابت": 373,
    "▁حمله": 374,
    "▁ممکن": 375,
    "یه": 376,
    "▁کر": 377,
    "▁نتیج": 378,
    "ق": 379,
    "ست": 380,
    "▁بهترین": 381,
    "▁همکاری": 382,
    "▁نشده": 383,
    "▁واکنش": 384,
    "ده": 385,
    "▁توجه": 386,
    "▁۱۰": 387,
    "▁عراق": 388,
    "▁مراسم": 389,
    "▁جایزه": 390,
    "▁حمایت": 391,
    "▁دنبال": 392,
    "▁استقلال": 393,
    "▁رشد": 394,
    "▁دنیا": 395,
    "▁رفت": 396,
    "▁کل": 397,
    "▁فرانسه": 398,
    "▁ساعت": 399,
    "▁پرداخت": 400,
    "▁۲": 401,
    "▁آب": 402,
    "▁آ": 403,
    "▁آژانس": 404,
    "▁آزاد": 405,
    "▁مالی": 406,
    "▁دانشگاه": 407,
    "▁کشتی": 408,
    "▁بالا": 409,
    "▁هم": 410,
    "ها": 411,
    "▁استان": 412,
    "▁دور": 413,
    "▁حاضر": 414,
    "▁که": 415,
    "▁رو": 416,
    "▁بازیکن": 417,
    "با": 418,
    "▁پرونده": 419,
    "▁شش": 420,
    "▁موضوع": 421,
    "▁سیاسی": 422,
    "▁الله": 423,
    "▁سابق": 424,
    "▁اعتراض": 425,
    "▁شنبه": 426,
    "▁کنیم": 427,
    "توسط": 428,
    "▁پ": 429,
    "▁ندارد": 430,
    "▁ترامپ": 431,
    "▁روند": 432,
    "▁خبرگزا": 433,
    "ترین": 434,
    "▁انتشار": 435,
    "▁ورزش": 436,
    "ِ": 437,
    "▁اشار": 438,
    "▁نیمه": 439,
    "▁مدیر": 440,
    "▁طی": 441,
    "▁او": 442,
    "گان": 443,
    "اکنون": 444,
    "▁رسد": 445,
    "▁ترکیه": 446,
    "▁جنوبی": 447,
    "▁عرض": 448,
    "▁موج": 449,
    "▁دریافت": 450,
    "▁قهرمانان": 451,
    "▁هدف": 452,
    "▁کتاب": 453,
    "▁زبان": 454,
    "▁انرژی": 455,
    "▁تعداد": 456,
    "گیری": 457,
    "▁آلمان": 458,
    "▁دهند": 459,
    "▁مذاکرات": 460,
    "از": 461,
    "▁آمده": 462,
    "▁۲۰۲۰": 463,
    "ای": 464,
    "▁آزمایش": 465,
    "▁اجرای": 466,
    "▁ویژه": 467,
    "▁اتحاد": 468,
    "▁متهم": 469,
    "حتی": 470,
    "▁مربوط": 471,
    "▁مبارز": 472,
    "▁سهام": 473,
    "▁چنین": 474,
    "▁دیدار": 475,
    "▁نهایی": 476,
    "▁پیروز": 477,
    "▁۶": 478,
    "▁عربستان": 479,
    "▁۳": 480,
    "▁سیاست": 481,
    "▁خواهند": 482,
    "▁خرید": 483,
    "▁اقدام": 484,
    "▁هشدار": 485,
    "▁سازی": 486,
    "▁این": 487,
    "▁تبدیل": 488,
    "▁تلویزیون": 489,
    "▁ج": 490,
    "▁شمار": 491,
    "▁هفت": 492,
    "می": 493,
    "▁گذاری": 494,
    "کسب": 495,
    "▁مرد": 496,
    "▁هند": 497,
    "▁ایجاد": 498,
    "▁تایید": 499,
    "▁جریان": 500,
    "▁درآمد": 501,
    "▁بهداشت": 502,
    ")": 503,
    "▁سرمربی": 504,
    "▁آسیا": 505,
    "▁لیورپول": 506,
    "▁خارجی": 507,
    "▁همان": 508,
    "▁صادرات": 509,
    "▁میزان": 510,
    "▁مرگ": 511,
    "▁ساخت": 512,
    "▁ح": 513,
    "▁دولتی": 514,
    "▁زده": 515,
    "▁محل": 516,
    "▁مشخص": 517,
    "▁نقل": 518,
    "▁دیده": 519,
    "▁کننده": 520,
    "▁خطر": 521,
    "▁انسان": 522,
    "▁امنیت": 523,
    "▁یافت": 524,
    "▁خام": 525,
    "یم": 526,
    "▁بازداشت": 527,
    "▁صد": 528,
    "▁ده": 529,
    "▁حسن": 530,
    "▁نیاز": 531,
    "▁قابل": 532,
    "▁انتخاب": 533,
    "▁زمینه": 534,
    "▁فاصله": 535,
    "▁مدل": 536,
    "▁جلو": 537,
    "▁انگلیس": 538,
    "▁کابل": 539,
    "▁زندان": 540,
    "▁رود": 541,
    "▁خط": 542,
    "▁خیل": 543,
    "▁بیمارستان": 544,
    "▁روسیه": 545,
    "▁بازیکنان": 546,
    "▁خارج": 547,
    "▁عضو": 548,
    "▁نسبت": 549,
    "▁رهبر": 550,
    "▁.": 551,
    "▁(": 552,
    "▁چرا": 553,
    "نوز": 554,
    "▁سو": 555,
    "▁سخت": 556,
    "▁آی": 557,
    "▁نا": 558,
    "▁طول": 559,
    "▁دقیق": 560,
    "▁خاطر": 561,
    "▁معاون": 562,
    "گاه": 563,
    "▁پلیس": 564,
    "▁لغو": 565,
    "▁جا": 566,
    "▁نمایش": 567,
    "▁کامل": 568,
    "▁محدودیت": 569,
    "▁قانون": 570,
    "▁زمانی": 571,
    "▁طرف": 572,
    "▁ارزش": 573,
    "▁برد": 574,
    "▁تاثیر": 575,
    "▁حکم": 576,
    "▁کشته": 577,
    "▁منابع": 578,
    "▁تعطیل": 579,
    "▁حکومت": 580,
    "▁تن": 581,
    "▁دادگاه": 582,
    "▁اتمی": 583,
    "▁سن": 584,
    "▁آثار": 585,
    "▁دوبار": 586,
    "▁لندن": 587,
    "▁شورا": 588,
    "▁رد": 589,
    "▁سپاه": 590,
    "▁آخری": 591,
    "▁سالگی": 592,
    "▁ساخته": 593,
    "▁شکل": 594,
    "▁امتیاز": 595,
    "ریق": 596,
    "▁تحت": 597,
    "▁بازگشت": 598,
    "▁شناخت": 599,
    "چه": 600,
    "▁ظریف": 601,
    "▁قرارداد": 602,
    "▁سطح": 603,
    "▁مطرح": 604,
    "▁نامزد": 605,
    "▁ابتلا": 606,
    "▁بالای": 607,
    "▁نگرانی": 608,
    "▁اعضای": 609,
    "▁سخنگوی": 610,
    "▁حرکت": 611,
    "▁قرنطینه": 612,
    "▁۳۰": 613,
    "▁چ": 614,
    "▁ام": 615,
    "▁ارتباط": 616,
    "▁سوم": 617,
    "▁بودجه": 618,
    "▁نمایند": 619,
    "▁گاز": 620,
    "ون": 621,
    "▁نامه": 622,
    "▁بیانی": 623,
    "▁اسرائیل": 624,
    "▁برنده": 625,
    "▁پزشکی": 626,
    "▁رای": 627,
    "▁نگاه": 628,
    "روز": 629,
    "▁نشست": 630,
    "▁حد": 631,
    "▁تنیس": 632,
    "▁همزمان": 633,
    "▁مرح": 634,
    "▁تع": 635,
    "▁بخشی": 636,
    "▁امنیتی": 637,
    "▁جلس": 638,
    "▁آیا": 639,
    "▁عمومی": 640,
    "▁گسترده": 641,
    "▁جنگ": 642,
    "مین": 643,
    "▁عالی": 644,
    "▁۲۵": 645,
    "▁جو": 646,
    "▁روزهای": 647,
    "▁انقلاب": 648,
    "▁فکر": 649,
    "▁مصاحبه": 650,
    "▁داستان": 651,
    "▁انتقال": 652,
    "▁سابقه": 653,
    "▁ترک": 654,
    "▁صنعت": 655,
    "▁۱۳": 656,
    "▁۲۰۰": 657,
    "▁کمی": 658,
    "▁بایدن": 659,
    "ینه": 660,
    "▁متحده": 661,
    "▁خوب": 662,
    "ال": 663,
    "▁جاری": 664,
    "▁هوای": 665,
    "▁سینما": 666,
    "وی": 667,
    "▁اج": 668,
    "▁الکتریکی": 669,
    "▁متوقف": 670,
    "▁وی": 671,
    "▁۹": 672,
    "▁گرفتن": 673,
    "▁اروپایی": 674,
    "▁نفتی": 675,
    "نی": 676,
    "-": 677,
    "▁پاسخ": 678,
    "▁چشم": 679,
    "▁داخل": 680,
    "▁اتهام": 681,
    "▁فشار": 682,
    "▁برق": 683,
    "▁۲۰۱۹": 684,
    "▁نیروهای": 685,
    "▁سیستم": 686,
    "▁انتظار": 687,
    "اما": 688,
    "▁کووید": 689,
    "▁تو": 690,
    "▁نظامی": 691,
    "▁باشند": 692,
    "▁صندوق": 693,
    "▁امور": 694,
    "▁پیشین": 695,
    "▁بینی": 696,
    "▁۱": 697,
    "▁بست": 698,
    "▁طراح": 699,
    "▁قدرت": 700,
    "▁کودکان": 701,
    "ازه": 702,
    "▁دستگاه": 703,
    "▁نکرده": 704,
    "▁فارسی": 705,
    "ستاره": 706,
    "▁افت": 707,
    "▁دادن": 708,
    "▁جای": 709,
    "▁حساب": 710,
    "▁فینال": 711,
    "▁نمایندگان": 712,
    "▁جدی": 713,
    "▁کشید": 714,
    "▁قطع": 715,
    "▁کسان": 716,
    "▁داشتند": 717,
    "▁المپیک": 718,
    "ور": 719,
    "▁دانست": 720,
    "▁خانم": 721,
    "▁بحران": 722,
    "وز": 723,
    "▁محکوم": 724,
    "▁مسئولان": 725,
    "▁معرف": 726,
    "▁۷": 727,
    "▁آزادی": 728,
    "ستاد": 729,
    "▁دستور": 730,
    "▁۱۵": 731,
    "▁جامعه": 732,
    "▁فرهنگ": 733,
    "▁خودش": 734,
    "▁انتقاد": 735,
    "▁توانست": 736,
    "▁گو": 737,
    "▁رکورد": 738,
    "▁رقم": 739,
    "▁ورود": 740,
    "▁نوع": 741,
    "▁ورزشی": 742,
    "▁تورم": 743,
    "▁بشر": 744,
    "▁اسفند": 745,
    "▁چگون": 746,
    "ج": 747,
    "▁۱۲": 748,
    "▁ورزشگاه": 749,
    "▁تاریخی": 750,
    "▁آنچ": 751,
    "الات": 752,
    "ره": 753,
    "▁مربی": 754,
    "▁فروردین": 755,
    "▁قرن": 756,
    "▁چهر": 757,
    "▁نیم": 758,
    "▁ارائه": 759,
    "▁کس": 760,
    "▁دوشنبه": 761,
    "▁چهارم": 762,
    "سی": 763,
    "▁بلند": 764,
    "▁رفته": 765,
    "▁کنترل": 766,
    "▁فن": 767,
    "▁شدید": 768,
    "▁تک": 769,
    "▁هز": 770,
    "▁مانده": 771,
    "▁ملل": 772,
    "▁شدت": 773,
    "▁سراسر": 774,
    "▁اس": 775,
    "▁نهاد": 776,
    "۸": 777,
    "▁گذاشته": 778,
    "▁آبان": 779,
    "▁پروژه": 780,
    "▁غنی": 781,
    "▁معاملات": 782,
    "▁اجرا": 783,
    "▁تحقیقات": 784,
    "▁احتمال": 785,
    "▁۱۴۰۰": 786,
    "▁داخلی": 787,
    "▁جنوب": 788,
    "▁دونالد": 789,
    "▁همچن": 790,
    "ف": 791,
    "▁نوشت": 792,
    "▁ایتالیا": 793,
    "▁گیرد": 794,
    "▁موسس": 795,
    "▁پشت": 796,
    "▁شامل": 797,
    "▁اتفاق": 798,
    "▁تجاری": 799,
    "▁محلی": 800,
    "▁مصوب": 801,
    "▁تشکیل": 802,
    "▁روزنامه": 803,
    "▁شاهد": 804,
    "▁فضای": 805,
    "ویه": 806,
    "▁ط": 807,
    "▁بازیگر": 808,
    "▁محیط": 809,
    "▁سیاه": 810,
    "▁هنگام": 811,
    "▁تحقیق": 812,
    "▁مبتلا": 813,
    "▁کارگران": 814,
    "▁آمد": 815,
    "▁ضرب": 816,
    "▁فعال": 817,
    "▁هنر": 818,
    "▁دار": 819,
    "▁فضایی": 820,
    "دی": 821,
    "▁اختیار": 822,
    "▁مشکل": 823,
    "▁ع": 824,
    "▁نیروی": 825,
    "▁مشکلات": 826,
    "▁کنید": 827,
    "▁نبود": 828,
    "▁آسیب": 829,
    "▁شکایت": 830,
    "▁عمل": 831,
    "▁شماری": 832,
    "▁طولانی": 833,
    "▁تصوی": 834,
    "▁بارسلونا": 835,
    "▁نو": 836,
    "▁بشک": 837,
    "▁۸": 838,
    "▁مارادونا": 839,
    "▁جمعیت": 840,
    "▁درمان": 841,
    "▁محدود": 842,
    "یین": 843,
    "▁ناشی": 844,
    "▁۵۰": 845,
    "▁فرهنگی": 846,
    "▁ابتدای": 847,
    "▁جمعه": 848,
    "▁مس": 849,
    "لی": 850,
    "▁تجرب": 851,
    "▁واردات": 852,
    "▁امکان": 853,
    "▁درخواست": 854,
    "▁سمت": 855,
    "▁قو": 856,
    "▁شما": 857,
    "▁سایر": 858,
    "▁مسی": 859,
    "▁باقی": 860,
    "▁هنری": 861,
    "▁دادند": 862,
    "▁بودن": 863,
    "▁دسترس": 864,
    "▁عامل": 865,
    "▁روبرو": 866,
    "▁اولیه": 867,
    "بی": 868,
    "▁اعدام": 869,
    "یعن": 870,
    "▁علت": 871,
    "▁مرغ": 872,
    "▁۲۲": 873,
    "▁سوخت": 874,
    "▁مرتبط": 875,
    "▁ممنوع": 876,
    "▁ماسک": 877,
    "▁هایش": 878,
    "▁تهدید": 879,
    "▁دفاع": 880,
    "پس": 881,
    "▁یاد": 882,
    "▁متفاوت": 883,
    "▁تقریبا": 884,
    "▁آورد": 885,
    "حفظ": 886,
    "▁لازم": 887,
    "▁۱۱": 888,
    "▁صفر": 889,
    "▁صحبت": 890,
    "▁احتمالا": 891,
    "▁کوچک": 892,
    "▁موارد": 893,
    "▁تاکید": 894,
    "▁اف": 895,
    "▁نظام": 896,
    "▁آخر": 897,
    "▁بگیرد": 898,
    "▁پارسال": 899,
    "▁سریال": 900,
    "▁ژان": 901,
    "▁۶۰": 902,
    "انی": 903,
    "▁ال": 904,
    "▁نگهبان": 905,
    "▁قوانین": 906,
    "▁ولایت": 907,
    "▁چهارشنبه": 908,
    "▁گذشت": 909,
    "▁قطر": 910,
    "▁یکشنبه": 911,
    "▁زد": 912,
    "▁۱۶": 913,
    "▁شان": 914,
    "▁علاو": 915,
    "▁ترتیب": 916,
    "▁توسعه": 917,
    "▁دلایل": 918,
    "▁قانونی": 919,
    "▁قصد": 920,
    "▁سرعت": 921,
    "▁کنم": 922,
    "۴": 923,
    "▁شهرهای": 924,
    "▁مشترک": 925,
    "▁بندی": 926,
    "▁حذف": 927,
    "▁فهرست": 928,
    "▁خروج": 929,
    "▁بتوان": 930,
    "▁مسیر": 931,
    "▁اقدامات": 932,
    "▁روابط": 933,
    "▁هوا": 934,
    "▁حل": 935,
    "▁شناس": 936,
    "▁مواد": 937,
    "▁احیا": 938,
    "▁ونزوئلا": 939,
    "▁شهروندان": 940,
    "▁کاملا": 941,
    "▁مسئول": 942,
    "▁خوانده": 943,
    "▁وین": 944,
    "▁احمد": 945,
    "سازی": 946,
    "▁سقوط": 947,
    "▁اخیرا": 948,
    "▁ترکیب": 949,
    "▁طبق": 950,
    "▁شاید": 951,
    "▁نژاد": 952,
    "▁تامین": 953,
    "▁کوتاه": 954,
    "▁مصرف": 955,
    "▁نتایج": 956,
    "▁امضا": 957,
    "▁واحد": 958,
    "▁پرواز": 959,
    "▁غرب": 960,
    "نگ": 961,
    "▁انفجار": 962,
    "▁سنت": 963,
    "▁گ": 964,
    "▁نقاشی": 965,
    "▁سیتی": 966,
    "▁اختلاف": 967,
    "▁برده": 968,
    "▁رییس": 969,
    "▁بیرون": 970,
    "▁جز": 971,
    "▁نسل": 972,
    "▁خون": 973,
    "▁۲۰۱": 974,
    "▁آستان": 975,
    "۲": 976,
    "▁نقطه": 977,
    "رفع": 978,
    "▁طر": 979,
    "▁پایین": 980,
    "▁قرمز": 981,
    "عده": 982,
    "▁پیشنهاد": 983,
    "▁پای": 984,
    "▁۱۴": 985,
    "▁حرفه": 986,
    "▁۴۰": 987,
    "▁نظیر": 988,
    "▁شجریان": 989,
    "▁مرز": 990,
    "▁بیشتری": 991,
    "▁کارگردان": 992,
    "▁صادر": 993,
    "▁بد": 994,
    "▁فرد": 995,
    "▁گون": 996,
    "▁نویسنده": 997,
    "▁صفح": 998,
    "▁آماده": 999,
    "▁شمال": 1000,
    "▁یورو": 1001,
    "▁کارخان": 1002,
    "▁بدن": 1003,
    "▁موفق": 1004,
    "▁مارس": 1005,
    "نمایی": 1006,
    "▁کیلومتر": 1007,
    "سیون": 1008,
    "▁جشنواره": 1009,
    "▁چلسی": 1010,
    "اس": 1011,
    "▁اندازه": 1012,
    "۶": 1013,
    "▁آوریل": 1014,
    "▁اطلاع": 1015,
    "▁اسکار": 1016,
    "▁استرالیا": 1017,
    "۵": 1018,
    "▁جهش": 1019,
    "▁افتاد": 1020,
    "▁میزبان": 1021,
    "مان": 1022,
    "▁سلامت": 1023,
    "▁بخوانید": 1024,
    "▁آرژانتین": 1025,
    "▁۲۰۲۱": 1026,
    "▁ماند": 1027,
    "▁همیشه": 1028,
    "▁یونایتد": 1029,
    "▁گفتگو": 1030,
    "▁مجازی": 1031,
    "▁شاخص": 1032,
    "ید": 1033,
    "▁فوت": 1034,
    "▁متر": 1035,
    "▁توصیف": 1036,
    "▁زاده": 1037,
    "▁ان": 1038,
    "▁تا": 1039,
    "خانه": 1040,
    "▁رنگ": 1041,
    "ام": 1042,
    "▁تاکنون": 1043,
    "▁۱۷": 1044,
    "▁مردان": 1045,
    "▁چپ": 1046,
    "▁فرصت": 1047,
    "▁تجارت": 1048,
    "▁مالیات": 1049,
    "▁قلب": 1050,
    "▁رفتن": 1051,
    "▁بزرگترین": 1052,
    "▁درگیر": 1053,
    "▁بریتانیایی": 1054,
    "▁عباس": 1055,
    "حه": 1056,
    "▁عملیات": 1057,
    "▁پاریس": 1058,
    "ایران": 1059,
    "یق": 1060,
    "▁عد": 1061,
    "▁محمود": 1062,
    "▁هواپیمایی": 1063,
    "▁آلود": 1064,
    "براز": 1065,
    "▁معروف": 1066,
    "▁نگران": 1067,
    "▁افغان": 1068,
    "اساس": 1069,
    "▁۱۸": 1070,
    "▁هشت": 1071,
    "▁روشن": 1072,
    "▁۵۰۰": 1073,
    "▁برسد": 1074,
    "▁اوپک": 1075,
    "▁علمی": 1076,
    "▁مشهور": 1077,
    "▁دومین": 1078,
    "▁اعتراضات": 1079,
    "▁نهادهای": 1080,
    "▁کنندگان": 1081,
    "▁طلا": 1082,
    "▁سوار": 1083,
    "▁مذاکر": 1084,
    "▁اعمال": 1085,
    "▁سنگین": 1086,
    "▁چیزی": 1087,
    "▁جمع": 1088,
    "▁دارایی": 1089,
    "▁سا": 1090,
    "▁مجدد": 1091,
    "▁نظارت": 1092,
    "▁بارها": 1093,
    "علی": 1094,
    "▁خصوصی": 1095,
    "▁پروازهای": 1096,
    "▁ندارند": 1097,
    "▁رعایت": 1098,
    "▁مشابه": 1099,
    "▁جدول": 1100,
    "▁مقایس": 1101,
    "▁آتش": 1102,
    "▁اتاق": 1103,
    "▁ماهه": 1104,
    "▁واقع": 1105,
    "▁لای": 1106,
    "▁تاج": 1107,
    "▁زنده": 1108,
    "یی": 1109,
    "▁روش": 1110,
    "▁کاری": 1111,
    "▁هرات": 1112,
    "▁هنو": 1113,
    "▁من": 1114,
    "▁منتقل": 1115,
    "▁مناطق": 1116,
    "▁چاپ": 1117,
    "▁حادثه": 1118,
    "▁پیام": 1119,
    "▁سایت": 1120,
    "▁کالا": 1121,
    "▁سریع": 1122,
    "▁موفقیت": 1123,
    "▁۹۸": 1124,
    "ممنوعیت": 1125,
    "▁گروهی": 1126,
    "▁خواننده": 1127,
    "مه": 1128,
    "▁۹۰": 1129,
    "▁ما": 1130,
    "تی": 1131,
    "▁کلی": 1132,
    "▁سرطان": 1133,
    "▁کاخ": 1134,
    "▁بهبود": 1135,
    "▁تاتنهام": 1136,
    "▁مه": 1137,
    "▁رسیدن": 1138,
    "▁کدام": 1139,
    "▁پژوهش": 1140,
    "▁ملت": 1141,
    "▁کشورها": 1142,
    "ع": 1143,
    "▁احمدی": 1144,
    "▁مانع": 1145,
    "▁عمده": 1146,
    "▁پخ": 1147,
    "▁توییتر": 1148,
    "▁زیست": 1149,
    "▁دکتر": 1150,
    "▁اضاف": 1151,
    "▁حق": 1152,
    "▁تابستان": 1153,
    "▁باخت": 1154,
    "▁هواداران": 1155,
    "▁حوزه": 1156,
    "▁توپ": 1157,
    "▁فعالان": 1158,
    "▁عملکرد": 1159,
    "▁سوریه": 1160,
    "▁بال": 1161,
    "▁بیست": 1162,
    "یر": 1163,
    "▁بهتر": 1164,
    "▁مجوز": 1165,
    "▁بنزین": 1166,
    "▁انگیز": 1167,
    "۰۰": 1168,
    "▁صدای": 1169,
    "اخر": 1170,
    "اداره": 1171,
    "▁خواند": 1172,
    "▁کمیت": 1173,
    "▁دوست": 1174,
    "▁اینترنت": 1175,
    "▁رکود": 1176,
    "طور": 1177,
    "▁امید": 1178,
    "▁پور": 1179,
    "▁کن": 1180,
    "▁مل": 1181,
    "▁ایمن": 1182,
    "▁بالاتر": 1183,
    "▁سنگ": 1184,
    "▁منچستر": 1185,
    "▁کشف": 1186,
    "▁گمرک": 1187,
    "▁۱۰۰": 1188,
    "▁گر": 1189,
    "▁آید": 1190,
    "▁رابط": 1191,
    "▁راست": 1192,
    "▁پیشتر": 1193,
    "▁سفیر": 1194,
    "▁رشت": 1195,
    "▁تهی": 1196,
    "▁سفید": 1197,
    "▁جنسی": 1198,
    "▁ایالت": 1199,
    "▁نقدینگی": 1200,
    "▁تاجیکستان": 1201,
    "▁فساد": 1202,
    "▁مادرید": 1203,
    "▁بحرین": 1204,
    "▁انگلیسی": 1205,
    "▁بحث": 1206,
    "▁تصاویر": 1207,
    "▁درست": 1208,
    "▁۲۴": 1209,
    "▁تغییرات": 1210,
    "▁ل": 1211,
    "▁دختر": 1212,
    "▁خوزستان": 1213,
    "▁دچار": 1214,
    "▁حزب": 1215,
    "▁صدا": 1216,
    "▁نشد": 1217,
    "بیشتر": 1218,
    "▁خصوص": 1219,
    "▁پایتخت": 1220,
    "▁مقررات": 1221,
    "▁مواجه": 1222,
    "▁افتاده": 1223,
    "▁ارتش": 1224,
    "▁گردد": 1225,
    "▁اظهارات": 1226,
    "▁ق": 1227,
    "▁مجله": 1228,
    "▁فرمانده": 1229,
    "▁گذاشت": 1230,
    "▁دهم": 1231,
    "▁کارگر": 1232,
    "▁تی": 1233,
    "وایل": 1234,
    "▁خالی": 1235,
    "▁خبرنگار": 1236,
    "▁مستند": 1237,
    "▁خودروساز": 1238,
    "▁چه": 1239,
    "▁برخورد": 1240,
    "▁طبیعی": 1241,
    "▁پوند": 1242,
    "▁سینمایی": 1243,
    "گر": 1244,
    "▁رفتار": 1245,
    "▁روان": 1246,
    "▁برداشت": 1247,
    "دو": 1248,
    "▁چیز": 1249,
    "▁پا": 1250,
    "▁نقاط": 1251,
    "▁مغز": 1252,
    "▁جوان": 1253,
    "▁مهر": 1254,
    "▁مر": 1255,
    "عودی": 1256,
    "▁رانند": 1257,
    "▁جایی": 1258,
    "▁هنرمند": 1259,
    "▁شرق": 1260,
    "▁بازارهای": 1261,
    "▁گذار": 1262,
    "▁ارشد": 1263,
    "▁۲۸": 1264,
    "▁اسپانیا": 1265,
    "▁قطعی": 1266,
    "▁زدن": 1267,
    "▁ز": 1268,
    "▁خ": 1269,
    "▁قضایی": 1270,
    "▁محمو": 1271,
    "▁عبور": 1272,
    "▁مشغول": 1273,
    "▁مجبور": 1274,
    "تر": 1275,
    "▁دریا": 1276,
    "▁پدر": 1277,
    "▁حت": 1278,
    "▁پل": 1279,
    "▁حرف": 1280,
    "▁فدرر": 1281,
    "▁فنی": 1282,
    "▁روزانه": 1283,
    "▁دنیای": 1284,
    "▁جدیدی": 1285,
    "کنندگان": 1286,
    "▁قتل": 1287,
    "▁هدایت": 1288,
    "▁موافقت": 1289,
    "▁قدیمی": 1290,
    "▁سخنران": 1291,
    "▁امیدوار": 1292,
    "▁عهد": 1293,
    "▁ابتدا": 1294,
    "▁موجود": 1295,
    "▁کارشناسان": 1296,
    "▁پیوست": 1297,
    "▁۲۳": 1298,
    "مهدی": 1299,
    "▁مثبت": 1300,
    "▁سکه": 1301,
    "▁اجرایی": 1302,
    "▁زاغری": 1303,
    "▁معتقد": 1304,
    "▁دوچرخه": 1305,
    "▁نفتکش": 1306,
    "یا": 1307,
    "▁آورده": 1308,
    "▁حریف": 1309,
    "▁زنی": 1310,
    "▁توضیح": 1311,
    "▁تشخیص": 1312,
    "▁وابست": 1313,
    "▁فارس": 1314,
    "▁مرداد": 1315,
    "▁رئال": 1316,
    "▁صحنه": 1317,
    "▁دین": 1318,
    "▁شعر": 1319,
    "▁کودک": 1320,
    "▁وزن": 1321,
    "▁شاه": 1322,
    "▁کنون": 1323,
    "▁افزوده": 1324,
    "▁هوشمند": 1325,
    "▁۱۳۹۹": 1326,
    "▁عدالت": 1327,
    "▁تجمع": 1328,
    "▁یابد": 1329,
    "▁خاک": 1330,
    "▁بیکار": 1331,
    "▁دفتر": 1332,
    "▁تقوی": 1333,
    "▁رخ": 1334,
    "▁-": 1335,
    "▁انگلستان": 1336,
    "▁ظرف": 1337,
    "▁دوربین": 1338,
    "▁ساختمان": 1339,
    "▁فیفا": 1340,
    "یات": 1341,
    "▁رساند": 1342,
    "▁مدیریت": 1343,
    "▁حسین": 1344,
    "▁فر": 1345,
    "▁زندانی": 1346,
    "▁آوری": 1347,
    "۷": 1348,
    "▁ارزی": 1349,
    "▁مد": 1350,
    "▁صعود": 1351,
    "▁پنجم": 1352,
    "▁پاسداران": 1353,
    "▁دانند": 1354,
    "▁دبیر": 1355,
    "فورد": 1356,
    "▁کشاورز": 1357,
    "▁مستقیم": 1358,
    "▁ظاهر": 1359,
    "▁العاده": 1360,
    "▁صبح": 1361,
    "▁نشری": 1362,
    "▁فوریه": 1363,
    "▁پذیر": 1364,
    "▁بنز": 1365,
    "▁دختران": 1366,
    "▁رضا": 1367,
    "▁پیشرفت": 1368,
    "۰": 1369,
    "▁کشورش": 1370,
    "▁پوست": 1371,
    "▁بنا": 1372,
    "▁فراهم": 1373,
    "▁بو": 1374,
    "▁بهمن": 1375,
    "▁نور": 1376,
    "▁شخصیت": 1377,
    "▁۳۰۰": 1378,
    "۹": 1379,
    "▁واقعی": 1380,
    "▁فو": 1381,
    "▁ژاپن": 1382,
    "▁بهار": 1383,
    "▁معتبر": 1384,
    "▁موقعیت": 1385,
    "▁مدافع": 1386,
    "▁استقبال": 1387,
    "▁مدعی": 1388,
    "▁لو": 1389,
    "▁موزه": 1390,
    "▁نخواه": 1391,
    "▁سعید": 1392,
    "محمد": 1393,
    "▁اقیانوس": 1394,
    "▁مقامات": 1395,
    "▁مک": 1396,
    "▁وضع": 1397,
    "▁چک": 1398,
    "صد": 1399,
    "▁دارو": 1400,
    "▁ژوئن": 1401,
    "▁تز": 1402,
    "▁تماس": 1403,
    "تان": 1404,
    "بود": 1405,
    "ط": 1406,
    "▁بهداشتی": 1407,
    "▁بن": 1408,
    "▁شخصی": 1409,
    "۱": 1410,
    "▁مت": 1411,
    "▁خانگی": 1412,
    "▁خورد": 1413,
    "▁طالبان": 1414,
    "▁آموزش": 1415,
    "▁جنجال": 1416,
    "▁مخالفت": 1417,
    "▁سینمای": 1418,
    "▁راهی": 1419,
    "▁فعلی": 1420,
    "▁مسافران": 1421,
    "▁صدر": 1422,
    "▁امام": 1423,
    "▁جنگل": 1424,
    "▁مادر": 1425,
    "▁مالک": 1426,
    "▁زود": 1427,
    "▁محصولات": 1428,
    "▁اردیبهشت": 1429,
    "▁معادل": 1430,
    "▁درواز": 1431,
    "▁چیست": 1432,
    "▁روایت": 1433,
    "▁حمل": 1434,
    "▁کانال": 1435,
    "▁فایل": 1436,
    "▁کاربران": 1437,
    "▁رمان": 1438,
    "▁محمدرضا": 1439,
    "▁سفارت": 1440,
    "▁میدان": 1441,
    "▁بیماران": 1442,
    "یون": 1443,
    "▁قبلا": 1444,
    "شنبه": 1445,
    "▁سود": 1446,
    "▁دانشمندان": 1447,
    "▁آلمانی": 1448,
    "▁فرزند": 1449,
    "▁تحویل": 1450,
    "▁سرشناس": 1451,
    "▁اوت": 1452,
    "▁بایرن": 1453,
    "▁عجیب": 1454,
    "▁علاق": 1455,
    "▁دید": 1456,
    "▁رویترز": 1457,
    "▁صوتی": 1458,
    "دود": 1459,
    "▁تلفن": 1460,
    "▁تومانی": 1461,
    "داری": 1462,
    "▁عرب": 1463,
    "▁ترانه": 1464,
    "▁بیت": 1465,
    "▁نوری": 1466,
    "▁اصلاح": 1467,
    "▁دل": 1468,
    "▁توصی": 1469,
    "▁هستیم": 1470,
    "▁بدهی": 1471,
    "▁نشود": 1472,
    "▁جشن": 1473,
    "▁خرداد": 1474,
    "▁واکسین": 1475,
    "▁دانش": 1476,
    "▁پاکستان": 1477,
    "▁قدم": 1478,
    "▁بنابر": 1479,
    "▁خواهیم": 1480,
    "▁بیمار": 1481,
    "▁لی": 1482,
    "▁کارهای": 1483,
    "▁خواه": 1484,
    "▁درآمدها": 1485,
    "۳": 1486,
    "▁گوش": 1487,
    "خش": 1488,
    "▁جدا": 1489,
    "▁خدمات": 1490,
    "▁مبتلایان": 1491,
    "▁فرانسوی": 1492,
    "▁مدیرعامل": 1493,
    "▁اوراق": 1494,
    "▁قسمت": 1495,
    "کی": 1496,
    "▁آرام": 1497,
    "▁مهار": 1498,
    "▁ساز": 1499,
    "▁علیرضا": 1500,
    "ازگی": 1501,
    "▁کو": 1502,
    "▁۲۱": 1503,
    "▁مبلغ": 1504,
    "▁آلبوم": 1505,
    "▁نشر": 1506,
    "▁گیرند": 1507,
    "▁سوئیس": 1508,
    "▁مجید": 1509,
    "▁نداشته": 1510,
    "▁مجری": 1511,
    "▁اوج": 1512,
    "نقض": 1513,
    "رد": 1514,
    "▁حفاظت": 1515,
    "▁جزئیات": 1516,
    "▁خلق": 1517,
    "▁معامل": 1518,
    "سته": 1519,
    "▁کنونی": 1520,
    "▁ارسال": 1521,
    "▁پالایشگاه": 1522,
    "▁عادی": 1523,
    "▁همسر": 1524,
    "اوری": 1525,
    "▁متوسط": 1526,
    "▁برگشت": 1527,
    "▁نهایت": 1528,
    "▁سرخ": 1529,
    "▁اینستاگرام": 1530,
    "▁تورنمنت": 1531,
    "▁نوامبر": 1532,
    "▁سوپر": 1533,
    "▁اسطوره": 1534,
    "▁فرهاد": 1535,
    "▁موقت": 1536,
    "▁خورده": 1537,
    "▁موتور": 1538,
    "▁ایم": 1539,
    "▁نویس": 1540,
    "▁یو": 1541,
    "▁آبی": 1542,
    "▁برمی": 1543,
    "الدین": 1544,
    "▁جراح": 1545,
    "▁۲۶": 1546,
    "▁فوری": 1547,
    "▁کنسرت": 1548,
    "▁۲۰۱۷": 1549,
    "▁رونالدو": 1550,
    "▁دریایی": 1551,
    "▁گرم": 1552,
    "▁معرض": 1553,
    "سال": 1554,
    "▁لحظ": 1555,
    "▁نزدیکی": 1556,
    "▁واشنگتن": 1557,
    "▁اخراج": 1558,
    "▁تخریب": 1559,
    "▁ضد": 1560,
    "▁جوایز": 1561,
    "▁تقاضا": 1562,
    "▁خورشیدی": 1563,
    "▁متعل": 1564,
    "▁نداشت": 1565,
    "▁مهاجم": 1566,
    "▁استاد": 1567,
    "▁باره": 1568,
    "▁مالکی": 1569,
    "▁ضرور": 1570,
    "▁سیستان": 1571,
    "کسی": 1572,
    "گاهی": 1573,
    "▁کارکنان": 1574,
    "▁لباس": 1575,
    "▁عصر": 1576,
    "▁داریم": 1577,
    "▁مدیران": 1578,
    "▁غذا": 1579,
    "▁گستر": 1580,
    "▁غذای": 1581,
    "▁موشک": 1582,
    "▁۳۵": 1583,
    "▁منف": 1584,
    "▁نگه": 1585,
    "خانم": 1586,
    "▁مسلح": 1587,
    "▁نحو": 1588,
    "▁صرف": 1589,
    "▁هواپیما": 1590,
    "▁امارات": 1591,
    "▁۷۰": 1592,
    "▁احساس": 1593,
    "▁سوال": 1594,
    "▁رافائل": 1595,
    "▁ناظر": 1596,
    "▁برزیل": 1597,
    "▁کافی": 1598,
    "▁معنای": 1599,
    "▁مکان": 1600,
    "▁گران": 1601,
    "یروز": 1602,
    "▁نتوانست": 1603,
    "سازمان": 1604,
    "▁تمامی": 1605,
    "▁دریای": 1606,
    "▁اشتباه": 1607,
    "▁اکت": 1608,
    "ول": 1609,
    "▁مرزی": 1610,
    "▁۱۳۹۸": 1611,
    "▁بلوچستان": 1612,
    "▁غربی": 1613,
    "▁ایستگاه": 1614,
    "▁۸۰": 1615,
    "▁هاست": 1616,
    "▁خودروهای": 1617,
    "▁دیوان": 1618,
    "▁معمولا": 1619,
    "توجه": 1620,
    "▁فوتبالیست": 1621,
    "▁تصور": 1622,
    "دولت": 1623,
    "وزارت": 1624,
    "اقل": 1625,
    "غلب": 1626,
    "▁محرم": 1627,
    "▁کردم": 1628,
    "▁ویمبلدون": 1629,
    "▁نوبل": 1630,
    "▁قضائیه": 1631,
    "▁نیویورک": 1632,
    "▁ریز": 1633,
    "▁معترضان": 1634,
    "▁مطالع": 1635,
    "▁جیمز": 1636,
    "خواهد": 1637,
    "▁چندان": 1638,
    "▁نیرو": 1639,
    "مقام": 1640,
    "▁برقرار": 1641,
    "▁سعی": 1642,
    "▁آذر": 1643,
    "▁تعهدات": 1644,
    "ما": 1645,
    "امبر": 1646,
    "▁حسینی": 1647,
    "▁کالاهای": 1648,
    "▁زخمی": 1649,
    "▁جمعی": 1650,
    "▁توییت": 1651,
    "▁گام": 1652,
    "▁داند": 1653,
    "▁تقاضای": 1654,
    "فدراسیون": 1655,
    "▁ژوئیه": 1656,
    "▁صلح": 1657,
    "▁فضا": 1658,
    "گری": 1659,
    "▁قاچاق": 1660,
    "قب": 1661,
    "▁ملک": 1662,
    "گ": 1663,
    "▁مشا": 1664,
    "▁داشتن": 1665,
    "است": 1666,
    "▁آهنگ": 1667,
    "▁پست": 1668,
    "وق": 1669,
    "ح": 1670,
    "تبه": 1671,
    "دار": 1672,
    "▁مونیخ": 1673,
    "▁حاصل": 1674,
    "▁نگهداری": 1675,
    "▁بهادار": 1676,
    "▁آمازون": 1677,
    "▁پرتاب": 1678,
    "▁نادال": 1679,
    "▁هموار": 1680,
    "▁حاشیه": 1681,
    "▁منج": 1682,
    "▁انجمن": 1683,
    "▁مخالفان": 1684,
    "▁ماهی": 1685,
    "▁خبرنگاران": 1686,
    "برای": 1687,
    "▁خیابان": 1688,
    "▁فردا": 1689,
    "▁شاعر": 1690,
    "▁امیر": 1691,
    "▁اع": 1692,
    "▁اندازی": 1693,
    "▁پژوهشگران": 1694,
    "▁شهروند": 1695,
    "▁دا": 1696,
    "▁تعویق": 1697,
    "رکت": 1698,
    "▁لیون": 1699,
    "▁اهمیت": 1700,
    "▁مریخ": 1701,
    "▁ادبیات": 1702,
    "▁دیدن": 1703,
    "▁هواپیمای": 1704,
    "▁نمو": 1705,
    "▁نویسندگان": 1706,
    "خبرگزا": 1707,
    "▁تیراندازی": 1708,
    "▁یکدیگر": 1709,
    "▁دشوار": 1710,
    "▁۹۹": 1711,
    "شب": 1712,
    "▁حس": 1713,
    "یابی": 1714,
    "▁عین": 1715,
    "▁مربیان": 1716,
    "▁اساسی": 1717,
    "▁بعدی": 1718,
    "▁هست": 1719,
    "▁برود": 1720,
    "▁مو": 1721,
    "▁متعدد": 1722,
    "زه": 1723,
    "▁کا": 1724,
    "▁صلاحیت": 1725,
    "▁برجسته": 1726,
    "▁عوامل": 1727,
    "▁حکام": 1728,
    "وم": 1729,
    "هرگز": 1730,
    "▁گرفتند": 1731,
    "لیک": 1732,
    "▁توقف": 1733,
    "▁مراجع": 1734,
    "▁اکبر": 1735,
    "▁ورزشکاران": 1736,
    "▁واقعیت": 1737,
    "هر": 1738,
    "▁مناسب": 1739,
    "▁تیر": 1740,
    "▁احتمالی": 1741,
    "▁اختصاص": 1742,
    "▁ایسنا": 1743,
    "▁خوش": 1744,
    "▁افتخار": 1745,
    "▁سپت": 1746,
    "▁روزها": 1747,
    "▁سند": 1748,
    "▁سخنان": 1749,
    "▁داروی": 1750,
    "چند": 1751,
    "▁اسرائیلی": 1752,
    "قانونی": 1753,
    "▁محبوب": 1754,
    "ونه": 1755,
    "کس": 1756,
    "▁جذب": 1757,
    "▁صنایع": 1758,
    "▁سراوان": 1759,
    "▁ثابت": 1760,
    "▁دارای": 1761,
    "▁چالش": 1762,
    "▁آنلاین": 1763,
    "▁پروتکل": 1764,
    "▁ماموران": 1765,
    "▁سلیمانی": 1766,
    "اسی": 1767,
    "▁آمیز": 1768,
    "حسین": 1769,
    "▁مواردی": 1770,
    "▁مطابق": 1771,
    "یکی": 1772,
    "▁پزشک": 1773,
    "▁بازرگانی": 1774,
    "▁سیما": 1775,
    "قیف": 1776,
    "▁قاسم": 1777,
    "▁ساکن": 1778,
    "▁سلطنت": 1779,
    "▁توکیو": 1780,
    "▁بوکس": 1781,
    "▁حاکی": 1782,
    "▁رسما": 1783,
    "رضا": 1784,
    "▁کارمندان": 1785,
    "▁کردیم": 1786,
    "▁همتی": 1787,
    "▁درجه": 1788,
    "▁ریال": 1789,
    "▁پرس": 1790,
    "▁خدم": 1791,
    "▁رقیب": 1792,
    "قدر": 1793,
    "▁حیات": 1794,
    "▁کلاس": 1795,
    "خواهان": 1796,
    "▁استعفا": 1797,
    "پ": 1798,
    "▁چهل": 1799,
    "نا": 1800,
    "▁محروم": 1801,
    "▁ض": 1802,
    "▁لس": 1803,
    "▁ایستاد": 1804,
    "▁خشونت": 1805,
    "▁قالیباف": 1806,
    "ته": 1807,
    "▁مسافر": 1808,
    "▁اخبار": 1809,
    "نده": 1810,
    "▁مسئ": 1811,
    "اسیون": 1812,
    "▁تاسیسات": 1813,
    "▁خشک": 1814,
    "▁جایگاه": 1815,
    "▁وکیل": 1816,
    "▁بندر": 1817,
    "▁عکاسی": 1818,
    "▁پارک": 1819,
    "▁راجر": 1820,
    "▁۲۹": 1821,
    "▁هنرمندان": 1822,
    "▁۳۱": 1823,
    "▁بازگرداند": 1824,
    "▁گفتند": 1825,
    "▁فردی": 1826,
    "ظیم": 1827,
    "▁شیو": 1828,
    "▁آسمان": 1829,
    "▁عبدال": 1830,
    "▁آزار": 1831,
    "▁خورشید": 1832,
    "▁موسو": 1833,
    "▁کارشناس": 1834,
    "شیدا": 1835,
    "▁ارقام": 1836,
    "▁اجلاس": 1837,
    "▁پلاس": 1838,
    "▁فرودگاه": 1839,
    "▁اهل": 1840,
    "▁کشوری": 1841,
    "▁گذارد": 1842,
    "وس": 1843,
    "▁قوی": 1844,
    "▁سهم": 1845,
    "▁پسر": 1846,
    "▁جلوی": 1847,
    "▁نامداری": 1848,
    "بط": 1849,
    "وئل": 1850,
    "▁تری": 1851,
    "▁ترس": 1852,
    "▁اصل": 1853,
    "▁زند": 1854,
    "باید": 1855,
    "هم": 1856,
    "ود": 1857,
    "علوم": 1858,
    "▁توزیع": 1859,
    "▁طبیعت": 1860,
    "سه": 1861,
    "▁سبک": 1862,
    "▁گیر": 1863,
    "▁یوونتوس": 1864,
    "را": 1865,
    "▁طرفداران": 1866,
    "دست": 1867,
    "▁جوکوویچ": 1868,
    "▁مایک": 1869,
    "▁پرو": 1870,
    "▁ماجرا": 1871,
    "▁مخالف": 1872,
    "▁الملل": 1873,
    "▁شناسی": 1874,
    "▁زندانیان": 1875,
    "▁جودو": 1876,
    "سون": 1877,
    "▁پنجاه": 1878,
    "▁شناسا": 1879,
    "▁بعدا": 1880,
    "▁خان": 1881,
    "▁متحد": 1882,
    "▁عمیق": 1883,
    "▁ماده": 1884,
    "کره": 1885,
    "من": 1886,
    "▁اصفهان": 1887,
    "▁اورا": 1888,
    "▁دیجیتال": 1889,
    "▁جبران": 1890,
    "▁دعوت": 1891,
    "▁تاخیر": 1892,
    "▁شهریور": 1893,
    "▁منتظر": 1894,
    "▁ضمن": 1895,
    "▁صراف": 1896,
    "▁منتقدان": 1897,
    "▁کلوپ": 1898,
    "▁ناسا": 1899,
    "▁آل": 1900,
    "کن": 1901,
    "▁ادبی": 1902,
    "▁جواد": 1903,
    "▁شهرت": 1904,
    "▁دستمزد": 1905,
    "▁میلان": 1906,
    "▁محمدی": 1907,
    "هایی": 1908,
    "▁کارها": 1909,
    "▁تحصیل": 1910,
    "▁مراکز": 1911,
    "▁کاپیتان": 1912,
    "تا": 1913,
    "▁آنجلس": 1914,
    "▁تمدید": 1915,
    "▁متولد": 1916,
    "▁گذرد": 1917,
    "▁حراج": 1918,
    "▁حذفی": 1919,
    "بس": 1920,
    "انجام": 1921,
    "▁وگو": 1922,
    "▁زاد": 1923,
    "▁صدو": 1924,
    "▁اتریش": 1925,
    "نیوم": 1926,
    "▁مشاور": 1927,
    "▁شرقی": 1928,
    "▁آور": 1929,
    "▁پاس": 1930,
    "▁پایه": 1931,
    "▁عدد": 1932,
    "وع": 1933,
    "▁فرستاده": 1934,
    "ساوی": 1935,
    "اب": 1936,
    "تیم": 1937,
    "▁نج": 1938,
    "▁ورزشکار": 1939,
    "▁تست": 1940,
    "▁برادر": 1941,
    "▁باور": 1942,
    "رنگ": 1943,
    "▁مسائل": 1944,
    "▁مشمول": 1945,
    "▁مقصد": 1946,
    "▁لوکس": 1947,
    "▁سرپرست": 1948,
    "▁بستر": 1949,
    "▁حقوقی": 1950,
    "▁مراقب": 1951,
    "▁خاص": 1952,
    "یو": 1953,
    "▁اتفاقات": 1954,
    "▁نرم": 1955,
    "▁گردشگری": 1956,
    "▁بازرس": 1957,
    "▁تسل": 1958,
    "▁موثر": 1959,
    "▁جه": 1960,
    "▁صف": 1961,
    "▁ارزها": 1962,
    "▁ادار": 1963,
    "▁فرار": 1964,
    "▁رحمان": 1965,
    "اد": 1966,
    "کش": 1967,
    "▁اسکن": 1968,
    "▁گلستان": 1969,
    "▁فرا": 1970,
    "▁تمرین": 1971,
    "▁اتومبیل": 1972,
    "▁خسارت": 1973,
    "▁سرنگون": 1974,
    "▁۱۳۹۷": 1975,
    "ضاع": 1976,
    "▁هنرپیشه": 1977,
    "▁رهبری": 1978,
    "▁قبول": 1979,
    "▁ثانی": 1980,
    "▁مارک": 1981,
    "▁فراموش": 1982,
    "▁فیزیک": 1983,
    "▁شمالی": 1984,
    "▁فیسبوک": 1985,
    "▁واگذار": 1986,
    "▁همسرش": 1987,
    "▁انتخاباتی": 1988,
    "▁جسد": 1989,
    "...": 1990,
    "▁هرچ": 1991,
    "▁متن": 1992,
    "▁قول": 1993,
    "▁مجاز": 1994,
    "▁برآورد": 1995,
    "▁مج": 1996,
    "▁چشمگیر": 1997,
    "▁فرود": 1998,
    "▁بقیه": 1999,
    "▁آهن": 2000,
    "▁میانه": 2001,
    "▁ناپذیر": 2002,
    "▁خیریه": 2003,
    "گرد": 2004,
    "▁۳۲": 2005,
    "▁نقاش": 2006,
    "▁هماهنگ": 2007,
    "▁سامانه": 2008,
    "▁کرونای": 2009,
    "یست": 2010,
    "▁شاملو": 2011,
    "▁خلی": 2012,
    "▁بلا": 2013,
    "▁زمستان": 2014,
    "▁محققان": 2015,
    "شته": 2016,
    "جا": 2017,
    "اره": 2018,
    "▁سپاهان": 2019,
    "▁بان": 2020,
    "▁پدرش": 2021,
    "▁گزین": 2022,
    "▁نوروز": 2023,
    "رئیس": 2024,
    "▁اسکاتلند": 2025,
    "▁تئاتر": 2026,
    "▁میراث": 2027,
    "▁تنفس": 2028,
    "ران": 2029,
    "▁تحولات": 2030,
    "ابت": 2031,
    "گفته": 2032,
    "▁بنیاد": 2033,
    "▁فرمو": 2034,
    "▁جذاب": 2035,
    "▁افزود": 2036,
    "▁درک": 2037,
    "همزمان": 2038,
    "▁بخت": 2039,
    "▁نهم": 2040,
    "هفته": 2041,
    "۱۶": 2042,
    "▁انداز": 2043,
    "▁آشنا": 2044,
    "▁رویکرد": 2045,
    "کار": 2046,
    "لان": 2047,
    "▁صدرنشین": 2048,
    "▁اطمینان": 2049,
    "▁شاغل": 2050,
    "▁موضع": 2051,
    "▁نارنجی": 2052,
    "▁ازدواج": 2053,
    "▁آرسنال": 2054,
    "▁۲۰۱۵": 2055,
    "▁ساحل": 2056,
    "▁ساعات": 2057,
    "▁کانادا": 2058,
    "▁تماشاگران": 2059,
    "اری": 2060,
    "خراج": 2061,
    "▁عید": 2062,
    "▁ابلاغ": 2063,
    "▁سهمی": 2064,
    "▁نداده": 2065,
    "▁مشاهد": 2066,
    "خمین": 2067,
    "▁اوپ": 2068,
    "▁چنان": 2069,
    "فسور": 2070,
    "▁جامع": 2071,
    "ئو": 2072,
    "ناصر": 2073,
    "شویی": 2074,
    "▁بالاتری": 2075,
    "▁توانسته": 2076,
    "▁دستگیر": 2077,
    "▁حامل": 2078,
    "▁نطنز": 2079,
    "▁ناگهان": 2080,
    "▁پنهان": 2081,
    "▁مشهد": 2082,
    "▁دامن": 2083,
    "▁فعلا": 2084,
    "▁بماند": 2085,
    "▁رادیو": 2086,
    "▁فیوری": 2087,
    "▁مقدار": 2088,
    "▁گرانی": 2089,
    "▁همچو": 2090,
    "▁باغ": 2091,
    "یان": 2092,
    "ماه": 2093,
    "▁نفس": 2094,
    "وثی": 2095,
    "▁شبانه": 2096,
    "رسدس": 2097,
    "▁کوه": 2098,
    "داد": 2099,
    "▁پاپ": 2100,
    "شاره": 2101,
    "▁عق": 2102,
    "▁صاحب": 2103,
    "▁تخت": 2104,
    "▁اسب": 2105,
    "▁کی": 2106,
    "۴۰۰": 2107,
    "▁تکرار": 2108,
    "▁عمدتا": 2109,
    "▁تعلیق": 2110,
    "▁الهام": 2111,
    "▁رونق": 2112,
    "▁بگیرند": 2113,
    "▁دسامبر": 2114,
    "▁کلیه": 2115,
    "▁قربانیان": 2116,
    "▁کمیس": 2117,
    "▁سوئد": 2118,
    "▁مشتریان": 2119,
    "▁نیازمند": 2120,
    "▁مسعود": 2121,
    "۱۸": 2122,
    "▁اسناد": 2123,
    "▁امر": 2124,
    "وه": 2125,
    "▁جوانان": 2126,
    "لو": 2127,
    "▁درمانی": 2128,
    "▁دما": 2129,
    "گزارش": 2130,
    "▁عکاس": 2131,
    "▁دام": 2132,
    "▁نیستند": 2133,
    "▁گاه": 2134,
    "▁نوجوان": 2135,
    "▁خاصی": 2136,
    "▁کارت": 2137,
    "▁کالیفرنیا": 2138,
    "▁اظهار": 2139,
    "▁خاتمی": 2140,
    "▁ناز": 2141,
    "▁حداکثر": 2142,
    "▁ژافره": 2143,
    "▁نداریم": 2144,
    "▁وق": 2145,
    "▁انداخت": 2146,
    "▁ذهن": 2147,
    "▁فروخته": 2148,
    "▁عرص": 2149,
    "▁پادتن": 2150,
    "▁آکادمی": 2151,
    "▁حملات": 2152,
    "▁ماموریت": 2153,
    "۱۹": 2154,
    "▁برخوردار": 2155,
    "▁سرکوب": 2156,
    "▁۲۷": 2157,
    "▁تولد": 2158,
    "▁ایتالیایی": 2159,
    "ینگ": 2160,
    "▁استاندار": 2161,
    "▁اطراف": 2162,
    "▁نبوده": 2163,
    "▁محافظ": 2164,
    "وید": 2165,
    "▁هی": 2166,
    "▁۳۳": 2167,
    "▁مرور": 2168,
    "▁دادستان": 2169,
    "▁ساده": 2170,
    "▁اجا": 2171,
    "▁یمن": 2172,
    "▁هشتم": 2173,
    "▁۴۵": 2174,
    "▁یافتن": 2175,
    "▁یخ": 2176,
    "▁انداخته": 2177,
    "▁آفریقا": 2178,
    "▁امیدواری": 2179,
    "▁کیلومتری": 2180,
    "▁لبنان": 2181,
    "▁تماشاگر": 2182,
    "▁محصول": 2183,
    "▁خواب": 2184,
    "▁تاسیس": 2185,
    "▁ژرمن": 2186,
    "▁اعتبار": 2187,
    "▁نسخ": 2188,
    "▁حیوانات": 2189,
    "ندگان": 2190,
    "▁محرومیت": 2191,
    "▁دستورالعمل": 2192,
    "▁شواهد": 2193,
    "▁بازنشستگان": 2194,
    "▁خمینی": 2195,
    "▁جلب": 2196,
    "▁مسئولیت": 2197,
    "▁عمر": 2198,
    "▁نادر": 2199,
    "▁بدهد": 2200,
    "▁هویت": 2201,
    "▁پیچیده": 2202,
    "▁تماشای": 2203,
    "پیش": 2204,
    "حسن": 2205,
    "▁خاطره": 2206,
    "اک": 2207,
    "▁اضطرار": 2208,
    "▁دسته": 2209,
    "▁آمدن": 2210,
    "ئی": 2211,
    "▁ویژ": 2212,
    "▁بند": 2213,
    "غم": 2214,
    "عهد": 2215,
    "▁شرکتهای": 2216,
    "▁مادرش": 2217,
    "▁تصادف": 2218,
    "نظر": 2219,
    "▁کارزار": 2220,
    "▁کالاها": 2221,
    "▁محسو": 2222,
    "▁هیئت": 2223,
    "▁اعتماد": 2224,
    "▁مصنوعی": 2225,
    "▁ایرنا": 2226,
    "▁پادشاه": 2227,
    "▁جواب": 2228,
    "▁پن": 2229,
    "ذیب": 2230,
    "▁نفوذ": 2231,
    "یل": 2232,
    "▁گری": 2233,
    "▁تعرف": 2234,
    "▁داوطلبان": 2235,
    "▁شانس": 2236,
    "▁بازدید": 2237,
    "▁هفتم": 2238,
    "رده": 2239,
    "▁دیوار": 2240,
    "▁بیان": 2241,
    "▁برداری": 2242,
    "▁قطعه": 2243,
    "بیشترین": 2244,
    "▁شک": 2245,
    "نازنی": 2246,
    "رت": 2247,
    "▁تخم": 2248,
    "▁مسکو": 2249,
    "یده": 2250,
    "▁مطلب": 2251,
    "▁اسکی": 2252,
    "▁پاری": 2253,
    "▁خطرناک": 2254,
    "▁واگن": 2255,
    "▁متوالی": 2256,
    "▁قالب": 2257,
    "▁خفاش": 2258,
    "▁تبعیض": 2259,
    "▁بردن": 2260,
    "▁مستقل": 2261,
    "▁مجسمه": 2262,
    "▁شبی": 2263,
    "▁کیفیت": 2264,
    "▁دانیم": 2265,
    "▁متخصص": 2266,
    "▁ویدیوی": 2267,
    "▁شفاف": 2268,
    "▁خودکشی": 2269,
    "▁پکن": 2270,
    "▁زهرا": 2271,
    "▁مدیرکل": 2272,
    "▁کادر": 2273,
    "▁ار": 2274,
    "▁چرخ": 2275,
    "▁مدار": 2276,
    "▁دلاری": 2277,
    "بانک": 2278,
    "▁سخن": 2279,
    "▁بازیگران": 2280,
    "ریمه": 2281,
    "▁اتفاقی": 2282,
    "▁اطلاعی": 2283,
    "▁گشت": 2284,
    "▁حالت": 2285,
    "▁۳۴": 2286,
    "▁سفرهای": 2287,
    "▁هن": 2288,
    "▁سری": 2289,
    "▁نکرد": 2290,
    "جمع": 2291,
    "▁شغل": 2292,
    "▁مهد": 2293,
    "▁نیمی": 2294,
    "▁ماجرای": 2295,
    "▁مورینیو": 2296,
    "▁کیلوگرم": 2297,
    "▁اندونزی": 2298,
    "▁پرچم": 2299,
    "▁تشویق": 2300,
    "▁نصب": 2301,
    "رز": 2302,
    "▁تردد": 2303,
    "▁تجدید": 2304,
    "گانه": 2305,
    "▁مسافرت": 2306,
    "▁مجازات": 2307,
    "▁رمز": 2308,
    "▁دهیم": 2309,
    "▁آر": 2310,
    "▁مدرسه": 2311,
    "▁تأ": 2312,
    "ساز": 2313,
    "▁مار": 2314,
    "۱۴": 2315,
    "▁طلای": 2316,
    "▁دقیقا": 2317,
    "▁گوشت": 2318,
    "بعضی": 2319,
    "▁پاک": 2320,
    "وخیم": 2321,
    "▁انتظا": 2322,
    "بنابر": 2323,
    "دکتر": 2324,
    "▁درحال": 2325,
    "رون": 2326,
    "وقت": 2327,
    "▁ترجم": 2328,
    "▁مدرن": 2329,
    "▁منع": 2330,
    "یوم": 2331,
    "▁نگار": 2332,
    "▁معدن": 2333,
    "قیمت": 2334,
    "▁گرنداسلم": 2335,
    "▁مشاغل": 2336,
    "▁نیمکت": 2337,
    "▁سلول": 2338,
    "▁بگذارد": 2339,
    "▁عشق": 2340,
    "▁مقدمات": 2341,
    "▁برگزید": 2342,
    "▁اجاره": 2343,
    "▁خلاف": 2344,
    "▁امضای": 2345,
    "▁هاشمی": 2346,
    "▁فرم": 2347,
    "▁لستر": 2348,
    "▁ابر": 2349,
    "▁مرجان": 2350,
    "▁قلع": 2351,
    "▁طلب": 2352,
    "▁شاهین": 2353,
    "آزادسازی": 2354,
    "▁عبدالله": 2355,
    "▁فراز": 2356,
    "شرکت": 2357,
    "▁نمایندگی": 2358,
    "دان": 2359,
    "▁تب": 2360,
    "▁خودروسازی": 2361,
    "▁جانب": 2362,
    "▁عملا": 2363,
    "▁آسان": 2364,
    "▁دوز": 2365,
    "کل": 2366,
    "خالت": 2367,
    "▁افزار": 2368,
    "▁آنتونی": 2369,
    "▁ابراهیم": 2370,
    "▁مهمتری": 2371,
    "▁فرمان": 2372,
    "▁دوستان": 2373,
    "وش": 2374,
    "نس": 2375,
    "▁کلید": 2376,
    "نین": 2377,
    "▁آکسفورد": 2378,
    "▁گشایش": 2379,
    "پی": 2380,
    "▁وسیع": 2381,
    "▁شصت": 2382,
    "▁وام": 2383,
    "▁خطوط": 2384,
    "▁مالیاتی": 2385,
    "▁وایلد": 2386,
    "▁پوشش": 2387,
    "▁اهواز": 2388,
    "▁تجهیزات": 2389,
    "▁شویم": 2390,
    "▁وانت": 2391,
    "▁شگفت": 2392,
    "▁محکومیت": 2393,
    "▁دهنده": 2394,
    "▁زودتر": 2395,
    "زی": 2396,
    "▁بازگش": 2397,
    "▁رویا": 2398,
    "▁بابا": 2399,
    "▁نامش": 2400,
    "▁پیگیری": 2401,
    "▁مان": 2402,
    "▁۴۲": 2403,
    "▁زنند": 2404,
    "رانی": 2405,
    "▁درحالی": 2406,
    "▁کجا": 2407,
    "زاده": 2408,
    "▁مسک": 2409,
    "▁نامید": 2410,
    "▁علم": 2411,
    "▁دان": 2412,
    "▁مبن": 2413,
    "▁دائم": 2414,
    "بار": 2415,
    "▁پژوهشگر": 2416,
    "شدید": 2417,
    "▁جنسیت": 2418,
    "▁چارچوب": 2419,
    "▁بسکتبال": 2420,
    "▁استانبول": 2421,
    "▁سلاح": 2422,
    "▁گروسی": 2423,
    "▁علائم": 2424,
    "▁گواردیولا": 2425,
    "▁منافع": 2426,
    "▁پرتغال": 2427,
    "▁هتل": 2428,
    "▁دانشجویان": 2429,
    "▁اسپانیایی": 2430,
    "▁یادآور": 2431,
    "▁آرایش": 2432,
    "▁تفاوت": 2433,
    "▁زاهد": 2434,
    "لند": 2435,
    "▁دیپلما": 2436,
    "▁اسماعیل": 2437,
    "▁اجباری": 2438,
    "▁تحول": 2439,
    "▁طلبان": 2440,
    "▁فقر": 2441,
    "▁برنت": 2442,
    "▁شیر": 2443,
    "▁تل": 2444,
    "ورت": 2445,
    "▁آزمایشگاه": 2446,
    "▁بردند": 2447,
    "▁شهرداری": 2448,
    "ستان": 2449,
    "▁فق": 2450,
    "▁اسلام": 2451,
    "واع": 2452,
    "▁معمول": 2453,
    "▁جی": 2454,
    "▁برج": 2455,
    "▁لذت": 2456,
    "▁غیرمستقیم": 2457,
    "▁فولک": 2458,
    "▁حقیقت": 2459,
    "▁دیپلماتیک": 2460,
    "▁باشیم": 2461,
    "▁شهرستان": 2462,
    "▁تالاب": 2463,
    "▁شهرسازی": 2464,
    "▁اقلیم": 2465,
    "▁امکانات": 2466,
    "▁فرو": 2467,
    "▁بخار": 2468,
    "▁روس": 2469,
    "▁بیستم": 2470,
    "بستری": 2471,
    "▁ششم": 2472,
    "▁پزشکان": 2473,
    "▁پهلوی": 2474,
    "▁واقعا": 2475,
    "▁مناسبت": 2476,
    "▁زدند": 2477,
    "▁قضاییه": 2478,
    "ادی": 2479,
    "▁ایفا": 2480,
    "یش": 2481,
    "قابل": 2482,
    "▁باری": 2483,
    "▁نود": 2484,
    "اپی": 2485,
    "▁اسدی": 2486,
    "تمام": 2487,
    "▁۱۵۰": 2488,
    "▁ذر": 2489,
    "فت": 2490,
    "▁ماندن": 2491,
    "▁وحش": 2492,
    "▁۶۵": 2493,
    "لا": 2494,
    "آزمایی": 2495,
    "▁خرد": 2496,
    "کته": 2497,
    "▁سرد": 2498,
    "ساله": 2499,
    "▁قر": 2500,
    "▁خوان": 2501,
    "▁برون": 2502,
    "▁ی": 2503,
    "▁بودیم": 2504,
    "▁ریش": 2505,
    "▁بلینکن": 2506,
    "▁مشروط": 2507,
    "▁تبریز": 2508,
    "▁عمق": 2509,
    "▁خاتم": 2510,
    "▁کانون": 2511,
    "▁مسجد": 2512,
    "▁نفع": 2513,
    "▁جدایی": 2514,
    "▁پاییز": 2515,
    "▁سرنوشت": 2516,
    "▁اولسان": 2517,
    "جی": 2518,
    "▁نوسان": 2519,
    "▁صادق": 2520,
    "▁سازنده": 2521,
    "قرار": 2522,
    "▁ناکام": 2523,
    "▁بهای": 2524,
    "▁منظور": 2525,
    "▁حب": 2526,
    "نجر": 2527,
    "▁تایسون": 2528,
    "▁هو": 2529,
    "▁نابودی": 2530,
    "کا": 2531,
    "وند": 2532,
    "غول": 2533,
    "▁نشدن": 2534,
    "▁جک": 2535,
    "▁حلق": 2536,
    "▁اقدامی": 2537,
    "▁اختلال": 2538,
    "▁اور": 2539,
    "▁۷۰۰": 2540,
    "▁تردید": 2541,
    "▁شی": 2542,
    "▁آم": 2543,
    "▁هوش": 2544,
    "▁قدر": 2545,
    "▁رهبران": 2546,
    "▁نامزدهای": 2547,
    "خواهی": 2548,
    "▁تماشا": 2549,
    "▁آسیای": 2550,
    "▁موافق": 2551,
    "خ": 2552,
    "▁ابتلای": 2553,
    "▁۶۰۰": 2554,
    "لاک": 2555,
    "▁اصلا": 2556,
    "▁اینتر": 2557,
    "اگر": 2558,
    "▁تسلیحات": 2559,
    "▁الحاق": 2560,
    "▁موقع": 2561,
    "▁آشکار": 2562,
    "▁نباشد": 2563,
    "▁کلمبیا": 2564,
    "▁جانشین": 2565,
    "▁هیجان": 2566,
    "▁ثبات": 2567,
    "▁کاوشگر": 2568,
    "▁بلژیک": 2569,
    "▁معلوم": 2570,
    "▁سوالات": 2571,
    "▁مثال": 2572,
    "پدیده": 2573,
    "مجموع": 2574,
    "▁دفاعی": 2575,
    "▁مدنی": 2576,
    "▁درخشان": 2577,
    "ایر": 2578,
    "▁هلند": 2579,
    "▁اکثر": 2580,
    "▁علنی": 2581,
    "▁تجا": 2582,
    "▁معاف": 2583,
    "▁عذر": 2584,
    "▁نماد": 2585,
    "▁کیم": 2586,
    "تصاب": 2587,
    "▁چندی": 2588,
    "▁رویدادها": 2589,
    "امروز": 2590,
    "آن": 2591,
    "رو": 2592,
    "یشه": 2593,
    "▁طوری": 2594,
    "▁شوک": 2595,
    "▁اص": 2596,
    "دگی": 2597,
    "▁راحت": 2598,
    "▁جری": 2599,
    "▁تحلیل": 2600,
    "▁آماد": 2601,
    "▁عبارت": 2602,
    "▁پیامدهای": 2603,
    "▁اورتون": 2604,
    "▁اماکن": 2605,
    "▁آواز": 2606,
    "▁نمایشگر": 2607,
    "▁پرورش": 2608,
    "▁اوران": 2609,
    "حمل": 2610,
    "▁سقف": 2611,
    "▁بنیان": 2612,
    "▁شتاب": 2613,
    "▁بزند": 2614,
    "▁بامیان": 2615,
    "▁برند": 2616,
    "▁شرط": 2617,
    "▁سپرده": 2618,
    "▁امشب": 2619,
    "▁خاوران": 2620,
    "▁اقامت": 2621,
    "▁داور": 2622,
    "▁هیا": 2623,
    "▁ردیف": 2624,
    "▁زا": 2625,
    "▁مذهبی": 2626,
    "▁مخاطبان": 2627,
    "▁همکاران": 2628,
    "▁فرماندار": 2629,
    "▁هجوم": 2630,
    "▁نمای": 2631,
    "▁نوروزی": 2632,
    "▁نرسیده": 2633,
    "لوله": 2634,
    "▁صورتی": 2635,
    "▁فروشگاه": 2636,
    "▁خر": 2637,
    "▁پو": 2638,
    "▁حج": 2639,
    "▁ست": 2640,
    "▁۴۸": 2641,
    "▁ذخ": 2642,
    "▁گوشی": 2643,
    "وزیر": 2644,
    "▁سالن": 2645,
    "▁۴۴": 2646,
    "▁سرود": 2647,
    "▁کارمند": 2648,
    "چ": 2649,
    "حدود": 2650,
    "▁محاسب": 2651,
    "سعید": 2652,
    "▁تبلیغ": 2653,
    "▁رضوی": 2654,
    "▁حکایت": 2655,
    "▁جستجو": 2656,
    "▁همیشگی": 2657,
    "▁جایگزین": 2658,
    "▁استراماچونی": 2659,
    "▁شورو": 2660,
    "▁۲۰۱۱": 2661,
    "▁قادر": 2662,
    "▁ماراتن": 2663,
    "▁خطاب": 2664,
    "▁ژاپنی": 2665,
    "▁فایزر": 2666,
    "▁تکمیل": 2667,
    "ریزی": 2668,
    "▁انت": 2669,
    "▁تعطیلات": 2670,
    "▁محافظت": 2671,
    "▁آذربایجان": 2672,
    "▁ملایی": 2673,
    "▁نمایشگاه": 2674,
    "▁کریستیان": 2675,
    "▁بلیت": 2676,
    "▁بازرسان": 2677,
    "▁جر": 2678,
    "▁معن": 2679,
    "▁برقی": 2680,
    "▁صالح": 2681,
    "▁اتهامات": 2682,
    "افسانه": 2683,
    "▁۹۷": 2684,
    "▁خواهم": 2685,
    "▁عزیزی": 2686,
    "▁طیف": 2687,
    "اش": 2688,
    "اند": 2689,
    "ابی": 2690,
    "▁کیو": 2691,
    "▁نی": 2692,
    "مت": 2693,
    "▁درون": 2694,
    "دن": 2695,
    "▁گمان": 2696,
    "سبب": 2697,
    "▁۱۹۸": 2698,
    "▁قیمتها": 2699,
    "▁دانشمند": 2700,
    "▁فیلیپ": 2701,
    "▁حوادث": 2702,
    "▁فرآیند": 2703,
    "▁هالیوود": 2704,
    "▁سایپا": 2705,
    "▁تراکتور": 2706,
    "▁جنبش": 2707,
    "▁پارلمان": 2708,
    "▁غافلگیر": 2709,
    "▁قدرتمند": 2710,
    "▁مطل": 2711,
    "▁هیوندای": 2712,
    "▁رانندگان": 2713,
    "▁سبز": 2714,
    "▁نژادپرست": 2715,
    "▁بیاید": 2716,
    "▁تدریج": 2717,
    "ستون": 2718,
    "▁خطیب": 2719,
    "باره": 2720,
    "▁سانسور": 2721,
    "▁اپل": 2722,
    "احل": 2723,
    "▁شا": 2724,
    "مون": 2725,
    "▁بهشت": 2726,
    "▁ری": 2727,
    "فاصله": 2728,
    "▁عادت": 2729,
    "▁بلخ": 2730,
    "▁فرستاد": 2731,
    "▁تقس": 2732,
    "▁باند": 2733,
    "▁غلام": 2734,
    "وری": 2735,
    "طی": 2736,
    "رچند": 2737,
    "اجع": 2738,
    "▁ژنتیکی": 2739,
    "▁کارش": 2740,
    "▁تپ": 2741,
    "▁سالم": 2742,
    "▁ص": 2743,
    "▁والی": 2744,
    "حال": 2745,
    "▁یازده": 2746,
    "▁نظریه": 2747,
    "▁تبار": 2748,
    "▁آموزشی": 2749,
    "▁زیرا": 2750,
    "۲۵": 2751,
    "▁۳۹": 2752,
    "▁اعزام": 2753,
    "▁معاصر": 2754,
    "▁آفتاب": 2755,
    "▁یوفا": 2756,
    "▁گورستان": 2757,
    "رسمی": 2758,
    "▁عراقچی": 2759,
    "▁ویلیامز": 2760,
    "▁هافبک": 2761,
    "▁بدهند": 2762,
    "▁فریاد": 2763,
    "▁طبری": 2764,
    "▁راموس": 2765,
    "▁عفو": 2766,
    "▁خاورمیانه": 2767,
    "▁اندک": 2768,
    "فر": 2769,
    "▁حیدر": 2770,
    "▁۹۶": 2771,
    "▁شنا": 2772,
    "▁عروس": 2773,
    "▁وال": 2774,
    "▁سوز": 2775,
    "▁مطالب": 2776,
    "▁دیگو": 2777,
    "▁تمایل": 2778,
    "▁آفریقای": 2779,
    "▁دایک": 2780,
    "▁بطور": 2781,
    "▁۷۵": 2782,
    "▁یونان": 2783,
    "یلی": 2784,
    "بری": 2785,
    "▁ماهوار": 2786,
    "آ": 2787,
    "عه": 2788,
    "▁رسیدند": 2789,
    "ماهی": 2790,
    "پور": 2791,
    "▁توجهی": 2792,
    "▁بودم": 2793,
    "مدال": 2794,
    "▁خریدار": 2795,
    "بنا": 2796,
    "▁فرزندان": 2797,
    "نکه": 2798,
    "▁کف": 2799,
    "▁انگار": 2800,
    "▁اسم": 2801,
    "▁تبع": 2802,
    "▁بهایی": 2803,
    "▁آدم": 2804,
    "باقر": 2805,
    "▁وسط": 2806,
    "۲۰۱۲": 2807,
    "▁عوارض": 2808,
    "▁قاجار": 2809,
    "▁احترام": 2810,
    "▁اقلام": 2811,
    "▁تعریف": 2812,
    "▁آگاه": 2813,
    "▁فراوان": 2814,
    "▁اولویت": 2815,
    "▁یادداشت": 2816,
    "▁فراتر": 2817,
    "▁عاص": 2818,
    "▁طوفان": 2819,
    "▁ویلموتس": 2820,
    "▁برانکو": 2821,
    "▁منچسترسیتی": 2822,
    "▁کنفرانس": 2823,
    "▁کانری": 2824,
    "▁سنا": 2825,
    "▁راز": 2826,
    "▁ادعا": 2827,
    "▁شنیده": 2828,
    "▁مع": 2829,
    "▁لمس": 2830,
    "▁معارف": 2831,
    "▁نداشتند": 2832,
    "▁داری": 2833,
    "▁هستم": 2834,
    "تری": 2835,
    "دم": 2836,
    "▁رسانی": 2837,
    "▁ارزان": 2838,
    "▁۳۸": 2839,
    "▁تبلیغات": 2840,
    "▁شهری": 2841,
    "▁مسئولین": 2842,
    "▁کش": 2843,
    "وین": 2844,
    "▁رحمانی": 2845,
    "قل": 2846,
    "▁فیل": 2847,
    "▁محمدجواد": 2848,
    "گین": 2849,
    "▁اذ": 2850,
    "تنش": 2851,
    "▁گروگان": 2852,
    "▁جزیر": 2853,
    "بورن": 2854,
    "▁خوک": 2855,
    "وال": 2856,
    "کاری": 2857,
    "۵۰": 2858,
    "▁لب": 2859,
    "▁مطمئن": 2860,
    "تواند": 2861,
    "▁دبلیو": 2862,
    "▁گوناگون": 2863,
    "▁الکترونیک": 2864,
    "▁غزنی": 2865,
    "رویی": 2866,
    "▁امان": 2867,
    "▁ارشاد": 2868,
    "▁هشتاد": 2869,
    "▁باشید": 2870,
    "▁پلاستیک": 2871,
    "▁مدارس": 2872,
    "▁قایق": 2873,
    "▁فرونشست": 2874,
    "▁عروسک": 2875,
    "ص": 2876,
    "▁مدارک": 2877,
    "طئ": 2878,
    "▁برخلاف": 2879,
    "▁مهاجرت": 2880,
    "▁تعهد": 2881,
    "▁عطر": 2882,
    "▁۴۳": 2883,
    "▁آرامش": 2884,
    "▁عظیم": 2885,
    "▁بهتری": 2886,
    "▁قلم": 2887,
    "▁کریمی": 2888,
    "▁طلایی": 2889,
    "رسی": 2890,
    "▁اوکراین": 2891,
    "▁مغزی": 2892,
    "▁تس": 2893,
    "▁مرا": 2894,
    "▁عملی": 2895,
    "▁خوردن": 2896,
    "▁جم": 2897,
    "ازم": 2898,
    "▁قد": 2899,
    "▁فلیک": 2900,
    "مند": 2901,
    "▁شکاف": 2902,
    "▁برانگیز": 2903,
    "▁فا": 2904,
    "چی": 2905,
    "نادیده": 2906,
    "داشت": 2907,
    "▁شکار": 2908,
    "تو": 2909,
    "لت": 2910,
    "▁قله": 2911,
    "▁گذراند": 2912,
    "خته": 2913,
    "جه": 2914,
    "▁خیابانی": 2915,
    "▁پیشگیری": 2916,
    "▁خیر": 2917,
    "▁حضورش": 2918,
    "▁۹۵": 2919,
    "▁آتی": 2920,
    "▁عام": 2921,
    "▁رفتند": 2922,
    "یف": 2923,
    "ولی": 2924,
    "▁بیمه": 2925,
    "افغانستان": 2926,
    "▁کلاسیک": 2927,
    "▁عادل": 2928,
    "▁جورج": 2929,
    "▁کسر": 2930,
    "نوبت": 2931,
    "▁مشتری": 2932,
    "▁۳۷": 2933,
    "▁افکن": 2934,
    "ظ": 2935,
    "▁منار": 2936,
    "▁آیند": 2937,
    "اولین": 2938,
    "▁تگزاس": 2939,
    "▁بغداد": 2940,
    "▁موبایل": 2941,
    "▁سامسونگ": 2942,
    "▁خداحافظ": 2943,
    "▁آنفلوآنزا": 2944,
    "▁مازندران": 2945,
    "▁تظاهرات": 2946,
    "▁وسایل": 2947,
    "▁مستمر": 2948,
    "▁جانسون": 2949,
    "▁۲۰۱۰": 2950,
    "▁سرقت": 2951,
    "▁روغن": 2952,
    "▁زلزله": 2953,
    "▁شیراز": 2954,
    "▁امن": 2955,
    "▁برگزیت": 2956,
    "▁قاضی": 2957,
    "▁انبار": 2958,
    "▁هفتاد": 2959,
    "▁منشا": 2960,
    "فق": 2961,
    "پیشتر": 2962,
    "▁پارسی": 2963,
    "هزار": 2964,
    "▁سپ": 2965,
    "▁مکرون": 2966,
    "▁حامی": 2967,
    "▁اهدا": 2968,
    "▁زیبایی": 2969,
    "▁نگرفته": 2970,
    "▁قدس": 2971,
    "▁روح": 2972,
    "▁نماز": 2973,
    "▁نشین": 2974,
    "▁سد": 2975,
    "▁آمارها": 2976,
    "▁ویدئویی": 2977,
    "▁برایش": 2978,
    "▁پتروش": 2979,
    "▁ستار": 2980,
    "▁مقال": 2981,
    "▁سلطان": 2982,
    "ادورو": 2983,
    "▁کمال": 2984,
    "▁حساس": 2985,
    "لیگ": 2986,
    "سیا": 2987,
    "▁شوم": 2988,
    "▁گرا": 2989,
    "▁حمید": 2990,
    "▁جن": 2991,
    "▁سالها": 2992,
    "▁تف": 2993,
    "▁ضرر": 2994,
    "▁ایست": 2995,
    "▁شعب": 2996,
    "▁ویدیو": 2997,
    "▁کشد": 2998,
    "▁آندر": 2999,
    "افزایش": 3000,
    "دل": 3001,
    "▁ضعیف": 3002,
    "▁عاشق": 3003,
    "▁ابزار": 3004,
    "▁کریست": 3005,
    "▁ادا": 3006,
    "راحل": 3007,
    "▁نت": 3008,
    "▁تاجیک": 3009,
    "▁وست": 3010,
    "▁تور": 3011,
    "▁گزارشگر": 3012,
    "▁محقق": 3013,
    "سا": 3014,
    "▁شعار": 3015,
    "▁ادعای": 3016,
    "اقات": 3017,
    "▁شایع": 3018,
    "▁چا": 3019,
    "▁محدودیتهای": 3020,
    "▁شمخانی": 3021,
    "▁رستوران": 3022,
    "▁موانع": 3023,
    "▁دادگستری": 3024,
    "▁ازبکستان": 3025,
    "▁ببینید": 3026,
    "▁مطبوعات": 3027,
    "▁شکنجه": 3028,
    "پنج": 3029,
    "▁عفونت": 3030,
    "▁کمرنگ": 3031,
    "▁صمت": 3032,
    "▁زوج": 3033,
    "▁فرگوسن": 3034,
    "▁مقاومت": 3035,
    "▁ویران": 3036,
    "▁سرزمین": 3037,
    "▁بخصوص": 3038,
    "▁نیک": 3039,
    "▁اشرف": 3040,
    "▁اسلم": 3041,
    "پلیس": 3042,
    "▁اختلافات": 3043,
    "▁مکانی": 3044,
    "▁خاطرات": 3045,
    "▁وبسایت": 3046,
    "▁توماس": 3047,
    "یس": 3048,
    "▁سانتی": 3049,
    "بسیاری": 3050,
    "▁پیک": 3051,
    "▁تاثیرگذار": 3052,
    "▁مور": 3053,
    "▁مساوی": 3054,
    "▁صرفا": 3055,
    "التی": 3056,
    "▁۴۹": 3057,
    "▁گرند": 3058,
    "فرین": 3059,
    "▁پذیرفته": 3060,
    "▁جلسات": 3061,
    "ض": 3062,
    "▁ظاهرا": 3063,
    "▁حا": 3064,
    "آمریکا": 3065,
    "▁فرش": 3066,
    "▁برکنار": 3067,
    "▁عزاداری": 3068,
    "▁خودم": 3069,
    "▁افشار": 3070,
    "▁وظ": 3071,
    "▁دراز": 3072,
    "احض": 3073,
    "▁سلمان": 3074,
    "خره": 3075,
    "▁گذر": 3076,
    "اکان": 3077,
    "▁تنگ": 3078,
    "▁شناور": 3079,
    "▁آباد": 3080,
    "▁منته": 3081,
    "▁تاپ": 3082,
    "▁جرم": 3083,
    "▁شهرها": 3084,
    "▁لوئی": 3085,
    "▁رویداد": 3086,
    "نش": 3087,
    "▁نم": 3088,
    "▁درهای": 3089,
    "▁بدتر": 3090,
    "▁کام": 3091,
    "▁یور": 3092,
    "▁مزار": 3093,
    "▁قاطع": 3094,
    "غ": 3095,
    "▁پرفروش": 3096,
    "باران": 3097,
    "▁غار": 3098,
    "۳۱": 3099,
    "▁اهدای": 3100,
    "جم": 3101,
    "▁۵۵": 3102,
    "▁قار": 3103,
    "▁منتقد": 3104,
    "▁صادقی": 3105,
    "▁ذو": 3106,
    "استفاده": 3107,
    "▁پوشید": 3108,
    "▁خلاص": 3109,
    "▁حیوان": 3110,
    "▁اشک": 3111,
    "▁منحصر": 3112,
    "▁پروتئین": 3113,
    "▁ترجیح": 3114,
    "▁خوراک": 3115,
    "▁معیشت": 3116,
    "▁دقایق": 3117,
    "▁مترجم": 3118,
    "▁مخابرات": 3119,
    "▁خادم": 3120,
    "خیص": 3121,
    "▁برساند": 3122,
    "▁نقص": 3123,
    "▁متناسب": 3124,
    "▁اهداف": 3125,
    "▁نیوزیلند": 3126,
    "▁نکنید": 3127,
    "▁کرمان": 3128,
    "▁گردشگران": 3129,
    "بو": 3130,
    "▁روزگار": 3131,
    "سخنگوی": 3132,
    "▁وا": 3133,
    "▁پدید": 3134,
    "▁۰": 3135,
    "▁کنگره": 3136,
    "▁ولز": 3137,
    "▁اضطراب": 3138,
    "▁پپ": 3139,
    "▁میلیاردها": 3140,
    "▁دانم": 3141,
    "▁تائ": 3142,
    "▁داغ": 3143,
    "▁پیمان": 3144,
    "▁برندگان": 3145,
    "▁سرباز": 3146,
    "▁پیوستن": 3147,
    "▁خشم": 3148,
    "▁موضوعات": 3149,
    "راضی": 3150,
    "▁کنسول": 3151,
    "▁کیلو": 3152,
    "▁گذاشتن": 3153,
    "▁قدمت": 3154,
    "▁میر": 3155,
    "▁تابلو": 3156,
    "▁محسن": 3157,
    "▁انتقالات": 3158,
    "▁تحلیلگر": 3159,
    "▁گفتگوها": 3160,
    "▁مهندس": 3161,
    "▁دیر": 3162,
    "▁۱۹۹": 3163,
    "یفه": 3164,
    "▁پرسید": 3165,
    "کان": 3166,
    "▁شیرین": 3167,
    "▁ساختار": 3168,
    "▁شور": 3169,
    "وف": 3170,
    "▁استخوان": 3171,
    "بچه": 3172,
    "▁راستا": 3173,
    "▁قوا": 3174,
    "▁راند": 3175,
    "▁ایرانیان": 3176,
    "▁زیستی": 3177,
    "▁دونده": 3178,
    "▁جوانی": 3179,
    "یب": 3180,
    "▁نقدی": 3181,
    "جان": 3182,
    "▁نشت": 3183,
    "▁گمانه": 3184,
    "▁پیوند": 3185,
    "وزی": 3186,
    "تن": 3187,
    "ذ": 3188,
    "▁۶۷": 3189,
    "▁موشکی": 3190,
    "▁کرام": 3191,
    "▁فان": 3192,
    "سان": 3193,
    "▁امین": 3194,
    "▁باخته": 3195,
    "شده": 3196,
    "▁زیان": 3197,
    "▁مادری": 3198,
    "▁پوری": 3199,
    "▁موش": 3200,
    "▁شاخ": 3201,
    "▁اقلیمی": 3202,
    "▁انقراض": 3203,
    "▁بنگلادش": 3204,
    "▁نتانیاهو": 3205,
    "▁غربالگری": 3206,
    "▁بنیانگذار": 3207,
    "▁فردوسی": 3208,
    "▁کاربر": 3209,
    "▁علامت": 3210,
    "▁صادرکنندگان": 3211,
    "▁ولسوال": 3212,
    "▁مخفی": 3213,
    "▁تلخ": 3214,
    "▁معمولی": 3215,
    "▁سران": 3216,
    "▁مرخص": 3217,
    "▁همسایه": 3218,
    "▁گردن": 3219,
    "▁منچستریونایتد": 3220,
    "▁لحظات": 3221,
    "▁موسوی": 3222,
    "▁فولاد": 3223,
    "▁یمانی": 3224,
    "▁ناجی": 3225,
    "شمار": 3226,
    "▁ربط": 3227,
    "▁افشا": 3228,
    "▁نکند": 3229,
    "▁شریک": 3230,
    "▁سناتور": 3231,
    "▁زرد": 3232,
    "▁راهبرد": 3233,
    "▁راس": 3234,
    "▁صلاح": 3235,
    "▁جنبه": 3236,
    "▁دانستند": 3237,
    "▁آوردند": 3238,
    "▁ذخا": 3239,
    "▁عبوری": 3240,
    "ضعیف": 3241,
    "بین": 3242,
    "▁فیلمساز": 3243,
    "▁آهنگساز": 3244,
    "▁جسم": 3245,
    "▁پان": 3246,
    "شه": 3247,
    "▁بروند": 3248,
    "گروه": 3249,
    "▁صند": 3250,
    "▁تاب": 3251,
    "▁نبرد": 3252,
    "▁کوچکی": 3253,
    "▁استعداد": 3254,
    "شی": 3255,
    "▁بدو": 3256,
    "▁شاهزاد": 3257,
    "▁خواندن": 3258,
    "▁۷۷": 3259,
    "▁کنگ": 3260,
    "▁پانزده": 3261,
    "▁جیب": 3262,
    "امی": 3263,
    "▁بعید": 3264,
    "▁کشی": 3265,
    "▁هجومی": 3266,
    "▁ریه": 3267,
    "مار": 3268,
    "▁سینماها": 3269,
    "جونز": 3270,
    "▁خوا": 3271,
    "▁متاسف": 3272,
    "▁فرید": 3273,
    "▁گیاه": 3274,
    "▁شطرنج": 3275,
    "▁سئوال": 3276,
    "▁کهکشان": 3277,
    "▁ثامن": 3278,
    "▁برانگیخت": 3279,
    "▁پرافتخار": 3280,
    "▁مصدومیت": 3281,
    "▁خاموش": 3282,
    "▁تخلف": 3283,
    "▁مبادلات": 3284,
    "▁ارتفاع": 3285,
    "▁نادرست": 3286,
    "▁قص": 3287,
    "▁آنقدر": 3288,
    "▁ذ": 3289,
    "▁ترسیم": 3290,
    "تغال": 3291,
    "▁دموکرات": 3292,
    "▁مطالعات": 3293,
    "▁ببرد": 3294,
    "رس": 3295,
    "▁کربن": 3296,
    "▁محتوای": 3297,
    "▁موجودات": 3298,
    "▁اوست": 3299,
    "▁آگ": 3300,
    "▁فدرال": 3301,
    "بیش": 3302,
    "▁زانو": 3303,
    "▁فلز": 3304,
    "▁دادسرا": 3305,
    "▁لیدز": 3306,
    "عباس": 3307,
    "▁بشار": 3308,
    "الب": 3309,
    "سکی": 3310,
    "رگن": 3311,
    "▁رحم": 3312,
    "▁منوچ": 3313,
    "خالص": 3314,
    "▁مبادل": 3315,
    "▁نیوک": 3316,
    "ارد": 3317,
    "▁جهاد": 3318,
    "▁پستان": 3319,
    "طبق": 3320,
    "▁رها": 3321,
    "▁خال": 3322,
    "▁سفارش": 3323,
    "▁عموم": 3324,
    "▁فراری": 3325,
    "▁خوانندگ": 3326,
    "▁هنگ": 3327,
    "▁سرای": 3328,
    "سم": 3329,
    "عوض": 3330,
    "▁شدم": 3331,
    "▁متشک": 3332,
    "▁ناصر": 3333,
    "آی": 3334,
    "▁ثروتمند": 3335,
    "▁یاری": 3336,
    "▁درد": 3337,
    "▁تاک": 3338,
    "▁داوطلب": 3339,
    "اق": 3340,
    "▁غ": 3341,
    "هام": 3342,
    "▁اوکراینی": 3343,
    "▁بران": 3344,
    "وان": 3345,
    "▁تابلوی": 3346,
    "▁تبلیغاتی": 3347,
    "اع": 3348,
    "▁مرزهای": 3349,
    "برایتون": 3350,
    "▁حدا": 3351,
    "نیم": 3352,
    "ناوند": 3353,
    "بعد": 3354,
    "▁سای": 3355,
    "▁تدابیر": 3356,
    "▁نساجی": 3357,
    "▁کانسپت": 3358,
    "▁اکسیژن": 3359,
    "▁پارالمپیک": 3360,
    "▁رقص": 3361,
    "▁والیبال": 3362,
    "▁انبوه": 3363,
    "▁بدانیم": 3364,
    "▁آشوری": 3365,
    "▁کریکت": 3366,
    "▁واژه": 3367,
    "▁باشگاهی": 3368,
    "▁بوندس": 3369,
    "▁دانمارک": 3370,
    "▁خو": 3371,
    "▁سهامداران": 3372,
    "▁محاکمه": 3373,
    "▁چراغ": 3374,
    "▁خبرهای": 3375,
    "▁پیاده": 3376,
    "▁دستیابی": 3377,
    "▁تاز": 3378,
    "▁آموزان": 3379,
    "▁تسلیت": 3380,
    "▁طنز": 3381,
    "ریم": 3382,
    "▁صبر": 3383,
    "▁مقیم": 3384,
    "▁تروریستی": 3385,
    "امسال": 3386,
    "استقلال": 3387,
    "▁ویل": 3388,
    "▁کشت": 3389,
    "▁پرسش": 3390,
    "احمد": 3391,
    "▁جمال": 3392,
    "لیورپول": 3393,
    "▁تج": 3394,
    "▁وقفه": 3395,
    "خارجه": 3396,
    "▁روزه": 3397,
    "▁خودران": 3398,
    "▁جدال": 3399,
    "▁کاسته": 3400,
    "▁شخص": 3401,
    "▁فراگیر": 3402,
    "▁اردو": 3403,
    "کر": 3404,
    "بخش": 3405,
    "▁اپرا": 3406,
    "▁لحا": 3407,
    "پوری": 3408,
    "▁کامیون": 3409,
    "▁مش": 3410,
    "▁فتح": 3411,
    "▁هاوس": 3412,
    "▁نقد": 3413,
    "▁افتتاح": 3414,
    "▁قطب": 3415,
    "▁بستن": 3416,
    "▁اگر": 3417,
    "▁سیا": 3418,
    "عبدال": 3419,
    "▁فقیر": 3420,
    "▁داشتم": 3421,
    "▁دارم": 3422,
    "کدام": 3423,
    "▁۲۵۰": 3424,
    "هالی": 3425,
    "▁سان": 3426,
    "جو": 3427,
    "کم": 3428,
    "▁سوئیسی": 3429,
    "▁بدر": 3430,
    "▁استعفای": 3431,
    "▁گفتگوی": 3432,
    "شد": 3433,
    "▁استاین": 3434,
    "تون": 3435,
    "▁روستای": 3436,
    "▁خرا": 3437,
    "وات": 3438,
    "سر": 3439,
    "▁باب": 3440,
    "▁امتحان": 3441,
    "▁مدیترانه": 3442,
    "▁اصرار": 3443,
    "▁اطلس": 3444,
    "▁تحمیل": 3445,
    "▁بکشد": 3446,
    "▁تاکتیک": 3447,
    "▁۲۰۲۲": 3448,
    "▁رمزارزها": 3449,
    "ویز": 3450,
    "▁۲۰۰۳": 3451,
    "▁شاگردان": 3452,
    "عنوان": 3453,
    "▁قرص": 3454,
    "▁مرگبار": 3455,
    "▁کارگزار": 3456,
    "▁غریب": 3457,
    "▁بازنشست": 3458,
    "▁مسلمان": 3459,
    "▁عصب": 3460,
    "▁کمپین": 3461,
    "▁اصلاحات": 3462,
    "▁ثروت": 3463,
    "▁روسی": 3464,
    "▁خرسند": 3465,
    "▁ناامن": 3466,
    "▁خرج": 3467,
    "▁احت": 3468,
    "تکلیف": 3469,
    "▁ایلنا": 3470,
    "▁۵۷": 3471,
    "▁کیهان": 3472,
    "▁۸۰۰": 3473,
    "رقابت": 3474,
    "▁مبنای": 3475,
    "روی": 3476,
    "▁۱۲۰": 3477,
    "▁سرا": 3478,
    "▁پیکر": 3479,
    "▁مح": 3480,
    "▁گریز": 3481,
    "▁پراکند": 3482,
    "دانشمندان": 3483,
    "▁آزمایی": 3484,
    "▁هامر": 3485,
    "▁شریفی": 3486,
    "اسل": 3487,
    "▁اما": 3488,
    "وب": 3489,
    "▁نسب": 3490,
    "▁تقویم": 3491,
    "▁انتقادها": 3492,
    "▁ویلا": 3493,
    "ظهر": 3494,
    "▁کهن": 3495,
    "▁۷۳": 3496,
    "التهاب": 3497,
    "شهر": 3498,
    "▁وسی": 3499,
    "▁باستانی": 3500,
    "▁بریت": 3501,
    "▁پیرو": 3502,
    "▁آوردن": 3503,
    "▁باد": 3504,
    "▁۵۶": 3505,
    "▁پروان": 3506,
    "▁کاظم": 3507,
    "▁سم": 3508,
    "▁شهردار": 3509,
    "نز": 3510,
    "واک": 3511,
    "▁۵۲": 3512,
    "▁نسبتا": 3513,
    "▁تایلند": 3514,
    "▁۱۳۷": 3515,
    "▁رم": 3516,
    "▁هنرها": 3517,
    "▁بازماند": 3518,
    "رهای": 3519,
    "وت": 3520,
    "▁بوش": 3521,
    "نام": 3522,
    "آنها": 3523,
    "مرکز": 3524,
    "ث": 3525,
    "وریس": 3526,
    "فیلم": 3527,
    "▁مخصوص": 3528,
    "▁دروغ": 3529,
    "▁دژپسند": 3530,
    "▁موظف": 3531,
    "▁محوطه": 3532,
    "▁منتخب": 3533,
    "▁لاریجانی": 3534,
    "▁استخدام": 3535,
    "▁هیأت": 3536,
    "▁ناحیه": 3537,
    "▁نوبخت": 3538,
    "▁بلاروس": 3539,
    "▁بامداد": 3540,
    "▁فلوید": 3541,
    "▁خانوادگی": 3542,
    "▁دهقان": 3543,
    "▁پشتیبان": 3544,
    "▁لهستان": 3545,
    "▁خلاقیت": 3546,
    "▁اپلیکیشن": 3547,
    "▁کارلوس": 3548,
    "▁بازگردد": 3549,
    "▁عکسی": 3550,
    "ژانس": 3551,
    "▁مفهوم": 3552,
    "▁استراحت": 3553,
    "▁ترانزیت": 3554,
    "▁استراتژیک": 3555,
    "▁زیبا": 3556,
    "▁ابعاد": 3557,
    "▁ثمر": 3558,
    "▁محاسبات": 3559,
    "▁رابرت": 3560,
    "▁مارتین": 3561,
    "▁بیروت": 3562,
    "▁مقصر": 3563,
    "▁وجه": 3564,
    "▁برلین": 3565,
    "▁علاقمندان": 3566,
    "▁درخت": 3567,
    "▁دهان": 3568,
    "▁جنایت": 3569,
    "▁انصاریان": 3570,
    "▁همسان": 3571,
    "▁تفاهم": 3572,
    "▁اقلی": 3573,
    "گن": 3574,
    "▁خریداران": 3575,
    "▁صنف": 3576,
    "▁فتاح": 3577,
    "▁خلو": 3578,
    "▁اصطلاح": 3579,
    "▁کاشی": 3580,
    "▁وحید": 3581,
    "▁نوید": 3582,
    "کو": 3583,
    "▁رساندن": 3584,
    "▁صعودی": 3585,
    "▁شمسی": 3586,
    "▁دوحه": 3587,
    "وا": 3588,
    "▁بومی": 3589,
    "شاخص": 3590,
    "▁گروگانگیر": 3591,
    "چین": 3592,
    "لف": 3593,
    "▁یازدهم": 3594,
    "نو": 3595,
    "▁سیام": 3596,
    "▁۹۰۰": 3597,
    "داوم": 3598,
    "▁کما": 3599,
    "بویایی": 3600,
    "▁سیل": 3601,
    "▁ژنتیک": 3602,
    "▁۴۶": 3603,
    "▁حیاتی": 3604,
    "▁مادران": 3605,
    "▁نان": 3606,
    "ارژ": 3607,
    "پرس": 3608,
    "▁اید": 3609,
    "▁خا": 3610,
    "رج": 3611,
    "▁عم": 3612,
    "▁سراغ": 3613,
    "راه": 3614,
    "▁رویای": 3615,
    "▁۷۲": 3616,
    "▁بوک": 3617,
    "▁دستگیری": 3618,
    "پل": 3619,
    "▁گرد": 3620,
    "رداد": 3621,
    "▁داروهای": 3622,
    "▁اسپ": 3623,
    "▁روستا": 3624,
    "▁روبرت": 3625,
    "خی": 3626,
    "اول": 3627,
    "▁استخر": 3628,
    "▁آیین": 3629,
    "وفر": 3630,
    "▁آنک": 3631,
    "▁برکناری": 3632,
    "▁مهاجر": 3633,
    "شدت": 3634,
    "▁فضانورد": 3635,
    "۹۴": 3636,
    "▁رصد": 3637,
    "▁رغ": 3638,
    "یشب": 3639,
    "ویژه": 3640,
    "▁اصول": 3641,
    "▁۷۴": 3642,
    "▁راستی": 3643,
    "▁جین": 3644,
    "▁شیری": 3645,
    "▁بوشهر": 3646,
    "▁وحدت": 3647,
    "▁تأثیر": 3648,
    "▁ارمنستان": 3649,
    "▁ناچار": 3650,
    "▁انفرادی": 3651,
    "▁بگویم": 3652,
    "▁مواضع": 3653,
    "▁مهرماه": 3654,
    "▁۱۹۸۶": 3655,
    "▁متعهد": 3656,
    "▁رولز": 3657,
    "▁جالب": 3658,
    "آوری": 3659,
    "▁مختل": 3660,
    "▁بروکسل": 3661,
    "▁منزل": 3662,
    "جاسوسی": 3663,
    "▁اکتشاف": 3664,
    "▁حجاب": 3665,
    "▁متقاضی": 3666,
    "▁حو": 3667,
    "غال": 3668,
    "▁زنجان": 3669,
    "▁تیرماه": 3670,
    "▁بختیار": 3671,
    "فیلد": 3672,
    "▁نکنند": 3673,
    "▁کشند": 3674,
    "▁قطار": 3675,
    "▁نمکی": 3676,
    "▁بورل": 3677,
    "▁صالحی": 3678,
    "▁خودروی": 3679,
    "▁خانوارهای": 3680,
    "▁استادیوم": 3681,
    "▁آورند": 3682,
    "▁پیست": 3683,
    "▁توضیحات": 3684,
    "▁وزارتخانه": 3685,
    "▁سربازان": 3686,
    "▁قریب": 3687,
    "زن": 3688,
    "▁گلف": 3689,
    "▁عبدی": 3690,
    "▁مامور": 3691,
    "▁کشاند": 3692,
    "▁حداکثری": 3693,
    "کننده": 3694,
    "رق": 3695,
    "▁بدل": 3696,
    "▁پوشاند": 3697,
    "یحی": 3698,
    "▁رادیویی": 3699,
    "اسان": 3700,
    "رسان": 3701,
    "▁نکردن": 3702,
    "معاون": 3703,
    "▁همانند": 3704,
    "▁نژادی": 3705,
    "▁مرس": 3706,
    "▁ژوز": 3707,
    "علیرضا": 3708,
    "▁حریفان": 3709,
    "▁۱۵۰۰": 3710,
    "دادگاه": 3711,
    "▁میل": 3712,
    "▁عقید": 3713,
    "▁اسپی": 3714,
    "▁راک": 3715,
    "▁شر": 3716,
    "▁موازی": 3717,
    "صوفی": 3718,
    "سل": 3719,
    "▁بزو": 3720,
    "تقابل": 3721,
    "▁گیل": 3722,
    "▁انیس": 3723,
    "▁جلالی": 3724,
    "▁برادرش": 3725,
    "▁رنو": 3726,
    "▁مرزها": 3727,
    "▁ایام": 3728,
    "▁بشری": 3729,
    "▁پروازها": 3730,
    "تاسف": 3731,
    "▁اوبر": 3732,
    "نت": 3733,
    "▁نجف": 3734,
    "نواک": 3735,
    "▁گانه": 3736,
    "▁نامدار": 3737,
    "▁طرز": 3738,
    "▁اختلا": 3739,
    "▁پلی": 3740,
    "مرث": 3741,
    "آبادی": 3742,
    "▁روستایی": 3743,
    "غان": 3744,
    "▁ایمان": 3745,
    "لحق": 3746,
    "▁ویلیام": 3747,
    "▁سگ": 3748,
    "▁۳۶": 3749,
    "حص": 3750,
    "▁آرا": 3751,
    "▁صحن": 3752,
    "▁حاکم": 3753,
    "▁نامزدها": 3754,
    "▁رش": 3755,
    "▁قراردادش": 3756,
    "▁اح": 3757,
    "▁رس": 3758,
    "▁حافظ": 3759,
    "▁توانم": 3760,
    "▁ساختن": 3761,
    "محمود": 3762,
    "▁یاران": 3763,
    "▁اظهارنظر": 3764,
    "▁اخطار": 3765,
    "دا": 3766,
    "صاف": 3767,
    "▁خوشحال": 3768,
    "▁مایکروسافت": 3769,
    "▁تعقیب": 3770,
    "▁تعدیل": 3771,
    "▁ارزشمند": 3772,
    "▁تماشاچی": 3773,
    "▁نشیب": 3774,
    "▁افکار": 3775,
    "▁دانشکد": 3776,
    "▁وصل": 3777,
    "▁تخلفات": 3778,
    "▁زیستگاه": 3779,
    "▁غیاب": 3780,
    "▁رسم": 3781,
    "▁بهر": 3782,
    "▁پیمانکار": 3783,
    "▁الحسن": 3784,
    "▁فجر": 3785,
    "▁غرق": 3786,
    "برخ": 3787,
    "▁رانندگی": 3788,
    "▁مداوم": 3789,
    "▁آشفت": 3790,
    "▁شایعات": 3791,
    "▁همینطور": 3792,
    "▁بلومبرگ": 3793,
    "▁دیدگاه": 3794,
    "▁اوا": 3795,
    "▁سرنشینان": 3796,
    "▁مالاریا": 3797,
    "▁آبادان": 3798,
    "▁ناراحت": 3799,
    "▁پایدار": 3800,
    "▁گوگل": 3801,
    "▁طرفدار": 3802,
    "▁همیلتون": 3803,
    "▁ضربات": 3804,
    "▁درختان": 3805,
    "▁قربانی": 3806,
    "▁استرالیایی": 3807,
    "▁تعجب": 3808,
    "▁قوس": 3809,
    "▁مقا": 3810,
    "▁کاربرد": 3811,
    "▁محور": 3812,
    "۳۰": 3813,
    "▁باران": 3814,
    "▁همرسان": 3815,
    "▁هواپیماهای": 3816,
    "▁خشکسالی": 3817,
    "گون": 3818,
    "▁صفحات": 3819,
    "۱۵": 3820,
    "▁صاحبان": 3821,
    "هار": 3822,
    "دون": 3823,
    "اینها": 3824,
    "▁مستق": 3825,
    "▁آمدند": 3826,
    "▁انتقادهای": 3827,
    "▁آبادی": 3828,
    "لک": 3829,
    "▁سکونت": 3830,
    "▁تخصص": 3831,
    "وطن": 3832,
    "▁مون": 3833,
    "▁افتد": 3834,
    "▁جهانگیری": 3835,
    "▁مسیحی": 3836,
    "بت": 3837,
    "فاش": 3838,
    "▁اسد": 3839,
    "▁سازد": 3840,
    "▁مصطف": 3841,
    "کوبی": 3842,
    "▁سین": 3843,
    "▁فاز": 3844,
    "▁دپ": 3845,
    "انصراف": 3846,
    "▁واسط": 3847,
    "▁کتی": 3848,
    "ونگ": 3849,
    "▁رنج": 3850,
    "مانده": 3851,
    "وار": 3852,
    "ایع": 3853,
    "▁چیزهای": 3854,
    "▁بهرام": 3855,
    "تمرکز": 3856,
    "▁لا": 3857,
    "شاید": 3858,
    "▁ترور": 3859,
    "دیگر": 3860,
    "▁یکسان": 3861,
    "▁منتف": 3862,
    "▁تحقیقی": 3863,
    "▁معمار": 3864,
    "▁خودروها": 3865,
    "یخ": 3866,
    "▁تورمی": 3867,
    "▁جعل": 3868,
    "▁ملا": 3869,
    "▁بنیادی": 3870,
    "▁اوین": 3871,
    "فن": 3872,
    "▁برداشتن": 3873,
    "▁شون": 3874,
    "▁۱۳۵": 3875,
    "امیر": 3876,
    "▁سل": 3877,
    "▁نزد": 3878,
    "▁کلام": 3879,
    "▁گوی": 3880,
    "▁اعتراضی": 3881,
    "▁تروی": 3882,
    "▁ایر": 3883,
    "▁شو": 3884,
    "▁عضوی": 3885,
    "ساب": 3886,
    "▁بینیم": 3887,
    "ازی": 3888,
    "▁ازای": 3889,
    "▁کاست": 3890,
    "▁آفریقایی": 3891,
    "▁موکو": 3892,
    "▁مال": 3893,
    "▁اندازد": 3894,
    "▁گوگ": 3895,
    "▁نوار": 3896,
    "▁کیفر": 3897,
    "▁دوام": 3898,
    "▁لالیگا": 3899,
    "▁لزوم": 3900,
    "▁ناپدید": 3901,
    "▁بلوچ": 3902,
    "▁تفریح": 3903,
    "▁اخلال": 3904,
    "▁بکشند": 3905,
    "▁بیفتد": 3906,
    "▁خیانت": 3907,
    "▁تلگرام": 3908,
    "▁سایبری": 3909,
    "▁بیاورد": 3910,
    "▁۱۳۹۶": 3911,
    "▁اسپرت": 3912,
    "▁بهبهان": 3913,
    "▁مکرر": 3914,
    "▁۲۰۳۰": 3915,
    "▁مبدا": 3916,
    "▁حاکمیت": 3917,
    "▁ذکر": 3918,
    "▁فروپاشی": 3919,
    "▁گرگ": 3920,
    "▁مقرر": 3921,
    "▁بیلسا": 3922,
    "▁پردازد": 3923,
    "▁روب": 3924,
    "▁انگشت": 3925,
    "نظرسنجی": 3926,
    "▁کشم": 3927,
    "▁سرو": 3928,
    "▁رضایت": 3929,
    "پرو": 3930,
    "▁شغلی": 3931,
    "▁دایناسور": 3932,
    "▁ضایع": 3933,
    "واسط": 3934,
    "▁غالب": 3935,
    "▁سالمندان": 3936,
    "▁دیپلمات": 3937,
    "وداع": 3938,
    "▁شنیدن": 3939,
    "▁بقایای": 3940,
    "▁مهاجران": 3941,
    "▁ابوال": 3942,
    "▁روبروست": 3943,
    "صورت": 3944,
    "▁بل": 3945,
    "▁رنجر": 3946,
    "▁کارگروه": 3947,
    "▁کابین": 3948,
    "▁ابهام": 3949,
    "▁شناسند": 3950,
    "▁کلود": 3951,
    "ي": 3952,
    "▁۹۱": 3953,
    "▁رویس": 3954,
    "▁مگا": 3955,
    "▁تخیل": 3956,
    "▁ناآرامی": 3957,
    "▁پورتو": 3958,
    "▁حکمتی": 3959,
    "▁خواهی": 3960,
    "کاب": 3961,
    "▁حرم": 3962,
    "▁کردستان": 3963,
    "▁دستک": 3964,
    "مراسم": 3965,
    "▁آگاهی": 3966,
    "▁ایرلند": 3967,
    "▁سپر": 3968,
    "▁ریچارد": 3969,
    "خر": 3970,
    "▁دوازده": 3971,
    "▁معترض": 3972,
    "▁شبه": 3973,
    "زا": 3974,
    "▁آلن": 3975,
    "▁کال": 3976,
    "▁صح": 3977,
    "▁ارد": 3978,
    "یره": 3979,
    "▁پیشرفته": 3980,
    "▁کلا": 3981,
    "▁۶۸": 3982,
    "▁تقدی": 3983,
    "▁یافتند": 3984,
    "ناف": 3985,
    "الله": 3986,
    "▁حدی": 3987,
    "▁تمرکز": 3988,
    "▁اعضا": 3989,
    "▁اخلاق": 3990,
    "▁جنس": 3991,
    "زمان": 3992,
    "▁داروها": 3993,
    "▁وب": 3994,
    "▁کوچکتر": 3995,
    "۱۳": 3996,
    "▁نیا": 3997,
    "▁جلال": 3998,
    "▁ویزا": 3999,
    "تیکو": 4000,
    "▁بمب": 4001,
    "شار": 4002,
    "▁دقت": 4003,
    "▁نظم": 4004,
    "▁منطق": 4005,
    "لاتین": 4006,
    "▁الزام": 4007,
    "وریا": 4008,
    "▁فیلتر": 4009,
    "تب": 4010,
    "پر": 4011,
    "حل": 4012,
    "▁زور": 4013,
    "حافظه": 4014,
    "▁صفرها": 4015,
    "▁درآورد": 4016,
    "▁باستان": 4017,
    "▁دربار": 4018,
    "▁گشود": 4019,
    "تلاف": 4020,
    "▁بدی": 4021,
    "▁کشیدن": 4022,
    "الی": 4023,
    "▁علیر": 4024,
    "▁ظهر": 4025,
    "▁ناب": 4026,
    "▁برگشته": 4027,
    "▁فرانک": 4028,
    "▁۵۹": 4029,
    "▁بافت": 4030,
    "▁مایل": 4031,
    "نم": 4032,
    "▁شانه": 4033,
    "▁الانبیا": 4034,
    "▁چرنکوف": 4035,
    "▁کارداشیان": 4036,
    "▁دریابندری": 4037,
    "▁فلوریدا": 4038,
    "خصیص": 4039,
    "▁قزاقستان": 4040,
    "▁ابتکار": 4041,
    "▁شوماخر": 4042,
    "▁تغذیه": 4043,
    "▁داغستان": 4044,
    "▁آسمایی": 4045,
    "▁مرجع": 4046,
    "▁۱۳۹۵": 4047,
    "▁کلینیک": 4048,
    "▁سردبیر": 4049,
    "▁مجاهد": 4050,
    "▁بگیرید": 4051,
    "▁برگردد": 4052,
    "▁لبخند": 4053,
    "▁رتکلیف": 4054,
    "▁ببیند": 4055,
    "▁مخدر": 4056,
    "▁مزرعه": 4057,
    "▁یادبود": 4058,
    "▁عنکبوت": 4059,
    "▁خسارات": 4060,
    "▁معلول": 4061,
    "▁۲۰۰۴": 4062,
    "▁سرویس": 4063,
    "▁استرازنکا": 4064,
    "▁رمزارز": 4065,
    "▁دشمنان": 4066,
    "▁ستایش": 4067,
    "▁دستاوردهای": 4068,
    "▁یکصد": 4069,
    "▁تاکسی": 4070,
    "▁محبوبیت": 4071,
    "▁سکوت": 4072,
    "صخره": 4073,
    "▁لیگا": 4074,
    "▁نیش": 4075,
    "▁رسول": 4076,
    "▁پیرلو": 4077,
    "▁زبا": 4078,
    "▁مطهری": 4079,
    "درصد": 4080,
    "▁کاردن": 4081,
    "▁شوید": 4082,
    "اده": 4083,
    "▁سیزدهم": 4084,
    "▁تعامل": 4085,
    "فی": 4086,
    "▁توریست": 4087,
    "ریک": 4088,
    "▁گرفتار": 4089,
    "▁نمادهای": 4090,
    "▁چوب": 4091,
    "▁دف": 4092,
    "▁گردند": 4093,
    "رات": 4094,
    "▁دعوا": 4095,
    "▁الیز": 4096,
    "▁صادرکنند": 4097,
    "▁انتقادات": 4098,
    "▁۳۵۰": 4099,
    "▁منصور": 4100,
    "هز": 4101,
    "▁گرمای": 4102,
    "▁استودیو": 4103,
    "▁دهک": 4104,
    "▁آفرین": 4105,
    "▁هرگ": 4106,
    "▁پسرش": 4107,
    "▁گلزنی": 4108,
    "▁فین": 4109,
    "▁ابرا": 4110,
    "محققان": 4111,
    "پژوهشگران": 4112,
    "▁مهمان": 4113,
    "▁شوهر": 4114,
    "▁لح": 4115,
    "کینگ": 4116,
    "▁گرایان": 4117,
    "▁هوادار": 4118,
    "▁ون": 4119,
    "▁افکاری": 4120,
    "حمید": 4121,
    "▁کت": 4122,
    "▁حداد": 4123,
    "▁خدا": 4124,
    "▁اشیا": 4125,
    "▁ریاض": 4126,
    "هدف": 4127,
    "▁قطبی": 4128,
    "▁لوا": 4129,
    "▁شهیدی": 4130,
    "▁نرسید": 4131,
    "خیم": 4132,
    "باز": 4133,
    "▁افسر": 4134,
    "▁شرمن": 4135,
    "▁برزیلی": 4136,
    "▁انوش": 4137,
    "▁سید": 4138,
    "زیگ": 4139,
    "▁مرغدار": 4140,
    "▁مصون": 4141,
    "▁ترکمن": 4142,
    "مرگ": 4143,
    "▁کارگردانان": 4144,
    "▁نداد": 4145,
    "▁قم": 4146,
    "▁مغ": 4147,
    "▁بدنی": 4148,
    "▁درس": 4149,
    "گذاری": 4150,
    "دور": 4151,
    "▁شدیدتر": 4152,
    "▁پوش": 4153,
    "زار": 4154,
    "برگ": 4155,
    "▁گنج": 4156,
    "▁سرنشین": 4157,
    "▁سحر": 4158,
    "▁مأمور": 4159,
    "▁جاسوس": 4160,
    "▁وحشی": 4161,
    "▁پرطرفدار": 4162,
    "▁مشکوک": 4163,
    "▁بفروشد": 4164,
    "▁آموزگار": 4165,
    "▁تعزیری": 4166,
    "▁سوگوار": 4167,
    "▁تتلو": 4168,
    "▁خوشنام": 4169,
    "▁آوازخوان": 4170,
    "▁بپردازد": 4171,
    "▁بگوییم": 4172,
    "▁مطلوب": 4173,
    "▁ببینند": 4174,
    "▁۱۹۹۰": 4175,
    "▁زیارت": 4176,
    "▁ستارگان": 4177,
    "▁معدود": 4178,
    "▁بزنند": 4179,
    "▁عل": 4180,
    "بدترین": 4181,
    "▁ندارم": 4182,
    "▁خزر": 4183,
    "▁مرگش": 4184,
    "▁حساسیت": 4185,
    "▁تندرو": 4186,
    "▁مظاهری": 4187,
    "▁سرتیپ": 4188,
    "▁سیگار": 4189,
    "▁استراتژی": 4190,
    "ردن": 4191,
    "▁زنگنه": 4192,
    "▁نورد": 4193,
    "▁پراید": 4194,
    "▁ات": 4195,
    "▁صحیح": 4196,
    "▁سیزده": 4197,
    "▁توخل": 4198,
    "▁احساسات": 4199,
    "▁سومی": 4200,
    "▁خرند": 4201,
    "▁دهندگان": 4202,
    "تل": 4203,
    "▁مقدم": 4204,
    "▁سیاستمداران": 4205,
    "▁پیشرو": 4206,
    "▁محکم": 4207,
    "▁اموا": 4208,
    "▁رئیسی": 4209,
    "▁تعادل": 4210,
    "▁نکات": 4211,
    "▁معاین": 4212,
    "▁گرسنگ": 4213,
    "▁بانکها": 4214,
    "▁جف": 4215,
    "اقد": 4216,
    "▁آرامکو": 4217,
    "▁دهید": 4218,
    "انس": 4219,
    "وستهم": 4220,
    "▁دارید": 4221,
    "یمی": 4222,
    "▁تنوع": 4223,
    "▁پارس": 4224,
    "▁کشتار": 4225,
    "▁فضلی": 4226,
    "باشگاه": 4227,
    "▁بینند": 4228,
    "▁اعتیاد": 4229,
    "زکی": 4230,
    "▁نداشتن": 4231,
    "▁بازارها": 4232,
    "▁گزارشگران": 4233,
    "▁حاجی": 4234,
    "▁خیال": 4235,
    "▁ناو": 4236,
    "▁تش": 4237,
    "دوین": 4238,
    "▁شیمی": 4239,
    "▁یکسال": 4240,
    "▁عالمی": 4241,
    "▁شه": 4242,
    "▁داشتیم": 4243,
    "تنها": 4244,
    "گه": 4245,
    "▁پولی": 4246,
    "▁سرگرمی": 4247,
    "▁روزی": 4248,
    "▁ویکتور": 4249,
    "▁آمریکاست": 4250,
    "▁تصمیمات": 4251,
    "▁شیلی": 4252,
    "▁هل": 4253,
    "▁روسا": 4254,
    "▁روزمر": 4255,
    "▁اسک": 4256,
    "ایت": 4257,
    "وزرای": 4258,
    "▁بارداری": 4259,
    "لات": 4260,
    "▁سامان": 4261,
    "▁ماریا": 4262,
    "سکن": 4263,
    "▁قرض": 4264,
    "اتحاد": 4265,
    "▁لحن": 4266,
    "حالا": 4267,
    "▁بس": 4268,
    "گل": 4269,
    "فدرر": 4270,
    "▁ثروتمندتر": 4271,
    "▁استون": 4272,
    "محمدجواد": 4273,
    "▁الکس": 4274,
    "▁بازگشا": 4275,
    "یع": 4276,
    "▁آقا": 4277,
    "روزنامه": 4278,
    "پینگ": 4279,
    "▁درخش": 4280,
    "▁ماری": 4281,
    "▁ناامید": 4282,
    "▁زخم": 4283,
    "▁دخترش": 4284,
    "▁ربات": 4285,
    "سو": 4286,
    "▁تعل": 4287,
    "▁ادب": 4288,
    "▁تعهداتش": 4289,
    "▁بلوک": 4290,
    "اوی": 4291,
    "وپن": 4292,
    "▁نیما": 4293,
    "▁تلف": 4294,
    "کمیت": 4295,
    "▁سیار": 4296,
    "لق": 4297,
    "روج": 4298,
    "مصطف": 4299,
    "▁سلطانی": 4300,
    "▁۵۸": 4301,
    "ممکن": 4302,
    "▁خل": 4303,
    "ندی": 4304,
    "عارف": 4305,
    "منه": 4306,
    "▁۱۳۶": 4307,
    "وایی": 4308,
    "▁گلزن": 4309,
    "عکس": 4310,
    "سلا": 4311,
    "▁ور": 4312,
    "دهنده": 4313,
    "▁مالکان": 4314,
    "▁گم": 4315,
    "تولید": 4316,
    "▁دردسر": 4317,
    "▁خرابکار": 4318,
    "چهار": 4319,
    "رین": 4320,
    "رای": 4321,
    "▁الکل": 4322,
    "▁رزم": 4323,
    "▁شاهکار": 4324,
    "▁قائدی": 4325,
    "▁مکتوب": 4326,
    "▁جاشوا": 4327,
    "▁تروریسم": 4328,
    "▁اشتراک": 4329,
    "▁تضمین": 4330,
    "▁مصلحت": 4331,
    "▁اعتراف": 4332,
    "▁شباهت": 4333,
    "▁ببینیم": 4334,
    "▁کولمن": 4335,
    "▁متاثر": 4336,
    "▁کالبد": 4337,
    "▁زیرساخت": 4338,
    "▁منفجر": 4339,
    "▁مفید": 4340,
    "▁بفتا": 4341,
    "▁فلج": 4342,
    "▁بگیریم": 4343,
    "وکسین": 4344,
    "▁۱۹۹۸": 4345,
    "▁پایبند": 4346,
    "▁مسایل": 4347,
    "▁حباب": 4348,
    "▁مداخل": 4349,
    "▁توجیه": 4350,
    "▁ارکستر": 4351,
    "▁سون": 4352,
    "▁طارمی": 4353,
    "▁کریسمس": 4354,
    "▁لامبورگینی": 4355,
    "▁ودیعه": 4356,
    "▁توفان": 4357,
    "بهار": 4358,
    "▁پلاک": 4359,
    "▁گرایش": 4360,
    "▁فرایند": 4361,
    "▁مسافت": 4362,
    "▁تسهیلات": 4363,
    "▁بوکسور": 4364,
    "▁تعبیر": 4365,
    "▁خرس": 4366,
    "▁فلسفه": 4367,
    "▁رفاه": 4368,
    "▁فسیل": 4369,
    "▁متنوع": 4370,
    "جایی": 4371,
    "▁گرمایش": 4372,
    "▁ناتوان": 4373,
    "▁کمدی": 4374,
    "▁نزول": 4375,
    "▁مرتضی": 4376,
    "▁عقرب": 4377,
    "▁مرتب": 4378,
    "▁مغاز": 4379,
    "ژان": 4380,
    "▁۴۷": 4381,
    "کرد": 4382,
    "سئول": 4383,
    "▁سالیوان": 4384,
    "▁گیاهان": 4385,
    "▁اعطا": 4386,
    "▁قاعد": 4387,
    "▁بنکسی": 4388,
    "▁قاب": 4389,
    "▁املا": 4390,
    "▁عطرساز": 4391,
    "▁داریوش": 4392,
    "شماری": 4393,
    "▁نهاده": 4394,
    "▁گذارند": 4395,
    "نصف": 4396,
    "آمیز": 4397,
    "▁پاهای": 4398,
    "▁فیس": 4399,
    "▁کوهن": 4400,
    "▁برنز": 4401,
    "▁کمربند": 4402,
    "خاطر": 4403,
    "بازار": 4404,
    "▁لیور": 4405,
    "▁قطعات": 4406,
    "▁برتری": 4407,
    "اج": 4408,
    "گیر": 4409,
    "▁مستقیما": 4410,
    "▁نوجوانان": 4411,
    "▁معیار": 4412,
    "▁دهلی": 4413,
    "اف": 4414,
    "▁پناهندگ": 4415,
    "▁ردیاب": 4416,
    "▁صاف": 4417,
    "گرفته": 4418,
    "وجود": 4419,
    "▁هکرها": 4420,
    "▁سالان": 4421,
    "ایح": 4422,
    "ختم": 4423,
    "▁استثنا": 4424,
    "▁کامپیوتری": 4425,
    "▁تبادل": 4426,
    "موند": 4427,
    "▁قند": 4428,
    "تحول": 4429,
    "فاد": 4430,
    "▁رت": 4431,
    "▁غم": 4432,
    "▁ورشکست": 4433,
    "▁ژو": 4434,
    "▁شاعران": 4435,
    "چرا": 4436,
    "▁ظه": 4437,
    "کت": 4438,
    "جیب": 4439,
    "▁سام": 4440,
    "فعالان": 4441,
    "▁میلیاردر": 4442,
    "▁جبه": 4443,
    "▁سعد": 4444,
    "عشی": 4445,
    "ودی": 4446,
    "▁نق": 4447,
    "نوردی": 4448,
    "ناز": 4449,
    "▁پرت": 4450,
    "▁مهاجمان": 4451,
    "▁خطی": 4452,
    "▁گزارشها": 4453,
    "▁قومی": 4454,
    "خت": 4455,
    "▁روال": 4456,
    "فرج": 4457,
    "▁کاغذ": 4458,
    "▁تحرک": 4459,
    "▁ارگ": 4460,
    "▁وار": 4461,
    "▁محدودیتها": 4462,
    "▁مقطع": 4463,
    "▁مند": 4464,
    "▁شهریار": 4465,
    "وله": 4466,
    "▁نخ": 4467,
    "▁اد": 4468,
    "▁ثان": 4469,
    "عی": 4470,
    "آمار": 4471,
    "▁ناشنا": 4472,
    "▁نوازند": 4473,
    "تراشه": 4474,
    "▁شناسان": 4475,
    "▁اتل": 4476,
    "▁نوزدهم": 4477,
    "▁نوآور": 4478,
    "قرض": 4479,
    "سانه": 4480,
    "شاه": 4481,
    "▁انگل": 4482,
    "غه": 4483,
    "فصل": 4484,
    "▁خار": 4485,
    "▁جزای": 4486,
    "▁تثب": 4487,
    "▁سفی": 4488,
    "▁دستاورد": 4489,
    "▁سکت": 4490,
    "اتی": 4491,
    "▁تغییری": 4492,
    "۴۰": 4493,
    "وفس": 4494,
    "سایه": 4495,
    "▁مصدوم": 4496,
    "▁مغناطیس": 4497,
    "▁رمضان": 4498,
    "▁یونسکو": 4499,
    "▁امیرشاهی": 4500,
    "▁ترسناک": 4501,
    "▁گلمکانی": 4502,
    "▁مشکات": 4503,
    "▁فروزش": 4504,
    "▁مثلث": 4505,
    "▁اعصاب": 4506,
    "▁تلفیق": 4507,
    "▁خواهر": 4508,
    "▁خفیف": 4509,
    "▁زغال": 4510,
    "▁تکامل": 4511,
    "▁آشام": 4512,
    "▁کوهستان": 4513,
    "▁اسرار": 4514,
    "▁هرمز": 4515,
    "▁غفوری": 4516,
    "▁پررنگ": 4517,
    "▁بازنشستگی": 4518,
    "▁تلسکوپ": 4519,
    "▁جابجا": 4520,
    "▁غیرنظامی": 4521,
    "▁تالار": 4522,
    "▁غلط": 4523,
    "▁هشتگ": 4524,
    "▁جناح": 4525,
    "▁گلایه": 4526,
    "رطوب": 4527,
    "▁تحصیلات": 4528,
    "▁مدرک": 4529,
    "▁پناهجویان": 4530,
    "▁تکنولوژی": 4531,
    "▁مردگان": 4532,
    "▁گودال": 4533,
    "▁سانتریفیوژهای": 4534,
    "وکی": 4535,
    "▁دوج": 4536,
    "▁ماهشهر": 4537,
    "▁جمشید": 4538,
    "▁سنبل": 4539,
    "▁بردارد": 4540,
    "▁الگوی": 4541,
    "▁قبال": 4542,
    "لوغ": 4543,
    "▁استیون": 4544,
    "برید": 4545,
    "▁برف": 4546,
    "▁چی": 4547,
    "قات": 4548,
    "▁۷۸": 4549,
    "▁لاری": 4550,
    "۲۰": 4551,
    "▁مزایای": 4552,
    "گیل": 4553,
    "مل": 4554,
    "تقاد": 4555,
    "▁درج": 4556,
    "گفت": 4557,
    "▁سوا": 4558,
    "▁ماندگار": 4559,
    "▁بدین": 4560,
    "پتون": 4561,
    "مع": 4562,
    "▁تاریک": 4563,
    "▁آرزوها": 4564,
    "سفر": 4565,
    "▁پرهی": 4566,
    "▁شمایل": 4567,
    "▁نزدیکان": 4568,
    "▁کودتای": 4569,
    "مجلس": 4570,
    "شیوع": 4571,
    "▁شادی": 4572,
    "▁شاپو": 4573,
    "بینی": 4574,
    "ایدو": 4575,
    "آخری": 4576,
    "▁پیری": 4577,
    "▁تسلی": 4578,
    "▁مسیرهای": 4579,
    "مول": 4580,
    "لور": 4581,
    "▁بها": 4582,
    "▁خطای": 4583,
    "▁شناسد": 4584,
    "پای": 4585,
    "▁کاوه": 4586,
    "بازی": 4587,
    "▁زو": 4588,
    "مدیر": 4589,
    "▁شانزدهم": 4590,
    "▁حواس": 4591,
    "آژانس": 4592,
    "▁یوو": 4593,
    "▁کمتری": 4594,
    "▁دم": 4595,
    "▁پیراهن": 4596,
    "▁دیدارهای": 4597,
    "منابع": 4598,
    "▁سوری": 4599,
    "ناد": 4600,
    "▁ذهنی": 4601,
    "دونالد": 4602,
    "▁تحری": 4603,
    "مسئولان": 4604,
    "▁کالای": 4605,
    "▁رویه": 4606,
    "▁نوشتن": 4607,
    "▁پرسی": 4608,
    "سرعت": 4609,
    "قه": 4610,
    "▁آثارش": 4611,
    "اخیرا": 4612,
    "خان": 4613,
    "▁بناها": 4614,
    "سن": 4615,
    "▁میرزا": 4616,
    "شکل": 4617,
    "▁پار": 4618,
    "دین": 4619,
    "▁تایم": 4620,
    "▁دیوی": 4621,
    "▁اجبار": 4622,
    "▁برگ": 4623,
    "▁۱۹۰": 4624,
    "▁خالق": 4625,
    "▁مهل": 4626,
    "خبر": 4627,
    "زانه": 4628,
    "▁شعبان": 4629,
    "▁فرج": 4630,
    "▁عمران": 4631,
    "▁اپرای": 4632,
    "▁آما": 4633,
    "▁ابلاغی": 4634,
    "▁درآمده": 4635,
    "علاو": 4636,
    "▁ته": 4637,
    "خواست": 4638,
    "▁منصوری": 4639,
    "مایک": 4640,
    "▁نک": 4641,
    "سلیم": 4642,
    "▁رکوردهای": 4643,
    "▁بزرگتر": 4644,
    "▁کرو": 4645,
    "سیم": 4646,
    "▁پاکستانی": 4647,
    "رینگ": 4648,
    "▁صدد": 4649,
    "سپری": 4650,
    "▁پهپاد": 4651,
    "▁۶۲": 4652,
    "یچ": 4653,
    "▁کنی": 4654,
    "عداد": 4655,
    "سب": 4656,
    "▁نظرهای": 4657,
    "▁شام": 4658,
    "▁نوزاد": 4659,
    "احی": 4660,
    "جانی": 4661,
    "▁تعمیر": 4662,
    "▁همجنس": 4663,
    "▁المستقبل": 4664,
    "▁آبراموویچ": 4665,
    "▁آغداشلو": 4666,
    "▁واضح": 4667,
    "▁باورنکردنی": 4668,
    "▁دگرگون": 4669,
    "▁رولزرویس": 4670,
    "▁زریاب": 4671,
    "▁ویتنام": 4672,
    "▁وروورت": 4673,
    "▁تأیید": 4674,
    "▁پلامر": 4675,
    "▁سنگاپور": 4676,
    "▁حرکات": 4677,
    "▁روشنفکر": 4678,
    "▁پوتین": 4679,
    "▁بندرعباس": 4680,
    "▁قائل": 4681,
    "▁راپینو": 4682,
    "▁معالج": 4683,
    "▁یخچال": 4684,
    "▁تایتان": 4685,
    "▁هالپ": 4686,
    "▁تکنیک": 4687,
    "▁فرق": 4688,
    "▁محترم": 4689,
    "▁پنگوئن": 4690,
    "▁احتیاط": 4691,
    "▁ساویز": 4692,
    "▁خستگی": 4693,
    "ولان": 4694,
    "▁۱۹۴۰": 4695,
    "▁احکام": 4696,
    "▁بمانند": 4697,
    "▁بدانند": 4698,
    "▁ناقض": 4699,
    "ضعف": 4700,
    "▁آغوش": 4701,
    "▁نامگذاری": 4702,
    "▁مرکل": 4703,
    "▁پناه": 4704,
    "▁اثبات": 4705,
    "▁نیسان": 4706,
    "▁هشتصد": 4707,
    "▁گرفتم": 4708,
    "▁اک": 4709,
    "▁سارس": 4710,
    "▁نژادپرستانه": 4711,
    "▁گواهی": 4712,
    "▁نارس": 4713,
    "▁کانادایی": 4714,
    "بالغ": 4715,
    "▁انحصار": 4716,
    "▁ندهد": 4717,
    "▁قبرس": 4718,
    "▁پستاندار": 4719,
    "▁ندانست": 4720,
    "▁سیبری": 4721,
    "▁وقف": 4722,
    "▁شوخی": 4723,
    "وخامت": 4724,
    "▁جانور": 4725,
    "▁آرمان": 4726,
    "▁لیس": 4727,
    "▁محض": 4728,
    "▁جزییات": 4729,
    "▁مایع": 4730,
    "▁عزم": 4731,
    "لین": 4732,
    "▁ایراد": 4733,
    "▁گلوب": 4734,
    "▁والدین": 4735,
    "▁پیتر": 4736,
    "▁باختند": 4737,
    "▁امی": 4738,
    "▁انداختن": 4739,
    "▁لاپورتا": 4740,
    "▁ادعاهای": 4741,
    "▁جلد": 4742,
    "▁حضرت": 4743,
    "▁تیک": 4744,
    "▁جوش": 4745,
    "▁چهاردهم": 4746,
    "▁نشانی": 4747,
    "▁اغل": 4748,
    "ناشناس": 4749,
    "جمه": 4750,
    "▁رایزن": 4751,
    "▁خواندند": 4752,
    "▁دنیاست": 4753,
    "سابقه": 4754,
    "▁دیو": 4755,
    "▁لرز": 4756,
    "نوش": 4757,
    "▁پرد": 4758,
    "▁انجامید": 4759,
    "▁لوو": 4760,
    "تعدادی": 4761,
    "▁اندیش": 4762,
    "▁تابعیت": 4763,
    "▁زهر": 4764,
    "▁بوئنو": 4765,
    "▁مقر": 4766,
    "ارتاک": 4767,
    "▁اکس": 4768,
    "باتری": 4769,
    "▁فرض": 4770,
    "▁گور": 4771,
    "▁نامی": 4772,
    "▁تاریکی": 4773,
    "راتی": 4774,
    "▁فی": 4775,
    "▁دورت": 4776,
    "▁خوانی": 4777,
    "▁فیلمبردار": 4778,
    "▁اریک": 4779,
    "▁امو": 4780,
    "▁برایم": 4781,
    "▁بلی": 4782,
    "▁۵۳": 4783,
    "▁ندید": 4784,
    "▁نرفت": 4785,
    "▁یکبار": 4786,
    "▁رومانی": 4787,
    "▁۸۲": 4788,
    "▁جیل": 4789,
    "لندر": 4790,
    "▁لیست": 4791,
    "لاشه": 4792,
    "فلات": 4793,
    "مپ": 4794,
    "▁ماهها": 4795,
    "▁لخت": 4796,
    "▁۶۱": 4797,
    "سلسل": 4798,
    "▁فردین": 4799,
    "▁خریده": 4800,
    "▁ریخت": 4801,
    "آنتونی": 4802,
    "▁گردشگر": 4803,
    "میم": 4804,
    "▁کامپیوتر": 4805,
    "▁ویدئو": 4806,
    "▁پرتر": 4807,
    "ایش": 4808,
    "▁گذراندن": 4809,
    "▁کروناست": 4810,
    "ناظر": 4811,
    "شا": 4812,
    "▁هلی": 4813,
    "▁اعما": 4814,
    "▁قب": 4815,
    "▁تند": 4816,
    "▁سرب": 4817,
    "▁منصو": 4818,
    "قص": 4819,
    "خورده": 4820,
    "▁۷۶": 4821,
    "▁ارا": 4822,
    "یسم": 4823,
    "▁مهندسی": 4824,
    "▁ایا": 4825,
    "تیک": 4826,
    "▁آنتی": 4827,
    "▁تابو": 4828,
    "▁احسا": 4829,
    "لاق": 4830,
    "▁قض": 4831,
    "برنامه": 4832,
    "▁ویرجی": 4833,
    "رشد": 4834,
    "▁کاس": 4835,
    "۷۰": 4836,
    "خیره": 4837,
    "▁نویی": 4838,
    "▁استرس": 4839,
    "۲۸": 4840,
    "▁ول": 4841,
    "لقی": 4842,
    "▁شوت": 4843,
    "▁کاریر": 4844,
    "وازه": 4845,
    "▁همتای": 4846,
    "▁۴۱": 4847,
    "پا": 4848,
    "▁درخشانی": 4849,
    "فا": 4850,
    "▁معنا": 4851,
    "ائیل": 4852,
    "کید": 4853,
    "سوم": 4854,
    "▁سوئ": 4855,
    "▁سانتریفیوژ": 4856,
    "نفتی": 4857,
    "اظ": 4858,
    "▁آتالانتا": 4859,
    "▁پوچتینو": 4860,
    "▁کامبوج": 4861,
    "▁اتیوپی": 4862,
    "▁خنثی": 4863,
    "▁مونتاژ": 4864,
    "▁وحشتناک": 4865,
    "▁اپیدمی": 4866,
    "▁تورنتو": 4867,
    "▁ربیعی": 4868,
    "▁تفسیر": 4869,
    "▁امتداد": 4870,
    "▁آسوشیتد": 4871,
    "▁بازنگری": 4872,
    "▁متغیر": 4873,
    "▁دماوند": 4874,
    "▁بوزمن": 4875,
    "▁هواشناسی": 4876,
    "▁نامناسب": 4877,
    "▁مسموم": 4878,
    "▁مولوی": 4879,
    "▁پیشکسوت": 4880,
    "▁ریورا": 4881,
    "زم": 4882,
    "▁امواج": 4883,
    "جیمزباند": 4884,
    "ولت": 4885,
    "▁قفس": 4886,
    "▁حسرت": 4887,
    "▁پالاس": 4888,
    "▁مخفیانه": 4889,
    "▁نعمت": 4890,
    "▁ببرند": 4891,
    "▁دارا": 4892,
    "▁دبیرستان": 4893,
    "▁آرشیو": 4894,
    "▁ترافیک": 4895,
    "▁ونیز": 4896,
    "▁زودهنگام": 4897,
    "▁صراحت": 4898,
    "▁فروغ": 4899,
    "▁بیل": 4900,
    "▁گناه": 4901,
    "بپرس": 4902,
    "▁تمرینات": 4903,
    "▁نیجر": 4904,
    "▁گرامی": 4905,
    "▁گردش": 4906,
    "▁ضدحمل": 4907,
    "▁ایرباس": 4908,
    "▁خوشبخت": 4909,
    "▁آلزایمر": 4910,
    "▁شع": 4911,
    "▁فیلیپین": 4912,
    "▁جیپ": 4913,
    "▁عرفان": 4914,
    "▁ماشه": 4915,
    "▁۱۳۴": 4916,
    "▁برعکس": 4917,
    "▁غیبت": 4918,
    "▁سرمای": 4919,
    "▁عضلا": 4920,
    "▁مواقع": 4921,
    "▁عقل": 4922,
    "▁رضایی": 4923,
    "▁خوانند": 4924,
    "▁جنگی": 4925,
    "▁نکردند": 4926,
    "▁عا": 4927,
    "▁بالگرد": 4928,
    "▁کوی": 4929,
    "پوتن": 4930,
    "▁سرش": 4931,
    "۲۴": 4932,
    "▁فال": 4933,
    "▁ماز": 4934,
    "▁لوکا": 4935,
    "ازما": 4936,
    "▁خلیل": 4937,
    "▁معاش": 4938,
    "▁عرف": 4939,
    "▁مخلو": 4940,
    "▁شمس": 4941,
    "▁فضانوردان": 4942,
    "▁اکبری": 4943,
    "مکعب": 4944,
    "تلاش": 4945,
    "▁اپراتورها": 4946,
    "▁نس": 4947,
    "▁سیمون": 4948,
    "▁حی": 4949,
    "▁۱۹۷": 4950,
    "دترا": 4951,
    "▁درآمدزا": 4952,
    "گو": 4953,
    "▁آس": 4954,
    "▁رخت": 4955,
    "▁خطرات": 4956,
    "▁نماند": 4957,
    "▁دوستانش": 4958,
    "بل": 4959,
    "پذیر": 4960,
    "همچنین": 4961,
    "ریان": 4962,
    "فون": 4963,
    "دالله": 4964,
    "▁همچ": 4965,
    "اداری": 4966,
    "▁جوز": 4967,
    "▁افتادن": 4968,
    "انتخابات": 4969,
    "▁همکار": 4970,
    "دام": 4971,
    "▁۸۶": 4972,
    "▁شهید": 4973,
    "▁عزیز": 4974,
    "قی": 4975,
    "▁۹۳": 4976,
    "وارد": 4977,
    "▁عط": 4978,
    "▁اتکا": 4979,
    "خانواده": 4980,
    "▁۱۳۰": 4981,
    "▁جنر": 4982,
    "اقتصاد": 4983,
    "▁۱۳۸": 4984,
    "▁هفدهم": 4985,
    "▁سیم": 4986,
    "تکب": 4987,
    "▁۱۷۶": 4988,
    "آمریکایی": 4989,
    "چرخه": 4990,
    "▁تدری": 4991,
    "▁تهدیدهای": 4992,
    "▁تبعید": 4993,
    "▁استاندارد": 4994,
    "بته": 4995,
    "▁برجا": 4996,
    "▁بازوی": 4997,
    "▁رایان": 4998,
    "انتظار": 4999,
    "نمایندگان": 5000,
    "▁آندری": 5001,
    "▁سیر": 5002,
    "▁ژ": 5003,
    "▁جست": 5004,
    "▁نیافت": 5005,
    "▁کیست": 5006,
    "(": 5007,
    "▁شانزده": 5008,
    "حق": 5009,
    "کارشناسان": 5010,
    "▁۸۹": 5011,
    "غلام": 5012,
    "▁سفارشی": 5013,
    "رخی": 5014,
    "▁۸۸": 5015,
    "کرونا": 5016,
    "مندان": 5017,
    "▁بازرگان": 5018,
    "نک": 5019,
    "▁دوازدهم": 5020,
    "تصاویر": 5021,
    "▁پهلو": 5022,
    "▁سرگرم": 5023,
    "قبل": 5024,
    "▁نروژ": 5025,
    "▁آنهاست": 5026,
    "▁رف": 5027,
    "▁تونس": 5028,
    "▁ذی": 5029,
    "حرفه": 5030,
    "باب": 5031,
    "▁جنگند": 5032,
    "▁عالم": 5033,
    "▁رخداد": 5034,
    "▁نابود": 5035,
    "▁جاست": 5036,
    "▁قرمزها": 5037,
    "▁پائی": 5038,
    "▁پنجش": 5039,
    "اله": 5040,
    "خواهند": 5041,
    "▁پاد": 5042,
    "▁باردار": 5043,
    "▁میکروب": 5044,
    "▁شریف": 5045,
    "نگاران": 5046,
    "▁مدتها": 5047,
    "أ": 5048,
    "▁گردانند": 5049,
    "طرف": 5050,
    "حریم": 5051,
    "▁تندی": 5052,
    "▁چشمان": 5053,
    "۹۱": 5054,
    "▁گره": 5055,
    "۲۳": 5056,
    "داستان": 5057,
    "زادگان": 5058,
    "▁احمدشا": 5059,
    "▁سیف": 5060,
    "حقق": 5061,
    "شنگ": 5062,
    "راجر": 5063,
    "▁وگوی": 5064,
    "▁فرخ": 5065,
    "▁تق": 5066,
    "▁۶۴": 5067,
    "▁گفتگوهای": 5068,
    "▁علاقمند": 5069,
    "▁دشمن": 5070,
    "▁تار": 5071,
    "▁ماهیگیر": 5072,
    "▁متحدان": 5073,
    "شت": 5074,
    "▁مکزیک": 5075,
    "▁بوفالو": 5076,
    "نشینی": 5077,
    "هدیه": 5078,
    "وح": 5079,
    "▁ژنو": 5080,
    "موث": 5081,
    "▁معل": 5082,
    "▁رستگار": 5083,
    "▁شیکاگو": 5084,
    "▁ضوابط": 5085,
    "▁فزاینده": 5086,
    "▁مستضعفان": 5087,
    "▁مائوریتس": 5088,
    "▁ایوانکوویچ": 5089,
    "▁صداوسیما": 5090,
    "▁مظنون": 5091,
    "▁کالدرون": 5092,
    "▁سرتاسر": 5093,
    "▁دانچیچ": 5094,
    "▁وجو": 5095,
    "▁دردناک": 5096,
    "▁لاجورد": 5097,
    "▁خاشق": 5098,
    "▁تزئین": 5099,
    "▁زائر": 5100,
    "▁سرماخورد": 5101,
    "▁بنتلی": 5102,
    "▁مسوول": 5103,
    "▁متمایز": 5104,
    "▁گیگز": 5105,
    "▁فرسایش": 5106,
    "▁حرارت": 5107,
    "▁قائم": 5108,
    "▁سانتیمتر": 5109,
    "▁بشردوستانه": 5110,
    "گراندپری": 5111,
    "▁وودز": 5112,
    "▁خشن": 5113,
    "▁جاهای": 5114,
    "▁محفظه": 5115,
    "▁شکارچی": 5116,
    "▁طناب": 5117,
    "▁تشری": 5118,
    "▁وفادار": 5119,
    "▁مکتب": 5120,
    "▁پیشتاز": 5121,
    "▁بخرد": 5122,
    "▁اشکال": 5123,
    "▁اشعار": 5124,
    "▁انباشت": 5125,
    "▁گابریل": 5126,
    "▁عسل": 5127,
    "▁ریل": 5128,
    "رالله": 5129,
    "▁موکل": 5130,
    "▁پناهجوی": 5131,
    "▁انستیتو": 5132,
    "▁ژیمناست": 5133,
    "▁هوندا": 5134,
    "▁فریب": 5135,
    "▁تصاحب": 5136,
    "▁نیکل": 5137,
    "▁برسند": 5138,
    "بون": 5139,
    "▁ندادن": 5140,
    "▁علایم": 5141,
    "▁متروکه": 5142,
    "▁پاتر": 5143,
    "▁میز": 5144,
    "▁هیچکس": 5145,
    "▁چاب": 5146,
    "بالاحصار": 5147,
    "▁شجاع": 5148,
    "▁نوزادان": 5149,
    "▁دورانگو": 5150,
    "خاذ": 5151,
    "▁شستا": 5152,
    "▁معوقه": 5153,
    "▁نمایشنامه": 5154,
    "▁نوا": 5155,
    "▁اقبال": 5156,
    "یرت": 5157,
    "▁مب": 5158,
    "ویل": 5159,
    "▁انداختند": 5160,
    "▁درگذشته": 5161,
    "▁دندان": 5162,
    "نر": 5163,
    "▁مق": 5164,
    "▁تحقیر": 5165,
    "▁بازخوان": 5166,
    "▁رایج": 5167,
    "▁مغول": 5168,
    "▁کتک": 5169,
    "▁صده": 5170,
    "▁رامش": 5171,
    "▁مصا": 5172,
    "▁اشت": 5173,
    "▁برگردانده": 5174,
    "▁مثل": 5175,
    "▁دشت": 5176,
    "ستین": 5177,
    "▁چرب": 5178,
    "نوعی": 5179,
    "▁اقیانوسیه": 5180,
    "▁ادوارد": 5181,
    "▁بشریت": 5182,
    "▁زنگ": 5183,
    "▁کوب": 5184,
    "▁بقای": 5185,
    "مانع": 5186,
    "▁رفتارهای": 5187,
    "▁وکلای": 5188,
    "▁پارکر": 5189,
    "▁اسپورت": 5190,
    "▁بوئ": 5191,
    "▁پژو": 5192,
    "▁نویسد": 5193,
    "۲۹": 5194,
    "▁گردون": 5195,
    "▁پردرآمد": 5196,
    "▁میهمان": 5197,
    "مد": 5198,
    "▁اعظم": 5199,
    "▁ریخته": 5200,
    "وهان": 5201,
    "▁کین": 5202,
    "▁آشنای": 5203,
    "▁خودس": 5204,
    "▁فیروز": 5205,
    "▁راکت": 5206,
    "▁پریش": 5207,
    "▁گنجی": 5208,
    "▁ظ": 5209,
    "▁تیموری": 5210,
    "▁کلان": 5211,
    "زاب": 5212,
    "▁بورگ": 5213,
    "▁غر": 5214,
    "▁اچ": 5215,
    "▁آرزوی": 5216,
    "▁۸۵": 5217,
    "▁یادمان": 5218,
    "▁۱۹۶": 5219,
    "▁کنیا": 5220,
    "لینی": 5221,
    "رفه": 5222,
    "▁انتها": 5223,
    "▁طب": 5224,
    "▁ساک": 5225,
    "ندان": 5226,
    "▁کول": 5227,
    "▁کیا": 5228,
    "▁رنگی": 5229,
    "▁مانند": 5230,
    "▁مست": 5231,
    "قو": 5232,
    "▁پیچ": 5233,
    "▁یگان": 5234,
    "▁بصر": 5235,
    "▁خالقی": 5236,
    "▁یخی": 5237,
    "▁سطو": 5238,
    "▁سارا": 5239,
    "▁صدم": 5240,
    "مسابقات": 5241,
    "▁زای": 5242,
    "▁پذیرای": 5243,
    "▁بلو": 5244,
    "▁برآمد": 5245,
    "بیه": 5246,
    "بانی": 5247,
    "▁ایکس": 5248,
    "▁لوکه": 5249,
    "▁تحریمها": 5250,
    "پرسپولیس": 5251,
    "▁ولد": 5252,
    "مدت": 5253,
    "صف": 5254,
    "نوی": 5255,
    "▁۱۹۴": 5256,
    "تور": 5257,
    "▁یکم": 5258,
    "مذاکرات": 5259,
    "صالح": 5260,
    "▁کپی": 5261,
    "▁موهای": 5262,
    "سیویر": 5263,
    "مسی": 5264,
    "جل": 5265,
    "اعضای": 5266,
    "▁مسافری": 5267,
    "کارگران": 5268,
    "هنورد": 5269,
    "وازم": 5270,
    "روابط": 5271,
    "فه": 5272,
    "خامن": 5273,
    "بورس": 5274,
    "سیتی": 5275,
    "▁داوری": 5276,
    "دفتر": 5277,
    "▁نای": 5278,
    "مال": 5279,
    "▁موجودی": 5280,
    "۲۰۰": 5281,
    "تاکس": 5282,
    "▁برفی": 5283,
    "▁پرآ": 5284,
    "اسماعیل": 5285,
    "▁ضر": 5286,
    "همه": 5287,
    "موسس": 5288,
    "▁۱۶۰": 5289,
    "رافائل": 5290,
    "ریچارد": 5291,
    "ارت": 5292,
    "رگ": 5293,
    "▁توفیق": 5294,
    "▁مسیح": 5295,
    "▁رسن": 5296,
    "▁۱۸۰": 5297,
    "زده": 5298,
    "▁عمو": 5299,
    "▁ریس": 5300,
    "اران": 5301,
    "▁خالص": 5302,
    "۶۳": 5303,
    "▁نمادی": 5304,
    "زاد": 5305,
    "▁وظایف": 5306,
    "▁۱۹۶۰": 5307,
    "نیروی": 5308,
    "نشین": 5309,
    "▁معیارها": 5310,
    "مارک": 5311,
    "▁کمپ": 5312,
    "شش": 5313,
    "۱۷": 5314,
    "▁عزیزان": 5315,
    "▁مخ": 5316,
    "▁تیره": 5317,
    "▁ژن": 5318,
    "ژیم": 5319,
    "▁۱۹۵": 5320,
    "لوب": 5321,
    "فته": 5322,
    "▁هلندی": 5323,
    "▁دادم": 5324,
    "▁گریه": 5325,
    "گشایی": 5326,
    "▁سختگیر": 5327,
    "صدایی": 5328,
    "ریس": 5329,
    "اکثریت": 5330,
    "▁سیاستمدار": 5331,
    "ژه": 5332,
    "▁میکل": 5333,
    "▁دستیار": 5334,
    "▁مشوق": 5335,
    "▁سازه": 5336,
    "▁سالی": 5337,
    "▁قراردادهای": 5338,
    "▁نیو": 5339,
    "یوان": 5340,
    "▁پالایش": 5341,
    "▁خانوار": 5342,
    "غیب": 5343,
    "▁الگوریتم": 5344,
    "▁اوربیتر": 5345,
    "▁جاپلقی": 5346,
    "▁رفسنجان": 5347,
    "▁زاناردی": 5348,
    "▁لابراتوار": 5349,
    "▁پدافند": 5350,
    "▁ژئوپلیتیک": 5351,
    "▁ملاحظ": 5352,
    "▁پیرامون": 5353,
    "▁کرگدن": 5354,
    "▁بالیوود": 5355,
    "▁مصداق": 5356,
    "▁کادرفنی": 5357,
    "▁آرتتا": 5358,
    "▁نوشیدن": 5359,
    "▁تخفیف": 5360,
    "▁آشپز": 5361,
    "▁اتصال": 5362,
    "▁وگاس": 5363,
    "▁تفکیک": 5364,
    "▁مرضیه": 5365,
    "▁واریز": 5366,
    "▁ارتقا": 5367,
    "▁سلتیک": 5368,
    "زمینی": 5369,
    "▁استقراض": 5370,
    "▁کفتر": 5371,
    "▁طعم": 5372,
    "▁یوگا": 5373,
    "▁الاجل": 5374,
    "▁خدایاری": 5375,
    "▁قارچ": 5376,
    "▁آمبول": 5377,
    "▁۱۹۷۰": 5378,
    "▁تربیت": 5379,
    "▁نوازندگان": 5380,
    "▁فطر": 5381,
    "▁کلمات": 5382,
    "▁ثا": 5383,
    "▁گردنبند": 5384,
    "▁مکمل": 5385,
    "▁زیدان": 5386,
    "▁عروق": 5387,
    "بومی": 5388,
    "▁کوبید": 5389,
    "ویچ": 5390,
    "▁تهاجمی": 5391,
    "▁کلانتری": 5392,
    "جوبی": 5393,
    "▁شناگر": 5394,
    "▁باریک": 5395,
    "▁قسط": 5396,
    "▁مبالغ": 5397,
    "▁جونیور": 5398,
    "▁تویوتا": 5399,
    "▁بتهوون": 5400,
    "▁پرستاران": 5401,
    "▁هروی": 5402,
    "▁کیلوولت": 5403,
    "▁معتمدی": 5404,
    "واره": 5405,
    "نگیز": 5406,
    "▁فروشی": 5407,
    "▁۲۰۰۶": 5408,
    "▁منکر": 5409,
    "▁۱۳۹": 5410,
    "▁متکی": 5411,
    "▁منظم": 5412,
    "▁تصدی": 5413,
    "گرا": 5414,
    "▁گوییم": 5415,
    "▁ویدئوی": 5416,
    "▁شکستن": 5417,
    "▁مخصوصا": 5418,
    "وانند": 5419,
    "▁تورین": 5420,
    "▁پیشگامان": 5421,
    "▁اعتنا": 5422,
    "▁خبرها": 5423,
    "▁افسران": 5424,
    "▁رونالدینیو": 5425,
    "▁صریح": 5426,
    "▁اله": 5427,
    "هره": 5428,
    "▁مستندساز": 5429,
    "▁اختیارات": 5430,
    "▁اين": 5431,
    "▁محتوی": 5432,
    "▁نهفته": 5433,
    "▁لبنانی": 5434,
    "▁اقتصاددان": 5435,
    "▁انگیزترین": 5436,
    "▁برنگشت": 5437,
    "▁نگارش": 5438,
    "▁سالیانه": 5439,
    "▁اشتباهات": 5440,
    "مای": 5441,
    "جیره": 5442,
    "▁بازیار": 5443,
    "▁پهن": 5444,
    "بریتی": 5445,
    "لیون": 5446,
    "▁فشرد": 5447,
    "دال": 5448,
    "▁گزینش": 5449,
    "دنی": 5450,
    "▁لق": 5451,
    "▁بولت": 5452,
    "▁روحی": 5453,
    "▁نداشتم": 5454,
    "▁لاش": 5455,
    "▁باقر": 5456,
    "رک": 5457,
    "▁شعارهای": 5458,
    "▁امپراتوری": 5459,
    "▁درشت": 5460,
    "▁ویدیوهای": 5461,
    "▁امتیازات": 5462,
    "▁گرفتیم": 5463,
    "▁بدنش": 5464,
    "▁دانشگاهی": 5465,
    "▁گذاشتند": 5466,
    "▁پروازهایش": 5467,
    "▁بگیر": 5468,
    "▁معین": 5469,
    "▁حاد": 5470,
    "▁بله": 5471,
    "▁حتما": 5472,
    "▁مض": 5473,
    "نشان": 5474,
    "اوش": 5475,
    "▁کاران": 5476,
    "▁۱۹۳": 5477,
    "▁نشدند": 5478,
    "▁علوی": 5479,
    "▁قا": 5480,
    "عارض": 5481,
    "▁دانشجویی": 5482,
    "لمپ": 5483,
    "▁اسکو": 5484,
    "▁باختری": 5485,
    "▁کرج": 5486,
    "▁ریو": 5487,
    "تهران": 5488,
    "▁معاهد": 5489,
    "▁پیامک": 5490,
    "▁درو": 5491,
    "▁دیدم": 5492,
    "▁خراب": 5493,
    "▁جولیان": 5494,
    "▁گویم": 5495,
    "▁عکاسان": 5496,
    "بریتانیا": 5497,
    "▁رامی": 5498,
    "طرح": 5499,
    "۹۹": 5500,
    "مر": 5501,
    "▁درانی": 5502,
    "▁کشمی": 5503,
    "جاد": 5504,
    "▁حام": 5505,
    "▁تیل": 5506,
    "کاهش": 5507,
    "▁۵۴": 5508,
    "▁عمدی": 5509,
    "نجیره": 5510,
    "▁فروشند": 5511,
    "▁پانزدهم": 5512,
    "▁فخر": 5513,
    "▁استدر": 5514,
    "▁فار": 5515,
    "▁مشت": 5516,
    "حضور": 5517,
    "▁رنگین": 5518,
    "▁ساعته": 5519,
    "▁محرک": 5520,
    "ارغ": 5521,
    "▁کاندیدا": 5522,
    "▁شیع": 5523,
    "▁اعت": 5524,
    "▁اصولگرای": 5525,
    "▁درز": 5526,
    "▁آموخت": 5527,
    "خودرو": 5528,
    "▁محسوس": 5529,
    "▁گودا": 5530,
    "▁نیازها": 5531,
    "▁دوش": 5532,
    "▁بوی": 5533,
    "▁زم": 5534,
    "▁لن": 5535,
    "▁لاس": 5536,
    "▁کینگ": 5537,
    "▁افتتاحی": 5538,
    "▁فرهنگیان": 5539,
    "دلال": 5540,
    "▁برهم": 5541,
    "▁سلام": 5542,
    "▁خوابی": 5543,
    "واکنش": 5544,
    "▁دویچ": 5545,
    "نها": 5546,
    "▁نظرات": 5547,
    "▁جانش": 5548,
    "▁کارفرمای": 5549,
    "انتشار": 5550,
    "▁شیفت": 5551,
    "▁روزبه": 5552,
    "▁فتحی": 5553,
    "۴۶": 5554,
    "خواهید": 5555,
    "داشته": 5556,
    "تحقیقات": 5557,
    "مارادونا": 5558,
    "سانی": 5559,
    "نج": 5560,
    "تاتنهام": 5561,
    "▁هراس": 5562,
    "▁دلال": 5563,
    "راب": 5564,
    "▁مجرم": 5565,
    "▁گا": 5566,
    "▁احساسی": 5567,
    "بفرستید": 5568,
    "▁اوبا": 5569,
    "▁کودتا": 5570,
    "ونی": 5571,
    "گوف": 5572,
    "ابلو": 5573,
    "▁قش": 5574,
    "ویکتور": 5575,
    "▁فول": 5576,
    "▁کرمانشاه": 5577,
    "▁عواقب": 5578,
    "▁آمریکای": 5579,
    "▁پال": 5580,
    "▁توس": 5581,
    "داران": 5582,
    "▁بهانه": 5583,
    "▁هرکس": 5584,
    "خواه": 5585,
    "▁پراکن": 5586,
    "▁کمیاب": 5587,
    "▁۸۳": 5588,
    "آیا": 5589,
    "سپاری": 5590,
    "خوانی": 5591,
    "زنی": 5592,
    "لس": 5593,
    "لینگ": 5594,
    "رتب": 5595,
    "▁رکوردها": 5596,
    "▁تصویربردار": 5597,
    "▁الم": 5598,
    "▁ریوی": 5599,
    "▁نف": 5600,
    "ایب": 5601,
    "▁لوی": 5602,
    "رسیدن": 5603,
    "▁مشهورتر": 5604,
    "نان": 5605,
    "▁لوک": 5606,
    "▁مصاد": 5607,
    "▁ابو": 5608,
    "▁تیتر": 5609,
    "برد": 5610,
    "▁زانوی": 5611,
    "افت": 5612,
    "▁ناصری": 5613,
    "بورد": 5614,
    "▁مندان": 5615,
    "▁دول": 5616,
    "▁ارت": 5617,
    "▁هما": 5618,
    "▁عمد": 5619,
    "وانی": 5620,
    "هرابی": 5621,
    "مایه": 5622,
    "▁راهنمای": 5623,
    "▁بارز": 5624,
    "انکن": 5625,
    "▁۱۷۰": 5626,
    "▁بینید": 5627,
    "فروش": 5628,
    "عفون": 5629,
    "دیده": 5630,
    "▁فهم": 5631,
    "▁طاق": 5632,
    "▁دوری": 5633,
    "ستگی": 5634,
    "▁زی": 5635,
    "ریت": 5636,
    "▁فرانسیس": 5637,
    "▁تسهیل": 5638,
    "▁جزئی": 5639,
    "▁کدخدایی": 5640,
    "▁ابرنواختر": 5641,
    "▁مناقش": 5642,
    "▁پولیتزر": 5643,
    "▁زاکانی": 5644,
    "▁تضاد": 5645,
    "▁اسراییل": 5646,
    "▁خاشقچی": 5647,
    "ژورنال": 5648,
    "▁ترشح": 5649,
    "▁جهرمی": 5650,
    "▁یهودی": 5651,
    "▁اقتدار": 5652,
    "▁۱۹۷۳": 5653,
    "▁پابند": 5654,
    "▁بسازد": 5655,
    "▁پاکبان": 5656,
    "▁متوفی": 5657,
    "▁تعاون": 5658,
    "▁پیکولی": 5659,
    "▁کلارک": 5660,
    "▁مستعار": 5661,
    "▁بدهکار": 5662,
    "ضاح": 5663,
    "▁همر": 5664,
    "▁نصیب": 5665,
    "▁محصولاتش": 5666,
    "▁عقاب": 5667,
    "▁بگذارند": 5668,
    "▁اکسید": 5669,
    "▁یوسف": 5670,
    "▁فلسطینیان": 5671,
    "▁دوستداران": 5672,
    "▁تمدن": 5673,
    "▁مأموریت": 5674,
    "▁عصبانی": 5675,
    "▁مادی": 5676,
    "▁اردوگاه": 5677,
    "▁روانشناس": 5678,
    "▁تلویح": 5679,
    "▁لامرد": 5680,
    "▁تلفات": 5681,
    "▁حاتمی": 5682,
    "▁مسترز": 5683,
    "▁نابسامان": 5684,
    "▁رخشانه": 5685,
    "▁خیام": 5686,
    "▁مطالبات": 5687,
    "▁بگویند": 5688,
    "▁پیر": 5689,
    "▁آرایشگاه": 5690,
    "▁سولو": 5691,
    "▁استفانو": 5692,
    "جر": 5693,
    "▁شکننده": 5694,
    "▁دیابت": 5695,
    "▁اندرکاران": 5696,
    "آفرین": 5697,
    "▁هستید": 5698,
    "▁منظر": 5699,
    "▁خلوت": 5700,
    "▁نیمروز": 5701,
    "▁بذر": 5702,
    "▁مسترد": 5703,
    "▁تعویض": 5704,
    "▁آرای": 5705,
    "▁پوشان": 5706,
    "▁بنجام": 5707,
    "▁پردازند": 5708,
    "▁کنزو": 5709,
    "جام": 5710,
    "▁کثیر": 5711,
    "هی": 5712,
    "▁آرش": 5713,
    "شاپی": 5714,
    "▁کشتند": 5715,
    "▁شانگ": 5716,
    "دخت": 5717,
    "▁اینجا": 5718,
    "▁۱۳۹۰": 5719,
    "▁رابین": 5720,
    "دوست": 5721,
    "▁نگر": 5722,
    "▁خارا": 5723,
    "▁نشانگر": 5724,
    "دات": 5725,
    "دگان": 5726,
    "▁نادری": 5727,
    "▁طل": 5728,
    "▁بهزاد": 5729,
    "نتی": 5730,
    "▁ذات": 5731,
    "▁پادمان": 5732,
    "▁قبر": 5733,
    "وظ": 5734,
    "بخشی": 5735,
    "▁نیکلا": 5736,
    "همین": 5737,
    "▁جنای": 5738,
    "گرنه": 5739,
    "▁هجدهم": 5740,
    "▁اسحاق": 5741,
    "مور": 5742,
    "▁اصلاحی": 5743,
    "▁جعفری": 5744,
    "▁گرانتر": 5745,
    "▁یار": 5746,
    "▁صمیمی": 5747,
    "ظه": 5748,
    "▁آلایند": 5749,
    "▁یاوری": 5750,
    "ستند": 5751,
    "▁شایست": 5752,
    "جانب": 5753,
    "▁سلف": 5754,
    "▁پسند": 5755,
    "شیپ": 5756,
    "▁سوگ": 5757,
    "جهان": 5758,
    "▁معا": 5759,
    "▁واحدها": 5760,
    "کند": 5761,
    "▁نوشتند": 5762,
    "▁فضاپیمای": 5763,
    "▁آو": 5764,
    "▁شفا": 5765,
    "▁صبا": 5766,
    "▁معاد": 5767,
    "▁متحدانش": 5768,
    "▁پیداست": 5769,
    "لوت": 5770,
    "▁یزد": 5771,
    "▁موس": 5772,
    "▁دانشگر": 5773,
    "▁ماندند": 5774,
    "یقه": 5775,
    "صول": 5776,
    "▁سرما": 5777,
    "خط": 5778,
    "▁نیستیم": 5779,
    "کری": 5780,
    "▁وارن": 5781,
    "▁کلیسای": 5782,
    "▁تای": 5783,
    "نسوخ": 5784,
    "▁جراحت": 5785,
    "شما": 5786,
    "میلیون": 5787,
    "رگس": 5788,
    "هکرها": 5789,
    "▁بادی": 5790,
    "رف": 5791,
    "▁تابستانی": 5792,
    "اوران": 5793,
    "▁رشید": 5794,
    "▁مبارک": 5795,
    "▁خوست": 5796,
    "▁همخوان": 5797,
    "▁رز": 5798,
    "▁مقد": 5799,
    "▁پرتو": 5800,
    "علت": 5801,
    "ائم": 5802,
    "▁دادیم": 5803,
    "یسی": 5804,
    "کست": 5805,
    "▁تخل": 5806,
    "آغاز": 5807,
    "▁محا": 5808,
    "▁کلاه": 5809,
    "▁بانو": 5810,
    "▁قطعا": 5811,
    "▁بازجوی": 5812,
    "▁قاسمی": 5813,
    "▁گاو": 5814,
    "روح": 5815,
    "۶۰": 5816,
    "دلیل": 5817,
    "▁شرم": 5818,
    "▁وگوهای": 5819,
    "باط": 5820,
    "▁اکرا": 5821,
    "واقع": 5822,
    "بهم": 5823,
    "▁گویی": 5824,
    "▁مبا": 5825,
    "▁آدام": 5826,
    "▁افق": 5827,
    "▁کرای": 5828,
    "گا": 5829,
    "ستیک": 5830,
    "په": 5831,
    "▁پردازی": 5832,
    "▁تام": 5833,
    "اطلاعات": 5834,
    "جک": 5835,
    "▁۲۰۲": 5836,
    "▁کویت": 5837,
    "کمتر": 5838,
    "بررسی": 5839,
    "▁مینیاتور": 5840,
    "▁فنل": 5841,
    "آلمان": 5842,
    "▁گرای": 5843,
    "▁جاد": 5844,
    "ترکیه": 5845,
    "دربند": 5846,
    "▁نیاورد": 5847,
    "صندوق": 5848,
    "▁مضر": 5849,
    "▁استثنای": 5850,
    "گارت": 5851,
    "رها": 5852,
    "▁دایر": 5853,
    "یونایتد": 5854,
    "▁پینگ": 5855,
    "▁کلم": 5856,
    "▁اخ": 5857,
    "پیروز": 5858,
    "چلسی": 5859,
    "▁تح": 5860,
    "▁کشتن": 5861,
    "یکه": 5862,
    "▁پرند": 5863,
    "اه": 5864,
    "تجرب": 5865,
    "سفارت": 5866,
    "▁کور": 5867,
    "نقاشی": 5868,
    "▁بانان": 5869,
    "▁رفتم": 5870,
    "سایت": 5871,
    "انجمن": 5872,
    "ورا": 5873,
    "کلوپ": 5874,
    "فرگوس": 5875,
    "▁مصر": 5876,
    "▁ببر": 5877,
    "تایسون": 5878,
    "▁پژ": 5879,
    "فضل": 5880,
    "افشاری": 5881,
    "ایگاه": 5882,
    "▁وگوها": 5883,
    "رم": 5884,
    "تابعیت": 5885,
    "▁صدایش": 5886,
    "▁میلی": 5887,
    "نشست": 5888,
    "کاوه": 5889,
    "▁ترا": 5890,
    "▁ناآرام": 5891,
    "هرانا": 5892,
    "قدرت": 5893,
    "▁شل": 5894,
    "▁۱۱۰": 5895,
    "▁گرما": 5896,
    "▁جنی": 5897,
    "▁فرستد": 5898,
    "منی": 5899,
    "سری": 5900,
    "سلر": 5901,
    "لال": 5902,
    "▁نامم": 5903,
    "▁ملته": 5904,
    "نرخ": 5905,
    "خشان": 5906,
    "▁شهرک": 5907,
    "▁رائو": 5908,
    "۴۹": 5909,
    "▁دبی": 5910,
    "▁اصطلاحا": 5911,
    "ناب": 5912,
    "▁کیف": 5913,
    "▁دانشجوی": 5914,
    "▁ران": 5915,
    "وفون": 5916,
    "▁ناک": 5917,
    "▁متخلف": 5918,
    "▁دستی": 5919,
    "۱۱": 5920,
    "پول": 5921,
    "ورهای": 5922,
    "وندی": 5923,
    "▁سف": 5924,
    "▁داش": 5925,
    "▁مدرس": 5926,
    "اندن": 5927,
    "▁گارد": 5928,
    "▁مسیری": 5929,
    "امت": 5930,
    "کنون": 5931,
    "▁نمازی": 5932,
    "انش": 5933,
    "▁اندرکار": 5934,
    "▁سپید": 5935,
    "درفتار": 5936,
    "دلان": 5937,
    "▁مای": 5938,
    "▁متیو": 5939,
    "▁بور": 5940,
    "▁پناهند": 5941,
    "مرز": 5942,
    "▁ویروسی": 5943,
    "▁محتاط": 5944,
    "▁بلایندرز": 5945,
    "▁لومامبا": 5946,
    "▁پاختاکور": 5947,
    "▁آلومینیوم": 5948,
    "▁کمونیست": 5949,
    "▁اقوام": 5950,
    "▁مقتدر": 5951,
    "▁مضاعف": 5952,
    "▁تجدد": 5953,
    "▁غیرمجاز": 5954,
    "▁النصر": 5955,
    "▁کانتینر": 5956,
    "▁برشمرد": 5957,
    "▁هلمند": 5958,
    "▁اسپایدر": 5959,
    "▁ذیبخش": 5960,
    "▁برسانند": 5961,
    "▁فحش": 5962,
    "▁خلوتگر": 5963,
    "▁پاراگوئه": 5964,
    "▁نیچر": 5965,
    "▁کفایت": 5966,
    "▁فورمن": 5967,
    "▁شیرجه": 5968,
    "▁آنکارا": 5969,
    "▁فرنود": 5970,
    "▁بیافتد": 5971,
    "تصاعد": 5972,
    "▁رولینگ": 5973,
    "▁واگیر": 5974,
    "▁نارضای": 5975,
    "▁باثبات": 5976,
    "▁بغلان": 5977,
    "▁جرارد": 5978,
    "▁خردسال": 5979,
    "▁ماس": 5980,
    "▁قرائت": 5981,
    "يم": 5982,
    "▁بیولوژیک": 5983,
    "▁قوم": 5984,
    "▁ايران": 5985,
    "▁تنگنا": 5986,
    "▁۱۳۵۰": 5987,
    "▁ابولا": 5988,
    "▁آهسته": 5989,
    "▁لگن": 5990,
    "نجی": 5991,
    "نیا": 5992,
    "▁پاسگاه": 5993,
    "▁زادگاهش": 5994,
    "▁تبریک": 5995,
    "▁نپال": 5996,
    "▁انصاری": 5997,
    "▁ندهند": 5998,
    "▁خلاق": 5999,
    "▁گسل": 6000,
    "▁رکوردشکن": 6001,
    "▁لشگر": 6002,
    "▁سردرگم": 6003,
    "▁منفرد": 6004,
    "▁قبیل": 6005,
    "▁محب": 6006,
    "▁کوپتر": 6007,
    "▁۲۰۰۱": 6008,
    "▁اقامتگاه": 6009,
    "موسیقی": 6010,
    "▁سیدنی": 6011,
    "▁نامجو": 6012,
    "▁سرشار": 6013,
    "▁اخترشناس": 6014,
    "▁۱۹۸۰": 6015,
    "ادا": 6016,
    "▁موعد": 6017,
    "▁جغرافیای": 6018,
    "▁ماهیچه": 6019,
    "▁خوشحالم": 6020,
    "ين": 6021,
    "▁فیروزجا": 6022,
    "▁استقامت": 6023,
    "▁فستیوال": 6024,
    "▁هولم": 6025,
    "▁مورل": 6026,
    "▁گدار": 6027,
    "▁بیم": 6028,
    "▁کانل": 6029,
    "▁جولی": 6030,
    "▁مطلبی": 6031,
    "▁ابزارهای": 6032,
    "نفر": 6033,
    "▁پروست": 6034,
    "▁حکیم": 6035,
    "تم": 6036,
    "▁آف": 6037,
    "رشاد": 6038,
    "▁آموز": 6039,
    "▁کریم": 6040,
    "▁لندرو": 6041,
    "شیبا": 6042,
    "یج": 6043,
    "▁سولار": 6044,
    "▁پذیری": 6045,
    "▁چرخش": 6046,
    "▁سرگردان": 6047,
    "ژ": 6048,
    "▁سهراب": 6049,
    "۴۲": 6050,
    "انا": 6051,
    "▁دلتا": 6052,
    "فع": 6053,
    "خانقا": 6054,
    "▁نگرفت": 6055,
    "▁هامون": 6056,
    "▁آنا": 6057,
    "▁متولی": 6058,
    "▁کیمن": 6059,
    "▁بروم": 6060,
    "تصویر": 6061,
    "کیو": 6062,
    "تاب": 6063,
    "▁مراود": 6064,
    "▁منظره": 6065,
    "▁افش": 6066,
    "▁ساسانی": 6067,
    "▁ژنرا": 6068,
    "ینی": 6069,
    "▁متخلفان": 6070,
    "▁باشم": 6071,
    "▁کلدی": 6072,
    "▁عمیقا": 6073,
    "▁وحشت": 6074,
    "▁دوندگان": 6075,
    "▁هیولای": 6076,
    "▁احتیا": 6077,
    "▁فای": 6078,
    "▁سریعتر": 6079,
    "ایل": 6080,
    "گبا": 6081,
    "▁کریس": 6082,
    "الکس": 6083,
    "▁تون": 6084,
    "▁گرمی": 6085,
    "خوان": 6086,
    "▁وزرا": 6087,
    "▁کشیدند": 6088,
    "▁آزمو": 6089,
    "▁گردید": 6090,
    "▁درمی": 6091,
    "کام": 6092,
    "▁تص": 6093,
    "یز": 6094,
    "▁جد": 6095,
    "▁مباد": 6096,
    "▁مصم": 6097,
    "یژن": 6098,
    "▁نهایتا": 6099,
    "▁اثرگذار": 6100,
    "▁ساترا": 6101,
    "▁آپ": 6102,
    "▁جواهر": 6103,
    "▁ازسر": 6104,
    "▁کج": 6105,
    "رح": 6106,
    "▁درخشید": 6107,
    "▁نایاب": 6108,
    "▁جفت": 6109,
    "راق": 6110,
    "▁هرجا": 6111,
    "هین": 6112,
    "▁رانت": 6113,
    "لفظ": 6114,
    "▁نخب": 6115,
    "▁خیز": 6116,
    "چر": 6117,
    "کلاهبرداری": 6118,
    "ویک": 6119,
    "▁سبد": 6120,
    "▁دیدند": 6121,
    "▁شکستگی": 6122,
    "▁بیدار": 6123,
    "▁ناقل": 6124,
    "رش": 6125,
    "▁۱۸۵": 6126,
    "لم": 6127,
    "سخ": 6128,
    "▁بازگو": 6129,
    "▁بخواهد": 6130,
    "▁محدودی": 6131,
    "▁توانی": 6132,
    "ویروس": 6133,
    "روازه": 6134,
    "▁امیرم": 6135,
    "جیغ": 6136,
    "▁اوب": 6137,
    "▁چاق": 6138,
    "▁ساید": 6139,
    "▁لیتر": 6140,
    "▁بالی": 6141,
    "تورهای": 6142,
    "▁ساع": 6143,
    "▁خد": 6144,
    "زمن": 6145,
    "رتر": 6146,
    "نکور": 6147,
    "▁کارفرما": 6148,
    "▁هادی": 6149,
    "لتی": 6150,
    "▁طرفی": 6151,
    "▁گویا": 6152,
    "زیر": 6153,
    "▁خم": 6154,
    "▁قل": 6155,
    "رخ": 6156,
    "ومپ": 6157,
    "▁ترانس": 6158,
    "ائ": 6159,
    "هادی": 6160,
    "گفتگو": 6161,
    "ير": 6162,
    "▁مسال": 6163,
    "▁دنی": 6164,
    "▁بتوانی": 6165,
    "جاع": 6166,
    "▁سرور": 6167,
    "▁ایال": 6168,
    "حض": 6169,
    "▁په": 6170,
    "اکبر": 6171,
    "▁دوگان": 6172,
    "برداری": 6173,
    "یگر": 6174,
    "▁دایی": 6175,
    "▁اتم": 6176,
    "شتم": 6177,
    "ژهای": 6178,
    "جن": 6179,
    "▁فوریت": 6180,
    "شدیدترین": 6181,
    "تصمیم": 6182,
    "نیوز": 6183,
    "رفتن": 6184,
    "▁گردهم": 6185,
    "▁بارش": 6186,
    "▁مسا": 6187,
    "▁مینا": 6188,
    "▁خب": 6189,
    "▁ترکی": 6190,
    "▁رجب": 6191,
    "▁آبهای": 6192,
    "مو": 6193,
    "۳۹": 6194,
    "▁جیم": 6195,
    "برگزار": 6196,
    "▁بنیا": 6197,
    "▁دود": 6198,
    "▁مص": 6199,
    "نخست": 6200,
    "لانتی": 6201,
    "▁بزرگان": 6202,
    "▁نوین": 6203,
    "شو": 6204,
    "جیک": 6205,
    "نجا": 6206,
    "▁گز": 6207,
    "مانیا": 6208,
    "▁تدو": 6209,
    "تخصصی": 6210,
    "۲۲": 6211,
    "▁اینج": 6212,
    "ظاهر": 6213,
    "اید": 6214,
    "▁پرز": 6215,
    "▁ایرلندی": 6216,
    "فتن": 6217,
    "▁سنگر": 6218,
    "▁نزدیکتر": 6219,
    "▁سروده": 6220,
    "ارزش": 6221,
    "▁حر": 6222,
    "جمعیت": 6223,
    "حادثه": 6224,
    "مشخص": 6225,
    "▁پرید": 6226,
    "▁مغزش": 6227,
    "▁خاور": 6228,
    "▁اجتماع": 6229,
    "▁بخشید": 6230,
    "▁کلاهبردار": 6231,
    "▁۱۴۰": 6232,
    "▁صدایی": 6233,
    "▁مارچ": 6234,
    "▁عزادار": 6235,
    "قدس": 6236,
    "کوم": 6237,
    "جراح": 6238,
    "اسپانیا": 6239,
    "کانادا": 6240,
    "▁تراز": 6241,
    "رهبر": 6242,
    "منازع": 6243,
    "اتریش": 6244,
    "▁۶۳": 6245,
    "وحید": 6246,
    "▁خریدن": 6247,
    "وکیل": 6248,
    "هشدار": 6249,
    "ارث": 6250,
    "▁استعمار": 6251,
    "لستر": 6252,
    "▁یادگار": 6253,
    "▁کولبر": 6254,
    "بحث": 6255,
    "شنا": 6256,
    "▁وث": 6257,
    "▁بزن": 6258,
    "▁فرضی": 6259,
    "▁قربان": 6260,
    "موج": 6261,
    "دادستان": 6262,
    "عادت": 6263,
    "▁دانشجو": 6264,
    "انت": 6265,
    "پزشکی": 6266,
    "ملا": 6267,
    "▁ناراحتی": 6268,
    "تازه": 6269,
    "ترانه": 6270,
    "جای": 6271,
    "▁زک": 6272,
    "▁دادخواه": 6273,
    "▁فرح": 6274,
    "جامع": 6275,
    "▁جرد": 6276,
    "نزا": 6277,
    "▁آوی": 6278,
    "نتیج": 6279,
    "▁وای": 6280,
    "▁سازان": 6281,
    "▁مشتاق": 6282,
    "کرده": 6283,
    "زیان": 6284,
    "▁عظیمی": 6285,
    "▁کارتو": 6286,
    "کور": 6287,
    "طبی": 6288,
    "دوستانه": 6289,
    "▁پولها": 6290,
    "▁۵۱": 6291,
    "▁نر": 6292,
    "یایی": 6293,
    "حث": 6294,
    "▁نیل": 6295,
    "▁کارل": 6296,
    "▁پیشگام": 6297,
    "بادی": 6298,
    "فیروز": 6299,
    "اسکو": 6300,
    "▁کوش": 6301,
    "لث": 6302,
    "▁پذیرفت": 6303,
    "▁مقاوم": 6304,
    "▁اعدا": 6305,
    "▁فلور": 6306,
    "▁اصالت": 6307,
    "▁شدیم": 6308,
    "▁تحق": 6309,
    "وئرنیک": 6310,
    "▁ابداع": 6311,
    "گشاد": 6312,
    "▁تجلی": 6313,
    "دیمیر": 6314,
    "▁منجم": 6315,
    "وده": 6316,
    "▁آکسفام": 6317,
    "▁ماسویدال": 6318,
    "▁کانگورو": 6319,
    "▁جامائیکا": 6320,
    "▁راهپیمایی": 6321,
    "▁مصیبت": 6322,
    "▁هامبورگ": 6323,
    "▁تدفین": 6324,
    "▁سولشر": 6325,
    "▁دموکراسی": 6326,
    "▁اردکانیان": 6327,
    "▁ناگزیر": 6328,
    "▁طغیان": 6329,
    "▁تأسیس": 6330,
    "▁دفاتر": 6331,
    "▁ژنشنگ": 6332,
    "▁تذکر": 6333,
    "▁کلروک": 6334,
    "▁باکتری": 6335,
    "▁گاگا": 6336,
    "▁عنصر": 6337,
    "▁واجد": 6338,
    "▁کمبریج": 6339,
    "▁بدانید": 6340,
    "▁آپارتمان": 6341,
    "▁۱۹۷۹": 6342,
    "اهی": 6343,
    "▁بیاورند": 6344,
    "▁بفروشند": 6345,
    "جویی": 6346,
    "۸۵": 6347,
    "▁الاجراست": 6348,
    "▁برگردیم": 6349,
    "▁بنشیند": 6350,
    "▁گیتار": 6351,
    "▁کاشف": 6352,
    "▁پرجمعیت": 6353,
    "▁گریگوریان": 6354,
    "▁تبلت": 6355,
    "▁نورالله": 6356,
    "▁فرنگی": 6357,
    "▁۷۵۲": 6358,
    "▁آسپر": 6359,
    "▁برگردند": 6360,
    "▁مختاری": 6361,
    "▁پابرجاست": 6362,
    "▁معلولیت": 6363,
    "▁نیابد": 6364,
    "صاب": 6365,
    "▁رفیق": 6366,
    "▁لبخندها": 6367,
    "▁جانباخت": 6368,
    "▁اجساد": 6369,
    "▁سازوکارهای": 6370,
    "▁۱۹۹۴": 6371,
    "▁۷۵۰": 6372,
    "زیمبا": 6373,
    "▁آث": 6374,
    "کاراکاس": 6375,
    "▁تشک": 6376,
    "▁برویم": 6377,
    "▁بخواهید": 6378,
    "▁حوض": 6379,
    "▁معلم": 6380,
    "▁برایانت": 6381,
    "دغدغه": 6382,
    "▁اسنپ": 6383,
    "▁۴۵۰": 6384,
    "▁الاکلنگ": 6385,
    "▁مساحت": 6386,
    "▁مستثن": 6387,
    "تاج": 6388,
    "▁سفیددره": 6389,
    "▁گرافیک": 6390,
    "▁مخاطب": 6391,
    "▁امیدوارکننده": 6392,
    "▁بازتاب": 6393,
    "▁داوود": 6394,
    "▁ناچیز": 6395,
    "▁نجوا": 6396,
    "▁پستی": 6397,
    "▁مشروب": 6398,
    "▁نورمحمد": 6399,
    "▁تنیده": 6400,
    "▁یوآ": 6401,
    "بیست": 6402,
    "▁علیزاده": 6403,
    "▁آویز": 6404,
    "میشل": 6405,
    "▁هاپک": 6406,
    "واز": 6407,
    "۲۷": 6408,
    "رانه": 6409,
    "▁عزت": 6410,
    "▁ملکشا": 6411,
    "▁پارکور": 6412,
    "نوان": 6413,
    "۵۷": 6414,
    "ملی": 6415,
    "▁نوی": 6416,
    "جوزپ": 6417,
    "▁گردیم": 6418,
    "▁برگزارکنند": 6419,
    "▁موریس": 6420,
    "▁فرندز": 6421,
    "▁ماوریک": 6422,
    "▁فهیم": 6423,
    "▁کیانوش": 6424,
    "▁خرمشهر": 6425,
    "▁افزاید": 6426,
    "▁مسبب": 6427,
    "▁پسران": 6428,
    "▁عاشقانه": 6429,
    "▁صیاد": 6430,
    "▁محاف": 6431,
    "▁ادارات": 6432,
    "▁چادر": 6433,
    "۵۸": 6434,
    "▁ارژن": 6435,
    "▁رژه": 6436,
    "▁سازندگی": 6437,
    "▁بدنشان": 6438,
    "▁موسیقیدان": 6439,
    "▁خوشبین": 6440,
    "▁جرج": 6441,
    "▁توئیتر": 6442,
    "▁اندازند": 6443,
    "▁انکار": 6444,
    "▁کامپیوترها": 6445,
    "▁وض": 6446,
    "▁چارل": 6447,
    "▁شرک": 6448,
    "▁کامیاب": 6449,
    "▁هوشیاری": 6450,
    "▁فورا": 6451,
    "▁سادگی": 6452,
    "▁کلیپ": 6453,
    "▁نامشخص": 6454,
    "▁تناقض": 6455,
    "▁ناوگان": 6456,
    "▁بدخ": 6457,
    "▁تولیدکنند": 6458,
    "۶۱": 6459,
    "▁ساوت": 6460,
    "یتا": 6461,
    "▁شرع": 6462,
    "▁تجمعات": 6463,
    "حصول": 6464,
    "▁منقل": 6465,
    "▁نایا": 6466,
    "▁بخشهای": 6467,
    "۱۹۶۵": 6468,
    "▁پینک": 6469,
    "▁افول": 6470,
    "▁بقا": 6471,
    "▁پرشور": 6472,
    "پک": 6473,
    "شکاف": 6474,
    "▁کوبا": 6475,
    "دانف": 6476,
    "▁بازیافت": 6477,
    "▁ماخ": 6478,
    "▁ارج": 6479,
    "شدن": 6480,
    "▁بازنده": 6481,
    "▁لطفی": 6482,
    "اعلام": 6483,
    "ملو": 6484,
    "لسون": 6485,
    "▁توق": 6486,
    "ابق": 6487,
    "▁توقع": 6488,
    "▁کوس": 6489,
    "مهربان": 6490,
    "▁گرجستانی": 6491,
    "▁القا": 6492,
    "▁راب": 6493,
    "▁تخ": 6494,
    "سعود": 6495,
    "خواهیم": 6496,
    "▁هانز": 6497,
    "ساسی": 6498,
    "▁اینچ": 6499,
    "▁هوادارانش": 6500,
    "▁نیافته": 6501,
    "راد": 6502,
    "چل": 6503,
    "▁جراحان": 6504,
    "▁سهامدار": 6505,
    "تناسب": 6506,
    "▁همگان": 6507,
    "ومبل": 6508,
    "يد": 6509,
    "▁مولان": 6510,
    "افتاده": 6511,
    "▁نیوز": 6512,
    "▁غل": 6513,
    "جد": 6514,
    "▁درصدد": 6515,
    "وویچ": 6516,
    "▁دنیل": 6517,
    "▁بیگ": 6518,
    "▁خدای": 6519,
    "▁منک": 6520,
    "▁شکوف": 6521,
    "▁بپذیر": 6522,
    "دند": 6523,
    "▁نمود": 6524,
    "▁نما": 6525,
    "اپ": 6526,
    "▁پاسخگوی": 6527,
    "▁شکن": 6528,
    "▁معمای": 6529,
    "لبرز": 6530,
    "فو": 6531,
    "▁برخاست": 6532,
    "▁حول": 6533,
    "یافته": 6534,
    "▁سنی": 6535,
    "صره": 6536,
    "▁تئو": 6537,
    "▁الس": 6538,
    "▁نیکولا": 6539,
    "وجیه": 6540,
    "▁وادار": 6541,
    "▁راد": 6542,
    "نقل": 6543,
    "▁اط": 6544,
    "زاری": 6545,
    "رنج": 6546,
    "▁جوی": 6547,
    "رن": 6548,
    "ریا": 6549,
    "▁معما": 6550,
    "▁داروین": 6551,
    "داده": 6552,
    "▁نب": 6553,
    "▁پارچ": 6554,
    "▁کاف": 6555,
    "▁۸۷": 6556,
    "▁غرو": 6557,
    "▁دفع": 6558,
    "يت": 6559,
    "باع": 6560,
    "▁عج": 6561,
    "▁۲۵۰۰": 6562,
    "▁گازها": 6563,
    "▁خالد": 6564,
    "۶۷": 6565,
    "▁محف": 6566,
    "سنگ": 6567,
    "▁ناشر": 6568,
    "▁ماتی": 6569,
    "ابل": 6570,
    "▁قان": 6571,
    "ستانگ": 6572,
    "▁ریاضی": 6573,
    "ستر": 6574,
    "▁بجا": 6575,
    "بیل": 6576,
    "▁بارور": 6577,
    "▁خلا": 6578,
    "ترا": 6579,
    "فرانس": 6580,
    "▁فرزندانش": 6581,
    "▁کری": 6582,
    "▁دقتی": 6583,
    "▁کبد": 6584,
    "خیل": 6585,
    "▁حفا": 6586,
    "جلیل": 6587,
    "▁فوتبالی": 6588,
    "فرجام": 6589,
    "▁وزار": 6590,
    "▁اروپاست": 6591,
    "▁بهرامی": 6592,
    "▁بنده": 6593,
    "▁هفده": 6594,
    "▁فهمید": 6595,
    "دوغا": 6596,
    "تحریم": 6597,
    "▁اصولگرا": 6598,
    "نیچ": 6599,
    "پزشک": 6600,
    "▁بریتانیاست": 6601,
    "پیر": 6602,
    "ئه": 6603,
    "▁دراین": 6604,
    "▁جون": 6605,
    "▁مبت": 6606,
    "سوس": 6607,
    "▁مارکو": 6608,
    "کافی": 6609,
    "▁مردن": 6610,
    "▁فورب": 6611,
    "۹۳": 6612,
    "گوئر": 6613,
    "عان": 6614,
    "▁رسی": 6615,
    "رمان": 6616,
    "ردی": 6617,
    "▁شوق": 6618,
    "شروع": 6619,
    "▁اجراهای": 6620,
    "▁ریختن": 6621,
    "▁بدوی": 6622,
    "▁اسل": 6623,
    "تعداد": 6624,
    "پرداخت": 6625,
    "فلیک": 6626,
    "۳۷": 6627,
    "▁نهادی": 6628,
    "▁گذاریم": 6629,
    "امین": 6630,
    "خوف": 6631,
    "▁پالا": 6632,
    "الت": 6633,
    "▁بفهم": 6634,
    "دوستان": 6635,
    "▁پنا": 6636,
    "نیف": 6637,
    "شوند": 6638,
    "بور": 6639,
    "درگذشت": 6640,
    "امه": 6641,
    "زیه": 6642,
    "▁ژی": 6643,
    "جایزه": 6644,
    "▁رپ": 6645,
    "زو": 6646,
    "ایشگاه": 6647,
    "▁کاد": 6648,
    "بازداشت": 6649,
    "جویان": 6650,
    "▁دزدی": 6651,
    "▁مکس": 6652,
    "▁انقلابی": 6653,
    "فره": 6654,
    "▁قاتل": 6655,
    "صیل": 6656,
    "▁ماست": 6657,
    "دایی": 6658,
    "▁بز": 6659,
    "▁آوا": 6660,
    "قصد": 6661,
    "▁اب": 6662,
    "طری": 6663,
    "وجه": 6664,
    "رکورد": 6665,
    "▁همگ": 6666,
    "▁موت": 6667,
    "▁سیلی": 6668,
    "نتایج": 6669,
    "هنگام": 6670,
    "▁گلو": 6671,
    "اطم": 6672,
    "فرانسه": 6673,
    "تنیس": 6674,
    "دیدار": 6675,
    "بزرگترین": 6676,
    "ظن": 6677,
    "▁کورو": 6678,
    "سرطان": 6679,
    "▁تولی": 6680,
    "سک": 6681,
    "مجتب": 6682,
    "خون": 6683,
    "آذر": 6684,
    "سکانس": 6685,
    "▁صحرا": 6686,
    "▁ایوان": 6687,
    "دلایل": 6688,
    "مطابق": 6689,
    "▁بون": 6690,
    "منظور": 6691,
    "▁میلاد": 6692,
    "▁سکان": 6693,
    "▁ولا": 6694,
    "رومن": 6695,
    "آلود": 6696,
    "اسناد": 6697,
    "کجاست": 6698,
    "▁هشدارهای": 6699,
    "واد": 6700,
    "جیل": 6701,
    "تحلیلگر": 6702,
    "▁پیگیر": 6703,
    "▁کلیسا": 6704,
    "تین": 6705,
    "نقش": 6706,
    "مقامات": 6707,
    "▁شاپ": 6708,
    "اشی": 6709,
    "▁۸۱": 6710,
    "▁افزودن": 6711,
    "▁خبرگ": 6712,
    "▁حاج": 6713,
    "نمایند": 6714,
    "▁الع": 6715,
    "▁صوت": 6716,
    "ایه": 6717,
    "اردو": 6718,
    "ربی": 6719,
    "▁چای": 6720,
    "▁امپراتور": 6721,
    "▁کلر": 6722,
    "بن": 6723,
    "باد": 6724,
    "▁برگرداند": 6725,
    "▁جوا": 6726,
    "▁چال": 6727,
    "▁لطف": 6728,
    "اعظم": 6729,
    "▁۹۲": 6730,
    "لیدی": 6731,
    "▁گلی": 6732,
    "ولین": 6733,
    "▁۲۹۰": 6734,
    "ضرر": 6735,
    "▁غور": 6736,
    "یاپی": 6737,
    "ونز": 6738,
    "یخته": 6739,
    "خوشایند": 6740,
    "راحتی": 6741,
    "نگرانی": 6742,
    "گران": 6743,
    "میدان": 6744,
    "▁نازل": 6745,
    "▁برا": 6746,
    "▁ابهاما": 6747,
    "▁کوهنورد": 6748,
    "ندر": 6749,
    "حام": 6750,
    "نولد": 6751,
    "▁اجت": 6752,
    "▁پیچید": 6753,
    "ندرسون": 6754,
    "مرد": 6755,
    "▁فک": 6756,
    "میته": 6757,
    "▁موسی": 6758,
    "▁شاگرد": 6759,
    "▁مرت": 6760,
    "شر": 6761,
    "▁سفرها": 6762,
    "▁درسی": 6763,
    "▁تقریب": 6764,
    "▁داگ": 6765,
    "▁درها": 6766,
    "▁چمپیون": 6767,
    "▁احداث": 6768,
    "▁انیمیشن": 6769,
    "▁سزاوار": 6770,
    "▁فیلسوف": 6771,
    "▁قورباغه": 6772,
    "▁انقطاع": 6773,
    "▁بیندازند": 6774,
    "▁محتمل": 6775,
    "▁سیگنال": 6776,
    "▁غلیظ": 6777,
    "▁سانتیگراد": 6778,
    "▁اولیانوف": 6779,
    "▁بلغارستان": 6780,
    "▁اختراع": 6781,
    "▁ضابط": 6782,
    "▁جگوار": 6783,
    "▁اسرارآمیز": 6784,
    "▁سمفونی": 6785,
    "▁آرم": 6786,
    "▁انزوا": 6787,
    "▁قزاق": 6788,
    "▁قتالی": 6789,
    "▁سیستماتیک": 6790,
    "▁اینفانتی": 6791,
    "▁هریرود": 6792,
    "▁لشکر": 6793,
    "▁وسواس": 6794,
    "▁بریجز": 6795,
    "▁هیدرو": 6796,
    "▁جاودان": 6797,
    "▁پرایس": 6798,
    "▁طلسم": 6799,
    "▁فرناند": 6800,
    "▁متصل": 6801,
    "▁رغبت": 6802,
    "▁پدربزرگ": 6803,
    "▁۱۹۶۶": 6804,
    "▁نابرابر": 6805,
    "▁فاسد": 6806,
    "▁شکنی": 6807,
    "▁سرسخت": 6808,
    "▁هنجار": 6809,
    "▁۱۹۶۷": 6810,
    "▁صلیب": 6811,
    "▁سازگار": 6812,
    "▁مالزی": 6813,
    "▁بسیج": 6814,
    "▁۱۹۹۵": 6815,
    "▁مراکش": 6816,
    "▁ندارید": 6817,
    "▁زحمت": 6818,
    "▁ببریم": 6819,
    "▁مردادماه": 6820,
    "▁بزاق": 6821,
    "▁فیصل": 6822,
    "▁مخرب": 6823,
    "▁سوت": 6824,
    "▁فرسود": 6825,
    "▁انتصاب": 6826,
    "لر": 6827,
    "▁۱۹۲۰": 6828,
    "▁دیرتر": 6829,
    "▁بگذارم": 6830,
    "▁بخورد": 6831,
    "▁نبو": 6832,
    "▁مجلات": 6833,
    "یکا": 6834,
    "▁طبع": 6835,
    "▁فلزات": 6836,
    "▁برونته": 6837,
    "▁یقین": 6838,
    "▁کیت": 6839,
    "▁کاسپی": 6840,
    "▁دماغ": 6841,
    "▁هک": 6842,
    "ارک": 6843,
    "▁معنادار": 6844,
    "▁خاندان": 6845,
    "▁همسایگان": 6846,
    "▁۱۹۶۸": 6847,
    "▁قدردان": 6848,
    "▁فلامینگوها": 6849,
    "▁۱۳۲": 6850,
    "▁ژنوم": 6851,
    "ماری": 6852,
    "▁دس": 6853,
    "▁جرا": 6854,
    "زود": 6855,
    "▁توبین": 6856,
    "▁رول": 6857,
    "▁پردازش": 6858,
    "▁نورستان": 6859,
    "▁معلومات": 6860,
    "سیزدهم": 6861,
    "▁رودکی": 6862,
    "▁نامعلوم": 6863,
    "▁خویش": 6864,
    "▁دیدیم": 6865,
    "▁دیوانه": 6866,
    "▁بورات": 6867,
    "پو": 6868,
    "▁فل": 6869,
    "▁منظوم": 6870,
    "ارل": 6871,
    "▁زادگاه": 6872,
    "سام": 6873,
    "▁درام": 6874,
    "▁دریانورد": 6875,
    "▁بزرگسالان": 6876,
    "▁مطلق": 6877,
    "▁نگذاشته": 6878,
    "▁ترقی": 6879,
    "▁اشخاص": 6880,
    "سپی": 6881,
    "▁سرخک": 6882,
    "▁مانور": 6883,
    "پائولو": 6884,
    "عضو": 6885,
    "برآورد": 6886,
    "▁یاسر": 6887,
    "بک": 6888,
    "▁سیاهپوست": 6889,
    "وادا": 6890,
    "▁تشوی": 6891,
    "▁یابند": 6892,
    "▁بیورن": 6893,
    "▁صرب": 6894,
    "▁باختر": 6895,
    "▁سینماگران": 6896,
    "▁رخدادهای": 6897,
    "▁اسکان": 6898,
    "شم": 6899,
    "▁ثور": 6900,
    "▁توتال": 6901,
    "بند": 6902,
    "تفرق": 6903,
    "▁ولت": 6904,
    "▁شخصا": 6905,
    "▁فضل": 6906,
    "▁مهمانان": 6907,
    "رود": 6908,
    "▁خانمان": 6909,
    "کشته": 6910,
    "خیر": 6911,
    "▁لیبی": 6912,
    "▁توسان": 6913,
    "▁تایی": 6914,
    "کوس": 6915,
    "▁اکثرا": 6916,
    "▁خند": 6917,
    "چال": 6918,
    "▁مادام": 6919,
    "▁پیمود": 6920,
    "شوه": 6921,
    "▁نویسندگ": 6922,
    "▁گرینو": 6923,
    "▁پاسدار": 6924,
    "▁جادوی": 6925,
    "▁خفا": 6926,
    "▁برن": 6927,
    "▁غرور": 6928,
    "▁رقبای": 6929,
    "نسون": 6930,
    "▁فاضل": 6931,
    "▁ماهنام": 6932,
    "▁هریس": 6933,
    "▁کوشید": 6934,
    "رونا": 6935,
    "هور": 6936,
    "▁قبض": 6937,
    "▁وات": 6938,
    "▁۶۹": 6939,
    "ضب": 6940,
    "▁عطف": 6941,
    "▁دیرو": 6942,
    "▁شنای": 6943,
    "▁کارلو": 6944,
    "▁عثمانی": 6945,
    "▁رساندند": 6946,
    "دینگ": 6947,
    "ادات": 6948,
    "▁تشکیلات": 6949,
    "▁سانچ": 6950,
    "حرف": 6951,
    "▁پهنه": 6952,
    "▁جع": 6953,
    "▁ترسد": 6954,
    "گاوا": 6955,
    "▁محو": 6956,
    "▁لط": 6957,
    "▁سناریوها": 6958,
    "▁قانونگذار": 6959,
    "فین": 6960,
    "▁پوک": 6961,
    "▁سرگرفت": 6962,
    "ولا": 6963,
    "▁خطا": 6964,
    "▁بدهید": 6965,
    "اطی": 6966,
    "▁استیو": 6967,
    "▁مری": 6968,
    "۲۱": 6969,
    "▁بروید": 6970,
    "کسیون": 6971,
    "پولو": 6972,
    "▁توبی": 6973,
    "لیس": 6974,
    "یامک": 6975,
    "▁اولی": 6976,
    "▁کوید": 6977,
    "لاب": 6978,
    "▁خوشی": 6979,
    "▁نبودند": 6980,
    "▁عاج": 6981,
    "▁مجادل": 6982,
    "▁بری": 6983,
    "▁نش": 6984,
    "▁جس": 6985,
    "نترل": 6986,
    "▁مجرمان": 6987,
    "▁مشخصات": 6988,
    "▁کجاست": 6989,
    "▁سانتو": 6990,
    "▁۴۲۰": 6991,
    "ویش": 6992,
    "▁شم": 6993,
    "▁نخواست": 6994,
    "تشکر": 6995,
    "بنی": 6996,
    "▁اولیو": 6997,
    "▁جور": 6998,
    "هدی": 6999,
    "▁قید": 7000,
    "▁اق": 7001,
    "▁بکند": 7002,
    "▁شمارش": 7003,
    "رسون": 7004,
    "▁۱۷۳": 7005,
    "وژه": 7006,
    "▁صحرای": 7007,
    "▁ضیا": 7008,
    "▁گرو": 7009,
    "▁سوییس": 7010,
    "▁تبر": 7011,
    "▁حریر": 7012,
    "کنیم": 7013,
    "أی": 7014,
    "▁بفرستید": 7015,
    "▁توفیقی": 7016,
    "▁بچ": 7017,
    "▁بالاست": 7018,
    "▁موسسا": 7019,
    "وارتر": 7020,
    "ملک": 7021,
    "زای": 7022,
    "▁پیامبر": 7023,
    "اط": 7024,
    "ویر": 7025,
    "▁فابی": 7026,
    "لای": 7027,
    "حاملگی": 7028,
    "▁سنجی": 7029,
    "بایی": 7030,
    "▁بسر": 7031,
    "▁گال": 7032,
    "▁دیف": 7033,
    "▁رانگل": 7034,
    "▁فضاپیما": 7035,
    "برده": 7036,
    "▁آنگل": 7037,
    "▁پرداز": 7038,
    "شون": 7039,
    "نگا": 7040,
    "قبره": 7041,
    "▁زنیم": 7042,
    "▁عکسها": 7043,
    "▁پری": 7044,
    "▁حکمت": 7045,
    "▁پوستر": 7046,
    "کسل": 7047,
    "▁روم": 7048,
    "روند": 7049,
    "▁لیو": 7050,
    "▁دن": 7051,
    "وران": 7052,
    "عادی": 7053,
    "سلط": 7054,
    "▁خران": 7055,
    "پاش": 7056,
    "▁رجبی": 7057,
    "▁شعرهای": 7058,
    "▁ارگان": 7059,
    "▁نوآوران": 7060,
    "عمل": 7061,
    "▁امیدهای": 7062,
    "▁آرزو": 7063,
    "کول": 7064,
    "▁ربای": 7065,
    "▁نتوان": 7066,
    "▁گوهر": 7067,
    "▁فراخواند": 7068,
    "آنچ": 7069,
    "▁یانگ": 7070,
    "قهرمان": 7071,
    "▁کارتون": 7072,
    "کمی": 7073,
    "▁کشاورزان": 7074,
    "غلو": 7075,
    "▁میدهد": 7076,
    "گذار": 7077,
    "▁فشارهای": 7078,
    "خالف": 7079,
    "وتی": 7080,
    "▁لال": 7081,
    "▁پویا": 7082,
    "وط": 7083,
    "وپ": 7084,
    "راک": 7085,
    "ائوس": 7086,
    "▁بخشد": 7087,
    "اثر": 7088,
    "منستان": 7089,
    "۴۴": 7090,
    "توازن": 7091,
    "▁تم": 7092,
    "▁سازهای": 7093,
    "اکس": 7094,
    "▁توافقات": 7095,
    "▁آرت": 7096,
    "۸۸": 7097,
    "گذشت": 7098,
    "▁هرج": 7099,
    "مورد": 7100,
    "پن": 7101,
    "▁انس": 7102,
    "▁شدایران": 7103,
    "▁پیشنهادهای": 7104,
    "▁..": 7105,
    "▁آلت": 7106,
    "ماشین": 7107,
    "ولکس": 7108,
    "▁امریکا": 7109,
    "▁تولیدش": 7110,
    "▁رون": 7111,
    "▁بیگان": 7112,
    "▁سنج": 7113,
    "سیلوا": 7114,
    "حقیقی": 7115,
    "شرایط": 7116,
    "▁نزده": 7117,
    "▁مزای": 7118,
    "نگاره": 7119,
    "▁جذابی": 7120,
    "▁سندی": 7121,
    "امید": 7122,
    "▁بم": 7123,
    "▁اسپا": 7124,
    "رفت": 7125,
    "▁رحمت": 7126,
    "وستون": 7127,
    "ماجرا": 7128,
    "▁لوح": 7129,
    "پاتی": 7130,
    "▁شناختن": 7131,
    "▁رویت": 7132,
    "▁زلا": 7133,
    "▁مذک": 7134,
    "نیک": 7135,
    "شن": 7136,
    "دانشگاه": 7137,
    "ومین": 7138,
    "نوایی": 7139,
    "▁افرا": 7140,
    "▁اشتها": 7141,
    "یسون": 7142,
    "رایت": 7143,
    "ستا": 7144,
    "▁سفرش": 7145,
    "▁هیل": 7146,
    "رگیری": 7147,
    "▁هرد": 7148,
    "مزد": 7149,
    "همکاری": 7150,
    "رچه": 7151,
    "▁شاد": 7152,
    "▁جود": 7153,
    "نور": 7154,
    "کشتی": 7155,
    "▁اجزا": 7156,
    "▁ارو": 7157,
    "▁سهیم": 7158,
    "▁فرز": 7159,
    "مين": 7160,
    "انیه": 7161,
    "▁پوشیدن": 7162,
    "۰۵": 7163,
    "▁بازه": 7164,
    "▁کانت": 7165,
    "الیاس": 7166,
    "ینز": 7167,
    "▁کارهایش": 7168,
    "▁پاسخگو": 7169,
    "▁ریگ": 7170,
    "عدی": 7171,
    "دوران": 7172,
    "نیس": 7173,
    "بارسلونا": 7174,
    "▁ساری": 7175,
    "عت": 7176,
    "ایتالیا": 7177,
    "▁پرش": 7178,
    "جنوب": 7179,
    "▁ممیز": 7180,
    "۱۴۰۰": 7181,
    "استرالیا": 7182,
    "جواد": 7183,
    "دمای": 7184,
    "راجع": 7185,
    "هواداران": 7186,
    "▁علا": 7187,
    "▁توا": 7188,
    "گمرک": 7189,
    "▁سونا": 7190,
    "تابستان": 7191,
    "بیگ": 7192,
    "▁پلک": 7193,
    "▁گیم": 7194,
    "جنجال": 7195,
    "▁سنگی": 7196,
    "▁گرجستان": 7197,
    "سریع": 7198,
    "شعر": 7199,
    "مدیریت": 7200,
    "جوکوویچ": 7201,
    "▁ماریان": 7202,
    "▁دعا": 7203,
    "رغ": 7204,
    "ندرت": 7205,
    "حضا": 7206,
    "▁اپراتور": 7207,
    "قهرمانی": 7208,
    "نفوذ": 7209,
    "جسد": 7210,
    "خشکسالی": 7211,
    "محمدرضا": 7212,
    "کاخ": 7213,
    "▁بلخی": 7214,
    "هماهنگ": 7215,
    "▁مذهب": 7216,
    "لیدز": 7217,
    "▁اکرم": 7218,
    "اذب": 7219,
    "▁سیلا": 7220,
    "▁گوف": 7221,
    "نگی": 7222,
    "▁ژاک": 7223,
    "▁منسو": 7224,
    "▁۸۴": 7225,
    "لیسب": 7226,
    "▁۲۶۰": 7227,
    "واقعی": 7228,
    "▁۳۲۰": 7229,
    "غوری": 7230,
    "کریست": 7231,
    "▁فقی": 7232,
    "شنوی": 7233,
    "▁درهم": 7234,
    "فرانسی": 7235,
    "▁رادیوی": 7236,
    "گزار": 7237,
    "صرف": 7238,
    "▁۷۱": 7239,
    "▁هوشی": 7240,
    "▁نانو": 7241,
    "نتینو": 7242,
    "▁همسران": 7243,
    "▁توئیت": 7244,
    "▁سانتا": 7245,
    "▁لوف": 7246,
    "پانز": 7247,
    "سنگر": 7248,
    "ئوری": 7249,
    "رحیم": 7250,
    "▁شورش": 7251,
    "▁فراور": 7252,
    "▁جنب": 7253,
    "▁سپه": 7254,
    "مرغ": 7255,
    "هان": 7256,
    "رزرو": 7257,
    "رسید": 7258,
    "▁یاسم": 7259,
    "ماجرای": 7260,
    "نتسب": 7261,
    "کادی": 7262,
    "خور": 7263,
    "▁بینم": 7264,
    "▁مکاتب": 7265,
    "▁تفنگ": 7266,
    "▁سازوکار": 7267,
    "دوج": 7268,
    "▁مخابر": 7269,
    "سانس": 7270,
    "آبی": 7271,
    "▁اختاپوس": 7272,
    "▁زاکربرگ": 7273,
    "▁ژئوفیزیک": 7274,
    "▁حناچی": 7275,
    "▁ناسازگار": 7276,
    "▁پلتفرم": 7277,
    "▁موریکونه": 7278,
    "▁هژمون": 7279,
    "▁لاوروف": 7280,
    "▁ناپایدار": 7281,
    "▁سارقان": 7282,
    "▁بیرمنگ": 7283,
    "▁عناوین": 7284,
    "▁مصائب": 7285,
    "لئوپولد": 7286,
    "▁التحصیل": 7287,
    "▁ناخودآگاه": 7288,
    "▁اقتباس": 7289,
    "▁انسولین": 7290,
    "▁ماراکانا": 7291,
    "▁ایرلاین": 7292,
    "▁باچان": 7293,
    "▁حیثیت": 7294,
    "▁دوبلور": 7295,
    "▁خشمگین": 7296,
    "▁کوشنر": 7297,
    "▁هتلداران": 7298,
    "▁لاتکس": 7299,
    "▁قضاوت": 7300,
    "▁نافرجام": 7301,
    "▁بفرستند": 7302,
    "▁فرهیخت": 7303,
    "▁میچام": 7304,
    "▁مقصود": 7305,
    "▁کواچ": 7306,
    "▁تدارک": 7307,
    "▁مبتکر": 7308,
    "▁گریبان": 7309,
    "▁نزاع": 7310,
    "▁مشروعیت": 7311,
    "فيلم": 7312,
    "▁کومله": 7313,
    "▁ارباب": 7314,
    "▁مقادیر": 7315,
    "▁موازات": 7316,
    "▁شنویم": 7317,
    "▁احوال": 7318,
    "▁سهمگین": 7319,
    "زیرو": 7320,
    "▁بپردازند": 7321,
    "▁دیزل": 7322,
    "▁مارسیال": 7323,
    "▁صفوف": 7324,
    "▁زیراتمی": 7325,
    "▁پوینت": 7326,
    "▁سعیدپور": 7327,
    "راندوم": 7328,
    "▁عالیشاه": 7329,
    "▁زوایا": 7330,
    "▁نابویایی": 7331,
    "▁مقیاس": 7332,
    "▁دمکرات": 7333,
    "▁شلوار": 7334,
    "▁بزنیم": 7335,
    "▁متضاد": 7336,
    "▁برآوردها": 7337,
    "▁قبرستان": 7338,
    "▁مولف": 7339,
    "▁۱۳۶۰": 7340,
    "▁متوازن": 7341,
    "▁عضلانی": 7342,
    "ائل": 7343,
    "▁خودمختار": 7344,
    "▁ضمیر": 7345,
    "▁بایستند": 7346,
    "▁امری": 7347,
    "▁ریاضیات": 7348,
    "▁تمیز": 7349,
    "▁تومور": 7350,
    "▁تقلب": 7351,
    "محسن": 7352,
    "▁ناسیونالیس": 7353,
    "▁لوگو": 7354,
    "▁هیپی": 7355,
    "میزان": 7356,
    "▁جاسک": 7357,
    "▁برگرداندن": 7358,
    "▁نیفتاد": 7359,
    "▁تحرکات": 7360,
    "▁اشکالات": 7361,
    "▁جیمی": 7362,
    "▁پرستون": 7363,
    "▁نوب": 7364,
    "▁ونوس": 7365,
    "اراک": 7366,
    "▁قمار": 7367,
    "▁خطاهای": 7368,
    "▁ایسلند": 7369,
    "▁عبدالسلام": 7370,
    "▁نایتلی": 7371,
    "▁ازبک": 7372,
    "▁رینت": 7373,
    "▁تصرف": 7374,
    "رزمی": 7375,
    "▁دادخواست": 7376,
    "▁رستم": 7377,
    "▁تعمیرات": 7378,
    "صنوف": 7379,
    "▁آگوست": 7380,
    "▁اتلان": 7381,
    "▁نشوند": 7382,
    "▁بگیرم": 7383,
    "▁اجداد": 7384,
    "سارت": 7385,
    "مانی": 7386,
    "ورد": 7387,
    "▁کبیری": 7388,
    "▁اهرم": 7389,
    "▁کریگ": 7390,
    "▁پیانو": 7391,
    "▁شرکا": 7392,
    "فینیتی": 7393,
    "▁مناسبات": 7394,
    "▁زودرس": 7395,
    "▁خاکستر": 7396,
    "▁نشدنی": 7397,
    "▁فرستند": 7398,
    "▁وفا": 7399,
    "▁آنتوان": 7400,
    "عادل": 7401,
    "▁کرونازده": 7402,
    "داعش": 7403,
    "لسک": 7404,
    "▁مگ": 7405,
    "سوی": 7406,
    "▁برنا": 7407,
    "▁ایلام": 7408,
    "▁اسکات": 7409,
    "▁متقابل": 7410,
    "▁اورگ": 7411,
    "▁شاهکارهای": 7412,
    "▁گرگور": 7413,
    "▁زشت": 7414,
    "▁نظ": 7415,
    "▁روستاهای": 7416,
    "حلال": 7417,
    "▁خوابیدن": 7418,
    "گوگوش": 7419,
    "▁زالی": 7420,
    "▁وکارها": 7421,
    "▁دژ": 7422,
    "▁چابک": 7423,
    "▁انو": 7424,
    "▁عینی": 7425,
    "ژیل": 7426,
    "▁حشر": 7427,
    "▁عناب": 7428,
    "ثه": 7429,
    "▁تعلیم": 7430,
    "▁ورزند": 7431,
    "▁شمش": 7432,
    "▁همد": 7433,
    "▁بهت": 7434,
    "۳۲": 7435,
    "معدنچی": 7436,
    "▁کولاک": 7437,
    "▁اسمیت": 7438,
    "▁نازک": 7439,
    "▁یوآن": 7440,
    "▁بوم": 7441,
    "▁دانا": 7442,
    "▁موازن": 7443,
    "▁رازهای": 7444,
    "▁بزرگسال": 7445,
    "▁غذاهای": 7446,
    "یح": 7447,
    "لیه": 7448,
    "▁مورف": 7449,
    "یاس": 7450,
    "▁مشتاقان": 7451,
    "▁درمیان": 7452,
    "▁نوشتارها": 7453,
    "▁۱۳۳": 7454,
    "▁منفور": 7455,
    "▁چشید": 7456,
    "▁کشورهاست": 7457,
    "یزه": 7458,
    "انگ": 7459,
    "▁اظهارنظرهای": 7460,
    "▁رباب": 7461,
    "هاب": 7462,
    "▁اسلو": 7463,
    "▁آش": 7464,
    "▁مهیب": 7465,
    "▁جورجی": 7466,
    "▁کوچه": 7467,
    "انک": 7468,
    "تاکنون": 7469,
    "▁سینماگر": 7470,
    "▁بیانداز": 7471,
    "ادین": 7472,
    "▁عز": 7473,
    "وسی": 7474,
    "گرایی": 7475,
    "▁کامران": 7476,
    "▁کورت": 7477,
    "خن": 7478,
    "پچو": 7479,
    "▁۱۷۴": 7480,
    "▁مرادی": 7481,
    "▁رسا": 7482,
    "▁بدویا": 7483,
    "گت": 7484,
    "▁اینستاگرامش": 7485,
    "▁دیوارهای": 7486,
    "▁بت": 7487,
    "زبان": 7488,
    "وبیل": 7489,
    "▁آرین": 7490,
    "▁یادم": 7491,
    "▁ورق": 7492,
    "▁زینب": 7493,
    "شکنی": 7494,
    "▁رویکردهای": 7495,
    "▁فروند": 7496,
    "راست": 7497,
    "▁انتقا": 7498,
    "▁جلیل": 7499,
    "▁بدهیم": 7500,
    "کفای": 7501,
    "نشینان": 7502,
    "▁سموم": 7503,
    "▁حجت": 7504,
    "▁گلد": 7505,
    "▁خطری": 7506,
    "داشتن": 7507,
    "صله": 7508,
    "دوزی": 7509,
    "۹۷": 7510,
    "سالار": 7511,
    "▁دارداین": 7512,
    "بع": 7513,
    "▁لندر": 7514,
    "اسکورت": 7515,
    "▁بلک": 7516,
    "ولوو": 7517,
    "یتز": 7518,
    "▁میهن": 7519,
    "نمی": 7520,
    "۳۳": 7521,
    "▁اضافی": 7522,
    "قاد": 7523,
    "▁عینک": 7524,
    "▁بازدیدکنند": 7525,
    "۷۷": 7526,
    "▁کیل": 7527,
    "هایش": 7528,
    "۳۶۰": 7529,
    "اچو": 7530,
    "▁مراد": 7531,
    "▁کوبی": 7532,
    "ونته": 7533,
    "▁میلیچ": 7534,
    "▁آرمی": 7535,
    "آر": 7536,
    "یوئیت": 7537,
    "▁فونت": 7538,
    "طم": 7539,
    "▁مشاه": 7540,
    "یونان": 7541,
    "▁مهمتر": 7542,
    "▁زیباتر": 7543,
    "نفت": 7544,
    "▁منازع": 7545,
    "▁عفون": 7546,
    "شک": 7547,
    "▁رسند": 7548,
    "گروهی": 7549,
    "۸۹": 7550,
    "جیان": 7551,
    "▁حیا": 7552,
    "▁خودکار": 7553,
    "آلبرت": 7554,
    "نزل": 7555,
    "زیو": 7556,
    "▁بگذاری": 7557,
    "ناس": 7558,
    "اکی": 7559,
    "▁محوری": 7560,
    "▁ستا": 7561,
    "▁خاوری": 7562,
    "اتیو": 7563,
    "پره": 7564,
    "▁چهارده": 7565,
    "یدن": 7566,
    "▁کنارش": 7567,
    "جسمی": 7568,
    "▁شروط": 7569,
    "بجای": 7570,
    "علم": 7571,
    "▁سکو": 7572,
    "مک": 7573,
    "▁مستندهای": 7574,
    "زمه": 7575,
    "▁منامه": 7576,
    "▁امداد": 7577,
    "▁شن": 7578,
    "زدی": 7579,
    "مس": 7580,
    "▁کلاین": 7581,
    "▁شار": 7582,
    "▁چنگ": 7583,
    "▁تقلا": 7584,
    "▁رایانه": 7585,
    "▁قی": 7586,
    "استین": 7587,
    "ائب": 7588,
    "▁روبات": 7589,
    "▁خانود": 7590,
    "آباد": 7591,
    "پژوه": 7592,
    "▁دخ": 7593,
    "▁الزاما": 7594,
    "▁یونه": 7595,
    "▁قبا": 7596,
    "▁سیرو": 7597,
    "۷۵": 7598,
    "یانت": 7599,
    "▁سرگذاشت": 7600,
    "▁زوم": 7601,
    "▁نظرش": 7602,
    "کلی": 7603,
    "گز": 7604,
    "▁رویاهای": 7605,
    "▁سوپ": 7606,
    "▁غوری": 7607,
    "▁بخشیده": 7608,
    "▁مینیاتوری": 7609,
    "▁فرسا": 7610,
    "▁قهر": 7611,
    "▁گرین": 7612,
    "▁موزی": 7613,
    "▁دانستن": 7614,
    "▁اقام": 7615,
    "▁وول": 7616,
    "عظم": 7617,
    "ستی": 7618,
    "▁مهیا": 7619,
    "دهم": 7620,
    "▁جوج": 7621,
    "▁تشی": 7622,
    "سید": 7623,
    "▁خوشنو": 7624,
    "ئید": 7625,
    "چنین": 7626,
    "▁نیامد": 7627,
    "▁نیت": 7628,
    "▁مث": 7629,
    "مگان": 7630,
    "▁برآورده": 7631,
    "راماتیک": 7632,
    "▁نکو": 7633,
    "جمهوری": 7634,
    "▁هستی": 7635,
    "▁نیستم": 7636,
    "وگو": 7637,
    "شور": 7638,
    "▁استوایی": 7639,
    "آور": 7640,
    "▁۶۶": 7641,
    "یکون": 7642,
    "اشار": 7643,
    "▁بودا": 7644,
    "تیو": 7645,
    "▁استعفاها": 7646,
    "▁اتری": 7647,
    "▁چش": 7648,
    "اسب": 7649,
    "▁کلینت": 7650,
    "فل": 7651,
    "▁اصولی": 7652,
    "▁عطار": 7653,
    "▁شالی": 7654,
    "▁دلش": 7655,
    "▁لنگ": 7656,
    "مانه": 7657,
    "زد": 7658,
    "▁مجت": 7659,
    "بزرگ": 7660,
    "نجره": 7661,
    "▁عاملی": 7662,
    "▁باگ": 7663,
    "گرفتن": 7664,
    "وثر": 7665,
    "تاد": 7666,
    "آمارها": 7667,
    "▁باربی": 7668,
    "وست": 7669,
    "▁ذهنش": 7670,
    "بوه": 7671,
    "▁تقی": 7672,
    "▁زیبای": 7673,
    "▁چتر": 7674,
    "سیاس": 7675,
    "توافق": 7676,
    "ذل": 7677,
    "▁فیش": 7678,
    "▁منت": 7679,
    "چشم": 7680,
    "لد": 7681,
    "▁دیپلم": 7682,
    "بالا": 7683,
    "▁الکسا": 7684,
    "▁دوید": 7685,
    "فرشی": 7686,
    "▁وود": 7687,
    "کلیف": 7688,
    "ارش": 7689,
    "زندگی": 7690,
    "▁آئ": 7691,
    "کاران": 7692,
    "ومی": 7693,
    "▁فری": 7694,
    "تمایل": 7695,
    "▁رومانیا": 7696,
    "▁الن": 7697,
    "▁پرستار": 7698,
    "فشار": 7699,
    "▁بگو": 7700,
    "ویی": 7701,
    "ماخ": 7702,
    "تمامی": 7703,
    "▁بدنم": 7704,
    "ولوژی": 7705,
    "وضعیت": 7706,
    "▁شارل": 7707,
    "مسابقه": 7708,
    "دترین": 7709,
    "فان": 7710,
    "▁سپرد": 7711,
    "نگین": 7712,
    "ترک": 7713,
    "کشورهای": 7714,
    "ادگی": 7715,
    "▁کوری": 7716,
    "اقت": 7717,
    "▁۱۰۹": 7718,
    "▁حم": 7719,
    "▁صداها": 7720,
    "▁شناورها": 7721,
    "▁عر": 7722,
    "▁فعالیتش": 7723,
    "▁تان": 7724,
    "عیار": 7725,
    "▁شیرینی": 7726,
    "▁مول": 7727,
    "حداکثر": 7728,
    "▁قوت": 7729,
    "حمایت": 7730,
    "حکم": 7731,
    "▁فور": 7732,
    "مانس": 7733,
    "▁بریم": 7734,
    "انیس": 7735,
    "ساعت": 7736,
    "موضوع": 7737,
    "▁حوا": 7738,
    "▁لیلا": 7739,
    "▁ننگ": 7740,
    "نویس": 7741,
    "فمن": 7742,
    "▁والا": 7743,
    "▁کاوا": 7744,
    "۲۰۲۰": 7745,
    "▁وزیری": 7746,
    "انتخاب": 7747,
    "▁برپا": 7748,
    "▁لویی": 7749,
    "اور": 7750,
    "کاظم": 7751,
    "▁شجاعی": 7752,
    "کانس": 7753,
    "محدودیت": 7754,
    "▁حسابدار": 7755,
    "کارآمد": 7756,
    "مز": 7757,
    "عکاس": 7758,
    "قد": 7759,
    "▁مساعد": 7760,
    "▁ورز": 7761,
    "دانه": 7762,
    "▁شست": 7763,
    "ورای": 7764,
    "صنعت": 7765,
    "پاسخ": 7766,
    "▁آشو": 7767,
    "زاق": 7768,
    "صلاح": 7769,
    "خطر": 7770,
    "رژ": 7771,
    "دقیق": 7772,
    "شکایت": 7773,
    "یلو": 7774,
    "۹۶": 7775,
    "جشنواره": 7776,
    "نژاد": 7777,
    "▁فراخوان": 7778,
    "حذف": 7779,
    "گردانی": 7780,
    "▁پسرم": 7781,
    "بهترین": 7782,
    "عملکرد": 7783,
    "منچستر": 7784,
    "فکر": 7785,
    "اوپک": 7786,
    "جوان": 7787,
    "فرمانده": 7788,
    "▁حالش": 7789,
    "▁موری": 7790,
    "▁فعل": 7791,
    "دبیر": 7792,
    "لیات": 7793,
    "پالایشگاه": 7794,
    "▁گار": 7795,
    "رویترز": 7796,
    "قسمت": 7797,
    "مالک": 7798,
    "جوایز": 7799,
    "ارا": 7800,
    "فیفا": 7801,
    "فرهاد": 7802,
    "مطالع": 7803,
    "فات": 7804,
    "▁کمربندها": 7805,
    "منتقدان": 7806,
    "بان": 7807,
    "قاسم": 7808,
    "▁۲۱۰": 7809,
    "لحظ": 7810,
    "▁انسانها": 7811,
    "فاصل": 7812,
    "بازارهای": 7813,
    "سیستم": 7814,
    "مناسبت": 7815,
    "▁عثمان": 7816,
    "اضطراب": 7817,
    "دنبال": 7818,
    "اتهامات": 7819,
    "▁هیولا": 7820,
    "کران": 7821,
    "عبدالله": 7822,
    "فاضل": 7823,
    "▁شرت": 7824,
    "هجوم": 7825,
    "تانک": 7826,
    "قای": 7827,
    "اسحاق": 7828,
    "سمانی": 7829,
    "▁بش": 7830,
    "قبض": 7831,
    "▁باخ": 7832,
    "مستند": 7833,
    "▁رشدی": 7834,
    "آزادی": 7835,
    "خوش": 7836,
    "▁متو": 7837,
    "▁بلندپرواز": 7838,
    "دختر": 7839,
    "▁مزایا": 7840,
    "ربکا": 7841,
    "تعجب": 7842,
    "▁حف": 7843,
    "▁ادوار": 7844,
    "▁کنو": 7845,
    "▁مطهر": 7846,
    "▁نمادها": 7847,
    "▁مصو": 7848,
    "رفته": 7849,
    "علنی": 7850,
    "پالا": 7851,
    "دریایی": 7852,
    "▁تراک": 7853,
    "اژ": 7854,
    "▁جعفر": 7855,
    "ورانه": 7856,
    "▁احتمالات": 7857,
    "دید": 7858,
    "دنیل": 7859,
    "۱۰": 7860,
    "پرده": 7861,
    "▁ثب": 7862,
    "زنان": 7863,
    "شقان": 7864,
    "درحالی": 7865,
    "بورگ": 7866,
    "جله": 7867,
    "والی": 7868,
    "میلان": 7869,
    "▁قضائی": 7870,
    "شود": 7871,
    "▁یون": 7872,
    "▁جمل": 7873,
    "▁مواج": 7874,
    "اشا": 7875,
    "▁معوق": 7876,
    "شریف": 7877,
    "عات": 7878,
    "لگار": 7879,
    "۳۰۰": 7880,
    "ریدار": 7881,
    "بازدید": 7882,
    "سبز": 7883,
    "الگو": 7884,
    "▁اسا": 7885,
    "بندی": 7886,
    "▁نیلی": 7887,
    "انتقالات": 7888,
    "مادر": 7889,
    "ارسل": 7890,
    "▁لک": 7891,
    "فاهی": 7892,
    "▁سفره": 7893,
    "▁باش": 7894,
    "▁سینو": 7895,
    "دیه": 7896,
    "▁استادان": 7897,
    "▁موفقی": 7898,
    "▁قدیم": 7899,
    "▁سیری": 7900,
    "فرد": 7901,
    "▁واژگ": 7902,
    "وص": 7903,
    "رگبار": 7904,
    "ویژ": 7905,
    "▁مکالم": 7906,
    "تال": 7907,
    "▁هجر": 7908,
    "▁ابتذال": 7909,
    "▁اسکورسیزی": 7910,
    "▁بنکدارپور": 7911,
    "▁تشعشع": 7912,
    "▁سخاوتمند": 7913,
    "▁ناپلئون": 7914,
    "▁انحراف": 7915,
    "▁برافراشت": 7916,
    "▁کوکائین": 7917,
    "▁میزورام": 7918,
    "▁پرتوافشانی": 7919,
    "▁اوزبیک": 7920,
    "▁رادیواکتیو": 7921,
    "▁اتوبوس": 7922,
    "▁میکروسکوپ": 7923,
    "▁مارگاریتا": 7924,
    "▁بلانشت": 7925,
    "▁کاریکاتور": 7926,
    "▁هیدروژن": 7927,
    "▁وبلاگ": 7928,
    "▁بیندازد": 7929,
    "▁عنابستانی": 7930,
    "▁غزنوی": 7931,
    "▁تنگاتنگ": 7932,
    "▁بولونیا": 7933,
    "▁پغمان": 7934,
    "خجالت": 7935,
    "▁فرمانروای": 7936,
    "▁مجارستان": 7937,
    "یونیسف": 7938,
    "▁بپرسید": 7939,
    "▁نکونام": 7940,
    "▁سولیوان": 7941,
    "▁اصغر": 7942,
    "▁بیانجامد": 7943,
    "▁مفاهیم": 7944,
    "▁فلاکت": 7945,
    "▁سرلشکر": 7946,
    "▁وسعت": 7947,
    "▁غمگین": 7948,
    "▁جادوگر": 7949,
    "▁سیرجان": 7950,
    "▁ذوالنور": 7951,
    "▁تظاهرکنندگان": 7952,
    "▁حصبه": 7953,
    "▁فونینی": 7954,
    "▁هیوستون": 7955,
    "▁سرامیک": 7956,
    "▁چندرایان": 7957,
    "▁فکاهی": 7958,
    "▁گنبد": 7959,
    "▁باشکوه": 7960,
    "▁تکواندو": 7961,
    "▁بکاهند": 7962,
    "▁گلیزر": 7963,
    "▁بلندپایه": 7964,
    "▁صربستان": 7965,
    "▁دشتکی": 7966,
    "▁ظالمانه": 7967,
    "▁منفعت": 7968,
    "▁مادربزرگ": 7969,
    "▁تمایز": 7970,
    "▁بمیرد": 7971,
    "▁دلسوز": 7972,
    "رث": 7973,
    "▁تجسس": 7974,
    "▁حشرات": 7975,
    "▁گوریل": 7976,
    "▁کارائیب": 7977,
    "▁قرآن": 7978,
    "▁کابلی": 7979,
    "▁بیضایی": 7980,
    "▁گوترش": 7981,
    "▁نکشید": 7982,
    "▁روانچی": 7983,
    "حضرت": 7984,
    "ماگال": 7985,
    "▁همفکر": 7986,
    "▁۲۰۳۵": 7987,
    "▁بکشم": 7988,
    "▁صفاری": 7989,
    "▁حروف": 7990,
    "▁مغایر": 7991,
    "▁مکالمات": 7992,
    "▁نباشند": 7993,
    "ناگلزم": 7994,
    "▁آوینی": 7995,
    "برگر": 7996,
    "▁تمجید": 7997,
    "▁توفندها": 7998,
    "▁هادرون": 7999,
    "▁رونالد": 8000,
    "وینچ": 8001,
    "▁خویشتن": 8002,
    "▁امپرا": 8003,
    "▁عبدالرحم": 8004,
    "▁لاهه": 8005,
    "▁لاستیک": 8006,
    "▁پترولی": 8007,
    "▁لیبر": 8008,
    "▁بارچا": 8009,
    "▁بیایند": 8010,
    "▁کاردوس": 8011,
    "▁سفیدپوستان": 8012,
    "▁بهائی": 8013,
    "▁هندرسون": 8014,
    "▁آندریا": 8015,
    "▁هنگفت": 8016,
    "تک": 8017,
    "▁بارکلی": 8018,
    "▁زادروز": 8019,
    "▁زیباست": 8020,
    "▁احصا": 8021,
    "▁فشارها": 8022,
    "▁ژرف": 8023,
    "▁اتومات": 8024,
    "▁کابوس": 8025,
    "▁لرزاند": 8026,
    "▁آبراه": 8027,
    "▁هنکس": 8028,
    "▁ملموس": 8029,
    "▁قیصر": 8030,
    "▁راجپوت": 8031,
    "▁سرپوش": 8032,
    "▁لافرته": 8033,
    "▁هافکین": 8034,
    "▁قعر": 8035,
    "▁مجزا": 8036,
    "▁خلبان": 8037,
    "▁مستعد": 8038,
    "▁آپوف": 8039,
    "▁آتلانت": 8040,
    "بق": 8041,
    "▁فاکس": 8042,
    "▁صفا": 8043,
    "▁خورند": 8044,
    "▁گاردن": 8045,
    "صریح": 8046,
    "هموار": 8047,
    "▁ویرانگر": 8048,
    "▁قلمرو": 8049,
    "ارکان": 8050,
    "رگذشت": 8051,
    "▁آستین": 8052,
    "▁دلنشین": 8053,
    "پولیس": 8054,
    "ونتی": 8055,
    "▁پرتلا": 8056,
    "▁مشهود": 8057,
    "▁راسخ": 8058,
    "بیح": 8059,
    "▁شکوه": 8060,
    "بازد": 8061,
    "▁ادینبور": 8062,
    "▁پشتو": 8063,
    "▁مرج": 8064,
    "▁پرفسور": 8065,
    "▁دانید": 8066,
    "▁بلاتکلیفی": 8067,
    "▁بستگان": 8068,
    "▁لطیفی": 8069,
    "▁کوواکس": 8070,
    "▁یادش": 8071,
    "▁چاو": 8072,
    "▁چسباند": 8073,
    "نندگان": 8074,
    "روس": 8075,
    "▁کروات": 8076,
    "عطوف": 8077,
    "زین": 8078,
    "آقازاده": 8079,
    "▁نزن": 8080,
    "حور": 8081,
    "▁گیلبرت": 8082,
    "▁بشنوید": 8083,
    "▁اخطارهای": 8084,
    "چهل": 8085,
    "▁لنز": 8086,
    "▁سلیق": 8087,
    "▁ندادند": 8088,
    "▁افشاگر": 8089,
    "▁متاسفم": 8090,
    "▁کورین": 8091,
    "ورلد": 8092,
    "▁تعرض": 8093,
    "همگی": 8094,
    "▁درخشد": 8095,
    "▁ویدئوهای": 8096,
    "▁شاکی": 8097,
    "▁بدیع": 8098,
    "▁ناشده": 8099,
    "خانی": 8100,
    "▁الجز": 8101,
    "▁ترکمان": 8102,
    "گزا": 8103,
    "▁کلور": 8104,
    "▁توانمند": 8105,
    "▁بنام": 8106,
    "▁مولد": 8107,
    "▁ایستادند": 8108,
    "▁دزد": 8109,
    "▁چغا": 8110,
    "▁نجومی": 8111,
    "نچی": 8112,
    "▁ویولن": 8113,
    "▁سکوها": 8114,
    "▁بگ": 8115,
    "▁خطاط": 8116,
    "نفی": 8117,
    "▁یوهان": 8118,
    "▁شنوند": 8119,
    "گوئه": 8120,
    "▁زین": 8121,
    "▁مجلل": 8122,
    "لکس": 8123,
    "▁مجاور": 8124,
    "▁گیج": 8125,
    "▁هجدهمی": 8126,
    "▁شمع": 8127,
    "زر": 8128,
    "جری": 8129,
    "▁مختصر": 8130,
    "▁لغ": 8131,
    "▁کاترین": 8132,
    "▁نوک": 8133,
    "▁آز": 8134,
    "لژی": 8135,
    "▁حسگرها": 8136,
    "۱۹۶۴": 8137,
    "▁مزد": 8138,
    "▁یزدان": 8139,
    "▁بگوید": 8140,
    "ژی": 8141,
    "▁اژدها": 8142,
    "▁وانگ": 8143,
    "▁تجسمی": 8144,
    "▁کنسر": 8145,
    "▁چرخید": 8146,
    "خشنود": 8147,
    "▁فرستادن": 8148,
    "فری": 8149,
    "اپور": 8150,
    "خزن": 8151,
    "▁دکترا": 8152,
    "رایم": 8153,
    "▁مجا": 8154,
    "▁افزارهای": 8155,
    "▁حریری": 8156,
    "▁راهکارهای": 8157,
    "▁مواجهند": 8158,
    "▁گذران": 8159,
    "نزو": 8160,
    "▁ربکا": 8161,
    "▁بلندپروازی": 8162,
    "گردانده": 8163,
    "عطا": 8164,
    "پایه": 8165,
    "۸۴": 8166,
    "▁وتو": 8167,
    "▁رکس": 8168,
    "▁۷۶۰": 8169,
    "▁افشاری": 8170,
    "سترسیتی": 8171,
    "▁کاتل": 8172,
    "ادل": 8173,
    "▁مطمئنا": 8174,
    "▁لینک": 8175,
    "وزن": 8176,
    "▁بایست": 8177,
    "▁یوسی": 8178,
    "▁برنج": 8179,
    "کردن": 8180,
    "▁گراز": 8181,
    "شیتز": 8182,
    "شاملو": 8183,
    "ئیت": 8184,
    "دستان": 8185,
    "▁پاور": 8186,
    "▁متال": 8187,
    "▁کلک": 8188,
    "▁حک": 8189,
    "▁ث": 8190,
    "یوآ": 8191,
    "خونی": 8192,
    "سبد": 8193,
    "▁خوشایند": 8194,
    "▁فرحی": 8195,
    "▁رج": 8196,
    "بدی": 8197,
    "▁تیز": 8198,
    "▁۱۸۸": 8199,
    "▁تهدیدات": 8200,
    "▁دوهزار": 8201,
    "پوستان": 8202,
    "يا": 8203,
    "نگاه": 8204,
    "نسل": 8205,
    "ریحان": 8206,
    "۹۵": 8207,
    "غما": 8208,
    "▁بارتو": 8209,
    "متن": 8210,
    "▁گاردی": 8211,
    "▁کلن": 8212,
    "نای": 8213,
    "▁کوپر": 8214,
    "▁گاف": 8215,
    "▁خصوصیات": 8216,
    "یاب": 8217,
    "▁الک": 8218,
    "▁اغ": 8219,
    "نمود": 8220,
    "▁سالروز": 8221,
    "▁آورم": 8222,
    "▁عطا": 8223,
    "▁اقسا": 8224,
    "بد": 8225,
    "▁لارن": 8226,
    "▁شجاعت": 8227,
    "▁نتوا": 8228,
    "طل": 8229,
    "▁جوانا": 8230,
    "رام": 8231,
    "▁نبردها": 8232,
    "جاست": 8233,
    "▁سیمین": 8234,
    "▁اشا": 8235,
    "راندن": 8236,
    "▁کان": 8237,
    "▁مسن": 8238,
    "▁ازد": 8239,
    "۹۰": 8240,
    "▁سوزاند": 8241,
    "▁استر": 8242,
    "▁تاثیرات": 8243,
    "▁تاجیکان": 8244,
    "ودم": 8245,
    "▁نصی": 8246,
    "واشی": 8247,
    "سپاس": 8248,
    "بینند": 8249,
    "الوح": 8250,
    "▁گی": 8251,
    "▁شایان": 8252,
    "لون": 8253,
    "▁سالمند": 8254,
    "▁بازگشتند": 8255,
    "▁چرن": 8256,
    "▁بیکاران": 8257,
    "▁یابی": 8258,
    "ویا": 8259,
    "الیز": 8260,
    "▁کریستین": 8261,
    "شایر": 8262,
    "▁موز": 8263,
    "▁الف": 8264,
    "▁میرود": 8265,
    "▁بستگ": 8266,
    "یلیون": 8267,
    "تار": 8268,
    "▁رسیم": 8269,
    "انسون": 8270,
    "▁تونسی": 8271,
    "▁بایستی": 8272,
    "لاخ": 8273,
    "یدی": 8274,
    "▁کلیت": 8275,
    "▁تردیدهای": 8276,
    "▁بایر": 8277,
    "▁دویدن": 8278,
    "▁گفتم": 8279,
    "میان": 8280,
    "▁ترمی": 8281,
    "▁فاطم": 8282,
    "۶۲": 8283,
    "وض": 8284,
    "▁ورای": 8285,
    "▁تعبی": 8286,
    "وکس": 8287,
    "▁گفتن": 8288,
    "▁نروژی": 8289,
    "▁مجتب": 8290,
    "▁ساندر": 8291,
    "▁لات": 8292,
    "▁۱۳۱": 8293,
    "▁تراشید": 8294,
    "▁مهن": 8295,
    "رساز": 8296,
    "▁کیپ": 8297,
    "لیت": 8298,
    "ئوس": 8299,
    "▁بشود": 8300,
    "▁نزدیکانش": 8301,
    "▁خونی": 8302,
    "▁چار": 8303,
    "فروشی": 8304,
    "▁شوراها": 8305,
    "مری": 8306,
    "جلس": 8307,
    "▁لوور": 8308,
    "بله": 8309,
    "▁اوکا": 8310,
    "▁رقیبان": 8311,
    "ائو": 8312,
    "▁هایپر": 8313,
    "رعه": 8314,
    "رگامو": 8315,
    "▁آفرید": 8316,
    "وود": 8317,
    "▁نایت": 8318,
    "▁تحرکی": 8319,
    "▁ساختند": 8320,
    "▁نصر": 8321,
    "▁بلوم": 8322,
    "هکرهای": 8323,
    "اتل": 8324,
    "تراپ": 8325,
    "▁مبتلای": 8326,
    "پارد": 8327,
    "بست": 8328,
    "▁استوار": 8329,
    "▁دولتها": 8330,
    "▁گوها": 8331,
    "شیر": 8332,
    "▁بستند": 8333,
    "▁جودوکا": 8334,
    "یوید": 8335,
    "▁گوستا": 8336,
    "اشک": 8337,
    "نشأ": 8338,
    "خو": 8339,
    "▁جنگید": 8340,
    "▁سکوی": 8341,
    "انند": 8342,
    "▁زید": 8343,
    "▁چسبی": 8344,
    "لاند": 8345,
    "▁دیاب": 8346,
    "خاطره": 8347,
    "▁تخار": 8348,
    "رعلی": 8349,
    "▁بندهای": 8350,
    "▁شکستند": 8351,
    "▁توسل": 8352,
    "▁مارین": 8353,
    "▁کیس": 8354,
    "▁نپذیرفت": 8355,
    "▁افع": 8356,
    "قیاس": 8357,
    "▁هاروی": 8358,
    "▁نوپا": 8359,
    "امک": 8360,
    "ادیو": 8361,
    "▁سکس": 8362,
    "گستر": 8363,
    "▁بکت": 8364,
    "سیما": 8365,
    "گذشته": 8366,
    "موش": 8367,
    "▁همپ": 8368,
    "هرزاد": 8369,
    "مهم": 8370,
    "▁بوهای": 8371,
    "تامی": 8372,
    "▁جانباز": 8373,
    "▁لنو": 8374,
    "تعلل": 8375,
    "▁تراژ": 8376,
    "▁ایرانایران": 8377,
    "جماع": 8378,
    "▁روا": 8379,
    "▁درخشند": 8380,
    "اتنگ": 8381,
    "ارجه": 8382,
    "لنگ": 8383,
    "▁نشستن": 8384,
    "▁کاو": 8385,
    "▁سردست": 8386,
    "اسیرو": 8387,
    "▁ند": 8388,
    "▁ایل": 8389,
    "▁نجفی": 8390,
    "▁چکهای": 8391,
    "▁لوپ": 8392,
    "رگاه": 8393,
    "▁کارآمد": 8394,
    "▁لرد": 8395,
    "▁استرا": 8396,
    "فعال": 8397,
    "الف": 8398,
    "▁عار": 8399,
    "نبه": 8400,
    "▁محی": 8401,
    "▁نبودن": 8402,
    "سلطان": 8403,
    "▁آموختن": 8404,
    "▁السی": 8405,
    "▁راوی": 8406,
    "▁موتورها": 8407,
    "سنج": 8408,
    "خل": 8409,
    "اعت": 8410,
    "▁کاسی": 8411,
    "▁ترسید": 8412,
    "▁مخاط": 8413,
    "▁۷۹": 8414,
    "▁شاهدان": 8415,
    "درنا": 8416,
    "▁سخ": 8417,
    "▁استف": 8418,
    "مکن": 8419,
    "▁پیا": 8420,
    "صدا": 8421,
    "▁دیرین": 8422,
    "گوین": 8423,
    "ارز": 8424,
    "کنی": 8425,
    "▁صحبتها": 8426,
    "ذره": 8427,
    "▁نیاورده": 8428,
    "▁اسکا": 8429,
    "▁ستود": 8430,
    "پایان": 8431,
    "اقدام": 8432,
    "رال": 8433,
    "▁سوخته": 8434,
    "حریف": 8435,
    "جف": 8436,
    "تروئ": 8437,
    "زلی": 8438,
    "▁خش": 8439,
    "رودی": 8440,
    "▁زنم": 8441,
    "▁بلندهای": 8442,
    "پاری": 8443,
    "▁دیسک": 8444,
    "۴۵": 8445,
    "تالیا": 8446,
    "▁هوک": 8447,
    "▁مشخصا": 8448,
    "▁کیان": 8449,
    "▁امضاکنند": 8450,
    "صال": 8451,
    "▁داوی": 8452,
    "نادر": 8453,
    "▁کریر": 8454,
    "حقوق": 8455,
    "▁نیاب": 8456,
    "▁حوال": 8457,
    "یلان": 8458,
    "▁قمر": 8459,
    "اجرای": 8460,
    "فعالیت": 8461,
    "▁آتن": 8462,
    "رمند": 8463,
    "افراد": 8464,
    "مردم": 8465,
    "▁لوس": 8466,
    "میلیا": 8467,
    "▁چرم": 8468,
    "▁شیوا": 8469,
    "▁تلا": 8470,
    "▁گنجان": 8471,
    "▁۱۲۶": 8472,
    "▁نابینا": 8473,
    "مختار": 8474,
    "خارج": 8475,
    "بیماری": 8476,
    "باف": 8477,
    "▁نگفت": 8478,
    "ازاد": 8479,
    "▁۱۲۵": 8480,
    "برابر": 8481,
    "پولی": 8482,
    "▁هرسال": 8483,
    "گراد": 8484,
    "یکپا": 8485,
    "زهای": 8486,
    "شناسی": 8487,
    "۳۵": 8488,
    "بریز": 8489,
    "▁عزا": 8490,
    "دس": 8491,
    "ادعا": 8492,
    "▁تپند": 8493,
    "اعتراض": 8494,
    "یناتور": 8495,
    "پرونده": 8496,
    "▁الی": 8497,
    "اتح": 8498,
    "▁نیرومند": 8499,
    "▁دلخو": 8500,
    "مداری": 8501,
    "ناسا": 8502,
    "بنیا": 8503,
    "▁العم": 8504,
    "سارا": 8505,
    "یلیچ": 8506,
    "آزمایش": 8507,
    "عد": 8508,
    "ورس": 8509,
    "فای": 8510,
    "درآمد": 8511,
    "صادرات": 8512,
    "کتاب": 8513,
    "▁سرزن": 8514,
    "▁لیم": 8515,
    "▁بده": 8516,
    "▁بیند": 8517,
    "▁کردید": 8518,
    "▁قامت": 8519,
    "تز": 8520,
    "اهید": 8521,
    "گویی": 8522,
    "▁هجده": 8523,
    "سپاه": 8524,
    "قرنطینه": 8525,
    "▁لئو": 8526,
    "▁رادو": 8527,
    "ابتدا": 8528,
    "قرارداد": 8529,
    "اسرائیل": 8530,
    "کسان": 8531,
    "مشق": 8532,
    "▁سیریا": 8533,
    "قطع": 8534,
    "روزهای": 8535,
    "▁ناخوا": 8536,
    "▁شغلها": 8537,
    "لیل": 8538,
    "شکست": 8539,
    "▁پترو": 8540,
    "نقدر": 8541,
    "▁همسری": 8542,
    "ذب": 8543,
    "نسک": 8544,
    "مسئول": 8545,
    "چاق": 8546,
    "▁کوما": 8547,
    "احتمال": 8548,
    "▁فلم": 8549,
    "حمدرضا": 8550,
    "▁حض": 8551,
    "▁اکل": 8552,
    "سین": 8553,
    "▁روبین": 8554,
    "ئل": 8555,
    "طوری": 8556,
    "▁مزارش": 8557,
    "ناتالی": 8558,
    "▁اسید": 8559,
    "نهادهای": 8560,
    "دستور": 8561,
    "▁سناریو": 8562,
    "▁آسا": 8563,
    "خبرنگار": 8564,
    "خروج": 8565,
    "ترکیب": 8566,
    "▁آرن": 8567,
    "جنگ": 8568,
    "فضای": 8569,
    "▁بک": 8570,
    "رانگ": 8571,
    "▁دروغگو": 8572,
    "▁هیچگ": 8573,
    "کاملا": 8574,
    "چاپ": 8575,
    "مصرف": 8576,
    "▁تحر": 8577,
    "▁بیک": 8578,
    "▁نوزده": 8579,
    "▁اراد": 8580,
    "خواننده": 8581,
    "۸۶": 8582,
    "صعود": 8583,
    "یمه": 8584,
    "روبرت": 8585,
    "هیچ": 8586,
    "▁سخنگو": 8587,
    "برزیل": 8588,
    "تخریب": 8589,
    "رئال": 8590,
    "طالبان": 8591,
    "موارد": 8592,
    "▁ماهان": 8593,
    "رکود": 8594,
    "حاشیه": 8595,
    "نویسندگان": 8596,
    "صادف": 8597,
    "تیراندازی": 8598,
    "یوونتوس": 8599,
    "پوش": 8600,
    "سرپرست": 8601,
    "امارات": 8602,
    "مردان": 8603,
    "اتفاقات": 8604,
    "خوانده": 8605,
    "کشف": 8606,
    "جیمز": 8607,
    "مدیرکل": 8608,
    "مشاور": 8609,
    "غدی": 8610,
    "تس": 8611,
    "▁جولیا": 8612,
    "خاوران": 8613,
    "وانیم": 8614,
    "وبسایت": 8615,
    "کنگره": 8616,
    "▁اندرو": 8617,
    "سناتور": 8618,
    "لاپورتا": 8619,
    "ربین": 8620,
    "همیلتون": 8621,
    "توماس": 8622,
    "واقعیت": 8623,
    "آرامکو": 8624,
    "▁ماهرویان": 8625,
    "جمشید": 8626,
    "ورود": 8627,
    "پیرلو": 8628,
    "یتس": 8629,
    "لماس": 8630,
    "فش": 8631,
    "▁جویا": 8632,
    "سازنده": 8633,
    "ایلنا": 8634,
    "▁چهارمی": 8635,
    "دیو": 8636,
    "داریوش": 8637,
    "▁علام": 8638,
    "بدهی": 8639,
    "پادمان": 8640,
    "متاز": 8641,
    "بالگرد": 8642,
    "▁سوزان": 8643,
    "آلات": 8644,
    "▁آسم": 8645,
    "سوخت": 8646,
    "▁امپر": 8647,
    "قوی": 8648,
    "▁لاین": 8649,
    "تفاهم": 8650,
    "▁۳۸۰": 8651,
    "منتظر": 8652,
    "امشب": 8653,
    "▁کوتاهتر": 8654,
    "▁گپ": 8655,
    "ختی": 8656,
    "صمد": 8657,
    "▁کمالی": 8658,
    "▁تجسم": 8659,
    "▁دلیلش": 8660,
    "نوسان": 8661,
    "رییس": 8662,
    "▁هوشیار": 8663,
    "▁مختص": 8664,
    "▁طاه": 8665,
    "وبی": 8666,
    "مدیران": 8667,
    "▁سوکا": 8668,
    "▁ناگ": 8669,
    "▁آرنو": 8670,
    "ناوگان": 8671,
    "▁چسبن": 8672,
    "مسعود": 8673,
    "▁بنین": 8674,
    "▁ساسان": 8675,
    "هنه": 8676,
    "قبلا": 8677,
    "▁سویی": 8678,
    "پینو": 8679,
    "▁کاپل": 8680,
    "▁ساد": 8681,
    "حکمت": 8682,
    "سوری": 8683,
    "وشن": 8684,
    "مرح": 8685,
    "باخ": 8686,
    "مکرون": 8687,
    "▁سرم": 8688,
    "گمش": 8689,
    "▁سلیمان": 8690,
    "▁تروریست": 8691,
    "مرور": 8692,
    "تقی": 8693,
    "▁شیب": 8694,
    "مش": 8695,
    "صیر": 8696,
    "وتو": 8697,
    "▁بازنگشت": 8698,
    "تناقض": 8699,
    "لباخت": 8700,
    "کیهان": 8701,
    "یار": 8702,
    "▁شیاد": 8703,
    "پروم": 8704,
    "فیک": 8705,
    "▁بدان": 8706,
    "الج": 8707,
    "شهرت": 8708,
    "شاهزاد": 8709,
    "صرب": 8710,
    "تصور": 8711,
    "سکار": 8712,
    "▁بهم": 8713,
    "وقی": 8714,
    "الا": 8715,
    "▁برو": 8716,
    "زاک": 8717,
    "▁همدان": 8718,
    "حی": 8719,
    "گاتی": 8720,
    "▁اوار": 8721,
    "کشی": 8722,
    "▁هموطن": 8723,
    "▁بوس": 8724,
    "▁عبد": 8725,
    "▁بازگرد": 8726,
    "ائی": 8727,
    "▁طو": 8728,
    "▁فلامینگو": 8729,
    "قول": 8730,
    "ریکا": 8731,
    "اسکار": 8732,
    "سترازنکا": 8733,
    "▁الگو": 8734,
    "▁همسایگ": 8735,
    "موتو": 8736,
    "▁فض": 8737,
    "ریوس": 8738,
    "▁غواص": 8739,
    "متری": 8740,
    "▁ترفند": 8741,
    "▁ژا": 8742,
    "طابق": 8743,
    "▁پابرجا": 8744,
    "تایی": 8745,
    "▁محک": 8746,
    "▁جوری": 8747,
    "دوره": 8748,
    "▁مطبوع": 8749,
    "▁زحم": 8750,
    "▁تظاهر": 8751,
    "▁بگذار": 8752,
    "ایان": 8753,
    "▁اورشلیم": 8754,
    "▁اوگوپوگو": 8755,
    "▁ولاسکز": 8756,
    "▁پورنوگرافی": 8757,
    "▁ترائوره": 8758,
    "▁تمسخر": 8759,
    "▁فیزیولوژی": 8760,
    "▁ننگرهار": 8761,
    "▁متعاقب": 8762,
    "▁بشنوند": 8763,
    "▁منسجم": 8764,
    "▁اوقاف": 8765,
    "▁اکونومی": 8766,
    "▁ضرغام": 8767,
    "▁خویشاوند": 8768,
    "▁غیاث": 8769,
    "▁پرسورینس": 8770,
    "▁قیراط": 8771,
    "▁فانخیو": 8772,
    "▁شرمسار": 8773,
    "▁گوسفند": 8774,
    "▁کاسموس": 8775,
    "▁محتکر": 8776,
    "▁همجوار": 8777,
    "▁خاستگاه": 8778,
    "▁سمنزا": 8779,
    "▁الارض": 8780,
    "معجزه": 8781,
    "▁گلاسگو": 8782,
    "▁نوترینو": 8783,
    "▁سیلیکون": 8784,
    "▁صحافی": 8785,
    "▁فرخزاد": 8786,
    "▁گدوت": 8787,
    "▁سوراخ": 8788,
    "▁متقلب": 8789,
    "▁نقیض": 8790,
    "▁ستیزانه": 8791,
    "▁گمپرت": 8792,
    "▁تشابه": 8793,
    "▁تسخیر": 8794,
    "▁روزافزون": 8795,
    "▁فورهند": 8796,
    "▁انهدام": 8797,
    "▁تمهید": 8798,
    "▁برسانیم": 8799,
    "▁آژیر": 8800,
    "▁مکوندی": 8801,
    "▁کربلا": 8802,
    "ریه": 8803,
    "▁کالینز": 8804,
    "▁دامغان": 8805,
    "▁مترمکعب": 8806,
    "▁جماعت": 8807,
    "▁برلیناله": 8808,
    "▁ناخشنود": 8809,
    "▁پاندمی": 8810,
    "▁عنایت": 8811,
    "▁خمیس": 8812,
    "▁مقاطع": 8813,
    "▁ویسکانس": 8814,
    "▁بفرستد": 8815,
    "▁الفبا": 8816,
    "▁سرمنشا": 8817,
    "▁فرازمینی": 8818,
    "▁فروزان": 8819,
    "هالیفیلد": 8820,
    "▁اوصاف": 8821,
    "▁فراهانی": 8822,
    "▁کلکسیون": 8823,
    "▁علیشاهی": 8824,
    "▁هیلتون": 8825,
    "▁ارنست": 8826,
    "ندگرن": 8827,
    "▁ببینم": 8828,
    "▁الاجرا": 8829,
    "▁ویلسون": 8830,
    "▁منحنی": 8831,
    "▁مشکاتیان": 8832,
    "▁کوئینز": 8833,
    "▁بیاییم": 8834,
    "آنگولا": 8835,
    "▁سیندمی": 8836,
    "▁فاضلاب": 8837,
    "▁لرزید": 8838,
    "▁نویدبخش": 8839,
    "▁درآید": 8840,
    "▁بسپارد": 8841,
    "▁مرموز": 8842,
    "▁۱۳۸۶": 8843,
    "▁آرسن": 8844,
    "▁فواید": 8845,
    "▁۶۱۲": 8846,
    "▁مولایی": 8847,
    "▁پرسنل": 8848,
    "▁شیطان": 8849,
    "▁سنجاب": 8850,
    "▁همینگوی": 8851,
    "مونت": 8852,
    "▁معابد": 8853,
    "▁برنگرداند": 8854,
    "▁۵۵۶": 8855,
    "▁ناظمی": 8856,
    "▁شئون": 8857,
    "▁عبادی": 8858,
    "▁کالینگ": 8859,
    "▁بخوانند": 8860,
    "▁بانکوک": 8861,
    "▁دلهره": 8862,
    "▁سفیدپوست": 8863,
    "ارزپاشی": 8864,
    "▁بیفتند": 8865,
    "▁مزیت": 8866,
    "▁۲۴۰": 8867,
    "▁حصار": 8868,
    "۸۱": 8869,
    "▁طومار": 8870,
    "▁ایرویز": 8871,
    "▁نگیرد": 8872,
    "▁دره": 8873,
    "▁وارث": 8874,
    "▁منکین": 8875,
    "▁وجدان": 8876,
    "▁اسکلت": 8877,
    "▁۶۳۰": 8878,
    "▁جنایات": 8879,
    "▁نشناخت": 8880,
    "▁ریتم": 8881,
    "▁ذوال": 8882,
    "▁ابول": 8883,
    "▁زراعت": 8884,
    "ادیوم": 8885,
    "▁پیشگیر": 8886,
    "شکی": 8887,
    "▁ونچ": 8888,
    "▁رویز": 8889,
    "▁ملوان": 8890,
    "لیگا": 8891,
    "▁زیربنا": 8892,
    "▁رافا": 8893,
    "ري": 8894,
    "▁بازدارند": 8895,
    "▁مرندی": 8896,
    "▁آنچنان": 8897,
    "▁بگریز": 8898,
    "▁مطیعی": 8899,
    "▁۲۳۹": 8900,
    "▁بیولوژی": 8901,
    "▁معصوم": 8902,
    "▁نیکو": 8903,
    "▁جملات": 8904,
    "▁جویانه": 8905,
    "▁نگو": 8906,
    "▁بوفالوران": 8907,
    "▁آغا": 8908,
    "▁سحرگاه": 8909,
    "▁تایوان": 8910,
    "▁خونبار": 8911,
    "ساتبی": 8912,
    "▁بازوهای": 8913,
    "▁صداقت": 8914,
    "تورم": 8915,
    "حک": 8916,
    "بیب": 8917,
    "کای": 8918,
    "▁مذا": 8919,
    "▁۱۵۵": 8920,
    "▁پرداختن": 8921,
    "▁هولو": 8922,
    "ستراح": 8923,
    "▁شوش": 8924,
    "▁مته": 8925,
    "▁معلمان": 8926,
    "▁بازکنند": 8927,
    "▁هشدارها": 8928,
    "▁الاه": 8929,
    "▁ایدز": 8930,
    "▁۱۲۲": 8931,
    "▁ونگر": 8932,
    "تاگون": 8933,
    "▁شهباز": 8934,
    "▁افراط": 8935,
    "▁فلسطینی": 8936,
    "▁طاهر": 8937,
    "▁۲۴۸": 8938,
    "▁پوسترهای": 8939,
    "▁الگوهای": 8940,
    "▁درمانگاه": 8941,
    "شانت": 8942,
    "▁آندریاس": 8943,
    "نعیم": 8944,
    "▁خرابکارانه": 8945,
    "▁معترضین": 8946,
    "▁کاتال": 8947,
    "▁تنبل": 8948,
    "▁نرود": 8949,
    "▁پاشیده": 8950,
    "▁بامیه": 8951,
    "فال": 8952,
    "▁ربع": 8953,
    "▁ماجراجوی": 8954,
    "▁هموطنان": 8955,
    "▁راهکار": 8956,
    "▁نگذاشت": 8957,
    "▁شنیدنش": 8958,
    "▁غفاری": 8959,
    "ارتوم": 8960,
    "▁مبنا": 8961,
    "▁نیوت": 8962,
    "▁انعکاس": 8963,
    "▁الاصل": 8964,
    "▁گرافی": 8965,
    "▁فتو": 8966,
    "روث": 8967,
    "مانند": 8968,
    "۵۳": 8969,
    "▁رحیمی": 8970,
    "▁ازآن": 8971,
    "▁کوچ": 8972,
    "سانسور": 8973,
    "▁قبایل": 8974,
    "▁نثر": 8975,
    "▁فالک": 8976,
    "زیستی": 8977,
    "▁داستا": 8978,
    "▁یاب": 8979,
    "▁چهارصد": 8980,
    "▁سندگرن": 8981,
    "سیاست": 8982,
    "▁خوابگاه": 8983,
    "▁گذراندم": 8984,
    "▁حکمی": 8985,
    "▁بعض": 8986,
    "غی": 8987,
    "▁آری": 8988,
    "رگز": 8989,
    "▁واپس": 8990,
    "▁گول": 8991,
    "▁دیوارنگار": 8992,
    "▁پالیس": 8993,
    "وکسل": 8994,
    "▁قضا": 8995,
    "▁فراوانش": 8996,
    "ئیه": 8997,
    "▁کارولین": 8998,
    "۳۸": 8999,
    "▁جوزا": 9000,
    "▁میانجی": 9001,
    "▁نگا": 9002,
    "▁هزارتومان": 9003,
    "سرین": 9004,
    "▁نرسیدن": 9005,
    "پهن": 9006,
    "▁برسیم": 9007,
    "وردی": 9008,
    "▁محرومند": 9009,
    "خنده": 9010,
    "▁تختی": 9011,
    "▁فوتسی": 9012,
    "▁ترسند": 9013,
    "یلند": 9014,
    "▁بخواهند": 9015,
    "رل": 9016,
    "▁وینفر": 9017,
    "▁مخالفند": 9018,
    "رسانی": 9019,
    "▁محبت": 9020,
    "▁لم": 9021,
    "جاز": 9022,
    "میخ": 9023,
    "▁سبزی": 9024,
    "▁دریاب": 9025,
    "▁بنفش": 9026,
    "▁ساچ": 9027,
    "ارنوک": 9028,
    "▁پي": 9029,
    "▁چریک": 9030,
    "▁شاخک": 9031,
    "▁فیو": 9032,
    "▁دالان": 9033,
    "▁دردسرهای": 9034,
    "▁فرشید": 9035,
    "▁هنرپیشگ": 9036,
    "▁فیض": 9037,
    "▁دلا": 9038,
    "▁غذاخور": 9039,
    "▁وو": 9040,
    "۶۸": 9041,
    "▁شهنا": 9042,
    "▁درصورت": 9043,
    "▁یدک": 9044,
    "▁لایک": 9045,
    "▁ویر": 9046,
    "▁نها": 9047,
    "▁اوتار": 9048,
    "▁والتر": 9049,
    "قایق": 9050,
    "▁مرمر": 9051,
    "▁طلاق": 9052,
    "وتیو": 9053,
    "▁برگشتند": 9054,
    "▁ایفل": 9055,
    "دوف": 9056,
    "عاش": 9057,
    "نون": 9058,
    "▁صمد": 9059,
    "▁سوفی": 9060,
    "▁غزل": 9061,
    "یانگ": 9062,
    "▁بدهم": 9063,
    "▁زاها": 9064,
    "▁لول": 9065,
    "میلیارد": 9066,
    "▁تسا": 9067,
    "یرو": 9068,
    "▁خاطراتی": 9069,
    "▁کتابخوان": 9070,
    "▁۱۲۸": 9071,
    "▁گزی": 9072,
    "لوگ": 9073,
    "هشت": 9074,
    "فلورای": 9075,
    "▁آغ": 9076,
    "▁جوانب": 9077,
    "چشمه": 9078,
    "▁نامند": 9079,
    "▁نبردی": 9080,
    "▁سیلوا": 9081,
    "▁جهاندار": 9082,
    "سایر": 9083,
    "▁پرمخاط": 9084,
    "▁افکند": 9085,
    "ادام": 9086,
    "▁آمری": 9087,
    "▁کشمیر": 9088,
    "اتب": 9089,
    "ریف": 9090,
    "تعدد": 9091,
    "▁کارند": 9092,
    "▁بادام": 9093,
    "اکبری": 9094,
    "جمعه": 9095,
    "ایسل": 9096,
    "▁نبرده": 9097,
    "ماگو": 9098,
    "▁آلب": 9099,
    "▁کوئین": 9100,
    "الیف": 9101,
    "▁چون": 9102,
    "▁ابد": 9103,
    "▁شنید": 9104,
    "▁طبقات": 9105,
    "▁دستیاران": 9106,
    "▁تلک": 9107,
    "▁والن": 9108,
    "فشان": 9109,
    "▁ماجراهای": 9110,
    "یویا": 9111,
    "▁کلاسیکو": 9112,
    "▁ویسل": 9113,
    "▁دیگ": 9114,
    "▁السلط": 9115,
    "▁وسای": 9116,
    "▁لیز": 9117,
    "▁ترسم": 9118,
    "احسا": 9119,
    "▁بازو": 9120,
    "صل": 9121,
    "▁سیستانی": 9122,
    "▁آسود": 9123,
    "اسنو": 9124,
    "▁اون": 9125,
    "ایف": 9126,
    "▁چپگرای": 9127,
    "دلی": 9128,
    "▁انگ": 9129,
    "▁افتادند": 9130,
    "▁انرو": 9131,
    "نازل": 9132,
    "▁کریستی": 9133,
    "▁رودر": 9134,
    "▁خوردند": 9135,
    "▁تحریر": 9136,
    "▁استبر": 9137,
    "هلن": 9138,
    "▁بکنند": 9139,
    "سالگی": 9140,
    "کیت": 9141,
    "هفتم": 9142,
    "مثبت": 9143,
    "▁همای": 9144,
    "ادت": 9145,
    "▁تاس": 9146,
    "ارو": 9147,
    "سود": 9148,
    "▁ارغ": 9149,
    "▁۱۱۹": 9150,
    "▁نفی": 9151,
    "سورها": 9152,
    "▁استعماری": 9153,
    "یری": 9154,
    "نشری": 9155,
    "▁رک": 9156,
    "ایده": 9157,
    "▁آغازکرد": 9158,
    "واضع": 9159,
    "▁انگیزش": 9160,
    "ولاتش": 9161,
    "▁کارول": 9162,
    "چفرین": 9163,
    "▁میکردند": 9164,
    "▁فرگوس": 9165,
    "رویا": 9166,
    "يان": 9167,
    "دارا": 9168,
    "▁شیعی": 9169,
    "▁وظایفش": 9170,
    "▁کشیم": 9171,
    "▁راهور": 9172,
    "▁حاکمان": 9173,
    "▁نیستید": 9174,
    "▁بیکارشد": 9175,
    "▁پذیرد": 9176,
    "▁مگنو": 9177,
    "▁اندیشی": 9178,
    "▁نشدم": 9179,
    "چار": 9180,
    "▁شناختند": 9181,
    "دخیل": 9182,
    "▁مستع": 9183,
    "تینگ": 9184,
    "▁آنف": 9185,
    "ستانه": 9186,
    "ریاک": 9187,
    "ناک": 9188,
    "▁ائ": 9189,
    "سای": 9190,
    "ارپنت": 9191,
    "چندی": 9192,
    "▁آین": 9193,
    "▁سودی": 9194,
    "یشان": 9195,
    "چندان": 9196,
    "▁نحس": 9197,
    "وشیرو": 9198,
    "▁رزو": 9199,
    "▁سیت": 9200,
    "▁دوک": 9201,
    "▁ایرانسل": 9202,
    "▁ناخ": 9203,
    "رجی": 9204,
    "▁مفتو": 9205,
    "▁ادین": 9206,
    "ینس": 9207,
    "▁کاش": 9208,
    "غا": 9209,
    "▁آورید": 9210,
    "اردونا": 9211,
    "▁ني": 9212,
    "▁بروی": 9213,
    "▁پژوهشهای": 9214,
    "▁مدد": 9215,
    "▁عی": 9216,
    "ننده": 9217,
    "▁آمونی": 9218,
    "▁کوپا": 9219,
    "▁خسر": 9220,
    "▁آسمانی": 9221,
    "دوم": 9222,
    "▁تویی": 9223,
    "الیزا": 9224,
    "▁پولدار": 9225,
    "▁برچید": 9226,
    "▁بلید": 9227,
    "۴۳": 9228,
    "سوار": 9229,
    "▁اکر": 9230,
    "خدم": 9231,
    "نگو": 9232,
    "▁جهانبخ": 9233,
    "ورال": 9234,
    "▁اپی": 9235,
    "▁کساد": 9236,
    "▁قوز": 9237,
    "هانسی": 9238,
    "▁سواد": 9239,
    "▁ایندی": 9240,
    "▁شورشی": 9241,
    "يش": 9242,
    "عود": 9243,
    "▁خوار": 9244,
    "ندگی": 9245,
    "تحرک": 9246,
    "▁استیل": 9247,
    "گوید": 9248,
    "▁دوور": 9249,
    "ندنی": 9250,
    "سد": 9251,
    "▁آبه": 9252,
    "رع": 9253,
    "رخه": 9254,
    "▁فرودست": 9255,
    "▁سازندگ": 9256,
    "▁تامی": 9257,
    "▁غیرب": 9258,
    "▁کورس": 9259,
    "▁حقیق": 9260,
    "تناب": 9261,
    "▁۱۸۹": 9262,
    "▁شمرد": 9263,
    "▁فرجی": 9264,
    "سلی": 9265,
    "رندگان": 9266,
    "ارگ": 9267,
    "▁کانا": 9268,
    "▁پرستاره": 9269,
    "تعادل": 9270,
    "▁جووان": 9271,
    "▁نرفتن": 9272,
    "انح": 9273,
    "▁نگ": 9274,
    "▁شهریاری": 9275,
    "▁ثق": 9276,
    "وئر": 9277,
    "روسازی": 9278,
    "▁درسا": 9279,
    "▁یولیا": 9280,
    "ورهم": 9281,
    "دهی": 9282,
    "▁استکه": 9283,
    "خود": 9284,
    "▁بخ": 9285,
    "درباره": 9286,
    "انستان": 9287,
    "▁برازند": 9288,
    "▁وایت": 9289,
    "▁لاب": 9290,
    "▁مگو": 9291,
    "▁پاش": 9292,
    "▁بدنساز": 9293,
    "۸۲": 9294,
    "طغ": 9295,
    "▁شیرها": 9296,
    "▁ببری": 9297,
    "▁سب": 9298,
    "▁شرکتها": 9299,
    "جران": 9300,
    "عکسی": 9301,
    "▁منه": 9302,
    "هند": 9303,
    "یدند": 9304,
    "باسی": 9305,
    "اپیش": 9306,
    "▁آلم": 9307,
    "انو": 9308,
    "▁گله": 9309,
    "▁نفربر": 9310,
    "▁بفهمی": 9311,
    "تضی": 9312,
    "هیه": 9313,
    "▁بلیک": 9314,
    "▁بازنش": 9315,
    "یوتی": 9316,
    "▁دزدید": 9317,
    "کولی": 9318,
    "انزلی": 9319,
    "▁سینا": 9320,
    "▁الو": 9321,
    "منت": 9322,
    "رژی": 9323,
    "▁منو": 9324,
    "▁نقاشان": 9325,
    "لار": 9326,
    "نوا": 9327,
    "۱۰۰": 9328,
    "▁کرددر": 9329,
    "▁والد": 9330,
    "ینا": 9331,
    "▁پیکا": 9332,
    "قانون": 9333,
    "کسوت": 9334,
    "ارشی": 9335,
    "نگل": 9336,
    "ذخا": 9337,
    "فرید": 9338,
    "پرت": 9339,
    "▁دستمزدها": 9340,
    "یران": 9341,
    "▁بویی": 9342,
    "پرستانه": 9343,
    "انده": 9344,
    "پات": 9345,
    "▁فهمیدن": 9346,
    "▁سیب": 9347,
    "▁شرو": 9348,
    "منان": 9349,
    "▁وز": 9350,
    "وک": 9351,
    "یامده": 9352,
    "▁تنه": 9353,
    "▁تدا": 9354,
    "یلد": 9355,
    "جدید": 9356,
    "▁سلیم": 9357,
    "ریکو": 9358,
    "▁دهی": 9359,
    "▁دلم": 9360,
    "دلار": 9361,
    "▁خی": 9362,
    "▁اوس": 9363,
    "▁دوسال": 9364,
    "▁کامر": 9365,
    "▁گوا": 9366,
    "▁اتکای": 9367,
    "داره": 9368,
    "▁افغانی": 9369,
    "طع": 9370,
    "▁اروپای": 9371,
    "ونا": 9372,
    "دوش": 9373,
    "▁دلجو": 9374,
    "اندرو": 9375,
    "شواری": 9376,
    "درهای": 9377,
    "▁چهلم": 9378,
    "▁غیرمت": 9379,
    "دروس": 9380,
    "لائو": 9381,
    "▁دیواره": 9382,
    "▁داران": 9383,
    "▁منح": 9384,
    "راکت": 9385,
    "پورت": 9386,
    "▁اوجی": 9387,
    "اح": 9388,
    "▁پخت": 9389,
    "هیج": 9390,
    "▁نواخت": 9391,
    "ناتان": 9392,
    "▁کون": 9393,
    "▁چیپ": 9394,
    "ضیا": 9395,
    "ریعت": 9396,
    "محل": 9397,
    "تاریخ": 9398,
    "▁بمان": 9399,
    "▁دستش": 9400,
    "▁اندروز": 9401,
    "▁موثرتر": 9402,
    "▁کیش": 9403,
    "▁طلبی": 9404,
    "اشته": 9405,
    "▁پشتکار": 9406,
    "▁استانداردها": 9407,
    "▁فوب": 9408,
    "ارق": 9409,
    "سیل": 9410,
    "دولتی": 9411,
    "حا": 9412,
    "▁آبیار": 9413,
    "گور": 9414,
    "بول": 9415,
    "رآمیز": 9416,
    "▁پود": 9417,
    "یغ": 9418,
    "▁محبو": 9419,
    "جمله": 9420,
    "▁آلیس": 9421,
    "تقبل": 9422,
    "رول": 9423,
    "ذاب": 9424,
    "▁مارسل": 9425,
    "▁داو": 9426,
    "▁نیکول": 9427,
    "▁دیپ": 9428,
    "▁افزا": 9429,
    "▁استودیوی": 9430,
    "▁براه": 9431,
    "▁کارم": 9432,
    "نوم": 9433,
    "لاس": 9434,
    "▁نهی": 9435,
    "۳۴": 9436,
    "پیدا": 9437,
    "اتور": 9438,
    "▁؛": 9439,
    "نچ": 9440,
    "ابراهیم": 9441,
    "▁افزو": 9442,
    "نیت": 9443,
    "▁حقوقدان": 9444,
    "تعارف": 9445,
    "انچین": 9446,
    "روحانی": 9447,
    "ورز": 9448,
    "▁پرور": 9449,
    "راث": 9450,
    "تونی": 9451,
    "تغییر": 9452,
    "▁خائ": 9453,
    "▁گود": 9454,
    "رتاک": 9455,
    "يران": 9456,
    "ریاست": 9457,
    "نند": 9458,
    "اینک": 9459,
    "▁بکار": 9460,
    "کمه": 9461,
    "قاب": 9462,
    "ثر": 9463,
    "▁نات": 9464,
    "▁برایت": 9465,
    "خصوص": 9466,
    "لومین": 9467,
    "گوش": 9468,
    "دخای": 9469,
    "کاسی": 9470,
    "کمک": 9471,
    "چگون": 9472,
    "▁حرا": 9473,
    "امد": 9474,
    "ورسوی": 9475,
    "چون": 9476,
    "▁هوم": 9477,
    "دیر": 9478,
    "راز": 9479,
    "تعارض": 9480,
    "تحریر": 9481,
    "▁آسایش": 9482,
    "فولک": 9483,
    "زمانی": 9484,
    "تفاوت": 9485,
    "▁زبانه": 9486,
    "▁رودخ": 9487,
    "▁ونزوئلای": 9488,
    "▁مارکی": 9489,
    "▁رویاها": 9490,
    "▁غرا": 9491,
    "نمای": 9492,
    "کلاس": 9493,
    "▁خص": 9494,
    "▁ایت": 9495,
    "▁۱۹۲": 9496,
    "▁رزمند": 9497,
    "▁علما": 9498,
    "بازیکنان": 9499,
    "ئیل": 9500,
    "▁بدق": 9501,
    "آثار": 9502,
    "صراف": 9503,
    "مصاحبه": 9504,
    "▁اجسا": 9505,
    "ظریف": 9506,
    "ندا": 9507,
    "واح": 9508,
    "نار": 9509,
    "ورو": 9510,
    "▁چر": 9511,
    "▁عوا": 9512,
    "مهندس": 9513,
    "اصل": 9514,
    "▁کپ": 9515,
    "▁فران": 9516,
    "حرکت": 9517,
    "چو": 9518,
    "ورزشگاه": 9519,
    "▁دشوارتر": 9520,
    "فینال": 9521,
    "۸۰۰": 9522,
    "▁پارسا": 9523,
    "۰۱": 9524,
    "قا": 9525,
    "طول": 9526,
    "▁ولای": 9527,
    "حساب": 9528,
    "بحران": 9529,
    "▁سک": 9530,
    "باخت": 9531,
    "راژ": 9532,
    "اتهام": 9533,
    "▁مبد": 9534,
    "▁نیفت": 9535,
    "▁ره": 9536,
    "قامت": 9537,
    "▁انع": 9538,
    "اعدام": 9539,
    "صحبت": 9540,
    "▁چپگرا": 9541,
    "▁مدا": 9542,
    "اختلاف": 9543,
    "▁پرگا": 9544,
    "سقوط": 9545,
    "▁اصلان": 9546,
    "روسیه": 9547,
    "▁بخواهی": 9548,
    "سریال": 9549,
    "عملیات": 9550,
    "▁بایس": 9551,
    "مجید": 9552,
    "سیاسی": 9553,
    "اعتراضات": 9554,
    "فرصت": 9555,
    "رمانی": 9556,
    "▁پاها": 9557,
    "▁فرزان": 9558,
    "واحد": 9559,
    "▁پوستش": 9560,
    "▁رقبا": 9561,
    "▁رسیدم": 9562,
    "اظهارات": 9563,
    "همیشه": 9564,
    "بحرین": 9565,
    "بندند": 9566,
    "تغییرات": 9567,
    "▁صن": 9568,
    "برخورد": 9569,
    "▁کوئ": 9570,
    "▁پارو": 9571,
    "سفیر": 9572,
    "خودروساز": 9573,
    "قدم": 9574,
    "▁درسال": 9575,
    "▁پنس": 9576,
    "سترون": 9577,
    "هدایت": 9578,
    "نصر": 9579,
    "▁دلو": 9580,
    "شهرهای": 9581,
    "واشنگتن": 9582,
    "▁بازیها": 9583,
    "▁۱۸۴": 9584,
    "نیویورک": 9585,
    "چپ": 9586,
    "توییت": 9587,
    "نگران": 9588,
    "اتاق": 9589,
    "پروتکل": 9590,
    "تگان": 9591,
    "جنگل": 9592,
    "تاسیسات": 9593,
    "▁تجار": 9594,
    "تول": 9595,
    "خیابان": 9596,
    "عصر": 9597,
    "▁استروئید": 9598,
    "معمولا": 9599,
    "▁بخواب": 9600,
    "فیسبوک": 9601,
    "داگ": 9602,
    "کین": 9603,
    "▁بریز": 9604,
    "ساخته": 9605,
    "▁هیو": 9606,
    "نادال": 9607,
    "اسکا": 9608,
    "▁نیروها": 9609,
    "یاد": 9610,
    "اختلال": 9611,
    "حراج": 9612,
    "پادشاه": 9613,
    "کانال": 9614,
    "خودکشی": 9615,
    "▁نویسند": 9616,
    "خودروهای": 9617,
    "خبرنگاران": 9618,
    "▁نائ": 9619,
    "متخصص": 9620,
    "نژادپرست": 9621,
    "سرنوشت": 9622,
    "▁۲۰۵": 9623,
    "وئیس": 9624,
    "یوس": 9625,
    "ساعات": 9626,
    "بلژیک": 9627,
    "▁بارس": 9628,
    "کاوشگر": 9629,
    "اولسان": 9630,
    "فایزر": 9631,
    "▁گرداند": 9632,
    "تکمیل": 9633,
    "منچستریونایتد": 9634,
    "برخلاف": 9635,
    "فولاد": 9636,
    "▁بازیکنانش": 9637,
    "▁حسگر": 9638,
    "▁۱۵۱": 9639,
    "فتاح": 9640,
    "▁فرمین": 9641,
    "▁برجست": 9642,
    "حجت": 9643,
    "ویلیام": 9644,
    "بنفش": 9645,
    "الشهدا": 9646,
    "مالاریا": 9647,
    "ثروت": 9648,
    "معمول": 9649,
    "انتقادات": 9650,
    "▁آلک": 9651,
    "کلیسای": 9652,
    "رونالدینیو": 9653,
    "جزییات": 9654,
    "کریستین": 9655,
    "بنکسی": 9656,
    "▁مگن": 9657,
    "توتال": 9658,
    "دانی": 9659,
    "سولار": 9660,
    "کوئین": 9661,
    "▁هورمون": 9662,
    "سپاهان": 9663,
    "وکلای": 9664,
    "▁واعظ": 9665,
    "رامش": 9666,
    "پشت": 9667,
    "رنجر": 9668,
    "▁صعودش": 9669,
    "تماس": 9670,
    "ورش": 9671,
    "▁تیرانداز": 9672,
    "▁قراداد": 9673,
    "ضراب": 9674,
    "پنجاه": 9675,
    "سینگ": 9676,
    "▁ضم": 9677,
    "▁جهنم": 9678,
    "▁وکلا": 9679,
    "کسر": 9680,
    "▁بنزم": 9681,
    "رفتار": 9682,
    "▁محتوا": 9683,
    "▁پناهجو": 9684,
    "▁سلب": 9685,
    "کریس": 9686,
    "لازم": 9687,
    "▁گرسن": 9688,
    "فورا": 9689,
    "▁محر": 9690,
    "طالب": 9691,
    "▁نیافتن": 9692,
    "▁ماهر": 9693,
    "▁اظهارنظرها": 9694,
    "▁۲۰۷": 9695,
    "شناخت": 9696,
    "▁نجوم": 9697,
    "گمانه": 9698,
    "▁۳۳۰": 9699,
    "جنسی": 9700,
    "▁خاکس": 9701,
    "▁حریفش": 9702,
    "لز": 9703,
    "نکو": 9704,
    "لپ": 9705,
    "▁آذ": 9706,
    "▁۴۸۰": 9707,
    "▁کاپ": 9708,
    "اقبال": 9709,
    "تابلوی": 9710,
    "غیبت": 9711,
    "تجمع": 9712,
    "شیده": 9713,
    "متیو": 9714,
    "ارگردان": 9715,
    "جهش": 9716,
    "▁عدل": 9717,
    "عاب": 9718,
    "▁واکسنی": 9719,
    "▁چیزها": 9720,
    "▁بنی": 9721,
    "▁گلوی": 9722,
    "دومین": 9723,
    "اين": 9724,
    "▁جادو": 9725,
    "▁قبرها": 9726,
    "▁قف": 9727,
    "ازهای": 9728,
    "آموز": 9729,
    "سنا": 9730,
    "الان": 9731,
    "دیوان": 9732,
    "نیاز": 9733,
    "ضرور": 9734,
    "▁خرم": 9735,
    "▁محاکم": 9736,
    "شرط": 9737,
    "▁دخترشا": 9738,
    "▁فلسف": 9739,
    "▁هواپیماها": 9740,
    "▁تابع": 9741,
    "▁چید": 9742,
    "زلزل": 9743,
    "▁جهانگیر": 9744,
    "▁اخت": 9745,
    "۶۵": 9746,
    "▁خسرو": 9747,
    "برمی": 9748,
    "شرکتهای": 9749,
    "▁ناخوش": 9750,
    "خاطرات": 9751,
    "کات": 9752,
    "▁شوخ": 9753,
    "▁کلیو": 9754,
    "▁صمیم": 9755,
    "اگ": 9756,
    "▁مورفی": 9757,
    "▁دومی": 9758,
    "▁آشتی": 9759,
    "رابی": 9760,
    "ژوز": 9761,
    "▁فروخت": 9762,
    "▁لوب": 9763,
    "رصدخان": 9764,
    "ایم": 9765,
    "آشنای": 9766,
    "▁فرشت": 9767,
    "▁شراب": 9768,
    "▁ندا": 9769,
    "ضمن": 9770,
    "مسترد": 9771,
    "▁پذیرفتن": 9772,
    "نشدنی": 9773,
    "یکصد": 9774,
    "همراه": 9775,
    "منتف": 9776,
    "▁کانتون": 9777,
    "آمده": 9778,
    "اصله": 9779,
    "لع": 9780,
    "▁مونت": 9781,
    "ستراز": 9782,
    "▁مارکان": 9783,
    "▁لین": 9784,
    "اراگوئه": 9785,
    "▁ظالم": 9786,
    "▁آزاری": 9787,
    "▁راین": 9788,
    "▁ابوظبی": 9789,
    "▁الکترومغناطیس": 9790,
    "▁ایزوتوپ": 9791,
    "▁تمساح": 9792,
    "▁سریلانکا": 9793,
    "▁سوسیالیست": 9794,
    "▁سولوویوف": 9795,
    "▁مرتضوی": 9796,
    "▁پوآرو": 9797,
    "▁ژئوپلتیک": 9798,
    "▁کداخدایی": 9799,
    "▁شقاقی": 9800,
    "▁هخامنشی": 9801,
    "▁بیندازید": 9802,
    "▁بوچانی": 9803,
    "▁بپیوندد": 9804,
    "▁دگرباش": 9805,
    "▁وبیتکو": 9806,
    "▁اکسیدکربن": 9807,
    "▁معشوق": 9808,
    "▁واکاندا": 9809,
    "▁متذکر": 9810,
    "▁سانتیاگو": 9811,
    "▁سانفرانسیسکو": 9812,
    "▁هولدینگ": 9813,
    "▁طنزپرداز": 9814,
    "▁ابطحی": 9815,
    "▁العالم": 9816,
    "▁مقننه": 9817,
    "▁مدودف": 9818,
    "▁پورتلند": 9819,
    "▁برنگردد": 9820,
    "ناملموس": 9821,
    "▁شکوهمند": 9822,
    "▁نذری": 9823,
    "▁پولانسکی": 9824,
    "▁چهارچوب": 9825,
    "▁نگرائو": 9826,
    "▁اسنوبرد": 9827,
    "▁یکپارچ": 9828,
    "▁جوانبخت": 9829,
    "▁معضل": 9830,
    "▁هکتار": 9831,
    "▁سربگیرند": 9832,
    "تفلی": 9833,
    "▁اتوبان": 9834,
    "▁۱۰۲": 9835,
    "▁بااستعداد": 9836,
    "▁الشع": 9837,
    "▁اوتیسم": 9838,
    "▁نباشید": 9839,
    "▁بیاموز": 9840,
    "▁پاکیزگی": 9841,
    "▁اساتید": 9842,
    "▁نباشیم": 9843,
    "▁برگردانند": 9844,
    "▁۵۳ساله": 9845,
    "▁ببخشد": 9846,
    "▁غیرعمد": 9847,
    "▁الخروج": 9848,
    "▁مرزبندی": 9849,
    "▁عاقبت": 9850,
    "حرمسرا": 9851,
    "▁ندوشن": 9852,
    "▁ووندر": 9853,
    "▁بمانید": 9854,
    "مسلم": 9855,
    "▁ستمگر": 9856,
    "▁مسیرها": 9857,
    "▁فیروزکو": 9858,
    "▁قراردادها": 9859,
    "▁فرازمند": 9860,
    "▁افتضاح": 9861,
    "▁مصادیق": 9862,
    "▁ظلم": 9863,
    "▁گرانبهای": 9864,
    "▁بشناسد": 9865,
    "۸۷": 9866,
    "▁بکاهد": 9867,
    "▁آلفرد": 9868,
    "▁حیفا": 9869,
    "▁پردیس": 9870,
    "▁بکشاند": 9871,
    "▁شگرف": 9872,
    "مویرگی": 9873,
    "▁درنوردید": 9874,
    "▁جانورشناس": 9875,
    "▁سیاستگذار": 9876,
    "▁آنالیز": 9877,
    "▁غیرمعمول": 9878,
    "▁بازگردیم": 9879,
    "▁دستگیرزاده": 9880,
    "▁پرنفوذ": 9881,
    "▁استانهای": 9882,
    "▁گاندو": 9883,
    "▁۱۳۸۰": 9884,
    "▁اسطور": 9885,
    "▁گریختند": 9886,
    "▁کلسترو": 9887,
    "▁۱۹۱۲": 9888,
    "▁بصیر": 9889,
    "مثال": 9890,
    "▁پنهانکاری": 9891,
    "▁سردادند": 9892,
    "▁تلاقی": 9893,
    "یال": 9894,
    "▁بزنید": 9895,
    "▁پاسداشت": 9896,
    "▁مین": 9897,
    "▁ابلهان": 9898,
    "▁خوشبو": 9899,
    "▁نوازد": 9900,
    "▁عمارت": 9901,
    "▁عابران": 9902,
    "▁توکلی": 9903,
    "▁بنویس": 9904,
    "▁متهیا": 9905,
    "نیتو": 9906,
    "▁شادگان": 9907,
    "▁ارمنی": 9908,
    "▁بیابند": 9909,
    "▁فرمایش": 9910,
    "▁کذب": 9911,
    "▁بندپی": 9912,
    "▁کوئیک": 9913,
    "▁شادمان": 9914,
    "▁بروکلی": 9915,
    "▁اپوز": 9916,
    "▁الاغ": 9917,
    "▁مقبول": 9918,
    "▁بردارم": 9919,
    "▁عبرت": 9920,
    "▁المپی": 9921,
    "▁وولف": 9922,
    "▁بنگال": 9923,
    "▁خودخواهانه": 9924,
    "▁واداشته": 9925,
    "▁۱۹۳۹": 9926,
    "▁سروصدا": 9927,
    "▁هاشم": 9928,
    "نکات": 9929,
    "▁استمفورد": 9930,
    "▁موثق": 9931,
    "▁پرالتهاب": 9932,
    "▁جل": 9933,
    "▁جداسازی": 9934,
    "▁بایستد": 9935,
    "▁نکنم": 9936,
    "▁حماسی": 9937,
    "باستان": 9938,
    "▁جوابگوی": 9939,
    "▁ولیحی": 9940,
    "▁خرمش": 9941,
    "▁شنیدم": 9942,
    "▁گریخت": 9943,
    "▁تحقی": 9944,
    "▁سرمست": 9945,
    "▁باغبان": 9946,
    "▁بکنید": 9947,
    "▁تعصب": 9948,
    "▁شدنش": 9949,
    "▁خیاط": 9950,
    "▁۲۶۶": 9951,
    "▁کولون": 9952,
    "▁پراوی": 9953,
    "▁مکاتبات": 9954,
    "▁ترفندهای": 9955,
    "▁دهشت": 9956,
    "روژن": 9957,
    "▁گیگاب": 9958,
    "▁اغما": 9959,
    "▁متروک": 9960,
    "▁برگر": 9961,
    "▁آپارت": 9962,
    "▁ملایم": 9963,
    "▁ماسا": 9964,
    "▁همب": 9965,
    "شمالی": 9966,
    "▁متفکر": 9967,
    "نگر": 9968,
    "▁نومید": 9969,
    "▁امدادگر": 9970,
    "بال": 9971,
    "▁هالووین": 9972,
    "▁گزاف": 9973,
    "▁استبا": 9974,
    "▁نامطلوب": 9975,
    "▁ولگردها": 9976,
    "▁نوگرا": 9977,
    "▁مگاصیص": 9978,
    "▁لوکالکان": 9979,
    "▁گاسکوئین": 9980,
    "ئرنیک": 9981,
    "▁عذ": 9982,
    "▁۱۷۵": 9983,
    "▁کیار": 9984,
    "▁ژائو": 9985,
    "حکیم": 9986,
    "▁رجیس": 9987,
    "▁منشور": 9988,
    "رخوری": 9989,
    "▁همدلی": 9990,
    "▁مکزیکو": 9991,
    "پوشانی": 9992,
    "▁ناراحتند": 9993,
    "▁جالبند": 9994,
    "هشتم": 9995,
    "ویتز": 9996,
    "سطح": 9997,
    "▁ترمز": 9998,
    "▁خیری": 9999,
    "اندر": 10000,
    "▁آموس": 10001,
    "▁الکترودهای": 10002,
    "نظار": 10003,
    "▁گازی": 10004,
    "▁زرتشتی": 10005,
    "▁کوکو": 10006,
    "یستی": 10007,
    "زامبی": 10008,
    "▁کاوش": 10009,
    "▁فدریک": 10010,
    "زبور": 10011,
    "▁نداشتیم": 10012,
    "اوج": 10013,
    "▁تسایت": 10014,
    "▁بلوغ": 10015,
    "▁هملت": 10016,
    "▁شایعند": 10017,
    "سرگ": 10018,
    "▁کاونت": 10019,
    "▁گابریلا": 10020,
    "▁گذرا": 10021,
    "▁رادارها": 10022,
    "خیو": 10023,
    "▁ادیان": 10024,
    "منوچ": 10025,
    "▁مشوقهای": 10026,
    "▁جزیرو": 10027,
    "▁اکولوژی": 10028,
    "▁خطرهای": 10029,
    "▁تحص": 10030,
    "▁یوس": 10031,
    "▁پیوندند": 10032,
    "▁برچی": 10033,
    "▁فاین": 10034,
    "▁دلیری": 10035,
    "نیو": 10036,
    "▁مشروع": 10037,
    "▁پرماجرا": 10038,
    "▁رباتیک": 10039,
    "▁ندادم": 10040,
    "▁میناری": 10041,
    "کمیس": 10042,
    "کریک": 10043,
    "▁نمودار": 10044,
    "▁درگذشتمحمد": 10045,
    "▁خدایا": 10046,
    "▁تماشگر": 10047,
    "▁باربارا": 10048,
    "▁درانتخابات": 10049,
    "▁محصور": 10050,
    "زیچ": 10051,
    "ونیک": 10052,
    "▁آجر": 10053,
    "▁ریلی": 10054,
    "▁لغز": 10055,
    "▁تربت": 10056,
    "▁دفاعیات": 10057,
    "شگران": 10058,
    "یگز": 10059,
    "▁کارکنانش": 10060,
    "▁فاصل": 10061,
    "▁لودو": 10062,
    "▁دوقلوها": 10063,
    "▁برادرز": 10064,
    "شمال": 10065,
    "▁آزاردید": 10066,
    "▁سرکو": 10067,
    "▁معبد": 10068,
    "▁گیت": 10069,
    "▁فقرا": 10070,
    "▁بازنگشته": 10071,
    "هوش": 10072,
    "▁آوردیم": 10073,
    "درمانی": 10074,
    "▁ترها": 10075,
    "▁طالب": 10076,
    "▁حدف": 10077,
    "▁آق": 10078,
    "▁گرکان": 10079,
    "▁شکس": 10080,
    "▁آیر": 10081,
    "اگرا": 10082,
    "خه": 10083,
    "سپورت": 10084,
    "قطعی": 10085,
    "نیمه": 10086,
    "توری": 10087,
    "▁نگارم": 10088,
    "▁آزادگان": 10089,
    "اطبا": 10090,
    "▁مکید": 10091,
    "▁ریاکار": 10092,
    "وانا": 10093,
    "▁قرادادش": 10094,
    "▁راهیاب": 10095,
    "کنند": 10096,
    "تژیک": 10097,
    "▁برایان": 10098,
    "▁لگو": 10099,
    "تورباز": 10100,
    "▁اکستر": 10101,
    "اسرای": 10102,
    "▁جدیدش": 10103,
    "▁نوشتاری": 10104,
    "▁کاکس": 10105,
    "سند": 10106,
    "برا": 10107,
    "▁فراگرفت": 10108,
    "کوش": 10109,
    "▁پسندید": 10110,
    "تعی": 10111,
    "امدا": 10112,
    "نهاده": 10113,
    "▁خسروی": 10114,
    "▁شکا": 10115,
    "بلنک": 10116,
    "ذا": 10117,
    "هنگ": 10118,
    "▁فتوا": 10119,
    "۶۰۰": 10120,
    "یگ": 10121,
    "▁آدمی": 10122,
    "▁کوهنوردان": 10123,
    "▁پائیز": 10124,
    "▁سپاس": 10125,
    "▁نشاند": 10126,
    "ایکون": 10127,
    "▁جنون": 10128,
    "▁فرمانیه": 10129,
    "بنز": 10130,
    "انجیر": 10131,
    "▁مرزبان": 10132,
    "زارها": 10133,
    "هاوس": 10134,
    "ماتیک": 10135,
    "▁آلتر": 10136,
    "▁بلندق": 10137,
    "▁دیسکی": 10138,
    "▁گلشی": 10139,
    "کانا": 10140,
    "▁دری": 10141,
    "▁چرخاند": 10142,
    "▁نقدهای": 10143,
    "باند": 10144,
    "وقف": 10145,
    "▁مورخ": 10146,
    "▁هارد": 10147,
    "▁هرچیز": 10148,
    "▁مسیریاب": 10149,
    "▁همتایان": 10150,
    "▁سمی": 10151,
    "ستن": 10152,
    "خواند": 10153,
    "▁ابزارک": 10154,
    "▁قدیس": 10155,
    "اکت": 10156,
    "▁شگرد": 10157,
    "▁ژر": 10158,
    "▁صاحبش": 10159,
    "فوت": 10160,
    "یاق": 10161,
    "▁لاپ": 10162,
    "▁محم": 10163,
    "استار": 10164,
    "سمن": 10165,
    "▁کثی": 10166,
    "رضی": 10167,
    "ماد": 10168,
    "▁هلن": 10169,
    "▁ملامت": 10170,
    "▁حوز": 10171,
    "▁قضای": 10172,
    "نورلند": 10173,
    "کشور": 10174,
    "▁یونس": 10175,
    "▁بگویی": 10176,
    "▁ارتد": 10177,
    "دیوم": 10178,
    "عزیز": 10179,
    "۷۲": 10180,
    "۷۱۰": 10181,
    "▁پرکار": 10182,
    "▁نوآ": 10183,
    "▁باگز": 10184,
    "اسا": 10185,
    "زره": 10186,
    "▁آمیزش": 10187,
    "▁کنگو": 10188,
    "▁بردیم": 10189,
    "بوک": 10190,
    "پار": 10191,
    "۱۴۶": 10192,
    "▁تازیان": 10193,
    "▁فاخر": 10194,
    "▁پیشا": 10195,
    "▁حوت": 10196,
    "روا": 10197,
    "▁طاهری": 10198,
    "غام": 10199,
    "صالحی": 10200,
    "▁شودبا": 10201,
    "▁چاند": 10202,
    "▁استانها": 10203,
    "▁عاشقان": 10204,
    "نال": 10205,
    "▁نشرات": 10206,
    "▁دروغگوی": 10207,
    "▁بیدگ": 10208,
    "▁رفتیم": 10209,
    "▁کلوز": 10210,
    "▁دارن": 10211,
    "تکه": 10212,
    "روسیا": 10213,
    "زش": 10214,
    "▁وک": 10215,
    "▁درایو": 10216,
    "آم": 10217,
    "لوی": 10218,
    "▁آسو": 10219,
    "پیک": 10220,
    "رایش": 10221,
    "▁نوارها": 10222,
    "▁ربود": 10223,
    "▁ایستادن": 10224,
    "▁بوها": 10225,
    "برت": 10226,
    "توم": 10227,
    "لخت": 10228,
    "کلاسی": 10229,
    "▁چول": 10230,
    "▁هیج": 10231,
    "▁کراش": 10232,
    "▁فرمانی": 10233,
    "ربه": 10234,
    "▁پوسید": 10235,
    "گار": 10236,
    "عذر": 10237,
    "▁افراز": 10238,
    "گیرند": 10239,
    "واری": 10240,
    "نیز": 10241,
    "▁خبرس": 10242,
    "▁مامن": 10243,
    "▁وجوه": 10244,
    "ریز": 10245,
    "فوتبال": 10246,
    "یزی": 10247,
    "▁تصو": 10248,
    "▁اجراست": 10249,
    "لیتو": 10250,
    "ژن": 10251,
    "▁مدرنی": 10252,
    "شایست": 10253,
    "▁کارن": 10254,
    "۷۸": 10255,
    "▁کارکرد": 10256,
    "▁پیوستند": 10257,
    "نتس": 10258,
    "▁پوشا": 10259,
    "▁خاو": 10260,
    "حالی": 10261,
    "▁بای": 10262,
    "▁دربر": 10263,
    "▁انف": 10264,
    "ینگز": 10265,
    "▁اینگ": 10266,
    "▁فردای": 10267,
    "کوف": 10268,
    "دندان": 10269,
    "مینا": 10270,
    "افزون": 10271,
    "▁اندازیم": 10272,
    "▁آزم": 10273,
    "▁کیلی": 10274,
    "▁آنتو": 10275,
    "قت": 10276,
    "▁افزای": 10277,
    "▁یادگاری": 10278,
    "محمدی": 10279,
    "▁میامی": 10280,
    "▁بنت": 10281,
    "▁لیک": 10282,
    "قطر": 10283,
    "▁کولبری": 10284,
    "اوبر": 10285,
    "انسان": 10286,
    "▁شوی": 10287,
    "▁روست": 10288,
    "▁میانسال": 10289,
    "▁آنجل": 10290,
    "▁مرم": 10291,
    "▁نفیس": 10292,
    "تاجر": 10293,
    "وفق": 10294,
    "عابد": 10295,
    "▁اینست": 10296,
    "▁غلا": 10297,
    "حاب": 10298,
    "گنجی": 10299,
    "▁سپین": 10300,
    "▁فره": 10301,
    "وتنبرگ": 10302,
    "▁شغلش": 10303,
    "نوری": 10304,
    "▁پودر": 10305,
    "قطب": 10306,
    "▁نیرومندتر": 10307,
    "▁نطق": 10308,
    "▁سرن": 10309,
    "▁بالدار": 10310,
    "عرض": 10311,
    "روژان": 10312,
    "کیا": 10313,
    "▁منجی": 10314,
    "▁لارو": 10315,
    "۳۹۰": 10316,
    "نواختر": 10317,
    "سپ": 10318,
    "نالد": 10319,
    "بشار": 10320,
    "▁برسید": 10321,
    "▁شدبا": 10322,
    "▁بلندگو": 10323,
    "▁بوکا": 10324,
    "رسیویر": 10325,
    "تد": 10326,
    "▁سور": 10327,
    "▁فروشد": 10328,
    "▁نپرداخت": 10329,
    "▁برگشتن": 10330,
    "ارآفرین": 10331,
    "▁گرون": 10332,
    "▁پرشک": 10333,
    "▁ساق": 10334,
    "اربی": 10335,
    "خضر": 10336,
    "▁دخترم": 10337,
    "لوژی": 10338,
    "▁افسرد": 10339,
    "وگند": 10340,
    "▁وایل": 10341,
    "▁لبن": 10342,
    "رنوش": 10343,
    "▁برت": 10344,
    "نسان": 10345,
    "▁همهمه": 10346,
    "راج": 10347,
    "▁بقدر": 10348,
    "زندگان": 10349,
    "تیپ": 10350,
    "شانس": 10351,
    "مایش": 10352,
    "▁حسی": 10353,
    "رمت": 10354,
    "حسا": 10355,
    "عل": 10356,
    "▁انگیزد": 10357,
    "▁محص": 10358,
    "▁انگلی": 10359,
    "الش": 10360,
    "▁برآن": 10361,
    "شمن": 10362,
    "▁کشو": 10363,
    "▁رن": 10364,
    "▁میکروبی": 10365,
    "ظاهری": 10366,
    "متر": 10367,
    "▁سالفورد": 10368,
    "▁میزند": 10369,
    "▁آمو": 10370,
    "▁بلن": 10371,
    "▁سالخورد": 10372,
    "دری": 10373,
    "▁آهنگی": 10374,
    "▁مینیا": 10375,
    "▁خف": 10376,
    "رسد": 10377,
    "زستان": 10378,
    "▁آسیاب": 10379,
    "زمین": 10380,
    "▁شبان": 10381,
    "▁یونیو": 10382,
    "▁کوو": 10383,
    "بیانی": 10384,
    "▁ویرجین": 10385,
    "حقوقدانان": 10386,
    "▁سفال": 10387,
    "▁پیل": 10388,
    "▁ایوب": 10389,
    "کرون": 10390,
    "کستر": 10391,
    "▁هیپستره": 10392,
    "ناپس": 10393,
    "▁دانستم": 10394,
    "▁هری": 10395,
    "ینک": 10396,
    "ناوب": 10397,
    "سماع": 10398,
    "▁مساعدت": 10399,
    "یدا": 10400,
    "▁بلندتر": 10401,
    "▁دستورات": 10402,
    "▁تراش": 10403,
    "▁آوریم": 10404,
    "▁دیکش": 10405,
    "فرنو": 10406,
    "▁نمودن": 10407,
    "ورگان": 10408,
    "▁دات": 10409,
    "تفکر": 10410,
    "▁ماهیان": 10411,
    "▁سفیدش": 10412,
    "▁فضاپیماها": 10413,
    "▁کیفی": 10414,
    "▁لیر": 10415,
    "اتری": 10416,
    "▁نخوان": 10417,
    "▁تایلندی": 10418,
    "دورا": 10419,
    "▁دوب": 10420,
    "▁اشع": 10421,
    "رشنا": 10422,
    "▁هچ": 10423,
    "گرمی": 10424,
    "استان": 10425,
    "▁دق": 10426,
    "▁نوزدهمی": 10427,
    "یمن": 10428,
    "اندا": 10429,
    "چهارم": 10430,
    "سقف": 10431,
    "▁اپ": 10432,
    "▁آلو": 10433,
    "▁فرام": 10434,
    "مالا": 10435,
    "باری": 10436,
    "▁نواختن": 10437,
    "▁میلو": 10438,
    "▁ناف": 10439,
    "▁فلین": 10440,
    "▁تنی": 10441,
    "خرج": 10442,
    "▁پاتری": 10443,
    "ودن": 10444,
    "چای": 10445,
    "▁ناکار": 10446,
    "▁مزا": 10447,
    "مغان": 10448,
    "▁معت": 10449,
    "رید": 10450,
    "ترونیک": 10451,
    "▁رادیکا": 10452,
    "فور": 10453,
    "وژان": 10454,
    "▁هنک": 10455,
    "چسبند": 10456,
    "▁پریا": 10457,
    "▁دوجا": 10458,
    "▁مستن": 10459,
    "لزم": 10460,
    "▁شهیر": 10461,
    "رجا": 10462,
    "▁سط": 10463,
    "▁وصدا": 10464,
    "یژه": 10465,
    "لیو": 10466,
    "ارمی": 10467,
    "ادبی": 10468,
    "نگار": 10469,
    "▁زیرپا": 10470,
    "▁نظار": 10471,
    "بای": 10472,
    "▁پرداختند": 10473,
    "دآور": 10474,
    "▁پاکس": 10475,
    "پسون": 10476,
    "اطل": 10477,
[...]
